#version: 0.2 - Trained by `huggingface/tokenizers`
Ġ d
Ã ©
e s
Ġ l
e n
o n
Ġ p
Ġd e
Ġ ,
a n
Ġ c
Ġ s
r e
t i
Ġ .
Ġ a
e r
i s
o u
q u
i n
en t
a r
e t
Ġl a
l e
i t
Ġ m
u n
o r
u r
Ġ et
Ġl e
t e
Ġ f
Ġ Ã
ti on
o m
i l
Ġ t
Ġ en
Ã ¨
ĠÃ ł
r a
qu e
Ġd es
Ġ "
r Ã©
Ġ un
Ġ n
u s
a l
m ent
Ġl es
es t
an t
e l
ou r
r i
Ġ -
r o
Ġp ar
Ġd u
Ġ v
Ġ Ã©
an s
on t
a u
c e
Ġa u
Ġ qu
m e
i e
Ġ est
s i
Ġ 1
a tion
c h
a s
r es
o l
Ġd Ã©
n e
a t
Ġc om
Ġ )
Ġ b
Ġ (
Ġ g
v e
Ã© e
s e
c i
Ġ C
a i
a g
Ġ re
Ġc on
Ġd ans
d e
â Ģ
Ġp l
Ġun e
t Ã©
a is
m p
Ġ S
l i
âĢ Ļ
Ġ rÃ©
Ġ M
Ġs e
Ġ Â
Ġp our
o i
Ġ P
Ġ in
a in
Ġqu i
r an
a it
Ġ que
Ġp ro
u l
Ġc h
Ġ B
d i
Ġ L
Ġ e
er s
Ġs ur
a le
it Ã©
l es
o s
p p
a c
u x
Ġ j
a b
u t
Ġ1 9
Ġpl us
el le
Ġ A
f f
Ã¨ re
Ġ r
t re
a m
Ġ 2
Ġ h
ou v
t u
ur s
Ġ il
L e
en d
Ġs u
Ġ :
Ã¨ s
Ġ R
qu es
Ã ª
or t
Ġ o
i g
Ġ F
Ġ G
Ã© s
Ġs on
m i
Ġd i
o t
ve c
v i
un e
Ġ ou
Ã© es
Ġs ont
is t
Ġ T
ai re
il le
Ġa vec
o is
o p
Ġ an
u e
i que
L a
o g
it e
Ġ D
ĠÂ «
E n
on s
i c
u i
g e
ĠÂ »
on n
Ġ2 0
I l
c tion
Ã© ri
Ġp e
Ġp rÃ©
ag e
Ġcom m
Ġe x
p r
Ġp as
Ġt r
Ġp r
Ã© n
in e
c es
p e
ou s
Ġ J
s t
Ġc e
an d
Ġ N
u is
au x
Ġpar ti
Ġs a
t er
Ġn om
L es
or s
et te
m b
ĠÃ© t
Ã© ra
Ġ ra
ent re
i r
Ġ H
Ã §
u re
ti que
o c
ch e
Ġcom p
Ġa l
en s
er t
Ġf or
Ġ V
a p
i v
or d
en ce
Ġt ra
i m
Ġn e
Ġcom me
Ġm o
Ġa v
il l
Ã ´
Ã© t
Ġau x
on d
i on
p h
u b
u m
a d
re mi
is e
Ġde ux
Ġa c
an ce
Ġ te
Ġc ont
b re
a y
Ã© r
t es
m es
i mp
Ġm ais
Ġp remi
Ġa r
a ti
Ġs es
d u
ar d
oi re
Ġt ou
in s
Ġa pp
ation s
oi r
i en
ĠC h
si on
n i
l le
t res
r u
Ġ entre
l Ã©
s ent
a v
er re
ĠÃ© tÃ©
ti n
Ã ¢
te ur
er m
c t
ale ment
Ġcon s
r it
ant s
a ce
p ar
l is
o it
ĠdÃ© c
Ãª me
Ġf ait
Ã ®
ment s
ĠF ran
Ġm ar
Ġ I
pr Ã¨s
our s
Ġd is
Ã© c
i d
Ġ E
ai res
Ã© g
an g
Ġ1 8
Ġc ette
ou ve
Ġg ran
ci p
Ġ20 0
Ã¨ me
Ġm Ãªme
Ġf in
ti f
Ġan n
Ġs t
is te
tu re
Ġ ont
Ġc ar
n es
e x
ain e
Ã© d
ro is
Ã© m
o ci
Ġ20 1
o y
o b
Ġ K
ab le
ĠÃ© c
Ġm on
in si
ĠrÃ© g
in t
Ġf ran
Ġt er
us si
ai ent
p o
Ġd ont
r on
Ġs er
ĠÃ© g
i b
Ġl ui
Ġ imp
tion s
ol og
an te
Ġle ur
el les
al es
u ti
r ou
Ġs ous
Ġnom bre
Ġ ;
Ġc l
si d
ub li
s s
as s
Ã¨ res
al l
Ġ es
c o
ain t
en ne
Ġ %
ĠÃ ª
Ġa ussi
Ġ W
v en
e ur
U n
in g
Ġp o
e c
Ã§ ais
Ġ or
ĠÃª tre
Ã ī
c u
or m
Ġa t
Ġg Ã©n
Ġs i
al is
a te
Ġ elle
Ġp uis
ĠM ar
Ġ ro
end ant
on g
Ġpe u
ol i
Ġal ors
d es
Ġa insi
Ġpe ut
Ġdi ff
t at
Ġf il
e mp
Ġin ter
Ġ O
on ne
le ment
Ã ł
ĠFran ce
Ã ¹
ouv er
Ġpr in
ain s
Ġs y
Ġcomm un
f in
it u
Ġfran Ã§ais
i ci
Ġ ti
Ġp h
i ques
ti tu
ĠÃ©g alement
Ġp os
Ġv ille
m in
Ġc ol
p uis
Ġc es
ĠÃ ī
on c
Ġre c
Ġm il
Ġa d
Ġp erm
itÃ© s
Ġtra v
Ġo Ã¹
a mp
Ġ 3
Ġch e
Ġ y
ie u
Ġm a
Ġj us
uti lis
Ġo b
ra ph
Ġp ers
i er
te ment
ay s
Ġre p
Ġl ors
Ġt h
au t
Ġf ut
us e
ĠgÃ©n Ã©ra
Ġt rois
ĠP ar
Ġ res
C e
t en
Ġte mp
Ġc rÃ©
j et
ĠÃ©t ait
ne ment
om m
ou p
s er
v ent
Ġcomm une
Ġfor m
Ġa m
ti v
en ti
Ġpro p
Ġ19 9
ie urs
Å ĵ
Ġa prÃ¨s
Ġex p
Ġp ubli
our n
D e
Ġtr Ã¨s
l u
Ġn ot
ti ques
Ã© tÃ©
ar i
t a
Ġtr ans
it s
Ġ on
Ġparti e
Ġac c
Ġj e
Ġde r
ag es
Ġse c
ĠdÃ© b
ri v
o pp
ĠS aint
r ent
i re
t h
e au
Ġs p
t s
l Ã¨
Ġcont re
Ã© di
Ġs ou
ĠdÃ© p
Ġc el
u es
Ġe ff
Ã Ģ
D ans
g l
ag ne
ci en
an is
ent s
an n
ti s
Ġau t
is s
el on
Ã© p
ĠL e
l an
Ġpremi er
Ġann Ã©es
Ġp ays
Ã© rÃ©
Ġc ert
Ġcon f
ĠL a
ĠA n
Ġr en
Ġs oci
Ġcon c
a pp
t ra
og raph
E lle
Ġc or
Ġperm et
a re
ur es
b le
ag n
ol u
a Ã®
Ġ utilis
Ġg u
op ul
c ul
Ġde puis
Ġp oli
Ġcon n
Ġplus ieurs
v el
o de
am ment
Ġcon st
or te
Ġpro du
ig n
Ġdi re
Ġder ni
Ġv ers
Ġm e
Ġa b
Ġprin cip
ĠJ e
Ġm an
v er
v is
Ġ 4
Ġg rou
A u
ain es
al itÃ©
qu i
Ġc i
Ġs itu
Ġtou t
Ġpremi Ã¨re
ent e
Ġp opul
ur op
Ġc our
Ġ /
se mb
Ġjus qu
Ġv i
Ġb as
ĠÃ© le
Ġs ans
Ġgran d
Ã ¯
Ġpers onn
Ġa ss
in es
ri b
ce p
r is
Ġ19 8
Ã© v
g es
Ġ1 7
or i
g n
ch er
il les
v es
ri e
at h
o d
C ette
it es
Ġc ap
o le
Ġnot amment
Ġ ans
ĠprÃ© sent
tion n
ch es
ction s
t r
te urs
Ġ '
Ġn Ã©
Ġ 5
Ġav ant
Ġm us
ig ne
Ġm in
Ġn ation
ĠÃ© v
ou t
Ġp er
u d
vi ent
Ã¨ ne
i f
vel opp
Ġl ong
Ġn ouv
Ġdiff Ã©r
er n
co re
a ille
Ġc ent
ie ux
ant es
Ġb ien
elle ment
c l
m an
ĠT h
Ġf on
rÃ© sent
ĠrÃ©g ion
Ġ19 7
y p
0 0
in d
Ġd onn
om p
ĠrÃ© p
ĠdÃ© velopp
on om
ou l
Ã©ri e
f orm
tÃ© s
Ġf ois
at ure
Ġl i
Ġc o
Ġc ul
ist oire
e m
Ã »
ĠdÃ© par
Ġm ont
Ġau tres
Ġque l
Ġn ouve
re r
c c
Ġsu iv
Ġ âĢ
Ġimp ort
Ġc in
Ġs oit
Ġn on
er g
i ch
ouv ent
Ġrep rÃ©sent
si tion
end re
Ġen core
l o
el s
Ġtemp s
Ġo ff
us es
Ġs c
a z
ist es
Ġre l
ti ve
om b
Ġp ouv
Ġj ou
Ġf ond
tat s
Ġd onc
Ġpro f
Ġle urs
ĠA l
Ġpar t
se ment
Ġm ort
Ġc as
f ois
li g
Ġgrou pe
en n
i es
Ġd ro
Ġ ent
Ġn i
u v
on e
ĠJe an
f ic
Ġ ri
ĠPar is
ĠG u
i Ã¨me
Ġmo d
ĠdÃ© m
om me
a teur
P ar
v ers
Ġ19 6
Ġm Ã©t
Ġde v
Ġs ol
Ġmo ins
Ġf aire
Ġj u
an c
op h
olog ie
mb re
O n
Ãª te
A n
Ġ 6
g anis
Ġf a
l er
p i
l s
Ġra pp
Ġgran de
U ne
Ġfil m
ĠrÃ© s
Ġqu at
Ġd om
Ġpe ti
Ġr om
Ġf am
s ance
Ġpl ace
Ġp ort
ĠdÃ© f
o se
ou te
au tres
Ġre mp
ri m
Ġconst ru
Ã©ri c
ĠdÃ©b ut
Ġe mp
Ġin s
Ġes p
Ġt ous
Ġparti r
Ġapp ar
ĠÃ© p
Ġv ie
Ġv is
Ġav ait
Ġcons titu
ch Ã©
Ġa ff
Ġ z
Ġ Y
iv ers
at s
Ġp Ã©ri
Ġsu ite
Ã´ le
Ġter rit
il i
ro p
a de
Ġmon de
Ġparti cu
Ġapp el
Ġcon sid
Ġex emp
ĠprÃ© sid
Ġgu erre
Ġm al
Ġl ieu
Ġcel ui
ĠprÃ© c
P our
Ġfor me
li er
Ã© lÃ©
vi ron
ĠrÃ© f
Ġs Ã©
is me
Ġth Ã©
il s
Ġg ouver
Ġl ang
ri c
Ġd ur
a que
Ġc ours
re t
Ġp i
Ġch ar
e u
ra m
Ġ Un
i ti
Ġc elle
Ġl Ã©g
on de
Ġpo int
ab les
i x
Ġr est
Ġv er
Ġc ou
as se
Ġ1 6
Ġs elon
l us
Ġser vi
Ġm at
Ġpoli tique
Ġc a
Q u
Ġav oir
ex p
ĠrÃ© alis
Ġl oc
Ã©ra tion
Ġsu d
po que
Ġn ord
Ġin d
rÃ© e
Åĵ uv
Ġa g
Ġm en
ĠÃī tats
Ġin f
Ġh ab
Ġin di
Ġ1 5
Ġnouve au
Ġcomp os
Ġsy st
ci d
p endant
Ġro i
s u
i ons
ti c
Ġpro g
Ġ U
Ġpas s
en ces
Ġ19 4
Ġpubli c
ac c
ograph ie
Ġs ouvent
Ġil s
Ġa s
Ġc Ã´
Ġ 7
Ġeff et
Ã© l
Ġt our
u g
t ant
Ġn ature
Ġc an
Ġtou te
m Ã©e
Ġ k
ais on
Ġn o
us t
Ġsu p
ra tion
a h
Ġp res
tÃ© g
Ġ Z
m and
us s
olu tion
Ġ 8
ent es
en se
Ġ19 5
as si
si ons
it er
u le
ĠA r
Ġexemp le
I n
Ġm et
Ġnombre ux
our g
li c
Ġquel ques
Ġre m
ĠfranÃ§ais e
Ġmo y
f i
Ġv ol
l les
Ġfon ction
e ment
semb le
Ġquat re
Ġma j
ĠdÃ©par tement
Ġf er
Ġm is
a k
Ġ im
Ġin c
Ġcom pr
Ã¨ rent
ĠgÃ©nÃ©ra l
Ã© ci
ĠCh ar
el l
Ġb i
n ation
Ġm es
rÃ© s
ĠÃ© tu
Ġpopul ation
ar t
ati ve
Ġsu b
an ces
ĠI n
ti ent
Ġau tre
u c
Ġg ra
y n
ri Ã¨re
rib u
ĠdÃ© fin
te l
ti er
it aire
r Ãª
ur ent
Ġde vient
A prÃ¨s
t ent
Ġo c
Ġb at
Ġsi Ã¨
Ã¨re ment
Ġdes s
ri que
Ġp endant
Ġin st
f s
ces s
Ġsp Ã©ci
Ġcont ra
ro s
z e
Ġam Ã©ric
Ġl ib
Ġpro b
ti e
our d
Ġpouv oir
a ur
Ġnouv elle
ac t
Ġpl an
C es
ri g
min ist
ot h
a tique
ate urs
aÃ® t
is on
is es
ig ine
Ġ ouv
le x
a il
o h
A r
a vi
g ne
ist or
au l
Ġ1 0
Ġpeu vent
Ġsu cc
Ġ19 3
Ã¨ de
Ġ 9
Ġ >
ran d
Ġcomm er
o v
o re
t on
Ġf em
Ġcert ains
ĠdÃ©c l
il itÃ©
ĠÃ©t ant
urop Ã©
Ġfam ille
ien ne
Ġg r
y ant
Ġre pr
ĠdÃ© s
Ġf r
ĠP i
Ġmil li
Ġcon tin
Ġte ch
Ġd ou
ĠdÃ© si
Ġmon di
Ġsyst Ã¨me
Ġsu pp
an de
cu p
Ġd oit
an ge
ĠL ou
g u
a ch
v in
Ġr ou
Ġderni er
Ġp ri
au me
Ġc al
Ġcom b
Ġch amp
Ġpos s
Ġtr ouve
en c
Ġro y
Ġp ra
Ġ1 2
Ġl im
Ġo p
ĠpÃ©ri ode
tÃ© ri
Ġ X
am b
Ġc entre
Ġpro jet
qu er
en ant
ĠÃ©t aient
ĠrÃ© c
Ġti tre
Ãī tat
ol es
Ġterrit oire
Ġres te
Ġgouver nement
oi res
ĠC ar
Ġde ven
ĠrÃ© v
A l
ort s
Ġfil s
ĠUn is
ul a
ur b
r y
j ours
ĠC l
Ġni ve
Ġpr Ã¨s
Ġre t
p s
ĠM ont
S on
Ġ id
Ã´ t
Ġsoci Ã©tÃ©
Ġe uropÃ©
h e
ra it
Ġc ri
l ise
es se
Ġl iv
ser v
urop e
o x
ra ge
Ãª tre
Ġd ist
enn ent
or igine
al i
Ġa ur
Ġre f
Ġat t
M ais
Ġs Ã©rie
Ġoff ici
Ġcomp te
ti t
et s
qui pe
i ent
h ui
su ite
Ġse p
Ġcommun es
Ã© li
Ġm ois
Ġcul ture
Ġv ic
Ġs al
Ġv ari
ĠS e
m is
Ġre tr
om e
Ġt ot
Ġen f
un i
D es
Ġse ul
is tre
Ġl it
Ġcap it
an e
ĠI I
Ġche z
c s
pe ct
ĠÃ©c onom
Ġor ganis
ri p
il es
se au
ĠR e
Ġt ourn
Ġdis p
Ġt ard
ol l
m Ã©
Ġhab it
Ġm Ã©
Ġinter nation
ĠprÃ©sid ent
Il s
Ġen viron
Ġre g
Ġl og
ais sance
ran g
a x
Ã¨ le
Ġm ot
Ġa fin
ĠÃ©c rit
er ie
tif s
Ġch aque
or is
Ġes s
a Ã¯
ui re
Ã¢ te
a me
Ġ19 2
p es
Ġl igne
po se
ais e
Ġd Ã¨s
Ġ1 4
o ie
Ġtou jours
ĠP h
Ġf l
oi x
u it
i Ã¨re
c ont
ar ch
er v
b les
a ill
ĠLou is
b e
te mp
Ġpos si
ĠC on
Ġh om
Ġa yant
Ġcon se
Ġc ant
Ġm Ã©di
Ã¨ ces
ann Ã©e
l ie
ĠÃ©le ct
Ġc amp
en nes
j ourd
Ġnombre uses
Ġ1 3
on es
Ã© tique
Ġj our
Ġ1 1
Ġsec ond
as t
Ġl ar
ĠN e
Ġv ill
c ture
Ġr Ã´le
er ne
Ġb eau
er a
Åĵuv re
l ac
S elon
Ġal le
Ã© le
Ġp ol
in ter
an ti
on y
Ġnive au
Ġ ord
que l
Ġtra di
qu Ã©
Ġtou tes
au d
Ġs ig
b um
Ã¢ ce
s ence
mb res
Ġre lig
di c
Ã© b
a ff
y s
Ġg Ã©
Ġform ula
Ã¨ te
or itÃ©
Ġter me
h istoire
er c
si onn
Ã¨ se
ĠS t
Ġg ar
Ġc oup
cid ent
Ġdur ant
Ġen suite
Ġs or
Ġp at
Ġ19 1
Ġdire c
o in
Ġann Ã©e
du it
Ġc ir
Ã© qu
Ġm ouve
l and
k i
o w
Ġc ad
ĠdÃ©velopp ement
y pe
Ġp Ã¨re
Ġpar fois
Ġt ant
Ġr Ã¨
o te
Ġqu ar
Ġcin q
ĠÃ© ch
Ġs imp
a di
ĠD e
Ġpl u
Ġren cont
Ġre cher
ĠPi erre
Ġh um
g rÃ©
Ġser a
Ġac tu
Ġt Ã©lÃ©
Ġj ourn
Ġre Ã§
man de
i a
Ġtrav ers
y c
Ġan gl
ĠL es
ĠJ ac
Ġb r
Ġcol le
Ġf ace
au tÃ©
in st
Ġb ou
an ci
Ã© poque
Ġce ux
Ġl oi
Ġpremi ers
Ġf ra
Ġnation al
au v
Ġsucc Ã¨s
res sion
c oup
Ġje u
ul es
Ġat te
ti en
y d
Ġs cien
Ġbas e
au tre
Ġsitu Ã©e
ĠÃ© lÃ©
ĠN ord
es p
Ã§ on
vis ion
Ġme mbres
Ġad minist
Ġrec onn
Ġlang ue
Ġrapp ort
olog ique
Ġj ours
Ġse mb
L ors
Ġcl ub
Ġm uni
s p
Ġr end
Ġte x
Ġs our
tiv itÃ©
ĠnÃ© cess
Ġparticu li
Ġd oc
it h
p ond
ĠC or
ĠA m
ĠÃ©t ab
Ġpr end
u li
Ġs ign
c rip
ve ment
Ġsy n
ĠS h
Ġor ig
Ġan ci
Ġc ro
Ġan cien
l Ã©e
Ã©ri que
Ġt en
Ġv a
Ã¨ ce
Ġb ar
is se
Ġgr Ã¢ce
Ġd it
Ġra ison
es tion
ac tÃ©
Ġprodu ction
tÃ©ri eur
Ġche f
Ġdro it
Ġpeu p
il li
t ru
Ġc et
Ġconsid Ã©rÃ©
que lle
ri er
ĠdÃ© j
Ġc li
Ã¢te au
Ġdeux iÃ¨me
it al
g ment
Ġau c
Ġc at
Ġcor ps
Ġla quelle
Ġmondi ale
Ġnation ale
Ġf ont
ille urs
Ġpersonn es
y si
Ġtrans p
Ġass oci
ac tion
de ment
tÃ© ra
Ã©r ence
Ġ Qu
Ġdi vers
Ġs ens
ar s
l ant
Ġp riv
Ġf ais
res pond
ci pe
l ace
Ġcent ra
Ġlar ge
o ins
ĠprÃ© f
Ġcont r
Ġau jourd
Ã© ch
Ã© ro
i tion
or ie
Ġp orte
Ġse u
e ff
Ġc r
Ġv iv
Ġcor respond
Ġsi x
Ġparticu lier
t out
ai r
po sition
Ġv oit
Ġparti cip
Ġtrav ail
Ġdis tin
ap on
Ã» t
or me
Ġh istor
o ine
Ġm ise
par t
Ġh au
ĠcrÃ© ation
Ġt ype
ra s
Ġtech n
ĠdÃ©j Ãł
Ġpro c
Ġprog ram
pe c
Ġt erm
o k
re c
Ġsig ni
ou se
Ġbeau coup
ag it
es s
u p
Ġ 0
le ur
Ġsur tout
Ġra pi
ĠChar les
Ġex iste
v o
Ġmuni cip
A insi
Ġservi ce
Ġv oy
Ġb Ã¢
Ġprop ri
ĠC an
ri ce
Ġeff ec
x im
ic ation
Ġcant on
Ce pendant
Ġf rÃ©
Ã¨ mes
Ġv ale
ĠB ar
Ġce pendant
ĠG e
ind re
Ġc ath
al iste
Ġconstru ction
ti Ã¨re
ĠrÃ©s ul
oc k
is sion
O r
j o
Ġs aison
Ã© ment
ni ques
Ġprop os
i me
en semble
ubli que
Ġcert aines
li que
s on
ati ques
g Ã©
t al
l a
e re
Ġm er
ĠS ud
on ie
and is
oc ra
in f
Ã© ti
Ġhabit ants
Ġgrand s
Ġplu part
Ġf urent
Ã¨ nes
Ġsu c
Ã¨ tres
ĠrÃ© seau
Ġf ort
us ion
Ġm ul
Ġd onne
Ġch i
ĠprÃ©sent e
Ġ elles
2 0
Ã© lÃ¨
Ġse in
v al
Ġcar actÃ©
C h
Ġret our
u te
j ec
De puis
Ġjou e
on ce
Ġb ut
oi gn
Ġv e
Ġpar c
Ã§ ois
Åĵ ur
ĠV al
al if
Ġf ac
ĠdiffÃ©r ents
c a
ĠGu erre
Ġt Ãªte
is ation
y th
Ġb lan
Ġaur ait
i le
Ġseu lement
it aires
Ġlong ue
Ġin t
in c
ar g
ar mÃ©e
ti ers
Ġc rois
Ġf ig
ĠG rand
ĠgÃ©nÃ©ra lement
Ã «
Ġim m
ĠB r
Ġman iÃ¨re
Ġhom mes
un es
Ġg en
end ance
Ġaut our
i onn
i ce
u el
ĠM ich
i ers
Ġentre pr
Ġorig in
Ġf ai
Ġdev ant
cep tion
m agne
Ġutilis Ã©
Ġcl assi
qu ent
n Ã©
Ġ19 0
Ġan im
ur g
S i
res s
ra Ã®
Ġpro t
Ġs ite
y l
Ġre v
ci de
Ġe ux
Ġt andis
du c
Ġpri x
Ġmus ique
Ġmouve ment
ra in
is sement
H istoire
Ġdis c
du ction
Ġet c
Ġ w
able ment
Ġb ois
ique ment
en g
ust ri
ĠR oy
Ġ urb
Ġst at
Ġcons erv
Ġst ru
u mi
ĠdÃ©si gn
ivers itÃ©
Ġprop re
ĠdiffÃ©r entes
P lus
Ġch Ã¢teau
ĠdÃ©c ouv
re g
av ant
Ġpar mi
al itÃ©s
Ġje une
Ã©ri eur
Ġprodu it
Ġalle mand
ĠJ oh
Ġcon di
Ġdi x
v ant
Ġp or
Ġpr om
m er
Ġlit tÃ©ra
Ġpro vin
Ġca use
Ã© tu
Ġcommer ci
ĠP l
ati f
Ġ us
pp e
S a
Ġm or
Ġenf ants
Ġz one
g ue
Ġl et
mp ire
Ġre ven
Ġvic t
Ġm om
Ġch er
ac es
ĠP ro
Ã©c u
ĠdÃ© n
Ġdes tin
Ġf eu
l it
r ant
Ġvill age
Ġen v
Ġmil ieu
Ġph il
Ġh aut
Ġv oir
Ġimport ant
Ġcon d
Ã©n Ã©
ass in
Ġo pp
onom ie
ab ord
Ġtrav aux
ĠcÃ´ tÃ©
Ġpr is
Ġph ysi
ĠFran Ã§ois
Ġ <
ord re
Ġrom an
Ġgran des
Ġp al
ou d
o ch
Ġpeti t
v oir
Ġ201 0
titu de
Ġpas se
di o
ill et
ĠB el
y m
Ġver sion
ĠR Ã©p
Ġmar i
l ab
qu Ã©e
Ġat ta
Ġmilli ons
tiv itÃ©s
Ġv illes
Ġderni Ã¨re
os oph
is l
in te
ĠprÃ© sence
Ġ iss
ĠcaractÃ© ris
Ġj am
or ation
lle magne
is c
t ation
rÃª t
o des
ĠÃ©conom ique
Ã® le
u f
Ġt rop
ĠTh e
i ens
Ġmil itaire
au che
a pe
Ġconn u
Ġtrois iÃ¨me
y le
Ġv en
Ġcel a
Ġm ati
Ġsu ff
Ġprincip alement
ĠC ol
k e
mi que
en si
aÃ® tre
Ġn Ã©g
ĠsiÃ¨ c
Ġm ag
Ġjam ais
r ont
Ġimport ante
s y
ĠâĢ ĵ
o sition
Ġen g
h i
ĠbÃ¢ ti
Ġmoy enne
Ã©r it
Ġme ille
tive ment
Ġmin istre
Ġdis par
ais s
Ġb rit
Ġmes ure
er b
an ique
Ġmul ti
temp s
ib le
Ġpremi Ã¨res
Ã©v olution
Ġsu jet
ĠR ob
Ġ200 0
Ġser ait
n er
ur ant
u ment
fic ation
Ġa illeurs
us se
ro g
Ġpossi ble
Ġt omb
ois e
Ġin tÃ©
I I
Ġqu it
Ġvi ol
Ġemp l
Ġs ort
Ġd ate
l in
Ã©m a
e ux
Ġle quel
l oit
Ã¢ tre
ĠâĢ ¦
Ġn um
ĠÃ© di
i di
u ve
vi er
Ġsur f
E urope
Ġ18 9
y mp
Ġposs Ã¨de
en ri
os s
ĠmÃ©t h
ĠÃ©le v
Ġcl ass
Ġmat Ã©ri
Ġma Ã®
tiv es
Ġreg rou
ĠP aul
Ġnouv elles
Ġcad re
Ġcommun autÃ©
ti l
crip tion
Ġm ai
Ġl Ãł
Ġou est
Ġes ti
ĠRÃ©p ublique
m ment
Ġdom aine
Ġ ]
Ġadminist ra
Ġcomb at
a prÃ¨s
Ã© on
Ġind ustri
ter n
ĠâĢ Ķ
Ġob ten
al y
r in
h ab
Ġmais on
c rit
Ġphil osoph
r Ã¨s
Ġacc ue
Ġt u
Ġse ule
Ġfa Ã§on
ĠNe w
Ġmo di
or ganis
Ġt aux
v re
Ġch ange
Ġnom mÃ©
Ġc elles
m en
ĠS ch
qu ant
Ġt ent
Ġm Ã¨re
at oire
alis ation
Ġcent er
ert s
Ġmom ent
Ġun ivers
ard s
et tes
b res
Ġpoli tiques
Ġ201 5
Ġrecher che
Ġfem me
i de
Ġde mande
Ġ Q
Ã© quipe
Ġbat aille
lu ence
Ġscien tif
Ġt erre
Ġg rec
Ġf av
C ert
ĠÃ© poque
Ġ18 7
ven tion
in Ã©
Ġsuc ces
tal ie
ĠGe or
Ġsc Ã¨ne
Ġesp Ã¨ces
Ġangl ais
m at
Ġper d
Ġal bum
Ġsitu Ã©
Ġpo sition
Ġl ig
v ille
Ġsy mb
in ation
Ãª t
ĠC omm
Ġin iti
Ġ18 8
as e
Ġlors que
Ġqu and
Ġf ille
Ġliv re
ĠM e
ĠJac ques
an i
Ġess enti
Ġt yp
Ġch ap
ĠsiÃ¨ ge
ĠÃ ¢
Ġ200 7
Ġform ation
ere ur
Ġcolle c
an o
en de
Ġau gment
Ġacc ord
Ġn ous
Ġcol on
ĠC ons
oup es
Ġremp lac
Ġf aut
Ġr is
Ġsec onde
o ff
Ġm Ãª
c k
C el
Ġpra tique
Ġr ue
Ġcomm ence
Ġm Ã©c
ĠMar ie
Ã´ ne
anis me
Ġm ain
o vi
gl et
olog iques
Ġparticuli Ã¨rement
Ġcar act
Ġ200 8
ĠJoh n
ĠprÃ©c Ã©d
Ġb l
ĠÃ©tu di
Ġoc cup
Ġch ois
Ġappel Ã©
Ġte ls
Ġv ue
tic le
ĠrÃ© un
Ġmat ch
ati ves
qu is
tÃ© es
Ã©g lise
Ġb ord
ouver te
id Ã©
ul aire
Ã©t ait
Ġ18 6
le urs
t or
S ur
A s
Ġar ch
ab ilitÃ©
ar m
Ġcomp agn
ĠM an
Ġ [
glet erre
Ġsemb le
Ġo f
ĠP e
Ġg l
Ġdire ction
or k
Ġtr ouv
A ut
ad es
Ġrapi dement
Ġg auche
Ġprof es
Ġ199 0
Ġe u
Ġp u
ou pe
ici le
ĠPh ili
ĠrÃ© par
ĠprÃ© v
se z
Ġ En
d uire
Ġfem mes
Ġl iste
ing t
Ġp ens
ĠrÃ¨ g
Ġgrou pes
Ġf ab
di d
Ġs us
Ġd at
ĠR en
is ion
on te
ous s
a j
co le
i ra
Ġtr oupes
ĠB ret
Ġeffec tu
ite ment
Ġ Åĵuvre
Ġcapit ale
Ġconse il
Ġ uti
Ġpeti te
form ation
ĠE urope
Ġs au
p l
rÃ© es
ĠÃ© m
ĠÃ© qu
d s
Ġretr ouve
Ġt able
o Ã»t
all Ã©e
Ġrencont re
Ġfin ale
Ġent raÃ®
ro ph
a si
Ġsitu ation
Ġ201 4
Ġsuiv ant
Ġdonn Ã©
oi ent
Ġtradi tionn
Ġcontin u
ĠB e
ĠAn d
sy ch
ay e
os Ã©
Ã© rer
Ġcontr Ã´le
Ġr oute
ograph ique
Ġph Ã©n
ter min
Ġsep t
Ġqu alif
Ġex ist
Ġ =
Ġtrans f
ol ique
Ġm eur
Ġ17 9
Ġa li
r ite
ati s
Ġme mbre
oi vent
Ġc Ã©lÃ¨
ĠamÃ©ric ain
Ġconc ern
Ġm oi
Ġind Ã©p
ĠP remi
ĠÃ©le ctions
Åĵuv res
al le
Ġan ti
Ġvale ur
ar es
ĠrÃ©g ions
Ġcons ac
Ġch ans
Ġpro che
Ġsuiv ante
ĠcrÃ© Ã©
omp agn
Ġpl ut
Ġres s
A vec
Ġas sez
Ġres p
is sent
b ert
Ġm aint
l or
S es
ĠÃ© qui
erg ie
ĠS ec
Ġla tin
Ġcomm and
Ġcar riÃ¨re
ĠÃ© n
at t
Ġtemp Ã©ra
ob jet
Ġst yle
aille urs
ra g
Ġdro ite
Ġservi ces
res si
ĠG ran
as c
ur Ã©
Ġv ingt
se il
oy en
Ġph ot
in tÃ©
si tions
ar a
Ġfr Ã¨re
an ne
ĠrÃ© sid
de c
ĠÃ©t rang
Ġfin alement
ĠdÃ©fin i
Ġt ri
ĠeuropÃ© enne
Ġpoint s
en viron
lic ation
Ġin tÃ©g
Ġpropri Ã©tÃ©
ra ges
f rique
i o
Ġre jo
Ġ200 6
Ġa j
Ã ¡
ci ence
r om
Ġ is
Ġav aient
Ġprodu its
ou est
Ġnouve aux
o z
Ġterm in
Ġs aint
Ã©rie ure
r ans
se ur
al og
ĠdÃ©m ocra
i Ã©
Ġ200 4
Ġcons Ã©qu
an m
ĠÃ©lÃ© ments
ti Ã©
Ġpr endre
ĠR ome
Ġv al
ad a
Ġb Ã©nÃ©
Ġresp ons
Ġ201 2
Ġpro vo
Ġz ones
Ġt rib
ĠdÃ© g
Ġmaj oritÃ©
Ġfilm s
Ġse m
Ġpro te
Ġ198 0
Ġmulti p
ac itÃ©
ri ch
h a
Ġ200 9
Ġplut Ã´t
A m
Ġmod Ã¨le
ĠÃ©tu des
ar c
ĠR h
Ġdonn Ã©es
v a
Ġor ient
f ie
Ġanci enne
Ġroy aume
Ġpermet tant
m a
ot te
anm oins
Ġpers onne
ĠthÃ© orie
ĠM or
Ġprincip al
ain te
Ġcomp lex
Ġcan did
Ġ18 5
lÃ© ment
b ilitÃ©
orm ais
ĠCon seil
Ġen semble
Ġh uit
ig nement
a illes
Ġpl ac
ill er
ĠMich el
ant Ã©
u ments
ann ique
Ġse igne
Ġp sych
Ġl ut
ur itÃ©
Ġtrav aill
ĠC om
l ent
i k
ĠN o
Ġmar que
ĠsÃ© par
Ġf Ã©d
iss ant
Ġ18 4
riv Ã©e
a ie
Ġ3 0
ri ge
Ġc it
Ġsurf ace
Ġcompos Ã©
Ġpe in
p rÃ©
Ġfor mes
Ġf ix
ĠÃ© quipe
ĠrÃ©f Ã©rence
Ġsup er
Ġad op
Ġfor te
ĠR ou
Ġob jet
Ġgen re
d it
Ġ200 5
Ã¨ ve
Ġs Ã©c
Ġmet tre
Ã¢ ge
Ġn orm
Ġcin Ã©ma
E mpire
Ġpopul aire
Ġfai ble
Ġp ot
i vi
Ġch rÃ©
Ġmar chÃ©
Ġch ac
ag er
Ġd yn
Ġquar tier
d er
Ġtransp ort
Ġc iv
ai x
Ġ2 5
ĠrÃ©g uli
in i
a e
en ir
Ġo ct
Ġdu c
eur es
g an
r il
Ġfais ant
Ġp le
Ġb an
Ġprogram me
ro che
id es
Ġ197 0
Ġch aÃ®
ait e
Ġcompr end
Ġtra itÃ©
Ġju in
Ġs ac
st es
lan de
ĠI s
alis me
h omme
Ġin form
Ġman if
Ġj ur
y on
Ġrem ar
ĠL oire
t ures
ab b
Ġlang ues
b ourg
al istes
Ġ ?
Ġdro its
Ġl anc
Ġst ation
c ad
ĠCh ine
ĠmÃ© dec
Ġvol ont
Ġad ap
r ond
Ġprincip aux
ĠD i
Ġ201 7
Ġt Ã©m
Ġc itÃ©
est re
an cien
sp agne
o ot
ĠmÃª mes
c teur
Ã©m ie
Ġop Ã©ra
Ġl ance
Ġac cep
Ġv oie
Ã©ra l
Ġ201 1
Ġ +
Ġob tient
Ġs im
ex ist
a ci
Ġde mand
Ġs pect
e ct
Ġprofes sionn
ĠphÃ©n om
ĠdÃ© cide
Ġb on
ai de
C omme
an a
en f
Ġli bre
ĠdÃ© rou
ĠdÃ©s ormais
ĠB er
Ġindi vi
Ġt aille
Ġcondi tions
ĠC our
Ġf ourn
Ġqu estion
Ġvict oire
t an
Ġpubli Ã©
Ġje unes
Ġ18 3
Ġv ites
ti enne
ti ne
Ġres pec
Ġal li
Ġh omme
te mbre
ĠB as
ĠdÃ©par t
Ġsimp le
ĠRob ert
ra t
Ġtot al
Ġv it
Ġdi vis
Ã¨ tre
Ġcons omm
ĠBret agne
ĠÃ ®
ĠgÃ©nÃ©ra le
Ġen d
Ġpar ois
ĠrÃ©s ist
Ġbrit annique
Ġles que
ĠG r
Ġcon cep
au te
Ġar m
gl ise
ve ur
Ã©m in
ĠreÃ§ oit
imp ort
Ġmoy en
ne ments
ard in
u tÃ©
b all
Ġcomm enc
Ġpr ise
Ã ¼
ĠM al
Ġv oix
Ġen reg
Ġju illet
ĠdÃ© termin
Ġvoy age
Ġpersonn age
Ġsep tembre
Ġauc une
Ġatte int
Ġ Åĵuvres
g er
Un ion
Ġvi ent
Ġfin anci
Ġren f
ri ve
Ġv ra
Ġchar ge
Ġdess in
Ġp Ã©n
ĠdÃ© ce
Â »
Ġcamp agne
Ġdi rige
a w
ative ment
iv er
le y
Ġj an
Ġar tis
ĠJ apon
Ġexp Ã©ri
Ġe mb
o bre
Ġpos te
Ġn oir
onn es
Ġ201 6
e mb
ĠPar ti
ĠN ic
G Ã©
ĠrÃ©g ime
Ġhistor ique
ĠA d
Ġf ron
Ġcat Ã©g
Ġcompagn ie
Ġ ital
Ġv ois
Ġmar s
Ġaff ir
Ġpass age
o Ã¯
Ġp ie
res se
ĠH e
Ġde l
Ġc ouv
Ġdes c
o di
Ġsup Ã©rieur
Ġp ont
Ġsour ce
ĠM on
Ġcri tique
Ġstru cture
Ã¨ ge
un iversitÃ©
i ographie
ĠS al
ĠdÃ©cl ar
ĠT erre
Ġmoi tiÃ©
ĠH enri
Ġ âĢĻ
Ġd oivent
r ist
Ã´ me
Ġmal grÃ©
Ġm aire
Ġfor ce
Ġprovin ce
ĠC al
os er
ĠÃ© lu
rim oine
semb lÃ©e
Ġ201 3
ĠPhili ppe
Ġcommer ce
Ġinternation al
Ġapp r
ĠP ays
Ġn av
Ġprin cipe
Ġ196 0
Ġlig nes
Ġpubli que
ne ur
ĠamÃ©ric aine
ĠsÃ© le
a ment
Ġdi rig
Ġoc cident
Ġ ant
Ġdiff ic
ib li
oc cup
Ã¨ les
au de
ort h
Ġac tivitÃ©s
Ġte l
Ã ¶
ri cul
Ã§ ant
ĠSe ine
Ġjan vier
ri r
am bre
Ġv Ã©rit
Ġtechn ique
ĠR uss
Ġmod erne
or n
or de
ĠÃ© l
ĠA b
Ġ200 3
Ã¨ que
Ġre d
end u
Ġra c
Ġob serv
Ġsor ti
in di
ĠMar c
ais sent
b es
u elle
Ġse x
vi ennent
ust rie
Ġau prÃ¨s
Ġtoute fois
it ation
Ġref us
Ġfor ces
Ġsor tie
Ġempl oy
ig ue
es ti
Ġmus ic
ĠdÃ©ce mbre
Ã©c ole
e b
Ġmar ch
Ġcl asse
Ġtex te
Ġa mi
Ġpres que
Ġmont re
oci ation
ol d
Ġauc un
ra d
ĠG ar
f ique
Ġappar aÃ®t
Ġab and
e ure
k a
Ġri vi
Ġqu alitÃ©
ĠS p
Ġ20 20
ĠrÃ¨ gne
Ġrou ge
aly se
Ġa p
ert es
Ġen ti
Ġderni ers
Ġn aissance
ouver ture
op ony
ĠthÃ© Ã¢tre
Ġter res
h um
Ġpermet tent
en tif
ĠlÃ©g isl
Ġdess us
os ph
ĠreprÃ©sent e
Ġch in
Ġlors qu
oi le
Ġparti s
Par mi
Ġcont ribu
Ġpuis s
age ment
Ġaut or
ĠdÃ© ta
ti ce
Ġou tre
i p
al bum
c teurs
Ġde mi
l on
ĠII I
ang er
ĠR om
Ġstat ut
Ġutilis Ã©e
ĠY ork
Ġproc Ã©d
Ã©di tion
ubli c
ĠL ond
Ġcour ant
Ġinternation ale
Ġmeur t
ou x
re ment
ĠdÃ©f ense
Ġvites se
D Ã¨s
qu Ãªte
ĠGran de
T oute
Ġpro pose
ĠÃ©p ouse
ĠdÃ©c rit
Ġpl ate
l Ã¨me
Ġ200 2
at ur
Ãī glise
ĠsiÃ¨c le
pr ise
Ġessenti ellement
Ġm Ã©d
Ġg al
Ġ !
Ġcal cul
ou n
Ġ199 9
Ġre tra
Ġtech niques
l y
Ġ201 8
av oir
B ien
C et
Ġann once
Ġl ois
Ġdist ribu
ĠO r
Ġ ol
Ġpour rait
titu tion
Ġ2 1
us tra
gl om
Ġla b
Ġnom s
minist ration
Ġre li
emp ereur
g ique
ĠÃ©tab lis
ĠP al
Ġra t
Ġb es
Ġinst ru
Ġdis pose
se ments
c te
Ġpuis sance
et h
Ġphysi que
Ġcontra ire
Ġ ir
Ġg az
ar itÃ©
i res
Ġm Ã©m
ĠfrÃ© qu
Ġcond am
ri ct
Ġd ra
Ãª que
B iographie
M al
at ta
Ġra is
Ġcert ain
Ġanci ens
ra le
Ġcon temp
Ã©t at
m atique
ais se
Ġcom te
Ġcomm ande
ite ur
Ġcomp Ã©ti
Ġje ux
ĠD ieu
Ġ200 1
Ġc Ã©rÃ©
au g
ĠF er
A llemagne
lex and
jec tif
Cert ains
ĠnÃ©cess aire
ch et
h an
u est
Ġappel Ã©e
ĠprÃ©c is
enti el
ĠH ar
tel l
Ġpeup le
te x
Ġf it
Ġmil itaires
E x
Ġprincip ales
Ġpro tÃ©g
Ġaut om
Ġdom in
le v
Ġcomp ar
Ġinst all
D urant
fic ie
Ġsp or
Ġche min
Ġm ath
Ġk il
En fin
Ġparti cipe
ni es
Ġg are
s es
E lles
ri ques
Ġfon ctions
Ġconstitu e
Ġst ra
Ġrel ations
Ġcentra le
or c
Ġconstru it
Ġpr on
Ġchamp ionn
esp ace
ĠcÃ©lÃ¨ bre
Ġex c
oc ca
Ġclassi que
as te
Ġdirec tement
ct ures
Ã© h
d uis
Ġcaract Ã¨re
P endant
Ã« l
Ġsou ten
Ã©r ant
Ġprog ressi
Ġatt ribu
or mes
al d
Ġmati Ã¨re
Ġ18 1
utilis ation
Ġsou h
tiv al
Ġparti es
ure r
Ġcol lab
ĠG en
ĠR o
f ier
Ġch oix
Ġp ub
Ġ5 0
id Ã©e
Ġdonn er
Ġv allÃ©e
ĠN ouv
Ġe aux
Ġsol d
Ĥ ge
Ġchi ff
ĠÃ©v o
lace ment
ĠFran Ã§ais
Ġcir c
ve mbre
organis ation
an ie
Ġdi pl
Ġpeti ts
Ġsa voir
Ãª tes
Ġprob ablement
Ġtradi tion
ic k
ĠRoy aume
Ġfran c
a f
ra l
Ãª che
Ġsec teur
Ġcir cul
Ġdiff us
u y
Ġm yth
ĠL i
che v
J e
ot s
ĠB l
les s
Ġm and
il is
ĠdÃ©p end
Ġh eures
Ġconf ir
Ġ18 0
ĠP er
c tu
ĠcrÃ© Ã©e
En tre
Ġj apon
Ġmo de
Ġno vembre
Ġmath Ã©m
lÃ¨ mes
Ġdeven ir
Ġesp agn
Ġrom aine
or Ã©
Ġm asse
Ġ2 4
occa sion
e ction
ti qu
Ġv oire
ĠB ern
Ġlong temps
Ġseigne ur
Ġob lig
Ġc ode
Ġs omm
ĠSec onde
ĠJ ose
l et
ent rÃ©e
Ã© ros
Ġf us
rÃ© t
ĠM oyen
Ġ i
Ġpersonn ages
Ġla c
es tival
Ġcontemp or
Plus ieurs
ĠS u
Ġoct obre
Ġs ouver
Ġp il
Ġmaj or
Ġuti lise
Ġn avi
Ġpi Ã¨ces
Ġlib er
am es
Ġprincip ale
pr it
Ġmus Ã©e
Ġp rim
Ġtrans form
an im
Ġprote ction
oi es
ĠCh amp
m ar
n ent
Ã©n ergie
Ġcomp lÃ¨
ut es
ĠB en
or tÃ©
Ġdou ble
ap tis
ul ation
oot ball
Ġali ment
Ġen c
ĠS ar
onn Ã©
Ġint ro
Ġm assi
re ux
al ise
Ġdi vision
ĠtempÃ©ra ture
ĠC ap
ais ons
Ġconn aÃ®t
Ġgu er
Ġen se
rit ure
y r
os si
GÃ© ographie
ĠR ich
Ġcher che
Ġdeven u
Ġtex tes
er ve
Ġa mb
Ġen fin
ri re
yp oth
Ġa Ã©ri
Ġth e
ra ine
app ar
De ux
os t
Ġmis sion
Ġris que
o ti
ie use
Ġde me
ĠLond res
Ġmin ist
Ġsour ces
Ġrest aur
ĠdÃ© ch
Ġr u
ĠS c
Ġar rÃª
Ġf ou
Ġdivers es
cess us
Toute fois
ul Ã©
ĠMar tin
m ont
Ġrec ons
Ġs it
li r
Ġm ic
Ġins pi
du ite
Ġentrepr ises
Ġlarge ment
Ġte lle
ĠCan ada
Ġcou leur
Ġra s
Ġal l
uis se
Ġ riv
ĠM aur
ĠM ac
ĠS te
Ġprob lÃ¨me
ĠA ir
Ġconsid Ã©ra
ag Ã©
uc lÃ©
Ġsou tien
Ġau teurs
Ġpas ser
Ġ2 2
Ġmanif est
lÃ© g
Ġpro xim
Ġ201 9
Ã©t ab
arch ite
ĠÃ Ĥge
tÃ© rie
ĠsÃ©c uritÃ©
m et
Ġun ique
ri d
00 0
Ã Ń
ac tivitÃ©
Ġcr ise
ĠG al
ĠC oupe
og ne
Ġpass Ã©
Ġnature l
Ġr endre
Ġab s
os c
Ġl ieux
Ãī c
Ġutilis Ã©s
Ġmeille ur
Ġjoue urs
in a
m ie
ch Ã©e
Ġpro cessus
Ġc Åĵur
Ġex tra
Ġprob lÃ¨mes
umi Ã¨re
Ġs antÃ©
Ã©tu de
ĠF or
Ġter mes
Ġproxim itÃ©
Ġinf lu
Ġdirec teur
Ġenv oy
Ġs ang
ĠT ur
Ã© rop
Ġg estion
t ait
duc ation
Ġ rang
Ã© tiques
Ã©le ction
au teur
onne ur
t t
ĠA s
it ant
An gleterre
Ġhau te
y cl
ort er
I talie
Ġn uit
Ġrel ie
ĠÃ©t at
Ġsu ivi
Ġa oÃ»t
ĠC ro
Ġprot est
ĠÃ©p is
y g
ar n
Ġloc ale
Ġ4 0
tis me
Ġtra itement
Ġb ande
Ġpub lie
Ġc yc
es te
ĠU ni
b on
Ġprof esse
tr Ãªme
Ġtr ouver
or g
glom Ã©ration
Ã©le ct
Ġra dio
5 0
ti stes
Ġa ra
Ġav ril
Ġconn ue
Ġdoc ument
ĠJose ph
ĠprÃ© par
loit ation
ĠB ou
ĠB ourg
Ġpat rimoine
Ġlim ite
ill on
ĠBel gique
Ġtyp es
ĠrÃ©p ond
Ġvic ti
emp l
ĠS ainte
Ġsit ue
ĠrÃ©alis Ã©
Ġf erm
ĠthÃ© or
Ġd oute
ib les
mi ques
ris ti
Ġm ieux
at es
ĠdÃ©cl are
Ġregrou p
Ġqu ant
Ġjourn al
e urs
Ġmari age
c al
Ġnature lle
Ġsoci ale
in tÃ©rieur
h Ã´
ĠÃ©v Ã©
on i
Ġter r
ĠC as
ar de
Ġm as
ori es
Ġkil om
Ġdi min
Ġsigni fie
ĠrÃ©sul tats
Ġstra tÃ©g
Ġquel que
Ġrep ro
Ġpres se
Ġcert aine
ro it
exist ence
Ġa vi
Ã¨ tes
Ġlet tres
Cel a
Ġremp orte
tit ut
Ġv ain
Ġv u
Ġne uf
Ġblan c
Ġacc ompagn
ar rivÃ©e
an che
Ġ â
Ġl oin
Ġrat ta
Ġperm is
Ġcontin ue
ĠchaÃ® ne
ĠR Ã©volution
Ġma ch
r ons
and es
Ġin v
Ġsyst Ã¨mes
Ġfig ure
ĠdÃ©si gne
cl us
ĠN orm
ĠcrÃ© er
ĠÃ©v olu
Ġderni Ã¨res
ĠsÃ©le ction
Ġprin ce
Ġ2 3
h am
r un
ĠM ad
Ã ³
ĠdÃ© cid
omm un
Ġb onne
Ġs ovi
Ã©v rier
Ġmot s
Ġp aix
ĠV i
Ġfor tement
Ġalle mande
g yp
Ġrel ation
Ġf ru
Ġma xim
Ġdur Ã©e
Ġconst r
Ġo cc
ĠL ib
lÃ¨ ve
Ġter rain
ĠÃ©lÃ© ment
Ġinter prÃ©
Ġrivi Ã¨re
ĠP at
Å į
Ġp ape
on ique
ĠrÃ© alitÃ©
ig e
Ġp ap
ol s
Ġg ros
Ġmo b
b y
Ġre ti
Ġcirc ons
Ġser ont
Ġf Ã©min
ĠT e
d ent
ar que
Ġdisp on
Ġch asse
ron ique
ĠE d
ĠF l
Ġliv res
rond issement
Ġb our
i ment
cul p
Ġscien ces
Ġin tit
Ġ195 0
Ġurb aine
ibli oth
Ġb omb
Ġins titu
Ã©t end
Ġv end
ĠCh rist
Ġsc Ã©n
Ġh Ã´
cu le
Ã©c onomie
E st
ol f
Ġti tres
Ġn uclÃ©
ĠV ic
Ġscientif ique
Ġdiffic ul
ol as
Ġjou eur
ĠG au
Ġol ymp
onc Ã©
Ġd oll
iv al
Ġcompr is
o Ã¹
Ġg agn
us te
Ġpar le
Ġconf lit
ĠRuss ie
ĠD el
Ġcath olique
Ġtr ou
ot es
Ġsur n
a o
ten tion
Mal grÃ©
qu Ã©s
ĠrÃ©par ti
ĠGu ill
Ġrelig ieux
an niques
ĠGeor ges
qu et
ari tion
Ġcon duit
tu g
ind ustrie
ĠNouv elle
Ġdiff icile
as h
Ġindivi du
b erg
Ġ17 8
Ġpro ven
Ã©rÃ© e
ĠN ap
Ġf Ã©vrier
Ġj ui
Ġm i
Ġchampionn at
ch ant
inst all
Ġfav or
Ġf le
ad ministration
ĠÃ©c l
Ġa f
t Ã©e
ĠFran c
Ġve ut
ti ens
enti elle
ĠCl aude
ĠT our
ag nes
ti ennent
Ġb ourg
ĠB eau
Ġan d
Ġb ran
acc ord
ĠCh e
ĠÃ® les
ati fs
Ġcon ver
Ġrepr end
R e
Ġcap acitÃ©
Ġfa ci
Ġor gan
Ġ199 8
u er
o od
tionn elle
tex te
i Ã©e
Ġcrois sance
Ġpres sion
Ġs tu
o f
Ã© si
Ġl umiÃ¨re
Ġn ob
ole il
Ġg raph
Ġdist rict
Ġcon v
n Ã©es
Ġcli mat
Ġju ge
ĠvÃ©rit able
Ġlongue ur
Ġcomp orte
ĠreprÃ©sent ant
Ġf ro
Ġord re
Ġcons ul
tionn el
Ġqu anti
i z
l og
g Ã©e
Ġchac un
Ġimp Ã©ri
Ġn os
Ġil lus
av es
Ġche val
Ġv idÃ©
ar di
ĠS an
Ġsal le
ĠdÃ© tru
ĠtÃ©lÃ© vision
Ġh yd
Ġcol lÃ¨
ĠT ra
arg ent
Ġsoci al
Ġvi a
Ġappar ten
Ġb el
Ġpl antes
E spagne
ra ient
ony me
ul ture
Ġ199 5
ĠmÃ©th ode
Ġh ors
Ġdis cip
Ġb al
Ġmal ad
ricul ture
ĠdÃ©c ision
Ġfonction n
b er
ĠmaÃ® tre
en sion
Ġaut ant
ĠL u
Ġ18 2
A frique
c tes
Ġar riv
illi am
o e
Ġte lles
Ġrom ain
ĠÃ©c riv
Ġlet tre
t rÃ©
Ġconc ur
Ġn our
Ã©t aire
Ġgar de
k s
ĠF re
im m
ĠS er
Ġsou ff
Ġf our
Ġcom ment
ĠfranÃ§ais es
Ġs ensi
ĠdÃ© li
Ġac tivitÃ©
i ki
Ġcon Ã§
ĠcÃ´ tÃ©s
ĠS uisse
ĠS oci
Ġarch ite
Ġpal ais
Ġv oul
s c
di en
Ġf ootball
ver se
Ġv ir
Ġsub s
Ġs ites
Ġpi erre
Ġa it
inf luence
Ã©t ro
Ġpie d
Ã©s ie
ou e
Ġh ist
Ġg erm
Ġg ard
Ġb assin
Ġri ches
Ġm ol
Ġf i
Ġjur idi
Ġh istoire
ar ie
Ġterrit ori
Ġri en
ĠdÃ© t
A d
ĠÃ©c oles
ĠphÃ©nom Ã¨ne
ĠeuropÃ© en
Ġpouv ant
ĠM er
Ġcont en
os se
I s
Ġv ous
avi d
Ġrejo int
tru ction
Ġchans on
iti me
ĠE l
Ġlim it
Ġs orte
Ġliber tÃ©
ĠrÃ©p ublic
f ici
Ġsup Ã©rieure
Ġd ite
Ġs auv
re uve
ur Ã©e
Ġpuis que
te ments
Ġpi Ã¨ce
ien nes
Ġconc erne
on se
in aire
Ġdi men
ĠL yon
av al
ĠQu Ã©b
Ġkilom Ã¨tres
Ġb le
om in
Ġv o
Ġcommun ication
Ġrel ativement
oli tique
f ait
Ġimport ants
Ġdisp os
ur ation
ĠlittÃ©ra ture
Ã©n ie
Ġt est
Ã©d ie
Ġterrit oires
Ġm Ã¨tres
ĠNorm and
g el
Ġconn aissance
Ġs culp
Ġconc ent
Ġanim aux
ĠnÃ© anmoins
Ã©h ic
Ġpermet tre
ĠS av
Ġpopul ations
Ġche v
ĠrÃ© uss
Ġcontin ent
land ais
Ã©rÃ© s
Ġprof it
Ġmus ul
Al ors
Ġsold ats
Ġs igne
Ġdoll ars
ĠÃ©qui p
Ġregrou pe
Ġpar lement
Ġ199 7
ĠV er
Ġrepr ises
s ui
ĠC o
ac tu
us age
Ġdi v
Ġoffici ellement
che ment
ĠÃ© li
Ġb less
ĠM us
ri ent
Ġ199 2
el li
Ġcentra l
Ġgra v
Ã© f
Ġfr ont
ĠB lan
anci enne
Ġsp ati
Ġr usse
et Ã©
Ġs oient
Ġ2 6
ti g
Ġdev ait
u il
Ġvis ite
Ġ1 00
ci er
Ġqu asi
Ġar rive
l ine
Ġchap elle
Ġpour sui
a ve
k er
Ġsec rÃ©t
Ġobjet s
Ġquit te
Ġdyn as
rÃ© g
Ġmoy ens
Ġhistor iques
F in
Ġsuiv antes
ri Ã¨me
are r
ĠdÃ©c ouverte
ĠrÃ© ser
Ġsu it
alis Ã©
Ġpo si
Ġpar ce
Ġatt est
Ġconcern ant
Ġci vi
ense ignement
ĠV ill
Ã¨ g
Ġv ont
Ġmondi al
Ġprop res
c ommun
o rer
om bre
ĠA ug
ĠQuÃ©b ec
Ġr ur
ĠindÃ©p end
gu er
Ġdist ance
gyp te
po sitions
Ġs cience
entre prise
Ġst ade
ĠA t
Ġsim il
Ġcri tiques
ĠM il
Ġmort s
ĠdÃ© riv
ĠB al
our t
n a
Ġv Ã©hic
Ġchin ois
ĠL uc
ro y
ĠC entre
mis sion
Ġmalad ie
Ġcomp Ã©t
Ġconstitu Ã©
Ġhau teur
Ġlog ici
our ces
hab it
Ġra y
li quer
tic les
Ġtable au
m ation
k y
ĠdÃ©velopp e
Ġfut ur
op e
ue il
Ġar ticle
S A
ĠrÃ©f Ã©r
Ġtourn Ã©e
ĠJe ux
Ġphilosoph ie
ĠrÃ©guli Ã¨rement
ĠV ille
P ro
ot t
ĠM in
ĠA llemagne
y st
Ġlut te
ĠP ol
os es
Ġgl ob
Ġv in
ĠrÃ© t
intÃ© rÃªt
Ġretr ouv
ĠP ont
Ġti ent
ĠG re
ra ss
ri che
Ġdis s
Ġcontr Ã´
ĠE st
Ġfab ric
Ġb ure
Ġph ase
Ġ2 8
m Ã©di
Ġt end
d a
Ġ199 6
1 9
Ġeffet s
1 0
Ġpeti tes
Ġimm Ã©di
Ġcou leurs
Ġmouve ments
Ġancien nes
op Ã©ration
emp le
Ġ Î
Ġroy ale
h Ã©
Ġcul te
ĠcaractÃ©ris tiques
olog ne
Ġm auv
as sement
ĠÃ©conom iques
Ġlang age
Ġfron tiÃ¨re
Ġl yc
Ġpublic s
Ġjou er
Ġspect ac
d on
ĠF in
ĠGuill aume
ĠcÃ´ te
au c
or es
Ġf isc
ri ers
ne x
Ġcon tient
Ġqu oti
ĠJ u
ĠG i
Ġnouv el
ĠmÃ©t ro
Ġe ut
Ġcomplex e
Ġfam illes
Ã©g Ã©t
ĠD u
Ġpr Ãª
om Ã©t
ĠW illiam
Ġrelig ion
Ġmunicip al
Ã©r itÃ©
Ġ199 4
Ġa x
ran ce
Ġvolont Ã©
Ġc op
Ġs ing
ĠD en
Ġcel l
Ã©rop ort
Ã©p endance
Ġmes ures
Ġpro ches
ar ticle
Ġimport antes
Ġp oi
Ġapp ro
om as
Ġqu in
Ġopp os
Ġmin im
Ġ Il
omm Ã©
ol Ã©on
ĠB on
Ġ ul
Ġprofesse ur
ĠdÃ©sign er
v ie
un esse
Ġexp lo
Ġcompos Ã©e
Ġmais ons
Ġscientif iques
ĠcrÃ© e
Ġv oc
Ġconsid Ã¨re
Ġapp are
Ġtr ouvent
ĠbÃ¢ti ments
c Ã©
ig h
ĠG l
onne ment
Ġid entif
Ġsuff is
ch Ã©s
n ov
aul t
oy er
Ġprojet s
Ġp age
ĠbÃ¢ti ment
Ġfor Ãªt
Ġa ction
or b
Ġconcep t
Ġrev anche
ic ations
Ġchar gÃ©
Ġlesque ls
Ġposs Ã©d
p ital
ens itÃ©
Ġs enti
un g
er nes
ĠrÃ© serv
e y
tin g
rÃ©s il
ĠprÃ© d
se urs
Ġm ur
vi d
ĠD avid
Ġno tion
Ġv Ã©gÃ©t
Ġper form
ĠrÃ©sul tat
Ġf usion
Ġar mes
f ort
Ġder riÃ¨re
Ġfle uve
am a
ĠmÃ©m oire
ud g
ar is
Ġparti cul
Ġst and
Ġ2 7
Ġfond Ã©e
Ġsouver ain
exp loitation
Ġsyn dic
Ġpoli ce
Ġtot ale
ĠC ong
Ġch ute
Ġactu elle
ĠT oul
Ġvale urs
ru p
ap h
h onneur
Ġnum Ã©ro
i Ã©s
in o
Ġchange ment
Ġre vient
ĠS am
ven ir
ĠE x
ĠÃ©lev Ã©
Ġoff re
Ġam Ã©li
S ous
et er
Ġcon texte
ces si
m ain
Ġun iquement
Ġpar all
Ġfa veur
Ġre b
Ġprop or
ax e
et t
Ġactu ellement
Ġcour se
ĠM i
Ġre ine
Qu el
ĠS tra
Ġhum aine
Ġmand at
Ġman que
av ait
Ġc am
m ond
u tÃ©s
ti Ã¨res
Ġquat riÃ¨me
Ġrapi de
Ġexp lique
ĠB ro
u ff
Ġ199 3
ĠdÃ©m ont
ĠAn t
n Ã©e
Ġpar ents
Ġex Ã©cu
Ġl ing
un itÃ©
ĠB our
Ġprogressi vement
Ġmon uments
m on
ĠI talie
Ġpar is
Ġm agn
D u
ĠPremi er
N Ã©
qu Ã©es
Ġv oies
ĠD es
ĠNic olas
ĠPremi Ã¨re
o iles
ac te
oir s
Ġch an
Ġenti Ã¨rement
ĠdÃ©fin ition
import ance
in tÃ©g
Ġ x
om es
Ġmo teur
Ġloc aux
ĠTh Ã©
Ġconstr uire
Ġ199 1
Ġdel Ãł
In s
avant age
Ġc ab
ĠD an
Ġjus tice
e d
ran ge
ens es
im age
Ġparois se
ĠÃ©c ole
ĠrÃ¨g les
ĠÂ °
iv es
tionn aire
a une
ĠÃ© d
ĠÃ©lect rique
Ġdire ct
Ġin aug
ari o
Ġrec ord
ag glomÃ©ration
Ġguer res
Ġid Ã©
ĠreÃ§ u
Ġin ves
ĠNormand ie
Ġs ert
Ġse ction
po le
Ġex cep
end ra
lis sement
Ġ198 9
ĠI V
Ġappel Ã©s
Ġcontra t
Ġrem ont
g g
Ġla isse
Ġch ant
Ġpra ti
cu pe
Ġpe ine
ĠrÃ© alise
ĠvidÃ© o
ut re
C ar
Ġp ois
Ġf id
ĠamÃ©ric ains
Ġprof ond
ĠÃ©tu de
i ale
Ã§ a
P olitique
ĠdiffÃ©r ence
ĠS im
Ġd Ã»
Ġaut oris
el d
ĠL or
ĠmÃ©t al
itu de
ĠsiÃ¨c les
ĠP or
3 0
aire ment
fi ce
st ru
Ġdom aines
omm age
Ġcom tÃ©
ur a
Ġv ote
Ġlog e
Ġtrib un
Ġtomb e
E S
ri es
ti m
Le ur
ĠdÃ©c ret
ol a
Ġp auv
Ġ6 0
Ġas si
ous se
ch ent
ĠtÃ©m oign
Ġc Ã©lÃ©
As semblÃ©e
Ġciv il
Ġrais ons
ĠM ag
Ġsc ol
Ġb iblioth
ĠsecrÃ©t aire
u ves
Ġno tre
Ġs oi
a uss
Ġb out
Ġterm ine
in er
in formation
Ġar mÃ©e
Ġmen tionn
am ique
Ġremplac Ã©
ur i
as tique
Ġcons iste
ĠÃī tat
ĠcompÃ©ti tion
Ġal g
ind Ã©pendance
ĠdÃ©f aite
re use
ne y
Ġform er
Ġsomm et
Ġmodi fi
Ġ198 8
Ġmont agne
o Ã®
g ent
Lors que
ĠrÃ©v olution
Ġpouv ait
Ġcon ception
Ġdisc ours
Ġfav oris
Ġf ic
ĠG erm
Ġpriv il
occup ation
ĠAnd rÃ©
A b
ar k
Ġcar b
Ġconsomm ation
Ġdess ous
cad Ã©mie
ĠRich ard
ment ation
ch i
Ġperm an
b lement
ĠrÃ©v olu
Ġmarch and
İ le
Ġfond ament
Ġeff ic
Ġsovi Ã©tique
Ġt re
Ġb ret
Ġcul tiv
Ġvari Ã©tÃ©
Ġouv ert
Ġmes s
ĠrÃ©sist ance
opony mie
Cel ui
Ġmon ument
om mes
or ce
ĠA lexand
S e
iter ran
Ġadminist ration
Ġprof onde
Â «
ĠnÃ©g oci
ri x
ĠC ent
che c
Ġoffici elle
Ãī cole
onn er
Ġsub st
l ation
Ġcour t
it y
it re
Ġn u
Ġb udg
Ã¨ dent
Ġocc a
Ġl ic
Ġ193 0
Ġm ass
Ġutilis ant
Ġenreg ist
Ġpar vient
Ġar tistes
Ġra dic
Ġpoi ds
Ġpass ant
ĠS Ã©n
Ġp ay
Ġat ti
Ġc os
Ġouv rage
Ġsuper ficie
alis Ã©e
Ġrecher ches
E t
Ġc er
Ġre jet
Ġport ant
in tes
Ġren ouv
Ġ |
u me
Ã©d Ã©ration
Ġaccue ille
Ġc ui
ang es
Ġm ine
Ġfam ili
b i
abb aye
d ou
Ġjapon ais
ĠL igue
ac tions
Ġins crit
Ġbas se
ou g
Ġn ul
Ġsem aines
ir ent
un is
Ġcomp osition
on ge
Ġdev int
Ġla iss
ĠH aute
P uis
Ġin cl
arch ie
Ġdistin gue
exp ression
lic ations
Ã©c riture
Ġcivi le
Ġtra in
te lle
ĠP ort
ten ir
l ines
Ġsyn th
or tement
Ġri ve
Ġm Ã©n
Ġsuiv ants
Ġ &
Ġno te
Ġacc us
or ph
lis ation
Ġjus te
Ġs omme
Ġcal end
Ġt ente
A g
C on
Ġquanti tÃ©
ĠbÃ©nÃ© fici
ĠL Ã©on
Ġaf ric
Ġun itÃ©
ĠB ra
Ġarm Ã©es
ag ue
ĠN ation
Ġp ati
S S
app el
ric oles
Ġc ra
ac teur
at a
r ence
um es
Ġdi z
ar rondissement
Ġsucces si
Ġcath Ã©d
Ġsol s
Ġas pect
Ġdi ver
Ġexp loit
ab sence
Ġag ricoles
Ġress ources
Ġsouh ait
cl am
ĠM c
Ġca us
er se
Ġ194 5
A cadÃ©mie
ĠGeor ge
Ġa st
ĠF ont
Ġmin utes
Am Ã©rique
Ġcolle ction
Ġtransp orts
Ġfr Ã¨res
Quel ques
Ġm Ã¢
Ġh os
Ġinf luence
Ġconc ert
Ġri che
is p
Ġpart age
un d
Ġg ro
Ġ2 9
Ġdeven ue
Ġesp ace
ĠrÃ© di
ĠÃ©qui pes
Ġsoci aliste
ol is
par avant
omm Ã©e
Ġactu el
en tin
A ss
ĠsociÃ©tÃ© s
ie uses
at rice
ypoth Ã¨se
ĠA g
ĠD ame
ĠrÃ©alis er
ces sion
Ġcommun iste
Ġnob les
ĠdÃ©c or
er ce
ĠTh omas
acc Ã¨s
ĠreprÃ©sent ation
Ġpour tant
Ġ17 7
au tÃ©s
is ser
ant h
ĠB ri
Ġmod Ã¨les
ĠW e
Ġtemp le
Ġloc al
Ä ģ
Ġ8 0
olog ue
Ġhab itu
Ġ3 1
Ġchans ons
Ġautor itÃ©s
Ġdynas tie
ĠconsidÃ©rÃ© e
Ġfor ment
onn Ã©e
Ġnav ig
Ġquar tiers
Ġv olu
Ġb ate
Ġcandid at
ĠS a
Ġra l
ten sion
anc er
Ġfa Ã§
Ġr ares
Ġdra pe
Ġdiff usion
Ġexp rim
ĠBern ard
Ġfais ait
ĠdÃ© di
d re
Ġfond Ã©
Ġvi ce
Ġpar ler
ĠpropriÃ©tÃ© s
t te
Ġp Ãªche
Ġa mp
ol ue
Ġgouver neur
Ġdistribu tion
Ġbes oin
Ġlib Ã©ra
Ġh Ã©ros
Ġsimp lement
ici ens
Ġconstru ite
Ã» te
ĠD on
ĠM ax
Ġutilis Ã©es
an alyse
ĠM ex
Ġobten ir
Ch aque
Ã©s ar
Ġf Ãªte
Ġn oy
Ġcon j
Ġti ers
Ġar ts
Ġent ou
Ġid Ã©es
ge ois
Ġviv ant
Ġ orth
Ġcon g
Ãī t
D Ã©m
osph Ã¨re
ve ill
p t
ut ation
Ġ198 2
ĠdÃ©c is
ĠV en
Ġar ticles
ĠK ar
id er
Ġcoup le
Ġs ch
Ġh i
Ġsupp lÃ©ment
ub e
Ġpens Ã©e
ĠconsÃ©qu ence
ĠG ra
Ġnom bres
Ġin vent
ul g
ul er
Ġsy mp
Ġmaint enant
i ze
al titude
Ġseul s
ĠÃ©vÃ© nements
ĠP r
Ġpro duire
Ġcont act
k h
C ont
istor ique
Ġenviron nement
Ġesp Ã¨ce
eur os
Ġ198 6
Ġiss u
ĠIn ter
Ġpersonn el
au ff
6 0
ĠD ou
Ġnavi res
Ġl ie
Ġv aste
ĠB rit
Ġf ant
Ġapp elle
ĠP rÃ©
Ġv ente
Ġre ce
ar b
Ġcan al
Ġrespec tivement
Ġcommerci al
Ġs Åĵur
ri me
ĠdÃ©velopp er
N C
se aux
Ġpuis qu
Ġdou ze
an iques
Ġal tern
' s
Ġpar ten
A vant
onn iers
Ġmeille ure
Ġaj ou
Ġsupp ort
Ġc erc
oli ques
Ġcl assement
Ġsa tell
p in
Ġindi que
Ġref use
C om
ĠMaur ice
ĠAn gleterre
ĠrÃ©f orme
ĠC am
ag riculture
Ġfon de
Ġf estival
ĠÃ©li min
Ġfeu illes
ĠimmÃ©di ate
Ġ194 0
th e
er ies
Ġ196 8
Ġsign al
A C
ti r
Ġb re
Ġsau f
Ġdeme ure
2 1
Ġfran ch
Ġnature ls
ill y
er ci
ĠW al
y ra
ri cole
environ nement
Ġfonction nement
Ġpossi bilitÃ©
Ġan g
ĠdÃ©m ar
Ġplate au
Ġra di
op Ã©ra
i Ã¨res
j ou
ol te
Ġmen tion
ĠAl pes
Ġbi ens
az z
ĠÃ©tab li
Ġv ent
ĠK h
ĠJ ames
h yd
w e
Ġbl oc
t ur
Ġconn aiss
ĠÃ© lus
h iver
ĠT er
eu ve
ĠfrÃ© quent
ĠS i
oud re
s ons
ĠÃ©di tion
Ġcalend rier
Ġfait s
Ġ197 5
Ġs Ã©p
Ã©d er
Ġper du
m itÃ©
Ġtr Ã´ne
Ġtr ente
l l
Ġun itÃ©s
rib ue
Ġital ien
ĠNo tre
lu ent
qu it
ul Ã©e
Ġloc ales
ĠopÃ©ra tions
rÃ© d
Ã©t h
Ġiss us
ograph iques
Ġab ou
ĠmÃ©di Ã©v
Ġd o
lÃ© ans
Ġt ours
lle mand
li ers
T oponymie
ing ton
crip tions
4 0
ĠR Ã©g
ĠmatÃ©ri el
ler ie
ĠP ic
Ġb all
ĠdÃ©velopp Ã©
Ġrenf orc
Ġparticip ation
ĠE mpire
Ġen ne
Ġple in
es prit
Ã©r on
b us
ĠrÃ©alis ation
Ġd ieu
et z
Ġconse ill
Ġrest ent
Ġag ricole
ĠrÃ© cup
te in
Ġpour su
ro vi
Ġchamp ion
ĠcathÃ©d rale
Ġmol Ã©c
ron om
Ġci me
ali ers
ori ens
II I
Ġc ru
Ġl ien
A ux
Ã©ri es
Ġ ici
Ġpos t
Ġsa v
Ġv ert
Ġex clus
ĠÃ©crit s
Ġsymb ole
Ġenreg istre
ĠM Ã©d
y a
Ġvill ages
lis es
ĠMar ne
enti tÃ©
ĠX V
ul aires
Ġch ambre
ĠNap olÃ©on
Ġm ains
Ġcyc le
Ġn Ã©e
Ġcapit aine
ph ab
Ġs h
Ġtrav aille
Ġpublic ation
Ġappar tient
Ġmaj eure
Ġs Ã©n
ut er
m il
ĠA u
c on
Ġp Ã©tro
ĠÃ© vent
Ġouv rages
Ġar chÃ©
Ġatte indre
tis sement
Ġ192 0
Ġrec omm
Ã©le v
Ġc uis
un n
Ġ198 5
ig u
Ġmajor itaire
ac k
v it
Ġcour onne
Ġhum ain
m ann
ĠrÃ©gion al
ĠPar lement
ti Ã¨me
T out
Ġen vis
ol it
ĠrÃ©p and
ĠT rans
ass ociation
Ġrespons able
ĠprÃ©sent s
Ġth Ã¨me
or p
E R
l ais
Ġa ctions
ĠSoci Ã©tÃ©
Ġv ieux
ĠA frique
ass er
semb l
tis te
Ġv ite
k in
ĠprÃ© t
in et
Ġrejo indre
Ġintit ulÃ©
ra ire
ĠcÃ©lÃ© b
Ġemp run
f re
Ġmag az
ut s
Ġt Ã´t
p er
ag ers
s bourg
Ġling uis
en di
Ġm onn
Ġloge ments
Ġen tier
ĠH ong
ĠÃ©v iter
ĠV ienne
Ġmod ernes
Ġproc Ã¨s
aut om
Ġrepr ise
Ġutilis er
Ġ198 4
ag Ã©e
ĠL o
Ġform Ã©
ĠrÃ© action
di que
Ġsoci ales
r en
Ġam is
Ġgu it
h ou
Ã©t ant
a el
Ġobten u
Ġminist Ã¨re
Ġdi vin
Ġcommun al
ĠrÃ©c omp
NÃ© anmoins
exp Ã©ri
Ġp ouss
Ġt ran
Ġcar te
Ġf un
Ġe au
8 0
Ġt endance
Ġ198 1
ĠrÃ©c it
ĠmÃ©th odes
ĠdÃ©p utÃ©
Ġmic ro
O uest
Ġv on
ic a
Ġoffici el
Ã©n agement
ist ance
Je an
r itÃ©
ĠmathÃ©m atiques
Ġs olution
ag ent
tu e
Ġdesc end
Ġconstitu ent
Ġaff aires
Ġst ock
Ġclub s
Ġpro duis
ĠAl bert
Ġaccue illi
Ãª ts
ĠV an
Ġqu es
ĠÃ©lect or
ĠR os
ol Ã©
ĠA ut
Ġesti me
h ors
ĠJ uli
ouv re
ĠE r
lan tique
Ġaff ec
ri ces
Ã´ les
Ġfabric ation
ĠB rÃ©sil
am me
ĠrÃ©f ug
Ġfin it
tan tin
ir s
ou le
olog ies
ĠprÃ©sid ence
ĠdÃ©fin ie
Ġprin temps
Ġfl otte
ĠC omp
Ġtot alement
Ġdi am
ĠN or
he ure
Ġdimin u
ul sion
ĠO rient
Ġvolu me
u k
opp osition
Ġpouvoir s
Ġpein tre
Ġ3 5
lÃ¨ ves
fic ations
Ġpro tÃ©
Ġf leurs
Ã©t aires
Ġ197 4
Ġple ine
Ġ197 3
ĠM o
Ġmatch s
Ġconn us
u els
at oires
Ġt al
ĠM at
Ġremar qu
y z
Ġcant ons
archite cture
g in
p orts
Cert aines
ric k
Ġres pect
Ġmar quÃ©
o int
Ġvis ion
Ġpriv Ã©e
Ã¨ lement
ĠÃ© mis
Ġ198 3
ende main
ph e
u ellement
ĠrÃ©alis ateur
tiqu itÃ©
ĠAm Ã©rique
ĠP C
Ġfond s
Ġdis que
Ġsupp rim
1 1
Ã©ri ques
d y
Ġapp rÃ©
ĠB an
Ġfer rovi
qui Ã¨me
Ġde hors
ĠRh Ã´ne
ĠR ay
ci ens
ĠdÃ©p utÃ©s
ĠrÃ© seaux
lÃ© gu
Ġr yth
Ġconc ours
J us
Ġaffir me
dou ard
Ġch ose
Ġrelig ieuse
Ġmo des
ĠcatÃ©g orie
Ġpe int
Ã© ducation
Ġb il
Ġcomp ortement
R Ã©
Ġre ten
Ġpr ison
Ġfer me
ol ie
erg Ã©
ĠexpÃ©ri ment
Ġroy al
d ie
Ġlyc Ã©e
Ġenf ant
Ġconstitu tion
Ġstand ard
Ġa ch
ĠrÃ© d
Ġinform ations
ĠprÃ©sid entielle
ĠC Ã©sar
Ġoccident ale
an es
ri vent
jo int
u elles
ĠB ay
Ġclass es
al ys
p ort
Ġpl ante
DÃ©m ographie
ĠH aut
ĠmÃ©dec ine
Ġimp os
Ġport es
Ġass ure
end ue
Ġsem aine
Ġm ille
Ġm ig
Ġor b
ograph e
Ġposs es
Ġau teur
Ġ197 2
ĠmÃ© lan
ĠN i
Ġpeup les
Ġl endemain
ĠfÃ©d Ã©ra
ar y
ĠS m
il itÃ©s
A S
di ci
Ġnom me
Ġ198 7
Ġculture l
Aut riche
ĠrÃ¨g le
ĠsÃ© j
Ġcommande ment
ĠÃ©qu ival
ri Ã¨res
Ġpr ennent
li ge
Ġro ck
ĠMar s
Ġatta que
ĠGu y
ĠlittÃ©ra ire
ĠdÃ©fini tivement
Ins titut
Ġcaract Ã¨res
ĠCon f
Ġus age
Ã© an
ĠM el
Ġord in
ort ant
Ġc ens
A pp
fi ant
Ġsus p
Ġs ais
oup age
a Ã©roport
ti le
al u
ĠdÃ© te
Ġcons er
ann Ã©es
ul s
Ġav anc
Ġfond ation
ort ent
ĠmÃ©di c
Ġprin ces
Ġje unesse
Ġ197 1
Ġ197 9
Ġau paravant
Ġcomb in
j i
Ġb ron
Ġti ss
Ġcorrespond ant
ra ins
Ġb ras
Ġconv ain
Ġfil les
A t
o tion
ĠspÃ©ci f
ĠeuropÃ© ennes
Ġfab ri
au re
ĠBer lin
di a
ang le
Ġper te
al lÃ©
Ġin telle
c cident
alog ue
Ġh a
Ġdifficul tÃ©s
ĠdÃ©but s
Ġrem et
2 5
Ġche fs
ĠH ug
Ġpro l
Ã©m ission
Ġlesque lles
Ġcommun autÃ©s
ĠprÃ©c ise
Ġorganis ation
Ġreconn aissance
Ġcondi tion
ond es
Ġmar quÃ©e
Ġj ardin
Ãīc onomie
empl oi
er ait
ĠX I
Ġp ense
ĠMar se
ĠrÃ©alis Ã©e
Ġfranc oph
Ġh eure
Ġdonn Ã©e
ĠGr Ã¨ce
Ġoc cupe
Ġm our
ĠarrÃª tÃ©
ĠprÃ© cip
Ġfait e
Ġcomp tait
Ġsoci aux
is tique
u ite
ĠÃ© lÃ¨ves
z a
Ġde vi
Ġver sions
ais es
ĠR og
Ġpra tiques
ĠÃ©tudi ants
Ġmas cul
Ġcit oy
ĠFranc is
ĠP as
Ġtra fic
ite urs
Ġtra duit
ĠA llemand
Ġn az
Ġplan Ã¨te
Ġintelle ctu
Ġan c
ĠLa urent
s tÃ©
Ġ197 8
Ġfaci lement
D Ã©
Ġin g
ĠeuropÃ© ens
Ġmultip les
Ġex trÃªme
ĠP rin
ĠdÃ©cl in
ĠCons tantin
Ġcime tiÃ¨re
Ġy eux
Ġinflu enc
qu ie
ouve au
Ġapp li
ili bre
Ġim ag
Ġpoursu it
Ġb ass
Ġco Ã»t
ĠM a
T rans
use ment
Ġdoc uments
Ġprogram mes
Ġpol y
Ġ197 6
ori z
Ġ4 5
Ġdipl om
Ġli Ã©s
Ġlim ites
ĠB ois
ul tan
Ġ7 0
ĠdÃ©rou le
m ans
Ġnom mÃ©e
Ã¨s es
Ġstru ctures
Ġdrape au
ĠlÃ©g ende
Ġti r
it z
Ġesp aces
g Ã©s
s ant
Ġk m
tÃ©rie ure
Ġfond ateur
Ġd on
l as
ĠCl ub
h er
Ġcomp ose
Åĵ urs
Ġprovin ces
ĠintÃ© ress
an tin
Ġrev ue
d in
ab ri
ĠS ta
ĠÃ©trang ers
Ã¨ vre
Ġli aison
Ġinf Ã©rieur
Ġindustri elle
at on
ori ent
Ġentrepr ise
re ction
li en
Ġcell ules
Ġconn aÃ®tre
ĠcollÃ¨ ge
ĠM ay
ĠdÃ© v
Ġpl a
ĠRen Ã©
Ġ197 7
T ou
ĠgÃ©nÃ©ra ux
ĠAnt oine
Ġal lant
Ġhum ains
Ġst ations
Ġh ommage
An tiquitÃ©
Ġgrec que
Ġfai bles
Ġpubli ques
alis Ã©s
Ġrou tes
ĠrÃ©parti tion
ĠnuclÃ© aire
Ġ rois
re uves
Ġfor tif
ra y
Ġde viennent
Ġdu re
Ã©d Ã©
ĠBourg ogne
ĠAn ne
Ã ¤
Ġcom itÃ©
Ġg ens
Ġavi ons
Ġen vi
ustra lie
ĠPor tug
Ġconf ond
ĠreprÃ©sent ent
ĠentraÃ® ne
ĠL and
g a
Ġ196 9
ĠSav oie
d us
ĠdÃ©b at
Ġin ten
Un iversitÃ©
Ġbudg et
ĠB i
ĠO uest
ĠtÃ©lÃ© vis
Ġinspi rÃ©
ĠdÃ©couv re
S itu
Ġmilli ers
ra stru
Ġinter d
ce au
ex ception
Ġpein ture
ĠprÃ© p
Ġbrit anniques
ar iste
Ġangl aise
ob ile
ĠA p
Ġord res
d o
Ġn oire
it ent
ay ant
Ġad ul
in iti
ag o
si de
Ġb us
Ġblan che
i ff
Ġ196 7
ĠK e
ĠreprÃ©sent ants
ĠÃ©g yp
ĠV ol
Ġsp ir
Ġreg ard
Ã© z
Ġs an
Ġau quel
Ġdonn ant
Ġch ante
jec tifs
ĠJ Ã©s
Ġcomb ats
Ġsu gg
Ġad vers
Ġli Ã©e
it t
ĠPro v
Ġhist oriens
Ġpl ans
it a
st er
ĠL iv
Ġju dici
rag on
s te
ĠÃ©g lise
ĠJ ules
Ġvicti mes
lo re
Ġrom ans
1 5
h istor
Ġcollab oration
Ġprincip es
Ġst atis
Ġ9 0
Ġques tions
ad ap
b o
am our
Ġcomm ission
aut oritÃ©
g Ã©rie
Ġcan adi
Ã©ch al
ĠJ Ã©r
app arition
ord s
Ġnum Ã©rique
r ome
ĠP ologne
ĠG rou
Ġtribun al
inst ru
C l
ĠdÃ©c Ã¨s
Ġcir cu
ĠComm un
Ġs Ã©ries
Ġth er
ob serv
c itÃ©
est er
Ġsujet s
ĠgÃ©nÃ©ra tion
Ġg ui
ric itÃ©
am i
Ġli Ã©es
Ġtourn oi
ĠB o
Ġ194 4
Ġtravaill er
m Ã©s
ĠdÃ©cl en
ĠAllemand s
Ã¨ ques
ĠB os
Ġen vers
emp ire
d h
Ġsign Ã©
ch n
T ous
Ġmassi f
qu oi
Ġjou Ã©
l d
it ations
Ġv Ã©ri
Ġra p
al li
Ġretr ouver
ani el
ar te
Ġcon ven
j e
ĠprotÃ©g er
ĠToul ouse
ĠC a
Ġam Ã©n
ici en
Ġb ac
Ġo ise
Ġexp os
if ication
Ġaur a
C ons
Ġli ens
un ivers
tra ction
ym ologie
ĠH en
Ġinter ne
Ġcou pe
Ã© en
Ġtot alitÃ©
L iste
O M
Ġci el
Ġcro y
Ġcent res
Ġv esti
g o
Ġs Ã»
Ġorganis Ã©
Ġutilis ent
est ation
ĠJac k
ĠÃ©tablis sements
ill Ã©
ĠdÃ©par tements
Ã©c l
ĠrÃ©p onse
ĠMarse ille
Ġdat ant
ĠrÃ© el
ĠV ers
Ġac teurs
Ġimp lant
Ġsp ort
r ise
Ġan tique
w ay
eff et
ist an
Ġar b
H istorique
Ġconse iller
ou ch
Ġh ame
ow s
Ġassoci Ã©
Ġacc omp
fic es
m ine
ec ture
Ġpol lu
Ġjourn Ã©e
Ġd ensitÃ©
Ġli Ã©
n Ã©s
i ance
ang Ã©
oris ation
Ġt or
ĠdÃ©p lac
Ġbure au
Ġadministra tive
Ġbut s
ĠBr un
Ġ3 2
ri en
Ġ196 2
ĠmÃ©dec in
il ier
Ġdis position
Ġrapp el
Ġd avantage
Ġcons cience
ĠPh il
or a
Ġcro ix
Ġiniti alement
ĠS up
Ġg all
us tin
P rÃ©
ĠÃ©ch ange
Ġne ut
Ġcin quiÃ¨me
ĠCh ambre
Ġform ule
Ġallemand s
Ġm it
at er
ĠCh ap
V ers
Ġjus tif
Ġ17 6
Ġrend u
Ġpor tÃ©
Ġle cture
ĠRoy al
Ġco ord
ĠB ert
Ġab rite
Ġport ent
ĠC ath
ari at
Ġble u
Ġ *
In de
ĠB ur
ĠL ang
Ġven ir
Ã©c riv
ĠK er
Ġchois i
ĠS oleil
Qu and
Ġstu dio
Ġmat ern
Ġtra ite
at te
Ġretra ite
Ġfra g
Ġf leur
Ġsy stÃ©
hÃ´ tel
il m
ce aux
ni er
Ãī gypte
Ġs ouv
u z
ux elles
Ġcommenc Ã©
c le
Ġim age
ol k
Ġs ait
ĠC E
Ġacc Ã¨s
ent raÃ®
onn Ã©es
am en
Ġf oss
Ġbel ge
Ġt ox
ĠrÃ© duire
ĠN av
Ġfor Ãªts
ĠC alif
Ġconstitu Ã©e
Ġpro position
am in
Ġh umi
Ġara be
ĠC Ã´
ĠT or
Ġviv re
Ġc rit
olog ues
Ġcul tures
ĠDen is
Ġfic tion
m y
Ġ erre
Ġv arie
Ġpr ises
ra tions
ĠC amb
ti cul
Ġar tif
ĠMex ique
ĠG o
Ġc iter
ĠAn gel
Ġmilli ards
Ġdes serv
ĠcatÃ©g ories
ag u
Ġaut onom
Ġmach ine
Ġob jectif
P h
Ġ196 4
ux emb
Ġv ot
Ġcommand ant
Ġla isser
Ġense ign
Au jourd
Ġpubli Ã©e
Ġim ages
Ġinstitu tions
qu in
ĠL ille
Ġport er
Ġ 000
Ġmar ins
C ulture
ĠmÃ©c anique
ĠCro ix
Ġdoc tr
ĠchrÃ© tiens
Ġtrav erse
m atiques
Ġmar ine
at re
Ġpat ron
Ġpar fait
ĠrÃ©ser ve
Ġtransf ert
ci ation
Ġquit ter
ram me
t y
Ġappar aissent
Ġcircul ation
mÃ©di aire
Ġf ich
eff ec
Ġsu isse
Ġre j
Ġpo se
en v
ĠP S
n ie
Ġtour isme
r b
en z
ĠtÃ©lÃ© ph
Ġbes oins
Jus qu
ĠrÃ©f lex
Ġchac une
ĠrÃ©sid ence
Ġolymp iques
Ġparc ours
in age
Ġtra duction
ĠBr uxelles
l am
C elle
k o
Ġcomm en
Ġal ler
ĠsÃ© qu
ĠdÃ©ch ets
Ġfru its
Ġspir itu
Ġcomp ter
ĠAn gl
Ġvict oires
Ġam en
Ġme illeurs
Ġcont enant
as es
Ġser aient
ĠcÃ©rÃ© m
ĠimmÃ©diate ment
onc er
Ġass ist
Ġdimen sion
Ġc itÃ©s
h ib
Ġb aisse
Ġcompr endre
Ġmil ieux
ĠprÃ©sent ent
ĠfÃ©d Ã©ral
c ar
iss ue
Ġmagaz ine
1 2
T A
Ġs in
alis er
Ġor igine
Ġartis tique
Ġbran che
Ġsuiv re
ex Ã©cu
Ġl um
Ġvis ant
An cien
ĠCong rÃ¨s
Ã´ mes
Ġdes ser
Ġa chet
di tion
Ã©rÃ© es
Ġrest er
Ġp Ã©d
Ġun if
Ġaur aient
Ãī v
Ġreconn u
Ġcon quÃªte
Ġm oul
Ã©t aient
Ġorigin aire
Ġ Åĵ
Ġs il
Ġm ix
al a
Ġbiblioth Ã¨que
Ġintro duit
Ġdi ale
y de
Ġm orte
le m
ĠmÃ©di as
he im
1 8
Ã©r y
Ġrec ue
Ġsitu Ã©s
tern et
ĠÃ¢ ge
Ġ195 8
ĠÃ©lev Ã©e
ĠA ss
Ġris ques
Ġb ru
Ã§ ons
Ġchiff re
ĠJ ui
ge ment
Ġac cessi
pi ration
atta que
ĠR Ã©
ĠE m
Ġpo Ã¨te
Ġrepr is
Ġlog ique
Ġmunicip alitÃ©
au gment
ĠÃ©t oiles
Ġimp li
l Ã©s
Ġprovo que
po si
Ġpo inte
T rois
Ġnive aux
Ġcons erve
ing s
ĠnÃ© er
1 6
ĠE spagne
ans ion
ĠrÃ©t ab
Ġmaj eur
Ġnot er
tel lig
A D
v an
Ġt ax
ci des
ĠspÃ©ci fique
ce mment
Ġbas es
on ction
rÃ© al
Ġten u
Ġd ieux
Ġsucces sion
Ã¨g re
ĠL in
ĠProv ence
Ġfac il
ĠprÃ©f ecture
Ġqu oi
Ġn ette
Ġv aut
Ġdes truction
ĠV I
ĠO n
Ġmen Ã©e
1 7
Ġcap able
ĠmatÃ©ri aux
iss ait
Ġqu art
Ġf lu
ĠmaÃ® tres
Ġalbum s
Ġapparten ant
Ġartif ici
Ġmod ern
Ġcontraire ment
Ġ17 5
yra mi
Ġconten u
Ġren v
ĠJÃ©s us
ĠMarc el
ant erie
ĠÃ©di tions
f ord
ĠmÃ©lan ge
Ġcont ro
ĠRom ains
ĠindÃ©p endant
y t
Ġm ent
ag on
ĠcaractÃ©ris tique
Ġquin ze
ĠL im
rang er
Ġsa tis
ĠH am
m ant
y b
onn ier
ill a
In ter
ĠscÃ©n ario
is Ã©
Ġv ien
Ġb aptis
ĠS ant
Ġcompos Ã©s
Ġtourn age
Ġfra pp
ĠcomplÃ¨ te
utilis er
orde aux
is er
1 3
Ġch ale
p it
i ve
ar o
ĠgÃ© ographique
ĠB ru
ĠW h
Ġpl aine
Ġinc onn
Ġpropri Ã©taire
ti ls
ch Ã©es
ser ver
Ġdispon ible
Ġbron ze
ĠrÃ© duit
Ġpartis ans
Ġp reuve
Ġmaxim um
Ġfin ance
Ġmar che
ct ur
ign on
Ġper p
ĠÃ©pis odes
Ġass assin
ĠprÃ©sent Ã©
Ġdou b
ĠVic tor
N U
ĠH an
Ġdonn ent
j a
Ġ196 6
Ġbr Ã»
Ġvicti me
Ġ ouverte
Ġtour ne
ĠcomplÃ¨ tement
Ġt ab
or Ã©e
O rig
ĠB re
Ġassoci ations
ĠdÃ©fin it
Ġp av
ĠP rix
Ġservi r
n ant
Ġeffic ace
Ġjus que
Ġnature lles
As ie
ĠchrÃ© tienne
Ġdirige ants
Ġb e
Ġac cident
Ġtra ces
Ã©ch elle
th ur
m ise
Ġm Ã¨ne
O utre
ĠH u
Ġculture lle
Ġdispar ition
1 4
Ġprodu cteur
ĠGr en
rÃ©d Ã©ric
y rÃ©
Ġc ardin
Ġprim aire
Ġ193 9
Ġdispar u
Ġmilli on
ĠM ah
ic o
Ġ196 5
Ġmaint enir
Ġch oses
ill age
ĠdÃ© l
Ġar t
Ġparticip er
C he
Ġp ure
ĠA th
Ġital ienne
ob le
Ġc ord
Ġti t
i an
Ġsecond aires
ĠgÃ© omÃ©t
ĠCons titution
Ġaccep te
Ġsc Ã¨nes
ĠCom itÃ©
ĠV inc
Ġnation ales
Ġprivil Ã©g
ĠJean ne
ĠH er
ĠlÃ©g Ã¨rement
c an
Ġstat ue
Ġmis sions
U R
am Ã©li
Ġsol aire
est res
Ġex erc
ĠdÃ©couv ert
Ġdu e
se ud
Ġsemb l
ĠAlexand re
h n
aff aire
Ġemp Ãª
ĠÃ©trang Ã¨res
Ġcent aines
Ġ194 6
ĠAm Ã©ric
Ġform at
ĠrÃ©p ublique
Ġg aul
ar re
ĠÃ© lab
Ġmar itime
Ãª tres
Ġinter dit
Ġorgan ise
Ġt ardi
Ġras semb
ru tin
Ġport Ã©e
t ations
ĠSÃ©n at
t rice
ut Ã©e
rÃª ts
Ġra re
ĠnÃ©cess aires
Ġsigni fic
Ġgra tu
Ġt opony
Ġrelig ieuses
ĠdÃ© tr
Ġorig ines
Ġpriv Ã©
Ġtent ative
Ġis ol
ĠconsÃ©qu ences
ĠS ou
Ġlab or
que mment
ĠlÃ©gisl atives
P eu
Ġm ac
Ġar riÃ¨re
Ġ3 3
i che
Ġfac teurs
p ire
or tÃ©s
Ġopp osition
ĠJ o
Ġprol ong
Ġmass ac
n om
Ġg re
Ġdom ination
Ġvoit ure
ĠprÃ©cis Ã©ment
Ġt Ã¢
ĠdÃ© lÃ©gu
im ie
Ġon ze
Ġfor c
F A
Ġqu an
Ġsc and
ĠÃ©n erg
Ġse mi
Ġser v
Ġtrans formation
c y
Ġpar u
Ġ3 6
ali ens
Ġreven us
Ġrelie f
Ġs oup
Ġclassi fication
ow n
ĠComm ission
ĠdÃ©termin er
ĠprÃ©sent er
ĠprÃ©v u
Ã©tu des
Ġpl aces
Ġdev rait
Ġchiff res
an itÃ©
in ves
Ġt on
M P
Ġp ou
lo ie
Ġpat ri
Ġreven u
di ction
am Ã©nagement
n et
ar ts
ĠQ ui
I C
Ġm urs
Ġmen ace
Ġconc l
v itÃ©
Ã´ ts
Ce ci
O S
ĠÃ©c rite
Ġtrou bles
Ġ ~
Ġd its
ĠL Ã©
Ġorigin ale
ti me
ĠC D
ex iste
Ġmanifest ations
b an
Ã©v Ãªque
Ġcherche urs
ĠrÃ©uss it
Ġv erre
Ġoblig atoire
ĠrÃ© ussi
ĠrÃ©v Ã©l
Ġrep os
app r
Ġsal les
Ã© qui
Ġaux que
Ġl un
Ġcour ants
ĠdÃ©m ission
ĠaÃ©ri enne
Ġparall Ã¨le
m osphÃ¨re
Ġmon ast
Ġvain que
ĠB ordeaux
ĠP an
Ġj aune
enf ant
ĠrÃ©v Ã¨le
Ġcath oliques
ĠÃ©vo que
Ġsc rutin
adi es
r lande
ch estre
e z
Ġconc erts
Ġtraditionn elle
de mment
du its
ĠAl l
Ġgen res
i us
Ġcompos iteur
is tÃ©
Ġt ur
Ġ191 4
Ġlie ut
Ġconseill ers
ĠM aison
ĠCh Ã¢
c re
ĠR oi
Ġr ues
ĠÃī tienne
Ġs core
ĠT rois
ĠD is
ĠrÃ© cemment
Ġr h
ĠvÃ©hic ules
Ġd ot
Ġjourn aliste
ĠdÃ© ten
Ġp an
Ġn or
ox e
Ġm erc
it an
Ġterr estre
Ġdestin Ã©
Ġp ur
ĠCalif orn
l ing
Ã©r ences
ĠprÃ©cÃ©d ent
ĠC amp
ĠH it
Ġmo indre
Ġquoti di
ex tÃ©rieur
Ġcar tes
fi Ã©
isse ments
Ġsouh aite
ra Ã«l
ad er
Ġmont rent
Ġlanc Ã©
Ġinstru ments
Ġal titude
Ġconsac rÃ©
ĠRh in
ĠF C
Ġmati n
ic es
Or lÃ©ans
Ġfron tiÃ¨res
Ġpopul aires
en sement
se e
op s
Ġcr ist
expÃ©ri ence
ĠS ol
Ġparticuli Ã¨re
Ġtra ins
rop ri
Ġcompr enant
Ġassoci ation
Ġd ange
Ġc ous
er ine
Ġn aÃ®t
ĠS y
Ġatte ign
aut ant
ĠCaliforn ie
ra c
7 0
ĠM os
Ġjuridi que
Ġac quis
roph e
at ures
Ġpersonn alitÃ©s
Ġrecomm and
ĠÃ©v olution
Ġper Ã§
ĠpÃ©ri odes
app ell
ĠcÃ©rÃ©m onie
ai es
ĠE s
qu ante
Ġcomplex es
Ġs oir
Ġmusul man
Ġpour quoi
Ġfra is
Ġpuis se
rup tion
ori a
ensi ve
ĠdÃ©partement ale
Ġsou ter
ĠNation al
e k
ob tenir
Ġsimp les
Ġurb ain
op le
Ġmen ac
Ġre pose
Ġr Ãª
ĠreprÃ©sent Ã©
w ood
ĠW est
Ġa te
ĠF lor
ĠdÃ©b ute
inst alle
Ġorient ale
ĠamÃ©ric aines
ĠsÃ©j our
ĠimpÃ©ri ale
ĠdÃ©partement al
ĠLor raine
Ġinternation ales
ĠJui fs
Ġret ourn
ĠfrÃ© quemment
ĠRo che
ĠM ic
Ġrapp orts
Ġdirec te
ĠCol omb
Or ganis
Ġh Ã©ri
ĠrÃ©p ert
Ġviol ence
ra se
Ġrec ensement
Ġfro id
it Ã©e
Ġimport ance
Ġdom es
Ġch aud
ĠGerm ain
Ġmet tent
ti ble
Ġaugment ation
Ġman us
ĠB u
Ġla it
ĠG ui
Ġd ram
ĠÃ©t ro
Ġchange ments
re ts
Ġcar t
Ġ194 8
ĠCar l
Ġnavi re
ĠVers ailles
Ġh yp
Ġmet tant
Ġlib Ã©ration
ĠÃ© vid
ag nies
Ġcomp t
entre r
Ġs ph
int ro
Ġad joint
ĠÃ©t ape
Ġt o
Ġrec ouv
Ġaugment e
Ġdu chÃ©
ĠW il
Ġcou che
ĠbÃ©nÃ© ficie
Ġindivi dus
ĠAl ain
ĠP en
Ġsur veill
Ġlim itÃ©
Ġsucces seur
Ġlab el
ign y
Ġab b
Ġsecond aire
ĠP lan
ĠprocÃ©d Ã©
Ġclassi ques
ĠRog er
ĠMont rÃ©al
archite cte
ĠstratÃ©g ie
Ġg agne
Ġan nex
Ġcandid ats
en ue
Ġrapp ro
Ġposs Ã¨dent
Ġid Ã©e
ĠL ac
Ġrestaur ation
Ġnoy au
Ġpris onniers
Ġchap itre
Ġf oi
Ġinstru ment
Ġpar am
Aut res
Ġar g
ĠB oul
Ġconcent ration
Ġferrovi aire
Ġb elle
Ġ195 6
va sion
H enri
man ie
ĠC at
ĠÃ©ch app
ĠÃ©pis ode
Ġs aisons
Ġcircons cription
Ġh on
Ġproven ant
Ġcong rÃ¨s
Ġconser ver
ĠMich ael
S aint
ĠD om
Ġremplac er
Ġplac Ã©
Ġolymp ique
Ġmonn aie
Ġvien nent
Ġ194 9
Ġoffici ers
An d
oi gne
Ġsal ari
Ġtrouv Ã©
Ġdirig Ã©
Ġg la
Ġrepr endre
ĠfrÃ©qu ence
ab eth
ĠsiÃ¨ ges
Ġ196 3
Ġfun Ã©ra
en tique
A T
Ġp ic
tt om
ag og
un ion
Ġcomp lÃ©ment
ĠSu Ã¨de
Ġ194 7
Ġm ang
Ġcon duite
Ġmal adies
Ġmusul mans
Ġlogici el
Ġph on
enti ne
Ġbour geois
r omp
Ġrel ative
Ġch oc
ĠdÃ©f aut
Ġloc alitÃ©
Ġdis posi
Ġch risti
Ġex ter
Ġdes cription
ĠpÃ©ri ph
ĠT ar
ond ation
ĠN ations
ĠcÃ©lÃ¨ bres
ĠB elle
Ġcol onie
Ġcl o
Ġcour te
ĠintÃ© rÃªt
Ġa Ã®
Ġc av
ass ade
Ġra rement
app lication
Ġconn ues
aff aires
Ġbou d
mb l
ul le
ĠdÃ©b it
Ġcarb one
raire ment
ĠF estival
Ġth Ã¨se
qui ert
Ã©nie ur
Ġmusic ale
ar r
Ġr up
Ġb ot
Ġsimil aire
Ġl inÃ©
Ġtu Ã©
Ġh ui
Ġrenouv el
h or
Ġl our
ĠS il
Ġouv re
Ġattest Ã©
Ġpro vis
ĠM onde
Ġa ide
lis me
tif ic
Ġes cl
Ġindustri el
rog raph
ĠdÃ©g rad
ard ins
Ġfr om
Ġbr ut
ĠphÃ©nom Ã¨nes
ar me
Ġch ron
ĠN am
Ġapp lication
Ġpl ais
Ã©m at
ĠÃ©p ous
Ġenv ah
Ġfix e
qu a
Ġh or
Ġter rains
ĠP ra
a vec
ĠV ir
ĠrÃ©g iment
os itÃ©
ĠF rÃ©dÃ©ric
g h
Ġs Ã©v
or y
Ġconst ante
ier res
Ġtravers Ã©e
ĠrÃ© duction
Ġp ages
Ġex tÃ©rieur
Ġsitu Ã©es
ĠPe tit
isl am
Ġc re
ĠL os
Ġcomp agnies
Ġconf Ã©rence
ĠR ec
Ã©tab lissement
T ra
Ġvari able
A R
ĠA li
Ġv oient
Ġvis ible
Ġprofonde ur
Ġp seud
Ã¨ ler
ĠCh risti
Ġconf l
Ã©rie urs
ĠPortug al
Ġpauv re
Ġoise aux
Ġrem onte
Ġaj out
ĠsÃ©par ation
ĠÃ ¨
ĠdÃ©f end
Ã©ri r
ĠD aniel
Ġlong ues
ĠHen ry
Ã©criv ain
ur y
ag Ã©s
ale m
Ġ15 0
A lexand
h u
ĠdÃ©m ons
Ġfavor able
app ro
l ymp
ĠB at
mi le
onn Ã©s
Ġcerc le
Ġvra i
ĠexpÃ©ri ence
ĠdÃ©cid Ã©
Ġmus iciens
Ġpeup lÃ©e
end ie
Ġatt endre
Ġpo sitions
Ġchev aux
Ġdiam Ã¨tre
Ġchale ur
ĠrÃ©g lement
Ġsuiv ent
r Ã¨
Å Ĵ
Ġth Ã¨mes
Ġm os
Ġ195 4
Ġcitoy ens
Ġespagn ole
mi r
ĠdÃ©tru it
ĠcÃ´ tes
Ġs oleil
Ġab ond
ĠL uxemb
Ġpe au
pec tive
Ġsur vi
ĠprÃ©cÃ©d ente
Ġmanus crit
Ġm Ã©tÃ©
Ġt op
tra tion
Ġ193 6
ti les
ĠH ol
Ġti re
Ġautre fois
inf anterie
ĠAug uste
av ie
Ġrac onte
Ġgerm anique
Ġre lÃ¨ve
Ġsou tient
ĠGen Ã¨ve
Ġfort es
ĠprÃ©v oit
res sionn
Ġch Ã¢
ob jectif
Ġimp ossi
Ġsemb lent
aci fique
Ġappr end
Ã©r ard
Ġenv oie
Ġpol on
Ġespagn ol
r Ã¨te
w ard
ati e
Ġfourn it
Ġspati ale
ĠrÃ©v olte
Ġsouv enir
Ġpar aÃ®t
2 2
Ġrec ru
ĠintÃ© rie
n y
h Ã©r
Ġn orme
ĠspÃ©cif iques
histor ien
Ġconserv Ã©
ĠN antes
Ġdispon ibles
Ġinter commun
Ġprop ag
Ġprog rÃ¨s
Ġdans e
Ġ195 9
c ence
Ġdom icile
Ġcal c
D Ã©b
ĠmÃ©t rop
Ġinst allÃ©
l ot
ĠA f
Ġsou mis
Ġiss ue
rÃ© h
nation al
Ġconcur rence
g ra
Ġd ig
ac ts
ĠconsidÃ©rÃ© s
Ġprofessionn el
Ġocca sion
ĠBrit anniques
Ġla issant
Ġalli Ã©s
Ġl ourd
Ġcon qu
igue ur
olu tions
Ġchois it
Ã İle
Ġv igueur
Ġde grÃ©
Ġc oul
Ã©t ranger
Ġinf Ã©rieure
ĠGau lle
Ġbret on
ĠdÃ©p ass
Ġmar Ã©chal
Ġlinguis tique
ĠB ill
Ġ3 00
Ġexemp les
r us
ĠM ur
ĠG ro
Ġav ent
Ġcommenc ent
ĠrÃ©volu tionnaire
gn y
z z
ĠT im
ĠdÃ©m ographique
ol ith
Ġpro vient
Ġpossi bles
ĠL ong
ĠF land
ĠSim on
Ġchamp s
Ġ5 00
Ġ196 1
Ġpro lon
ĠW ar
Ġv enant
ĠG ir
Ġf aute
ĠÃ© rig
Ġcamp agnes
Ġlieut enant
y me
Ġs oli
ĠsystÃ© matique
ĠM as
Ġass urer
A P
Ġm ys
ĠtempÃ©ra tures
ĠdÃ©mocra tique
Ġpil ote
ĠFran k
Ġorganis Ã©e
Ġ191 8
Ġ3 4
ĠF Ã©dÃ©ration
Ġmis es
ĠÃ©lect ronique
Ġs oix
Ġsigni fiant
ĠcompÃ©t ences
Ġapp arition
Ġmont agnes
Ġa chev
in ion
Ã© ph
ci ers
ou che
Ġprofessionn els
se ignement
ĠextrÃªme ment
Ġp Ã¢
Ġat h
til lerie
Ġcolon ies
ĠB erg
Ġp ierres
Ġcomp let
ĠchaÃ® nes
Ġcondam nÃ©
ou b
ĠT ro
ash ington
ur ie
Ġdistin gu
ouv rage
Ġsub it
ul t
Ġdessin Ã©e
Ġac tes
Ġconfl its
M Ãªme
in form
Ġnation aux
ul ent
Ġbas Ã©
ĠM ath
ĠdiffÃ©r ente
Ġred Ã©c
Ġv ac
Ġes c
Ġparticul es
Ã© mique
ĠrÃ© form
ec k
Ġmil it
Ġpor tug
Ġcontempor aine
P remi
r Ã¢ce
Ġpl ant
Ġlance ment
Ġadop tÃ©
Cont rairement
Ġac tive
ĠS tu
ĠT re
ap es
Ġspectac le
Ġchi mique
Ġnobles se
um el
Ġar bres
oc Ã©an
ĠC ompagn
inter prÃ©
ĠnÃ©cess itÃ©
l Ã©es
Ġsec teurs
3 5
Ġmach ines
Ġdevi endra
ne au
Ġpropos Ã©
Ġprom otion
autom ne
en a
Ġfran cs
d om
Ġf asc
Ġn at
Ġaccompagn Ã©
ĠÃ© chec
Ġten ir
Ġinstall ations
Ġbas Ã©e
ĠrÃ©gion ale
res sions
Ġvi de
Ġdifficul tÃ©
Ġmo teurs
ĠAn ton
as tes
Ġpr enant
ĠE sp
Ġqu ad
res ser
anis ation
Ġpropri Ã©taires
Ġaccue ill
ĠAngl ais
Ġp ous
ul f
Ġlit tor
Ġclass Ã©
Ġinter pr
Organis ation
ĠL Ã©g
Ġexp li
Ã¨ che
Ġan alyse
Ġexist ent
Ġrespons ables
Ġenc ou
Ġmont rÃ©
ĠreprÃ©sent er
lac k
al g
Ġdi oc
I B
Ġg oÃ»t
Ġten sion
ĠCh Ã¢teau
Ġcom Ã©die
ug by
Ġ187 0
Ġn ar
Ġadministra tif
Ġsa x
au ph
Ġconf ront
Ġchan teur
j ection
Ġpro sp
ĠapprÃ© ci
Ġemploy Ã©
Ġv endre
Ġrapp roche
en reg
osc ou
Ġpap ier
Ġop Ã©ration
Ġ3 9
ĠChrist oph
Ġm ut
ĠG as
Ġne ur
Ġminist res
Ã©g al
ven u
aff ir
an iste
Ġb andes
qui de
ĠO li
os a
aut or
ĠdÃ©fin ir
Ġsucc Ã¨de
Ġdestin Ã©e
Ġcollec tif
ter ie
Ġsig nes
ĠÃ©l oign
ĠT ch
ĠdÃ©f endre
ĠIn de
Ġboud dh
Ġcont est
ĠÃ©g lises
Ġcommerci ale
ĠW ashington
Ġir rÃ©
Ġle v
ĠrÃ©public ain
en nies
ĠdÃ©velopp Ã©e
Ġhum aines
Ġsorti r
ver gne
ĠP yrÃ©
ĠÃ©v Ãªque
Ġphilosoph e
d am
Ġ194 3
Ġmai rie
aptis te
or ith
ĠRen aissance
Com position
ĠdÃ©c ennies
Ġcan on
ar mes
Ã¨ nement
ĠF e
Ġmunicip ales
Ġb yz
Ġaut rich
ĠÂ ·
i vement
Ġli quide
Fin alement
Ġex tension
ĠM it
Ã® tre
ex trÃªme
Ġjapon aise
Ġann uelle
Ġv entes
Ġmauv ais
ang lais
Ġob jectifs
Ġpays ans
ul l
ad is
Ġdistin guer
Ġou tils
Ġapp roche
ĠO p
ĠHong rie
Ġp ertes
Ġc aval
app u
au mes
rastru ctures
Ġfran co
Ġen tiÃ¨re
Ġdirig Ã©e
ĠPyrÃ© nÃ©es
Ġla tine
Ġri g
ĠrÃ© nov
ĠÃī c
ĠCor Ã©e
3 7
Ġremp ortÃ©
ram m
Ġvari ables
ĠBar b
ĠÃī douard
ĠR i
Ġpouv aient
Ġpri mi
d itÃ©
Ġco di
B C
Ġtechn ologie
erci ce
y e
ou c
Ġcontra int
Ġphysi ques
ĠB aptiste
ĠL ab
Ġpro s
Ġv all
Ġenvoy Ã©
Ã©lect ricitÃ©
ĠconÃ§ u
ĠM ass
Ġreven ir
of t
ĠCath erine
ĠfaÃ§ ade
Ġrece voir
Ġconstru its
ĠStra sbourg
Ġ195 5
Ġfourn ir
Ġconnaiss ances
fre d
Ġlib res
ĠM oscou
ĠB ob
Ġp un
ĠCÃ´ te
v res
ĠdÃ©clar Ã©
Ġm am
ĠN eu
Ã³ n
Ġver tic
is Ã©e
ĠD ur
Ġconst at
Ġbr ill
i um
Des cription
Ġdiscip line
ro c
Ġfl ux
Ġ194 2
ĠC rÃ©
Ġj ardins
Ġtrouv ait
ĠS ur
Ġrec ours
Ġfinanci Ã¨re
Ġrespons abilitÃ©
Ġpro clam
ĠÃ©c rire
opul ation
Ġblan cs
t o
uss es
Ġ195 7
Ġor g
ĠrÃ©p utation
Ġv ec
2 4
m age
mp er
Ġar gu
ĠT ri
Ġac te
Ġoc Ã©
re y
ak e
Ar mÃ©e
Ġdoctr ine
F ran
Ġa ire
lan c
ĠreprÃ©sent ations
s me
Ġtemp or
rie d
Ã¡ n
Ġsec ours
Ġfig ures
s h
Ġent rÃ©e
Ġconserv ation
ĠB Ã©
C omm
Ġra ce
Ġlaiss Ã©
Ġ os
Ġr Ã´les
ĠdÃ©sign Ã©
habit ants
Ġsu ici
ĠrÃ©par tis
Ġrapp elle
Che z
ex c
Ġb Ã©n
eng age
Ġco Ã»
Ġco opÃ©ration
Ġbi ais
Ġinform atique
ĠAmÃ©ric ains
enreg istre
Ġminim um
Ġsuffis amment
met tre
Ġl y
il Ã©
ĠÃ©v Ãª
Ġgro ss
ĠL is
ĠintÃ© rÃªts
ĠdÃ©mocra te
ĠpÃ©n ins
Ġappare ils
lu ant
Ġmont Ã©e
ĠIn ternet
Ġchin oise
ĠLuxemb ourg
U S
p ie
Ġcond uis
anim ation
I S
h ypothÃ¨se
ar in
Ġaccord s
phab et
ti ss
fi Ã©e
o que
Ġ16 6
Ġ ign
ĠprÃ©par ation
in Ã©e
Ġ3 7
ĠMil an
Ġv an
ĠL an
4 8
tu aire
ar tiste
ci le
tionn els
Ġ195 2
ĠmÃ©d aille
Ġcri ti
Ġpr it
ex emple
g Ã©es
Ã© mi
Ġaspect s
av is
Ġpois sons
ĠgÃ©n Ã©tique
Ġst ric
ĠZ e
Ġret ard
Ã©qu ilibre
Ã© les
Ġutilis ation
Ġp Ã¨ler
s ki
Ġsus c
yg Ã¨ne
Ġdistin ction
Ġpos tes
Ġ194 1
Ġ7 5
Ġ å
ub les
Ġcin quante
olf e
b urg
ch t
Ġv ais
Ġ195 3
Ġunivers itaire
Ġv ou
Ġb rig
Ġinternation aux
ĠB ab
Ġth erm
ĠfÃ©min in
O p
Ġp Ã©r
Ġex ac
Ġas c
trÃ© mitÃ©
lis te
ĠÃ©ch anges
us alem
Ġcapit al
Ġchi miques
ie f
Ġsatis f
Ġm Ã©ri
or at
au tes
Ġadministra tives
Ġcrit Ã¨res
Ġ19 00
Ġorganis mes
ess entiel
Ġmunicip ale
u Ã©
ro its
2 3
Ġcom tes
Ġb aie
Ġten ue
Ġg ri
Ġfin al
Ġform ant
Ġsuff rages
Ġquar ante
Ã©rit age
Ġseigne urs
iterran Ã©e
Ġdesserv ie
ĠR am
ass urer
Ġjudici aire
Ġtr oupe
avi er
Ġac tif
Ġin tÃ©rieur
Ġpens er
ĠNo Ã«l
Ġ3 8
Ġn ormes
Ġ193 8
ĠÃ©quipe ments
Ġper c
ĠdÃ©couv ertes
igh t
Ġ16 0
ĠdÃ©mocra tie
Ġreli ant
ar rÃªt
om o
el in
Ġam ou
in cl
ain issement
al ie
ers on
Ġfa me
ĠPal ais
4 7
Ġm ines
i Ã©es
hÃ´ pital
roph es
ĠdiffÃ©r ent
Ġm Ã©l
ra k
inst ar
Ġ4 8
Ġgagn er
Ġn atur
ĠÃ©c ologique
Ġf re
ces seur
Ġpie ds
A c
ĠdÃ©b ar
Ã©lev age
Ġhi Ã©r
Ġeffectu e
di on
ĠC ant
Ġpersonn alitÃ©
Ġrup ture
Ġp Ã´le
Ġmon archie
ab and
Ġassoci Ã©e
li mat
Ġparticip Ã©
Ġatta ques
Ġn ations
Ġhau tes
Ġimpossi ble
ĠP eter
ĠrÃ©c ur
ĠÃ©mis sions
ĠC e
Ġremp lace
Ġjourn aux
Ġlic ence
ĠAn g
ĠÃ©tu die
Ġouv riers
Ġmor ale
ĠMÃ©d iterranÃ©e
Ġch anger
ĠF i
Ġquoti dien
9 0
Ġen ch
ĠlÃ©g end
Ġcui vre
enn is
Ġexemp l
ĠVen ise
Ġcomp lÃ©
ĠthÃ©or Ã¨me
E mp
Ġst y
Ġpar ent
ĠconsÃ©qu ent
Ġfort er
Ġd anger
Ġmusic al
as tiques
ĠF ort
ĠW ind
f t
Ġp iste
Ġprot oc
ĠP Ã©t
Ġdur able
Ġch auss
exÃ©cu tion
esp Ã¨ce
Ġparticuli ers
ĠrÃ©un ion
Ġdiffus Ã©e
Ġlimit Ã©e
c om
alis Ã©es
ĠrÃ©s olution
actu elle
Ã©qui p
ĠP et
Ġconcur rent
ĠCompagn ie
V oir
Ġcollab or
Ġparlement aire
ĠF ront
Ã© ens
ex position
Ġcon vention
Ġpropor tion
Ġex ig
ill Ã©e
Ġ17 0
Ġprovis oire
or ld
Ġcat ast
Ġcivil isation
ur o
Ġviv ent
Ġlanc er
Ġf en
ĠrÃ©gion ales
re lle
ĠthÃ© ories
3 6
Ġd os
Ġcom Ã©di
ĠN ouveau
Ġautom atique
Ã© lu
Ġparti ellement
Ġsac ri
Ġmajoritaire ment
ĠM es
Ġper f
Ġmess age
Ġmont rer
Ġposses sion
Ġvesti ges
w in
Ġoccup Ã©
Ġprofessionn elle
Ġpour raient
ĠM oul
di os
ĠN Ã©
quis ition
ĠM erc
Ġmaint en
Ġryth me
Ġt oit
ĠrÃ©f ormes
erm ont
Ġretour ne
ĠD omin
le ver
ier ge
ĠA ra
Ġrou ges
Ġgall o
2 6
Ġrapp orte
Ġ16 8
ip el
ĠR ol
inter vention
Ġmyth ologie
ĠCh ic
as tre
ĠS A
rog Ã¨ne
Ġbac tÃ©ri
Ġcolon el
ar riÃ¨re
Ġch auff
ĠpÃ©nins ule
ĠC N
Ġsuiv ie
Ġexclus ivement
v et
co ol
semb les
ĠAngel es
i ant
Ġl ign
Ġp yrami
Ġro tation
ĠrÃ© elle
Ġan alys
pe ur
ĠÃ©n ergie
ch a
Ġapp lications
Ġces se
Ġsurf aces
ĠJÃ©r usalem
or ique
ĠM ons
Ġorganis ations
Ġexp lic
Ġdi man
are il
Ġdimen sions
Ġh erb
j ect
ol o
ĠA c
Ġconstru ctions
Ġ6 4
Ġsatell ite
Ġpo Ã©sie
adi o
ĠV ar
ĠT ib
us ine
agn os
ĠprÃ©c ision
Ġterritori ale
ve urs
ĠmÃ©tro pole
Ġou b
Ġvoyage urs
2 8
ĠG Ã©rard
Ar g
ĠmÃ©d iterran
Ġtable aux
Ġemploy Ã©s
E C
lus ion
Ġaj oute
ĠnÃ©goci ations
oc c
An g
Ġv ise
ĠC I
Ġj azz
Ġ193 3
ĠXI V
Ġchristi anisme
ĠT om
ĠdÃ©p lace
ĠdiffÃ©r ences
ĠÃ©lect riques
Ġcircu it
i erre
ĠvariÃ©tÃ© s
ĠA ff
ĠR od
Ġg lace
ali mentation
ĠnÃ©cess ite
Ġf aux
ĠD ire
ĠprÃ©sent es
Ar m
abb Ã©
Ġsouten ir
ĠAl li
A fin
an y
um ul
Ġb Ã©t
Ġs is
in vent
or ge
Ġindi c
Ġculture lles
Ġvois ins
ĠChristi an
ai b
ĠConstantin ople
H omme
rÃ©s or
Ġnorm ale
Ġv Ã©ritÃ©
Ġr ent
Ġann oncÃ©
oi g
urg ie
Ġdivis Ã©
ĠhÃ´ te
Ġsus cep
ĠG Ã©
onn ais
Ġconf iance
Ġfou illes
ĠAs ie
li gn
Ġar rond
Ġpot entiel
Ġc ycl
Ġpi ano
ig ration
ĠD un
Ġcli ent
Ġinves tis
Ġsouten u
Ã©m an
Ar t
ĠprÃ©cip itations
Ġpass agers
Ġl ire
Ġtradi tions
h t
Ġpar ole
Ġcollec te
Ġcardin al
a che
Ġ192 9
G rÃ¢ce
Ġre lev
Ġac teur
C omp
m ins
ĠC os
ĠP oi
ĠÃ©tablis sement
Ġautonom e
ad op
Ġdiz aines
Ġsy l
ĠT rÃ©
Ġve ille
Ġconf orm
Ġ195 1
ĠDe ux
Ch ar
Ġint Ã¨gre
Ġlogici els
u lier
Ġ191 9
Ġmor ph
ĠrÃ©pond re
ay a
Ġant h
ĠD iv
Ġtraditionn el
Ġorth od
ĠRay mond
Ġro che
Ġent er
Ġnour riture
i tions
Ġmodi fications
L ieux
Ġtri om
Ġp es
Ġm ou
ĠD ub
Ġcommun istes
lie ue
Å «
ĠW iki
U rb
Ġe m
Ġvol s
ĠV ie
Ġpuiss ant
Ġdiz aine
ĠrÃ©d action
y o
enti ss
ĠnÃ© o
Ġca f
n am
ĠÃ©t ats
Ġtrans mission
Ġ16 7
Ġf Ã©
ĠdÃ©clar ation
yst Ã¨me
Ġdu quel
anc el
Lors qu
Ġcl in
Ġallemand es
ĠlÃ©g iti
Ġ193 7
Ġseul es
is h
ĠCommun autÃ©
Ġh oriz
Ġo x
Ġrecons tru
a us
ĠM et
id entif
Ã©lÃ¨ ve
Ġempl oi
Ġj et
id itÃ©
Ġcl airement
appell ation
b al
Ġad mi
ĠdÃ©si r
Ġenvi rons
Ġcons Ã©c
Ġfl am
Ġemp ereur
N S
ĠH el
Ġ12 0
ha us
ĠK ing
Ġmati Ã¨res
Ġch ronique
2 7
os ent
iss es
tr ise
UR SS
c is
ĠCh ris
Ġsynth Ã¨se
Ġc od
ĠAr m
D Ã©c
u alitÃ©
Ġess ais
ĠsupplÃ©ment aires
ĠrÃ©sid ences
Ġg amme
Ġsp orts
lÃ© si
Ġmen er
Ġ5 1
Ġparc our
onc le
ac itÃ©s
Ġmar in
Ġsec ret
Ġfus ionn
ĠBr est
Ġorigin al
ĠdÃ©b arque
lic itÃ©
Ġ179 3
ĠM un
Ġcorrespond ance
Ġjui ve
Ġnette ment
Ġdess ins
ĠD V
ĠpÃ©tro le
n o
si m
Ġex Ã©c
ĠV e
Ġappel Ã©es
Ġreconn aÃ®t
Ġmonast Ã¨re
Ġc ouverture
Ġh ect
Ġsu Ã©d
Ġo ttom
Ġac tifs
Ã©di a
enn ie
emp lacement
ix e
er me
Ġdeven ant
Ġvari ations
M ar
4 5
en ci
Ġchar ges
T yp
Ġseigneur ie
Ġ om
Ġnoir s
ine ux
Ġban lieue
ĠL une
oc at
ĠAn ti
ĠG all
ist ocra
ĠdÃ©f ait
Ġconsac re
ĠNor v
ali tion
uff is
Ġs anc
Ġdestin ation
ĠmÃ©t aph
Ġangl o
ĠnÃ©er landais
ro t
Ġp on
Ġch ir
ĠÃ©v olue
Ġ193 4
Ġcl air
Ġbi ent
Ġmarch Ã©s
Ġt rip
Ġb anc
ĠÃī gypte
ĠJ ourn
Ġretra it
ĠSt ar
Ġbate aux
Ġvais seau
Ġgr en
ĠM ans
Ġbient Ã´t
Ġv ins
ab s
ist er
Ġvainque ur
P opulation
ĠcompÃ©t ence
Ġt ub
Ġgra ve
ĠindÃ©pend ante
k et
Ġc ur
ĠÃ©vÃ© nement
en e
Ġconse ils
ĠprÃ©d Ã©
olith ique
tionn aires
ĠÃ©trang Ã¨re
ĠP o
am ine
Ġren ommÃ©e
ĠY ves
Ġcab inet
g ar
ĠAm er
Ġm ens
ĠprÃ©t end
Ġ5 5
tra it
oll y
ĠÃ©tab lit
Ġtrop ic
ĠmÃ©trop olit
ĠG il
ven tions
ĠF ab
Ã©g alitÃ©
j on
av ent
opp ose
Ġfac teur
ti bles
ĠH i
Ġcin Ã©mat
ĠFont aine
ti lle
app ui
re f
Ġc Ã¢
ĠB rie
ĠrÃ©c its
Ġdoc teur
Ã©c rit
ĠrÃ©alis Ã©s
ĠAr t
ĠB all
Ġcar rÃ©
Ġdivers itÃ©
ch ar
E P
Ġs ki
Ġfer a
Ġpuiss ances
Ġsenti ment
3 2
Ġ16 5
ĠSm ith
ro Ã¯
Ġtra its
Ġa im
ert urb
Ġa qu
us ta
ĠAr g
h al
Ġc ents
Ġfl or
r iss
ĠC onc
oc alisation
Ġapp orte
Ġtrav ailleurs
Ġsurn om
z i
Ġpays age
Ġunivers itÃ©s
ĠdÃ©cis ions
ĠSta de
tionn elles
Ġfac ul
Ġfru it
Ġorb ite
ap arte
n el
ĠO b
Ġph rase
ĠÃ©g al
Ġdi ct
initi ative
ĠVinc ent
Ġf Ãªtes
Ġappar aÃ®tre
Ġdyn amique
Ġcouv re
in ois
Ġpl omb
ace ae
Ġsoli de
Ġt ac
Ġconfir me
om ique
In see
Ġadap tÃ©
au di
Ġvoit ures
Ġpauv res
Ġriches se
3 8
ĠMar oc
Ġpersonn elle
Ġag ents
Ġtra itÃ©s
Ġar c
Ġcomm iss
Ġbil an
ĠE ug
us h
Ġ4 7
ĠconsidÃ©ra blement
ĠA pp
er Ã§
ĠÃ İle
Ã©p is
Ġ193 2
Ġprofond Ã©ment
ĠT Ã©lÃ©
ĠSup er
2 9
age ments
Ġrec on
Ã© ran
Ġgar n
Ġregroup ant
on ciation
Ġtrans ition
Qu ant
Ġpo Ã¨me
Ġbas il
Ġg oth
Ġpo Ã¨mes
Ã©v iter
Ġsimp li
ĠstratÃ©g ique
ĠmÃ©tÃ© or
ro d
c el
ĠCh amb
ven ue
Ġca uses
ĠrÃ©un it
c ent
ou is
Ġun s
Ġmont ant
C O
ĠdÃ©p lacement
Ġdemand er
h om
ot a
Ġinc ar
Ġ191 0
Ġrac ines
Ġpay er
Ġen sembles
ĠO ccident
est es
pr Ãªme
ise mbl
Ġven us
ot o
Ġcap acitÃ©s
man uel
Ġattribu Ã©
as pect
Ġb oÃ®
av a
sid ent
Ġ193 5
ĠRe ich
ar tillerie
Ġbate au
Ġparticip ent
Ġpar f
Ġcommun i
Ġche mins
Ġperform ances
Ġs able
Ġtraditionn ellement
ig nes
P ers
ĠMar ine
ĠM onte
ib ilitÃ©
Ġf all
Ġpart out
ĠPr usse
E l
Ġh ypoth
ĠP acifique
Ġmo ines
Par all
Ġdiffic iles
intÃ©g ration
ist Ã¨re
a cide
ĠdÃ© esse
ell a
Ġcher cher
Ġperd re
Ġc lÃ©
ie ur
Ġin fin
Ġrem ise
A th
Ġratta chÃ©e
Ã ±
Ġent end
Ġp erturb
ab e
Ġlong s
Ġjou ent
Ġr ugby
oc ation
Ġcontempor ains
Ġeff orts
aiss ant
Ġsoix ante
or ne
ĠM iss
Ġremp lacement
ĠdÃ©couv rir
Ġphot os
lig ne
Ġa ustra
are t
tÃ© ritÃ©
Ġimp rim
off re
ĠP au
Ġac qu
y an
Ġdis ques
u fs
ad o
Parall Ã¨lement
at mosphÃ¨re
ac Ã©es
Ġp anne
re au
Ġcon cile
op ie
ob e
Ġr itu
Ġbat tu
ysi que
hum anitÃ©
ĠSy rie
Ġsou lign
ĠmÃ©t aux
r ants
Ġcou ches
ĠÃ©m et
ĠB ol
di ens
Ġpers pective
Ġconsid Ã¨rent
ĠQ ue
ĠconsidÃ©ra ble
ĠÃ¨ re
em ark
ti es
ou Ã©
ĠPat rick
guer ite
u ge
Ġh Ã©b
ĠD ie
app elle
ĠRe d
Ġs el
ve u
Ġassoci Ã©s
Ġarchite ctur
Ġp a
Ġtra m
ĠVic t
ess es
du le
Ġcoup s
ĠP ers
Ġ192 6
ĠC ity
Ġph arm
Ġl ente
Ġexp liquer
ĠÃ¢ gÃ©
A M
Ġcont ribue
Ġanim al
Ãīt ymologie
Ġenne mis
ob el
Ġprogram mation
Ġeng agÃ©
ig er
Ġal ent
du ites
il isation
A cc
cid ents
ĠT ours
ĠPar k
Ġt unn
ĠprÃ©f et
ĠÃ® le
ĠChic ago
ro b
ĠP in
Ġcomp il
Ġ192 4
P at
Ġcri min
p el
Ġw eb
tu me
entiss age
Ġs tÃ©
ycl op
ĠT r
ĠAn s
ĠrÃ©flex ion
um Ã©
ĠprÃ©sent ant
ai gn
ĠdÃ©c ennie
urb anisme
ĠM Ã©
f Ã¨res
Ġnot es
Ġp en
Ġg ramm
ac o
oph one
In d
Ġentre r
ĠexpÃ©ri ences
Ġform ations
Ġmain tien
Ġh iver
op t
odi que
Ġvol umes
observ ation
ĠÃ©t oile
Ġfut ure
d en
Ġappr ouv
H yd
S yn
Ġprodu cteurs
Ġsix iÃ¨me
install er
Ġperform ance
ĠDan emark
om ination
ĠIn s
ĠCol le
ĠT V
Ġscol aire
Al gÃ©rie
Ġretr ouvent
3 4
Ġp in
ĠJ osÃ©
ou k
in vasion
Ġg ris
Ġmon op
ĠCon vention
eff ond
Ġaband onnÃ©
ronom ie
aj out
y ph
Ġal Ã©
ĠB lack
oph ones
ai g
Ġb lo
Ġch rom
ĠdÃ©p it
ĠrÃ©ser ves
ĠC in
Ġmar ais
Ġdestin Ã©s
Ġvir us
Ass ociation
ĠR D
ĠÃ©p reuves
m Ã©t
en ait
ar rÃª
Ġbou lev
ati n
ĠJac ob
Ġmyth e
Ġense igne
s a
lis abeth
Ġ15 6
ĠrÃ©guli Ã¨re
Ġintit ulÃ©e
Ġrur ale
ĠLiv re
ĠÃ©vid ence
Ġdioc Ã¨se
ari a
Ġlim iter
Ġva peur
ĠS icile
Ġpr Ãªtre
Ġrac ine
os Ã©e
x e
Ġtrib us
Ġaliment aire
Ġm ill
Ġt onnes
Ġar rÃªt
in verse
ĠrÃ© cep
Ġsign ature
in ture
Ġun ies
ĠT ok
ĠRou ge
A ustralie
ĠdÃ© cident
Ġcomm Ã©m
Ġtour istique
Ġla Ã¯
du ctions
Ġm u
ĠA ub
lu le
Ġch Ã´
Ġch amb
Ġh an
Ġman ip
E s
ri ment
ĠM and
Ġdiman che
Ġcomm is
Ġmanif este
ĠdÃ©p asse
h arm
Ã º
ab ilis
ĠV II
Ġcomb us
Ã©f ense
Ġmauv aise
ĠPar c
install ation
Ġquasi ment
Ġpoursui vre
f er
Ġne ige
Ġtou che
Ce ux
Ġrest re
Ġch Åĵur
Ġvi ande
ĠmÃ©dec ins
l ys
oi ci
ĠAr n
ĠprÃª tres
ĠR och
ĠJ an
Ġord onn
Ġjui fs
Ġgraph ique
Ġcuis ine
es cl
Ġs olutions
Ġaut oritÃ©
Urb anisme
3 3
ĠA v
quit aine
op inion
Ġ4 9
Ġconsid Ã©rer
w a
ĠC ont
Ġass urÃ©e
oh n
oll and
ĠFland re
Ġe cc
og Ã¨ne
Ġsim ultan
ĠmaÃ® trise
Ġremarqu able
Ġcontro vers
Ġpro ch
av ance
Ġfid Ã¨les
Ġfinance ment
Ġa ir
Ġ192 8
ĠÃ©ch elle
lÃ¨ vement
ur rection
au f
Ġcomp ens
Ġvers ant
anc y
Ġpopul aritÃ©
avi on
Ġrend ent
Ġr uis
ĠN ice
Ġcons ist
ĠGre cs
ag a
Ġque lle
itÃ© es
ass assin
Ġcolon i
Ġsur v
Ġh ypothÃ¨se
Ġar rivÃ©e
Ġinter vient
ĠvÃ©hic ule
Ġra v
ĠH ab
Ġprob able
ĠcaractÃ© rise
Ġcommerci ales
Ġlabor atoire
Ġend roit
n aire
ti ge
Ġg rÃ©
O ff
Ġdi agnos
Ġport s
Ġz o
Ġ it
Ã©ra ble
id entitÃ©
Ġcol onnes
Ġdev aient
Ġmag as
Ġmodi fication
ĠHit ler
ois es
ĠrÃ©fÃ©r ences
ĠMad rid
Ġhame au
Ġr omp
p ent
tin s
Ã¨ vement
as on
Ġtre ize
Ġrec ueil
Ġpubli Ã©s
ribu tion
r ine
Ġtermin ologie
Ġen ce
ĠprÃ© s
aÃ¯ que
Ġhaut s
ĠBon aparte
Ġther mique
Ġquat or
ĠD ar
F F
ĠC el
lo w
duc teur
Ġqualif ie
Ġfinanci er
Ġv endu
Ġ5 2
autor oute
Ġc ass
h Ã©m
Ġsurveill ance
on age
lÃ©g ation
ĠG abri
ĠT ou
B eau
ĠS on
ĠdÃ©b ats
Ġbi ologique
Ġf ur
al ors
Ġ178 9
ĠmolÃ©c ules
b a
ĠC ond
Ġsymb olique
Ġmultip li
Ġm ons
Ã©r ite
ĠprocÃ©d ure
ĠT al
Ġ el
Ġpour ra
Ġcro ise
Ġeffectu Ã©
Ġrej oign
4 2
Ġbran ches
ĠS ab
ouv oir
chev Ãªque
Ġv ague
ĠD am
Ã©ra tions
Ġimp ressionn
Ġcaval erie
ĠS au
ĠT unis
Ġautom obile
N I
Ġser vent
Ġcl ergÃ©
acc omp
Ġguit are
on iques
Ġtra it
Ã©tab lir
Ġassi mil
Ġclass Ã©e
di um
Ġchar bon
Ġ16 9
Ġtourn ant
Ġmor ceaux
Ġfinanci ers
Ġdipl Ã´me
ral itÃ©
Ġdisposi tif
Ġarch ives
din and
er y
er ont
Ã® t
land aise
O b
Ġsuc re
Ġinterpr Ã¨te
ut h
Ġunivers elle
ui r
Ġcol line
Ġvra isembl
Ġvois ine
ĠL et
Ġp ousse
ĠS NC
Ġh ong
ser ve
Ġacc ent
Ġcommerci aux
ĠÃ©vÃª ques
o sitions
Ġp Ã©
Ġson de
Ġce ci
Ġindustri els
ĠÃ© dit
ĠCan al
om ie
Ġqu alitÃ©s
ĠI t
ĠcrÃ© Ã©s
ĠreprÃ©sent Ã©e
lo v
Ġras semble
Ġrur al
ĠÃ©t apes
Ġ193 1
Ġmaxim ale
Ġrenforc er
Ġis ra
hÃ© sion
Ġpas sent
arch ipel
actu el
Ġenregist rÃ©
O C
Ġcent aine
Ġcompar aison
Ġrecons truction
orient ation
w an
Ġdou ce
ox ygÃ¨ne
h ommes
Ġma ill
ili ers
ĠprotÃ© ines
Ġpl at
Ġbar b
Ġmodi fier
tellig ence
es c
Ġsu prÃªme
Ġmar quis
Ġrepro duction
4 3
qu ette
Ġnom ination
Ġreconn aÃ®tre
ĠMan che
si ve
urg ence
Ġesti m
and s
Ġco alition
ĠspÃ©ci alistes
Ġprinces se
cl ame
Ġrencont res
aw a
ĠCar ol
Au g
Ġchois ir
ĠrÃ© duite
tin t
Ġproduis ent
ĠchÃ´ mage
Ġ192 5
Ġray onnement
Ã¨ vres
Ġcel lule
Ġmin or
ĠÃ©criv ain
interprÃ© tation
Ġdivis Ã©e
Trans ports
v ue
Ġab rit
Ġinaug urÃ©
Ġforter esse
j an
ati vitÃ©
ĠW eb
Ġaccessi ble
ĠintÃ©rie ure
ĠMar ia
Ġprodu ctions
3 1
Ġv ign
ĠG h
ĠW orld
Ġoffici er
Ġfaci le
Ġavi on
Au c
Ã©ch app
augment ation
p Ã©dia
Ã¨ ges
Ã©n ieurs
Ġcamp s
ou er
ĠR ock
ĠBlan c
ag i
h r
or tÃ©es
Ġvol c
Ġsep tiÃ¨me
Ġcircons t
ĠrÃ© ellement
Ġh arm
Ġar me
ĠW all
Ġco Ã»te
Ġtechn ologies
ĠG old
Ġchar gÃ©e
v ad
Ġarrond issements
u an
Ġindi g
Ġiss ues
ĠcompÃ©ti tions
si er
l age
Ġs ainte
ĠH all
acc ueil
ĠB or
Ġfil iale
Ġtent atives
Ġp el
qu ait
ĠC O
ĠG Ã©n
Ġciv ils
3 9
in n
ĠC ra
imp ose
ĠintÃ©g rÃ©
ĠarchÃ© ologiques
ol le
Ġ6 5
ĠTur quie
Ġfait es
iti mes
ci ent
Ġd ites
Ġv Ã©n
ĠÃ© lÃ¨ve
onn age
exp Ã©dition
Ġten sions
Ġnom mÃ©s
Tou tes
Ġcon nex
ussi ons
ne aux
Ġnom in
Ġcomp tes
Ġsecond es
Ġs ab
Ġpar oles
ĠP omp
Ġvra iment
Ġla tÃ©ra
vi du
Ġalli ance
Ġsing le
ĠGrou pe
se ctes
Ġadap tation
Ġra cc
Ġfinanci Ã¨res
Ġvoc ation
N e
Ġb ri
Ġin hum
ĠrÃ©c ente
Ġs oins
ot ype
Ġinc luant
ar isation
Ġpl aque
erm an
Ġperp Ã©tu
ĠmÃ©ri dion
Ġex ige
ĠH istoire
Ġcol ons
ĠsÃ» r
ĠM en
Ġ4 6
od ore
ĠB ir
ĠÃ©tab lie
Ġretrouv Ã©
Ġax e
Ġch imie
Ġ15 5
Ġtourn er
Ġcolle ctions
b ie
ĠC ode
ĠÃ©v alu
act rice
ĠprÃ© nom
Ã©r indi
app roche
Ġaff luent
inter mÃ©diaire
Ġparis ien
ĠP Ã©
par ti
ĠP Ã©r
ram ment
Ġsuccessi vement
E d
Ġt ch
ĠLoire t
Ġhabitu ellement
I rlande
Ġ Ï
on f
si f
Ġgar anti
Ġlittor al
P rin
oc ie
ĠR adio
ĠtÃ©m oigne
an ni
exp ansion
Ġvingt aine
ĠInter national
Ġ192 1
4 4
ra ux
Ġser vant
Ġancienne ment
Ġ184 8
ĠdÃ©riv Ã©
Ġgra ines
ox yde
Ġdivis ions
Ġcheval ier
Ġs ent
end um
U ti
Ã© chec
cul aire
ag ir
Ġre de
ĠCa en
Ġcontempor ain
s ante
Ġph ases
ose x
Ġappro xim
onc ent
ĠÃ©vent uellement
Ġst able
Ġvill a
Ġpratique ment
Ġcouv ert
Ġmagn Ã©tique
Ġsalari Ã©s
ĠMar guerite
Ġcol onne
ĠÃ©conom ie
ĠM etz
ĠlinÃ© aire
acc ent
app areil
Ġvie ille
Ġbe aux
Ã©c art
Ġ190 5
Ġdonn a
Ã©l ite
Ġ191 7
vie w
Ġcou ramment
ĠlittÃ©ra ires
Ġsatell ites
Ã© enne
ch en
end o
ĠE uropÃ©
ĠsupÃ©rieur es
Ġcontribu Ã©
Ġquotidi enne
C limat
omm ages
ĠEr n
Ġprovo quer
ĠaÃ©ri ennes
Ġb u
al ine
En seignement
ĠÃ©g ale
ĠÃ©le cteurs
4 6
Ġass ur
Ġf ar
Ġan aly
Ġvis age
Ġpriv Ã©es
Ġconsac rÃ©e
ĠC ette
ĠAr ts
Ġcollec tivitÃ©s
Ġlanc Ã©e
oÃ® t
c tive
Ġpro positions
Ġli aisons
Ġpriv Ã©s
Ġterritori ales
Ã©pis ode
ra is
Ġincl ut
ĠmÃ©diÃ©v ale
Ġinfluenc Ã©
Ġhabit ant
Ġtu er
ĠAt lantique
8 5
Ġou til
ĠimpÃ©ri al
Ġt roph
Ġsur mont
Ġad h
Ġinf rastructures
ĠmÃ© tier
A v
ĠdÃ©partement ales
Ġa si
ag issait
Ġ186 0
Ġha usse
Ġa igu
Ġparis ienne
ĠNorv Ã¨ge
l oy
ĠÃ©lect ron
Ġpot able
4 1
ĠmÃ©di ca
Ġspor tif
ĠD uc
Ġex position
Ġpres tig
ĠchrÃ© tien
ĠP IB
Ġrest Ã©
Ġecc lÃ©si
ĠprÃ© serv
intro duction
Ġtra ce
av re
Ġconf ig
indi vidu
Ġvir tu
ĠMus Ã©e
Ġt ap
Ġra ch
Ġgra ves
Ġmix te
Ġpl uri
ĠB ell
ign ons
Ġexc ell
Ġv ag
ay er
Ġver be
ĠAr thur
Ġconstitu er
dom ad
4 9
al cool
at o
im ag
Ġsensi ble
Ġra men
Ġcolon isation
Ġsyndic at
ad el
Ġac quiert
Ġsou d
ov a
Ġcompr om
Ġdistrict s
ĠrÃ© ac
ĠlittÃ©ra lement
Ġin ond
ĠfÃ©min ine
Ġpeint ures
fi eld
Ã ¦
Ġa ient
ĠrÃ©alis Ã©es
ĠmÃ©c anisme
Ġaccueilli r
ĠG er
Ġex il
Ġbl ind
Ġ185 0
ac cep
Ġrenf orce
A F
Ġl u
Ġreven di
z er
Ġsur pr
ct s
Ġes prit
ĠfrÃ©qu ente
Ġnavig ation
D F
Ġc yl
op es
Ġplac Ã©e
Ã¢ me
Ġoccident al
Ġbasil ique
Ġsau ve
R el
ĠL ar
ort Ã©e
Ġreconn ue
Ġdiffus Ã©
Ġrom ains
ram mes
Ġp ath
Ġesti mÃ©
Ġstatis tique
R Ã©s
Ġ191 2
Ġadop te
Ġmarchand s
us sion
ĠJ up
Ġra m
ĠCal ais
ĠDV D
ci a
ĠS S
Ġra yon
Ġ4 00
Ġid entique
ĠrÃ©comp ens
Ġb onnes
Ġgu Ã¨re
Ġferm et
ai gne
Ã¯ n
V ie
Ã© par
ac u
mi er
Ġl ux
Ġa ires
Ġcol or
Ġ oncle
li ques
Ġuti le
ĠÃ© vi
ĠB asse
Ġclass Ã©s
Ġpsych ologie
ĠGau le
Ġpr Ãªt
ĠÃ©t end
Ġoccup Ã©e
A p
Ġb ris
ĠindÃ©p endance
ĠsÃ©p are
Ġpollu tion
ĠB ible
A ussi
ic an
z aine
Ã©tu di
T h
Ġprof ite
ĠFrancis co
ĠH or
Ãªte ments
Pour tant
ro log
ĠG od
Ã©ro d
Ġil lÃ©g
Ġtra iter
ond s
ĠI b
Ġ192 7
Ġcar di
Ġgouver nements
Ġconcl ut
Ġcre us
Ġform Ã©e
Ġpot enti
Ġfisc alitÃ©
ĠdÃ©mar che
E sp
Ġcap ables
ĠS I
Ġj ud
Ġmon te
Ġescl aves
Ġs tim
ic s
Ġfin i
ĠLe e
ĠD j
Ġ192 2
Ġactu els
Ġp onc
ĠR Ã©s
Ã§ ait
Ġdiv ise
Ġray ons
ĠH al
Ġrem is
Ġcon ne
ĠprÃ©v ue
tÃ©rie urs
Ġ5 6
Ġver tu
eff ici
Ġsymb oles
ĠaÃ® nÃ©
ĠF ou
Ġvoul ait
Ġunivers el
ve ux
Ġpro ph
P R
Ġ9 5
Ġus ines
Ġtraditionn elles
s en
Ġcam Ã©ra
ces seurs
ÅĴ uv
Ġen quÃªte
ĠC ab
imp orte
ĠMar y
onc Ã©e
Ġsupp ression
Ġprotest ants
ĠDis ney
D iff
Ġcommun aut
ĠS ac
Ġ183 0
Ġauxque ls
A N
re ur
Ġexp Ã©dition
Ġadul tes
Ġinstall Ã©s
7 7
Ġiniti ale
er te
Ġcomp ati
anc Ã©
Ġpropre ment
en tion
Ġmin Ã©ra
Ġenf ance
ĠrÃ©p ression
Ġculture ls
Ġag rÃ©
Ã©ro Ã¯
ĠnuclÃ© aires
Ġfro ide
av age
Ã©qu ation
ira c
ĠFer dinand
ĠcontrÃ´ ler
enregistre ment
ĠAff aires
Ġl istes
le ct
Ġconf ie
om orph
Ġb lÃ©
Ġrest ant
Ġ8 5
ĠF our
and a
titu des
ĠrÃ©sul te
Ġobserv ations
et nam
Ġpe ur
Ġcli ents
Ġjuge ment
Ġerre ur
ĠC ou
Ġrec ens
Ġpra tiqu
Ġan alog
ĠdÃ©s ert
ro ir
ge ant
Ġprog ression
Ġpont s
ĠJuli en
b ilitÃ©s
ĠC re
Ġdispos ent
Ġf ins
aur Ã©
Ġdiver si
ĠÃ©le ction
ĠT ex
og e
Ġ188 0
w ell
en h
ĠHug o
Ġc og
Ġt ue
Ġpl age
Ġmo tiv
Ġmentionn Ã©
ĠChristoph e
z y
ri ens
ch on
Åĵ il
ins crit
Ġann uel
ograph ies
Ã©v Ã©
Ġmarchand ises
V oies
Ġav al
Ġorigin aires
Ġt ro
Ġb o
Ġcorrespond ent
P S
ab elle
Ġtra cÃ©
Ġmen Ã©
Ġabs olu
Ġcon tiennent
Ġrest es
ĠB Ã¢
ĠcrÃ© ant
Ġspor tive
ĠSer vi
Ġin clus
ĠrÃ©s oudre
Ġtent er
Ġbyz antin
u vi
ĠO u
ĠmatÃ©ri au
Ġsouverain etÃ©
Ġmascul in
Ġd an
ol y
ĠM oh
ĠAnd re
ĠD er
Ġmin i
Ġport rait
asc al
e v
Ġmam mi
ĠG and
En viron
Ġz onage
Ġcontra intes
Ġtu Ã©s
Ġpar cs
ĠrÃ© actions
Ġsoci alistes
if e
L ocalisation
ĠPl ou
ra i
og es
Ġgra de
os ant
ros c
ĠDomin ique
Ã§ onn
Ġtopony me
ĠrÃ© ception
di vis
anc Ã©e
ĠWind ows
ĠJourn al
L ouis
tif ication
Ġfort une
G V
h el
Ġp omp
Ġmodifi Ã©
Ġradic al
is ant
ĠD Ã©fense
entre tien
Ġvoy ages
Ġmag ist
ĠfÃ©d Ã©ration
Ġs ombre
at tention
Ġg enti
ĠM aj
Ġpas sion
ĠÃ©quival ent
T rÃ¨s
Ġfor es
ub le
Ġgal erie
Ġsch Ã©ma
Ã© lo
Ġoff ice
ex tension
Ġcontinu er
ĠrÃ©fÃ©r endum
l itÃ©
Ġ æ
ĠdÃ©c oup
Ġid enti
Ġterr or
ĠdÃ©p enses
Ġcan ons
ĠLou ise
Ġreti rer
Ġmaj eurs
ĠprÃ©p arer
Ġparfait ement
cul es
Ġcul min
rograph ie
at traction
oc t
id a
Ġins uffis
Ġponc tu
C I
ĠgÃ©nÃ©ra lis
Ġsy mÃ©t
Ġpropos er
ĠV ierge
Ġgrande ur
Ġind isp
on a
Ġt enant
Ġch ass
intÃ© resse
Ġiniti al
ĠprÃ©cÃ©d ents
ag Ã©es
ĠP Ã©ri
Ġop tique
Ġcombat tre
ĠÃ©tudi er
Ġpil otes
Ġexac tement
Beau coup
ĠM ul
ĠUn ion
Ġvisite urs
Ġc f
Ġv Ã©cu
ĠrÃ¨g lement
Ġcontinu ent
Ġruis seau
f ace
Ã©quip age
ĠEx p
Ġvois in
ĠinterprÃ© tation
ĠsupplÃ©ment aire
ub a
Ġcandid ature
im s
Ġmatern elle
Ġcord es
Ġ192 3
P ierre
Ġra chet
Ġin nov
Ġdescend ants
Ġimm ob
ĠdÃ©n omination
Ġrivi Ã¨res
Ġh Ã©tÃ©
ĠprÃ©sent ation
Ġquator ze
Ġhect ares
Ġalent ours
eff ic
as semblÃ©e
ier ry
Ġconn ait
S t
Ġsuff it
Ġaugment er
Ã©ri en
Ġb ra
ĠChar ente
Ġboulev ard
Ġde tte
ĠD al
w iki
al phabet
Ã©d on
ĠO s
ĠCl ermont
hui le
Ġbou c
Ġhist oires
Ġparticul aritÃ©
un t
Ġjourn alistes
ĠJup iter
ĠT ourn
Ġti rer
Ġad mis
ĠÃ©lev Ã©s
ĠBour bon
en ay
Ġad ress
Ġatt end
ut ri
Ġprodu ite
Ġ15 9
Ġbat aill
ĠGren oble
Ġmilit ants
Ġdyn am
Å ¡
at ri
Ġabs olue
Ġvend us
Ġrec ettes
s Ã©
Ġ Une
g ues
Ġaband onne
Ġcodi ce
ĠRol and
Ġar rondissement
ĠrÃ©c entes
ĠS k
ill ons
Ġaff ron
Ġatt ribue
Ġmention ne
Ġpar as
ĠL ag
st ra
ĠfÃ©dÃ©ra le
is mes
Ġch ancel
ĠÃ©p oux
Ġvari antes
dic ation
Ġab ord
Ġc ancer
ĠdÃ©li v
C in
er on
mi ers
Ġimp ose
Ãīc osse
ĠV end
Ġsimil aires
pr ises
Ġimp lique
ĠrÃ©c ol
Ġen tiers
our ce
Ġinter nes
Ã©di fice
Ġde g
ĠH il
e use
Ġmet al
ail li
Ġrencont rer
E r
Ġt ennis
ĠC itÃ©
Ġperm it
ĠÃ©criv ains
te au
ri on
Ġb ap
ĠM ade
An t
Ġspor tifs
ĠmathÃ©m ati
Ġfich iers
Ġfacil iter
ĠIs raÃ«l
Ġsurn ommÃ©
ore l
illi ers
Ġ u
ul n
Ġ4 2
Ġcours es
Ġess ai
Ġfl ui
Ġet hn
ĠS oph
ĠgÃ©n ie
Ġlib Ã©ral
Ġall ait
Ġhoriz ont
w n
ĠS yl
Ġcons ole
Ġus ine
Ġpron oncÃ©
ĠdÃ©di Ã©e
Ġadvers aires
à ¤
Ġsu ites
Ġsymb ol
ol et
Ġvois ines
ĠrÃ©fug iÃ©s
Ġpar ad
Ġre ct
imp lant
Ġ191 1
Ġparois si
Ġnaturelle ment
Ġfermet ure
Ġorganis Ã©es
ĠmÃ©c anis
Ġara bes
Ġdesser vi
ĠcoÃ» ts
Ġstat ues
h o
Ġque ue
ĠMar i
Ġren de
Ġgoth ique
an nes
ac le
Ġr usses
ĠP ap
ic itÃ©
Ġconcep ts
il ien
ex ercice
Ġsauv age
Ġeffectu er
ra teur
che cs
Ġcommun s
Ġlarge ur
Ġ191 3
ops is
U N
ĠJ ud
ĠredÃ©c oupage
ĠT in
ic on
ĠÃ©t endue
lÃ© ch
Ġplu ie
Ġcommen Ã§a
Ġcap ture
Ġremar que
Ġb ulle
ĠM y
tionn ellement
Ġinc omp
ĠconsÃ©c uti
w ick
Ġse ize
Ġvis ibles
Ġspect ateurs
Ġar bre
Ġban que
Ġend roits
h m
ing er
ĠlÃ©g Ã¨re
ĠthÃ©or ique
av aient
Ġcombat t
ĠSNC F
ĠV Ã©n
Ġmanifest ation
Ġdiminu tion
Ġb in
ĠG ard
Ġsou ligne
Ġsol o
Ġcaf Ã©
it te
Ġcomp rÃ©h
Ġle cteur
Ġun ion
ĠM aine
ow er
Ġg o
ĠdÃ©c rire
ven us
Ġdirige ant
Ġanth rop
Ġd ossi
Ġpri eur
Ġtransf orme
Ġtal ent
Ġau di
Ġne veu
Ã©l ab
t tes
Ġaff aire
ivers aire
ĠdÃ©n ommÃ©
Ġenvis age
ak i
Ġg olfe
Ã©b Ã©c
ĠdÃ©ta ils
lÃ© matique
Ġcor rec
est ations
ĠB ig
Ġfid Ã¨le
ĠChap elle
Ġvall Ã©es
ĠGabri el
ri k
Ġv ar
h Ã©tique
Ġp air
ĠprÃ©sent Ã©e
ĠprÃ©f Ã¨re
D E
Ġs Ã©di
Ġf orts
Ġremar quer
ĠS un
Ġex erce
Ġf au
as p
vers itÃ©
Ġlig ue
Ġgard er
ĠBlan che
Ġappare il
Char les
au tique
ĠS atur
ĠV III
ĠindÃ©pend ants
ĠJu an
Ġs aut
ĠÃ Ĺ
lu es
Ġdram atique
ci Ã¨re
ĠFran co
Ġcli matique
Ġproven ance
Ġajou ter
Ġv Ãªtements
ĠrÃ© Ã©lu
Ġcomp li
Ġcon vi
ord in
Ġob lige
Ġremp la
Ġinst allÃ©e
ĠÃ©tab lir
Ġc ub
ex trÃ©mitÃ©
Ġempl ois
Ġh as
ĠF ried
ĠpossÃ©d ait
ĠK i
Ġpass ages
Ġfou le
Ġtemp les
Ġ6 8
Ġcour ante
Ġbou le
Ã©ra pie
erg ence
Ġinscrit s
Ġf al
Ġf oyer
ign an
Ġ179 0
u mb
Ġqu Ã©bÃ©c
Ġinc ap
Ġsub i
ĠmathÃ©m atique
adap tation
O rient
ĠgÃ©n Ã©rique
Ġrom aines
rid ge
aur ation
ĠP our
ĠL amb
Ġsu is
ĠAr ch
Ġ190 8
Ġurb ains
Ġbless Ã©s
7 5
p rÃ©sent
ĠprÃ© al
Ġav is
Ġprovin ci
Ġra cont
Ġfond ateurs
Ġchamp ions
Ġsex e
en berg
Ġstu dios
ĠT ru
ĠN obel
ins piration
Ġmodes te
Ġmen Ã©es
Ġdemand Ã©
os te
Ã©ti tion
Ġ ondes
ĠS tre
ĠtÃ¢ che
Ġposi tif
Ġc ible
Ġt a
ĠB aud
En suite
Ġmob ile
M A
Ã©li x
ĠAb d
Ġfrancoph ones
Ġs Åĵurs
at or
Ġinter romp
Ġlut ter
Ġdo tÃ©
Ġp aie
Ġdisp ers
ĠdÃ©tru ite
Ġgre cs
Ġp ain
Ġo v
ĠF ern
Ġemp ris
Ġgal ax
h ard
Ġa ider
og Ã©e
O NU
Ġm Ã©s
ĠcrÃ© Ã©es
ti ennes
Ġin Ã©d
Ã©lÃ© ment
Ġexp Ã©di
Ġrou tier
Ġconserv ateur
ĠRou manie
Ġen cad
Ġavant age
ou ille
Ġmill Ã©n
ĠthÃ© Ã¢
Ġmo tifs
Ġar rivent
ĠChar l
Ġadministra tifs
c elon
Ġf uite
ĠR ac
Ġro ches
Ġrespec ter
ra te
ĠP uy
Ġco effici
Ġtourn Ã©
Ġterr estres
Ġ ur
ĠD um
Ġ190 6
Ġexist ence
ĠnÃ©cessaire ment
Ġj amb
ort ation
av el
ĠrÃ©public ains
ĠVir gin
P l
om pe
Ġb oul
ĠT emp
ĠÃ©c oss
exp lo
Ġfavoris er
ĠrÃ© cip
Ġcin Ã©
Ġactu elles
oin te
ĠCor n
ĠaÃ©ri en
Ġsur prise
ĠÃ©di fices
Ġartis an
at ti
Ġac ad
Ġd ent
Ġportug ais
Ġ5 8
Ġtraditionn els
Ġstatis tiques
ĠsÃ©qu ence
ĠV all
ĠdÃ© ci
ĠM ort
and re
Ġ190 1
ĠPe ti
Ġopp osÃ©
Ġpein tres
Ġcommer ces
ĠCan nes
ĠamÃ©li orer
ĠM au
Ġnot ables
ĠVi Ãªt
Ġress ort
Ġdomin ante
min ation
Ġcad res
z o
am ie
Ġmo dule
Ġchar te
Ġv oile
Ġfin ances
ĠChamp agne
Ġven u
Ã© rance
Ġcour be
Ġfonctionn aires
am m
ĠC op
Ġin qui
ist ote
ĠN ancy
Ġro se
Ġcor p
ĠS Ã©b
Ãª ne
Ġord onne
Ġp ul
Ġab rÃ©
ĠU S
Ã £
ĠdÃ©velopp Ã©s
Ġri z
ĠF al
Ġsouver ains
Ġv erts
ĠC er
ĠrÃ© clam
Ġexp lor
Ġfig urent
Ġmammi fÃ¨res
adop tion
erg er
ĠhÃ´ tel
Ġpermet tait
Ġli qu
iti Ã©
ak a
Ġaffec tÃ©
ĠQui mper
at ori
ĠC ast
Ġaff ront
ent ra
imp act
Ġexp ression
Ġpol yn
dic ap
Ġaliment aires
ĠÃī g
Ġsol id
Ġpublic itÃ©
Ġfrancoph one
it Ã´t
Ġav ance
Ġinc endi
Ġdocument aire
ĠdÃ©velopp ent
ĠBen oÃ®t
ĠM ess
Åĵ ud
vel ines
ĠCor se
ĠintÃ©g rÃ©e
Ġtransform Ã©
Ġcous in
Ġrelig ions
ĠPoi tiers
Ġc Ã©ra
Ġph osph
a ou
h yp
ont an
as sent
Ġcomp ortant
Ã©c rire
ret te
Ġ189 0
d un
ti ni
ĠEm manuel
ĠC omb
ĠB oh
ĠV it
ĠreÃ§ ut
Ġla cs
Ġt urb
ĠF ar
Ã¢te aux
Ġindustri elles
ĠÃ© mission
ib res
Ġcour ts
ĠprÃ©c Ã©
ĠdÃ©fini tive
ĠC lo
Ġsex uelle
Ġ4 4
ĠdÃ©riv Ã©s
Ġax es
m Ã¨tre
ins pire
form ula
Ġcli matiques
Ġenne mi
ĠprÃ©cÃ© demment
ĠB oy
Ġroy aumes
Ġbless Ã©
P A
Ġf olk
ĠÃª tres
re uses
Ġins c
esp Ã¨ces
Ġindisp ens
um a
ĠRe ims
A ls
Ġd ign
Ġc ot
Ġcommenc er
Ġf lÃ¨
ill ard
Ġdeg rÃ©s
Ġd or
ĠÃ©t age
ĠÃī mile
con que
ĠpÃ©d agog
6 6
Ġen j
Ġloc u
Ġ187 1
ac quisition
Ġbi odi
Ġcat al
Ġparois ses
ou ter
ĠA z
onn ant
ĠmÃ©t rage
Ã©ch ange
G u
Ġb ons
Ġ190 7
Ġf Ã©c
In f
ĠBan que
Ġpauvre tÃ©
Ġtunn el
F orm
u ites
ach at
ĠBar celon
Tou jours
m o
Ġh eur
Ġfacul tÃ©
C rÃ©
Ġch angÃ©
Ġc ite
ĠL ion
ĠH ans
Al bert
Ġremplac Ã©e
Ġreti re
I mp
Ġp ne
ĠF ord
Ġmeille ures
Ġaugment Ã©
hou si
Ġro b
ĠAn n
avi Ã¨re
anth rop
Ġcon vient
ĠM od
ĠB oe
Ġsal on
ĠconsidÃ©rÃ© es
ĠD Ã©m
Ġrest era
ra tes
ĠG illes
Ġvari ante
ĠSt an
ocra te
ĠdÃ©tr uire
u Ã©e
Ġh orm
uc k
B A
ĠdÃ©p endant
Ġindustri es
en euve
ĠB onn
av enir
Ã©li que
Ã©qu ival
ĠKar l
ĠAd am
Ġse ctions
ĠA ustralie
tre r
Typ ologie
O ccident
Ġdis positions
ĠAl ph
Ġordin ateur
Ġc erve
op old
ĠAir lines
Ġsubst ance
orith me
or ig
end rait
Ġsitu ations
A ir
Ġp istes
ĠR a
Ġral enti
Ġseu il
Ġsau ver
ĠrÃ©volu tionnaires
ar chÃ©
Ġfin ales
Ġat tent
Ġspati al
ĠempÃª cher
n d
od ie
ĠÃ©volu Ã©
Ġprotoc ole
ĠCh al
Ġconf Ã©rences
Ġver te
Ġfamili ale
assassin at
Ġm idi
Ã©p reuve
Ġutilis ateurs
ĠmÃ© tiers
Ġbar on
ym n
h Ã©s
it res
ĠdÃ© fic
Ġb rou
ai d
Ġr oul
Ġre qu
Ã¯ s
Ġmoy ennes
or ations
Le urs
Ġmor ceau
Ġspor tives
Ġstock age
qu ier
ĠB es
DÃ©b ut
8 6
Situ ation
si Ã¨re
anim al
Ġsugg Ã¨re
Ġan tiques
anti ne
Ġdestin Ã©es
ĠBert rand
exp lique
ĠspÃ©ci ale
Ġviv ants
Ġchan tier
ur os
ĠdÃ© lÃ©gation
Ġoffici elles
Ġpla ques
S ans
Ã©c ran
Ġst abilitÃ©
Ġtrans mis
Ġmont er
G E
h ol
Ġc ouvent
Ġa iles
Ġn Åĵud
Ġ4 3
Ġpron once
Ġru ines
ĠGal les
o o
ĠP ascal
Ġam our
uss itÃ´t
ony mes
ĠdÃ©c ern
Ã©d iteur
Ġlog o
Ġexempl aires
ign ant
Ġqualif iÃ©
habit at
Ġate liers
en quÃªte
ĠJ on
Ġpon tific
Als ace
ĠCh ili
ros oft
Ġrecons titu
Ġvoul oir
Ġhui tiÃ¨me
M us
ai le
ymp h
Ġcontinu itÃ©
Ġplac er
ĠPrin ce
ĠM ach
Ġconf usion
ĠprÃ©cÃ©d entes
ro l
Ġ190 4
ar bre
Ã©g ard
ĠNap les
ĠgÃ©omÃ©t rie
o ol
ĠT emple
Ã¨ne ments
Ġus Ã©es
Ġ er
ant aine
Ġju lien
Ġ9 9
hyd rogÃ¨ne
Ġconstitu ant
Ä ĩ
at aires
Ġh ar
Ġob serve
rim er
aur ait
Ġpra i
lÃ¨ te
Ġr endant
ris on
Ġperman ente
Ġence inte
Ġhan dicap
ĠH ill
ĠW i
Ġphilosoph ique
ĠÃ© b
Ġ13 0
Ġpuiss ante
ĠtÃ©lÃ©vis Ã©e
ĠWiki pÃ©dia
is si
Ġgu Ã©r
Ġgar es
Ġsovi Ã©tiques
J ac
ot age
Ġmoul in
or chestre
ette ur
m un
ĠL ec
Ġpersonn els
ĠUn ivers
ĠbactÃ©ri es
Ġa cides
Ġcond uire
vi ation
Ġrel ais
Ġdom ine
Ġdat es
Ġtransform er
alli ance
á »
ran ch
uis e
Ġremp orter
Ġeng end
Ġcirconst ances
M L
ĠS and
Ġexp ort
ro ch
Ġcommand es
ĠmÃ¢ le
Ġadvers aire
Ġsanc tuaire
int endo
Ġcan aux
Ġbar rage
Ġremarqu ables
Ġass iste
An jou
Ġentrepr end
Ġparam Ã¨tres
Hyd rographie
ĠA ur
ĠdÃ©m is
ĠhÃ©ri tier
Ġexter ne
de m
ĠmÃ¢ les
ĠH aw
ĠFor ce
Pers onn
or al
Ġdi ction
os h
ĠZ Ã©
Ġemb ar
ĠÃ Ģ
il a
ras se
ĠPl aton
Ġexist ait
Ġphot ographie
Ġit aliens
T P
ĠL y
Ã¢ ts
ĠK n
Ġacc orde
Ġrel atif
effec tu
Alexand re
c ter
Ġdu o
Ġgr Ã¨ve
ĠdÃ©di Ã©
Ġv ents
Ġad oles
Ġconstru ites
Ġentou rÃ©
h eur
ĠJ us
ĠIn d
Ġdange reux
c us
im a
ĠE li
ĠthÃ© ologie
ĠB aviÃ¨re
Ġpublic ations
Ġprom ouvoir
Ġpays ages
Ġimm ense
ĠOli vier
Ġmus icien
Ġfig ur
Ġsac rÃ©
ĠgÃ©nÃ©ra les
Ex p
h ar
Ġs oign
qu ets
ton es
ĠÃ©l arg
ĠmÃ©n ages
is Ã©s
am itiÃ©
Ġmus Ã©es
ĠrÃ©v ol
ĠBarcelon e
it ch
Ġin tra
Ġne f
lu ents
ĠX III
Ġsigni fication
Ġprim aires
Ġast ron
Ġchamb res
or gan
il Ã©e
ff e
Ġhumi de
Ġprolon gement
Ġd oig
Ġab us
Ġpropos ent
ro id
ĠCh er
enne mi
rent e
organis er
Ġchasse urs
ĠfÃ© od
Ġas sembl
Ġ12 5
Ġlar ges
Ġcr yp
ĠS w
Ġpluri el
ill Ã©s
Ġmal ade
Ġhyd ro
or ant
ĠV in
ĠE ss
Ġreg istre
Ġgar an
Ġen gl
Ġmar quer
Ġ4 1
Ġbat terie
Ġbou che
ock ey
ĠdÃ©mons tration
M S
ĠÃ©c ar
Ġchar gÃ©s
Ġcompos ants
Ġ190 2
ĠZÃ© lande
all er
Ġconn aissent
anti l
ĠSa Ã´ne
op ot
ĠspÃ©ci al
domad aire
A L
Ġt rÃ©sor
ĠB ure
ĠdÃ©p Ã´t
ĠspÃ©ci alisÃ©e
mb ran
ing ue
Ġfa une
ĠRÃ©g ion
F I
il d
Ġv ass
Ġ20 21
Ġar gent
Ġcanton al
Ġphot o
Ġf ief
ne urs
ĠF I
mi d
Ġaut ob
Ġf act
ĠB le
ĠSer ge
Ġbure aux
b onne
Ġcentra les
um er
ĠgÃ©nÃ©ra tions
t us
ĠS Ã©
En f
Ġ5 3
enc ont
Ġbiodi versitÃ©
Ġsp ontan
ĠAl fred
y ran
ĠP Ã¨re
Ġh Ã©
Ġinflu ences
Ġt s
Ġg am
li Ã¨re
Ġtr ent
Ġhumi des
Ġbru it
Orig ine
Ġmassac re
Ġsuici de
Ġl is
Ġf irent
ĠB au
Ġtra g
Ġdoc tor
Ġpar viennent
ĠMar k
Ġab sent
igne ur
Ġdev oir
Ġsort ant
Ġch ien
ĠFran cs
Ġti mbres
Ġex tÃ©rieure
Ġpossi bilitÃ©s
Ġviol on
Ġcerve au
P e
Ã´ tel
imp ulsion
Ġren vers
o tÃ©
Ġh Ã©rÃ©
ter rand
avi ation
til itÃ©
Ġspectac les
ĠrÃª ve
ref our
Ġcri me
ĠTok yo
O lymp
Ġmo tif
ĠLi Ã¨ge
Ġadul te
R C
Ġf aud
ĠR es
tu mes
im es
Ġ14 9
ĠMun ich
ati ne
Car riÃ¨re
Ġgarn ison
ĠT i
rig ue
ver sement
Ġsymp t
ĠNav arre
Ġd il
ĠM ol
Ġann on
ain tes
Ġafric aine
invent aire
ĠL oc
ĠLib Ã©ration
Ġl o
ĠC oll
Ġcon vo
Ġr ub
Ġ ion
ĠrÃ© hab
ĠD r
Ġoccident aux
Ġgaul ois
n aires
ag an
ĠgÃ©n Ã©
Ġchante use
in al
lo va
Ã©d Ã©e
Ġdispar aÃ®t
ĠÃ©tudi Ã©
Ġru me
Ġconver sion
Ġflu vi
ĠL am
ĠR on
ĠI S
ĠW ood
ĠF ra
Ġti rÃ©
Ġim me
ĠcinÃ©mat ographique
Ġj umel
Ġcompr ennent
ĠdÃ©mocra tes
Ġpropag ande
Ġid entitÃ©
G e
Ġfl ot
Ġindividu elles
Ġlourd s
Ġper ception
Ġcompr ise
Ġfais aient
ĠdÃ©barque ment
Ġju gÃ©
Ġrefus Ã©
ĠrÃ©cup Ã©rer
le ine
Ġv euve
Ġpass Ã©e
ĠIn des
ĠRou en
Ġpois son
Syn opsis
aut onomie
Ġaut onomie
Ġt ort
Ã¨ nent
os Ã©s
og ie
Ġoffici els
Ġpolon ais
h Ã©ri
l ets
y tes
Ġv ues
ĠG Ã¢
ic al
k raine
os l
Ġeffec tivement
ite d
ĠgÃ© rer
Ġjuridi ction
ra les
ass ainissement
oli tion
Ġcri mes
Ġm aires
ve y
Ġorganis Ã©s
isc op
Ġench aÃ®
Ġmaill ot
Ġn Ã©s
Ġgra s
ĠP ou
Ã©m ergence
Ġrap ides
Ġassassin Ã©
ches se
Ġ5 7
Ġcro ire
Ġc ris
ĠD ra
ĠdÃ©c rite
ing Ã©nieur
ĠTh ierry
DÃ© fin
ĠFlor ence
Ġesti mÃ©e
ini um
Ġlimit rophes
is ph
Ġtest s
Ġremet tre
Ġavent ures
Ġsyl lab
ais seur
ĠAl b
Ġve d
Ġocca sionn
ĠMit terrand
C onc
Ġdeven us
Ġmesure r
Ġf ine
ĠmÃ©dic ale
ĠN orth
aisse aux
Ad ministration
Ġmour ut
Ġl ou
Ġinc orp
Ġmeur tre
duis ant
ĠPrÃ© sident
et a
Ġle ader
omb e
ĠMont pel
assade ur
de ur
ĠS yn
ĠP u
Ġchar s
Ġco des
ĠreÃ§ oivent
Ġul tra
Ġpati ent
Ġpubli er
Ġcor ruption
ĠcÃ©rÃ© ales
Ġpati ents
Ġh al
agn ols
Ġpu its
Ġlign Ã©e
ro ise
Ġeffec tifs
appu ie
c ie
Ġson s
Ã¨ bre
An ne
Ġfix Ã©
Ġstric tement
ĠPhili pp
Ġrenouv ellement
Ġm ex
ĠBoul ogne
Ġchir urg
J ohn
ab ilitÃ©s
Ġtrans par
Ġbeau tÃ©
Ġabou tit
Ġfame ux
ĠmÃ©canis mes
h os
Ġtra jet
Ġaff aib
Ġtour istes
Ġalli Ã©
Ġant Ã©rieur
ĠSant a
ĠdÃ© vo
Ar c
ĠEug Ã¨ne
Ġen cl
Ġmar ques
Ãī p
8 7
Ġ190 9
Ġcircul aire
ĠSc ott
Ġferm Ã©
M e
ur t
Ġf es
Ġtr omp
ich y
Ġcalc aire
Ġser ment
Ġconst ate
Qu atre
Ġno wiki
ĠÃ© po
ĠdÃ© rive
ĠS ul
imp ression
Ġsal aire
Ġarchite cture
ran te
Ġne utre
Ġunivers itaires
rom agn
Ġconj ug
Ġnot able
Ġcrois sante
oy ers
Ġp ut
ĠÃ §
Ġv aisseaux
Ġab sence
ĠAl gÃ©rie
Ġemp loie
Ġafric ain
Ġfoss iles
Ġpr Ãªte
ĠdÃ©m Ã©n
Ġoccup ent
Ġscol aires
Ġvou lu
ĠCh Ã¢te
Ġsort es
Ġscand ale
ĠÃ©lev Ã©es
ĠÃ©volu er
Ġmour ir
Ġisra Ã©li
ĠM Ã©di
ĠR ennes
ĠJ ones
ĠN intendo
ĠY velines
ĠLÃ©g ion
Ġtrent aine
ĠMontpel lier
Ã©n a
Ġadop tÃ©e
ĠL oi
Ġinter venir
Ġ5 9
Ġent ame
acc us
Ġquanti tÃ©s
ĠdÃ©li m
ĠexÃ©cu tif
Ġt ube
ĠChar le
Ġfem elle
Ġpal Ã©
ĠCom tÃ©
ĠBoe ing
ĠÃ© ducation
ĠC ao
Ġpour suite
Ġpr ussi
ĠJ i
Ġat tra
ĠdÃ©g Ã¢ts
il de
Ġch ance
Ġsculp ture
Ġcol lines
Ġrep ouss
Ġz Ã©ro
te m
el a
ĠN A
ĠÃ¢ gÃ©e
i as
Ġatte inte
Ġdomes tiques
Ġp este
ĠÃ© pr
ĠD o
Ġsuff ixe
ĠMos elle
ct ori
Ġorgan es
sc ar
Ġatti re
v Ã©
Ġinter view
Ġass urÃ©
actÃ© ris
Off ice
ti p
ĠB ach
Ġs Ã©d
ĠCh ab
Ġmus iques
ĠrÃ©comp ense
avent ure
ĠB ulg
l oration
Ġrencont rent
Ġdisc ussion
Ġv acc
ĠV au
cien ces
Ġaff ect
Ġloc alement
ast ronomie
Ġfich ier
Ġretourn er
li a
AD N
o che
Ġmex ic
ĠR ose
ĠH ub
Ġprodu c
ili ation
Ġtent ent
is tiques
emp Ãª
A z
Ġt ribu
ĠB ad
D i
it o
or f
ĠrÃ© els
ĠCh i
Ġartis tiques
ĠocÃ© anique
Ġmob ilis
S ec
ĠCar th
Ġbar re
atis me
Ġtiss u
b ach
Ġtr on
ti se
Ġch au
ĠdÃ©c oupage
Ġconvain cre
ĠHol lande
Ġph yl
Ã£ o
Ġcontribu tion
Ġfavor ables
Ġconfig uration
ym ne
Ġsymp h
Ġpl ong
ĠM az
Car actÃ©ris
Ġguit ariste
aband on
effic acitÃ©
our ne
ĠC lÃ©
ĠM ou
Ġproc ure
Ãī quipe
Ã©v alu
ĠpossÃ©d ant
Ġcombin aison
Ġvec teur
ment aire
ĠrÃ© side
Ġ181 5
Ġfondament ale
Ġp aci
I N
Ġf an
Ã¢ n
Ġtravaill Ã©
Pat rimoine
ov ie
ĠSt aline
Ġbaptis Ã©
Ġcombatt ants
Ġinter net
Ġinc endie
Ġplac Ã©s
b as
m as
in v
ence inte
Ġbat tre
Ar ch
Aut re
Ġabs orb
Ġdot Ã©e
Ã¨ ves
Ġab at
ĠspÃ©ci alement
Ġsomm ets
f a
al s
Ġch lor
Ġau dio
Ġpav illon
ou in
ĠR u
ĠV ichy
ĠsÃ© cher
Ġhame aux
ĠrÃ©pert oire
ac ad
Ġven ue
Ġlois irs
ĠrÃ©uss ite
h is
ĠrÃ©serv Ã©
Ġs ulf
ch auff
ĠÃ©m ig
ĠlibÃ©ra ux
amÃ©li orer
Ġparten ariat
Ġv astes
ĠÃ©cl ai
ĠÃ©nerg Ã©tique
Ġsph Ã¨re
Ġpyrami de
ĠBure au
ol phe
Ġb alle
ĠrÃ©gion aux
ĠdÃ©cid a
Ġdisp ute
ĠCong o
ĠDiv ision
O R
Ġf ans
ĠT F
ograph es
ĠÃ©crit es
Ġcolon iale
mb ert
Ġcommun Ã©ment
Ġg end
Ġpl as
ob ert
Ġmon Ã©taire
Ġat omique
Ġappar ent
Ġmat rice
Ġsup Ã©rieurs
ĠÃ©lect ro
ĠHar ry
Ġcertaine ment
Ġquan tique
z iÃ¨me
ĠprÃ© server
Ġres semb
Ġjou ant
Ġpol Ã©mique
ĠF orm
Ġcar n
Ġdispar aÃ®tre
Ġbass es
us cule
Ã©t oile
Ġinter mÃ©diaire
Ġpat ern
Ġvraisembl ablement
ĠP eu
Ġ184 0
Ã¶ r
ĠGas ton
ĠtÃ©moign ages
ĠdÃ©plac er
Ġph ara
ĠL ouvre
ens tein
Ġdiscip lines
Ġen rich
di r
Ġson d
atte indre
l at
appr entissage
Ġmanuscrit s
ĠP orte
Ã©d oine
ĠCar n
Ġdist ances
Ġtyp ique
at rices
ĠR ap
Ġ14 0
ĠdÃ©n once
ĠM use
Ġ189 6
Ġdra me
ĠdÃ©li b
Ġsauv ages
ĠtÃ©moign ent
Ġcanadi en
as tien
Ġac trice
ĠdÃ©p ression
app ort
ĠgÃ© ographie
ard o
enf ance
Ġenter rÃ©
ĠÃ© par
Ġimp act
ĠrÃ©parti es
Ġordin ateurs
Ġra b
Ġopp ose
Ġven ait
Ġsaint s
ĠFl ori
Ġsymp ath
chn ique
Ġdes que
Ġg el
Ġfin ancer
Ġad di
oth s
ĠcomprÃ©h ension
d is
Ġsour is
Ġbloc s
M I
ĠR T
emp les
Ġam ont
Ġmaj eures
Ġparticip ants
ĠGre en
8 8
Ġmar qu
Ġme mbran
ĠreprÃ©sent Ã©s
ĠcÃ©rÃ© b
g re
an at
Ġconc lu
Ġnation alitÃ©
ĠlÃ©g er
Ġcrois ade
ĠJack son
R S
Ġpos er
ĠMad ame
m osph
ĠP ri
Ġan arch
Ġcap t
Ġquit tÃ©
Ġs ommes
ĠL ap
Ġ180 1
Ġt oile
ĠdÃ© ser
Ġin sectes
Ġtram way
m Ã©es
ĠJ os
id on
Ġindi en
Ġdesc endant
Ġcircons criptions
ĠsÃ©n ateur
ĠMic rosoft
b elli
Ġ191 5
ĠDe b
Ġjur y
Ġcos m
V oici
ex il
riv ant
esp oir
Ġconstr uis
ĠP ot
ill us
ĠLa ur
Ġag glomÃ©ration
Ġ6 00
ĠAlli Ã©s
Ġculmin ant
E ss
Ġm out
ĠD up
Ġas semblÃ©e
ĠChamp ionn
A ra
or o
ĠdÃ©c omp
Ġ15 7
oris Ã©e
And rÃ©
f e
u a
Ġsyndic ats
ĠV oy
Ġpuiss ants
ĠFin lande
ĠscÃ©n ariste
et y
ĠL av
ad resse
Ġb er
ĠN oire
Ã©c os
Ġth Ã©m
Ġaut och
Ġaff ich
Ġdiagnos tic
Ġ Å
A mi
Ġbomb arde
j amin
ou reuse
un ique
ul ations
ĠV os
ĠL ud
ac tifs
Ġsang u
ĠLib er
Ġexprim Ã©s
Ġfrag ments
ĠM u
ĠD C
ĠtÃ©moign age
Ġinten se
ĠvÃ©ri fier
Ġ ib
Ġdu t
ĠJ oe
Ġblan ches
ĠÃ©tudi ant
Ġerre urs
ĠmÃ©d ailles
Ġarriv Ã©
ĠÃ©po ques
Ġacc ro
Ġadap tÃ©e
isl amique
Ġperf ection
Ã© re
or gue
illi r
Ġsubst ances
N ous
ro se
Ġg Ã¨re
Ã©ra ire
Ġmont rant
Ġdimin uer
Ġing Ã©nieurs
ĠR ivi
ouve ment
Ġdimin ue
Ġcens ure
Ġfortif ications
Ġprosp Ã©ritÃ©
ĠhiÃ©r archie
ur ch
Ġprob abilitÃ©
ĠÃ©crit ure
Ġf lore
Ã©ra pe
Ġrep as
Ġappar tiennent
Ġprog ress
Ġ190 3
organis me
Ġpure ment
ĠH erm
Ġat omes
Ġriv es
Ġdiv ine
ĠV il
ĠE v
Ã©lÃ© ments
Ġrepr ennent
Ġqualif ier
Ġsuccessi ves
8 9
Ġp ist
pr its
ĠV ik
ĠCap it
Ġgrav itÃ©
ĠrÃ©di ge
ĠS pe
ĠR ub
Ġapp uy
Ġam ateur
ĠspÃ©ci aliste
Ġf eux
Ġmar x
Ġnorm alement
Ġate lier
Ġtriom phe
Ġhypoth Ã¨ses
ou tes
lis er
Ġus ages
Ġvra ie
ĠdÃ©ta il
ĠdÃ©place ments
ĠY ou
m ises
ur ance
Ġrencont rÃ©
Ġfrom age
Ġform Ã©s
lÃ¨ ge
Ġmin oritÃ©
Ġmen a
Ġob s
Ġcat alogue
ĠinterprÃ© tÃ©
ster dam
Ġb its
ĠcrÃ© dit
Ġtit ulaire
olly wood
Ġ á
Ġa ussitÃ´t
ĠM ai
og Ã©n
ĠdÃ©p asser
Ġemp ire
Ġconfir mÃ©
ĠVill eneuve
Ġaccus Ã©
M ich
r s
u aire
Ġin tr
ĠT rin
ĠrÃ© belli
ĠT u
Ġind o
umi Ã¨res
Ġparten aire
ri enne
ĠM agn
Ġtra ject
Ġpouss Ã©e
Ġgar Ã§on
Ġnum Ã©riques
Ġessenti el
Ġgagn Ã©
Ġglob ale
Ġmar itimes
ous seau
Ġam ateurs
Ġprogressi ve
ĠThÃ© Ã¢tre
Ġra ces
ill ets
ĠspÃ©ci alisÃ©s
Ġhyd ra
t ris
Ġl une
ar isme
ĠCh am
Ġconstitu tionnel
Ġplan Ã¨tes
Ġremont er
Ġa cide
ĠS axe
Ġpas sionn
Ãª nes
Ġnom mer
ori Ã©tÃ©
ĠÃ©v Ã¨nements
Ġcro it
Ġsty les
x ion
ch o
Ġinst ant
Ġgl oire
Ġcel tique
Ġsymb olis
Ġclo cher
ine use
Ġfonction ne
ell Ã©n
iblioth Ã¨que
ĠrÃ©nov ation
ar itÃ©s
enti elles
Ġcommer Ã§
Ġre mb
Ġsigni fier
import antes
Ġsold at
ou lement
Ġun iversitÃ©
Ġcomp ortent
Ġag ent
Ġmultip lication
h ier
Ġser veur
Ġparten aires
Ġl oint
Ġbourgeois ie
Ġp reuves
is tÃ©ri
Ġpar lÃ©
ĠV is
Ã©v ille
ox es
as y
ĠC i
Ġat mosph
ĠCons t
Ġbord s
Ġanc Ãªtres
ĠV allÃ©e
A yant
Ä «
as me
ĠB lo
Ġma Ã§onn
ĠdÃ©b ou
ĠEsp agnols
Ġ11 0
f ond
enti er
Ġtent Ã©
Ġnob le
y er
Ġpar aÃ®tre
Ġsa me
aff iche
ĠdÃ©sign ant
ĠSch w
ĠvÃ©gÃ©t ation
Ġf ir
ĠL yn
Ġ14 5
ani um
I ran
g en
at ter
ĠB rig
Ġ191 6
Ġjui f
Ġchev aliers
Ġhas ard
ĠcrÃ© ateur
Ġvari ation
aÃ¯ sme
Ġsoi rÃ©e
Ġsurvi v
Ã©lab oration
ch ers
Ġex positions
imp oser
Ãī ducation
Ġamou reux
g han
Ġp oign
ĠdÃ© lic
ĠT est
ĠI X
Ġfem elles
ĠprotÃ©g Ã©
Ġchancel ier
E E
ce voir
ĠB Ã©n
ĠL ad
ĠD or
ĠH un
Ġcons tell
Ġfra ction
or Ã©s
Ãī douard
Ġtravers Ã©
ĠL ie
Ġr entre
ort a
ĠprÃ©c ur
en cl
ĠA st
Ãª chÃ©
Ġphilosoph es
r ue
Ġ q
Ġs pec
Ġd auph
Ġn it
Ġpl aines
am ille
G Ã©n
ra ts
ai der
Ġdiplom atique
Ġmusulman e
8 4
Ġn utri
ĠA ri
ĠÃ©t endu
ĠTh Ã©r
Ġn erve
tin ais
Ġchampionn ats
ui es
Ġhom osex
Ġl oup
ĠK ir
Ġpres s
Ġdou x
inter diction
w ays
Ġ rand
ĠB ud
instru ment
m Ã¨tres
ĠM Ã©s
ĠW at
Ġdiss olution
Ġbiblioth Ã¨ques
ĠdÃ©fait es
ĠTin tin
ĠSÃ©b astien
O ise
ĠT an
Ġappel lation
Ġdess ert
ĠÃ©t ages
ĠentraÃ® neur
Ġant Ã©rieure
ang s
int he
Ġquar ts
Ġa ve
Ġj ette
ois eau
Ġ13 5
Ġsimultan Ã©ment
ro v
Ġcomp ositions
Ġann iversaire
Ġtomb es
end roit
Ġson ore
Ġsol de
CaractÃ©ris tiques
T hÃ©
c ade
ĠÃī lisabeth
Ġ5 4
Ġve ulent
Ġvot er
Ġnot oriÃ©tÃ©
Ġ188 9
Ġcommiss aire
ĠR ouss
Ġpris onnier
ĠdÃ©rou lent
oÃ¯ des
di tions
ĠprÃ© occup
id Ã©mie
ĠDon ald
ul te
ĠdÃ©c oration
ouver nement
ĠJohn son
ĠÃ©cl at
ĠsuÃ©d ois
w ards
Ġla issent
ĠV ieux
Ġinter vention
Ġlog ement
Ġterm inÃ©
ĠAth Ã¨nes
Ġra vit
um s
Ġar istocra
Ġgouver n
Ġparticuli Ã¨res
Ġorient ales
ricul teurs
ĠmÃ©m oires
ĠprÃ©p are
ĠM Ã©m
Ġpro viennent
ĠdÃ©c al
Ġti ennent
agn er
Ġcompr enait
oun d
Ġg lu
ĠO l
ĠÃ©ch oue
ĠCan adi
Ġattribu Ã©e
re z
Ġdi alogue
Ġaut o
Ġfra gment
Ġurb aines
ĠWilliam s
Ġsembl able
ĠÃ©lectron iques
d its
eng er
Ġconserv ateurs
ag ence
ab ulaire
ĠT rib
Ġtra h
ad j
ĠLa z
Ġman oir
Ġaccep tÃ©
Ġtroph Ã©e
Ġ Ð
at aire
ass aut
Ġtomb eau
oÃ¯ de
or ges
ra bles
ĠR oss
ĠH a
ak h
Ġnul le
Ġbre vet
ĠHaut s
Ġexter nes
ch ron
Ġra mes
ob lig
Ġdat ent
Ġreb aptis
Ġartifici elle
ĠOp en
Ġp Ã©t
Ġvic om
ĠAu vergne
Ġcyl ind
ou ff
oc ent
ĠC li
Ã©tÃ© s
ĠRe g
Ġprofes sion
ĠJapon ais
Ġobserv Ã©
ch y
ĠR io
Ġcommun ications
Ġanalys es
ĠMade leine
g ie
ot yp
ĠÃ§ a
ĠS C
ĠM ong
Ġ6 6
Ġess or
Ġch Ã¢teaux
Ġentre ten
Ġmunicip alitÃ©s
Ġtravaill ent
ĠOr lÃ©ans
Ġarriv er
Prin cip
Ġre le
ĠM ot
Ġ islamique
Ġpar ach
Ġgar dien
ĠÃ¢ ges
ĠsÃ©par Ã©s
Ġenvoy Ã©s
or um
Ġle x
Ġmassi ve
Ġrec ense
Ġplu vi
atis ation
Ġ Ä
ol ing
ĠMar itime
omb res
Ġ8 7
Ġ189 8
Ġvolont aire
n g
ĠO ff
Ġpubli Ã©es
Ġm y
ol ic
Ġve ctori
Emp ereur
ĠGÃ¢ tinais
Ġinc ont
cal ier
ĠRÃ©g ime
ch ait
Ġche veux
Ġrest a
Ġeng agement
ĠGar de
Ġmine urs
ĠmÃ©diÃ©v al
Ã¢ t
Ġartis te
Ġsubs ist
k ins
ĠM oz
ĠK al
Ġaff luents
ĠprÃ©c on
Ġpres tige
Ġdistin ctes
Ġimm ig
Ġinspi rÃ©e
Ġrang s
Ġm ous
ĠdÃ©c Ã©dÃ©
Ġmar bre
Ã©l ie
ĠnÃ©g lige
ĠMe use
ĠdÃ©t riment
ĠFin istÃ¨re
Ġcatast rophe
ĠC olu
Ġcont acts
Ġroy ales
Ġress enti
F ace
Ġ8 00
R ec
ĠS ing
ĠP D
ĠmÃ©c aniques
objet s
ĠD ans
ĠCh au
ak istan
ok u
Ġaccep ter
ĠI r
Ġpers Ã©cu
Ġgar Ã§ons
Ġmunicip aux
Ġprotest ante
ĠdÃ©mission ne
Ġottom an
S D
Ġc oi
Ġj al
Ġsupp ose
Ġpol ym
Ġb or
Ġobten ue
ĠR ab
oy ant
Ġnot ation
Ex emple
Ġpseud onyme
er o
ĠB ag
ĠG ab
ĠG rÃ©g
Ġra tion
av enue
Ġ189 5
ĠarrÃª tÃ©s
ĠRec ords
ĠA mb
ĠV l
Ġcompagn ons
Ġparlement aires
re l
ĠS tÃ©
ĠL ut
lÃ¨ vent
Ġautre ment
entraÃ® nement
U E
re b
ĠA lex
ĠO lymp
app lique
Ġind Ã©
Ġdispos ant
ĠBos ton
Ġeffec tif
Ġfranch ise
Ġclin ique
ĠC yr
Ġh ockey
ori al
ĠÃ©v ang
Ġgla ci
Ġapprouv Ã©
ĠG az
Ġs oin
Ġa is
ĠR C
Ġcol Ã¨re
Ġdisp oser
ĠTex as
Ġp op
ro w
ĠC ass
Ġhabit at
Ġvolont aires
Ġgrav itation
ĠB ains
ĠR Ã©f
Ġindi quent
Ġfra ppe
ĠGar onne
ĠAug ustin
ĠS T
Ã©n on
GÃ© ologie
ĠlÃ©gisl ation
Ġespagn ols
Ġcop ie
Ġcomprom is
Å Ĥ
Ġd ress
Ġp end
Ġt Ãªtes
tÃ© n
Ġparti elle
Ġeffectu Ã©e
ĠÃīg lises
Ã© miques
Ġt ari
Ġcl Ã©s
Ġs ultan
in k
oi ries
Ġlib Ã©rer
Ġnational istes
Ġt axe
di re
Ġman uf
Ġeffectu Ã©es
ĠGÃ© org
or ti
Ġn Ã©c
ĠP ales
oc cupe
Ġmar gin
Ġins criptions
Is raÃ«l
Ġencou rage
Ġorthod oxe
Ġet h
og Ã¨nes
tin ction
Ġlib Ã©rÃ©
Ã©rindi ens
Ġv ern
ĠdÃ© tient
ĠM ouvement
ĠB ibliothÃ¨que
ĠConf Ã©dÃ©ration
Ġtir s
rÃ¨ tement
S C
Ġv uln
Ġdiff use
Ġsp Ã©c
oll on
Ġposses sions
Ġre vi
Ġad j
ĠU l
Ġfer mes
ĠfunÃ©ra ire
Ġc oc
ĠrÃ© chauff
Ġsur p
Ġtrans c
Ġdesc ente
Ġtiss us
i at
in Ã©s
Ġv Ã©tÃ©
ĠP a
Ã©ri oritÃ©
Ġrepr enant
Ġfavor ise
ĠAss ociation
Ġdoub lÃ©
M an
Ġce inture
um an
ĠSam uel
Ġinaug urÃ©e
Ġcoord onnÃ©es
Ġinvestis sements
ĠdÃ©mis sionn
t ol
Ġan neaux
ĠD auph
ĠprÃ© co
Ġrest Ã©e
ĠSe pt
ĠmÃ©di cal
Ġtri angle
escl avage
iv ern
ass oci
och ine
ĠrÃ© mun
ill o
val le
Ġnav ale
Ġsculp tures
ĠComp any
ri des
ve ille
ĠP ie
ĠD oc
ĠH ow
Ġes prits
Ġextra it
ĠsystÃ©matique ment
Ġv igne
Ġh eb
Ġartis ans
Ġtraite ments
ain g
ĠrÃ©v Ã©lÃ©
ĠnÃ©g atif
Ġqu Ãªte
ĠB art
anti ll
Ġcollec tive
ĠLin ux
ĠmÃ©tropolit aine
as ie
ĠS l
ĠF r
Ġcons ol
ĠLe on
Au vergne
cl usion
Ġsucc Ã©d
Ġciv ilis
ĠGen e
Ġ ouverture
ac tivitÃ©s
ĠV aud
av er
Ġbas que
ind ustri
ĠWal ter
orp tion
Ġrappro cher
Ġt ute
Ġconsac rer
Ġach Ã¨te
ur Ã©s
Ġt t
Ġrec ul
Ġavant ages
Ġquel conque
Ġfond er
ĠSte ph
oc tur
Ġi ran
Ġlour de
Ġex pose
Ġprodu ites
Ġassoci Ã©es
Or dre
Ġ186 6
Ġren once
Ġball on
g ence
Ġb ailli
ĠC ulture
ĠtÃ©m oin
Ġmascul ine
ĠVict oria
Ġhong rois
Ġd ents
ĠT am
Ġco Ã¯n
Ġble ue
Ġpanne aux
encont re
b Ã©
Ġd ense
ils on
Ġprom en
Ġplais ir
r onn
Ġt Ã©t
ĠÃ©trang er
Ġban ques
Ãī poque
Ġexp rime
Ġmort alitÃ©
anci ens
Ġtravaill ant
Ġcalcul s
8 1
am orph
ĠT op
ĠN az
aut orisation
Ġbl ock
ĠmÃ©diterran Ã©en
Ġc urÃ©
ĠP L
Ġch at
Ġsur vie
Ġh u
Ġent ra
Ġconsid Ã©rant
Ġbr un
ĠBri an
Ġbot anique
Ġno tions
Ġfour ni
ĠÃ©quip Ã©
ĠÃ©lector ale
usta ve
ĠTunis ie
A li
D is
n elle
ĠT y
ĠK ong
ĠrÃ©c olte
Ġmor al
Ġsubs titu
Ã©lev ait
Ġcontra inte
Ġpron onciation
ĠChe v
Ġdiale cte
v ation
Ãīv olution
yclop Ã©die
Ġf um
ĠS ovi
Ġob st
Ġenti tÃ©s
ĠGen er
Ġsuccessi fs
Ġp oudre
et ta
Ġidentif iÃ©
instru ction
ĠServi ce
8 2
R en
ĠB ah
Ġra id
Ġoff ensive
ĠlÃ©g itime
ĠmaÃ® tris
Ġali ments
Ã¼ r
Ġbass ins
ĠtÃ¢ ches
Ġmys tÃ©rie
riss age
Ġcardi aque
Ġindi enne
Ġdirig er
Ã¶ n
Ġing Ã©nieur
Ġorg anique
f us
Ġl an
Ġh Ã©m
Ġob sc
Ġappar u
ĠZ h
ĠspÃ©ci alisÃ©
6 5
ri de
Ġpar l
ĠC lÃ©ment
Ġj ac
Ġ18 00
import ants
Ġs k
ĠdÃ©c ors
ĠcrÃ© ent
Ġ186 7
ĠSar k
S ports
Ġren se
ĠÃ©cl ate
az ote
Ġplate f
Arg entine
er ge
Ġle cteurs
Ġtrouv ant
Ġ179 2
Ġbouddh isme
Ġc Ã¨de
tis h
Ġ189 7
rat oire
Ġintellectu elle
i ro
Ã©ra trice
Ġrep ort
Ġco h
ĠrÃ©c ents
Ġprincip autÃ©
gn Ã©
ĠlÃ©g umes
Ġvac ances
on ien
ĠL oir
ĠF Ã©lix
ĠrÃ©c onc
ĠBrun o
acad Ã©mie
Ġp oll
Ġcompos Ã©es
oun t
Ġglob alement
Ġl in
Ġa Ã©rop
Ġal phab
Ġir landais
Ġauxque lles
ĠX X
Ġexploit ations
ĠrÃ©di gÃ©
Ġun es
Ġmar quant
ang ulaire
Ġfeu ille
oz y
Ġprofesse urs
z ac
Î ±
Ġb rÃ©sil
ĠP Ã¢
ĠT ony
Ġcl andes
Ġmilli ard
ĠRen ault
ĠMac Ã©doine
Ġv ig
Ġg lis
ĠG on
agn ol
exp loit
ĠU MP
re lles
ĠC av
onn a
Ġord inaire
Ġconcern ent
ĠTra itÃ©
Ġcog ni
O N
m ens
ĠÃ© duc
Ġind ustrie
Ġsauve g
ĠVos ges
d an
Ġg ymn
Ġmo ine
Ġcont enir
Ġmen ant
ĠAut riche
ĠColomb ie
Ġrapproche ment
ar l
Ġin formation
ĠL ot
Ġti b
els on
Ġindig Ã¨nes
ĠPÃ© kin
ĠB ac
Ġcomp tent
Ġsculp teur
ĠCharle magne
ĠNA SA
e p
um inium
Ġtute lle
t aire
ri a
Ġqualif ication
atta che
Ġintellectu els
Ġpar lent
ĠR ER
ĠprÃ© vention
ess or
rÃ©g ation
ĠAmer ican
ar dement
ĠCas tel
ĠÅĵ ufs
Ġfen Ãªtres
Ã©valu ation
am ira
Ġsol lic
ĠspÃ©ci aux
Ġorganis me
Ġpropos Ã©e
ĠrÃ©un is
ĠÃ©qu ilibre
Ġaccessi bles
Fran Ã§ois
ou m
ou z
Ġb ic
mi citÃ©
Ġ11 5
Ġexist ant
ĠboÃ® te
c ope
Ġb ox
Ġcanadi enne
Ġoub li
d Ã©
Ġc rain
in vention
Ġt Ã©l
ra its
Ã©c uritÃ©
Ġw e
ĠMus ic
Ġattest Ã©e
ĠXV I
ĠpÃ¨ler inage
onn ent
Ġcomplex itÃ©
mar Ã¨s
T e
Ġmod Ã©
ĠprÃ©sid ents
Ġbord ure
mon ies
Ġpl uies
ĠS ah
ĠB ak
ĠD re
Ġpass a
inc endie
Ġaccompagn Ã©e
ĠvÃ©gÃ©t aux
Ġratta chÃ©
ĠrÃ©public aine
amÃ©li oration
ĠLÃ© opold
ĠL aval
Ġtravers er
Ġtomb er
Ġinv itÃ©
g i
tÃ© roÃ¯
li m
ĠI P
Ġpens ent
ĠÃ©n orme
inves tissement
E N
Ġmain tient
Ġtransform Ã©e
Ġillus t
ĠrÃ©hab il
Ġc enti
Ġdes ign
Ġpar lant
Ġpour v
ĠrÃ©p utÃ©
idÃ© mi
Ġdomin ant
O c
ag en
Ġcour tes
Ã« t
duis ent
Ġsubs iste
ĠEuropÃ© ens
Ġre lier
ĠS ard
ĠF ondation
ĠD em
ĠV el
ill ant
ĠbÃ©nÃ©fici er
Ġprieur Ã©
n is
ere urs
off ici
Ġmusic ales
Ġdivin itÃ©
Ġpart agent
ĠSe igneur
Ġ189 4
Ġ189 9
Ġent endu
Ġfab rique
ĠTrois iÃ¨me
A ctu
raph e
Ġriv al
ker que
ĠMax im
A ff
Ġprovo quÃ©
Ġcommunaut aire
er sion
Ġe urent
Ġimp Ã´ts
Ġexp loitation
Ġense ignement
Ġc le
Ã©n ine
Ġbat ailles
urb anisation
Ġcondam nation
p Ã©
Ġn oires
Ġconf es
Ġref uge
Ġbombarde ments
Ġpar venir
Ġdu es
ĠF u
Ġbrig ade
en aire
ar chevÃªque
Ġb ol
ĠC ad
ter ies
ĠH o
Ġcont ent
Ġor ch
Ġexp osÃ©
Orig ines
R A
Ġcommun ale
ĠLe m
Ġconstitu tionnelle
Ġmis sionn
Ġdipl Ã´
Ġv ib
au rer
ĠJ am
ĠN ik
qu ettes
li p
Ġcar rÃ©s
ĠmÃ©tal lique
Ġidenti ques
ĠC uba
av Ã¨re
Ġent endre
Ġdev ise
Ġsuff rage
Ġnum Ã©ros
ou re
id Ã©s
ob iles
ĠÃ©c ran
ĠarchÃ© ologique
ĠChÃ¢ tel
ch ester
Ġb Ã©
ĠJ ane
ĠlÃ©gisl atif
Ġcalcul er
Ex emples
ĠC ot
Ġfut urs
Ġent rÃ©es
ĠmÃ©t ab
Ġcrois sant
Jac ques
res sent
ĠM Ã©tro
ĠF ant
Ġdisc ussions
Ġurb anis
Ġposi tive
ĠColle ge
A ub
Ġren dement
Ġprote ct
ĠBro wn
n s
Ġtr il
av Ã¨nement
Ã¢ ne
Åĵ uf
Ġess ay
ĠdÃ©sign ation
Ġr entrer
fin i
ĠgÃ© ologique
Ġcit oyen
Ġsouten ue
Ġappli quÃ©e
ouch ure
Ġindispens able
ĠdÃ© ter
di es
ĠH erb
ill ages
Ġdisc ri
ĠdÃ©couv erts
ĠentraÃ® nÃ©
Ġentou rÃ©e
I v
lÃ¨ tes
ĠAr d
Ġdivin itÃ©s
inform ations
ĠlÃ©gend es
E M
or di
Ġh onneur
oc le
ĠFran che
Ġperman ent
ĠBÃ¢ le
Ã©quival ent
6 7
ĠS erb
Ġ10 9
Ġamen Ã©
ĠThÃ©r Ã¨se
ou f
Ġin verse
Ġop tim
tÃ©rieure ment
Ġmang a
Î ¿
Ġp Ã¢te
our i
Ġpl ages
ĠMan uel
Ġd ame
ci enne
ĠJ ord
ann a
ĠÃ©qu ations
alog ues
v Ã©g
mb le
ann once
Ġmont age
ĠcÃ©rÃ© monies
M on
ali a
ĠdÃ©lÃ©gu Ã©
ar tis
or ic
Ġn octur
ĠC it
Ġpuis sent
iss ante
ĠAn nÃ©es
Ġtechn ologique
ĠCol lÃ¨ge
Ġcru es
6 4
Ġp ente
ti a
og ue
Ġpo Ã¨tes
Ġsou mise
ĠdÃ©p our
Ġpart agÃ©
Ġcompos ent
Ġ189 3
Ġcomporte ments
Situ Ã©e
ĠvÃ©rit ablement
ĠEd ward
ĠÃ©d iteur
Ġcroy ance
Ġg ig
Ġchamp ignons
Ġnorm al
Ġillus tre
Ġdossi er
ĠG ib
ĠMon aco
Ġmess ages
Ġang le
h ai
ĠH Ã©ra
auc un
Ġs ages
Ġfil i
ĠCor p
duc teurs
Ġatteign ent
ti mis
ang ers
Ġacc Ã©l
Ġfa ill
Ġoccident ales
ĠJÃ©r Ã´me
ord inaire
Ġle ver
Ġar r
Ġimp rÃ©
Ã©di c
Ġnor vÃ©g
Ġlente ment
implant ation
ĠC ord
Ġj a
Ġad met
Ã©lÃ¨ ne
ĠbÃ©t on
Ġre vers
ĠS ie
ĠA ch
ĠN ov
ĠCh irac
ĠrÃ©belli on
o tique
Ġcroy ances
Ġsuscep tibles
u di
ue d
olog iste
Ġquit tent
ĠfrÃ©qu ences
Ġcompar able
E T
Ġf ibres
ĠrÃ© vision
Ġpr ud
Ġglob al
Ġvoc abulaire
Ġcrist al
Ġvag ues
ĠFern and
isph Ã¨re
ut ent
Ġh all
ĠT ay
Ġpri oritÃ©
augment er
Ġforc Ã©ment
ĠJ ura
Ġfin ir
ĠpÃ©ri odique
Ġ11 9
ĠÃ©lÃ©ment aire
P Ã©ri
Ġmin er
Ġprom et
At lantique
Ġsan ction
Ġn ame
ment aires
ci us
Ġpro jection
Al li
ĠdÃ©mont rer
indi ce
ĠMoul in
ĠS in
ĠA R
Ġcl aire
ĠSh ang
Ġperman ence
ĠTib et
Ġmonop ole
Ġen qu
ap olÃ©on
tra tions
Ġ6 7
Ġbat tant
Ġsign er
ĠFer rand
Ġsouff re
ĠSark ozy
Ġtra Ã®
Ġtrans it
ĠdÃ©p ens
Ġtourn Ã©es
Ġsensi bles
Ġdiale ctes
Ġsignific ative
ĠBab yl
f es
Ġp ales
ĠE P
Ġcamp us
ĠÃ©di fice
Ġ188 5
rÃ©g or
ĠB ess
ĠLe w
Ġconf iÃ©e
Ġ7 7
ĠAnton io
ĠcÃ¢ ble
effectu er
Ġc rat
ue ux
emp are
Ġcit ad
Ġenti tÃ©
O T
w ig
Ġl Ã©
ĠP enn
Ġapp orter
id ation
Ġconf ort
Ġsig le
lova quie
Ġ ç
at ra
ĠP res
tes se
ins c
Ġtrans met
Ġprof iter
Ġinvent Ã©
AT P
ĠCarol ine
en ch
Ġh yb
ĠK y
Ġmom ents
Ġa Ã©roport
ĠB a
Ġne uvi
bre u
Ġmar ge
Ġpsych ologique
8 3
Ġra ff
ĠO ise
th i
Ġcontinent ale
op Ã©e
Ġ188 1
Ġtransf Ã©rÃ©
Ġcons ens
rois sement
int ensitÃ©
ke y
ĠidÃ© al
at ar
Ġmari Ã©
Ġsauv et
Ġdes tru
Ġbomb ardement
ĠSoci ety
Ġfabri quer
Ġd og
ĠS ystÃ¨me
ĠB rÃ©
ĠmÃ©t all
ĠFried rich
ĠrÃ© si
ĠPro vin
ĠFranÃ§ois e
Ġsensi bilitÃ©
Ġterritori al
omÃ©t rie
ĠmolÃ©c ule
ĠT ang
ĠH on
ĠrÃ©g ulier
Ġpaie ment
h umi
ĠT GV
lis Ã©
ĠW ill
Ġvi ve
ĠÃ©lect rons
ĠÃ©lect romagn
aff ront
ĠÃ©criv it
t z
ĠF ay
Ġpers u
Ġspec tre
tol Ã©m
L Ãł
di ct
Ã©n i
Ġindi rec
Ġsyn ta
Ġrenv oie
p le
Ġqu ai
vel t
Ġ189 2
Ġvar ier
Ġin Ã©g
Ġan tic
ĠrÃ©g ul
Ġviol ente
Ġprovo quant
Ġrestaur ant
Ġoppos ants
ĠR ot
ici lement
Ġcompos iteurs
oris tique
effond rement
Ġ #
Ġn ett
el Ã©
ĠAn th
Ġcin quant
Ġciv iles
ĠSte ve
Ġvoul ant
ĠirrÃ© gu
Ġ {
Ġt Ã©les
Ġ1 000
ĠC ur
ĠB ut
ĠD Ã©
Ġra me
Ġcompos ant
fi Ã©s
Ġ25 0
Ġcom tÃ©s
Ġpr onom
ĠÃ©t h
De vant
Ġmal ades
Ġbl ason
P os
p ir
Ġsou ci
Ġconc entre
arm erie
Ġend omm
ĠvÃ©rit ables
ES CO
Ġajou tÃ©
Ġ è
al uer
Ġb elles
ĠO ne
Ġam Ã¨ne
ĠpÃ©ri mÃ¨tre
Ġesti ment
ĠprotÃ©g Ã©e
Ġast ronom
ĠWh ite
I T
ille ment
Ġdiff icilement
Ġsub ir
Ġorient al
Ġb is
ci o
ĠR oh
Ġport ait
idi er
h l
an us
Ġouv erts
Ġbar oque
Ġfisc al
Ġinconn u
ĠdÃ©grad ation
hel m
Ġg ain
ĠB us
ĠO S
Ġoff rant
ĠcaractÃ©ris Ã©
Ġprati quer
ĠÃīc osse
ĠCharl otte
ens is
Al ain
Ġfeu illet
ĠdÃ©fic it
ĠL ord
Ġmus c
ĠtÃ©m oins
Ġbless ures
Ġrejoign ent
ĠS ig
ĠCh urch
Ġmont s
la ve
ĠVal ence
ĠrÃ©cur rent
ĠPÃ©r ou
T our
h me
v aux
ĠT roy
ang ent
Ġju ges
Ġ6 9
Ġindi quant
Ġlibre ment
x i
ĠÃ© me
ĠdÃ©c om
utilis ateur
nation ale
Ġcontra ts
ox yd
ĠentraÃ® ner
ĠIs abelle
Ġcondam nÃ©s
ĠmÃ©dica ments
Ġrempla Ã§ant
u tique
ĠdÃ© form
ĠprÃ©f ect
Ġeng age
ÃŃ a
ĠdÃ©t ourn
Ġreten u
Ġlun aire
Ġadjoint s
olic isme
ĠrÃ©s ume
dic ations
anim aux
Ġautoris Ã©
ĠrÃ©pert ori
ĠZe us
ra ines
oug osl
Ã©vÃ© nement
A ragon
ĠM assi
ĠT ol
op ro
ĠMar g
Ġob server
Ġsec rets
ĠrÃ©f lÃ©ch
commun ications
ĠÃ©d itÃ©
ĠrÃ©pand ue
Ġpar ts
si ble
Ġpl ats
Ġpl onge
Ġprof il
Ġconserv Ã©s
install ent
ĠÃ©quip Ã©s
Ġsin on
Ġsympt Ã´mes
Ġnational iste
Ġmob iles
Ġparall Ã¨les
Ġbret onne
Ġbri Ã¨vement
Ġdu chesse
Ġcompos antes
Ġneuvi Ã¨me
ĠB ang
ĠCons erv
Ġtraject oire
amira l
ĠÃī t
enc er
A f
Ġv as
Ġinf ir
Ġinc ert
erv Ã©
Ġprom o
Ġplate aux
Ġâ Ħ
Ag ence
Ġnaz is
Ġrende z
ĠL oth
Ġimp osÃ©
Ġtourn ois
Ġarb it
h ouse
Ġtemp Ãªte
Ġins titution
ibli ographie
mÃ©di aires
Ġreb elles
Actu ellement
P aul
our ant
ĠN il
Ġcor rig
S ui
b out
h all
Ġt aill
ys tem
Ġreconn us
ĠentraÃ® nant
Ġ181 4
ĠErn est
M ont
onc Ã©s
erc y
Ġaband onnÃ©e
Ġconc lusion
ĠÃ©p iscop
Ġadop ter
Ġrefus ent
P C
z on
ac les
Ġvari ent
Ġsensi blement
ĠtÃ©lÃ©ph one
ĠMuse um
es que
Ġg ise
ose velt
ĠdÃ©s astre
Ġrou es
isse urs
ĠStre et
D A
in us
Ġ8 9
enc y
ĠSou th
ĠRÃ©s istance
j us
l ations
ĠM ir
ĠB ran
di ff
Ġh ind
Ġinter rog
alle mand
ĠS ir
ĠR oc
ĠF ig
Ġmar ie
ĠhÃ´ pital
ĠmathÃ©mati cien
h Ã©ritage
Ġb rass
ig le
Ġent rent
Ġemp ereurs
Ġca che
an k
ĠH ou
ard ie
Ġfondament al
it anie
int ention
tent rion
Ġcouv rant
ĠGi ov
Ġtox iques
ĠLim oges
Ġinhum Ã©
m m
Ġs Ã©man
Ġn auf
Ġch im
ĠF ootball
Ġconstru cteur
Ġrest ri
Ġatta chÃ©
ĠHug ues
ĠFlori de
Ġe uc
ĠE ur
ĠK en
Ġgrec ques
M oyen
ĠC F
Ġbi ologie
Ġ188 6
Ġaccomp agne
Ġparticu le
Ġref roid
Ġcad et
ĠBen jamin
Ġlum in
Ġunif orme
Ġcontro verse
Ġs Ã¨che
ni Ã¨re
Ġdis ant
ĠGrou p
entraÃ® neur
Ġphon Ã©tique
mp e
ĠN a
Ġsitu ent
Ġinc on
ĠgÃ© ographiques
Ant oine
qu are
ĠN atur
enf ants
ĠChamp s
ĠÃ©gyp tienne
Ġjudici aires
Ġcommen Ã§ant
Ġspiritu el
ĠG ri
ĠdÃ©p Ã´ts
oni um
Ġbour se
imm igration
ĠconÃ§ ue
ghan istan
ci um
ble au
ĠJe ff
Ġoff rent
ĠCent er
Ġcircu its
Ġchauss Ã©e
Ġincar ne
E L
Ġbi ologiques
Ġgros se
Ġhos pit
Ġachev Ã©e
Ġc end
in telligence
tÃ© b
cul aires
ĠBar th
ĠdÃ©n ommÃ©e
Ġreten ue
Ath Ã¨nes
ĠSoph ie
Ġd a
ra ction
di ques
Ġav ocat
Ġcarb urant
Ġfamili al
ĠÃ© tern
ĠL omb
ĠR el
Ġmat uritÃ©
ĠGrand s
Ġremplac Ã©s
ĠIs land
ĠG ustave
mb erg
Ġpo Ã©tique
Ġsucces seurs
Ġsing ulier
f ilm
onn iÃ¨re
Ġsoci alisme
Ġall ong
Ġfant astique
ĠR iv
ĠT s
ver sion
Ġsuffis ante
olÃ© rance
ĠprÃ©dÃ© cesseur
eng ager
Ġavanc Ã©es
Ġsis micitÃ©
Ġp Ã´les
ĠP il
Ã©ra le
Ġra d
Ġres semble
Ġpermet tra
trÃ© m
Ġsupprim er
Ġdoctor at
ou reux
exp liquer
ĠQu int
Ġcru ci
Ġp riÃ¨re
os Ã©es
Ġcour rier
Ġport ail
aci er
ĠGrÃ©g oire
l ante
ĠN et
Ġvie ill
Ġno tÃ©
Ġfonction ner
Ġoblig Ã©
Ġmass es
es pi
Ġh Ã©s
ĠCh inois
Ġautor ise
Ġrh Ã©t
ra ham
ĠN ag
Auc un
Ġd en
ar tistes
Ã©p ouse
Ġdistin cts
oug h
Ġtib Ã©t
Ġs oie
un a
ay es
Ġtou cher
ĠsÃ© ance
Ġcou rage
exp loration
appar tient
Ġproduis ant
6 8
Ġm Ã¨tre
om a
ĠMel un
Ġinconn ue
ĠM id
ĠM idi
Ġren ouveau
Ġfont aine
Ġhistor iquement
Ġanim Ã©
Ġlux e
l oc
ou ra
Ġh Ã©li
Ġexpos Ã©e
s k
ex empl
Ġâ Ĥ
ĠDan ube
Ġhi pp
ĠrÃ©pand u
ĠB is
ĠR oll
Ġretrouv Ã©s
Ġtend ances
Ġnat ale
ĠL as
Ġtrans mettre
lus ions
Ġ12 9
Ġcol lis
Ġouv rier
Ġferm Ã©e
L ang
ĠD ol
Ġcar riÃ¨res
ĠLe g
ĠrÃ©sist ants
Ġcam ar
Ġconfond re
ĠrÃ©tab lir
6 9
or able
Ġf oyers
Ġconserv Ã©e
Ġliber tÃ©s
ĠAlph onse
H Ã©ra
r um
Ġs l
ur ich
ins cription
ate lier
Ġco qu
Ġachev Ã©
Ġsusc ite
ol ini
An ti
Ġsub divis
Ġsign aux
Ġprom ul
Ġchois ie
ĠSar the
ĠToul on
Ġprivil Ã¨ges
Uti lisation
Oc cup
C ri
ar th
te aux
ro ss
Ġpl ur
Ã©l itÃ©
Ġgra ins
Ġouv riÃ¨re
til lon
Ġcompagn on
ĠsÃ©c ur
Ġlour des
ĠColu mb
ĠGÃ©org ie
P rÃ©sent
ĠG ame
Ġentre tien
ĠK u
Ġtex tile
ĠprocÃ©d Ã©s
vad os
Ġv Ã©c
Ġexp ansion
gl as
ĠJe une
ĠJoh ann
Ġprom u
ĠFor Ãªt
Ġratta chement
ĠcinÃ© aste
ĠJus tice
ĠB oc
ac cident
ĠJ ustin
Ġph are
Ġ186 5
Ġi tin
ĠGil bert
ĠHab sbourg
Ġbataill on
et our
Ġm iss
Ġh ellÃ©n
mb ourg
Ġacc Ã¨de
ris me
Ġessenti elle
ĠRom an
ĠPC F
Ph ili
Ġcar bon
In tÃ©rieur
Ġ9 7
oun g
Ġexcep tionnel
ĠspÃ©cif iquement
Ġinterd ite
Ġprai ries
ĠR ousseau
ĠD ic
Ġal pin
ĠnÃ©g ative
hab itation
ĠÃ©gyp tien
ĠmaÃ®tres se
ĠrÃ©alis ations
Ġindi quer
ĠgÃ© ant
Ġtechn ologiques
d al
ĠC ir
ob Ã©
Ġmin istÃ©ri
Ġmusic aux
ĠLu cien
emp Ãªche
Ġass urent
ĠprÃ©sent Ã©s
Ġdemand ant
ĠÃ©lector al
ĠcommerÃ§ ants
Ġv ulg
Ġpour cent
Ãª mes
Ġexp ressions
Ġacc Ã©der
Ġsc rip
Je unesse
ĠChe val
ĠVer dun
Ã©ron autique
appu yant
h ist
Ġo re
ĠÃ©c ras
Ġpat tes
ĠGe off
ĠdÃ©mont re
Ġremont ent
TA N
ra ille
Ġn aiss
ĠB ond
ĠLa us
Ãī le
Ġres titu
Ġcriti quÃ©
S eu
Ġs Ã©min
Ġconf iÃ©
Ġ187 8
Ġmodifi Ã©e
Ġparu tion
Ġmagas ins
ni ti
Ġentre tient
Ġ18 20
Ġcl an
Ġconstitu Ã©s
Ġ ira
ĠC oc
Ġcon vers
ven ant
Ġfa usse
Ġcal me
ĠÃ©m o
Ġvo tre
Ġprati quÃ©
ro i
ch ette
Ġch or
ouv rir
Ġsal ut
Ġcontribu ent
Ġbomb e
ĠTest ament
i al
ra ble
si fs
ĠP oit
Ġremp arts
Ġcr ue
Ġpropos ant
ĠcaractÃ©ris Ã©e
Ġvites ses
ÅĴuv res
ĠJ un
Ġrel atifs
Ġmes se
ĠrÃ©guli ers
Ġmine ur
Ġest hÃ©tique
ins tein
tis ation
ver g
ĠdÃ©tr uis
ĠmÃ©ridion ale
Ġtch Ã¨que
DÃ©fin ition
Ġl ion
Ã©n iens
Ġti mbre
Ġdemand ent
Ġsenti ments
ĠdÃ©clen che
Ġtardi ve
Ġan tis
Ġinond ations
ĠC le
ĠF N
ĠV ati
Ġent housi
Ġdev ra
Ġappar ait
Ġindividu elle
P L
ĠF ilm
tin ent
Ã©m ont
Ġw all
Ġ188 2
Ġarchite cte
ĠminÃ©ra ux
ĠrÃ©cip ro
Ġb en
Ġinter mÃ©diaires
Ġport raits
ĠPl ay
Ġf uir
el ieu
Ġb ale
Ġr entrÃ©e
Ġh e
Ġamp li
ĠlibÃ©ra le
Ġaltern ative
ĠsÃ©p arer
ĠFontaine bleau
A quitaine
c tif
ar che
Ġt ol
el ler
op ath
ĠV erne
Ġvi etnam
ĠÃ©p onyme
Ġdemand es
Ġex cessi
Ġapp ropri
enne dy
ĠsÃ©rie ux
ĠP oul
Ġpro li
Ġres pi
Ġlimit rophe
Ġdomes tique
arrÃª ter
ĠStÃ© ph
n ois
ais ser
Ġman Åĵuvre
Ġfix er
ĠpÃ©riph Ã©rie
arr Ãªte
Ġvec teurs
ĠA C
Ġcomp tant
Ġpos th
Ġaccord Ã©
ĠdÃ©pend ent
Ġtac tique
Ġch ape
Ġac tiv
Ġrec ycl
ĠbÃ©nÃ© fice
appar aÃ®t
Ġarchite ctes
arme ment
ĠC G
ĠI rlande
ĠW ilson
Ġdom inÃ©
Ġcath olicisme
Ġperd ue
ĠquÃ©bÃ©c ois
Ġsame di
al on
ĠS he
ĠdÃ©p loy
ĠLa f
ĠdÃ©cl ara
ĠÃ©m erg
Ġfus Ã©e
ĠpÃªche urs
ĠCE T
hÃ©m isphÃ¨re
f iques
Ġp iliers
Ġf ati
ĠÃī v
ĠdiffÃ©r en
Ġcomp lot
anti ers
Ġriv alitÃ©
Ġsupprim Ã©
L M
or ent
ĠH y
Ġter ti
rastru cture
Ġco ff
Ġent am
Ġ179 5
ĠopÃ©ra teurs
ĠCal vados
ĠÃ©l ue
ĠlÃ©giti mitÃ©
c tique
k en
Ġcomp l
Ġass urant
Ar thur
ĠSt ock
Ġmuni tions
Ġ188 8
Ġregroup Ã©s
ĠLib an
ĠdÃ©l ai
ĠPeti te
ist res
Ġsa ti
erm Ã©
Ġins cription
ik h
Ġrece v
d rome
ac Ã©s
Ġbat teur
Ġconform Ã©ment
ĠChampionn at
imp Ã´t
cl Ã¨s
odi um
Ġjuridi ques
Ġdiv orce
explo sion
Ġcomp arer
Ġ7 9
ac Ã©
Ġrec ouvre
Ġeffectu Ã©s
ĠB ien
ĠL og
Ġex istÃ©
oc al
ni Ã¨res
Ġfond ent
humi ditÃ©
y lÃ©
Ġa idÃ©
ĠS at
ĠN oirs
Ġtra c
Ã® mes
ĠrÃ©g imes
ĠdÃ©velopp Ã©es
ĠlÃ©gisl ature
Ġconstell ation
ĠD ion
acc ompagn
Ġsep tentrion
Ġvari Ã©s
ĠS ens
Ġren oncer
Ġ189 1
adap ter
Ġmos quÃ©e
ĠhÃ´te ls
ac re
acc al
ĠspÃ©ci alisÃ©es
ĠmÃ©tal liques
Ġsusp ension
Ġpl astique
ĠdÃ©p osÃ©
tis sent
ĠrÃ©c ent
Ġbou cle
Ġbon heur
Ġpublique ment
ĠFre ud
ĠsÃ©cher esse
ĠPoit ou
Ġf res
ch amp
ĠP on
ĠR est
Ġpr ouver
Ġconst amment
lic opt
fi Ã©es
Ġdix iÃ¨me
ĠpÃ©n Ã©t
ĠmillÃ©n aire
N ot
k ov
ĠS el
ĠdÃ©c entra
Ġtour istiques
anci er
ĠmatÃ©ri els
Ġperd ent
Ġ188 3
ĠTur in
Ġcomment aires
Ġ }
Ġn et
ĠB oud
Ġ185 1
ĠfrÃ©qu entes
Ġalg Ã©b
onn aise
Ġmar ti
ĠrÃ©g i
Ġad resse
Ġremp ortent
Ġquar antaine
ĠRom ain
Ġvo Ã»te
ĠH ad
Ġmar Ã©e
eng agement
Ġfall ait
R obert
Ġro s
Ġco opÃ©ra
ĠMont b
Ġten eur
Ġtermin er
heure usement
Ġc m
un itÃ©s
Ġb ag
ĠdÃ©tru its
Ġdispos ait
ĠVati can
P E
Ġal ter
Ġpass Ã©s
ĠBl ois
Ġg Ã©rÃ©
ĠS imp
onn et
Ġtransport er
ĠÃ©coss ais
E ff
Ġ ran
Ġav er
ron g
ern ant
ĠY ougosl
Ġsign Ã©e
Ġfix Ã©e
Ġferrovi aires
og ramme
ĠRe al
Ġreconn aiss
ĠBer ry
Ġreli ques
Ġconj oin
ĠRÃ©f orme
b in
ĠC all
ĠS par
Ġst abilis
Ġrel atives
ĠdÃ©s accord
Ġrend ue
Ġconcern Ã©s
Ġroy aux
Ġâ Ī
Ġcerc les
Ġar ticul
elli p
Pro duction
Ġatteign ant
ĠÃ©tro ite
Ġprestig ieux
Ġf at
our ir
Ġin vo
ĠA D
ge oise
ĠH ollywood
Ġces sÃ©
Ġmondi ales
ĠrÃ©un ions
Ġsorti es
Ġapparten ait
Ġexcep tionnelle
Ġjustif ier
k ing
Ġa z
ĠS ib
Ã©ra it
Ġpoli ciers
Ġhabit ations
ĠTe le
Ġsil ence
ĠCarl os
Ġcompil ation
k ans
om Ã¨tre
Ġb oute
Ġ7 2
Ġvoy elles
Ġ188 4
ĠA ct
lis Ã©e
Ġform ules
ug u
Ġcoup les
Ġajout ant
z ig
ill Ã©es
Un ivers
Ġbi Ã¨re
Ġ187 6
Ġpseud o
ĠDun kerque
Ġem men
ĠB yz
ĠR ig
ge ance
velopp ement
Ġsucc Ã©dÃ©
Ġdat Ã©
om on
Ġsu isses
ĠD idier
ĠN iger
Ġtou chÃ©
ĠUn ited
off ensive
Ġmassi fs
a os
Ġt oiles
Ġdu cs
ĠC C
ĠM iller
Ġex trÃ©m
ct Ã©e
yn amique
ĠLaus anne
Ġapp ortÃ©
Ġob tint
tis sements
Ġren ommÃ©
ĠÃ©volu tions
ĠLo ve
ĠdÃ©p endance
Ġfon te
An nÃ©es
Ġpri or
Ġroman tique
Ã©les te
r h
Ġa ust
Ġm anger
el lo
ĠÃ©c arts
Ġacc Ã©lÃ©
ĠprÃ©c ieux
ĠdÃ©mont rÃ©
ĠhiÃ©r arch
ur ier
Ġau th
Ġpl af
ĠF leur
Ġfra Ã®
Ġhau teurs
Ġclass Ã©es
tu m
aille ment
Ġmoul ins
g on
Ġp aÃ¯
ou tre
Ġla urÃ©
ass an
ĠLa w
Trans port
Ġsuscep tible
e ctions
t aient
Ġg este
ĠK han
ĠÃ©p reuve
Ġorganis er
Ġhum an
A I
ĠJ ava
Ġne w
ĠsÃ» re
Ġcinquant aine
b or
Ġ iv
Ġl oy
ro vis
Ġv Ãª
Ġac cidents
Ġsupp lÃ©
ĠRuss es
Ġrappel er
J umel
Ġpr ouv
enc ie
ĠdÃ©termin ant
Ġaffir mant
D ivers
Ġm yst
ĠG ros
Ġmar quÃ©s
Ġpres sions
vision nement
ĠLi ve
Se uls
Ġtal ents
ĠVirgin ie
ul ant
ph Ã©m
Ġcl a
Ġargu ments
ĠSal on
intÃ©g rer
Ġexig ences
G M
c ot
m und
Ġd ommages
ro duction
Ġpart ent
ali Ã¨re
Ġorigin el
Ġ179 1
ĠsÃ©par Ã©
Ġgraph iques
ĠVl adi
Ġhydra uli
Ġn age
ad hÃ©sion
rim Ã©e
Ġcou tume
Ġvol ant
ĠprÃ©co ce
ĠS en
Ġbi ographie
ĠHi pp
Ġattent ats
ĠâĤ ¬
or Ã©es
ĠÃ© checs
ĠC Åĵur
Ġob tiennent
Ġconn ut
ĠRe ine
Ġrend us
Ġ186 3
ĠSec ond
Ġcyc les
Ġpleine ment
Ġem m
H i
Ġex am
Ġex ten
ĠW olf
ĠO t
Ġth Ã©rape
Ġlang ages
Ġis ot
Ġoppos ant
Ġavanc Ã©e
C elles
Ġv Åĵ
Ġh Ã©ritage
Ġmin ute
Ġtribun aux
Ġcrist all
inform atique
Ġl Ã¨s
Ġb ec
Ġin tellig
Ġma Ã¯s
ĠbÃ©nÃ©fici ent
Ġtax es
Ġat titude
Ġmen Ã©s
Ġprogressi f
ĠWil helm
6 2
m or
ĠP ier
ĠG are
Ġapp ort
mÃ© tique
ĠÃ©d iteurs
Ġspiritu elle
Ġlev Ã©e
ĠVÃ©n us
ou rage
int on
assi fication
hab itude
Ġdistingu ent
ĠBulg arie
w o
ro pole
ci Ã¨res
ĠL at
ĠR N
Ġtr ous
Ġsol ides
Ġtrou ble
Ġrecord s
ĠH as
Ġcar refour
Ġcar oling
Ġpers ist
Ġ14 7
hi p
ĠindÃ©pend amment
Ġpropag ation
antil lon
Ġp oul
Ġb oy
Ġvi ole
erg ue
Ġrelie fs
Ġsomme il
h oriz
Ġs cep
ĠS Ã©g
ĠK le
Ġretr ans
Ġmonn aies
Ġst rict
Ġmon arch
Ġsub ord
Re prÃ©sent
commun alitÃ©
ĠBat aille
o a
entre prises
od ge
g s
Ġs quel
Ġsal aires
ĠQu atre
Ġstru ct
Ġatta quer
ĠComm une
ĠexÃ©cu tion
6 3
Ġter ri
acc Ã©l
ĠdÃ©termin Ã©
Ġconcurrent s
Ġrestre int
Aug uste
ĠthÃ©Ã¢ tra
Ġ osc
et ti
ill ent
Ġman iÃ¨res
Ġcher chent
As c
ĠCas tille
Diff Ã©r
Ġimme ubles
exempl aires
Ġ é
ĠR ic
Ġat tention
Ġ187 5
Ġtrib une
Ġlocu teurs
ĠPales tine
Ġch am
Ġrestaur ants
ĠÃ© man
Ġg Ã¨nes
tu aires
Ġat ten
n os
Ã© o
ĠC u
ĠrÃ© vis
amp h
ĠBe at
Ġgard es
ĠÃ©chapp er
UN ESCO
Ġdiction naire
6 1
H Ã´tel
r ar
Ġc Ã©p
Ġg out
Ġj oint
Ġfin issent
ĠÃī p
Ġpart ant
ĠsÃ©v Ã¨re
ĠÃ©vi demment
ĠMÃ©tro pole
oris er
Ġ188 7
ĠÎ ±
ĠPra gue
p a
Ġc ouverte
Ġc Ã©der
ĠL oup
ĠN at
tes te
ano Ã¯
ĠHe in
ĠÃ©lÃ©ment aires
Ġsec rÃ¨te
Ġam ie
Ġdessin ateur
Ġtest ament
Ġappare mment
Ġcatal an
l ay
ur anium
accal aurÃ©
O l
ou ts
ĠC ru
Ġexp lication
eu ille
Ġdou leur
Ġrou e
Ġliv rÃ©
tÃ©rieur es
Ġinv itÃ©s
ĠNation ale
ĠGiov anni
m ou
Ġtr onc
exp rime
Ġcompos ante
Ġrend it
Ġtur c
ill ac
ĠMar x
Ġ186 1
ĠchrÃ© tiennes
Ġconvain cu
P I
ĠA mi
Ġan onyme
ĠN ar
Ġal lÃ©g
ĠGu inÃ©e
ĠdÃ©f unt
Ġw iki
Ġ186 2
Ġcommand Ã©e
Ġap erÃ§
orb ite
Ġpharm ac
Ġm ira
at Ã©ri
Ġar mÃ©
ins on
acc Ã©der
Ġocc itan
Ġquin zaine
ĠBri tish
Ġautrich ienne
ĠCond Ã©
Ġm ante
cip ation
Ġman che
oth Ã©rapie
Ġrev ues
Ġqualif iÃ©e
Ġemploy Ã©e
car tes
Ġsouvenir s
Ġarchitectur al
ĠR av
tif iÃ©
Ġquel qu
Ġ10 5
Ch ac
va sions
Ġdesc endance
a ac
ĠM ali
ĠP akistan
Ġin vers
vis ible
Ġtyp iquement
Ã©tab lit
ĠMc C
Ã¨ lent
Ġse gment
aÃ® tra
ĠdÃ©f av
Ġvoy ant
Ġeng agÃ©s
ĠSch ool
ch ard
Ġin uti
ĠMar io
ĠZ urich
ense ur
Ġ12 7
Ã©cl ai
ĠExp ress
Alli ance
om s
il ib
ol les
Ã©t age
ĠAl s
Ġrom ane
ĠconsidÃ©ra it
ĠcollÃ¨ ges
Ġnaz i
S u
Ġ islam
Ġqu ais
Ġin tention
Ġparticip ant
aj outer
Ã©chapp er
l um
Ġp aire
ais ie
Ġin time
Ġav enue
ĠdÃ©p loie
Ġemp re
ke ting
effec tue
ĠÃ©rig Ã©e
c ourt
rib ourg
acc um
Ġ186 4
actu alitÃ©
ĠStan ley
at titude
ĠprÃ© side
Ġlance ur
ĠdÃ©fense ur
Ġbap t
Ġex cl
ĠdÃ©fin ies
Ġgerm aniques
Ġprolon ge
Ġf Ã»t
Ġ6 2
ĠsÃ©par Ã©e
Ġinform atiques
Ġprofessionn elles
ur ait
Ġh olland
Ġex acte
Ġ187 2
Ġreli Ã©e
Ġlinguis tiques
re ct
il ie
ĠB onne
uti lise
Ġor chestre
Ġrel Ã¢
Ġinst ance
Ġprot agon
ĠnÃ©goci er
Ġestim ations
r Ã¨rent
x te
di enne
alis ant
Ġgrande ment
Ġgro tte
Ġconvain c
Ġmodern isation
Ġcomtes se
ĠM uss
ins titution
Ġconstru cteurs
Ġappar ence
Ġ13 9
dic at
isse ur
E FF
Ġ \
ol at
Ġb illets
ĠC rois
Ġac tivement
Ġremp ortant
Ġviol ent
Ġamb igu
ĠmÃ©n age
Ġafric ains
Ġcombus tion
Ġa che
ar ith
ĠB erne
oy Ã©
Ġco hÃ©r
Ġ187 9
Ġvo tÃ©
Ġrecru tement
Ġcalc aires
Ġgross es
ajout ent
ĠflÃ¨ che
Ġconsens us
k ar
Ġd in
Ġimp oser
ari tions
ĠTh or
Ġtant Ã´t
Ġvoy elle
Ġeng agÃ©e
Ã¼ n
ĠFre d
Ġpolon aise
ĠrhÃ©t orique
Ġb ul
ĠM ore
appar ence
ĠrÃ©d acteur
f ran
ti gny
ĠC S
Ġr ites
Ġra ci
Ġal lusion
Ġ13 7
Ġprofond es
Ġassi Ã©g
Ġgaranti r
x ford
Ġex tr
Ġrep roche
ĠB omb
ĠFran ces
ĠTer rit
ĠYougosl avie
Ġb ov
Ġg rÃ©gor
Ġtra duire
Ġmon arque
Ġbas ket
Ġsol aires
ĠÃ©quip Ã©e
Ġved ette
m el
ĠS o
ĠS ystem
Ã©t endre
Ġatt endant
Ġvain cu
Ġdiplom atiques
ĠcÃ©ra mique
á ¹
Ã© ler
Ġcon ducteur
ĠS ciences
Ġch air
Ġinter f
ĠspÃ©ci ales
ĠrÃ©sist er
Ġbel ges
ĠexÃ©cu tÃ©
Ġsolid aritÃ©
Ġexport ations
en Ã¨se
ĠJ im
Ġins pire
ĠdÃ©clar ant
Ġconven tions
ac teurs
bre r
ĠThÃ© od
ar z
Ġsur rÃ©
og on
ass es
ĠlÃ©g ers
exp rimer
Ġarm oiries
pital ier
Ġargu ment
Ġf lex
itu des
Ġoff rir
Ġatmosph Ã©rique
Ġrele vant
Ġcivilis ations
s che
Ġf lan
Ġen lev
ĠM ill
ĠR ud
yl v
ĠTe chn
adel ph
L og
ĠC ES
ĠB az
Ġpos Ã©
ĠprÃ©d ateurs
Ġgui de
ĠapprÃ©ci Ã©
H ar
ĠK o
Ġloc alisation
oise aux
asc ar
Ġnerve ux
et tre
Ġmagn itude
ĠecclÃ©si astique
PÃ©ri ode
I rak
ti o
de x
am as
Ã©c onom
ex traction
ĠgÃ©n oci
Ġbi o
Ġprot otype
ĠRich elieu
Ġserv ait
ĠTay lor
ĠC assin
Ã©r one
Ġob Ã©
Ã©li mination
aiss es
Ġtermin al
ĠAir bus
Ġexplic itement
Ġchrom os
Ġapproxim ativement
es sence
Ã¨ bres
ach Ã¨ve
Ġadap tÃ©s
log e
Ġoppos Ã©s
ĠdÃ©ter mine
Ġcom ique
ĠB ot
Ġh Ã©roÃ¯
ĠF el
Ġmar quÃ©es
ĠE ast
ĠrÃ©g ulation
Ġanim ale
Ġchap itres
Ġenvi ronn
Ġd ose
Ġv otes
Ġsupport ers
Ġfaibles se
ĠMÃ©di cis
ĠGener al
ĠC oul
ni a
Ġes cad
igne ments
Ġouv ertes
ĠFranÃ§ais e
v int
Ġ ã
Ġch Ãªne
Ġrev Ãª
Ġwe ek
u ch
ĠT ig
Ġex ception
lÃ© matiques
om iques
ĠprÃ©f Ã©rÃ©
Ġc Ã©leste
te chnique
Ġf lanc
ĠF ox
Ġtermin Ã©e
Ġdemand a
Ġfid Ã©litÃ©
Ġabou ti
oblig ation
oc Ã¨ne
Ġth Ã¨ses
Ã©p in
ĠLe v
ĠlÃ©g ale
Ġsort ent
Ġdat Ã©e
ĠarrÃª ter
auc une
ĠApp le
NI EFF
Ġautoch tones
E A
ÃŃ n
Ġassist ant
Ġlum ineux
pit aux
Ġsembl ables
h in
que ment
si g
ĠS n
Ġh ivern
ĠT el
op ique
onne ments
Ġsou lÃ¨vement
Ġper se
Ġsyn drome
ĠPro g
ĠindÃ©pendant es
Ġtempor aire
Pos tÃ©ritÃ©
Ġau d
Ġinf ec
Ġcontra ste
Ġplan ches
ĠX avier
Ġâ Ĩ
Ġcell ulaire
Ġfen Ãªtre
Ġconjoin tement
en aires
Ġv Ã©lo
ĠÃ© te
ĠM end
ul Ã©s
ĠK az
lÃ¨ ne
tionn Ã©
Ġemp Ãªche
ast ron
Ġmag ique
ĠinterprÃ© tations
Ġprati quÃ©e
o lement
Ġm ers
Ġav ons
accomp agne
empÃª cher
Ġs atur
ers bourg
ĠK a
Ġpo in
ĠspÃ©ci fic
I ss
Ġt Ã©n
ĠS omme
ĠP Ã©l
ĠP anth
Ġparti tion
ĠH amb
ĠâĢ ľ
ĠbÃ©nÃ© fices
Ġconfir mÃ©e
Ġinsc rite
Ġl ent
an ais
ĠD ragon
Ġcol lÃ©g
Ġvari Ã©es
Ġmic rosc
Ġlabor atoires
Ġsouter raines
ĠextÃ©rieur es
Conc ernant
Ġc oute
Ã©t rie
Ġrep li
Ġtravers ant
ĠrÃ©un ir
Ġap ost
G C
Ġb accalaurÃ©
ĠS ong
ate l
Ġfond ations
Ġins titut
ĠtÃ©lÃ© communications
Ġjourn Ã©es
ĠPl ut
ĠTro ie
Ġcoi ff
ach t
ĠmÃ©c ont
Ġsex uel
ĠprotÃ©g Ã©s
ĠRo osevelt
Ä ĥ
Ġp isc
Ġex amen
Ġpo che
Ġdesser te
Ġcollabor ateurs
ĠtÃ©l Ã©s
ak es
ĠCom te
ĠSu z
ordin ateur
w ald
Ġm m
ob al
Ġag riculteurs
ell ent
Ġsupp orte
ĠprÃ©f Ã©rence
Ġtrib ut
Ġdan ois
Ġave ug
Occup ation
ous in
ati c
ĠK ab
ign ent
ĠâĢ Ŀ
ĠthÃ© olog
Ġoblig ations
Ġpoursui vi
Ġrej ette
ĠdÃ©pass ant
Premi Ã¨re
R Ã©g
Ġj Ã©s
ĠK an
Ġsoci ologie
ĠdÃ©partement aux
Ġ186 8
Ġfau bourg
Ġre man
Ġch ants
erre ur
Ġplu me
Ġhyd rograph
Ġchinois es
ĠpossÃ©d er
ĠIS O
A ix
y ne
ont o
eu f
Ġchap elles
bi han
Ġappli quÃ©
je ctions
ĠRoch elle
Ġasi atique
ĠCarth age
a oÃ»t
our geois
og le
ĠH T
Ġ183 1
Ġprim ordi
Ġintro duite
ows ki
Ġacqu ise
ĠGÃ©n Ã©ral
ĠprÃ©al able
an os
ĠP ent
ĠD in
Ġdev raient
ĠCar lo
Ġ11 7
Ġcli p
Ġap ogÃ©e
Ġbaptis Ã©e
Ġo t
ĠG ouvernement
ĠV ent
Ġcor rÃ©
ĠChar lie
Ġdirec tive
ĠsÃ©par Ã©es
Ġath lÃ¨tes
Ġpne um
et o
Ġm Åĵurs
ĠrÃ© tic
Ġmon oc
Ġtemp ore
ĠIn c
eff ort
Ġprotest ant
Se ul
ĠLang ued
Ġconduis ent
ĠMons ieur
Ġrume urs
Ġpourcent age
Ã©clai rage
ĠC H
ĠreprÃ©sent ait
Ġbr Ã¨ve
Ã©quipe ment
Ã©tab lis
Ġdict ature
verg ure
ve z
ĠdÃ©fin is
Ġdiscip les
Ġradic aux
d el
Ġp omme
Ġh aine
Ġmar quent
cul ture
Ġsyn chron
ĠÃ©rig Ã©
harm onie
Ġvign oble
Ġcoh Ã©rence
Ġs erre
Ġa min
ath an
Ġ6 3
ĠdÃ©ta illÃ©e
erse y
ĠLamb ert
D Ã©s
tin es
th Ã¨se
Ġstand ards
ĠRoche fort
an aly
Ġro be
emp arer
Ġinc luent
Ġproc Ã¨de
pec teur
Ġmagas in
ĠgÃ©nÃ© alog
Ġs am
Ġdonn Ã©s
acc ro
ĠZ NIEFF
Ġobten us
ĠfrÃ©qu ents
Ġmob ilier
Ġcontinent al
it ale
Ġt ome
Ã¨ ches
ĠP ass
ĠF ribourg
st an
Ġpersonn elles
Ġmodi fie
ĠMor bihan
Ġ184 6
ĠcollÃ¨ gues
ĠTim es
Ġtrip le
Ġincap able
Ġv aud
ĠH om
Ġal tÃ©
ari us
Ġneut ralitÃ©
ĠLew is
E m
Ġp ond
ĠC R
ĠA quitaine
Ġemp lacement
Ġimm un
ĠdÃ©cis if
ĠrÃ©glement ation
Ġg lac
ĠH igh
Ġne z
Ġ187 3
Ġconsac rÃ©s
ĠcomplÃ© ter
ĠalÃ© atoire
ĠV ern
Ġinstru ctions
Ġmi roir
Ġreconstru ite
Ġn id
Ġtab l
ac tif
Ġcont am
ob tention
ĠX II
Ġreven dications
ĠCam ille
Ġjud aÃ¯sme
Ġflui de
ĠT rente
ĠD ak
po ol
Ġinst alle
ĠdÃ©sign Ã©e
ĠcatÃ©g orisÃ©e
ĠDou glas
Ġdauph in
Ġcend res
er d
Ġapp ris
ĠCh en
cien nes
rig ht
ensi f
Phili ppe
ĠS P
ĠS ix
Ġpas teur
Ġses sion
ĠlÃ©g al
Ġtriom ph
Ġaqu atiques
Ara bie
Ġaux ili
Ġcal if
Ġmag ni
ĠrÃ©guli Ã¨res
ĠdÃ©pass Ã©
ĠÂ ²
di er
ĠD avis
Ġcons Ã©cu
oph ile
Ġremp lis
Ġcommand Ã©
anne xion
ĠsÃ©qu ences
r ui
Ġre par
ĠLe ague
ĠsÃ©j ourn
p ol
Ġl Ã¢
er oun
Ġex tÃ©rieurs
opp oser
ĠLe b
Ġbas Ã©s
ĠY am
Ġrest ait
Ġmyth es
Ġcrit Ã¨re
ĠPÃ©t ersbourg
ĠmaÃ§onn erie
Ã©m on
ĠÃ©c os
onne urs
Ġph yt
Ġviol ences
Ġphilosoph iques
emb ouchure
ĠFranc fort
rolog ie
Ġcot on
Ġti rage
Ġacc um
Ġsyn onyme
enri ch
Ġ179 4
anim itÃ©
Ġproven Ã§
ĠVill a
Ġcris es
pp es
ins titut
Ġ6 1
Ġarm Ã©s
Ġfranch ir
Ġcoord ination
O u
Ġf ri
ĠdÃ© pe
ĠC ob
ĠN elson
ĠgÃ© ologiques
yst Ã¨mes
Ġfaill ite
ar istes
rÃ© tion
ĠP lace
ĠprÃ© texte
ĠH Ã©lÃ¨ne
ex tinction
omm Ã©s
iss on
Ã©p uration
Ġconstitu Ã©es
Ġphysi cien
Ġorgan iques
Ġgross esse
ĠL uis
ĠJ ung
ess ai
anne au
ĠbÃ©t ail
re urs
Ġpar rain
Ġb and
tu es
ĠprÃ© j
ĠI ran
Ġcou le
atta quer
Ġriches ses
Ġlyc Ã©es
t yr
Ġ $
Ġc umul
Ġt yran
ra de
ĠM Ã©n
ĠB and
Ġe uros
Ġlib ert
Ġaur ont
Ġexpos Ã©s
O TAN
Ġ uk
Ġn app
ch age
Ġac ous
Ġju gÃ©e
Ġrest ru
Ġsup Ã©rioritÃ©
Ġencou rag
ĠsÃ©man tique
ĠLangued oc
Ġla iti
ĠL Ã©nine
Ġchi ens
Ġ186 9
ĠdÃ©fini tif
Ġfestival s
ĠfrÃ©quent ation
2 00
Ġa ime
in aires
us ter
Ġr onde
ĠprÃ© venir
ĠFran z
aÃ¯ wan
Ġattribu Ã©s
ĠdÃ©t roit
Ġreconstru it
T S
Ġl onge
ĠS D
Ġexp uls
Ġexerc er
Ġtub er
Ġmiss iles
e aux
qu Ã©rir
ĠL ind
os hi
ĠD ick
pr is
Ġsou mettre
Ġemp i
Ġcop ies
Ġavent ure
h on
t ain
pp i
Ġvie il
Ġouv rir
ou ement
il ton
ĠrÃ© Ã©d
am ines
ĠR as
Ġan neau
ex amen
C an
i ane
Ġp y
om an
ac tive
Ġins iste
Ġag rand
Ġaccord Ã©e
Ġphot ographies
ĠLond on
Ġp acte
ĠJ oy
ĠE lect
Ġ8 8
he ad
Ġtrouv Ã©s
ĠÃ©qu ation
Ġguer riers
ĠBlan cs
tiss ant
ĠSteph en
Ġd ons
ra ft
end er
Ã©ri ens
Ġcor po
ĠrÃ©alis ateurs
ĠtÃ©lÃ© g
Ġ185 9
ĠrÃ© clame
ist ribution
ĠD a
Ġann uelles
Ġrep ous
Ġdomin ic
Ġbomb es
Ġenregistre ments
ĠBÃ© arn
Ġparoissi ale
it able
Ġf oc
ĠA le
Ã©ri enne
Ġli ve
inf lation
Ag riculture
ĠCat alog
ĠexpÃ©di tions
ĠdÃ©ci m
ĠrÃ©chauff ement
ĠB ow
ab ou
ph y
Ġst ades
ĠrÃ©sul tant
Ġchaud s
Ġgalax ie
an Ã§on
ar istocra
as ter
ĠP oli
Ġtelle ment
Ġexcep tions
Ġcer titude
Ġoub lier
Ġtropic ales
c ents
Ġd rain
Ġpro clame
ab ond
Ġex haus
ĠN oir
app liquer
Ġprote cteur
Ġpouss Ã©
T V
Y onne
Ġf Ãª
as que
Ġst rat
Ġcl avier
Ġinter actions
pi ce
Ġcui r
Ġamou reuse
c tÃ©
e ut
Ġch antiers
Ġ8 2
Ġsucc Ã¨dent
Ġcli m
Ġ187 7
Ġ185 2
Ġ185 6
tt o
ĠdÃ©ten us
Ġmerc ure
Ġconsist ant
ĠbaccalaurÃ© at
ar on
Ġg onf
ag Ã¨res
ry s
ĠCor an
ĠBel fort
Ġbless ure
ĠMÃ©s opot
tolÃ©m Ã©e
w er
Ġconf orme
Ġab stra
Ġsuiv is
ĠmÃ©t amorph
Ġtech ni
Ġuti les
ĠAf ric
ĠMerc ure
R em
U kraine
Ġp ommes
Ġc y
ĠP oint
Ġtrou b
Ġmainten ance
ĠstÃ© rÃ©
A ri
c ol
l ob
m ait
as hi
ĠdÃ© pose
li enne
ĠN u
Ġst opp
ĠrÃ©p Ã©tition
ĠGeor g
Ġ180 6
ĠhÃ©rÃ© d
h Ã©li
op er
Ġmen aces
Ã©b Ã©
Ġbomb ardi
Ġfisc aux
Ġang les
ĠÃ©quival ente
Op Ã©ra
T F
Ġc ors
Ġf oul
ces sions
Ġdis sim
ĠK ennedy
Ġpropos Ã©es
ĠdÃ©n ombre
Ġis olÃ©
Ġtermin us
Ġplac Ã©es
ĠcontrÃ´ lÃ©e
Ġprimi tive
al th
ĠS aintes
ĠH ard
Ġpoli cier
Ġsyn agog
Ġgl yc
ĠEn g
yg i
Ġfisc ale
O cÃ©
ĠJ ersey
ĠV iv
Ġor ale
rim oni
Ġconsul t
ĠPhil adelph
Ġlun di
ĠÃ© puis
at tent
Ġin n
oul Ãªme
Ġamb iti
ĠmÃ©taph ysique
Ġconf ier
Ġpermet trait
ĠIn f
Ã« n
Ġcrain te
ĠrÃ©habil itation
en ge
Ġt ables
ĠB rad
Ġtra ductions
ĠFer r
imm y
ĠdÃ©cis ive
alg orithme
B M
n il
om et
aut o
ari um
Ġtrans cription
Ġreg istres
ĠdÃ©termin ation
Ġsouff le
Ġparall Ã¨lement
Ġnaz ie
ĠdÃ©ten u
ĠlÃ©gend aire
ĠA wards
Ã©n ier
Ġal co
ob s
ass Ã©
Ġaband onner
Ġpro cesseur
Ã©n ien
uti litÃ©
Ġ8 1
ologique ment
Ġexc Ã¨s
uy er
ĠMi ke
P ropri
Ġag it
Ġanglais es
Ġtransform ations
ĠrÃ©serv Ã©e
Ġplatef orme
E uro
R is
emp orte
Ġ7 00
mis tice
Ġinves ti
Ġfondament aux
I niti
ĠC r
ad t
cid ence
Ġ185 7
u ki
in ions
Ġb lues
ĠL ouv
op las
ĠrÃ©p lique
Ġag ence
Ġrou tiers
Ġop us
ĠTur cs
Ġsurn ommÃ©e
Ġanc Ãªtre
Ġass istÃ©
Ġpart ager
Ġinc ons
ĠrÃ©v Ã©ler
Ġatt rib
ĠintÃ©g rer
ĠRou b
Ġvend ue
Ġtab ac
Ġprocure ur
ar it
Ġcon te
ĠP yth
Ġcont es
ĠCour onne
Ġmentionn Ã©e
Ġavanc Ã©
ĠY oung
Ġpor tion
Ġreti rÃ©
Ġconcur r
etz sche
Ã¨ dre
Ġch al
Ã©p aisseur
ĠÃ©ch ou
Ġviol ents
Ġindividu el
ĠÃ©limin Ã©
ĠÃ© ro
Ġin vasions
Ġcor de
Ġ187 4
att ribution
Ġpartis an
Ġbre f
Ġin hab
ut t
ĠN BA
Ġpsych iat
ĠÃ©vo quÃ©
Ġhos tile
Ġsav ants
Ġgratu itement
Ġmembran e
Ġv Ã©l
Ġvie illes
Ġbar rages
Ġfac ilitÃ©
Ġfourn issent
Ġreli Ã©
Ġfrag ile
Ġc um
ant enne
si ers
Ġvi f
Ġaccue il
Ġspectac ulaire
ĠConserv atoire
F ond
Ġpro jec
ĠMar che
Ġnouv ellement
ĠreprÃ©sent Ã©es
ĠmÃ©t rages
Ġmag ie
olk ien
Ġautrich ien
ĠprÃ©dÃ© cesseurs
Ġcommuni quer
Ġp aires
ĠB uc
ang ile
ĠW in
Ġchar p
ali de
asi le
ĠRuss ell
ĠperÃ§ u
identif ication
Ġcorrec tement
N T
Ġp entes
Ġrur ales
atter rissage
Ġheb domadaire
ĠP ad
ĠB ul
ĠF L
ĠmÃ© lo
Ġmauv aises
acu ation
Ġform ellement
ĠtÃ©lÃ© film
Ġvolont airement
Ġgal eries
otyp es
Ï Ĥ
ĠcrÃ© atures
Ġpopul aris
Ġcollab ore
I F
n on
Ġch aire
Ġsoci o
Ġrel at
Ġindi ces
Ġcultiv Ã©es
ĠCatalog ne
A O
Ġpro ie
Ġan at
ĠprÃ©sent Ã©es
Ġgr ille
tern itÃ©
Ġm utation
Ġen s
Ġindi quÃ©
ĠSÃ©n Ã©gal
Alexand rie
Ġtrah ison
Î ½
Ġsac rÃ©e
ĠdÃ©fense urs
Ġpropor tions
Ġhos pitalier
Ġgramm aire
ĠS cience
ĠV ars
Ġag ressi
ĠRen aud
ĠDes cartes
ĠMat th
Ġfaud ra
Ġs arc
ĠG ou
Ġmar Ã©c
aur a
Ġrepro duire
Ġul time
Ġachet Ã©
Ġsacri fice
Ġde bout
qu ote
tr y
ĠY v
Ġmul titude
Ġ183 2
Ġ183 6
Ġappr endre
Ġmainten u
ĠrÃ© elles
ĠE t
fi a
urg ique
ĠÃ©vo quant
Cl assification
Ġpun k
R Ã©f
en i
in aug
Ġla titude
di le
ate au
Ġcor rection
Ġri gue
ĠQu entin
ĠdÃ©lÃ©gu Ã©s
amp leur
Ġvol er
Ġmig ration
Ġanaly tique
ĠaÃ©rop orts
Ġsauvet age
ĠB od
Ġdomin Ã©e
Ġconfir mer
ĠÃ©tro itement
Ġb aies
ĠrÃ©p utÃ©e
ĠprÃ©sid Ã©
ĠdÃ©sign Ã©s
Ġtrouv aient
Ġdessin Ã©es
ĠprocÃ©d ures
Ġfir me
ĠMÃ©sopot amie
M C
id Ã©es
ĠE ric
Ġoff ert
Ġpi aniste
ix on
ĠU R
Ġpri me
intÃ© ress
Ġnour rir
ĠSard aigne
is Ã©es
Ã¨ tent
Ġal p
av ril
Ġpubli a
Ġcrois Ã©s
ĠdÃ©ch ar
Personn alitÃ©s
Ã© tisme
li es
ĠmÃ©di an
Ġvendre di
Ġtrag Ã©die
Jumel ages
Ġv ignes
ĠR em
ĠF eu
Ã©l oign
ĠmÃ©di atique
Ġdign itÃ©
S antÃ©
i Ã¨mes
Ġcapit alisme
Ġqualif iÃ©s
Ġfi bre
Ġachet er
ĠgÃ©omÃ©t rique
ĠÃ©lab orÃ©
Ġb erb
ĠP ois
ac tiv
ĠH avre
Ġnation alisme
ĠSt and
Ġfra u
ĠNew ton
Ġ185 5
Ġvit raux
ĠprÃ©cis er
ĠstratÃ©g iques
m ois
n isme
ĠB urg
ĠD ay
Ġtravers ent
Ġporte urs
hi z
ĠdÃ©pend ait
ĠconÃ§ oit
Ġenvis agÃ©
Ġdisposi tifs
Ġtril ogie
m itt
Ġs oph
ĠÃ© mer
Ġat mosphÃ¨re
Ġsec s
Ġag gra
ĠEn ter
ĠdÃ©termin Ã©e
ĠÃ©l ites
Ġautom obiles
ĠsÃ©n ateurs
Ġrappel ant
oct obre
M arc
b ury
ĠF is
Ġali gn
Ġmand ats
y ss
Ġp ent
ri ra
at us
Ġappar tements
ĠprÃ©cÃ©d Ã©
Ġextra ordinaire
don Ã©sie
Ġsoup Ã§
Ġramen er
ĠRac ing
A ur
O s
i os
Ġla p
Ġm ad
ve iller
de au
ler c
Ġaff iche
ĠAm Ã©rindiens
Ġcouv rir
ĠlÃ©gisl ative
Ġdiffus er
Ġbapt Ãªme
U MP
b en
Ã© vent
est Ã©
Ġh it
ĠÃ©g ard
Ġcommun isme
Ġsou met
Ġital iennes
Ġeffic aces
Ġvertic ale
Ġfes tivitÃ©s
Ġt ric
lÃ© tisme
Ġes tiv
Ġ9 8
Ġdel ta
occup er
ĠTor onto
dem n
ĠCorp oration
thi opie
l oi
Ġtra um
Ġcontre par
ĠrÃ©s olu
Ġsex uelles
Ġeffic acitÃ©
ĠFont enay
Ġintercommun ale
d ing
ais er
Ġh ivers
ĠÃ©p idÃ©mi
ĠprÃ©sid ente
Ġpi Ã©t
Ġhom ogÃ¨ne
ĠÃ¢ gÃ©es
Ġnu age
H ab
Ġl uc
ur n
ur rence
Ġn a
ĠR ois
Ã©t Ã©e
rit z
Ġras sembl
Ġextra its
Ġfle uves
Ġmys tique
T C
ins urrection
ĠrÃ©si du
b s
Ġdonn era
Ġinstall Ã©es
appro visionnement
Ġethn ique
m it
ĠS yd
ous ie
ron yme
ari os
Ġren aissance
erb ourg
ĠPer se
is ig
ar gu
ar bres
ĠdÃ© tention
Ġb riques
Ġg e
Ġcon cevoir
ac Ã©e
orm Ã©ment
Ġexp erts
ok e
Ġoccup Ã©s
Ġtend ent
ĠcÃ©lÃ© brer
Con sid
ĠdÃ©pour v
D I
Ġapp liquer
Ġconc rÃ©
ĠIn di
ĠMan chester
Ġrefus a
Ġnu ages
v ard
w en
Ġm un
ĠrÃ© organisation
Ġar ra
Ġpri ori
Al ger
Ġsurviv ants
ĠSovi Ã©tiques
Ġl ob
il er
ĠdÃ©c ap
ĠÃī glise
Ġconf ection
Ġdev in
Ġ184 5
Ġsuper fici
Ġami ral
ĠIt aliens
H or
ĠP lo
ĠB uff
Ġfor cÃ©
Ġmon g
ĠcrÃ© a
Ġmine ure
Ġordonn ance
archÃ© ologie
b ule
ĠS um
ĠG aul
Ġcomp tÃ©
ĠdÃ©c oll
Ġdro gue
Ġvis iter
ah n
fi ent
Ġ184 9
Ġposth ume
ĠVladi mir
end ront
ĠJohn ny
Ġrenforce ment
Ġcoeffici ents
er i
ĠF res
alis ations
Ġpeup lÃ©
Ġval orisation
Ġ185 8
Ġdiver g
ĠMath ieu
Ġb erce
Ġdi ab
ĠD Ã´me
Ġtron Ã§on
Ġt olÃ©rance
Ġb os
ĠT rip
ge ot
Ġcomp ort
ens uit
Ġper tin
Ġpropos Ã©s
Ġanti cip
Ġ183 3
ĠprÃ©d omin
Ġcav aliers
Ġpair s
Ġdoig ts
Ġc Ã©d
Ġg ue
ass urance
Ġdur ent
Ã©ro sion
ĠprocÃ©d er
Ġinstall er
Ġcoloni al
Ġassembl Ã©es
g ger
p re
si Ã¨res
ĠT arn
Ġac cess
Ġdire ctions
Ġrel ate
Ġpolitique ment
ĠCar aÃ¯
ĠAm sterdam
Ġperd us
Ġdeme urent
Ġautoris Ã©s
Ġproduc tivitÃ©
ĠRivi Ã¨re
Ġgig antes
M il
ĠS om
ĠM ous
ĠL umiÃ¨res
Ġbar riÃ¨re
ĠÃ©lector aux
Ġenseigne ments
Ġgenti lÃ©
ra ce
ĠM is
ĠF ore
onn ance
pe ction
Ġop tion
ĠEn f
asc ension
ĠNouv el
ĠprÃª ts
ĠdÃ©te ction
ĠintÃ©ress ant
Ġcon cession
aÃ¯ a
Ġautomatique ment
Ġparf aite
ĠdÃ© formation
ĠÃī ric
Ġjou Ã©e
Ġrapp ortÃ©
exp ortation
rag ons
Ġcondam ne
Ġconser vent
Cin q
Mich el
Iv oire
d ale
Ġd Ã®
ĠL ig
Ã©n ienne
Ã©ra bles
nes s
Ġtu y
Ġsouhait ent
Ġcav itÃ©s
Comm unes
ĠS tat
Ġj onction
ĠR ATP
ĠdÃ©c Ã¨de
ouver tement
Ġcompos er
Ġgra vement
Ġprolong Ã©e
ylv anie
b ation
ĠF rÃ©
ĠT out
Ġgrou p
ĠTh iers
Ġexist antes
Ġ185 4
Ġconsomm ateurs
Ġrach at
Ġalphab Ã©tique
Ġextr Ãªmes
A mb
Ġ ouvertement
Ġd us
Ġp are
el berg
ĠS ocrate
ad jectif
Ġcons onnes
Ġab ords
Ġrecons tr
ĠconÃ§ us
ĠPort o
ĠSatur ne
Ġhorm is
l ux
ul us
av y
Ġconf is
ĠGu er
Ġcan ne
ĠIn diens
odi ques
Ġconduis ant
Ġorthod oxes
S p
g as
Ġmar keting
assi que
ĠPe d
ĠFre e
Ġautonom es
ĠdÃ©bar rass
O range
il ise
ĠN ant
ĠO ct
Ġcontribu tions
Ġgraph ie
ĠgÃ©noci de
w ork
Ġn aÃ®tre
Ġv ole
ol isme
se ction
Ġcontin ents
ĠnÃ©cess itant
Ġpor teur
Ġnav ette
Ġcuis son
D er
O li
a chev
v ar
ĠrÃ© uni
ĠH aye
ĠV erc
ĠrÃ©g ler
ing ham
Ar istote
Ġress ource
Ġ183 8
in fini
Ġg land
li Ã¨res
ĠR ib
ĠG ram
Ġdi oxyde
Ã´ tre
raph ie
Ġcert es
Ġinc ur
ĠintÃ©g rÃ©s
appar ten
ĠamÃ©n agÃ©
Ġign ore
M E
Ġs te
Ġm Ã»
Ġf oie
Ġb ib
Ġg ang
ĠS or
ĠG ira
ap ar
Ġappar ue
ĠLuc as
z an
ĠdÃ© rivÃ©e
ĠB ord
ĠL ife
ĠD ec
Ġcar ic
ĠCor ps
Ġrenf orts
Auc une
ĠGold en
C ap
r Ã¨tes
Ġp ag
Ġde ttes
ĠJ ou
ĠI m
velopp e
Ġag glom
Ġsup ers
Ġmyth ique
Environ nement
C as
Ġmo bilitÃ©
sid es
ĠprÃ©c Ã¨de
Ġ7 8
ĠmÃ©di oc
Ġobserv Ã©e
indi que
Ġcer tific
ĠLaz are
vi c
Ã©t rique
ĠK am
ass istance
Ġdiff Ã¨re
Ġconst ant
Ġco que
Ġstatut s
Ġregroup ent
Ġchauff age
l ain
Ġ ellip
Ġla g
ans on
ĠprÃ© mat
Ġprop ulsion
Ġcal cium
ĠÃ©ch antill
Ġplac ent
Ġparis iens
Ġnavig ateur
Ġchron iques
Ġaffront er
Ġjumel Ã©e
ĠMassi f
b eau
ĠC aire
ĠC ah
ĠL itu
Ġj adis
ĠA k
ĠJ er
ĠN em
Ã©t ape
Ġpo dium
ĠspÃ©ci alitÃ©
Ġsupp oser
Ġpal marÃ¨s
ĠamÃ©n agements
ĠnÃ©glige able
s ch
un animitÃ©
ab olition
Ġpr estation
Ġav ois
Ã´ ture
ex tra
Ġpart agÃ©e
ĠdÃ©fini tions
S tru
Ġat ter
Ã©ral dique
Ġspect ateur
Ġsouter rain
Ġconnex ion
ĠConst ance
pir ant
Ġf e
our ent
Ġal lÃ©
Ġcontribu er
ĠcomplÃ©ment aires
Ġnatur aliste
S oit
Ġ 00
ie v
Ġan ime
Ġcomp ression
av ocat
ĠSp ir
ĠBl ue
Ġorg ane
on ais
si ris
ĠS pr
Ġcomm ut
imp Ã©ratrice
ĠPi et
Ġobserv Ã©es
Ġinv ite
Ġenvironnement ale
Ġfabri quÃ©
Ġmante au
Ġc ue
or teur
si a
ĠCh an
Ġass y
Ġmari ages
Ġsex ualitÃ©
ĠÃ©limin er
Ġradi os
ĠCamb ridge
Ġminor itÃ©s
Ġadh Ã¨re
ĠRa oul
Ġj o
Ġcons onne
Ġrou tiÃ¨re
Ġress or
Ġbomb ard
Ġral lie
Ġconcl ure
F amille
ĠG or
vi Ã¨ve
Ġrep Ã¨re
Ġconf Ã©d
Ġn oix
de p
ĠR Ã©m
ĠF un
ĠT ot
ons es
Ġprot Ã¨ge
Ġnorm and
Ġvo Ã»
ĠrÃ©t ro
Ġox yd
ĠCanadi ens
F ils
d ha
m atie
Ġf ret
Ġpar lÃ©e
ĠS ue
Ġpro v
ĠA y
Ã©m as
Ġfil iÃ¨re
ĠdÃ©f i
Ã©l arg
l ieu
Ġd al
er be
al uminium
ĠF a
ĠH ouse
ĠMar ch
Ġass ocie
cc itanie
Ġappar tement
Ġrest Ã©s
Ġ9 2
ĠnÃ©g lig
Ġfondament ales
Ġradic ale
ĠrÃ©gi ments
ĠAls ace
Ġch ol
enti els
iti en
att end
Ġchant er
Ġtran che
B S
N ombre
Ġb ibli
ig es
ĠdÃ©c ro
Ġbat tue
Ġfusion ne
Ġenseign ants
Ã¨ des
ĠF ir
ĠG reg
Ġson ores
ĠN Ã®mes
Ġser veurs
Ġcond ens
Ġrefus ant
Ġcultiv Ã©
ĠVars ovie
w s
es cad
Ġs o
Ġapp aritions
ĠgÃ©n Ã©tiques
An ton
Ġpres qu
ĠSe p
Ġâ Ķ
ĠChris tine
Ġgend armerie
ĠNatur a
ĠStÃ©ph ane
Ġb ro
am Ã©n
ĠVal ois
ĠrÃ©sid ents
ĠPal Ã©
Ġrat tra
env oyer
Ġcompati ble
ĠBoh Ãªme
ĠCES T
Ġ ions
Ġpl ainte
ĠL ock
Ġblock quote
ĠM I
ĠprÃ© pond
int rigue
Ġsub issent
Ġsupp orter
Ġincl use
Ġexempl aire
ĠDeux iÃ¨me
organ ise
Ġphara on
inaug uration
ĠR amb
ĠD Ã©c
ine uses
Ġadap tations
ĠprotÃ©g Ã©es
ĠPortug ais
ĠfunÃ©ra ires
Ġcontrepar tie
Ġpr Ã´
oli Ã¨re
Ġvis ites
Ġbal nÃ©
Ġremont ant
ĠfÃ©c ond
in qui
ra teurs
Ã©t al
Ġ182 1
Ġpous ser
Ġf asse
Ġch en
ĠV erts
Ġcl Ã´ture
Ġces ser
Ġtrans e
ĠdiffÃ©r enci
Ġ7 1
Ġ7 3
Ġ9 6
Ġaccus ations
Ġang lic
Ġmagaz ines
abs orption
P rÃ¨s
d or
m s
on ance
Ġc ade
ti de
Ġre lÃ¨vent
ĠM am
ouv ant
ĠG Ãªnes
ic us
ĠH ay
ĠI mp
Ġdonn ait
acc ue
Ġpol yg
Ġrecher cher
Ġentrepr is
Ġfav ori
Ġexplo itÃ©
Ã©tudi er
ĠHamb ourg
Ġt rÃ©
ist a
Ġsign ale
Ġstru ctur
oud ite
Ġdocument ation
Ġdrape aux
Ġrenforc Ã©e
ĠpÃ©riph Ã©rique
Ġts ar
Ġdu el
Ġr ond
ĠV and
Ġcoup able
ĠMal te
ĠConf Ã©rence
Ġterti aire
Ġd ys
Ġs tres
Ġg Ã¨ne
rey fus
Ġtempor airement
ĠantÃ©rieur es
Ġhydrograph ique
l os
ent end
Ġcon quis
ĠL iver
Ġph ras
Ġcapit aux
Ġconserv Ã©es
Ġopp ort
Ġminim ale
ĠLis bonne
ĠArg entine
Ġproch aine
Ġabsolu ment
l itude
on Ã§ant
ĠÃ© phÃ©m
ĠS id
ec d
od rome
Ġsac re
mar ck
Ġenvoy er
ĠrÃ©comp enses
Ġpomp iers
U s
İ les
Ġt ang
ve il
ĠG NU
Ġsa chant
ĠH ain
Ġti ge
Ġeff ort
pect s
Ġpens ait
Ġalg orith
Ġmanuf act
aristocra tie
ĠM S
les se
Ġex ercice
ĠdÃ©c rois
id ae
Ġsou tiennent
Ġcul tes
Ġpres by
Ġgui d
Ġimpli quant
ĠS em
Ġcont ourn
alis ent
min er
Ġconf Ã¨re
ĠRÃ©p ublic
Ġvainque urs
Ġuk rain
Ġrigue ur
Ġc aisse
Ġla ine
ol Ã©e
ĠP ower
ĠG oku
ĠH ervÃ©
Ãī tant
ax i
Ġhistor ien
Ġreven dique
Ġorient Ã©
Ġsouhait ait
O L
an ou
Ġb inaire
ĠM ain
Ġcomp atri
Ġapp lic
tin ation
Ġz inc
Ġ7 4
Ġ9 00
Ġred out
Ġdirect s
E au
t Ã¨re
Ġs odium
ou ches
or ps
Ġch aude
ĠrÃ©alis me
he b
Ġcher chant
ĠvÃ©gÃ©t ales
Ġvert us
Ġdiminu Ã©
ĠpÃ©riph Ã©riques
Ġajout Ã©e
Ġsatisf aire
L ong
en sions
ol lo
ĠC ologne
Ġr us
ĠF M
ĠT itan
Ġar om
ĠI d
ann y
Ġpass Ã©es
Ġpeup lement
Ġorient ation
ĠÃ©quipe ment
Ġattribu er
Ġfi Ã¨vre
Ġemprun tÃ©
Ġmerc enaires
Ġais Ã©ment
Ġc anc
ul tes
ass o
Ġoff ic
esse ur
Ġmas que
ĠDre am
au tion
erm at
Ġrest aurer
Ġk h
gu Ã©
ĠhÃ´ pitaux
Ġcaus Ã©
en b
Ġc uri
ĠB eck
Ġju me
Ġlongue urs
ĠdÃ©rou lement
Ġillus trÃ©
ag h
ĠP tolÃ©mÃ©e
ul Ã©es
ĠG Ã¶
im me
ĠdÃ©b utÃ©
Ġplan if
Ġsucc Ã©der
Ġdisp ens
ĠrÃ©sist ant
Ġemb lÃ©matique
Ġsuffis ant
Ġsenti r
c ock
ct rice
Ġno v
Ġconcep tions
ĠsÃ©le ctions
Ġaction naires
ur ies
ĠC opp
ĠT ime
ing en
titu te
Ġpos Ã©e
Ġass is
Ġent rÃ©
ĠDi jon
Ġfamili ales
ĠfunÃ©ra illes
Ġcoeffici ent
Ġp esti
ver n
ĠCl ar
Ġlut tes
Ġdirig Ã©s
Ġant enne
Ġsynth Ã©ti
ĠNeu f
audi ence
ĠVend Ã©e
Ġfact o
Ġrand onnÃ©e
Tour isme
z abeth
Ġv os
ig ion
ĠK ent
ĠcÃ´ t
ĠJoh annes
Ġexist er
ĠimmÃ©di at
Î ¹
Ġc yt
ol uti
Ãª ve
ĠJ immy
Ġcap tivitÃ©
Ġbord Ã©e
ĠFor ces
Ġspati ales
ĠAlexand er
Ġenregist rÃ©s
ĠChÃ¢ tillon
Ġl ot
Ġp ig
Ġt ar
ĠS ad
ĠL it
Ġh Ã©ritÃ©
aj oute
Ġabs or
Ġpoursui vent
ĠAt lan
ĠBra b
ĠCamb odge
ĠHub ert
Ġs aga
ra lement
ro ix
ĠK at
Ġad hÃ©r
ĠâĢ ł
Ġparticip a
Ġblan ch
Ġorigin ales
ĠÃ¢ gÃ©s
ĠrÃ©serv oir
ĠLÃ©on ard
Ġhui le
DÃ©b uts
s ay
ĠB un
Ġser pent
opp osent
Ġsp ons
ĠdÃ©velopp eurs
ĠY e
Ġprovo quent
ĠÃ©volu ent
Ġneut rons
ĠpÃ¨ler ins
E sc
I A
Ġh ard
ĠJ ul
th er
In ternet
Ġeffec tive
ĠinfÃ©rieur es
ĠcommÃ©m or
Ġbu teur
Ġvern ac
Ġnauf rage
T andis
an tisme
Ġconf id
ĠAr istote
ĠMont s
termin ation
Ġintellectu el
ĠnÃ©er landaise
Ġravit aillement
ĠSerb ie
I d
ĠB ourd
ĠR ie
ĠN ature
Ġaffir ment
ĠAra bes
T T
Ġf olie
ra tif
Ġpi rates
Ġindi ce
Ġhabit ats
ĠBal kans
ĠrÃ©fÃ©r entiel
ĠÃ©tabli es
exÃ©cu tif
r ure
ti co
ĠC au
ĠS M
ni k
olog istes
Ġritu el
ĠgrÃ©gor ien
Ġd resse
ĠrÃ© acteur
ĠG a
ĠT ah
Ġconf luent
Ġmondi aux
ĠLouis iane
Ġsens ation
Ġoccup er
Ġdiscip le
ĠDire ct
ĠL anc
imp rim
Ġro cher
Ġju ger
ili ens
att an
Ġrespons abilitÃ©s
Am Ã©ric
Ġimag inaire
ĠprÃ©cur seur
ou illes
Ġm Ã©rite
ol in
Ġmar ines
ĠAn na
ĠmÃ©t rique
ĠrÃ©v Ã¨lent
Ġbar ons
Ġamb itions
ĠFr Ã¨res
Ã ¸
is ent
Ġre lanc
enne c
ĠrÃ©p onses
Ġord onnÃ©
Ġfac es
Ġregroup er
Ġimplant Ã©
Ġbrill ant
ĠtÃ©les cope
Ġsur pl
ab a
ĠI rak
Ġanim ales
orth ographe
ĠmolÃ©c ulaire
Ġrassemb ler
Ġrecommand ations
ĠintÃ©rie urs
Ġl enti
et ts
Ġm ondes
ĠA ud
ter r
Ġsubs titution
Ġcontest Ã©e
B ibliographie
È Ļ
Ġs age
ĠB ec
ĠG ord
Ġappar ente
Ġcr Ã¢ne
Ġoccup ation
ĠGo ogle
ĠdÃ©mÃ©n age
ĠTrib un
iv ores
Ġentre p
ĠMar ais
chÃ© ance
ĠprÃ©c ises
Ġ8 4
Ġgra du
aiss Ã©
ĠthÃ©or iques
Ġmonast Ã¨res
Ġbyz antine
lys se
Enf ance
ĠPhiladelph ie
E F
ag ascar
ĠÃ©tÃ© s
Ãī g
ĠAr mand
ĠprÃ©f Ã¨rent
Ġ184 3
Ġsurvi vre
Mus ique
ĠGene viÃ¨ve
in on
Ã©r ants
Ġdis ait
Ġtermin ant
ĠdÃ©cid er
Ã¤ n
Ġclo ches
Ġp ant
Ġp and
ĠM ais
end a
Ġmod Ã©rÃ©
ĠChar te
aÃ¯ d
anci ers
Ġ179 8
Ġ183 5
Situ Ã©
identif ier
ĠPers es
Ġsubsist ent
i ches
Ġf oot
ĠCh erbourg
Ġcl avi
Ġmob ilisation
ĠFl am
Ġpropor tionnelle
Ġannex e
Ġportug aise
ĠV ire
ĠdÃ©c orÃ©
Ġconf Ã©dÃ©ration
Ġsol enn
Ġag riculture
Ġsupp orts
ĠDe v
ĠFin ances
b ec
u tÃ©es
Ġg es
ĠR and
Ġinter ventions
Ġ7 6
Ġvol can
Ġlog istique
Ġalli Ã©es
ĠRÃ© union
Ġbrill ante
Ġcapt urÃ©
me ur
ĠB ras
ac um
Ġser be
Ġpos tÃ©ritÃ©
ĠTh aÃ¯
Ġtrouv Ã©e
P al
Ġin tes
pp en
ĠJ ardin
Ġacc use
Ġju gÃ©s
Ġfam ine
Ġbat teries
ĠrÃ©vÃ©l ation
ĠWar ner
ĠecclÃ©si astiques
uti ques
att ente
ĠNav y
ĠFig aro
r Ã´
ar abe
Ġn uis
ĠH os
ĠdÃ©c rivant
Ġsou l
agn ac
ĠdÃ©cl ine
Ġinstall ation
Ġpron oncer
Ġfonctionn elle
Ġexprim er
iss ance
ĠZ i
Ġtomb ent
ĠÃ©vo quent
Ġul tÃ©rieurement
Ġpati n
Ġassist er
Ġarg ile
Ġsymbol ise
Ġ up
ol on
Ġcon grÃ©
Ġmar tyr
Ġaff ili
uel a
ĠpÃ©n al
Ġdesc endre
omin al
Ġcultiv Ã©e
Ġisol Ã©e
Ġrecouv ert
ĠPÃ©t ain
Ġnoctur ne
ĠFerr ari
ĠC och
ĠP lant
and in
ĠV ert
Ġver bes
Ġidentif ier
Ġvectori el
Ġsages se
in itÃ©
li ens
Ġch asser
Ġj oie
Ġtra me
ĠW agner
Ãī tu
ign er
ĠU rb
ĠNi etzsche
ĠhÃ©ri tiers
Ġsatisf ais
Ġbarb ares
ĠPÃ¢ ques
au be
ĠT on
ill ette
amp es
ros se
Ġdeven ues
Ã©li b
ĠSt one
inst auration
hum our
f eld
Ġm Ã¨nent
Ġf Åĵ
ĠS ax
ap erÃ§
Ġliv ra
Ġcapit ales
ony mie
Ġtri o
ĠLib ye
Ġnoy aux
Ġbre v
Ġchante urs
Ġliqu ides
Ġla v
ouv ille
ĠÃ©g alitÃ©
ici enne
ĠPar th
Ġres sembl
Ġeff ond
Ġhab itÃ©
Ġno ces
Ġcoup er
ĠPat ri
Ġenregist rÃ©e
Ġrejet er
ĠexpÃ©riment ale
Ġquoi que
parti tion
Ġdesque ls
Ġcollis ion
C onte
F C
h istorique
un ification
ĠC L
og rammes
ĠÃ©p idÃ©mie
Ġliv rer
ĠTch Ã©cos
Ġpotenti ellement
ĠrÃ© ci
tu eux
ĠR ossi
Ġdi alogues
ex erc
ĠW u
Ġexprim Ã©
ĠAnti lles
G N
ag isse
Ġch aux
Ġex trÃ©mitÃ©
Ġvis uelle
Ġag ir
ow e
Ġcherche ur
Ġoppos Ã©e
ĠdÃ©faut s
Ġtub es
Ġgaran tie
ĠÃ©lectromagn Ã©tique
E D
qu itÃ©
Ġr ite
id ou
Ġsp ira
Ġrou m
aÃ¯ ques
Ġbal les
Ġregroupe ment
Ġretrouv Ã©e
ett o
ĠBos nie
Ġtox ique
Ġritu els
ĠForm ule
el er
ĠP it
ĠG ol
ĠG amb
ĠG ood
op ol
ite cture
Ġloc omo
ĠgÃ© ologie
Ġfonctionn alitÃ©s
Ġtardi vement
Ind ochine
Ġrach Ã¨te
h ymne
Ġpl ay
ig i
ette urs
Ġtra ction
ĠE c
Ġacc rue
ĠY ang
ach us
Ġexpos Ã©es
Ġfrapp Ã©
Ġb eur
ĠA ux
ois y
ĠN euve
Ġst ar
Ġrel ativitÃ©
inter action
Ġchois is
Ġlanc ent
Ġcompar Ã©
ĠRap ha
h erb
Ġ ours
Ã© te
est uaire
ol n
ĠS oud
ĠA ix
ĠT rÃ©sor
Ã©r in
ati ale
anc ourt
Ġinaug ure
ĠdÃ©te cter
il at
Ġt rim
Ġch ances
ĠA ward
ĠT aÃ¯wan
vis ions
Ġfer mentation
Ġaccompagn Ã©s
Ġrejet Ã©
Ami ens
ĠM eur
ĠcrÃ© ations
ĠprÃ©v ues
att le
Ġnorm ande
Ġvois inage
exc ell
ĠDie go
Ġmultipli ent
Ġrefroid issement
Seu le
ĠtÃ©lÃ©s pect
v ert
y mb
ĠT o
Ġutilis ateur
tr ont
Ġ8 3
Ġcontra dict
Ġ184 7
ĠPhilipp ines
tÃ©b rÃ©s
horiz on
j ette
Ġp Ãª
as ka
ĠH ur
lu vi
Ġpersonn ellement
ern er
Ġatta quÃ©
idÃ© ologie
ĠBe y
Ġrais onnement
ĠHow ard
Ã© ennes
li min
Ġch utes
ic ale
are l
Ġappel lations
aur us
Ġrefus er
Ġimpli quÃ©
ĠGir onde
H e
ĠÃ©t ym
Ġremp lir
ali Ã¨res
yc le
Ġ184 4
Ã©re mment
Ġja unes
ĠextrÃ©m itÃ©s
ĠRoub aix
Ġp uni
ĠrÃ© aliste
ĠA lan
Ġra f
av ar
ĠK ur
Ġenti Ã¨res
ĠprotÃ© ine
Ġrecue illi
ĠP R
ron e
ĠW el
ĠÃī cole
Ġprop ul
arg ile
ĠMiss issi
Ess onne
ĠâĨ Ĵ
m ons
Ġt rÃ©s
ĠÃ© ru
ĠM ira
ĠR af
ĠF ri
ct us
Al b
ĠÃ©ch elles
Ġcrist aux
Ġrense ignements
c ott
Ġs tip
er vi
ĠS pi
ĠG rim
ĠdÃ©c rivent
Ġsc al
Ġca chÃ©
Ġconcern Ã©
ĠsÃ©lection nÃ©
Ġautoris Ã©e
Ġfasc iste
k ers
m od
Ġv amp
ĠC lem
Ġca cher
Ġdisp utÃ©
Ġconserv ant
vid ence
Ġc amb
ĠM ann
Ã§ u
ord onnance
Ã©g ide
Ġor ange
Ġcol omb
Ġmil itant
enn y
ĠChar tres
Ġorient Ã©e
Ġ183 7
Ġeth niques
Ġs log
ĠN ous
Ġconc lusions
ell y
ĠsymÃ©t rie
ĠSyd ney
I P
te ction
Ġt om
al in
ĠdÃ©p ortÃ©s
od g
Ġess ence
Ġconsul tation
Ġremont Ã©e
Ġchape au
et on
si le
ĠB il
Ġfon dement
yp re
yp se
Ġmod alitÃ©s
ĠU r
jec tive
Ġconqu Ãªtes
ĠÃ©loign Ã©
Form ation
Ã© tie
Ġat lantique
Ġk an
Ġfer rÃ©e
Ġroy autÃ©
alle y
Ġadap tÃ©es
Ġidentif iÃ©s
ĠBay onne
env oi
Ġom ni
ĠrÃ©cep teurs
om i
ĠM aÃ®tre
Ġin hib
Ġdis cu
app rÃ©
Ġcour antes
Ġsupp osÃ©
Ġreconn aissent
Ġadministra tions
ĠNÃ© olithique
Ob serv
Ġstres s
A ction
h attan
ĠrÃ©g ence
Ġprom esse
Ġcit Ã©e
ĠMad agascar
ĠPol yn
Ġcui rass
Ġtran ches
Ġfame use
D on
ĠT Ã©m
Ġcomp agne
Ġanim Ã©e
ĠÃ¢ me
Ã¼ l
Ġmod estes
Ġinf lam
Ġop inions
Ġcommerci alisation
Ġattribu Ã©es
ĠÎ ²
ĠCam eroun
Ġlum ineuse
Ã©ph al
ĠBes anÃ§on
ĠMÃ©m oires
D Ã©p
Ġcar rÃ©e
ob ie
ĠK on
ĠK im
ĠrÃ©f Ã¨re
Ġdou zaine
ach a
arc tique
Ġru ine
Ġatti rÃ©
Ġprussi enne
Ġmusc les
ĠColumb ia
k el
Ï ģ
Ġp oule
ĠH av
ad ers
Ġapp ui
ĠsÃ© ances
Ġag ran
Ġindi ens
Ġ185 3
ĠscÃ©n arios
ĠPas teur
Ġsan itaire
Ã©nier ie
á º
ĠB BC
Ã©p Ã©e
Ġlit h
Ġpat rie
ĠQu at
ĠBret on
Ġjaponais es
ĠmÃ©dic aux
Ġparad ox
ĠabrÃ© gÃ©
Ð °
an z
Ġa dep
ag rÃ©
ĠI er
id o
Ġform elle
Ġref lÃ¨te
Ġdistribu Ã©
Ġchasse ur
ĠbÃ©nÃ©fici Ã©
ĠÅĵ il
Ġmens uel
hÃ©ri tier
ĠdÃ©com position
Ġimp ression
Ã©v ÃªchÃ©
ĠconsidÃ©ra bles
Ġaccus Ã©s
AR N
ĠcomplÃ© tÃ©
Ġgalax ies
ĠSpar te
er f
ag nement
ĠB h
ĠL yc
Ã©t ymologie
off ice
ĠdÃ©clen chement
ĠLiver pool
F rance
ou ge
ra h
emp run
tionn er
ĠrÃ©p Ã©ti
inter face
Ġcollec tifs
Ġami tiÃ©
Ġsatis fait
Ġtur que
Ġreconstr uire
d ad
i cher
es e
ĠL itt
Ġsu g
ĠAn ge
Ġper cep
ĠlÃ©g ions
gu ay
Ġess aie
inc ar
Ġmor ales
ĠChe lem
Ġnor dique
Ġdig es
ai gu
Ġviv es
Ġbass iste
Ġinstant an
Ġsauveg arde
H istor
ro ge
Ġcon sent
Ã©t ang
Ġar range
ĠÃī gyp
Ġrec teur
Ġma quis
Ġiniti ales
ĠBe aux
ĠdÃ©clar ations
ĠMaj or
ĠMuss olini
au er
ĠL us
end es
ex clusion
Ġreconn ues
Ġdispar aissent
Ġoccup ant
ĠrÃ©un issant
Ġinspi rÃ©s
yrami de
Ġparad oxe
ĠLitu anie
ĠC A
ĠR ad
Ġapp ortent
ĠdÃ©b ris
ĠmÃ©th od
ĠrÃ©par ation
Ġmit raille
Ġdange reuses
Ġsurv Ã©cu
Ġbouc lier
ĠCassin i
au jourd
ĠM ak
Ġin vention
ĠG ond
ob us
cher che
Par fois
Ġver b
ĠprÃª ter
ĠVen ez
ĠMo ore
ĠIns titute
Ġpales tin
Ġterri ble
b el
j oux
au m
ĠC up
Ġren seignement
Ġrou le
Ġfl amb
Ġ182 5
Ġcos tume
ĠÃ©vent uelle
ĠMass achus
ĠDic tionnaire
ĠS N
ĠT ak
Ġor ph
emp ar
ast ers
adi g
ĠComm on
Ġ184 2
ĠHer z
ĠexÃ©c uter
ĠmÃ©dica ment
Ġd ol
ĠB og
ĠN OT
Ġmar ier
Ã©d it
Ġca ve
Ġmi el
a qu
as sembl
ĠS orb
ĠV id
ĠE mp
Ġappel er
Ġcou tumes
oh en
Ġremar quÃ©
ÅĴuv re
Conte xte
al di
as a
ĠP re
ĠP rim
Ġconc entrer
Ġsans k
ĠprÃ©sid entiel
Ġax i
Ġtor ture
Ġgre ff
Olymp ique
ĠMassachus etts
V ic
Ġpar oi
ĠS G
ĠP el
Ã¢ tel
ĠdÃ©m on
ĠIn g
ĠdÃ©crit s
Ġ181 2
bo ard
ĠB oris
Ġsa oudite
Ġcl os
aill Ã©
ĠrÃ©un issent
Ġdomin ent
Ġaliment ation
Ġexerc Ã©
ĠÃ©nerg ies
Ġmenac Ã©
Ġexpli quant
Ġminer ai
l ons
n ait
ĠC y
ag or
ĠG R
Ġann oncent
ori um
Ġ9 1
Ġhom onyme
ĠbÃ¢ t
Ġtyp iques
Ġtermin ent
Ġfix es
Ġconv oi
ĠVan nes
ĠCorn ou
ĠTroy es
Ġlumin ositÃ©
ĠdÃ© tÃ©ri
ert z
one y
ĠDe uts
Ġrassemb lement
ĠCin q
Initi alement
ro irs
Ġgratu ite
Ġabb aye
RÃ©s umÃ©
ĠÃ©vi dent
B ern
in ale
Ġb ab
Ġsemb ler
Ġpuiss antes
Ġ180 3
Ġenregistre r
Ġn apolÃ©on
ĠprÃ© cep
tin ctions
ĠÃ©c rans
ĠÃ©p ic
ĠprÃ©cÃ©d ant
Ġqualif ic
Est aing
Ġrenforc Ã©
Ġdesserv ant
Ġpous sent
ĠocÃ© ans
Ġcombus tible
Ġasi atiques
Ġmissionn aires
Ġrad ar
am er
Ġh Ã©rit
ph a
Ġann uellement
ĠcrÃ© dits
Ġloc alitÃ©s
Ġtrouv a
Ġconten us
ĠMag h
ĠdÃ©lÃ©gu Ã©e
Ġmons tre
Ġque relle
ig an
vi ers
Ġar ros
Ġins urg
arg is
Ġpor c
Ġperp endi
ĠcomplÃ©ment aire
Ġempris onnÃ©
ĠcongrÃ© g
Ġv int
ĠcÃ©lÃ©b rÃ©
ĠRest auration
Ġb oc
Ġcomp are
ath on
Ġaccep tÃ©e
ĠprÃ©par Ã©
ĠmÃ©dic ales
ĠMississi ppi
ĠÃ İles
ĠC rimÃ©e
agn y
ieuse ment
Ġappro ches
Ġprati quent
Ã©cl ar
I m
Ġin duit
Ġpro se
ĠR ue
Ġann oncÃ©e
Ġti ges
Ġrel ati
Ġorigin aux
Ġa ig
Ã¨ bes
ĠP N
og n
Ġpo ils
Ġbas Ã©es
oll et
ĠVal en
ĠLi u
Ġpil otage
Ġexplo ite
ĠlibÃ©ra lisme
ĠMay enne
Ġimplant Ã©e
ĠStu art
Ġplaf ond
w ich
Ġl or
ar ques
Ġv el
Ġre lever
Ġapp orts
Ġser vit
Ġ10 7
Ġviv aient
Ġstat u
ĠdÃ©n omb
ĠprivilÃ©g iÃ©
Ġquotidi ens
ĠcoÃ»te ux
ĠconsÃ©cuti ves
r ing
Ġp ension
ĠdÃ© duit
Ġb ob
Ġpro ies
ĠB assin
ĠT C
ĠsÃ© mi
Ġinf Ã©rieurs
Ġdou bles
ĠShang hai
b is
h ad
ti ment
ĠC oun
Ġre viennent
ĠA I
ĠdÃ©c Ã©d
Ġmar oc
aut s
Ġsou fre
Ġvis u
Ġdess ine
Ġentrepr en
Ġ181 0
Ġfro t
ĠCent ral
Ġfortif iÃ©e
ticul ture
sh ire
Ġjamb es
ĠCaraÃ¯ bes
O P
s is
Ġp iv
ĠL ub
Ã©t ale
ĠÃ©c art
Ġindi ff
Ġcoup Ã©
Ġtest er
Ġtran qu
E ug
u ation
an istes
Ġg Ãª
ĠS anti
Ġin tu
Ġsur vient
st rong
po des
Ã©v acuation
ĠAl ger
Ġmis Ã¨re
Ġflu ctu
Ġberce au
ig o
ĠD S
En g
Ġsc ission
ĠRe yn
ĠRoy an
ĠMan hattan
cal ade
RÃ© partition
ĠVol taire
ĠAll en
ĠTrin itÃ©
ĠNOT Re
F R
on ienne
Ġp oit
al o
Ġg olf
ĠS erv
ĠS eth
Ġdi ra
ui ra
Ġ184 1
Ġvit amine
Ġpap iers
ĠMin istÃ¨re
ĠMars hall
ĠbÃ©n Ã©dic
Ġclient Ã¨le
s wick
Ã¨ be
au le
Ġin achev
ran o
Ġcont amin
Ġro t
Ġarriv Ã©s
Ġgard Ã©
Ġfabric ants
autom obile
ĠAmer ica
ĠLet tres
ĠLiber tÃ©
se y
rÃ©s ailles
Ġaffir mÃ©
Ġobserv ateurs
o tiques
Ġf u
ĠL oz
ad Ã©
ĠO range
ĠMont g
Ġexc lu
empl ois
ĠstratÃ©g ies
Ġvain cre
ĠexÃ©cu tÃ©s
ĠÃ©pous a
ĠChamb Ã©ry
Ġpisc ine
Ris ques
Ġphras es
ro pe
Ġg ast
ĠL orient
ph ine
Ã©d onie
Ġent ourant
Ġviol entes
ĠVi etnam
ĠPol y
ĠrÃ©ac teurs
ĠRouss illon
ar ienne
ĠB rand
ĠL N
op tique
int h
ĠrÃ©alis ent
Ġag ences
orie use
inc oln
Ġrepos ant
Ġproch ain
S ix
Ä į
Ġan om
ĠH autes
cl ament
Ġinf ra
Ġgr Ã¨s
lÃ¨ve ments
Ġcitad elle
b io
ra tique
ĠF ro
Ġtra gique
Ãī tats
Ġrep rÃ©sailles
ĠPh Ã©n
Ġmari Ã©e
Ġinterd its
Ġchron ologique
ĠconsÃ©cuti ve
our nement
Ġimp lic
Qu oi
Ġva che
crit s
ĠpÃ©n it
ĠBeau mont
Ġcamar ades
p ard
ĠA gn
onn ie
ĠN an
Ġutilis ait
Ġk ar
amb assadeur
ĠPhili p
ĠsÃ©par ant
ĠlimitÃ© es
Ġconfront ation
hÃ©s ite
Ġmout ons
Ġcom Ã¨te
Ġin cident
ĠL ys
Ġdi ag
ap o
ĠrÃ©g ent
Ġinter p
az ar
ĠAr c
Ġprob lÃ©matique
oris Ã©
Ġquelque fois
ĠvidÃ© os
Ġposi tifs
Ġdiss ous
Ġparent Ã©
Arm Ã©nie
Ġchir urgie
Ãīquipe ments
g or
us cules
Ġb oire
tic isme
ĠbÃ¢ tie
Ġexist ants
ĠdÃ©clare r
Ġsusp end
Ġsusp endu
ĠmÃ©tÃ©or ologiques
Ġenj eux
A ch
v ise
Ġre lÃ©gu
ut a
Ã´ nes
ĠÃ©c ologiques
Ġrec r
Ġsol itaire
Ġvict or
Ġjui ves
ĠSatur n
hol m
Ġb aign
ag Ã¨re
oc l
ta h
Ġcour bes
Ġcour onnÃ©
Ġret omb
ĠCal Ã©donie
Ġkilom Ã¨tre
ĠfaÃ§ ons
Ġabb Ã©
Ġconqu Ã©rir
È Ľ
an Ã§ant
Ġla me
ĠC ri
ul at
ĠL un
Ġj eter
ot er
ĠT w
Ġpas tor
oc ytes
ĠE sc
hi o
ĠRh odes
ick el
ĠrÃ©cup Ã¨re
Ġaffron te
Ġa id
Ġpar ag
ĠrÃ© duits
Ġman Åĵuvres
Ġten ait
Ġeng agements
ĠBeau v
Ġconver gence
Ġatti rer
Con f
ĠcÃ©lÃ©b ration
ĠÃ©lector ales
aband onner
Ġp ire
an ime
us er
Ġpl astiques
Ġch ou
Ġar d
od or
ĠdÃ©f endu
Ġcens Ã©
ĠintÃ©ress Ã©
ĠrÃ©flex ions
ĠLec lerc
Sui vant
Ġrepous ser
m us
Ġp Ã©nÃ©
ar Ã©
Ġb ains
Ġh op
ĠÃ©t angs
Ġcontre r
Ġinc or
Ġvolc anique
Ġracc our
ĠTemp s
ĠVoy age
ĠtÃ©lÃ©spect ateurs
S ouvent
ol ais
ai me
ĠS ang
end s
end ances
Ġper ce
Ġport a
Ġpass ait
Ġsus citÃ©
Ġ183 9
Ġprati quant
Ġconfront Ã©
Ġasc ension
ĠRon ald
ĠHein rich
H om
ra Ã¯
ro Ã«n
ch ot
Ġb ain
ĠC es
Ġdans es
ĠL umiÃ¨re
ist ant
Ã´ tres
ĠE u
Ġmont Ã©
Ġ9 3
Ġ180 4
Ġaffec te
Ġpatri arche
ĠCheval ier
Ġbib lique
Ġtranse pt
Ġp it
ar ticul
ĠÃ©t range
ĠH end
Ġth r
Ġmort es
Ġreg ret
Ġphot ographe
Ġprimi tif
Ġproclam ation
Ġpesti cides
M Ã©di
Ġp ompe
Ġc ac
Ġf ile
Ġun d
Ġar chevÃªque
Ġfin es
Ġam ende
Ġacc ru
Ġiniti ative
Ġ183 4
Ġamb assade
ĠFre der
Ġcomment aire
Ġstric te
Ġraid s
ĠGeoff roy
ylÃ© d
Ġs id
ĠM Ã©z
Ġpro di
im ages
Ã¢ tres
Ġform ats
oph on
Ġplan che
Ar n
Ġ9 4
Ġclass er
ĠprÃ©v us
Ġcontinu Ã©
Ġimpos ant
Ġabond ante
ygi Ã¨ne
Histor iquement
y re
Ã °
Ġ ä
ar ti
el et
ĠCh ant
ĠÃ©v acu
Ġfais ceau
Ġiniti Ã©
Ġcos tumes
Ġjustif ie
Ġdange reuse
Ã©par tement
ĠLud wig
t able
Ġc reux
Ġf ug
Ġt aure
ĠÃ© min
ĠP le
ĠprÃ© ven
ĠprÃ© val
out ch
hme d
ĠTribun al
Ġf oires
Ġdes criptions
ĠT ai
olog y
In st
uni or
aff ron
ĠmÃ©tÃ©or ologique
ĠdÃ©cern Ã©
U l
ar ticles
ag rand
ĠB illy
ĠT it
ine ment
isc ard
Ġprivil Ã¨ge
Ġafric aines
Ġrecomm ande
Ġneut ra
Ġgratu it
Ġrecommand Ã©
ĠhÃ© licopt
ĠMaxim ilien
PrÃ©sent ation
ĠM ig
ĠB ron
ĠT ab
ĠH ob
che vi
app li
Ġag ro
Ġouv rant
inter valle
Ġmic rop
Ġgagn ant
ĠdÃ©t ente
Ġfavoris Ã©
opÃ©ra teur
incl ine
v ine
w are
ĠT ER
st on
ir on
ru guay
ĠU nies
Ġtransf Ã©rÃ©e
Ġprosp Ã¨re
Ġsond age
Ġinhab itu
M ari
Ġf oire
ĠF all
ad vers
Ġlib Ã©rÃ©e
ĠnÃ©g ociation
Ġtyp ologie
Ġenvoy Ã©e
ĠCÃ´ tes
ĠsÃ©di ments
ĠL en
ĠrÃ©alis ant
Ġheure ux
Ġfusionn Ã©
Ġgise ments
i tif
Ġla mp
Ġt onne
Ġt amb
el ais
am ar
vi a
Ġtra itant
Ġrec ette
ĠMont agne
Ġsor tis
ĠHar rison
ĠdÃ©tru ites
nov ation
Ġexhaus tive
C al
O scar
ĠG our
ill ers
Ġimp Ã©ra
Ġab orde
Ġcollec tivitÃ©
ĠBour b
ĠBrun swick
Inter communalitÃ©
Ġengl ob
Ġrestru ct
Ġd ames
Ġd ragon
ti ces
is cip
Ġh isp
ĠR y
ĠT osc
Ã©ra ux
Ġreli Ã©s
Ġregroup Ã©es
Ġexprim Ã©e
ĠÃ©pous Ã©
k l
Ġt ailles
ĠG ien
Ã©n ique
ĠCh ypre
ĠI an
ĠMar in
Al fred
Ġcontempor aines
ĠBro ok
ĠnÅĵud s
ĠhÃ© breu
ĠPeu geot
ĠpÃ©nÃ© trer
ou chement
et ter
ri rent
li us
ĠP ape
Ġdiff Ã¨rent
Ġme ubles
Ġpi onniers
Ġdess inÃ©
Ġespagn oles
Ġamb assadeur
Ġparf um
Ġacqu Ã©rir
Ġpar aissent
ĠA BC
Ġsa vant
Ġpublic itaires
Premi er
char ge
Hi pp
h em
ĠM Ã©t
ĠP lus
ĠA B
Ġes calier
Ġor gue
Ġjus tement
Ã©di ction
Ġconst ater
ĠÃ©v ite
Ġcontra diction
inf rastructure
ĠprÃ©v oy
Ġoise au
Ġmassac res
ĠpÃ© chÃ©
RÃ©s ul
Ġprotect orat
Ġastronom ique
Ġscrip t
akes pe
Propri Ã©tÃ©s
l en
Ġg ib
tÃ© si
ot tes
ĠrÃ©un ies
Aut our
Ġcit ation
ĠSp ort
Ġnour ris
Ġgaul oise
affir me
Ġparas ites
Ã© tis
ĠC oup
onn iÃ¨res
Ġgran di
Ġmod Ã©rÃ©e
ĠCl air
Ġexplo sion
Ġpaci f
Ġcrat Ã¨re
ĠBeat les
Ġbeur re
Ġm iti
ĠL ens
ĠVinc ennes
Ġchoc olat
Art ois
ĠÃ©me utes
Ġa que
ĠC Ã©
ĠrÃ© agit
ĠP ur
ĠP rom
ĠR ain
ter a
co d
onc ourt
An alyse
Ġoc cul
Ġorganis ent
Ġviole mment
om ac
Ġpour ront
ĠR ail
ĠdÃ©p assent
ĠdÃ©velopp a
Ġangl ophones
Ġviv ait
ĠvÃ©gÃ©t ale
Ġmac Ã©don
ĠDub lin
ĠÃīgyp tiens
Ġt unis
Ġsu zer
ath Ã¨que
Ġmin Ã©ral
Ġfer ait
ĠMor l
yr us
Ġregroup ait
ĠarchÃ© ologues
affir mer
M arie
ĠC auc
ĠA S
Ġar cs
Ġappel lent
Ġbi om
Ġsub ventions
Ġfai m
Ġpsych analyse
Ġ180 2
Ġnour rit
ĠMah omet
affir mation
Az ur
Ġvicom te
ĠnÃ©c ropole
re aux
Ġf iss
ie fs
Ġb it
ous er
ĠJ ar
Ġra ge
ĠI van
Ġmat ches
Ġgouvernement ale
Ġsais ir
Ġplant ations
ĠhÃ©b erge
vad or
Ġorch est
ĠJord an
le p
au tel
as is
Ġh ex
tin a
Ġcons oles
ĠdÃ©velopp ant
Ġgra in
Ġcro Ã»te
Is lande
ti st
qu aient
est h
Ġdu rer
ĠM Ã¢
ĠA cc
pe dia
Ġter rasse
oli a
ĠY uan
Ġcontinu a
ĠGran des
Ġfabric ant
ĠLion el
l ots
Ġac quit
Ġro chers
iss aient
Ã» ts
Ġfond Ã©es
ĠnÃ©cess itent
ĠdÃ©couv rent
rat oires
ĠdÃ©v as
Ġsouter raine
Ġinnov ations
Me mbre
n iste
Ġd op
Ġpar adis
Ġcon tex
ĠD ah
Ã©ra lement
ass a
Ġci ment
Ġ8 6
ĠmatÃ©ri elle
ĠdÃ©clar Ã©e
ĠdÃ©crit es
Ġ181 6
Ġ182 4
Ġrur aux
ĠAlex is
Ġbailli age
ĠChurch ill
E ur
e uses
ĠD Ã©p
ĠJ in
ĠO tto
Ġco in
Ġvend ues
vid us
' t
Ġson des
Ã©ra teur
ĠK ad
ĠO ccitanie
Ġtemp Ã©rÃ©
Ġab st
ĠTh ib
Ġcul mine
Ġgouver neurs
ĠRe p
Ġten ues
pec tives
ĠdÃ©n omin
ĠaÃ® nÃ©e
Ġfar ine
Ġterror isme
ĠTchÃ©cos lovaquie
ti ser
ĠE lle
Ġcor ne
Ġrel ance
ĠreÃ§ ue
ĠfaÃ§ ades
ĠRos a
ĠPrin cip
Ġtopony mes
ĠintÃ©rieur es
Ġchau des
b ot
Ġs ocle
imp ossi
Ġsimp licitÃ©
Ġdiffus Ã©s
Ã©lect ronique
ĠSim one
Ġaltern atif
arr estation
Ġvass aux
Ġfluvi al
ent on
Ġb aisser
de urs
ĠT en
oth er
ĠX i
ard es
ĠdÃ©c oul
onne c
Ġchar gÃ©es
tic a
Ġesti mant
Ġconcern Ã©es
ĠsÃ©par ent
Ġobserv Ã©s
ĠAir ways
Ġexploit Ã©e
ĠBru ce
Ġrepos ent
Ġpan or
Ġexcell ent
Ġfal aises
ĠArch ives
Ġincendi es
ĠR ach
ĠF id
Ġdisp ersion
Ġmultip lie
ĠIs aac
ĠinterprÃ© tÃ©e
enz o
ĠarrÃªt Ã©e
Ġpul mon
Ġpoit rine
S tation
Ġv enger
Ġpl ates
ĠG iscard
Ġdi ac
ĠT olkien
ĠH ot
Ġfor um
ĠO st
An n
Ġk g
ĠVal entin
Ġeng endre
hum ain
Ġquan tit
Ġacad Ã©mique
ĠFI FA
ĠSorb onne
S ch
Ġb alis
ĠR PR
ĠN ou
ĠN ixon
Ã©t endant
ĠO ut
Ġcou reurs
Ġpra g
ĠbÃ¢ti r
Ã¨g rent
ĠÃ©chapp e
roc arb
lov aque
ĠPomp idou
ĠCit roÃ«n
Ġl ymph
Ã¨ ze
Ġcon ducteurs
ĠG rant
ex Ã©c
ing rad
Ġinc arn
ok o
ĠCant on
Ġsis mique
t rÃ©s
Ġpl atine
di rent
ate ment
Ġfut ures
Ġ15 00
rig ues
Ġir landaise
Ġfoss Ã©
ĠThaÃ¯ lande
ĠLitt le
Ġsansk rit
n est
ĠP ost
ins titu
ten ay
ĠspÃ©ci alitÃ©s
tÃ©ri x
ĠÃ©ch o
ĠintÃ©g ralement
Ġdon jon
Ġcontrovers es
Ġcroise ment
Ġmagist rats
N on
o ven
qu ants
in ant
Ġcin Ã©tique
ix es
ĠgÃ© ants
ital ien
ĠprÃ©f ace
Ġpropos a
Ġorigin elle
lit z
intÃ© resser
Ġrelev Ã©
ĠErn st
ĠBabyl one
n asse
t Ã¨rent
t ario
en os
Ġla ser
Ġg orge
ĠV illiers
Ã©c ologie
ĠdÃ©sign ent
Ġfonctionn aire
osa ures
ĠbÃ©n Ã©v
ĠDire ction
Ġprotagon istes
ĠVenez uela
is sions
ĠM Ã©ri
ang Ã©e
ign ac
tic itÃ©
ĠSh i
ĠPer p
ĠBro ad
Ġamp leur
Ġisol Ã©s
ĠcomÃ©di en
H um
P rog
or ment
ra ct
ĠS ic
di ctions
ĠdÃ©c rets
ĠE is
ĠcrÃ© ature
rig ation
Ġfl ott
tÃ©ra ture
val les
Ġbois sons
ĠCol or
Ġobten ues
ĠrÃ©sid ent
Ġscol aritÃ©
Ġartifici el
ĠProvin ces
Ġd am
Ã¨ gne
ĠmÃ©c an
ĠThÃ© odore
Ġpatron yme
ĠthÃ©m atiques
Ë Ĳ
ĠC erc
ĠS ky
ĠP all
ĠdÃ©f aill
ĠfrÃ© g
ĠMe aux
Ġemb ry
ĠWal t
Ġsugg Ã¨rent
Ġprovisoire ment
Ġchim iste
advers aire
ĠP uis
am o
ap s
ob tient
Ġgrand it
Ġcas erne
ĠGu il
Ġvol on
Ġlim itation
esp Ã©rance
indi vidus
ĠMi ami
intÃ©g ralitÃ©
ĠBrit annique
Ġcardin aux
ĠCI A
ĠsuÃ©d oise
ĠrÃ©cep teur
Ġsyllab e
industri alisation
a sion
j Ãł
Ã© ter
ĠM Ã©l
ang a
ĠNormand s
Ac tivitÃ©s
ĠBis marck
D S
I X
r Ã´le
Ġd ors
Ġt endre
ai m
ĠL incoln
Ġal cal
ĠK erg
Ġres sent
Ġprof itant
ĠSp orts
Ġcompar Ã©e
tig ation
Ġlic enci
Ã©th ique
Ġnar rateur
FI O
Ġc ibles
ĠR Ãª
ĠF am
vi de
Ãī n
Ġop tions
Ġten us
ano ines
Ġatteint s
appel ait
Ġphyl ogÃ©n
k k
Ġ ond
Ġs m
te ls
ĠS uc
ĠM old
ĠP av
ac cessi
Ġan alogue
Ġpr estations
ap our
acc roissement
Ġmer veille
ĠVal Ã©ry
ĠPro t
ĠSte f
Ġmatern el
Ã©mi tisme
ĠDauph inÃ©
ReprÃ©sent ation
Ġvolon tiers
L it
ĠS Ã©v
ĠS oul
ĠprÃ© dic
onc Ã©es
aut h
Ġesp Ã¨re
Ġfl amme
inst ant
ĠBel ges
Ġcouv erts
encl ature
ĠLut her
Ġpromen ade
Ġpar vint
ac tique
co se
Ġinst ances
Ġplan ification
aill y
effec tif
Ġaffron tements
ĠÃ©chantill ons
ĠCauc ase
b aye
Ġqu o
ĠL uf
ĠD reyfus
lu de
Ġdur ablement
In t
ĠCor ne
ars en
Ġriv aux
Ġindividu els
Ġtre mb
ĠMex ico
Ġfeuillet on
Ġcontam ination
ri el
ĠG oul
ĠV es
ill aume
Ã©si ens
Ġbal ance
Ġfonde ments
ĠFrank lin
apparten ance
E ure
re uil
Ġm yc
ur de
Ġpar adig
Ġg ab
ĠrÃ© utilis
ĠprÃ© rog
Ġmar ches
Ex position
Ġmassi vement
Ġarriv ant
ĠdÃ©grad Ã©
ĠAli ce
Ġeuc li
ĠUR SS
Ġa cier
Ġpro cesseurs
ĠA P
ĠA vent
oc ats
Ã©t oiles
Ġcommun ales
Ġprend ra
hyd ra
ĠSib Ã©rie
Ġlivra ison
h Ã©roÃ¯
j ac
n ale
Ġc ib
Ġc Ã©l
Ġb ur
ĠS ak
ĠS FIO
ist rict
ĠAn at
Ġgroupe ment
ĠentraÃ® nent
ĠAd olphe
Ã©rant o
ĠaÃ©ri ens
Ġrestaur Ã©
Ġinv ari
Ġparticul aritÃ©s
ĠPrin ces
ĠlinÃ© aires
M orph
ĠB ologne
Ġj oy
ili a
Ġcouv rent
Ġconsul ter
the id
Ġroche ux
ĠM ing
Ġac tives
rou nd
ĠTh om
In di
Ġfabri quÃ©s
Cons tru
Ġcommuni quÃ©
un if
el i
Ġv enti
Ġv ides
ĠA ustra
Ġemp ois
Ġsupp lant
Ġoblig ation
ĠdiffÃ©ren cier
c ons
an tis
re di
im al
Ġcons cient
min istre
Ġutilis aient
ĠdÃ©f enses
ĠMont argis
ĠÃ©lÃ© g
oz a
Ġconver tis
Ã©si um
ĠAug ust
ĠrÃ©cup Ã©ration
ĠperÃ§ ue
Ġrav age
ĠgrÃ© co
Ġcorp us
attent at
Ġa ile
ar mistice
Ġtr Ãªve
ĠN ad
Ġal luvi
ĠK ant
Ġtomb Ã©
less is
Ġautoris ation
ĠprÃ©serv ation
Ġcle f
Ġ Ø
ch ets
ĠD ig
use ppe
gl er
grÃ© di
Ġmeur ent
ĠalgÃ©b rique
Ġti rÃ©s
od y
Ġval oir
ĠCro atie
ĠthÃ©or iquement
Ġ182 8
Ġimpos Ã©e
ĠLong ue
DÃ©s ormais
S ont
ĠD uf
ĠÃ©t roit
ath lÃ©tisme
Ġparc ourt
ĠtÃ©lÃ©vis Ã©es
ĠthÃ©m atique
Ġincon v
Ġdevin rent
ĠRÃ©public ains
ĠM oliÃ¨re
ut ant
Ġh Ã©r
ĠF ouc
Ġimp rovis
Ġca hier
Ġpor tÃ©s
Ġconcern Ã©e
Ġalli Ã©e
ĠGro en
Ġcompens er
Ġsurv ol
ĠdÃ©cal age
ĠdÃ©missionn er
ĠD im
Ġst ables
ĠO scar
Ġcoup es
Ġappr entissage
Ġant Ã©rieurs
Ġfasc isme
Ġfolk lore
Ġagglom Ã©rations
R ich
Ã© checs
au teurs
ĠG ust
all enge
Ġ3 60
Ġsign ent
ĠRob in
ĠdÃ©g age
ĠinterprÃ© ter
ĠEd mond
ĠrÃ©di ger
ĠQue en
ĠSyn dicat
ĠGaul ois
ĠBrab ant
Ã©clar ation
Ġn aissent
Ġin vasion
Ġch anoines
ĠL ug
ap est
ĠÃ©v ac
Ġrou main
ĠCl aire
aff ich
ĠSt anis
Ġfig urant
ĠintÃ©g rante
ĠMon di
Ġrac isme
ĠÃ©cl air
Ġabou tir
Ġore illes
V ari
Ã ²
Ġt ons
ĠS antÃ©
ab st
ĠprÃ© limin
ob a
Ġor nement
gn on
Ġmur ailles
Ġrig oureuse
Ġprotoc oles
Ang oulÃªme
akespe are
el lan
ĠL ann
ni z
Ġcour onnement
enn a
Ġcro Ã®tre
Ġbois son
Ġ179 9
ĠidÃ© ologique
Ġfrom ages
Ġinsurg Ã©s
L Ã©g
u Ã©es
Ã© a
Ġp is
Ġs ic
Ġn ickel
Ġv entre
ap i
Ġcap tur
Ġcas se
Ġas tÃ©roÃ¯
Ġfl Ã»te
esp agnol
ĠEs prit
Ġpa use
Ġobst acle
Ġnett oy
u Ã©s
on iens
it at
Ġpr en
im ar
oph y
Ã©l as
ĠcaractÃ©ris ent
Ġpens Ã©es
Ġsan ctions
Ã©tudi ants
Ġroul ant
ĠdiplÃ´ mÃ©
ĠBoc age
ĠRapha Ã«l
ĠMorl aix
n ais
ĠdÃ© dic
ac ture
ĠR iver
Ġnom mÃ©es
az ine
exp lication
ĠCl oud
ĠNe pt
Ã¡ s
Ġcompens ation
Ġautob i
Arch itecture
Ġabat tu
ĠâĶ Ģ
assembl age
F onction
ur Ã©es
Ġf osse
Ġfin ie
rou pe
enn on
rog Ã¨nes
Ġadministra teur
Ġlatin s
Ġfavoris ant
ĠrÃ©tab lissement
ĠDam as
accÃ©l Ã©ration
f euille
ili ce
Ġcir que
ok a
Ġvoy ait
ĠthÃ©Ã¢ tres
Ġcryp t
ĠvÃ©tÃ© rin
Ġclim ats
I R
ar riv
Ġre tient
ĠÃ©t al
ĠMar vel
Ġpublic itaire
lin ois
ĠÃ©vo quer
Ġ180 8
Ġenc omb
ĠM P
Ġon de
ĠmÃ© pris
Ġobten ant
ĠXV III
Ġhyp er
z u
ĠM ine
ins pirant
Ġexp l
Ġessenti els
Ġval able
Ġrespec tifs
Ġgrav ure
ĠLim ousin
Ġsoign er
Ġconvers ation
A A
Ã©r isation
Ġdis ent
Ġser p
An at
Ġrou tiÃ¨res
Ġprot o
Ġaffir mer
Ġperc Ã©e
Ġsynta xe
ĠsÃ»re tÃ©
ĠG asc
ĠN ich
Ġdis sid
Ġnot Ã©e
Ġcorrespond re
ĠmÃ©c onn
ĠSal omon
Ġobserv ation
Ġconver tir
ĠdÃ©veloppe ments
ĠcontrÃ´ lÃ©
ĠrÃ©serv oirs
Ġradic alement
Ġsembl ait
accep ter
Ġacous tique
h en
ĠM all
Ġse g
Ġan ge
Ġat tÃ©n
Ġesp oir
Ġprom is
Ġcommerci alisÃ©
Ġaccep tent
Ġdivis Ã©s
Ġphysique ment
Ġfacil ite
Ã©rod ote
Ġer ron
A in
Ġs ombres
Ġa ides
or re
Ġman uel
ĠTh Ã¨bes
aff ranch
Ġ182 7
Ġsing les
Ġsouhait ant
Ġsan itaires
Ġmenac Ã©e
ĠsymÃ©t rique
Ġenqu Ãªtes
Ġrestri ctions
R etour
c um
in aison
est a
ab at
ig ie
oy a
Ġpo em
De venu
Ġappar us
ĠIn dien
ĠSe ga
ĠÃ©di fiÃ©
ĠBerg er
Ġcommis sions
ĠIb n
ĠTourn oi
artis anat
Ġhydrauli que
J ose
f on
mp h
ĠS ier
ĠN og
Ãī mile
ĠgÃ©n ome
Ġcircul er
ina ve
ĠAs h
Pro jet
Ġexclus if
ĠrÃ©fug ie
her be
Ġtardi f
occ urrence
Ġhong roise
Ġc reuse
Ġle aders
ĠP ith
uss on
Ġalli ances
ĠamÃ©li oration
ĠprÃ©t endant
DÃ© jÃł
Ġisol Ã©es
ĠcomÃ©di es
ĠSyl v
S te
ĠS Ã©ville
ĠM R
ĠB ass
til itÃ©s
Ġgerm an
Ġmanip ulation
Ġpotenti els
Ġfores tiers
ĠGira ud
ĠPolyn Ã©sie
C R
D ix
z Ã©
on Ã©
ĠP aix
Ġpro cession
ĠD au
ĠK as
Ġform Ã©es
ĠÃ©p aisse
Ġbi joux
Ġcher chÃ©
Ġant ennes
Ġsauv Ã©
Ġocca sions
Ġexpli quent
B on
ou rag
ĠP ointe
ul tures
Ġpr ouve
ĠH art
ĠdÃ©c oule
ubli ques
ĠLe p
Ã¯ tÃ©
Ġop inion
Ġpor tÃ©es
Ġdiv orc
Ġconnaiss ait
RÃ© seau
Op en
ĠmÃ©taph ore
offici er
l av
Å Ħ
Ġg estes
Ġsur venue
ĠR us
ĠN on
ĠdÃ©p ouille
ah u
ĠprÃ©f Ã©rant
Ġmultip le
Ġaustra lien
Ġsurmont Ã©
Ġre z
ĠP os
ure t
ĠW ay
lu ences
Ġman ches
Ġconstitu ante
ĠbÃ¢ tis
Ã©lect rique
Ġemprun te
Ġther miques
DÃ©c oupage
Ġplong Ã©e
Ġib n
Ġa Ã©rod
ĠD ord
ĠSaint onge
ak u
Ġfl oristique
ĠVal ais
Ġentou rage
ĠsÃ©min aire
ĠCG T
ĠhÃ©rÃ©d itaire
P yramide
Q ue
Ã©n avant
Ġdis til
Ġvari ant
Mal heureusement
Ġcra int
hyd ro
Ġmodern itÃ©
Ã¨ gue
ĠS ony
ĠSp ace
Ġarg iles
Ġadoles cents
ĠStock holm
t ar
Ã Ł
ĠC FA
ĠG olfe
mi Ã¨re
ad h
Ġrom ancier
ĠY an
Ġlog is
inter rog
Ġaugment ent
Ġguer rier
heure ux
I r
w orth
Ġp Ã¨se
ch Ã¢tel
Ġh Ã©rite
Ġtrans vers
ĠÃ©le veurs
ĠlÃ©g Ã¨res
Ġtre mp
Cons Ã©qu
Ġ ut
Ġm Ã©g
Ġf auc
ĠC assi
ĠN y
ĠgÃ©nÃ©ra lisation
Ġsou mises
Ġoccup ants
tell en
Ġ182 9
ĠVill age
Ġglob e
ĠbÃ©nÃ©fici ant
Ġamp h
Ġottom ane
Ġaigu Ã«
ĠdÃ©p l
ak s
Ġcontra ction
ĠAb raham
Ġhi Ã©ro
ĠflÃ¨ ches
Ġbor nes
Ġambiti eux
it ure
os p
ĠF em
ĠG es
Ġmin iÃ¨re
Ġni Ã¨ce
Ã©l or
Ġop timis
ĠmÃ©di ane
ĠMal o
Ġferm er
ĠMc G
Ġgro ttes
Ãīt oile
Ġdo tÃ©s
Ġsoulign er
Ġattrib uts
Ġcomport ait
Ġf aille
Ġt am
Ã§ aient
ĠdÃ©p oser
Ġcent rÃ©e
inc er
ĠPro che
ĠintÃ©g rant
Ġfranch it
Ġrede vient
ĠÃ©tend ues
Ġdesservi es
b ourne
ar ine
ĠG aill
ĠO ttom
Ġrec ond
opp osÃ©
ĠreprÃ©sent aient
Ġmod ules
Ġfa usses
ĠrÃ©s onance
ĠSh akespeare
ĠnÃ©g atifs
ĠÃ©vo quÃ©e
ĠBeau ce
accord ent
iz iÃ¨me
Ġvot Ã©e
Ġtap is
Ġalgorith mes
heb domadaire
c isme
ĠS Ã£o
ĠM antes
ĠA M
ot ation
Ġconstitu ait
Ġmes urÃ©e
Ġconserv atrice
Ġsuper p
Ġaccomp li
ĠHam ilton
hor reur
oly te
Ġ icon
ĠA re
Ġman ge
Ġatt endu
Ġdispar us
ouss es
ĠSal vador
Ġami c
Ġfi abilitÃ©
ĠÃ©quip age
appel er
ĠAp ollo
Ġprolong ation
Ġpyrami des
si ves
Ġre tenir
Ġin grÃ©di
ran de
ic ie
tionn Ã©e
Par c
Ġret ran
ĠÃ©qu iv
ĠinÃ©g alitÃ©s
Ġcertific at
ĠHain aut
Ġc u
Ġa Ã©ronautique
Ġv ing
ch an
ol aire
ĠT ac
mb er
ĠÃ©t ymologie
Ġtou l
Åĵ ufs
az e
Ġaugment ant
Ġamb ition
19 9
Ġly onnais
ĠHerb ert
S ou
c ro
ou illet
Ġpar venu
ĠS ub
ran des
ĠL au
ĠG ali
ill ustra
Ġapp els
Ġsac rÃ©s
ĠÃ©li re
ĠGuy ane
Ã©ran te
Gu illaume
Ġfaud rait
ylÃ©d ones
Ð ¾
Ġf ui
enn etÃ©
Ġsupp osÃ©e
Ġpol aire
Ġbr us
ĠCor ine
Ġtrouv Ã©es
Ġprovo qua
Ġouvert ures
Ġsignific atif
ĠÃ©tro ites
ĠFi at
Ġmorph ologie
Ġdesque lles
ĠGord on
Ġt an
Ġcom itÃ©s
ĠH olland
Ġcont estation
Ġcor Ã©en
Ġri re
ĠMor in
Ġ182 2
ĠPic ardie
Ġproph Ã¨te
Ġrachet Ã©
ĠenchaÃ® ne
ĠmÃ©cont ente
Ġsuzer ain
A mer
G P
ĠP Ã©pin
ab i
ad uc
ĠMont fort
Ġdestin ations
Ġval iditÃ©
Ġsuper vis
Deux iÃ¨me
Ġratta che
Ġrejet Ã©e
Ġsupprim Ã©e
Ġnaiss ances
S ub
Ġra tio
aine ment
Ġcas que
enc Ã©
Ġatte intes
ĠRou x
Ġsubst an
Ġjamb e
ĠmarÃ©c age
ĠNept une
Ġd enti
Ġd Ã´me
ab lo
ot ox
onn aire
Ġfin ancÃ©
Ġmil lier
vis ionn
enc ad
enf uit
Ġscand inave
ĠnorvÃ©g ien
exerc er
Ġn aÃ¯
ri pp
Ġch angent
Ġpe ines
ous t
ĠLa ch
adi er
eth oven
ĠrÃ©compens Ã©
Ġconfes sion
ĠFrances co
qu Ã¨rent
ĠD av
ĠH at
ad oles
Ã©d ent
ob l
ĠK re
ib niz
Ġsou mission
Ġfer ont
Ġlib rai
Ġtransp orte
Ġtri angulaire
Ġcommenc Ã¨rent
Ġautor outes
Ã©tend ue
DÃ© veloppement
Ġchron ologie
Ġmut ations
Ġindic ations
Ġharm onie
Ġgigantes que
c ap
Ġpr Ã´ne
Ġra il
ill is
int osh
su le
Ġlim itÃ©s
Ġapparten u
Ġcombin aisons
rov ing
ĠTerrit oire
OcÃ© an
M od
in ales
ran e
ĠÃī ditions
Ã©p al
Ġcent rÃ©
ĠlÃ©g ion
ĠmÃ© roving
ĠprÃ©f ig
Ġred dition
Is Ã¨re
PrÃ© histoire
ĠNeu illy
ĠRoh an
t one
ol ore
ence au
Ġam Ã©rindi
Ġexp ress
ĠCl inton
Ġperd it
Ġrestaur Ã©e
Ġenregist rÃ©es
Ġpense urs
ĠRÃ© seau
Ġparcour ir
b it
z in
in ent
Ġv oud
Ġv alide
urs us
ĠT oy
ĠD Ã©t
ic ule
Ġex act
ob i
Ġpi le
Ġcr Ãªte
Ġpor n
ĠrÃ©serv Ã©s
Ġaltern ance
M ort
y des
Ġs els
Ġb ulg
ĠM yst
ĠW ater
ĠO d
ines s
ĠÃ©v Ã¨nement
lo Ã¯
occup ant
Ġromp t
ĠtÃ©t ra
ĠPerp ignan
m ers
Ġt yph
ille m
erg ers
Ġfa unis
Ġperd ant
ĠCour t
ĠarrÃª ts
Ġsouff rance
ĠCo ver
ĠPol onais
antin s
Ġaccueill ent
ĠAlli ance
ĠcamÃ©ra s
ĠBud apest
ĠrÃ©conc iliation
ĠbrÃ©sil ien
ĠJustin ien
ag erie
Ġre des
ĠT ud
ert h
ĠÃ©v aluer
Ġver ra
ĠBe ach
we alth
Ġobligatoire ment
Ġconstat Ã©
Ġly rique
Ġincomp ati
c ast
Ġb ise
Ġin cidents
Ġter rass
ĠdÃ©p osÃ©e
avi ons
Ġcrois Ã©e
ensi ves
Ġalg orithme
ĠexpÃ©riment al
Ġpla Ã§ant
rik an
ĠsÃ©d ent
ĠPed ro
Ã© isme
Ġb illet
Ġdi agon
og enÃ¨se
ĠdÃ©p ortation
Ġab oli
Ġent rain
Ġtomb Ã©e
ĠopÃ©ra teur
Ġrais in
Ġsouten ant
Cl aude
Ġclo che
ĠchÃ¢ tellen
Ġsax on
ĠrÃ©col tes
D onc
Ġp s
Ġc ire
re d
Ġt umul
ĠP ors
ĠL our
ac a
ct on
Ġchois issent
oÃ¯ que
Ġreli Ã©es
Ġamb i
Ġinves tissement
Ġgall ois
Ġrect angulaire
ĠAR N
z en
ĠB resse
Ġal phabet
Ġmar cher
ach i
ĠCl ark
Ġsign Ã©s
ess ais
ĠnÃ©g ation
Ġali as
ĠBal tique
Ġral lier
Ãīle ctions
l ong
Ġc uite
le c
ĠC P
ĠS R
ĠH orn
ĠK iev
Ġtent a
Ġrais onn
ĠÃ©volu ant
ĠGau les
je an
ĠMes nil
Ġboule vers
Ġc ann
Ġpar alys
Ġcon cessions
ĠH ergÃ©
Ġti rant
Ġcombat tant
Re venus
Ġbataill ons
Enf ant
Ġgam ma
sig nes
ab ilisation
Ġcent enaire
ah a
ore ille
Ã©li en
ĠÃ©tudi Ã©e
Ġpot assi
Ġsex uels
ĠMartin ique
Ġapparten ance
Ġfant asy
Ġdiplom atie
ĠGand hi
Ġantis Ã©m
ĠLN H
c ieux
y Ã¨res
Ġt ante
at ou
ĠS us
Ġcontre b
Au paravant
Ġcal ife
ame d
Ġcr Ã¨me
Ġarch aÃ¯que
ĠSc andin
ĠMath ilde
Ġcatast roph
Ġcod age
ĠSau veur
Ġtari f
Ġun is
Ġpar ue
Ġpar don
Ġcon si
ĠT NT
ĠcrÃ© di
ĠLa ke
Ġman ager
ĠrÃ©s ol
ĠY ah
ak er
Ġord ures
Ġatta quent
ensi ble
ĠBourg et
ĠmÃ¢ ch
Ġefficace ment
Ġpros titu
Ġproclam Ã©
Ġsatisf action
Ġpharm ace
ĠEli zabeth
ri an
ĠP oste
ĠprÃ© lev
Ġgouver ner
Ġfer ment
ĠdÃ©si re
ĠCar c
Ġpat rimoni
Ġaccord er
Ġ181 7
ĠGal ilÃ©e
ĠmÃ©n agers
Ġto il
ĠIns titut
Ġterror istes
ĠPenn s
Stru cture
un y
ĠP om
ĠH ous
Ġvol et
Ġdat ation
Ġ180 9
Ġ182 6
sc ars
Ġ177 8
Ġcorrig er
ĠMagh reb
H ug
I b
Ġun i
ne z
Ġb rac
Ġin telligence
ĠR id
Ġexp lications
ĠrÃ©p Ã©tÃ©
Ar riv
Al lier
ĠRe vue
Ġcandid ate
ip zig
Ġimpli quÃ©s
ĠSimp son
Ġp elli
Ġt oi
Ġg Ã©rÃ©e
ĠrÃ© quis
ĠD Ã©claration
ph es
Ã©g Ã©m
ĠgÃ©n Ã¨re
Ġbat tent
Ġ181 8
Ġble us
Ġtox icitÃ©
Ġgla cier
Ġheur te
ĠdÃ©coll age
ĠSoud an
G rand
N otes
Ð ¸
ur al
il o
Ġg a
ĠrÃ© duites
ĠG aud
ang u
Ġmil ice
ĠthÃ© ologique
Or ne
Ġorigin ellement
Ġ181 3
Ġ178 0
Ġfrapp er
ĠagrÃ© ment
Ġchirurg ien
Ġtranspar ence
Ġsymph onique
Dis tinctions
ĠCommon wealth
N ic
j u
Ġsur veiller
ac cession
ss es
ach eter
Ġpri rent
Ġpron oncÃ©e
ĠRo ad
ĠFor um
Ġpoly technique
Ã© puis
Ġcom ics
ĠF le
Ġmo tion
ĠE urop
uss y
Ġenvoy a
Ġdynas ties
ĠGi useppe
Ġchampion ne
ĠrÃ©ussi r
ĠlaurÃ© at
Ġsynagog ue
ĠB rou
mi rent
ign Ã©
Ġprog resse
aff aib
Ġviv ante
osoph ie
ĠGar y
Ġarriv a
Ġbret ons
ĠAut rich
Uti lis
ĠrÃ©vol tes
Ġrestruct uration
b ois
Ġ `
Ġl yn
Ġc yan
ra il
Ġun itaire
ĠS quare
li ade
ran ces
ĠA ires
ĠF ils
and er
Ġmar ty
Ġman i
Ġvari Ã©
aud it
ocra tie
Ġroman es
ĠÃ©n ormÃ©ment
Ġconsomm Ã©
ĠÃ©loign Ã©e
ĠcÃ¢ bles
ĠAnth ony
ĠÃ©pidÃ©mi es
ĠBeauv ais
ĠGust av
Ġpar ab
ens on
Ãī qu
Ġprop ice
Ġremp orta
Ġvis ibilitÃ©
Morph ologie
Jose ph
A NC
Ġ ic
Ġp acifique
el age
Ġdi ph
Ġdis su
Ġimp lÃ©ment
ing o
Ġinter viennent
Ġman agement
cher ie
Ġlib Ã¨re
Ġva ches
ĠdÃ©sign ait
ĠrÃ©sid ant
Ġvoyage ur
Ġautom ne
Ġ180 7
Ġextra terr
Ġdocument aires
Ġoppos Ã©es
Ġhos tiles
Aux erre
Ġfleur is
ĠCos ta
Ġcenti mÃ¨tres
ĠconsÃ©cu tifs
impossi bilitÃ©
H erm
S h
m ad
am an
Ġform ulation
Ġrapp ellent
Ġcompr ises
Ġtransp ortÃ©
heim er
Ġfores tiÃ¨re
Ġpoll in
Ġindirec tement
Ġmyst Ã¨re
est on
ĠL aye
ĠD ark
and ais
ap ogÃ©e
Ġtou chÃ©e
Ġtou chant
ĠMe d
Ġconcep tu
ĠsÃ©p ulture
ĠrÃ©fug ier
Ġmix tes
Ġpous siÃ¨re
ĠChristoph er
H er
Ġla s
ĠM em
og o
Ãī tienne
ari ens
Ġli p
Ġoc Ã©an
Ġinst aurÃ©
ĠMont mor
erv ille
Ġrecher chÃ©
Ġfus il
ĠcontrÃ´ les
ĠBay eux
Ġinfluenc Ã©e
Ġappli quÃ©es
Ġmorte lle
ĠpÃ©dagog ique
Ġdoig t
ĠMar co
emp his
Ġces sion
Ġexploit er
ĠrÃ©glement aire
Acc ueil
Ġcontrovers Ã©e
ĠHerm ann
Ġdiscri mination
Ġpromul gu
ĠKle in
Ġl its
Ġc ig
ĠP ons
ĠP ublic
ul li
ĠB uck
ĠL ic
En t
pr ud
ĠH omo
ĠW ol
Ġas pi
ĠIn n
ĠSte in
Ġgard ant
Ġretrouv Ã©es
Ġpoly val
Ġintercommun al
ĠDum as
ĠSchw arz
Ġseg ments
S c
Ġ @
Ġp Ã¨res
Ġs ar
Ġs Ã¨ches
ur iers
il y
ĠC iv
ĠrÃ© duisant
ĠF ut
ĠprÃ© n
ĠJ azz
Ġrep tiles
Ġsou che
ann on
Ġiniti atives
ĠdÃ©g ager
ĠdÃ©rou lant
Ġaffec tÃ©s
Ġanc est
Ġplais ance
ĠrÃ©pertori Ã©s
Ġsquel ette
MÃ©di as
Ġfaunis tique
w itz
Ġs ceau
et e
ri ka
ĠS ex
ĠR w
mi de
st one
im on
assi mil
Ġgra tte
Ġremplac Ã©es
Ġbanc aire
H en
o si
ĠM otte
ĠM ao
Ġin demn
ab re
ui er
av ancÃ©e
Ġconf rÃ©
ĠQu in
Ġchap ite
Ġ182 3
ume ur
erci ces
Ġexplic ite
Ġdestru ctions
Ġintes tin
Ġ osse
in novation
Ġt omes
Ġn an
est ern
ri f
ĠC ic
ĠL iste
ĠSh in
Ġbon us
Ġprofit ent
ĠmÃ©n agÃ¨res
Ġamp hib
Ġmig rations
ĠfÃ©dÃ©ra tions
Ġdon ation
Ġrebaptis Ã©
Ġpand Ã©mie
Ġf as
Ġsp in
Ġdistin cte
Ġemploy Ã©es
ary otes
Ġcitoy ennetÃ©
Ġrede v
ĠHil aire
ĠmystÃ©rie ux
Ġira k
Ġexten sions
Ġsarc oph
Ġestiv ale
Ġc ort
it ales
Ġm Ã©gal
Ġle Ã§ons
ir rigation
gl yph
ori ographie
ĠdÃ©f endue
ĠSh ow
ĠsÃ©par Ã©ment
ĠSte ven
Ġprotest ations
accord er
Ġsubst rat
ĠdÃ©di Ã©s
Ġajou tÃ©s
Ġvass al
ĠprÃ©occup ations
on ies
ĠD Ã©partement
Ġab att
Ġreconn aissant
Ġven aient
Ġfourn issant
ĠEd gar
Ġral li
ĠfrÃ©quent Ã©
ĠÃ©gyp tiens
ĠdÃ©plac Ã©
appro bation
ĠÃ©pr ouv
imprim erie
ĠDord ogne
Ġd urs
is prud
Ġv oici
Ġpl umes
ille ur
Ġgran ite
ob server
Ġpo intes
Ġinter valles
Ġimport ations
Ġrem or
ĠPl ine
Ġessenti elles
atis Ã©
Ġsuivi es
Ġdoll ar
ĠStra uss
Ġach Ã¨ve
Ġfacul tÃ©s
illus tre
N G
O t
P lan
Ġp ans
al it
ĠS Ã¨vres
Ġrec ouverte
ĠrÃ©p utÃ©s
ĠrÃ©s umÃ©
ĠRe y
ĠÃ©tudi Ã©s
Ġfi able
Ad ap
Ġclin iques
Ġtap isser
Ge orges
Ġfres ques
p res
r Ã¶
Ġch aos
og Ã©nÃ©
Ġmin iÃ¨res
ĠTh i
Ã©qu ateur
Ġcriti quÃ©e
Ġcapture r
ĠBaud ouin
Ġarr Ãªte
Ġf iefs
Ġg uise
Ġch ats
di pe
ĠR aj
Ġnom ment
ĠsÃ©rie usement
Ġillus trations
Ġnul s
ĠCI O
ĠClo vis
Ġseptentrion ale
Ġtuber cul
Ġslog an
ĠLoz Ã¨re
as tel
ĠM Ã¨re
ĠB eng
ss on
Ġinter face
ĠLe ipzig
Ġconf luence
gn er
cl use
enf uir
ĠpÃ¢ tur
Ġincert aine
N om
O ct
y y
Ġc is
ti us
Ġh arc
ap an
ĠK ra
Ġvis ent
ach im
enc re
Ġterre ur
Re p
ĠBour ges
Ġnu its
Ġrecue ille
Ġdram atur
Ġcontest Ã©
ĠVin ci
Ġsond ages
ĠGon z
ĠÃ©th ique
Ġapost olique
Ġpotassi um
B I
y les
Ġp illage
ĠÃ© tiqu
Ġb Ãª
se c
Ġsur g
Ġtemp orel
ĠcrÃ© ateurs
Ġcour b
ges tion
ĠAm az
Ġtri ang
ĠintÃ©ress antes
ĠsÃ©v Ã¨rement
Ġbrev ets
f ried
Ã§ age
Ġsp an
ind ou
Ġcas e
ĠU kraine
ys os
ĠopÃ©ra tionnel
ĠMal aisie
Ġdipl Ã´mes
Ġinten tions
ĠMet al
ĠRT L
Chac un
ar ra
Ġch Ã¨vre
ĠR oute
ĠK Ã¶
Ġimp air
Ġinter diction
ĠÃ©p ais
aill ant
Ġrend ait
Ġviol onc
ĠmÃ©th ane
Ġsignal er
Ġsav oy
Ġber ges
Ġremb ours
tain ment
ro ie
Ġb asi
ĠM ik
ig a
ĠH ond
ĠgÃ©n Ã©rer
Ġremp li
ĠsÃ© jours
Ġdisc uter
eth n
Ġsoi gne
ĠsÃ©jour ne
Ġenvah it
Ġgri mp
CrÃ© ation
Ġparach uti
ĠÃ©mer ge
m os
an tique
Ġv ases
ĠS auv
ĠP ret
ĠF au
Ġcomp orter
ĠÃ©g ales
Ġent rant
Ġtourn ent
Ġesti mation
Ġcyc liste
Ġrenouvel able
ĠDar win
ĠDoc teur
c er
Ġc ursus
ĠM oss
ĠM oÃ¯
ĠP Ã©n
Ġses sions
Ġpers an
Ġport aient
Ġmag iques
ĠBe ethoven
ĠFer ry
ĠHar vard
ĠTra v
Ġpropor tionnel
Ġhon ori
ĠMoul ins
Ġrestre inte
Man if
ĠMarg aret
ĠBoud dha
en burg
ti mes
is ch
it ait
Ġan ges
Ġass ainissement
oph iles
ĠdÃ©f ilÃ©
ĠGl as
aune uf
Ġbloc us
ĠMic key
accue illir
S ymb
b ox
Ġf oudre
ro e
ĠM are
Ġtr ompe
Ġapp ortant
Ã©di fication
ĠY u
ĠsÃ© isme
ov o
Ġhau tement
Ġrepro duit
Ġposi tives
ĠSi Ã¨ge
Ġram Ã¨ne
ĠMari anne
Ġreconstitu er
Ġin Ã©v
ot rop
ill ais
ang Ã©s
ĠÃ©p Ã©e
Ġhab ite
oin ette
Ġbut te
off rir
ĠfÃ©min ines
ĠimpÃ©ri ales
ĠCamb rai
Ġflor aison
Ġaveug le
g res
Ġl Ã¨ve
Ġla ct
at ome
ĠS oy
Ġou t
ĠO scars
Ġsou lev
Ġsoci ologue
qui Ã¨rent
Ġreconn ait
Ġanim Ã©s
ĠÃ¢ mes
ĠSar ah
ĠMac ron
Ġbourg u
Ġvir g
Ġenvironnement aux
ĠC M
Ġapp lique
ĠK os
Ġimp acts
od a
ĠprÃ©sent ait
Ġgr Ã¨ves
idÃ© al
uisse aux
Ġdiam ant
observ atoire
Ġinvestis seurs
Ġobst acles
Ġp H
er gement
ch aient
ĠM ob
ĠP rat
ĠF onds
op olis
og h
par nasse
Ġ180 5
Ã©tend ent
tue use
oub li
Ġpa quets
Ġnomin ations
Ġdynam iques
c ell
ĠV aux
lan e
Ġenf erm
Ġlog iques
Ġconse ille
Ġjeu di
ith Ã©
Ġpal lier
Ġ179 7
ĠdÃ©g uis
ĠdÃ©ta chement
Ġconver ti
Ġconcent rations
ĠAv ignon
Ġpolyn Ã´me
ĠBle u
Ġglaci aire
Ġtempore lle
ĠL ing
ĠN arb
Ġ3 50
ĠdÃ©p la
gn Ã©e
ĠrÃ©s iste
Ġpi x
Ġinst able
ĠdÃ©s esp
Ġdisp uter
Ġparc elles
Ġval ent
ĠopÃ©ra tionnelle
ĠamÃ©li orations
Ġsynth Ã©tique
ĠguÃ©r illa
ĠmaÃ®tris er
loc u
Ġrespi ratoire
Ġinuti le
S I
b ul
Ġs unn
Ġb ig
Ġre quÃªte
ĠP lÃ©
ĠB Ã©z
ĠR Ã©v
ĠK l
Ġcl oÃ®
Ġjus tesse
Ġcontre f
anc ouver
Ġrepr it
aÃ¯ de
Ġlar ves
Ġadop tent
Ġdivis er
ĠdÃ©cid Ã©e
Ġsurn ature
Ġsty lis
Ġcoloni ales
Ġdor Ã©navant
ĠOttom ans
T endances
w ing
Ġd oul
ĠB org
ĠL ine
ĠF ire
iv a
ĠCh ron
ĠCh em
tiv isme
Ġjou it
amb assade
ĠMont parnasse
inter section
Ġsus pec
ĠÃ©qu ilib
Ġinvent e
ĠgÃ©omÃ©t riques
ĠNeu chÃ¢tel
ĠmÃ©tall urgie
abond ance
L i
a ques
it as
Ġf ier
ra gÃ©
ie ment
Ġcom esti
lÃ© ments
Ġsou tiens
Ġab e
ĠcÃ´ tiÃ¨re
ĠEn tre
Ġexc ent
Ġfonctionn ant
ĠMag azine
ĠdÃ©mar re
Ġment ale
Ġannex es
ĠStu dio
Emp loi
Ġflam and
Ġinfin i
Ġfili ation
ĠPlay Station
Ġamin Ã©s
RÃ©sul tats
A tt
L iens
d Ã©s
Ġd oses
Ġc rÃª
ti ments
Ġfond ant
Ġpat rou
Ch amp
Ġviol ation
Ġautor itaire
ĠChe min
Ġappro fond
ĠidÃ© aux
Ġmexic aine
ĠbalnÃ© aire
o Ã«
Ġs om
or iste
am s
Ã©di que
Ġvi aduc
ĠÃ©v itant
ler a
ĠRe agan
ĠintÃ© rim
Ġbord Ã©
Ġcommand Ã©s
Ġgagn ent
Ġmagn Ã©tiques
Ġexcep tÃ©
ĠFe der
Ġanalog ie
Ġaust ro
Ġfoot bal
g et
p irent
or rag
elle y
ĠCh rÃ©
ĠmÃ©di ation
ras h
eng agent
Ġlic ences
arb it
Ġemprun ts
ĠprivilÃ©g iÃ©e
ĠCN RS
ĠmÃ©diterran Ã©enne
Ġrelev Ã©s
ĠboÃ® tes
ĠdÃ©ploie ment
M aur
R Ã©p
S ystÃ¨me
o en
u ant
Ġl uxemb
Ġp Ã©tition
ĠP ress
ĠF F
Ã´ tÃ©
Ġpays an
Ġfond a
ĠbÃ¢ ton
ĠnÃ©g atives
ĠÃ©di fiÃ©e
ĠsÃ©lection neur
Ġpay Ã©
Ġconfond u
Ġrecue ils
Ġaqu atique
Cin Ã©ma
Ġanarch iste
Ġgouvern ance
Ġsl aves
Ġtabl ettes
l ou
t rices
w art
ou til
ĠC out
Ġch o
ouv rages
ĠMar t
Ġver d
Ġaband onnÃ©s
Ġdispos Ã©s
ĠLo ing
Ġinterd isant
Ġcart ographie
Ġvertic al
Ġrent abilitÃ©
Ġmotiv ation
ĠStand ard
v Ã©e
Ġc ut
res sement
ĠdÃ© val
ĠL Ã©v
ĠD isc
omm er
pi de
ĠcÃ´ tiÃ¨res
Ġdou leurs
Ġpol Ã©miques
aff e
ys tÃ©
adi en
ĠdÃ©riv Ã©es
Ġsugg Ã©rÃ©
Ġarg entin
Ġvac ants
tini ens
Ġpassionn Ã©
Cri tiques
A st
Ġm ouv
Ġm Ã©r
Ġex er
enti ers
Ġvol ati
ĠgÃ© op
ĠQ ing
Ġâ ī
ĠÃ©quip ages
Ġdirect rice
Se ules
ĠfÃ©dÃ©ra les
ĠtÃ©lÃ©ph onique
Ġrassemb lant
Ġbot aniste
Ġcollabor ateur
ĠPomp Ã©e
ĠrÃ©cipro que
Ġfoul Ã©e
F l
U D
ĠM ond
ĠL Ã¼
Ġr uisseaux
ĠH ist
Ġvi vement
uc in
Ġess ayer
ĠprÃ©f ixe
ĠEn c
ĠAd olf
Ġpure tÃ©
Ġbrut alement
Ang ers
ĠcinÃ©mat ographiques
ĠSing apour
Eug Ã¨ne
m ati
Ġla ve
ĠR is
ĠG rÃ©
Ġnom enclature
rit es
inf ection
han ouk
ĠMer lin
Ġchauss ures
S ources
n era
ont ologie
Ġau tel
ĠB ath
ĠR ost
ic ode
ĠK id
Ġsup rÃ©
erne au
Ġprofes sions
Ġ179 6
ĠamÃ©li orÃ©e
Ġball et
ĠcÃ©lÃ©b ritÃ©
Ġpollu ants
ĠBu enos
ĠrÃ©partis sent
ĠcomÃ©di ens
Ġ urg
au tiques
Ġb orne
ĠF Ãªte
ĠD ru
ĠJ olie
ong es
Ã©l oigne
ĠSh ah
ĠAnd erson
Ġfourn ie
Ġaffir m
Pro f
ĠGerm anie
instru ments
Ġparam Ã¨tre
ĠSA GE
vey ron
Af ghanistan
ĠcollÃ©g iale
F ilm
Ġar bus
ĠFran ck
ĠTh ur
Ġdro gues
arch i
inter national
Ġdirec tes
Ġdirec teurs
Ġbase ball
Ġbar res
Ġint ensitÃ©
Ġus agers
ĠPe y
ĠSp or
ĠÃ©tablis sant
Ġsignific ativement
Ġmenac Ã©es
Ġexam ens
ĠÃ©cos ystÃ¨mes
Ġens ole
Ġ erg
al p
el o
ag ore
ĠS ymph
ac quÃ©rir
ĠF ac
ĠprÃ© ten
ĠCh ang
ĠK ub
gn ation
yn thÃ¨se
ĠCar ter
Ġdistin ctions
Ġtransf erts
Ġpsych ologiques
Ġbourg s
Ġrab bin
ĠEnter tainment
ĠValen ciennes
l ait
Ġ Ê
Ġs ables
Ġf oncÃ©
am Ã©ric
ĠD all
Ġra ss
ĠI BM
ex ode
Ġad Ã©qu
ĠGar ros
Is le
Ġperman ents
Ġcaus Ã©e
Ġther mes
ĠsÃ©v Ã¨res
Ġbanc s
ĠZh ang
Ġdiscri min
re ctions
ar u
di mbourg
Ġar ith
lis h
Par ti
ĠspÃ©ci mens
Ġgouvernement ales
ĠdÃ©n oncer
ĠArm strong
Ġgramm atic
Ġhar ic
Ġrenvers er
ĠOff ice
Ġd angers
Ġre part
ĠM emphis
Ġnom ades
Ġfin aliste
rom es
Ġjur isprud
Ġmarch ande
ĠÃ©criv ant
ĠAng ers
oig nement
ĠVict oire
ĠAndre w
ĠMatth ieu
ĠAutrich iens
Ġc ure
ne ider
Ġb isse
ĠT able
ion e
ok s
ĠrÃ©pond ant
Ġconsul s
ĠAp oll
ĠAch ille
ĠSuz anne
Ġrelanc er
M in
Ã ¥
Ġd ens
Ġl us
ain ville
ĠG ay
gn ac
Ġlim itant
Ġcalcul Ã©
Ġbour geoise
Ġgrav ures
Ġnavig ateurs
Ġtempor aires
Ġmarx iste
ĠElect ric
Ġh onneurs
mi en
Ġconsid Ã©ration
Ġca outch
ĠdÃ©fin issent
ali ment
Ġenc yclop
ĠTur k
Ren Ã©
m ur
n ith
z el
ci r
li de
ĠP oin
ĠB res
ĠG T
ine au
ĠN uit
ĠH ell
ad dition
Ġcont ente
Ġmont agn
Ġmal t
Ġinf lig
Ġop Ã¨re
Ġven ues
Ġeng ins
Ġrespec tives
ĠrÃ©t ros
opÃ©ra tions
Ġfoss Ã©s
Ġpun ique
ĠPau lo
Ġquotidienne ment
h ire
Ġ rib
is ol
al ter
Ġb rique
ĠA vi
Ġfor fait
Ġfin anc
Ġst atique
ori us
tic s
sionn elle
Ã©ch anges
ĠrÃ©uss issent
Ġcous ine
Ġsalari Ã©
ĠmathÃ©mati ciens
ĠprovenÃ§ al
ĠprÃ©rog atives
5 5
es calier
ĠB R
ac tes
ĠD ix
ĠD ave
Ġcons ci
ĠLe f
Ġ17 50
Ġvis itÃ©
ĠCom Ã©die
Ġfinanci Ã¨rement
ĠdÃ©clar ent
Ġintro duction
Ġfro ides
ĠcÃ©lÃ©b rÃ©e
ĠvÃ©ri fication
Ġsoup le
ĠhÃ©ri tiÃ¨re
Ġfroid s
ĠAf ghanistan
ĠÃ©dit ori
Ġbol chevi
er tion
us ions
ais ance
ĠdÃ©c roche
ĠI C
Ġes qu
Ġpouv ons
Ġbou es
Ġfai blement
Ġconsomm er
Ġ178 8
ĠcollÃ¨ gue
Ġsensi b
Ġdiplom ate
ĠGren ade
Ġimmob ilier
Ġaudio vis
Ġvuln Ã©rable
mble don
Ġbombardi ers
Lit tÃ©rature
au ban
ĠB out
ĠF ul
Ġremp ortÃ©e
ĠprÃ©sid Ã©e
quel ine
ĠpÃ©n Ã¨tre
Ġemb lÃ©matiques
Ġenregistre ment
ĠrÃ¨gle ments
Ġcoul oir
Ġcryp te
ugu en
ĠÃ©phÃ©m Ã¨re
f le
Ġv ertes
li o
ĠG am
Ãī thiopie
oph ysique
anti quitÃ©
Ã« r
Ġhos tilitÃ©s
C onn
a Ã©ro
ur p
ĠR an
Ġann uels
ss Ã©e
Ġren versement
Ġvers er
ĠdÃ©f ensive
Ġdur a
Ġprog resser
ĠÃ©conom ies
ĠmÃ© fi
Ġlongue ment
Ġtent ant
Ġgla ciers
Ġrecon quÃªte
ĠMul house
ĠdÃ©centra lisation
ĠSue z
C o
Ġt oponymie
ĠV ier
Ġres piration
ĠGu adel
ĠdÃ©m ographiques
Ar d
Ġpri Ã¨res
Ġint ers
Ã¡ r
atta quant
ĠconsidÃ©ra tions
Ġ178 3
Ġsing uli
Ġ177 0
ĠÃ©limin ation
ĠMiss ouri
Ġaudi ence
Ġboute ille
ĠClem enceau
er mes
Ġv ierge
ĠS ous
ĠB it
Ġou i
ĠD y
ĠN ath
ill Ã¨re
ad ress
ĠI N
Ġman ne
Ġchamp ignon
Ġfix Ã©s
ancien nes
Ġ181 9
Ġmodifi Ã©s
App le
Ġcompati bles
Ġrume ur
ĠVik ings
ĠfraÃ® che
accum ulation
A B
C ol
h Ã©b
ot on
im Ã©
man e
ia o
exist ent
Ġmagn Ã©t
Ġrappel Ã©
ĠconsÃ©c ration
Ġromp re
ĠgÃ©nÃ©ralis Ã©e
ĠMong olie
ĠspÃ©cific itÃ©
q i
an alys
de bourg
and ball
ĠV or
Ġesp oirs
Ġquit ta
Ġprofond s
Ġexpli quÃ©
accus ation
Ġintr ins
ĠhellÃ©n istique
Ġcompl Ã©tÃ©e
ĠPÃ©l op
Ġdiverg ences
ĠdÃ©barrass er
affron tement
ĠMoÃ¯ se
D avid
Ġd ote
Ġs Ã©g
ti te
om ery
ant on
Ġtra duite
min ster
Ġindi ennes
Ġfac tions
Ġprotest antisme
empl oy
ĠInter nationale
ĠrÃª ves
Ġtherm od
Ġcyl indre
Ġrecens Ã©s
Ġastron autes
ĠJi ang
ĠtibÃ©t ain
Ġauth entique
Ġdin osaures
ch ange
og Ã©
ĠrÃ©g ner
Ġaut oc
Ġcap teurs
Ġmen tions
inst ance
Ġ0 1
ĠAd rien
ĠhÃ´ tes
Ġvo il
Ġmatern elles
Ġpav illons
Ġhon or
ĠmÃ©tropolit ain
opt Ã¨res
ĠWi mbledon
Ġholland ais
E u
c tives
f r
i j
Ġs at
ar tÃ©
ĠM asters
ĠH aÃ¯
ĠV ancouver
ad y
ass ins
Ġop tiques
ame au
ĠCon rad
Ġval u
ĠdÃ©rou te
Ġsouhait Ã©
Ġenvironnement ales
ĠGir ard
Ġordonn a
z es
Ġc Ã©lib
Ġcl avec
Ġro ses
ĠZ ola
Ġsal ons
Ġbr ise
Ġmentionn Ã©s
Ġfum Ã©e
Ġcaptur Ã©s
Ġc ube
Ġt orp
Ġh uguen
ette ment
Ġst Ã¨le
Ġpos ent
Ġpos tal
ĠnÃ© bule
rim Ã©
Ġvis uel
Ġcro ate
Ġw estern
Ġposition nement
Ġcircul ent
Ġconfir mation
Ġprotest ation
ĠperÃ§ oit
ĠVir g
Ġanalog ique
ĠMold avie
ĠSier ra
u or
Ġc aisses
ur ge
ĠG auche
Ġti rÃ©e
Ġangl ophone
Ġratta chÃ©s
tig one
ĠJu illet
ĠHug h
Ġexerc Ã©e
ĠNÃ© er
Ġengl obe
Ġjo indre
Ġparag raphe
ĠHous ton
Hen ry
c tÃ©s
j eu
y lÃ¨ne
Ġd igne
et he
un ay
ĠP is
ĠR al
app uyer
tr um
anc Ãªtre
esp aces
Ġconcent rent
ĠÃ©quip Ã©es
ting s
Ġordin aires
enh ague
ĠFL N
ti cole
ĠE C
tif ier
Ġcor ro
yp t
uv re
ĠprÃ©sid entielles
ĠÃ©conom istes
aill on
ĠÃ©ch ouÃ©
Ġbl as
Ġconsomm Ã©e
haus en
Ġminor itaire
Ġrebaptis Ã©e
ĠprÃ©fect oral
un k
Ġb Åĵuf
ĠR ai
ĠT uil
ĠV ig
ad or
erre r
Ġvis Ã©e
eu il
ĠPi Ã©mont
hi pp
ĠintÃ©g ration
ĠMin h
ĠÃ©limin atoires
ĠprÃ©al ablement
Ġsurpl omb
d ans
Ã© um
Ġp Ã©ti
si bles
ĠL er
ĠV oie
ph rod
ĠÃ©lect ricitÃ©
lin aire
Ġlois ir
Ġprol Ã©t
ĠlatÃ©ra les
ĠChÃ¢te auneuf
ar tier
Ġdu rement
ne c
Ġch Ã´me
Ġj oign
ot ti
Ã©n in
ĠJ ur
um ann
Ġdis si
Ġcor nes
Ġlog arith
ĠCor be
Ġrev int
ĠPl aine
Ġemb au
Ġcab ine
ĠSah ara
ĠjÃ©s uites
on tin
in iÃ¨re
Ġf Ã©ro
ĠA OC
ĠR im
ĠD ani
ph ant
iss a
ori o
ĠMor ti
Ġall aient
Ã©si en
Ġenvironnement al
ĠdÃ©v oile
ĠhÃ©b raÃ¯
espi erre
ĠSanti ago
Ġd orÃ©
ie z
Ġg endre
ĠrÃ© agir
Ġar ron
ĠrÃ©p ubliques
Ġco hÃ©sion
Ġpi Ã¨ge
yn am
Ġcad av
ĠopÃ©ra s
Ġaf ro
Ġhabitu el
ĠHit ch
Ġsax ons
cht chev
Ind ustrie
ĠCot entin
ĠthÃ©rape utique
ĠprÃ©voy ait
rocarb ures
t rop
u ent
ri o
Ġra j
ĠrÃ©g ression
Ġat ome
lÃ¨ rent
ĠnÃ© f
ĠdÃ©ta illÃ©
Ġmanifest ants
Ġdiss oute
Ġral ly
ĠJuli a
Ġamen er
ĠFland res
Ġench Ã¨res
Ġsab re
ĠisraÃ©li enne
Ġadj ac
Ġtremb lement
A V
Î µ
Ġle ctures
al tern
Ġpar itÃ©
as u
Ġre quis
ĠT a
Ġchar me
Ġfig urer
ĠNic ole
Ġsing es
Ġsenti er
Ġcass ation
ĠmillÃ©n aires
ĠNaz aire
ĠNiger ia
Ġtechni ciens
m ore
ĠJ our
Ġmar Ã©es
Ġimp Ã´t
ing Ã©nieurs
ĠY ann
Ġplan Ã©taire
ĠÃ©qu estre
Ġtravaill ait
ĠMarc us
ĠMac intosh
Ġaccompagn er
Ġfolk lor
Ġglu cose
ĠMoz art
rar ouge
ĠRÃ©m y
ĠGuadel oupe
U r
Ġs pr
ran us
Ġpro jections
ill usion
Ġat traction
Ġsupp rime
aÃ¯ s
Ġrencont ra
Ġdessin er
ĠSu Ã©d
ĠWe hr
Ġaccueill ant
Ġpharmac ie
Ġabsor be
A lex
U T
l ades
z at
Ġm ond
est hÃ©tique
ĠPar t
Ã©v aluer
az a
ĠMont mar
Ġcad avre
Ġpot entielle
Ġmaxim al
Ġexplo itÃ©es
Ġrece vant
Ġcav itÃ©
Ġparent h
Ġvolc aniques
ĠRoll ing
ĠcÃ©p ages
ĠGasc ogne
9 9
en ko
ra di
Ġn as
ĠA mis
am or
Ġvi rage
Ġfer miers
Ġtourn Ã©s
Ġfl ag
Ch ap
Ġdat er
ĠDi ane
Ġmassi ves
Ġling u
Ġdevi enne
Ġfores tier
ĠCast ro
ĠprÃ©cur seurs
mou th
Ġressembl ance
ĠC ay
Ġdi able
Ġter roir
ĠO cÃ©
amp li
Ġrencont rÃ©s
ĠAnt oinette
amme d
hib ition
ĠTch ad
Ġdynam isme
ĠvÃ©c ut
Ġlibert aire
ĠFore z
Ġcontradict oires
i ri
z t
ĠL up
ons o
ob lige
Ġmon oph
Ġinc arc
ĠRe in
ĠBar be
Ġcyc lisme
org ane
imm ob
Ab bÃ©
Ġserv aient
Sec onde
ĠvÅĵ u
h ygiÃ¨ne
Ġcon duits
ĠJ ust
Ġpubli ent
Ġvi es
Ġbou tiques
ĠSh er
Ġcorrespond ances
Ġvoy ager
Ġtu ant
ĠRen ard
Ġfix ation
Ġrassemb lent
ĠÃ©dit Ã©e
imag ination
Ġhorizont ale
hos tilitÃ©
Ġpoign Ã©e
I ci
o on
Ã Ĥge
ĠS anc
Ġin j
ĠG est
Ġloc ation
ĠÃ©tudi ante
Ġcontinu ant
tell aire
ĠPan ama
ouk ov
Ġracc ord
Ġfal aise
Ġta ches
ĠUnivers al
Ġessay Ã©
Ġrecycl age
U C
c en
z hou
Ġs lave
ĠL andes
ĠG an
Ġrec rÃ©
Ġcan icule
Ġliv ret
ĠDe f
ĠQ ues
Ġmaint enue
ĠStu dios
ĠCop enhague
Ġengend rÃ©
ĠmÃ©tab olisme
AmÃ©ric ain
affich age
T Ã©lÃ©
en ni
ul c
ut able
ĠD ro
ins ky
Ã©c oulement
ĠrÃ©g ie
ĠdÃ©but ent
Ã©ch antillon
Ġint Ã¨grent
Ġconserv atoire
ĠdÃ©couv rit
ĠÃ©n um
Ġreli ent
Ġ181 1
Ġfus Ã©es
Ġdispon ibilitÃ©
Ġmodifi Ã©es
atori ale
ĠpersÃ©cu tions
ĠphylogÃ©n Ã©tique
ĠAvent ures
Manif estations
B en
G estion
ap olis
ĠPar adis
Ġam ant
ĠrÃ©f ract
Ġouv rent
oris Ã©s
inter romp
ĠphÃ©nom Ã©n
Ġpeint s
ĠamÃ©n agÃ©e
ĠRw anda
A llemand
T ourn
n elles
Ġd ragons
Ġs inc
ĠT as
Ġpr enait
Ã® tres
oli ve
Ġph ares
Ã©p idÃ©mie
lan ca
omb es
ĠdÃ©m ante
lic a
Ġ12 00
Ġven geance
Ã©lect ron
Ġmentionn er
ĠAc ade
ĠCarn ot
Ġsoph is
ĠmÃ©contente ment
ch in
Ġnom ma
ĠK ey
ing ues
Ã©l y
Ġaccep ta
Ġenseign ant
Inter nationale
Ġinfin itÃ©
Ġadress Ã©e
Ġconstruis ent
affront ent
Ġl ond
on al
al ies
ĠrÃ© tra
ĠG un
Ġan orm
ĠJ r
ĠJ ours
ad mi
Ġmar ionn
Ã©g er
ob st
ec que
Ġdiff Ã©remment
Ġfil tre
amp e
ĠZ one
Ġliv rÃ©e
Ġatta chÃ©s
osc ope
ĠrÃ©pond ent
Ġdispos Ã©es
Ġenvis agÃ©e
ĠKe vin
ĠMur ray
Ġsax onne
ĠArn old
osex ualitÃ©
sen al
Ġralenti s
Ġhyb rides
Log ement
isig oths
ĠvoÃ» tes
Ġtubercul ose
Ġa irs
ĠdÃ© duire
Ġch antÃ©
og a
Ġav enir
rou chtchev
Ġacc lam
ĠÃ©p au
Ġbois Ã©es
ĠQ atar
ber ge
Ġalg Ã©rien
ĠÃ©car tÃ©
Autre fois
ĠrÃ©mun Ã©ration
oxyd ation
ĠPenns ylvanie
Ġg h
ĠC urie
ĠS Ã©curitÃ©
ĠP erre
ĠB Ã©r
Ġh erm
ord res
Ġob us
Ġdur Ã©
ĠÃ©n ig
Ġforc Ã©e
ĠBol iv
Ġabe illes
O xford
Ġ omb
Ġb Ã©bÃ©
Ġg ains
ĠP ow
pe urs
Ġnombre use
ĠPar me
ĠZ hou
Ġoccup ait
ĠprÃ©cis ant
Ġriv er
Ã©lect rons
Ã©tend ait
Ġimplant Ã©s
car Ã©
zy mes
Ġrob ots
Ġattent at
Ġautob iographie
Ġremb our
ĠFay ette
Ã©ni ents
ĠCerc le
k ir
ĠF ace
Ġtemp Ã©rÃ©es
Ġsub di
Ġrapport ent
Am our
ect or
Ġclasse ments
Ġhabitu des
ĠBur ton
Ġmusulman es
escl aves
ĠÃ©mo tions
ĠNant erre
j ord
v aire
Ġde uil
ar rive
ĠÃ© lis
ĠS che
ĠM ust
ĠP op
ĠJ ay
Ã©c ar
Ġam or
enti s
Ã©v itÃ©
ĠTh ess
Ġfonction nent
Ġcondam nÃ©e
ĠFl avi
Ġminim al
Ġidentif iÃ©e
ĠmÃ©diÃ©v ales
inves ti
Ġtroupe aux
ĠcÃ©ra miques
Ġgue ules
antis Ã©mitisme
v illiers
an um
Ġqu alit
tu le
onn Ã¨se
ĠK ans
Ġinter valle
ĠO ld
ĠLe d
Ġvi endrait
ĠU E
Ġcapit ulation
Ġconsac rÃ©es
Ġfix Ã©es
ider ot
Ġperdu es
Ġtit ulaires
Ġastron omes
Ġprogress iste
te il
En core
ĠN ight
opp os
Ġ4 50
Ġrest ants
Ġbou lever
Ġadministra teurs
ĠmÃª lant
Ġdel la
Ġara bles
ĠWh it
Ġmerc redi
Ġhor aire
Es prit
Ġblind Ã©s
Ġdign itaires
ĠSÃ© cession
Ġlan Ã§ant
Ġjume aux
Ġcontref orts
on ctions
ar ing
it arisme
Ġen z
ĠC ours
ĠK in
ron ologie
Ġcor romp
od on
Ġdro ites
Ġcou lis
ĠintÃ©g rÃ©es
ĠintÃ©g rale
Ġaliment er
Ġfisc ales
Ġaltern atives
Ġrecue illir
ĠcÃ©rÃ©b rale
ĠdÃ©lic ate
Ġglac es
Rich ard
ĠsuprÃ© matie
S uite
Ġs qu
au dio
ĠM ission
st adt
um age
Ġimp orte
Ġquel les
Ġmen h
Ġperd ure
ĠIs ra
Ġterritori aux
Ġpoursu ites
Ġchass Ã©
ĠUnivers ity
GÃ©n Ã©ralement
ĠBag dad
ĠindÃ© termin
Ġtoul ous
f Ã¨re
m ith
ers t
ff i
Ġh y
ĠI v
ass ocie
Ġrec ourir
Ġins urrection
Ġmultip lier
Ġul tÃ©rieures
ĠmÃ©diÃ©v aux
Ġforc Ã©s
ĠMas ter
Ġpen sionn
ĠGaz a
ConsÃ©qu ences
T er
is ne
ĠS lov
am is
ens ui
ĠV a
Ġinst aure
Ġsympath ie
ecd ote
ĠcÃ©l estes
S L
r iste
en vergure
ch s
ĠdÃ© st
Ġb uste
ĠM ille
Ġin visible
ĠF ron
op timis
ĠD Ã©si
Ġcomp licitÃ©
ĠÃ©g aux
ĠAn ciens
Ġcour tis
ĠNe v
ke ley
ĠMor gan
ĠcomplÃ¨ tes
ĠDel hi
Ġryth mique
Ãīv angile
Ġcontraint s
Ġflam ande
ĠinÃ©d its
Ġthr iller
G B
u et
u tion
Î »
on ia
ĠrÃ© clament
Ġex ag
ĠV ass
Ġju gÃ©es
Ġcan onique
Ġlanc Ã©s
Ġbure auc
Ġmontagne ux
ĠdÃ©cor Ã©e
ĠAp ollon
Ġrap iditÃ©
Ġ176 3
Ġcommunaut aires
Ġpluvi omÃ©trie
ĠColor ado
U P
ou a
Ġau g
ab lanca
Ġpas sions
ĠN ab
Ġparti el
um Ã©e
ĠI ss
Ġcar ross
amp litude
Ġcro yant
inc ons
Ġoblig atoires
ĠdÃ©ch Ã¨
ĠCo ok
Ġ177 5
Ġindig Ã¨ne
Prin cipe
Ap ollon
ĠLaw rence
Ġbisse x
d as
Ġl ant
Ġl omb
ĠS ans
end el
Ġsi lex
Ġdisp utÃ©e
Ġvoc al
Ġcultiv Ã©s
Ġsubst anti
Ġimag ine
Ġmos aÃ¯que
ĠAbd el
hÃ©roÃ¯ ne
indou isme
P ublic
S ervi
b u
c tivitÃ©
que z
ĠT own
Ġra jou
ĠK urt
Ġtrans mise
ĠâĢ ¢
ĠAl c
ah an
Ġcentra lis
ĠComm and
Ġfourn isseurs
ĠPat rice
Ġsouff ert
Ġconten ait
Ġryth mes
ĠPS G
Ġdossi ers
Gu erre
Ġanarch istes
ĠLad y
atÃ©ri el
en o
er ons
as tÃ©roÃ¯
ĠC ort
ĠS aul
ĠB ros
ĠT all
Ã©t able
ob sc
Ġvi ticulture
Ġjou ait
Ġprob abilitÃ©s
Ġrespec te
ĠBas tille
Ġdiffus Ã©es
Ġchev au
ĠWe i
ĠÃ©quival ents
Ġabrit ant
Ġfili ales
ĠTosc ane
V A
in dic
ol id
ĠC rÃ¨te
Ġpl Ã©n
ul tÃ©
ĠT rist
Ġpe indre
ver sible
Ġcou reur
exp ulsion
ĠCol bert
ĠNew s
ĠÃ©m iss
Ġdirig Ã©es
Entre prises
Ġrecommand ation
Ġhor log
ĠlaÃ¯ cs
Th omas
Ġpratiqu ants
Ġannon Ã§ant
Ġvacc in
Ġnapp e
Ġvernac ulaire
Ġadep tes
Bern ard
s o
ĠdÃ© d
tÃ© m
ĠL Ã©man
os ter
ois sons
ograph iquement
ath lon
ox ie
ĠBar ry
Ġrev Ãªt
Ġpal ette
och i
Ġeng agÃ©es
ĠQ in
Am sterdam
Ġnorm alisation
Ġcrimin els
ĠRD A
Ġcaoutch ouc
ĠPÃ©lop onnÃ¨se
in ge
Ġla mb
ĠdÃ© vi
ĠM ount
tr ant
Ġcou n
ĠrÃ©alis a
Ġmes urÃ©
Ġsynta x
m acht
es el
Ġv ogue
ut u
ĠA T
Ã©lÃ© vation
Ġlib Ã©rÃ©s
ov re
he ct
Ġanim ations
Ġprovo quÃ©e
Ġpil ier
Ã©si enne
Ġlic encie
Ġcaus er
Ġcanadi ens
Ġbru te
gra de
Ġchronique ur
ĠConc ert
Ġgaran tit
attache ments
b at
ĠK ath
Ġacc umul
ud son
ĠcÃ´ ne
Ġk e
Ġcommence ment
ĠEn d
ĠLi bre
ĠidÃ© ale
ĠsÃ©p ultures
effond re
Ġconvi ction
Ġprovinci ale
ĠdÃ©char ge
M Ã©th
R attachements
h at
j ar
at tra
ĠG ris
Ġmo elle
Ġav ocats
Ġte ct
ĠAn vers
Ġ178 7
Ġcaval ier
Ġflam mes
Ġpist olet
ĠPD G
Ġnourris sent
Å ¾
Ġa isÃ©e
Ġr ente
ĠG P
ĠJ ason
ĠE p
ĠE le
Ġsitu ant
Ġcap sule
Ġpi onnier
land s
inst abilitÃ©
illi on
Ġve ine
ĠÃ©n oncÃ©
ald o
ĠTe d
Ġchev et
Pro b
Ġconfond ues
DiffÃ©r ents
k es
Ġf oli
Ġb ann
ĠP ath
ĠB ris
ĠG av
ĠH Ã´tel
Ġcl ans
An dre
Ġorganis ateurs
Ġpsych analy
Ġrespec tÃ©
ĠidÃ© ologie
Ġbudg Ã©taire
Ġlaiss a
Ġgui des
Ġsoix antaine
ĠMit ch
Ġinfin ie
Ġminor itaires
ĠCi el
Ġparl ait
apar theid
Ġjurisprud ence
Ġcadav res
ĠWehr macht
o ques
ĠS Ã©le
ĠG ue
ois se
Ġcomp as
lo o
Ã©li miner
Ġmot o
til l
Ġphot ographique
Ġrig ide
Ġexcessi ve
b et
Ġre quiert
ĠL R
ĠA lle
ĠR un
ub is
ct or
ici des
Ġpers pectives
aÃ® nÃ©
ĠdiffÃ©r encie
ĠAr mÃ©e
Ġplant ation
ĠTib Ã¨re
Ġchor Ã©g
O d
Ġs ets
ĠÃ ģ
Ġb oxe
Ġapp ortÃ©es
Ġcons omme
iss age
sionn el
ovi d
alog ie
appar ente
Ph il
Ġprolong Ã©
Ã©mi es
ĠJon athan
Ï Ħ
ĠC onn
ers ch
Ġst ars
int Ã¨gre
ĠMar tine
omb rables
Ġsign alisation
Ġsau ce
ĠapprÃ© cie
Ġtunn els
arrÃª tÃ©
Ġexcell ente
ĠMorti mer
a Ã©rod
n istes
Ġen zymes
Ġpar ap
ĠÃ© pi
ĠP lessis
Ġh Ã©p
ĠG erv
Ġtra duits
Ġav ancer
Ġor nÃ©
Ġtemp Ãªtes
Ġsec rÃ¨tement
ov ine
Ġgr ise
Ġcanton ales
auss Ã©e
ĠPic asso
Ġenseign er
Ġparcour u
Ġflui des
Ġclandes tin
g ang
m Ã©n
n ing
il Ã©s
ch imie
ĠM C
mi re
Ġcomm et
ĠCh av
ĠMar ti
ĠMar ius
Ġpermet taient
ĠdÃ©f ensif
Al ph
Ã©le ver
aff ec
Aut rement
Ġtransf Ã©rer
ĠÃ©tablis sent
ĠdÃ©pend ances
Ġinspi ration
ĠfÃ©min ins
ĠDou bs
ĠÃ©loign Ã©s
ĠquÃ©bÃ©c oise
ĠÃ©duc atif
Mon uments
Ġproli f
w w
ĠÃ© du
ĠT ong
ter dam
ari es
ĠUn iversitÃ©
Ġ16 00
Ġcomb inÃ©
ĠCl aud
ĠSe dan
Ġcentra ux
Ġsex es
Ġrecons titution
ĠprÃ©par atoires
Ġradi oph
ĠWest minster
Ġfaute uil
Ã©par gne
ĠagrÃ© able
ĠDor oth
ĠbrÃ©sil ienne
ĠhiÃ©ro glyph
N o
R Ã©c
c it
Ġ Åĵuv
ti endra
Ġb amb
Ġin att
Ġfor ger
Ġad ministre
ĠZ hu
Ġinst aur
Ġviv ace
och ond
Ġmeur tres
Ã¼ h
Ġcer f
ĠNam ur
hom osexualitÃ©
ĠArn aud
Ġspontan Ã©e
ĠMontmor ency
ĠSuÃ©d ois
B ush
el ier
Ġb Ã»
ĠM ines
Ġo d
Ġann ulÃ©
Ã©m Ã©n
Ġti gre
Ġaff ection
ĠAr s
Ġdou tes
ĠRob espierre
Ġnorm ales
oÃ¯ sme
Ġsuivi rent
ĠÃ©li mine
Ġincl ure
Ġconfond us
Ġrecon ver
Ġsyllab es
Ġcort Ã¨ge
B ar
en Ã§on
ent endre
ra ult
at z
Ġpl Ã¢tre
ĠB aie
mi um
Ã©ra ires
ĠH isp
ond ins
An gl
Ġvis c
arg o
af t
ĠSc ot
imm ense
bo ok
Ġom n
H ommages
e f
Ġun iques
Ġn atif
ĠA us
mi c
ĠE ver
ate m
emp loie
Ġad jectifs
ĠJe unesse
ĠpÃ©ri odiques
Ġinf anti
ĠCar pent
Ġatt ente
Ġautor ou
Ã©lect ro
ĠrÃ©parti tions
ĠTra jan
ĠamÃ©li orÃ©
Ġchan oine
ĠdÃ©mar rage
ji ang
Ġenqu Ãª
insc rire
astron ome
ĠStanis las
I L
L ui
n ay
is olement
Ġm ast
Ġsu m
ĠV oir
Ġtou chÃ©s
Ã©c oute
ĠK ens
Ġsc ores
lex e
ry th
Ġpat ois
Ġbou tique
Ġorient aux
Is lam
rup tions
ĠBour se
ĠlibÃ©ra les
ĠpÃ©tro lier
Ġexerc ent
Ġsouter rains
ĠPra des
Ac tivitÃ©
Ġcatast rophes
Ġmagist rat
Ġspontan Ã©ment
Lang ues
Ġcaroling ienne
Ġso ja
ĠchÃ¢tellen ie
R Ã©volution
in sectes
Ġm Ã¨res
Ġin jus
Ġpas sif
ert on
Ã©m igration
Ġph al
enti citÃ©
opp ort
Ġsou ches
Ġsitu er
ĠU rs
Ġ10 1
Ġgar diens
ĠJac queline
actÃ© rie
Ġmas ter
ĠÃ©criv ait
Ġspati aux
Ġpoursui v
Ġcam ion
Ġregard er
ÅĴ dipe
ĠÃ©valu ation
Ġcla use
Ġraci ale
Ã©tablis sements
argu ment
ĠcloÃ® tre
O uv
y mes
Ġd orÃ©e
Ġp aque
Ġp yth
ĠF R
ĠG ot
og lob
ĠCh and
Ġser gent
ann erie
ann ulation
Ã©rÃ© ment
Ġvill as
Ġdispar ue
Ġorient ations
ĠrÃ©di gÃ©e
dy ssÃ©e
Ġmig rants
Ġmascul ins
ĠtÃ©lÃ©ph onie
atti rer
á» ĩ
Ġmarti aux
Ġbov ins
Ġcompatri ote
Ġscal aire
k as
un Ã©
ĠB ush
ff aut
ard on
ss ant
Ġri p
Ġmis sile
ow a
ĠentraÃ® na
ha fi
ĠCal vin
Ġnar ration
Ġauxili aires
Hum anitÃ©
ĠHitch cock
F er
H Ã´
Ã ¬
Ġp ana
Ġs tig
ra ires
Ġpar odie
Ġg au
ĠF aou
ill ie
um in
Ġmin ce
Ġdisp utent
Ġhabit Ã©e
Ġporte feuille
vre ux
arn ais
Ġmonument ale
Ġherb acÃ©e
Ġindic ation
Ġobs ol
Ġcylind res
ĠdÃ©form ations
Ġfati gue
ĠMore au
Ġcontex tes
rÃ© n
Ġcon duites
Ġin exist
ul ly
Ġma us
Ġrep orter
Ġrep ousse
Ã¯ t
Ġco teaux
ĠÃ©p aisseur
Ġparticip ations
Ã©lÃ¨ vent
arg on
Ġdisc ret
Ġtransf Ã©rÃ©s
Ġinspi rÃ©es
Ġcivi ques
Ãīt ab
Ġrenouvel Ã©e
Ġrenouvel ables
Ġbrut ale
Typ es
Ġfall u
ĠdÃ©nomin ations
ĠPoin carÃ©
Ġm uti
om Ã¨tres
ad in
Ã©m en
Ġinter dire
Ġsec te
Ġcad ette
ĠCom ics
emb ry
Ġinstru ction
Ġinflu ent
Ġfavoris ent
ĠSi hanouk
Ġinconn ues
ĠByz antins
empar ent
Ġpiv ot
ĠchÃ´me urs
M en
entre pr
opul aire
if Ã¨res
Ġent raine
Ġfac iles
ĠSec rÃ©t
Ġtravaill iste
Ġmajor itaires
Ġattest ent
ĠTrans ports
Ġarchitectur ale
ĠAub in
ĠTou raine
Ġoubli Ã©
Ã©loign er
Ġclavec in
Ġl ier
ul aritÃ©
Ġh tt
ĠF ound
op l
ĠH um
Ġte inte
ĠLe ibniz
enn Ã©
ĠU p
Ġrou x
Ġqualif ications
ĠMi y
Ġfortif iÃ©
Ġaim Ã©
ĠArd ennes
Ġberb Ã¨re
ĠTuil eries
Y ves
us tement
ĠB ry
ĠB rive
ĠF ili
ĠG oth
ta Ã¯
Ġconc ord
Ġpoli ti
Ġcour ir
omp tion
enn ant
Ġinc ite
amb iance
aiss ait
ĠTur ner
ĠdÃ©plac ent
ĠRac ine
Ġloint ain
Ġimmig rÃ©s
ĠChÃ¢tel et
ĠpÃ©nÃ©t ration
Ġaccess oires
ĠNem ours
G A
Ġpar d
Ġv ase
as o
Ġb uis
ĠdÃ©b ouche
ĠnÃ© olithique
Ġquel s
Ġpoly ph
Ġbouddh istes
ĠSac rÃ©
ĠMoh ammed
Ġimme uble
Ġincont ourn
ĠvÅĵ ux
Ġinfec tie
ĠP es
Ġin versement
ĠB ouv
Ġj ung
ut te
ĠA er
ĠF en
og er
ĠN R
ĠK ol
ĠrÃ©sid us
Ġretra ce
Ġtransform Ã©s
Ġexclus ive
Ġnaz isme
ĠchÃ¢ t
Ġsanc tuaires
Ġges tionnaire
Ġagran di
Ġdiag ramme
ĠMontmar tre
ol ite
ĠdÃ© lais
ĠC ovid
ĠS ap
li on
ĠT od
Ġsa p
Ġcont este
Ġrep oser
ĠdiffÃ©r entielle
Ã©li ques
ĠgÃ© org
Ġmul tination
ĠBer keley
Ġvra is
Ġfour rure
Ã¨g ent
ĠpossÃ©d aient
ĠÃ©vent uel
ĠmÃ©l odie
Ġvolc ans
ĠFis cher
ĠfÃ©cond itÃ©
L ar
f ra
w al
ĠdÃ© tra
pp er
ob les
Ġreven ant
ĠDi oc
import ation
ĠBl ake
ĠCo oper
ĠSta dium
Ġcommiss aires
Ġprestig ieuse
Ġtue ur
ĠrÃ©clam ant
ĠDr Ã´me
Ġincont est
Ġcoute au
ĠMeur the
Ġlingu istes
T he
b ar
al phab
ch arg
Ġre form
ab us
ff es
ss is
th on
aff ect
rich t
ĠpÃ©n ale
Ġdiver tissement
ĠJo achim
Ġrenouvel er
Ġperturb ations
Ġmons tres
ĠWeb er
Ġrenvers Ã©
Ġobs Ã¨ques
Not ons
ĠPlut arque
Ġparadig me
Ã ½
ar ise
om Ã¨res
ci que
ag gra
En c
Ã©m ur
int s
Ġinvent aire
Ġpa quet
ĠVil aine
ĠÃ©vang Ã©lique
Ġpourv u
Parc ours
V al
c ente
qu ois
un ier
ur ne
el se
ul u
ĠprÃ© voir
Ã©n at
Ġapp ortÃ©e
Ġrep Ã©rer
od Ã©
ĠGu ad
pi ers
Ġgrande urs
ĠdÃ©fin issant
Ġroy alistes
Ġlit urgique
Ġreg ain
orie uses
Ġatta chÃ©e
ĠGre at
Ġrespect ant
ĠÃ©lab orÃ©e
ĠÃ©nerg Ã©tiques
Ã©quip ier
ĠOu en
Ġprovinci al
Ġrub an
Ġillust rÃ©e
ĠAmi ens
Ġs ilice
ol ont
ĠS Ã©l
ĠdÃ©c ad
Ġmaj uscule
aul d
Ã©ch Ã©s
Ã©ti es
Ã¶ l
Ġdesser vent
Ġmac ro
H Ã©raldique
P ont
g y
h y
imp osent
ĠdÃ©c Ã©dÃ©e
ĠW ang
Ġcol oration
Ġconst antes
Ġlong Ã©vitÃ©
Ã©l ine
Ġgra des
amb a
Ġliv rÃ©s
ĠBret ons
ĠSp in
ĠJuli us
Ġbouddh iste
ĠprÃ©con ise
ĠsuccÃ©d ant
Ġclavi ers
F L
V ille
z ar
es qu
om ment
Ġsous tra
ĠW ur
Ġti trÃ©
ĠPar ker
Ġesp Ã©rant
Ġsign ataires
Ġexist aient
Ġvoul aient
ĠAlexand rie
Ġneur ones
Aff aire
ĠByz ance
ĠFleur y
Ġsembler ait
ĠS ri
ĠT Åį
Ġsa vent
Ġmar di
Ġinter n
Ġprop age
Ġjou a
ĠU lysse
Ġcrois iÃ¨re
Ġrenf ort
ĠChamp ions
ĠdÃ©li mitÃ©
ĠMus ique
Ġexplo itÃ©s
ĠMc K
Ġferme ment
Ġimpos Ã©es
ĠDie ppe
ĠInd ochine
ĠBun des
Ġpulmon aire
ĠSoy ouz
l ag
y Ã¨re
y rie
Ä ±
ro gÃ©
ĠJ ourd
ĠV esp
ad ulte
id um
Ġst agn
Ġti rent
ĠSe attle
ĠÃ©lect ri
Ġsecond s
ĠSch neider
Ġbl og
Ġeffectu ent
Ġcit ations
Ġferm Ã©s
Ġdiss out
Ġatti rent
occ itan
ĠRod olphe
Av ignon
ĠcoÃ¯n cide
Ġchromos omes
ĠmÃ©dioc re
Ġcuri ositÃ©
ĠsÃ©g rÃ©gation
ĠNÃ©er landais
es calade
in ondation
ĠP ant
ĠE instein
ath a
ath ie
Ġoff ices
Ġag issant
Ġcontra ctu
Ġlit urgie
ĠrÃ©un ification
Ġtermin aux
Ġoct roy
ĠTerre ur
Ad am
ĠDou ai
ĠPic tures
Ġimplant Ã©es
Ġpou mons
ĠLÃ© o
invent eur
ĠBrie uc
ĠÃ©piscop al
Ġrestri ction
Ġempi rique
B i
Ġpar ade
ĠB lu
ĠL ennon
ĠG oncourt
op iques
ĠD ies
ter i
ure mberg
ĠE S
rou x
Ġman quent
Ġmes urant
Ġbat tus
aul in
Ġviv antes
atis Ã©e
Ġhabitu elle
Ġpel oton
Rel ations
ĠingrÃ©di ents
D iv
Ġm irent
ag inois
ĠM ati
Ġra tionnelle
ĠÃ©lev age
Ġconfir ment
Ġjuridi ctions
igh ts
ĠdÃ©cor atifs
ĠPrin temps
ĠÃ©vid ente
Ge orge
Ġressemb lant
Ġisot opes
Ġpelli cule
N ommÃ©
g ard
er res
ĠÃ Ĩ
ĠH MS
Ġpos tÃ©rieure
th a
Ġmin uscule
ĠdÃ©s ordre
Ġve iller
Ġconcent rÃ©
Ġidentif iÃ©es
ĠamÃ©li ore
Ġcam ions
mine ment
Ġment al
Premi Ã¨res
ĠapprÃ©ci Ã©e
Ġrig oureux
Ġsurpr is
ĠpÃ©t ales
Ġmagni fique
Ġmicrop ro
Ġautobi ographique
Ġd oy
it oy
Ġg orges
Ġque relles
ĠF illon
ĠF ren
Ã©n Ã©g
ad minist
ĠÃ©c oul
ĠW y
Ġperm ission
ĠprÃ©sent a
In dre
ide gger
Ġfourn is
Ġbal ay
Ġstock er
Ġsimpli fier
Ġoccasionn ellement
Ġjac ob
ĠBoliv ie
P rix
v ing
Ġb roy
ĠS erg
ĠM ant
ĠM ale
op ort
Ġinter ruption
Ġsou lÃ¨ve
ĠdÃ©par ts
Ġappar ues
Ġappar aissant
In g
Ġdistin ct
Ġmulti mÃ©di
Ġaugment Ã©e
Ġi mb
yr rh
Ġreb elle
ĠOrient ales
itz er
Ġmit ochond
ĠLin nÃ©
ĠMoh amed
ĠÃ©coss aise
Ġhyb ride
g art
Ġp ige
Ġla mes
ur ants
el ine
Ġb oss
Ġg asc
Ġh alle
ĠT ian
ĠD esp
ĠH amp
Ġcar tÃ©si
Ġcor n
Ġvers ants
ĠRoy ale
Ġfourn isseur
Ãīc ologie
ĠdÃ©clin aison
ĠtÃ©lÃ©vis Ã©
alg Ã¨bre
Ġrob ot
Ġflan cs
Ġs tre
is ants
res seur
ĠP ros
Ġsur vit
ĠT ess
ous es
and ro
ĠN P
Ã©m atique
ĠK ai
Ġ17 00
Ġmus culaire
Ġcas es
ĠIn t
ĠdÃ©s Ã©quilibre
ĠRe cherche
Ã©le my
lant a
Ġpor cel
Ġcontribu ant
ĠimpÃ©ri aux
Ġalg ues
Ġmonument al
ĠHor us
Anne cy
ĠÄ Ĳ
M i
ar um
or dement
Ġle uc
ĠP rÃ©s
ul sions
ac er
ĠA L
ĠA tt
Ġinter ven
Ġmil ices
ĠgÃ© ante
Ġpens Ã©
Ġcouv ertes
ĠTer res
Ġmig ratoire
ĠHan ovre
Ġtropic ale
ĠlaÃ¯ que
Ġsymph onie
Ġempre inte
Ã©gÃ©m onie
5 6
ĠÃ© chÃ©
Ġj um
Ġab ri
Ġman uels
Ġvis uels
Ġfer vent
Ġfer tile
aÃ¯ l
ly se
Ġidentif ie
Ġ177 4
Ġ177 6
ĠMax ime
Ġtran chÃ©es
Ġunif iÃ©
Ġcrimin el
Ġmexic ain
ĠmodÃ© lisation
Ġa Ã©ro
ent housi
ĠÃ© ol
as co
ĠB Ã©th
ĠR ick
ĠV o
ĠrÃ©g Ã©n
Ġes pi
Ġacc roissement
Ġper cevoir
oph ilie
Ġfa illes
Ġess aye
Ġcro ient
Ġrev oir
intÃ© rÃªts
Ġferm Ã©es
Ġinten sive
ĠBarb ara
Ġpanne au
ĠFernand o
ĠlÃ© sions
Ġvieill issement
ĠPoli ce
ĠJer ry
Observ atoire
h indouisme
Ġb Ãªtes
Ġb ack
ĠP rop
ĠD aw
Ġcl aires
Ġpo il
Ġcou pole
Ġmari Ã©s
ĠtempÃ©ra ment
Ġcomment ateurs
ĠdÃ©clen cher
Ġamen dement
ĠrÃ©tab lit
Ġprolong er
Air bus
Ġplas ma
Ġbale ine
ĠDak ar
Ġspira le
investi ture
us ser
ĠS ai
sid ence
ass ant
Ġad verse
tionn Ã©s
ĠTh race
Ġjou ets
Ġchar itÃ©
Ġnouveau tÃ©
ĠÃ©ch antillon
ĠmÃª le
ĠdÃ©ta che
Ã©h Ã©ran
Ab baye
Ġconseill Ã©
Ġcroy ait
Ġdoctr ines
Ġcompt able
Ġsacri fices
Comp te
Ġtropic al
Ġgymn astique
R ay
d ite
Ġl isse
un er
ĠP ablo
ĠG end
ĠD ante
ĠN uremberg
Ġra ils
ĠX ML
ok er
As pects
ivi ers
Ġnav al
Ġintro duits
Ġminist Ã¨res
ĠsecrÃ©t ariat
Ġsimil itudes
Ġconnex es
ĠJane iro
obÃ© issance
Ġlibrai rie
Ġterrass es
ĠprÃ©ten tions
ĠAcade my
ĠP Ã©g
Ġo deur
ĠH yp
ĠH usse
int endant
Ġat omiques
emp orter
opp osant
erg y
ĠreÃ§ us
Ġw il
ĠÃ©m ise
Ġqualif iÃ©es
Ġinform Ã©
ĠbrÃ» ler
Ġchoc s
Ġvirtu elle
Ġved ettes
ĠSl aves
Hor us
ĠDÃ©t roit
A le
D ire
D istribution
t ong
en on
ou ze
Ġt amp
Ġson ge
ĠD iderot
Ġex ercices
ĠN ot
Ġcl Ã´t
Ġfon ciÃ¨re
fic ateur
ule ux
Ġeng ager
Ġemb all
emb lÃ¨me
ĠDel ta
Ġdict ateur
Ġblo quer
Ġmu et
imag inaire
Ġpontific ale
ĠMong ols
Ã¼l ler
ĠCarc ass
Ġvirg ule
C or
i tin
ĠS lovaquie
ĠB M
ĠA h
am oto
ĠT erm
onn erre
ĠH istor
ĠO ur
ograph iÃ©
ern et
ĠU SA
crip t
Ch ronologie
ĠÃ©m ises
ĠMichel in
Ġbil ingue
Ġsin us
Ġincar nÃ©
ĠWall ace
Ġbris er
Ġtari fs
affront er
accro Ã®tre
ĠhÃ©braÃ¯ que
m al
r ille
Ã© ge
on Ã§a
Ġc Ã©t
ĠL ois
end ants
Ġann ulÃ©e
ĠW isigoths
Ġam as
tra ge
Ġpor tuaire
Ġlet trÃ©s
Ġintro duire
ĠexÃ©cu tions
OM S
ĠOb ama
Ġrect angle
ĠHon orÃ©
ĠNet work
ĠSpr ing
ĠGroen land
Ġnettoy age
P as
Ġl Ã¨vres
ĠS E
ĠL al
am ende
ic ales
Ġad mise
ĠdÃ©p ense
app ropri
Ġbien veill
rÃ©s is
Ġant agon
duis it
ĠPer rin
ĠLu cius
Ġpay Ã©s
Ġaustra lienne
Ġimprim Ã©
Ġurbanis Ã©es
ĠcÃ©p age
ĠJul ie
Ġpit tor
Ġdramatur ge
y ang
Ġp amph
ut o
ĠW right
Ġpos tÃ©rieurs
Ġ7 37
Ã©li ard
ĠCon qu
Ġhum oristique
Ġcollec tives
Ġvir ul
Ġabond amment
Ġfall ut
Ġconvi ctions
ĠcinÃ© astes
ĠVau ban
k an
Ġen velopp
ĠN os
oc ations
Ġth or
An nex
Al l
ĠrÃ©par ations
ĠdÃ©pend ante
Ġvain cus
Ġpap autÃ©
fait s
ĠvÃ©gÃ©t al
ĠdÃ©cor ations
ĠWe imar
Ġnor rois
Ġassimil Ã©
ĠisraÃ©li en
ĠâĪ Ĵ
H it
c onne
l yn
t our
Ġp Ã©p
al ier
ĠD ag
Ã©g ovine
Ġst alin
Ġy ork
Ġutilis ations
ich i
ak ov
ĠIn tel
ĠNic k
ĠBl aise
Ġmand arin
appell ent
DiffÃ©r entes
r itÃ©s
Ġf Ã©es
ĠF S
ĠG I
ad our
ĠK r
Ġinter cep
ici de
Ġsc ind
Ġmat rices
Ġcontin gent
Ġhum our
urg iques
ĠdÃ©ch iff
Ġang ulaire
ĠintÃ©ress ante
Ġaccomp lir
Ġ175 9
ĠOccident ale
ĠEP CI
ĠPanth Ã©on
A ustra
W illiam
s ou
t Ã¨ques
an aise
le z
ag issent
Ġpro st
ĠB iz
Ġh ymne
ĠprÃ© vision
Ã©n ient
ĠN om
ĠÃ©t endre
ins ertion
Ã©di es
Ġri di
ĠdÃ©f un
Ġca chÃ©e
val ides
ĠAnd y
Ġrenf or
ĠAs tÃ©rix
Ġ178 5
Ġconsul at
ĠBru ges
Ġesc ale
ĠcomÃ©di enne
aig le
Ġrassembl Ã©s
ĠTah iti
ĠMig uel
an ches
ĠdÃ© vers
ĠS qu
ĠrÃ© alitÃ©s
ĠP s
Ġe uro
ind ra
Ġco Ã©quipier
Ġsc rib
Ġemp ires
Ġlib y
Ġcri tiqu
inte lle
Ġcompar ables
[...]
