#version: 0.2 - Trained by `huggingface/tokenizers`
Ġ t
h e
Ġ a
i n
Ġt he
e r
o n
Ġ ,
r e
Ġ s
e d
Ġ w
Ġ o
n d
a t
Ġ .
o r
e n
Ġ c
i t
Ġ f
i s
e s
a r
Ġ b
Ġo f
a n
Ġ in
a l
in g
Ġ p
a s
Ġa nd
Ġt o
i c
r o
Ġ m
Ġ d
Ġ h
i on
l e
Ġ Ċ
o u
Ġ T
Ġ re
Ġ =
Ġ S
i l
Ġ A
en t
Ġ "
Ġ 1
Ġt h
s t
e l
Ġ C
Ġ l
Ġ @
o m
Ġ e
a m
Ġ n
a d
a c
Ġw as
Ġ M
Ġ B
e c
Ġ on
ĠT he
l y
u r
Ġ '
e t
i d
o l
Ġ g
i m
Ġ I
- @
Ġ@ -@
Ġf or
i r
i g
i v
o t
t er
Ġ H
u t
Ġa s
u s
o w
it h
a y
Ġ 2
Ġ P
Ġs t
Ġ he
v er
at ion
Ġw ith
Ġb e
Ġ R
Ġth at
Ġ D
c e
u n
e m
Ġ W
Ġw h
Ġ F
c h
Ġb y
t h
Ġa l
Ġ )
Ġ (
Ġ L
u l
Ġ G
Ġ is
Ġc on
er s
Ġa t
c t
Ġ N
r a
o s
Ġ1 9
Ġa n
Ġ it
he r
ro m
a nd
u m
Ġ J
es t
0 0
Ġh is
Ġ E
a g
a v
a in
r i
o d
Ġf rom
Ġ O
is t
Ġc om
Ġ v
Ġp ro
o p
il l
o re
i f
l d
u p
Ġ r
e w
er e
re s
ig h
ĠI n
i es
Ġd e
b er
ar t
ar d
or t
Ġs e
ic h
Ġw ere
at e
al l
a k
an t
o c
u d
a p
Ġe x
q u
on g
a b
Ġc h
Ġo r
Ġ K
g h
e ar
es s
at ed
Ġp l
Ġs h
it y
i p
iv e
am e
Ġ U
Ġ â
Ġh ad
ec t
ac k
ĠS t
Ġâ Ģ
Ġs u
as t
s e
re d
Ġ k
g e
Ġwh ich
ou r
m ent
Ġ le
u nd
Ġa re
o v
i an
i al
Ġn ot
el l
Ġs p
o st
Ġ y
igh t
i a
or d
u st
ar y
in e
t her
p t
r it
Ġ 3
ou n
p p
ic al
ĠC h
av e
Ġ un
Ġ2 00
c c
Ġin c
f ter
ou ld
Ġ V
Ġb ut
ir st
is h
ou s
t e
f f
ion s
s o
Ġcom p
Ġ2 0
id e
Ġ ro
u re
Ġw he
u b
Ġa r
Ġcon t
i e
Ġ ;
o g
ig n
Ġf irst
Ġc l
w o
Ġhe r
r y
u e
Ġit s
as s
Ġthe ir
or m
ĠâĢ ĵ
o k
or k
Ġin t
Ġre s
ĠH e
Ġ :
at er
Ġal so
Ġa b
on d
Ġa d
om e
ou t
r an
m er
i re
he d
r u
Ġ us
ag e
d u
Ġ 4
im e
l ow
Ġp er
p er
Ġwh o
Ġ 5
ĠT h
Ġon e
Ġh ave
Ġs c
p l
al ly
ow n
i le
Ġre c
Ġ1 8
t ed
. @
Ġ@ .@
Ġt wo
it ion
u gh
i z
re e
en ce
t s
ur ing
p ort
Ġbe en
Ġp art
Ġb ec
ic e
Ġh as
ĠA l
Ġa g
Ġa pp
Ġ20 1
ou gh
, @
Ġ@ ,@
Ġ j
Ġ en
Ġd is
l ud
k e
Ġo ver
Ġs er
Ġth is
or y
el y
Ġy ear
ation s
em ber
re n
ct ion
ou nd
ac h
Ġof f
Ġa fter
r ic
Ġ up
l and
Ġpl ay
Ġd es
ac e
ĠI t
ar k
o ver
an ce
Ġo ut
Ġthe y
Ġm an
ad e
Ġt e
ac t
Ġo ther
i b
m an
ul t
Ġ im
Ġ Y
p h
res s
Ġinc lud
c ed
en s
ur n
w n
Ġw ould
in d
Ġt ime
on e
Ġp re
Ġint o
v el
ĠO n
ĠU n
w ard
w e
Ġw e
Ġh im
it e
o in
at es
Ġ 6
Ġs he
l es
Ġe v
il m
Ġat t
as ed
Ġn e
it ed
ab le
e nd
i ed
as e
am p
Ġcom m
or s
Ġin ter
a re
ro ugh
o y
on s
oun t
e p
f orm
Ġal l
os e
o od
an g
Ġm ore
c es
Ġw ork
Ġ 7
a il
ol d
a w
er ed
ing s
v e
il d
ĠA n
Ġn ew
Ġs ec
Ġb et
Ġwhe n
in al
Ġf e
Ġf ilm
ic k
v i
ent s
ĠS e
w ay
at t
f t
is s
a us
f er
Ġ 8
g an
ĠM ar
re at
ri b
Ġcon s
ĠA r
ro und
ak e
Ġre m
v ed
Ġt r
Ġd ec
as on
an s
Ġd uring
Ġ und
or th
ub l
Ġ 9
h ip
Ġag ain
ĠA s
Ġm ost
Ġg ame
ot h
Ġthe m
Ġ19 9
Ġon ly
Ġp r
at h
we en
i x
Ġe ar
ol low
Ġth an
o b
ro p
Ġs up
ation al
f ore
ĠN ew
Ġab out
Ġpro du
u g
Ġc ent
ter n
Ġk n
Ġre t
e y
Ġch ar
Ġs ong
Ġc an
ou th
Ġbet ween
Ġl ater
or n
Ġre le
Ġund er
ic t
Ġth ree
h n
t on
Ġc ol
r on
Ġa ct
Ġ 00
al s
Ġ qu
Ġth rough
ĠE n
or ld
o ok
Ġn um
Ġs o
Ġm e
Ġa cc
Ġre l
Ġwh ile
Ġ ra
Ġe nd
mer ic
ĠL e
le ct
ĠA meric
Ġf l
ter s
oc k
Ġp os
r al
Ġsu b
e ver
ul ar
Ġas s
at ing
Ġwhe re
Ġ ver
Ġd ay
c k
Ġre g
Ġsec ond
en er
a id
Ġb u
ĠC om
Ġm ade
am es
is ion
iv ed
ĠR e
Ġp e
he s
Ġrec ord
s on
Ġde f
b um
Ġf our
Ġg ro
Ġf ollow
Ġse ason
Ġ00 0
Ġe p
Ġfor m
Ġs ome
Ġsu ch
Ġa m
o ol
is hed
Ġm ov
Ġbe fore
Ġt ra
Ġm us
ĠS p
Ġthe re
Ġw rit
he n
ic s
ĠJ o
i o
Ġsp ec
i el
Ġ1 0
i ke
Ġs y
Ġyear s
Ġte am
ĠA t
od e
u al
ĠTh is
id ent
Ġ /
Ġl ar
Ġal bum
ĠS h
Ġin d
ro s
il y
ow ever
Ġ ent
n ing
Ġus ed
Ġc all
an k
Ġs ur
if ic
Ġa c
Ġh igh
ur y
Ġp ubl
Ġbe ing
Ġep is
ain ed
Ġthe n
l ed
t en
vel op
a j
Ġd o
Ġl oc
Ġex p
if e
r is
Ġ1 7
Ġagain st
Ġin v
Ġ 0
Ġb l
Ġp res
Ġsh ow
ot her
Ġnum ber
ĠA fter
Ġchar ac
i ous
Ġse ver
Ġad d
Ġc o
Ġs et
e k
in ce
j ect
ar s
Ġbec ame
Ġre ce
ĠB rit
aus e
Ġle ad
Ġper form
Ġn o
Ġinclud ing
Ġs ing
at her
in s
ĠâĢ Ķ
in es
Ġf ound
ĠUn ited
ran s
a ir
Ġw ell
al e
Ġm on
Ġre p
ĠS c
Ġp ol
Ġb ack
Ġb oth
i er
Ġc ap
Ġ19 8
Ġser ies
Ġ1 5
Ġ1 2
o ber
r am
ĠC on
i k
ow er
Ġsh ip
em ent
it s
er t
i red
u res
le y
ĠW h
ĠS he
iv ers
Ġm ain
p en
Ġ19 4
Ġm in
i et
d er
over n
Ġd id
v en
Ġg o
Ġc re
el f
ol og
Ġim p
Ġde velop
Ġm et
a z
it ies
ĠEn g
Ġl ong
iv er
an y
l l
is ed
er m
t ing
u ch
a red
an n
an e
ir d
Ġe m
ĠJo hn
Ġm ill
f ul
Ġa ir
Ġm at
Ġepis ode
te nd
ire ct
Ġs aid
Ġst ud
Ġman y
ut e
Ġb ro
as h
at ive
Ġde p
Ġc ar
Ġ1 6
Ġc ould
Ġor ig
Ġw ar
Ġcont in
ĠC l
Ġsever al
ĠAmeric an
th ough
Ġd if
ĠI nd
iel d
a h
Ġin st
Ġp op
ou se
is e
em b
Ġkn own
Ġ19 7
t y
u ally
Ġ19 6
ĠA ust
Ġ1 1
Ġcon c
t il
i am
ĠW ar
vi ew
ers on
Ġo b
u ed
ĠG er
Ġs m
Ġret urn
Ġan y
Ġbe gan
Ġ Z
er n
Ġcomp le
Ġdes ign
ĠD e
Ġdes c
Ġs ign
op le
ch ool
ros s
m y
is m
o ot
Ġ est
Ġt rans
cc ess
Ġpro v
ak ing
Ġfe at
ĠB l
id ed
Ġin f
an c
Ġr un
Ġear ly
Ġar t
iz ed
Ġd ist
Ġmus ic
Ġo wn
Ġn ear
Ġrele ased
Ġun til
Ġcall ed
Ġe ff
ĠC ol
im es
ĠU S
r id
ist s
Ġres p
un e
Ġb el
en n
Ġp ass
st em
u red
Ġf in
ial ly
ĠM ay
Ġp h
ut ion
Ġd own
Ġdis c
ment s
Ġc rit
os ed
x t
Ġd irect
Ġg ener
Ġal ong
i um
Ġin s
Ġmill ion
g er
ul l
ĠBrit ish
a x
Ġgro up
Ġoff ic
v ent
ĠGer man
Ġ1 3
Ġf am
e b
Ġthe se
aj or
Ġm od
Ġm ay
Ġ $
ce pt
ĠA d
Ġo pen
an ge
Ġm il
ĠB e
Ġp oin
u c
g g
Ġl and
Ġs im
Ġhis t
ĠA ug
Ġg overn
Ã ©
ĠSe pt
Ġsu ccess
ĠSept ember
ĠAug ust
et s
ĠA p
ĠW orld
ĠSt ates
ib le
in k
er v
Ġg u
Ġo per
Ġc ount
Ġatt ack
Ġus e
Ġs ame
y s
ward s
Ġdesc rib
Ġpe ople
ĠI s
ĠF or
ac ed
Ġcharac ter
y p
am ed
Ġbec ause
ĠAl l
el s
Ġv i
Ġ1 4
Ġl ike
Ġser v
ĠJ u
ĠF ran
g ed
Ġa round
Ġst art
Ġth ough
Ġ ed
Ġ19 5
ĠP l
Ġ Q
n er
Ġw in
Ġk m
Ġcon st
u es
r ing
Ġto ok
Ġo cc
ru ct
av ing
ĠAust ral
Ġb att
ĠO ct
Ġan n
Ġsup port
ov e
ĠN ov
Ġfollow ing
Ġs ix
Ġn orth
Ġe le
ĠC ar
Ġ19 3
ĠH owever
Ġsy stem
Ġapp ear
us s
Ġf inal
Ġrece ived
Ġcl ass
in ed
ĠOct ober
Ġhe ad
iv es
Ġp rom
Ġcons id
en e
ant s
r ad
l ing
il ity
ical ly
ĠD ec
ĠP ro
Ġ19 1
Ġe ver
Ġst ate
Ġbu ild
re t
Ġe ach
an u
Ġex t
Ġf ive
r ist
Ġa ut
ro l
ĠY ork
Ġcent ury
in a
Ġv ar
Ġb o
Ġw ill
Ġare a
ĠThe y
at ely
Ġsm all
g et
os s
Ġpart ic
Ġl ife
ĠN orth
iv ing
r il
Ġre port
Ġ ]
ĠM e
Ġ [
t le
ore d
ĠB y
ĠJ une
ian s
ord ing
Ġc ity
g in
Ġm ar
p ed
ĠK ing
Ġm ajor
Ġwe ek
Ġpubl ic
ĠJu ly
Ġ %
iss ion
Ġcon f
ĠH ar
Ġb and
ect ion
Ġre f
m ed
ĠNov ember
in c
ur ch
Ġre st
ĠCom m
ĠW ill
Ġw orld
ĠP h
Ġm ed
Ġs ince
es p
Ġsing le
ra ft
ra ph
p or
ĠAp ril
b le
ĠM c
ain s
ri ed
l ish
Ġd et
ĠMar ch
om et
Ġj ust
Ġl ast
ect ed
ur al
ion al
he st
ĠE d
a im
Ġt urn
iv ely
Ġhe l
il t
Ġal low
Ġp o
ĠC an
Ġ3 0
c l
i ent
vi ous
ĠG e
Ġle ft
Ġlar ge
Ġl ine
at s
Ġdif fer
al es
ĠS outh
Ġc are
Ġs outh
Ġad v
ĠD uring
if ied
Ġd r
Ġst r
Ġb ook
Ġver s
em pt
Ġs chool
Ġs l
ag ue
ĠDec ember
Ġth ird
av y
Ġinc re
Ġ2 5
Ġmon th
Ġd ue
Ġapp ro
. .
Ġplay ed
Ġm uch
Ġev ent
ro w
ĠP r
Ġ if
ro te
Ġan other
ĠJ anu
Ġ19 2
ĠJanu ary
Ġinclud ed
Ġwh at
Ġpl ace
Ġb ased
Ġsh ort
n e
ĠI I
on y
Ġex pl
Ġgovern ment
Ġp erson
b all
Ġw rote
ĠW hen
Ġtr ack
ap an
Ġc amp
Ġt it
Ġo ld
ĠE u
Ġb re
al f
Ġn ame
Ġde ath
Ġp ort
Ġe lect
ent ly
Ġ. ..
p le
ren t
ĠJ apan
i ence
Ġen g
Ġw on
b y
ĠO r
Ġch ild
Ġpro t
Ġl it
Ġk ill
Ġpro g
o ad
Ġst ory
ide o
ag es
Ġp ower
ĠB ro
Ġre view
ĠT e
od y
Ġv is
it al
Ġh ome
ot t
Ġl ed
p s
Ġdescrib ed
en g
Ġre qu
om an
Ġpre vious
Ġfam ily
Ġg un
ra nd
t ain
Ġw ay
y l
Ġn amed
Ġr ight
Ġn ow
ĠM us
Ġd em
ur ther
i od
iv en
Ġm en
il ar
Ġev en
Ġm ake
emb ers
Ġor gan
ĠG u
re en
is ter
on t
c y
ivers ity
om in
Ġatt empt
Ġb est
it ions
Ġ1 00
Ġc our
Ġ Â
Ġre pl
iv ision
Ġo pp
Ġle g
ren ch
Ġg ames
i or
ac hed
Ġt erm
ĠA nd
Ġcomm and
iv al
Ġh and
ĠF l
Ġpos s
m p
Ġbel ie
Ġd am
Ġver y
o x
ĠH is
Ġth ose
ĠF eb
ĠEu rop
Ġp ar
ĠFeb ru
ĠFebru ary
s h
Ġis s
Ġst ill
Ġto p
Ġne xt
Ġspec ies
ĠCh rist
Ġeff ect
ri end
Ġvi ew
c hed
ĠThe re
ĠN ational
oc i
Ġorig inal
ak en
ĠW e
at ure
en ces
Ġsp e
l u
Ġw ater
n ess
Ġadd ition
Ġj oin
ĠB ar
ĠEurop e
Ġl ist
a u
Ġper iod
Ġwith in
al k
Ġm embers
Ġm ark
et er
Ġde b
Ġhe ld
Ġbu ilt
ĠF rench
Ġex per
h or
a f
ĠA m
Ġ201 0
Ġrele ase
ĠP ar
Ġl ate
Ġal though
Ġfor mer
re w
Ġmat ch
Ġg reat
a ugh
rid ge
n ey
Ġc ur
Ġd est
Ġs old
ut ed
tend ed
Ġv ideo
Ġ2 1
ard s
Ġc aus
ĠW est
l ine
Ġst orm
Ġc over
Ġ X
v es
ec h
Ġin it
Ġro le
rop ical
Ġt ri
ĠWill iam
s elf
Ġc ame
Ġest ab
he l
ĠH er
Ġday s
an ces
Ġres ult
Ġm id
Ġpres ent
n a
le v
Ġcont rol
ag ed
pt ion
o on
ul ation
Ġst and
Ġre al
Ġpol it
Ġh owever
ĠM in
it ary
as ter
h am
Ġ200 8
Ġpro p
le t
en se
Ġ200 9
ĠM an
at ic
id es
Ġf ew
Ġto wn
Ġ2 4
Ġw ind
ĠGe or
om b
Ġy ou
og raph
Ġt w
Ġs ide
Ġs k
Ġcontin ued
Ġof ten
Ġe qu
Ġp ost
ĠE ar
ay s
Ġloc al
Ġ201 1
el t
ĠCh ar
at or
Ġam ong
ĠA ir
Ġsim ilar
ru ction
e ad
c hes
ĠM ich
r act
Ġh um
Ġa v
Ġcl aim
es tern
ĠN o
om en
un g
Ġ &
ĠEng land
re et
re ad
ak es
Ġdiffer ent
s ide
es e
op s
Ġm y
Ġd el
l er
Ġbe h
ĠR ec
olog y
p ar
Ġt yp
Ġ2 2
Ġf urther
Ġs ent
es c
ĠD av
ot s
est ed
Ġle vel
ur s
Ġf re
Ġconsid ered
Ġt ake
Ġl aw
er y
ĠE l
Ġto t
Ġ200 7
g y
Ġcare er
ĠOn e
ron t
Ġprodu ction
ar m
m e
Ġh alf
ic es
ĠP ark
ĠC o
Ġan t
ĠC ity
Ġh aving
amp ions
b o
ĠA cc
ĠEng lish
Ġm ag
Ġro ad
Ġe ast
Ġmov ed
Ġd ra
er ing
Ġever y
Ġw est
Ġwith out
ĠAl though
ro du
Ġc r
ĠC ent
Ġapp e
Ġpl an
Ġplay er
Ġ201 2
in ing
Ġpos ition
Ġc or
Ġbec ome
Ġar r
Ġhist ory
Ġvers ion
ver s
Ġt ro
ĠC al
f ord
ĠAn g
ond on
on es
Ġc ast
ĠC ount
Ġ el
Ġinf lu
iz e
Ġar m
Ġ2 3
ĠL ondon
Ġh ouse
y le
Ġs ound
r ig
Ġf ore
Ġcomm un
res ent
ir c
ap p
ĠB att
Ġg r
Ġcl ub
Ġsu gg
ro y
a ul
at ter
Ġstr ong
Ġinv ol
a i
Ġwrit ten
Ġ19 0
ain ing
ĠW ith
Ġb as
Ġst at
Ġl ess
oun g
ut es
Ġann oun
re st
Ġf oot
ĠR iver
i qu
al d
Ġor der
Ġre fer
iet y
im ent
g es
Ġpro f
c raft
ĠCan ad
a e
Ġa ff
Ġpoin t
se qu
Ġt em
Ġg iven
Ġr ad
Ġl ow
Ġtr ad
Ġh ig
Ġw ant
ĠG ener
ĠUn iversity
il le
Ġk e
Ġg ave
Ġp at
u ck
is c
Ġim port
ĠP ol
Ġne ver
a ff
ĠWh ile
Ġch ang
Ġdef e
or ies
Ġs oc
Ġreturn ed
r ation
ĠA b
Ġv ict
Ġtot al
Ġf act
ĠH igh
Ġg ood
ent ion
ĠT r
Ġcomp any
Ġf ire
s p
ail ed
Ġcount ry
Ġw ent
is on
Ġcom b
c ess
Ġf riend
our s
ric k
ĠE x
Ġcap t
Ġpubl ished
a un
Ġprodu ced
lev ision
Ġf ind
ay ing
c on
Ġreport ed
Ġorig in
ĠS m
Ġ200 6
a ign
Ġl ost
Ġst ated
Ġcomm on
Ġprog ram
ing ton
Ġl ight
y n
Ġpartic ular
ap e
Ġor d
ec hn
Ġad m
Ġinclud e
est s
ĠAcc ording
Ġlar g
ab ly
ur ric
Ġcomp et
Ġ er
us ed
Ġrecord ed
ie f
Ġbuild ing
Ġp ress
ĠSt e
Ġne ed
ĠN e
Ġb us
Ġpro ject
h ing
Ġfor ces
um ent
Ġn ort
Ġ2 7
Ġship s
Ġsh ould
Ġus ing
Ġe ight
Ġ5 0
Ġ2 8
Ġperform ance
in ess
ĠS w
Ġserv ice
b s
Ġpop ular
Ġ ide
pl oy
ĠThe se
Ġt imes
os p
Ġm aking
Ġt en
Ġair craft
Ġhim self
oy al
Ġf un
Ġaut hor
Ġ201 3
Ġf ather
at ch
Ġmil itary
ĠAustral ia
ĠS ec
Ġan im
le ar
Ġbatt le
ampions hip
n ed
ĠJ ack
ĠAs s
Ġs it
Ġl im
Ġsong s
Ġs omet
Ġre ad
ĠA f
ou ther
Ġcrit ic
ens ive
it her
ord s
Ġdevelop ment
Ġs w
Ġh ow
Ġg l
Ġ4 0
ĠGener al
al th
et h
Ġs ol
it ive
ed er
as es
qu ad
Ġ2 6
ĠSt ate
ol l
ĠC or
outher n
ĠJ ames
Ġc ross
c er
Ġ18 9
am b
Ġrep resent
ĠS y
Ġg round
Ġdest roy
ac y
Ġst ar
Ġf t
Ġrem ained
as tern
Ġst e
k s
ri e
Ġcharac ters
ĠAr my
Ġn ational
ĠP res
Ġg et
ri es
w ork
Ġmonth s
Ġsu ff
Ġg en
ĠB o
Ġd ied
a ur
Ġt er
ĠG l
ĠCom p
ubl ic
Ġdevelop ed
Ġtit le
d om
Ġs um
Ġch art
f ic
Ġcamp aign
re am
urric ane
Ġfor ce
ĠLe ague
Ġchild ren
Ġint rodu
land s
en cy
Ġp ra
Ġto ur
Ġprom ot
it ted
ist ed
a el
Ġs on
Ġsign ific
Ġre d
Ġac ross
Ġa way
ress ion
her n
Ġrel ations
Ġob s
Ġhist or
Ġf ield
Ġoffic ial
ĠD ivision
Ġf av
Ġf elt
o le
le ge
ĠAmeric a
Ġnot ed
Ġf ac
ĠS im
Ġn ight
al t
Ġannoun ced
m ost
Ġre ached
ĠR uss
Ġinter n
ĠS up
Ġcre ated
ĠCount y
Ġare as
c om
ĠR ep
ĠM on
Ġte levision
Ġc oun
Ġ200 5
ĠR oad
ĠJapan ese
Ġst ation
he m
ress ed
Ġsuccess ful
ĠM ad
Ġro ck
im ately
Ġv al
ĠG r
ĠRe g
is ing
Ġvar ious
ĠâĢ Ļ
Ġb ar
ĠSt reet
Ġpolit ical
Ġse en
Ġfollow ed
Ġa ver
f ield
i ber
it ing
Ġto o
Ġ2 9
Ġr ank
et t
ĠE ast
op e
Ġperform ed
c ast
ĠR ober
Ġc ult
iz ation
Ġser ved
Ġ201 4
Ġplay ers
Ġf ront
re g
Ġre v
al ity
ĠGeor ge
Ġcon d
Ġf ull
Ġpr im
Ġdec l
Ġbl ack
in ation
ell ing
Ġbe gin
du ct
Ġf le
Ġp ut
ĠS er
Ġc irc
Ġcon v
Ġear l
ĠP er
ol ution
ĠT o
ĠH en
Ġc ost
ab or
id ence
Ġse e
Ġpro cess
Ġn on
Ġd iv
Ġst yle
y ing
Ġl ook
ĠPh il
Ġse ven
Ġv ol
Ġa ud
Ġkill ed
ĠE m
Ġc y
Ġhel p
ric t
Ġle t
l ished
pl ay
Ġthrough out
ĠB ill
Ġt aken
Ġt ropical
Ġab le
an a
Ġf ight
Ġdisc over
Ġag re
ec ut
ert ain
Ġlit tle
Ġw id
Ġbec om
Ġf em
Ġa ge
ur g
Ġsignific ant
ĠS ch
Ġh it
Ġme et
Ġ ident
ĠTh om
way s
ir l
Ġt echn
Ġspec ial
Ġc op
o ice
Ġwrit ing
Ġst ruct
ĠDav id
Ġthough t
Ġestab lished
ĠP art
Ġbro ad
ĠA ct
en ced
ĠM or
Ġm m
Ġappe ared
Ġdo es
Ġcol l
Ġent ire
ĠAustral ian
av al
c il
ep end
Ġy oung
Ġco ast
Ġpoin ts
Ġ !
Ġmil es
i us
Ġb ody
Ġa ward
l ess
Ġimp ro
ĠR ich
Ġro ute
Ġm ember
od es
ough t
ĠM ed
g round
ri pt
Ġw omen
Ġact iv
Ġr ange
st er
as k
ĠP e
iv il
ĠY ou
Ġcaus ed
Ġstart ed
Ġdec ided
i ers
ble m
Ġfeat ures
lect ed
d ay
ĠAf ric
Ġgener al
Ġp ain
ĠQ u
Ġevent ually
at ors
ir on
i ec
in t
um b
m en
con om
op h
og n
u k
d en
ĠR oyal
Ġr ace
Ġar ch
Ġv ot
he re
it ar
Ġgro w
Ġman ag
Ġfe et
pp ed
ris on
Ġto get
Ġtoget her
us h
Ġadd ed
ĠH ist
ĠH ouse
Ġt re
Ġh old
ber t
Ġc ut
iv id
Ġ18 8
Ġwh ite
Ġon ce
Ġn ov
amp le
am ent
Ġform ed
Ġar g
Ġloc ated
Ġst ri
ree k
ur b
Ġcon n
Ġmod ern
o ff
ĠBl ack
Ġen c
Ġinst ead
d le
ĠP ort
he ad
rough t
ac es
Ġro und
Ġ esc
Ġ3 1
Ġb all
ar a
Ġm ix
em y
ĠIn tern
Ġimport ant
e e
Ġp ri
c ing
Ġcre w
Ġs aw
Ġa ction
Ġcomple ted
Ġre du
ĠIt al
Ġplay ing
ect s
ĠInd ian
id s
one y
c ent
r ated
ĠO ther
ell s
Ġ200 4
at a
Ġins p
Ġb ase
Ġm ater
Ġpop ulation
ĠM y
Ġm ot
Ġsur v
ĠMich ael
Ġv oc
Ġas k
Ġr ather
Ġocc ur
Ġopen ed
Ġst age
Ġbeh ind
Ġother s
Ġ18 6
r ay
Ġf all
Ġre n
Ġgun s
as ing
ce ed
Ġbro ther
wo od
em ents
ign ed
Ġcom ment
l in
Ġl ik
st it
Ġb orn
Ġf if
Ġ201 5
Ġs ite
Ġl ive
Ġwork s
Ġl oss
ĠFran ce
Ġb omb
Ġwork ed
fic ult
Ġhe avy
Ġm iss
Ġp red
Ã ¡
ĠS chool
med i
ra p
Ġsub sequ
Ġl ack
Ġpart y
Ġpro blem
nd er
le ction
Ġdif ficult
Ġcl ose
ĠW ash
Ġconst ruction
Ġkn ow
ĠN or
ĠS ome
Ġrelations hip
Ġh ost
Ġweek s
ist ic
ĠS an
Ġorigin ally
Ġse par
Ġass oci
ar ch
c o
Ġup on
Ġpr act
Ġre b
ĠHen ry
Ġlead ing
Ġapp oin
Ġacc om
Ġv ill
Ġal most
Ġm er
ĠRober t
ort s
Ġpe ak
ĠA le
Ġin j
Ġdam age
l ic
un k
Ġsc ored
Ġfour th
os ition
Ġin form
Ġ200 0
Ġre ve
ĠMus ic
ap s
Ġprov ided
ĠB est
m ing
Ġc ase
ĠV ir
ĠSt ar
Ġgo al
Ġcl os
ĠBatt le
bo ard
Ġeng ine
Ġc reat
ĠR ed
Ġac cept
Ġm i
Ġinv est
ic a
or ing
Ġsc ene
ell ow
ĠD esp
Ġhum an
ang u
u le
in o
olog ical
Ġb rought
Ġ5 00
Ġf ree
Ġind ivid
Ġ18 7
ĠP aul
Ġfeat ured
ul a
Ġm other
ĠPres ident
ĠR ou
Ġk ing
Ġle ast
am a
Ġwork ing
a ut
Ġallow ed
Ġl aun
Ġres ul
ĠM il
Ġaver age
ĠC ap
Ġto wards
Ġwant ed
Ġm ult
Ġind ust
Ġtrad ition
av es
Ġreg ion
Ġbus iness
ĠWash ington
ĠH ol
id ing
az ine
ĠA g
ĠQ ue
Ġv e
Ġqu ick
Ġtro ops
Ġpl aced
Ġe ither
Ġc e
Ġresp ect
v ing
Ġoff ice
Ġcrit ics
k y
ĠB el
Ġav ail
Ġh on
ant ic
Ġre ach
Ġ Ã
Ġprof ess
Ġex ample
Ġrun s
Ġmater ial
Ġe conom
Ġrec ogn
Ġf ar
en ed
Ġw ife
z e
g o
ear ch
t o
ch ie
Ġne g
Ġest im
ent ial
Ġar my
Ġf oc
r ight
ĠDesp ite
Ġse x
Ġ200 3
Ġinter est
ĠF ollow
ĠC our
Ġs our
eng th
Ġgener ally
Ġm ass
Ġjoin ed
Ġd ou
Ġra il
quad ron
ĠH am
Ġpro per
ill s
ĠAng el
u ff
en es
Ġcur rent
Ġde v
our n
ĠH all
ĠC up
Ġev ents
Ġbelie ved
ĠG ame
it ch
o f
Ġpartic ip
Ġ3 5
re y
b e
Ġf ig
ĠFollow ing
ĠK e
v ille
ĠF irst
ĠM ary
ĠD r
Ġ z
Ġvict ory
Ġrepl aced
ĠL ou
ĠG reat
art ment
Ġdesign ed
Ġm ph
ict ion
Ġg rad
ĠJ e
Ġr ul
it te
Ġso on
Ġn omin
s c
Ġis land
ĠG ro
Ġf und
x ic
ĠL a
er ous
o or
Ġh ours
ĠEurope an
ĠT wo
Ġem ploy
Ġpres ident
ĠM al
Ġro om
ific ation
Ġinvol ved
al ed
u el
Ġsur f
v al
ap er
Ġfin ished
mer c
Ġst ru
ĠCh ampionship
in n
in ist
as ion
w est
ĠM art
in f
ĠPl ay
Ġbre ak
ĠR oman
Ġh or
ra in
a ren
if f
Ġs aying
ar n
em or
Ġcour t
Ġsh ot
Ġth reat
ĠB er
Ġsc ore
Ġopen ing
Ġreg ular
ĠD an
B C
Ġdes p
Ġdirect or
Ġl ength
ĠM et
ĠM ac
ĠD on
Ġind ic
ad es
le g
c her
ĠSc ott
Ġcon duct
Ġlarg est
Ġcont rib
Ġtra vel
Ġh om
ou l
k i
Ġposs ible
ecut ive
Ġ ill
ud e
n ow
Ġmin utes
Ġhigh way
ĠRou te
Ġs outhern
ish ing
Ġd ro
ĠC ro
Ġh y
ĠV al
ic le
Ġhig hest
Ġrem ov
ĠF rom
Ġearl ier
Ġ200 1
Ġt est
ĠAt l
Ġinit ially
ĠS ing
ag o
Ġl y
Ġavail able
Ġparticular ly
Ġper cent
and er
ant ry
Ġh ard
ĠW il
ann ed
Ġse qu
Ġtra ining
ĠRep ublic
Ġfor ced
Ġm ust
Ġex ist
p ly
ĠM id
ip p
h ib
ĠM ag
ĠKing dom
ĠChar les
ĠN avy
ograph y
as y
Ġp ark
ĠÂ °
ri an
b or
ate g
Ġresp ons
Ġend ed
Ġqu ar
r ac
ĠMc C
ĠO ff
Ġturn ed
Ġw all
ĠThom as
Ġex c
Ġsoc ial
ĠIntern ational
ut ure
ĠB ut
Ġstud io
ĠP al
em s
if orn
ĠR es
ra g
ĠD ep
i os
Ġch ange
ĠWh ite
Ġl angu
ĠVir gin
Ġpra ised
Ġpass ed
Ġsup er
Ġpr iv
Ġb ill
at ural
Ġp iec
Ġincre ased
Ġob ject
ĠBro wn
r up
Ġed uc
Ġh urricane
Ġreg ard
Ġnort hern
he ast
Ġ200 2
Ġke ep
Ġph ys
Ġcent ral
ight s
ĠCh urch
it or
Ġnov el
Ġrel ig
ĠCanad a
s el
Ġspe ed
Ġappear ance
ĠCal iforn
Ġun its
Ġp ast
re m
ers hip
ĠR ock
ĠS l
ke y
Ġst op
Ġch urch
ĠS en
end ed
Ġc ou
Ġim medi
ĠB ay
u ter
Ġsy m
st on
ĠM o
ĠSm ith
oc r
Ġdis p
Ġme as
Ġord ered
augh ter
ĠM er
Ġt reat
iqu e
ĠS am
Ġt aking
fer ence
ĠRich ard
ry ing
itte e
Ġind epend
Ġl ove
ĠAle x
Ġsign ed
Ġmov e
il ities
ĠCaliforn ia
Ġa chie
et work
Ġbet ter
Ġp ers
um p
ĠUn ion
it z
ak er
ĠG od
Ġa p
ĠG overn
ec ess
ar ily
Ġin n
Ġwind s
ĠIs land
Ġcom merc
Ġen ough
Ġw at
Ġpos itive
ear s
n el
um e
ĠCour t
Ġacc ording
Ġh ous
Ġsp ent
ell ed
Ġgo ing
Ġp ot
Ġab ove
ĠB ra
Ġs low
ank s
Ġout side
Ġfilm s
ap t
ĠT om
ĠV ict
ĠU p
ĠC ong
Ġfe el
Ġto ld
Ġfoot ball
m a
ĠA ward
ber g
qu are
Ġc lear
Ġprevious ly
u ation
Ġqu est
Ġst ates
Ġrecord ing
Ġ199 0
Ġme an
and ing
ĠAss oci
Ġ6 0
ĠA c
Ġn ine
he t
Ġp ur
us ion
Ġsub ject
ĠAr t
Ġf ailed
at in
ow s
Ġass ist
Ġcom e
ĠComp any
Ġrequ ired
ren g
os ing
Ġ4 5
Ġele ments
Ġpro b
v an
Ġe y
id a
ĠSt ud
Ġc ru
al ion
ĠInd ia
Ġl ower
ĠGerman y
Ġreview s
Ġinter view
ed y
Ġph ot
Ġpart s
ĠM ark
ĠP eter
ĠG old
Ġits elf
ĠChrist ian
Ġs il
Ġn ar
Ġth ink
n es
ran ch
s hip
Ġdirect ed
Ġab s
is l
Ġ esp
Ġf low
ib ility
Ġdesp ite
Ġc red
am er
Ġcont ract
Ġ18 5
ok e
ĠN Y
ĠTh at
Ġdeb ut
ĠT imes
Ġ ?
ĠÂ £
ĠP at
er ved
Ġacc ess
read y
le b
ĠC ast
Ġbegin ning
o id
Ġb i
Ġgroup s
ĠCol lege
Ġvi ol
on na
ĠH ill
Ġs ection
ĠU K
ĠS ov
ab ility
hest er
Ġwh ose
ĠB r
as ons
Ġclaim ed
ĠW estern
Ġintern ational
Ġask ed
Ġl ines
Ġtrans fer
Ġpre vent
ĠD em
Ġst reng
Ġsc reen
Ġg ive
air s
Ġc he
ĠSov iet
on se
rie f
Ġun c
Ġbe g
Ġk ey
Ġaddition al
Ġf uture
ĠF ilm
m ar
ĠG rand
ĠMe xic
Ġle ague
Ġwh om
ĠFran k
Ġo p
ĠD o
Ġg old
ĠSp an
Ġpo or
ĠB en
ĠA wards
Ġfor t
ly ing
Ġintrodu ced
Ġev idence
Ġd on
Ġpre m
it es
on st
Ġse a
Ġide a
e x
Ġquick ly
Ġc al
at ory
Ġal ready
ĠS oc
Ġ3 2
Ġcent er
Ġb ridge
Ġfre qu
ĠFor ce
us p
ĠM ost
Ġele ction
Ġprodu ct
Ġocc up
ec k
Ġp il
Ġex cept
ĠC oun
b ack
Ġ197 0
un t
Ġde al
ir th
e um
ec ially
Ġp en
Ġus ually
Ġmus ical
Ġ198 0
Ġem b
Ġw estern
Ġarr ived
ar ing
ĠR ob
Ġbl ock
e al
Ġrad io
ĠBrit ain
Ġc ivil
l iam
Ġcy cl
er gy
ul ly
ĠO ver
Ġfem ale
Ġsomet imes
ĠD ay
Ġstud y
Ġf ood
Ġresp onse
Ġdec ision
Ġm oney
ĠP ac
Ġmag azine
Ġesp ecially
ĠH ot
Ġiss ue
ĠL ater
as c
liam ent
ĠVict or
ĠI m
Ġl ab
Ġsurf ace
Ġlit er
g en
r ack
Ġ -
Ġfl ood
Ġm ight
ain t
ĠCh ic
Ġen v
ĠT ra
Ġgu itar
Ġcar ried
ĠB ur
Ġshow s
Ġcommun ity
en a
Ġconst ruct
it er
Ġestim ated
Ġar ran
Ġrem ain
ar ies
ĠM ill
Ġ199 9
Ġrem aining
Ġe astern
Ġmin or
h a
Ġdefe ated
Ġdet erm
ĠR h
in ent
ess ion
ĠVirgin ia
ĠEar ly
Ġappro x
ig an
Ġlar ger
ra w
ul f
Ġbecom ing
Ġra p
Ġw ood
Ġcomple te
ĠM ount
Ġ3 6
ra b
r or
Ġpol ice
Ġsugg ested
por ary
Ġmed ia
Ġpress ure
Ġent ered
Ġsh oot
Ġ8 0
Ġteam s
ric s
ĠL os
ĠJ ust
Ġcommerc ial
Ġan al
ĠIn f
Ġd oc
Ġl atter
and s
N A
Ġmark et
er ve
Ġl o
Ġconsid er
Ġstud ents
is es
Ġsur round
Ġinvest ig
Ġb rief
Ġconc ern
Ġperson al
ĠSec ond
in ct
Ġb ur
ĠI f
ĠTe x
Ġc ertain
Ġpr ison
Ġac qu
Ġdisc uss
ĠF le
ĠJack son
Ġeffect s
Ġcomple t
Ġh op
Ġappoin ted
all ed
Ġd er
Ġsum mer
Ġepis odes
ĠCon t
Ġpri or
eder al
inc ip
ĠFl or
Ġs at
Ġt ar
ch ange
Ġe mer
Ġst aff
ent h
ly mp
Ġs ize
ĠLou is
ore s
Ġchang es
ul ated
Ġcomm ission
s y
om m
t t
im ate
Ġwin ning
Ġlim ited
Ġsc enes
ĠO lymp
Ġr iver
Ġfle et
Ġle aving
Ġdestroy ed
is er
Ġde g
Ġdra w
Ġp ay
I I
ĠCl ub
Ġd en
Ġr id
l o
qu e
ĠSpan ish
Ġ7 5
Ġs elf
g a
s u
Ġright s
ourn al
Ġprov ide
Ġwrit er
i res
rig ade
Ġpol ic
s en
Ġtyp e
id ents
Ġf ail
ar i
ens ion
Ġd ate
Ġt rib
Ġter rit
om s
ĠK h
Ġg irl
Ġprop osed
r d
Ġinflu ence
t ies
ĠG reen
ĠPart y
Ġover all
Ġt ax
Ġ18 4
Ġk il
Ġtrans port
Ġ196 0
Ġstruct ure
ĠT er
Ġcont ro
Ġequ ip
ĠD u
Ġ3 00
Ġd ivision
Ġsc ript
Ġb r
ir al
ines e
Ã Ń
ĠAssoci ation
Ġagre ed
Ġant i
Ġin tended
ĠP ri
Ġj ud
Ġb ow
ĠEd ward
Ġrun ning
if t
end ing
ic les
ĠChic ago
Ġd aughter
Ġb ig
Ġbroad cast
Ġp urch
Ġnear ly
Ġsupport ed
ĠM any
at ives
A F
ĠAd m
Ġde ep
Ġd i
Ġres earch
Ġw ide
im um
Ġestab lish
ĠR o
Ġhel ped
Ġmar ried
Ġ199 8
Ġmov ement
ĠCh inese
Ġaward ed
Ġmult ip
ĠS ong
ĠI r
ĠCoun cil
il i
ĠO per
il es
at ively
ac ing
ir m
Ġcre ate
Ġfav or
Ġint ens
Ġdis s
Ġb ird
ĠS al
ĠEn ter
Ġd ark
Ġs usp
p ris
om er
n y
te en
Ġst ars
Ã ¶
c he
Ġlong er
Ġlangu age
Ġhig her
Ġc at
ĠE v
Ġpl anned
m on
Ġcomp ared
Ġcapt ured
Ġincre asing
Ġf ans
Ġconc lud
Ġcour se
u z
Ġchang ed
ĠS erv
ĠSup er
ĠE mp
ĠJohn son
Ġ3 3
ound s
Ġexper ience
Ġapprox imately
Ġrel ated
sel ves
Ġd one
Ġfeat ure
Ġfif th
Ġl iving
ent y
ĠK ore
Ġthem selves
ab it
ĠHist ory
Ġprodu cer
b ers
it t
Ġ7 0
t ained
a rent
Ġtem per
Ġsp ace
Ġtrack s
Ġmost ly
s s
ĠPac ific
is ions
Ġwith d
ĠIn ter
ĠB ack
ut h
an ced
ol ic
ĠBill board
i j
Ġth us
ĠA pp
ĠB et
ĠN ot
c an
Ġw oman
Ġde ad
um n
ĠM ont
Ġoper ations
Ġim m
Ġrem ains
Ġsy n
Ġb ring
Ġquar ter
th ing
Ġo ur
Ġn atural
Ġwhe ther
im in
v in
Ġ ult
Ã ¼
oin t
Ġcon cept
Ġwe ap
Ġd ram
ĠF inal
ĠSc ot
and ed
Ġprob ably
Ġsold iers
Ġr an
Ġcop ies
r ast
ĠS un
b our
Ġbuild ings
Ġlead er
Ġv oice
Ġ199 7
Ġf ace
Ġb oy
Ġex tended
ĠS ince
Ġly rics
Ġfor ward
Ġdep art
ĠK n
Ġcomple x
Ġbo ard
ĠAtl antic
Ġre act
ir ing
Ġbatt les
ve y
Ġiss ued
Ġhe av
Ġch all
ri age
g ing
Ġre ally
Ġcount ries
osp ital
Ġ3 7
r ate
Ġsuff ered
ĠL ake
ĠCong ress
Ġc m
ĠL ove
ĠF ort
ĠFran c
Ġgo als
ĠFlor ida
ur t
ĠSe ver
Ġinclud es
Ġimmedi ately
Ġmet h
ĠB oth
Ġat tend
ĠB ig
h ood
Ġbre ed
Ġcap ital
Ġmanag er
Ġmix ed
Ġpriv ate
i ant
ĠJ im
ĠJ ew
Ġoffic ers
Ġlik ely
ĠO ld
Ġcan n
Ġdist rib
h old
ĠAn t
i en
Ġm ach
ĠQue en
d e
b ury
Ġremov ed
ĠTex as
Ġpl ant
Ġinit ial
Ġce leb
ĠSe a
Ġincre ase
ven ue
ĠT own
Ġhe alth
Ġsubsequ ently
ĠD ist
Ġle ave
Ġpl ans
ri a
Ġal ways
Ġfoc us
Ġc oin
ĠL aw
Ġn etwork
ect ions
Ġserv ices
Ġm ount
Ġv ia
Ġstat us
Ġcomp an
ĠT rans
ĠT or
ri al
ĠP et
ĠCh ina
Ġvis it
Ġloc ation
ĠM r
ord er
am s
ĠAn other
i ation
Ġfl ag
Ġproblem s
ĠL ord
ĠC amp
ĠH ow
ĠEar th
Ġoff ered
Ġinst r
w ell
ous ly
ail y
Ġmod el
Ġterm s
Ġn orm
et ic
Ġm ur
ĠCon st
Ġcol on
Ġappro ach
Ġsomet hing
Ġvill age
Ġadm inist
Ġt ons
Ġf ell
oun ted
ĠW ood
w er
ĠB oy
ct or
ĠO l
Ġt or
iron ment
Ġs ch
Ġmajor ity
ĠT ur
Ġprofess ional
orn ing
Ġcoun ter
Ġ18 3
ĠCanad ian
ĠI ts
ad ium
ĠR ail
Ã ³
Ġg ot
ib r
ĠAfric a
Ġc ause
ĠM ur
Ġcons ist
b urg
ac hes
ur ies
Ġinter s
Ġdam aged
Ġmeet ing
ĠG re
Ġj ob
Ġappear s
Ġad op
Ġmin ute
Ġrank ed
ol k
Ġl ay
ĠCent er
u f
Ġindivid ual
o es
Ġcomp osed
ce an
Ġreve aled
ĠS quadron
ĠHigh way
if y
Ġan g
st e
Ġfl ight
Ġattack s
ĠRuss ian
it ect
Ġ9 0
Ġpl ot
Ġdiscover ed
Ġra ised
l or
re ak
um ed
ĠR ad
ĠM el
Ġfin anc
Ġrespect ively
Ġm akes
p an
ĠK ent
ĠCar ol
ĠMart in
ĠCent ral
ĠS ir
Ġnum erous
ĠII I
Ġ199 5
Ġassoci ated
Ġal tern
g ar
Ġt akes
ĠAngel es
Ġd omin
Ġneed ed
Ġinsp ired
ĠB ow
Ġan c
Ġl ived
Ġ3 4
o e
a ult
Ġg rand
Ġlaun ched
Ġy et
ri ption
Ġc and
Ġn ature
Ġp ow
Ġam b
Ġd ig
Ġco ach
Ġoccur red
Ġcont ains
ĠD V
Ġve h
est ival
Ġb ene
Ġsh own
Ġattempt ed
u als
Ġattack ed
ĠD es
um ents
Ġmov ing
Ġcond itions
Ġup per
Ġh our
ĠT V
k a
i est
d own
im b
k en
Ġs ales
Ġg ra
ect ive
Ġ3 8
ĠGro up
ĠM iss
j oy
ĠY ear
Ġcol lect
Ġ201 6
ĠD el
augh t
ĠT our
Ġ199 6
or ce
Ġiss ues
Ġb irth
Ġ195 0
ĠRe v
Ġwho le
Ġs al
iz ing
Ġ i
Ġex am
Ġc er
Ġinform ation
Ġy ards
Ġf arm
Ġsl ight
ĠEmp ire
ĠO ut
Ġbo x
ur ity
Ġm om
w in
ver t
Ġrefer red
u ing
Ġcrit ical
o ly
Ġinc or
re me
ĠU nder
ĠP enn
ĠG ar
Ġnum bers
Ġfin ally
Ġsmall er
Ġelect ed
Ġse lected
Ġdefe at
Ġresul ted
Ġs en
Ġsc ient
Ġst ay
Ġb ad
Ġgr ant
Ġqu al
Ġact ive
Ġpr incip
Ġsing er
k in
Ġstand ard
Ġsec ret
Ġp it
it ation
ĠItal ian
u ated
Ġm ission
Ġindust ry
Ġ199 4
en ant
Ġlarg ely
Ġen s
Ġoper ation
Ġs em
and on
ĠJ ose
Ġpre c
Ġl ink
ort un
on ic
ou ra
Ġass igned
us e
Ġs af
Ġleg isl
Ġear ned
Ġth r
Ġcomment ed
it ude
Ġm ale
Ġexp ected
ã ĥ
ĠDV D
ĠCor ps
il ed
ĠD is
Ġro y
Ġaud ience
Ġlist ed
Ġsugg est
Ġg re
ou d
ĠC rit
ĠAr m
Ġcover ed
Ġpur p
Ġun able
ire ction
Ġsc hed
Ġhe art
Ġtradition al
ĠC r
Ġeduc ation
g r
Ġtr ade
Ġart ist
Ġnew sp
y a
Ġdou ble
Ġfriend s
Ġcl osed
ĠV iet
Ġunder st
Ġref used
ag on
Ġa w
Ġrec over
Ġatt ention
oun ts
Ġmeth od
Ġprim ary
igh ter
Ġs ister
og ue
Ġk ind
Ġt alk
ĠMich igan
ĠP re
ter ed
Ġre ason
ff ic
Ġoffic er
Ġpl at
Ġbel ow
Ġcont em
hip s
Ġ194 0
ĠW ales
Ġen joy
Ġab ility
Ġdep ression
Ġme ant
ĠM ass
Ġperform ances
Ġdecl ared
o o
Ġw alk
ĠN ort
Ġ4 9
Ġbl ood
is her
ĠM ore
Ġg iving
ĠC ath
Ġlet ter
Ġcomp l
Ġw ord
und red
pl es
Ġ18 0
Ġfight ing
Ġmid dle
ĠC le
Ġcommand er
Ġrelig ious
Ġbook s
Ġthe at
Ġm ax
Ġh ot
Ġset t
Ġr ate
ĠO x
ĠAr ch
ĠSt ep
ĠL ong
Ġrecord s
il s
Ġmat ches
Ġconst it
ĠAc ad
Ġn ames
on a
ap ed
ĠB ec
ĠT est
ĠDem ocr
Ġprodu ce
Ġquest ion
ĠF er
ĠC are
ant asy
Ġcompet ition
ut ch
Ġcent re
Ġser ious
Ġun it
u x
ĠTe am
od ies
Ġdis app
Ġto uch
Ġvoc als
im s
ĠMin ister
ir t
ĠSever al
i ences
Ġm ention
ĠZ eal
os h
ound ed
Ġ199 2
Ġ ri
ĠM ajor
ect or
ĠC ons
Ġ4 1
Ġacc ount
Ġdoc ument
Ġab andon
ĠW al
ro ad
ic ted
Ġrap id
Ġen ergy
Ġn ecess
a res
Ġm or
qu ar
Ġkil omet
ĠK enn
erv ation
ech an
ĠF ore
Ġd ut
Ġconstruct ed
en ing
Ġthem e
Ġr is
ru g
os es
ri er
ĠF ox
ĠS um
et te
ĠT ime
Ġroy al
Ġp ick
ish op
Ġst ra
Ġnear by
Ġhigh ly
Ġsepar ate
ĠZeal and
y r
ĠE r
Ġcontin ue
vent ion
Ġpre p
ĠS o
Ġch ief
Ġdr um
ail s
Ġeff ort
Ġc as
Ġpresent ed
ed ic
ĠH aw
Ġt ur
ĠS ar
Ġcomb at
ĠMexic o
op er
Ġpos itions
ĠAfric an
Ġredu ced
Ġann ual
ĠB u
et her
Ġ4 00
ib ly
Ġcontro vers
ĠCh ris
ĠM att
Ġdirect ly
ie ut
ĠM a
ĠF our
Ġ193 0
Ġlevel s
c el
Ġme ans
Ġc le
Ġne igh
ĠW all
Ġnot es
Ġat tended
Ġse vent
Ġpract ice
Ġt ried
sh ire
Ġcomp os
Ġfore st
u it
emor ial
Ġ5 5
Ġf ast
Ġh ar
Ġn uc
Ġed ition
Ġtra in
ĠL it
ĠB rad
ĠD ar
ac her
ad o
ĠCh art
ĠT re
ĠB ob
aren ts
Ġtw enty
v ement
Ġmet al
Ġ199 3
ĠMad onna
Ġaccept ed
os en
Ġw atch
Ġst ating
Ġ199 1
Ġmov ie
Ġarch itect
Ġte xt
r ical
ĠH el
Ġrep e
Ġcand id
is ation
t rack
Ġconc ert
ĠScot land
Ġadv ance
stit ute
Ġ17 9
Ġp air
ĠJ ones
Ġport ray
Ġd irection
Ġf r
ir med
h ouse
ers ey
Ä ĩ
Ġse em
Ġdis m
ĠThe ir
Ġschool s
Ġleg al
ĠAn n
an i
Ġre ject
ew ay
l ict
in em
i h
w ide
Ġas p
ĠM anc
ic ip
f all
Ġg e
Ġhor se
ĠC ross
Ġth ick
Ġmar riage
ill ery
ag ing
Ġrec omm
Ġ +
ĠG reek
ĠDep artment
l ight
Ġeff orts
Ġman aged
Ġcol lege
ĠD ou
a wn
Ġ3 9
Ġp urs
l ike
ic ient
ĠG o
Ġw ing
ut ions
Ġresult ing
h y
Ġend ing
ir it
ieut enant
ĠTh ree
b and
Ġshow ed
Ġdro pped
Ġrespons ible
ĠM ic
ĠP ost
M S
ĠInf antry
Ġ18 2
Ġn ation
Ġdis play
Ġins ide
ill ed
ĠF oot
it a
Ġc ases
Ġke pt
Ġc ust
Ġenv ironment
ĠL ad
ĠB ost
Ġ4 8
Ġcult ure
Ġra re
Ġmean ing
Ġr at
ĠLe g
Ġcycl one
ol f
Ġd om
Ġincor por
Ġbeg ins
Ġ4 2
Ġvar iety
ceed ed
Ġm orning
Ġsub st
p e
Ġcer em
p ass
Ġhous es
ĠSt one
Ġform s
Ġch ampionship
ĠServ ice
Ġw ords
ran e
Ġar rest
Ġsch ol
ĠC reek
Ġy ard
per or
ĠWilliam s
ĠH ung
Ġo il
ĠRec ords
ĠSec ret
Ġmark ed
Ġinc hes
ce nd
Ġcontin ues
Ġsp l
in i
Ġsc ience
ĠB C
Ġper m
Ġ18 1
Ġsym b
g l
ĠNew s
gy pt
ect ing
Å į
ol s
Ġb ank
ĠH al
ĠSt an
ĠPar liament
Ġus es
Ġeconom ic
ĠS ur
w rit
c le
Ġsour ce
ĠG ames
t hel
b ed
ĠF in
r as
ĠT ro
Ġqu ality
Ġdef end
ĠP an
ĠT ri
ul ations
Ġle ar
Ġh undred
Ġset tle
Ġimp act
Ġstart ing
Ġconduct ed
ĠB ook
th ur
Ġspec ific
Ġstru gg
Ġallow ing
w h
ĠE gypt
ĠSoc iety
Ġbe at
Ġ194 2
Ġpres ence
ĠS ol
Ġam ount
Ġd u
ĠJ er
Ġs ides
ĠO h
Ġview ers
Ġcap tain
sy ch
e en
Ġd ance
Ġmet res
ing u
Ġch ap
Ġun ivers
Ġsup pl
ĠL u
Ġex hib
Ġr ule
Ġp le
ĠPr ince
ĠS outhern
ĠV er
ĠStep hen
Ġdist inct
Ġmultip le
ĠGeor g
ĠS at
d ing
Ġtransfer red
Ġpot ential
ĠComm ittee
Ġfore ign
Ġ4 7
ĠL atin
Ġcont rast
ĠOx ford
Ġ6 5
Ġpeak ed
in et
it iz
Ġen emy
Ġy our
ar ian
ĠS il
Ġtra ffic
Ġbecom es
Ġm ess
ĠSp ec
p ing
Ġown ed
Ġth ings
Ġfound ed
Ġgre ater
ĠJose ph
ĠL ike
Ġvoc al
ĠAdm iral
Ġo pt
Ġconclud ed
Ġport ion
ver y
Ġcast le
Ġsc oring
ĠC amb
id er
Ġresp ond
y m
Ġst ories
Ġproper ty
ian ce
Ġattempt s
Ġenc oun
ĠBost on
r ong
an es
Ġrel atively
k n
ĠT w
ĠCh ief
ĠManc hester
Ġprim arily
Ġdem onst
ĠHar rison
ĠJe ff
Ġf ederal
Ġfinanc ial
og rap
ĠCl ass
ress ive
ell ig
ĠF orm
ĠCap tain
ĠBec ause
ĠBe fore
Ġact ually
Ġanim als
ĠSw ed
Ġobs erved
ĠH urricane
Ġto urn
Ġl if
ĠW in
Ġcol lection
ĠT im
Ġopp ortun
f ect
ĠViet n
ĠB at
Ġtit led
Ġ5 2
ĠD en
Ġfeat uring
ist ics
Ġwrit ers
Ġ4 6
Ġwrit e
Ġ194 4
ĠDe f
Ġj ournal
ed s
Ġw a
ĠB ridge
e es
ĠF red
Ġstreng th
Ġw or
um ber
Ġin ch
Ġm echan
Ġwe aken
Ġsit uation
ĠO tt
Ġsp ot
Ġp aid
Ġdist ance
Ġprem i
Ġp arents
ĠComm ission
Ġindepend ent
ĠBatt alion
Ġfig ure
Ġsh are
m as
re l
Ġm el
Ġact or
Ġ6 4
Ġact ing
Ġcompan ies
Ġdiv ided
ĠLit tle
ĠPar is
Ġm ind
Ġ4 3
ste in
Ġon to
ĠPro du
ast ic
ĠL uc
Ġcoll abor
ĠL ife
ĠCol umb
ĠCar l
Ġtar get
ann a
Ġslight ly
Ġfun ction
Ġpiec e
ĠSer ies
Ġre form
ĠM od
Ġs elling
Ġ4 4
per ial
ĠEnter tain
a ud
rick et
Ġpower ful
ĠG ra
Ġtor ped
Ġconc ent
c hest
Ġinn ings
Ġr ating
ĠM ax
th let
or ation
ĠB BC
Ġplay s
ist ry
Ġro ugh
Ġl ot
Ġto day
l am
Ġbro ke
u ge
Ġch o
Ġer a
os aur
ĠP op
ann el
ĠCro at
Ġact ions
Ġwat ers
Ġult imately
ĠO s
ĠHist or
Ġtri al
Ġs quare
Ġmax imum
ro wn
ad a
Ġdis e
Ġte nd
it an
Ġpil ot
l oad
Ġb ound
Ġl og
ill a
Ġinter p
rup t
Ġcomplet ely
ĠAcad emy
Ġbl ue
und er
Ġs ought
Ġ192 0
Ġg ar
ot i
Ġ194 5
m ond
Ġsc ale
m ark
Ġsoc iety
ĠL ine
Ġ ess
Ġbeh av
Ġh us
ĠMus eum
ĠS aint
Ġmain ly
ĠS k
al le
ot a
Ġdesign ated
Ġ194 1
z a
ĠH or
om y
Ġcon ver
Ġofficial s
ĠV an
Ġstru ck
Ġ15 0
Ġtrans l
c ers
yl van
Ġactiv ity
Ġpolic y
Ġcomb ined
Ġs ay
ĠW ay
Ġinflu enced
Ġw ear
ol ved
Ġc orn
ian o
Ġse arch
A S
ĠEntertain ment
ĠA rab
Ġv ess
ĠItal y
ent ed
Ġth ous
Ġcall ing
rac ted
Ġalong side
Ġnort heast
Ġsecond s
Ġb atter
al a
ĠB rigade
Ġs out
ĠW ind
ors es
wh ile
ĠAmeric ans
Ġwin ter
ĠCon f
Ġsour ces
ĠLe e
Ġse g
Ġback ground
ph y
ĠI re
Ġwe bs
ain e
Ġ ice
Ġnew s
ud d
Ġth ir
ĠT od
Ġthe ory
r ative
Ġrec ent
ĠAl b
Ġsu c
T V
Ġm em
Ġc row
Ġg ained
Ġnomin ated
Ġplat form
H L
on n
Ġart ists
ad el
ĠReg iment
Ġwid ely
Ġn aval
quar ters
Ġsystem s
Ġpromot ed
Ġelect ric
Ġconf irmed
ub e
ĠIre land
p son
Ġreach ing
Ġpro ved
Ġresul ts
ĠA venue
Ġpass ing
ibr ary
ĠFle et
Ġalbum s
ĠG ood
ĠE ll
Ġexpl ained
Ġsubsequ ent
Ġgreat est
Ġconf lict
er o
Ġw ick
Ġcont ent
Ġinv asion
Ġ ir
Ġs n
ĠA ut
ĠR ay
Ġ198 9
Ġcom ing
Ġchar ge
Ġhe ro
Ġpe ace
Ġres ist
Ġsix th
he w
Ġnorth west
Ġwe ather
ou red
Ġcount y
Ġad j
ĠOr ig
Ġshort ly
g rad
t own
Ġ194 3
ag a
ĠB us
Ġvers ions
ĠS ub
Ġp ath
al ing
Ġser ve
Ġcaus ing
Ġs ays
Ġsu st
ĠL o
Ġ5 1
Ġexp ressed
ic ed
Ġrece ption
Ġse ek
ĠVictor ia
ĠS ant
Ġb urn
it ness
ĠCath olic
Ġres idents
Ġem ot
b on
Ġb order
ĠN orm
ĠChar l
ĠT ropical
ĠW ork
Ġc hem
Ġsound track
ans ion
ĠVal ley
Ġc ities
ĠAd d
ĠM at
ip s
Ġg reen
Ġse asons
t ation
ĠN in
ateg ory
Ġappear ances
Ġs ense
ĠD i
ĠL ight
Ġsex ual
Ġh ospital
Ġrequ ire
A A
inf all
ĠMid dle
Ġp un
Ġphys ical
Ġident ified
Ġold er
igh th
Ġhand s
ĠL ive
ard en
Ġ iron
ĠR am
ĠD un
ĠTh ough
Ġtr ue
Ġt ells
Ġoff er
ĠL iber
Ġd edic
Ġk g
ĠR y
un ction
ĠComm un
ys is
Ġart illery
anc y
ĠSh ow
Ġrepresent ed
ĠT op
Ġweap ons
ĠV ol
Ġext ra
Ġg as
ĠFoot ball
Ġa head
ĠTh rough
e ption
Ġp al
ad ed
ĠM en
ron ic
ylvan ia
Ġe as
ĠK ar
ĠJ ul
Ġheav ily
ĠB ey
ĠUp on
ĠY oung
Ġsup p
ĠD irect
ab eth
it able
ĠT ay
Ġav oid
ĠD utch
l ers
Ġdef ense
Ġchall en
Ġstud ent
Ġag g
ĠWe ek
Ġal one
Ġim age
Ġsp read
Ġapp arent
Ġstud ies
Ġoffic ially
ĠEl iz
Ġhus band
kn own
Ġdist rict
ĠI ll
Ġex ecutive
Ġb it
Ġinst it
ĠAl bert
ĠF re
b ur
ess ions
Ġdeb uted
Ġw ild
Ġprom inent
Ġcapt ure
Ġp ack
Ġcons isted
Ġinstr ument
Ġse nd
Ġinj ury
Ġf ired
Ġorgan ization
Ġequip ment
ĠR og
port s
Ġres c
Ġst one
p ool
Ġpat tern
ĠF ar
Ġpre par
ĠB re
Ġarg ued
ĠD am
Ġa ired
Ġfig ures
ĠB ond
Ġsur pris
Ġexp ed
urb an
Ġgrow th
Ġe th
Ġp ict
ac ity
ĠC ivil
ĠH omer
Ġb ud
Ġh un
Ġcou ple
Ġg raph
Ġdo ing
Ġreturn ing
Ġmag n
Ġr ing
Ġcontem porary
us hed
Ġpo et
Ġc ert
l ines
ro g
Ġp an
Ġwe ight
Ġo x
Ġl aid
Ġdou b
Ġh abit
Ġear th
Ġlead ers
Ġst ep
Ġfl oor
Ġmat ter
Ġaff ected
ĠNort hern
ĠG al
Ġpiec es
Ġt un
Ġ6 00
ap pen
am ber
Ġprop os
ĠSt orm
i as
Ġmain tained
in son
Ġr ang
Ġocc asion
Ġshe ll
ĠH ard
Ġhe re
if ying
Ġvis ited
Ġmain tain
ent al
Ġcommun ic
ĠDan iel
ĠH a
Ġcom es
Ġspe ech
Ġterm in
Ġcritic ized
em ic
Ġhy d
Ġactiv ities
st one
Ġra in
r at
ĠJ on
ĠCarol ina
oc key
Ġex ec
Ġatt ract
ac ement
Ġh all
ol a
Ġc itiz
Ġtourn ament
Ġre ign
Ġem ph
Ġto ward
ock ed
Ġsing les
ul s
Ġd rug
Ġtre es
e ed
Ġrefer ence
n ers
ĠScott ish
Ġcrow d
ĠT em
Ġsen ior
Ġform ation
el ve
Ġ5 3
Ġad apt
Ġ198 7
Ġsur re
ĠR om
ĠMar sh
Ġset ting
Ġmed ical
iv ity
Ġworld wide
ĠSy stem
Ġterrit ory
Ġt rying
ĠGovern ment
est ic
ĠHol ly
Ġ198 8
u ct
Ġapp l
Ġst ations
orn e
ru it
Ġd og
Ġb ul
Ġneg oti
Ġbird s
ĠW rit
ĠF antasy
Ġg od
ĠO cean
g ian
ĠOper ation
ell er
Ġd oll
ĠBack ground
ĠF ield
Ġmach ine
Ġf ellow
ĠGovern or
Ġmur der
emb ly
ĠR od
Ġclaim s
ĠDist rict
ĠH ome
Ġc ell
Ġdis pl
Ġ8 5
ĠDe v
Ġhistor ian
ĠGu ard
Ġra infall
Ġris k
ĠC he
om ers
Ġacc ident
ĠPenn s
Ġf ully
ĠCol on
Ġl oad
ul ed
Ġval ue
Ġthere fore
ot e
Ġspl it
b it
res h
ĠDu ke
Ġch osen
Ġtreat ment
Ġun iversity
Ġgu est
ĠSh ort
velop ment
ra el
Ġs ens
Ġtw ice
ĠStud ios
Ġfrequ ently
ĠG irl
Ġsup ply
ag n
ĠPol ish
ĠL ew
Ġreport s
ord in
stit ution
Ġle aves
ĠBe at
Ġgovern or
il ly
ay er
Ġp aper
g u
Ġ ut
ĠSen ate
Ġrem ark
al y
Ġd yn
amp ion
ĠE astern
led ge
Ġlab el
iz es
Ġf aced
az z
ĠM D
Ġop in
Ġwall s
Ġfollow s
ĠC orn
Ġbill ion
Ġoper ated
ĠB art
Ġg rew
ant ine
ĠR os
uf act
Ġsurround ing
Ġplan et
ĠMe an
m in
Ġs we
re ct
ĠAnd rew
or ter
ant ly
Ġcont ained
on ents
ge nd
Ġcond ition
res p
Ġdeg ree
Ġb al
Ġher self
Ġh orses
Ġman ufact
ĠChrist mas
ĠN ight
et y
Ġcol or
isc o
ĠJ ud
Ġs le
Ġaccom pan
Ġw ounded
ran ce
Ġtyp ically
Ġesc ape
ĠAll ied
Ġ5 4
Ġpass es
Ġun f
Ġm aster
Ġsim ply
ĠWil son
Ġbro wn
Ġf uel
Ã ¨
is ters
Ġre inf
ut ation
Ġrail way
ĠIn st
Ġele ment
Ġd raft
Ġd ang
ĠTay lor
am ing
Ġed itor
Ġl ives
l a
Ġ198 6
Ġord ers
Ġarm s
ĠEliz abeth
Ġph il
m it
ful ly
m ore
Ġserv ing
Ġnot hing
ograp her
Ġc amer
ĠH um
ĠAlex ander
u ous
Ġauthor ity
Ġch ose
ĠM ike
Ġopp osed
Ġwork ers
Ġvot e
Ġmom ent
ĠG i
Ġcons ecutive
Ġcann ot
ric ult
ĠP en
ĠE ach
Ġnew ly
Ġ9 5
ĠJo e
ĠO f
t ar
Ġn ative
ĠJ ac
Ġ5 6
Ġf an
Ġexper iment
uck y
Ġun known
Ġ9 7
is f
Ġparticip ated
ag er
Ġgrow ing
r ich
ĠP ers
Ġwebs ite
Ġcas ual
Ġemph as
Ġp sych
Ġatt rib
anc ing
ã Ĥ
ĠD et
Ġprodu cers
e f
Ġb ass
Ġ Î
Ġnewsp aper
Ġf air
ĠCast le
Ġbene f
Ġl osing
Ã ¤
ĠEx p
ĠF estival
ĠL and
Ġadv anced
Ġadop ted
il ies
Ġfilm ing
im ens
ĠS ound
Ġhe ard
Ġsp irit
Ġfe ed
Ġsever e
ĠPenns ylvania
pt on
Ġoff ensive
Ġopp osition
t hen
Ġf irm
Ġf iction
yp e
ĠR et
Ġex tend
ĠWh at
Ġgu ard
ĠW at
Ġcap acity
Ġ rom
ĠHe ad
ors hip
ĠIs lands
Ġbas is
Ġcoun cil
Ġsequ ence
Ġact ors
ĠC ard
ĠW W
z y
Ġend s
Ġ17 7
Ġa st
ĠRec eption
ĠH y
T C
and a
Ġwe ak
Ġs quadron
us es
ĠG all
ĠBl ue
Ġpr in
Ġcomp ar
Ġadv ant
Ġre ar
Ġabandon ed
ur a
av en
ĠIr ish
ĠF urther
Ġr ival
is ers
ĠT ech
ĠS S
ab les
i ated
Ġprom pt
ĠB ab
Ġk ick
Ġhon or
Ġf lying
le ment
Ġele v
Ġent er
Ġco al
Ġbe y
Ġcreat ing
oc ated
ĠF am
ĠJ ersey
on c
ĠSp ain
Ġlaun ch
Ġfilm ed
ĠHar ry
Ġpol l
B A
Ġregard ed
Ġh appen
Ġnorm al
Ġexp ansion
Ġcritic ism
Ġindivid uals
Ġhom es
ĠC at
el d
Ġagre ement
Ġbey ond
oun ger
ĠU s
Ġinc ident
Ġ17 8
Ġsp ect
Ġ7 6
F A
Ġsp ring
ĠS quare
Ġdel ay
Ġfail ure
ap ers
ĠC a
Ġl iber
ĠCo ast
Ġev ac
Ġde ploy
Ġey e
Ġdism iss
Ġch air
Ġsp orts
ĠL ind
Ġfam ous
in er
Ġin te
Ġv o
Ġs ail
ĠF e
Ġmeas ure
Ġ193 9
ĠA re
ĠS and
Ġposs ibly
Ġbo at
im et
Ġhistor ical
Ġneg ative
Ġb odies
ĠC D
im a
ĠU l
Ġachie ved
Ġm ob
Ġcont act
ĠB ul
ĠW ild
Ġprog ress
Ġstri ke
Ġsil ver
ific ations
Ġbelie ve
ic o
ĠM ul
ĠP ublic
ĠE nd
ĠE lect
Ġro les
ĠBro ad
in y
ĠProdu ction
Ġnar row
Ġ ur
ĠC y
Ġkill ing
ĠV en
Ġret ired
Ġide as
ĠIn stitute
ĠL y
ĠIs rael
i enced
Ġdr ive
on ent
Ġdise ase
m osp
ian a
h ol
Ġp et
Ġtorped o
w ar
Ġim ag
Ġbrief ly
k ins
Ġ6 1
Ġd iam
ĠAr thur
ĠL iver
ĠRev olution
im al
ĠD ue
Ġ196 8
Ġ198 5
Ġt ask
Ġeffect ive
Ġt ree
Ġar med
Ġapp lic
Ġarran g
ed om
Ġto wer
ĠAs h
Ġ6 6
ĠC ub
Ġbud get
Ġper man
Ġrece ive
Ġrepe ated
Ġadminist ration
Ġgrant ed
Ġnecess ary
Ġperson nel
Ġroad s
ĠS und
ock s
Ġreject ed
ĠMean while
en ger
Ġt able
ĠP erson
ĠRepublic an
Ġtw elve
ĠCl ark
Ġkilomet res
Ġin h
ĠDo ctor
Ġgro ss
Ġimpro ved
Ġlead ership
k es
ĠAl bum
Ġcol umn
w orth
Ġinter change
Ġy ellow
aval ry
Ġext ensive
av ed
Ġd ata
ĠM ir
ĠOh io
ĠT y
im ents
our ney
Ġstra ight
Ġturn s
Ġland s
Ġpl ants
Ġinf antry
Ġpurp ose
z il
Ġpar alle
ĠL es
Ġmanag ement
ĠB ell
Ġexp ress
Ġdef in
ĠBo ard
i Äĩ
Ġse at
Ġland ing
o ch
ol n
Ġdescrib es
Ġexp anded
ĠSecret ary
Ġsol o
Ġf ranch
om a
Ġch oice
Ġsuccessful ly
l usion
Ġm ile
Ġbro ken
adel ph
Ġle arn
s et
Ġt ru
Ġcross ing
Ġdid n
Ġint ellig
Ġanim al
u ate
Ġ198 4
Ġdel iver
ĠS a
ĠE p
Ġexpl os
ĠPhil adelph
Ġf ought
g ers
Ġch or
Ġex cl
ĠPro t
ĠB ru
ĠR A
Ġorgan ized
Ġc aught
Ġ8 00
er c
Ġveh icles
Ġcommission ed
Ġsugg ests
ĠB urn
Ġro of
Ġgl ob
ĠE ven
Ġacqu ired
h aps
st ream
et ball
Ġpl aces
Ġcomm ittee
ĠN ever
ri f
Ġanc ient
e v
Ġdram a
ĠI S
ĠH it
ĠGeorg ia
Ġcre ation
ĠS her
ĠM ov
ĠCamb ridge
Ġtyp es
Ġf at
app y
Ġ5 7
Ġg ives
ĠL ar
ĠPhiladelph ia
Ġart icle
Ġcom edy
Ġsevent h
Ġpre fer
Ġnuc lear
ak ers
Ġso ft
z er
Ġun su
Ġw ave
m s
Ġ12 0
i i
a ith
et ts
ĠS R
Ġauthor ities
Ġcont ain
Ġhead quarters
ĠR el
ĠAl so
Ġ196 7
Ġcent uries
Ġcommon ly
Ġdeterm ined
r in
Ġis lands
Ġgen us
n s
Ġro ll
ĠAdd ition
Ġmention ed
att le
ĠRuss ia
ĠM ah
Ġb ott
Ġrec ently
Ġst reet
Ġtra v
ot ed
um es
ĠW ars
Ġbe aut
Ġenc oura
Ġlook ing
ĠG il
Ġcontrol led
am in
Ġfav our
2 0
ip l
rest ling
u an
ĠComm on
art s
ol es
ĠAr g
Ġset s
Ġfam ilies
ĠAm ong
Ġhouse hold
Ġsec urity
ĠLiver pool
Ġa im
Ġfind s
Ġad vert
Ġs and
Ġdec re
ĠNin tend
Ġd rop
Ġsup por
Ġac ad
Ġstand ing
v a
Ġl a
Ġill ust
is hes
ĠL inc
Ġun p
ut ing
ĠNintend o
out s
g n
ĠCh ap
Ġsing ing
Ġwithd raw
ĠK a
ĠEar l
Ġf ish
ĠH ay
Ġd ial
Ġv en
Ġbatt alion
Ġref lect
ĠJ enn
ĠPr ime
ĠColumb ia
ĠB ad
Ġun ique
Ġs ac
it led
Ġdec k
Ġhe ight
Ġcont aining
Ġcult ural
Ġentire ly
Ġor chest
Ġprot ect
w ater
Ġfin ish
ĠLinc oln
o h
Ġtouch down
Ġm ist
ĠSing ap
ill ing
Ġcontrib uted
ĠAs ia
Ġt ry
Ġthem es
ĠDe velopment
ĠKore an
Ġy ounger
Ġprov ides
Ġdef ence
Ġflood ing
ĠL ieutenant
ĠBra zil
Ġ198 3
pp ing
Ġat mosp
Ġ5 8
ĠCh ild
Ġ7 4
Ġa wards
ro om
Ġtit les
Ġm is
ul ate
Ġpurch ased
ĠJew ish
Ġpow ers
in ity
Ġarr ival
ĠH un
Ġcon vers
Ġsched uled
Ġdef ensive
ĠFranc isco
resp ond
Ġres emb
ĠR ol
ĠSingap ore
Ġth ing
Ġaccompan ied
w all
Ġcerem ony
ic ial
Ġun us
Ġqu ite
Ġper fect
Ġ196 4
Ġexped ition
ĠPe ople
Ġw orth
ĠS ix
w ick
Ġ196 9
at ures
Ġloc ations
Ġexist ing
ĠD ark
ĠH on
Ġinter act
Ġadvant age
Ġperform ing
ĠP ot
ĠCare y
Ġphil os
ĠOff ice
r ons
Ġdedic ated
Ġcomp uter
ĠL is
Ġb at
ac ted
k er
ĠB or
ĠDis ney
Ġext rem
Ġrequ est
l aim
Ġâ Ī
Ġintens ity
S tation
ĠT am
ĠK ey
Ġst ore
Ġoccup ied
Ġ191 4
d y
ag an
Ġwh y
Ġs quad
Ġ191 8
ĠPlay Station
Ġf resh
ĠH MS
Ġcar ry
Ġm ounted
il ing
ĠOr der
us c
ĠK el
ash ion
Ġn ob
Ġ198 2
ĠT urn
t a
Ġf ix
Ġt ail
Ġ197 1
Ġm outh
ĠAnd erson
ĠBro ok
ĠB alt
Ġc ricket
Ġm ic
f ort
ĠM ot
ĠSte ve
Ġclos ely
r ations
Ġcons ists
Ġcurrent ly
ĠLew is
man n
ĠMill er
Ġl ic
Ġs ession
Ġ196 6
hen s
ĠBy z
Ġ197 2
ĠRad io
ĠD ie
ĠCon ference
y les
Ġt im
Ġ197 9
Ġindust rial
m outh
Ġe gg
ĠB as
Ġsim ple
av a
Ġ5 9
Ġel imin
pp er
Ġvar i
Ġp iano
ĠOn ce
Ġfac ilities
Ġc old
il ton
Ġsupport ing
Ġdra wn
ĠGr ant
ĠOlymp ic
Ġt y
w are
Ġtra ins
ĠCon n
Ġbel ong
ĠP u
ĠSh ak
Ġprot ection
Ġbo ats
ĠB rian
Ġr ated
Ġr ise
Ġdef ined
Ġse lection
Ġste am
Ġh arm
Ġro w
ot ic
Ġ196 5
Ġreg ions
i ro
ĠS u
aw a
ĠBar b
Ġsub mar
ĠRail way
Ġprot ected
Ġcall s
Ġpro s
Ġh air
ĠN HL
Ġ #
Ġcom ic
ĠEm peror
Ġmot ion
g est
ver se
Ġstruct ures
Ġth row
Ġl ap
Ġa id
Ġsh ark
ĠAt t
Ġl abor
Ġfoc used
Ġopportun ity
Ġ9 9
Ġ197 5
Ġeng aged
Ġrece iving
ing ly
ir ation
Ġcor respond
ĠM u
Ġshoot ing
Ġanal ysis
Ġsp ort
Ġcitiz ens
Ġmot or
b a
Ġobs erv
Ġstreng then
ĠG ulf
os a
Ġnot able
Ã ¸
se y
Ġad ap
ĠA v
ĠJ r
ĠSum mer
uz z
ĠP ress
ĠW ater
Ġexper ienced
ĠGerman s
ĠHolly wood
ul ts
ĠSer b
u a
Ġcon ference
Ġprov iding
Ġhold ing
ĠWal ter
ĠIn c
ing er
Ġvis ual
Ġmount ain
Ġey es
ĠH an
ĠOn ly
Ġ197 4
Ġres ident
ol id
ĠDav is
ad ing
Ġsout heast
ĠL ab
Ġm ut
Ġh ired
Ġchart s
un ior
Ġview ed
F L
Ġmer ch
Ġb ranch
he im
if ically
in th
Ġ6 2
Ġrapid ly
bur gh
Ġrecogn ized
Ġro b
il er
Ġ197 3
ĠG ib
Ġvol ume
Ġv ac
op her
Ġtrans form
Ġal le
ĠDemocr atic
ĠRe view
Ġpro te
Ġschol ars
Ġ6 3
Ġsit es
ess ed
Ġg ain
Ġ7 7
ĠSpec ial
Ġcasual ties
Ġte ach
Ġh yp
Ġsh ared
Ġconc er
Ġparalle l
ĠU N
Ġ7 3
ĠJe an
ĠBet ween
Ġpublic ation
ĠD own
Ġc art
Ġtemper ature
Ġdig ital
ĠF all
Ġ197 6
Ġmod er
Ġeconom y
ĠR ome
ĠB ank
ĠK ir
Ġdevelop ing
Ġste el
Ġreact ion
Ġed ge
b ox
f riend
st anding
Ġc ool
ro ll
ĠPr inc
Ġinters ection
Ġsymb ol
al i
z en
ĠLad y
y er
Ġappro ved
onc Ã©
Ġsecond ary
Ġch ance
ĠN ap
ĠPro v
ĠG ord
ĠO b
Ġv on
Ġhyd ro
om ew
Ġloss es
Ġmy th
Ġcont est
r ant
Ġr ac
ren ce
Ġprep ared
Ġsubst ant
ĠM as
Ġbelie f
it ors
ĠD aily
ĠT en
Ġen l
ĠMus l
if ul
Ġlet ters
olog ist
Ã¡ n
ograph ic
ĠW omen
Ġsignificant ly
Ġw itness
Ġband s
Ġs ort
ond er
Ġc ard
Ġs ave
ĠN az
Ġdom estic
ĠSy d
Ġ25 0
Ġfranch ise
Ġkn ew
ry st
Ġgo es
Ġliter ature
ĠBey oncÃ©
er al
Ġunsu ccess
Ġinst ruct
Ġhead s
ach us
Ġsouth west
Ġact ress
Ġtechn ology
Ġsem i
Ġ6 7
Ġad vent
b reak
or a
Ġdes cend
Ġrough ly
ran ge
Ġ urban
Ġc ab
ast y
ĠComm and
ĠB ern
ak a
un te
ĠPl an
thel ess
Ġpain ting
Ġad ult
Ġl b
ĠM ain
Ġany thing
Ġc ars
Ġp itch
Ġproject s
en c
Ġass ault
ĠInd ust
ĠColon el
Ġex act
ell a
Ġbrother s
i ents
Ġresist ance
Ġgame play
ĠP oint
Ġc ore
ĠN ick
Ġsh ape
Ġstory line
ĠWh it
ĠSup reme
Ġre asons
ĠF air
Ġrul es
im inal
Ġ ign
Ġemploy ed
Ġt ank
ĠI V
rop ri
ĠV ar
ĠKent ucky
Ġd aily
ĠSt ation
Ġsh all
Ġinj ured
Ġ194 6
ĠSp ring
Ġwat ched
Ġ198 1
at i
Ġag ent
ony m
Ġpopular ity
Ġcomp osition
ĠâĪ Ĵ
Ġ9 6
ir a
ĠC ur
Ġper haps
Ġf it
Ġis ol
Ġadd ing
Ġenjoy ed
Ġren amed
Ġopin ion
ĠInd epend
Ġget ting
om ic
Ġdecl ined
Ġcal c
o z
ĠNor way
ag ement
ĠR oss
Ġcomp ris
Ġ6 8
Ġrep utation
Ġl ov
Ġn or
os l
ink ing
ĠThe at
ĠP rem
Ġsh aped
Ġ7 2
Ġest ate
Ġconn ected
Ġunder t
Ġre nd
Ġret ire
Ġd rew
Ġ191 7
Ġmus eum
Ġpo em
Ġregard ing
b ound
ĠOlymp ics
Ġview s
o ir
ĠM os
Ġst ages
ul pt
ĠPhil ipp
Ġconver ted
Ġd ry
ce ived
am m
ĠGold en
ĠMass achus
g al
ĠW alk
if orm
ĠB ase
Ġag ricult
h an
Ġallow s
Ġs un
ĠS el
ad s
Ġdist ingu
Ġn ick
Ġaltern ative
ĠMassachus etts
ĠB all
v est
ĠAb b
re ts
Ġb ed
ĠI mp
Ġhead ed
ig g
Ġj ourney
Ġ8 7
ĠS us
ĠD ream
ath an
Ġdep th
ul es
Ġmiss ing
Ġc ited
at o
Ġincreasing ly
e per
k o
ĠL et
os is
Ġst adium
ĠR on
Ġappro ached
Ġ16 0
ĠAir port
Ġturn ing
ĠH art
Ġrespond ed
Ġplan ning
Ġknow ledge
Ġex erc
ĠV i
Ġeas ily
Ġwe alth
Ġ194 8
Ġover l
Ġc ells
ild ing
Ġf ashion
Ġequ al
Ġesc ort
ol t
Ġ7 00
ĠAb out
Ġcol lected
Ġsuc ceeded
ps ons
Ġconstit ution
m od
em an
ĠK en
Ġfl u
Ġsaf ety
ĠB al
Ġreb u
Ġexist ence
un icip
Ġtri p
Ġp ul
ĠR un
w ise
ign ment
ĠSim psons
Ġintrodu ction
Ġocc as
Ġaut h
Ġmod els
Ġlear ned
ĠIn it
Ġcol le
Ġsust ained
ret t
h i
Ġt all
Ġpromot ion
Ġoper ating
Ġ6 9
Ġ197 8
ur ation
m itted
ĠMc G
Ġbase ball
Ġcar rying
Ġlim it
ĠSong s
Ġex change
Ġshow ing
ig er
Ġy outh
on ia
ĠIm perial
Ġbur ied
eng ers
ĠVietn am
Ġ9 1
Ġhum ans
e g
Ġcred ited
Ġ7 8
c ome
Ġdep end
le ton
Ġarran ged
ĠOtt oman
ĠL oc
Ġimpro ve
Ġim pl
Ġse ems
ĠJ ay
Ġweaken ed
ĠC ape
Ġdesign s
Ġ191 5
in ary
Ġv an
Ġjoin t
ĠShort ly
Ġpain t
Ġa thlet
st ate
ist an
Ġr hy
Ġprodu cing
Ġpro ceed
ĠPol and
el er
ac ts
Ġshe l
ĠSyd ney
Ġfre eway
ĠMo ore
ol i
Ġ197 7
Ġearl iest
Ġfl at
ĠWh o
Ġlast ed
ĠMary land
Ġland fall
Ġsettle ment
p ut
ĠP ict
Ġnot e
ĠR oy
Ġdesc ription
Ġret ained
Ġac res
Ġb rand
ĠSt ew
Ġt on
Ġ9 4
ĠR em
ĠN aval
ĠM TV
ĠA D
Ġlaw s
Ġappoin t
ĠC ra
ival ent
Ġgen re
Ġprogram s
Ġcons c
our ces
Ġassist ant
Ä ģ
re ll
Ġplay off
iv ered
ĠJ es
Ġrepl ace
ad er
Ġinst all
b ell
Ġres erve
iss ance
Ġstat ement
Ġv irt
Ġappl ied
Ġc atch
Ġtr ust
Ġ196 3
Ġviol ence
Ġne ut
Ġscient ific
ins ula
Ġ8 1
ĠAr ts
Ġent rance
Ġcoast al
ot hes
ĠP ass
Ġt ick
ie ge
Ġh its
t ical
Ġcon sequ
av ig
Ġ9 8
Ġexcl us
Ġsyn t
ĠG reg
Ġsc ulpt
Ġpat rol
Ġbatter y
m ath
ĠF ire
Ġit ems
ĠA ri
Ġcandid ate
Ġtown s
le e
Ġindic ated
ĠBow l
Ġun s
Ġgrad ually
Ġdistrib ution
t ime
Ġ191 6
ĠE du
Ġpolit ics
l an
ĠR id
Ġdel ivered
o ard
Ġstop ped
Ġf illed
Ġb an
Ġindepend ence
Ġt act
iz ations
e ke
Ġs ections
Ġdet ails
p et
ĠJ an
ĠI G
ĠConf eder
ĠMul der
el ess
Ġc inem
Ġse lect
Å ¡
Ġcomb ination
m un
Ġ7 1
Ġem p
Ġsuppl ies
Ġway s
Ġgl ass
Ġpart ies
end er
Å Ĥ
Ġst ream
Ġeng ines
us hing
Ġprison ers
Ġcamer a
ĠGord on
Ġappe al
ĠSt adium
ĠA C
ĠB and
Ġ191 9
Ġreg ister
ĠRh odes
Ġcamp us
Ġbas k
em ies
ĠW ell
Ġ196 2
Ġact s
Ġm ig
ĠB on
Ġextrem ely
Ġ8 9
Ġent itled
Ġsec ure
re ets
re c
el a
ĠR a
Ġfind ing
A T
Ġon line
Ġdec ade
ino is
ĠUn ivers
Ġt al
ĠPro f
por ation
iqu es
ĠTheat re
ac ter
Ġwin ner
ĠSt aff
ivers ary
Ġ8 2
Ġar c
rop ol
Ġeven ing
ĠC op
Ġreg iment
Ġ193 8
ĠK im
Ġinvestig ation
Ġ8 8
Ġthreat ened
Ġb ought
Ġmess age
Ġadap ted
Ġs omew
Ġsurv ived
Ġkn ots
Ġcons um
Ġstud ied
ĠB ir
ĠAn th
Ġpropos al
ad or
Ġwrit es
Ġadd ress
as hed
ĠV ill
Ġdeath s
ĠJust ice
i at
Ġro utes
Ġw ars
j a
Ġdown load
Ġrul ed
Ġf ear
ĠN ic
ĠInst ead
Ġrel ief
Ġrelig ion
Ġm ales
Ġredu ce
Ġvot ed
B S
igh ters
ie val
an o
Ġrev olution
Ġspec ifically
Ġsp ons
Ġc rown
Ġph ase
m et
Ġdut y
Ġf ict
ph oon
Ġking dom
ĠA ge
Ġrec alled
bour ne
Ġe c
Ġportray ed
Ġs oul
Ġimp lement
ct ions
ĠC irc
Ġcontrovers y
Ġemer g
ĠH ere
ĠM emorial
h at
Ġcaus es
B N
ĠA st
erv ative
Ġe t
Ġb le
Ġ195 6
Ġevery thing
Ġbreed ing
ap es
ad ow
cher s
a ug
Ġs ell
Ġst ret
Ġ13 0
Ġrefer ences
Ġ17 5
ic ian
Ġbott om
Ġag o
Ġcap able
ĠT ony
Ġconv in
Ġte acher
Ġimport ance
ĠP o
ĠCol l
Ġent ry
Ġmet ers
ĠMc K
ĠSing les
Ġoff ers
ĠI d
ĠN el
ĠK ong
Ġt anks
ĠO d
Ġ7 9
sen al
ĠP ower
b ro
ĠU r
Ġsuff icient
ĠDirect or
ent ially
Ġown er
Ġintern al
Ġarrest ed
Ġoper a
rid ges
ĠAd ams
Ġadm itted
Ġnomin ation
ar p
ĠO k
Ġcorn er
Ġb or
ĠJ ord
ĠM oon
Ġcop y
ĠAl an
Ġ193 6
ĠF A
Ġcross ed
Ġcl imb
Ġproduct s
ĠDou gl
w ich
u ro
ĠCrit ical
b ar
Ġinst alled
Ġequip ped
ĠBe ach
ĠAl f
ĠIG N
Ġpre ced
Ġconcern s
ak i
Ġm ort
Ġover se
Ġaut om
ĠHam ilton
Ġinv ited
ĠSim on
ĠMar ia
ĠEng ine
Ġconv oy
Ġon es
Ġcon qu
Ġinter ested
Ġstart s
ĠAd am
Ġcr ime
Ġprincip al
Ġf ly
ĠG ram
Ġac id
rane an
Ġt ell
ĠY our
Ġrecomm ended
h r
Ġal t
and y
ĠJ ane
Ġun l
ruct ure
ĠPl ot
Ġremain der
Ġmed al
Ġsh ut
ans as
Ġact ual
c a
Ġs now
Ġret reat
ĠU TC
Ġst ock
Ġv ent
Ġup grad
esp read
Ġchar ged
ĠV II
Ġsol id
Ġap art
ĠB os
Ġpr ice
Ġfund s
Ġobject s
ĠC art
Ġdo or
ĠTr ack
Ġ196 1
ĠFore st
osaur us
il ation
Ġcompos er
v is
Ġ8 4
Ġfem ales
ĠV ideo
Ġconsist ing
Ġg all
ak ed
Ġpromot e
ĠDe ath
Ġp age
Ġmil it
i y
ĠN BA
ĠInd ones
Ġconsider able
m b
ĠF ound
ĠPro g
Ġd ates
Ġpo ly
ĠIn t
ill er
h us
ĠN ether
ĠG en
Ġ195 3
Ġtyp ical
Ġground s
ĠKenn edy
er ted
ĠG un
Ġcor rect
ĠTod ay
Ġdut ies
Ġext ension
Ġb low
ck s
re te
Ġev olution
Ġ9 3
Ġsome one
ĠTrans port
Ġcon g
Ġr ural
Ġpen al
ĠMil itary
ĠSund ay
Ġe ighth
B I
v ements
ĠIndian a
Ġsp in
Ġso le
ĠPro ject
Ġhot el
ĠHow ard
os ite
Ġdec ades
ĠNor we
k ing
Ġim ages
ĠP it
Ġdr iving
Ġread ing
Ġident ity
ĠSc ully
ĠH ou
Ġz one
ĠMar c
ad d
Ġocc urs
het ic
ĠLe on
Ġman ner
ĠB ry
Ġsub s
Ġsk in
Ġchallen ge
ĠHit ler
Ġl ane
Ġrem ix
Ġto w
ĠK at
Ġasp ects
Ġperman ent
Ġa er
ĠT ar
Ġb rigade
ĠT a
Ġf rag
Ġ194 7
Ġvol can
Ġd ated
Ġh am
Ġ195 8
ĠC ult
ĠF ive
ĠG ill
Ġv ir
ĠPort ug
Ġnot ing
Ġrest aur
ĠB rist
Ġcol our
e z
a fter
ion e
ĠD rag
ub b
Ġsuppor ters
ĠWW E
Ġslow ly
Ġcle an
ĠB a
Ġpost ed
ĠP ear
Ġ8 6
ens us
ĠTur k
iv als
ĠR ose
ile y
Ġ195 7
Ġ191 0
vel and
ck now
ĠSc ience
Ġdescrib ing
ĠRes earch
Ġinvol ving
Ġ11 0
Ġspe ak
Ġvess els
Ġent ering
Ġen emies
Ġ193 7
ĠAss embly
Ġd ress
Ġequ ivalent
aw are
ĠRy an
ĠH ug
Ġclass es
Ġb ra
Ġdeb ate
Ġsett led
n ic
Ġd in
ĠA k
Ġdep artment
Ġob tained
ĠCon stitution
reg on
Ġacc ur
Ġarm or
Ġpar liament
ĠRol ling
ĠD isc
ert o
ĠMag azine
Ġte le
ĠMount ain
ĠArg ent
Ġsong writ
Ġbas ic
ris is
Ġpurch ase
ag ues
f l
Ġp up
Ġf olk
Ġn est
Ġold est
ĠCle veland
Ġf aith
ĠSp ace
ĠP ier
ĠL enn
Ġconcern ed
Ġdepart ure
Ġwid espread
Ġdec line
Ġform al
Ġconn ection
ĠIll inois
c ation
oph y
Ġinc ome
Ġatt ached
he red
Ġrecogn ition
ĠN ow
Ġinte g
ĠDougl as
Ġm emorial
Ġo uter
ĠThrough out
Ġcert ified
he astern
Ġde leg
Ġacc used
Ġsequ el
Ġ <
orn ey
ĠWeek ly
Ġder ived
Ġdec or
ĠS av
r ates
Ġm ode
ĠI ra
Ġh a
ĠSt and
ĠRe le
are t
ĠAnd y
Ġwear ing
ĠJord an
Ġh ip
Ġass umed
Ġdist urb
Ġsw im
ic it
w estern
Ġw ed
ĠO regon
Ġ195 9
Ġa cknow
ĠStan ley
Ġt orn
ĠFred er
ĠâĢ Ŀ
Ġacc laim
o oth
Ġsur vey
Ġcomm itted
i ot
Ġf oss
ĠAr senal
ĠMed ia
ĠF eder
Ġhost ed
R A
ĠTh ird
Ġreturn s
Ġval ley
Ġseg ment
ĠRog er
Ġs essions
eke nd
ĠD al
Ġpop ulations
ĠPhil ip
agon ist
Ġden ied
Ġf ine
ĠMed iter
ĠT reat
ĠRec ording
Ġtem ple
ĠFam ily
Ġh ang
w an
Ġch ampion
Ġfl o
ĠBeat les
Ġchar ges
ĠT enn
ĠL ow
Ġliter ary
ĠBru ce
ĠKe vin
Ġcan c
Ġreg ional
Ġthous ands
ĠNorwe gian
Ġ195 4
Ġtermin us
Ġtrans ition
Ġ195 5
ĠMediter ranean
Ġcirc um
iv a
Ġsupp osed
Ġwar m
Ġwick ets
ĠBrist ol
ĠâĢ ľ
Ġdem and
ĠE s
ĠD ig
Ġan s
ĠA z
Ġsh ots
hed ral
ĠIS BN
ĠR ain
ud den
Ġstrong ly
he me
ac hel
Ġcirc ulation
ĠB ush
Ġintellig ence
Ġs ailed
Ġposs ibility
Ġpass engers
Ġgener ation
I A
Ġh ope
Ġfict ional
em ed
Ġanim ated
Ġthir ty
Ġfre edom
Ġdown town
ĠH o
ĠCh annel
or gan
ĠF ederal
e ing
it o
Ġh ill
Ġr ich
Ġmin ister
Ġbehav ior
Ġcl oud
ĠMexic an
ra ge
ĠÃ Ĺ
C A
Ġassist ance
Ġrepl acement
Ġbeg un
ĠP ur
Ġf ruit
am i
Ġcommand ed
ĠW eb
Ġdest ruction
atin um
Ġmov es
m es
ĠB ol
Ġcr iminal
ch ar
Ġmiss ed
Ġmiss ions
ĠCon c
Ġcost s
Ġexcept ion
ĠD er
Ġcr ash
or ced
ĠR ow
up t
Ġhigh light
Ġbring ing
Ġt ied
ĠM aster
ĠC as
l ig
ĠE ric
Ġcomm it
ism s
ĠKore a
ĠWith in
Ġint ention
Ġfeel ing
ont o
Ġspe aking
ĠB ah
Ġunus ual
ĠLis a
or al
els h
ĠAddition ally
ĠF ame
Ġinter cept
Ġfin ishing
Ġalle ged
le ts
ĠN ar
Ġdem ol
Ġproper ties
Ġincorpor ated
Ġopp osite
Ġstay ed
ĠS ab
Ġattrib uted
Ġsh op
ĠPh ill
Ġvol unte
Ġrecover ed
b orne
Ġs ons
ĠCol or
Ġbre aking
Ġemer ged
Ġ8 3
Ġserv es
Ġ195 2
Ġatmosp here
ĠMor gan
ĠMor ris
Ġd ipl
Ġchor us
Ġtheat re
ĠNorm an
Ġoccasion ally
r ating
Ġdr iven
oth ing
ole c
ĠSc ient
a ire
ĠE le
Ġstr ateg
ĠRob inson
ĠK r
ens es
um in
ĠE ver
ri ers
Ġclass ic
Ġsp ok
Ġread y
ĠPri or
Ġeffect ively
Ġregular ly
az a
Ġc avalry
Ġ9 2
Ġestablish ment
ĠS ky
Ġpre y
Ġcour ts
Ġmethod s
ĠR aj
Ġsound s
th m
Ġv ary
Ġ193 3
osl av
ĠHaw ai
Ġd ivers
og en
ĠTe levision
Ġsup erv
ĠSim ilar
Ġ17 6
d on
p ective
Ġd ream
ĠA round
Ġcomplet ion
Ġsh ore
ĠUn like
Ġmaterial s
ĠC E
ĠConst ruction
ĠG h
ut y
Ġrespons ibility
Ġdiss ip
Ġwar ning
ĠUS A
Ġaccom mod
w en
ĠC ab
ĠF inn
Ġhe at
Ġatt racted
Ġfield s
Ġsurv iving
Ġprov ince
Ġent ertain
Ġpers u
ĠNel son
ĠI ron
r im
Ġglob al
n old
ec e
ĠN ich
ĠFranc is
Ġm o
Ġqu ant
Ġclass ified
Ġk id
so le
Ġdiffer ences
ĠPrem ier
ĠD E
ĠL anc
ick s
Ġdiv isions
Ġtechn ical
v ens
ĠSwed en
Ġinterp ret
Ġb rain
Ġ193 5
b an
ĠF ord
ĠT echn
Ġcru iser
ĠPat rick
ĠB udd
ip e
Ġpass age
em eter
ab led
ĠAn ton
Ġab oard
Ġn one
ĠM it
in ton
Ġs am
oy d
ĠP A
ĠTem ple
we ight
Ġclub s
Ġst ood
Ġassoci ation
Ġrat ings
Ġne ither
Ġele ven
Ġmusic ians
Ġroom s
n ce
Ġ195 1
Ġ194 9
Ġmed ic
Ġreinf orce
id den
om ot
ĠH ell
Ġdes ire
n ings
Ġh al
Ġsepar ated
ĠTor onto
ĠW elsh
Ġcl imate
ĠAn ne
ag le
Ġs qu
ĠN ations
Ġsh if
Ġout break
Ġclass ification
Ġanc est
ĠD og
Ã³ n
Ġveh icle
ĠMar g
Ġreal ity
Ġpred ecess
Ġseem ed
ĠByz antine
Ġchem ical
Ġvot es
Ġpict ure
te enth
ĠAll en
Ġbattles hips
Ġro se
ĠCh ron
Ġmem ory
Ġhop ed
ic i
ĠProf ess
j i
Ġmov ements
Ġm ent
Ġrequ ested
ĠO pen
ĠNether lands
ĠJ ournal
ĠBel g
og y
Ġra ise
Ġhistor ians
Ġ ille
ĠE very
ĠMatt hew
ĠS n
ĠP ow
b urn
Ġm ap
Ġdifficult y
re ck
Ġbask etball
ind er
ĠW he
ew here
ig e
Ġexp ect
Ġv ide
ab il
Ġcommun ities
Ġrest ored
Ġra id
Ġte en
Ġrem ember
ĠB ang
ĠS ports
Ġprogram me
ĠJew s
Ġpremi ere
Ġp ure
ĠDe an
h ar
Ġf al
Ġdelay ed
ĠJac ob
Ġf er
Ġrel ative
Ġinsp iration
ĠS ax
Ġdiscover y
Ġg al
Ġother wise
Ġgreat ly
ĠUS S
Ġann iversary
Ġinj uries
ĠDes ign
ĠAg ain
Ġneigh bor
Ġacc ounts
Ġsat isf
h ire
Ġfund ing
Ġsurround ed
Ġfl ank
ĠD omin
Ġdep ict
Ġpra ise
ĠUl t
Ġpenal ty
Ġsp oke
il ers
Ġbatt ing
Ġneed s
Ġ19 00
ĠIra q
i ate
Ġd ens
Ġstr ate
Ġd ie
Ġpart ner
Ġc rop
ĠW right
ĠMar ine
Ġmass ive
Ġweap on
Ġphot ograph
Ġrec ru
Ġclaim ing
Ġc ra
ĠD or
an th
ĠB ishop
Ġsu it
Ġass emb
Ġl at
Ġast ron
Ġtri es
Ġform ing
Ġstrate gy
Ġw rong
re al
Ġle gend
ĠO ak
Ġaccom pl
Ġdocument ary
ĠAr men
Ġfl ed
Ġcross es
ĠGl ob
Ġwor st
ĠH op
ĠCroat ian
ĠHe art
ĠD a
Ġstand s
g ets
ĠThom pson
Ġarchitect ure
Ġas h
ĠL ast
ut her
Ġtem porary
ĠJ am
Ġgirl s
ub le
Ġdeterm ine
Ġchair man
ĠD ick
ĠRuss ell
Ġdismiss ed
a ired
ĠIs lam
Ġinvol vement
ĠSt ra
Ġbomb ard
Ġs ale
Ġc ategory
ĠT rib
Ġro t
form ula
Ġpl ane
ĠCent re
Ġin ner
Ġrem n
Ġadapt ation
ĠMar s
Ġhe ar
r um
ond s
go ing
Ġens ure
Ġconvin ced
Ġs ight
Ġen f
ly n
Ġc ul
ĠN C
Ġwe ekend
Ġ0 6
ĠH oly
ĠN FL
ĠPu erto
ĠF ront
Ġres ources
Ġsomew hat
Ġres erv
ĠCar ter
Ġinter ests
ĠWin ter
ĠR ick
w ing
Ġsc heme
Ġmed ieval
Ġimmedi ate
ĠKel ly
ĠHe nd
Ġst reets
ag re
Ġpresident ial
ĠMod ern
Ġl ibrary
ĠK er
Ġr ay
ost er
Ġcar bon
Ġabs or
Ġcons p
ĠCo oper
b ody
Ġ ic
ĠSp e
itz er
p o
Ġfall ing
Ġcolon ial
ĠD ra
ĠAl ong
Ġtechn iques
Ġo ri
Ġclass ical
Ġs ed
Ġf ighter
Ġn inth
ĠN iel
ĠR ang
Ġapp ropri
Ġthr one
ĠG ard
Ġstar red
Ġegg s
ĠBro ther
Ġacad emic
ĠF ree
ĠN etwork
Ġr aces
Ġb right
ic ide
ay a
Ġad ults
ĠP ak
Ġcon vent
Ġcomm emor
Ġpass enger
Ã ±
Ġsurv iv
Ġl oyal
ĠHung arian
ĠN ob
Ġme ets
Ġl ake
n ight
ĠW y
ĠG ri
Ġreview er
es ter
Ġal ien
ĠTh us
Ġ191 3
Ġpremi ered
Ġsubmar ine
r ine
ĠB ou
Ġabs ence
ĠBat man
b ec
we alth
Ġsee ing
Ġren ew
á »
Ġf itted
ĠL abor
Ġel se
Ġsuper ior
os ure
Ġinter ior
ars h
Ġfavor ite
ĠPark er
Ġengine er
ron ze
Ġd ub
P A
ĠE st
Ġair port
Ġpart n
ĠT ok
Ġde emed
Ġattack ing
ĠHar ris
om p
Ġconc lusion
Ġappear ing
ac ent
Ġvis ible
ĠB i
Ġ192 6
Ġd ating
iv an
Ġsynt hes
us ing
Ġcharacter istics
Ġrom antic
Ġ x
Ġlead s
Ġelect ions
Ġr um
Ġoper ate
Ġfac ility
Ġencoura ged
Ġ192 7
Ġm unicip
ĠL ibrary
Ġafter wards
Ġretire ment
ĠD NA
Ġland ed
b ook
Ġcol ony
Ġconv ection
ĠMur ray
Ġtemper atures
Ġbu y
Ġ192 1
Ġevery one
ch ang
ĠA I
Ġdo ct
o en
Ġsuff ering
Ġcred it
Ġ193 4
Ġlegisl ation
Ġhold s
ĠKn ight
Ġmod ified
Ġl ies
Ġchall eng
ĠEdu cation
ĠT s
ĠL ate
a ver
Ġpain ted
Ġcontrovers ial
Ġw ings
e or
Ġs an
Ġg one
Ġâ Ĥ
an ia
ro it
oss ible
ĠHou ston
Ġbelie ves
ix on
Ġc ode
ur ches
Ġdistrib uted
Ġo d
ĠB rand
ĠComm ander
Ġattempt ing
Ġ0 8
ĠPol ice
as ure
ĠBer lin
ĠPal ace
ust er
Ġstand ards
Ġlook ed
Ġresc ue
Ġ9 00
Ġauth ors
Ġsec ured
ĠAd vent
Ġmon arch
Ġdep icted
Ġ191 2
t ic
ĠU t
Ġcan cer
Ġarch ae
Ġdomin ated
ĠF I
Ġbattles hip
ac he
Ġgr ass
Ġhabit at
Ġ Å
Ġany one
sc ape
ap se
ĠY ug
Ġcontin uing
com ing
Ġjud ge
Ġw el
Ġlong est
Ġimm ig
ĠSt ory
ĠSant a
el ine
aw s
Ġbig gest
ĠSwed ish
l i
ĠCommon wealth
Ġunsuccess ful
Ġun ion
Ġgraph ics
ĠG et
Ġp ound
enc ies
Ġn eck
Ġob tain
ĠL i
ĠSim pson
ĠRober ts
Ġtra ined
ĠO t
ĠY an
Ġs udden
Ġw ins
ĠH ospital
Ġ193 2
ult ane
inal s
ĠO bs
Ġj ump
Ġarrang ement
Ġcar rier
ask a
Ġrail road
ow a
ĠInd ians
ĠE y
Ġacknow led
ĠL yn
ĠSil ver
Ġnick n
ĠM ort
om ing
op es
Ġinform ed
Ġmeas ures
e enth
ĠC ook
hes s
ĠRA AF
Ġbel t
Ġrepresent ing
emeter y
Ġrele ases
ĠCor poration
Ġachie ve
ĠSoc ial
ĠN BC
ĠWar ner
tern al
ch ing
Ġse es
Ġ0 9
ĠMer c
Ġgar rison
ĠYug oslav
Ġcon vention
t ure
un a
Ġformer ly
ĠJ ason
Ġgr ade
Ġb ab
Ġgener ated
Ġst yles
Ġclos er
Ġdeploy ed
Ġemerg ency
ĠAnth ony
Ġb ats
Ġal leg
ten ance
el le
Ġquest ions
ol ph
Ġmoder ate
f are
Ġhistor ic
Ġg ets
Ġv eter
Ġtri als
Ġf estival
Ġcy cle
Ġm olec
hem at
Ġs ter
Ġs iege
Ġinflu ential
ĠC ru
Ġemot ional
ĠH in
ĠCroat ia
ĠDet roit
ĠT al
ot ype
Ġown ers
Ġnov els
ut s
ag u
ĠR AF
Ġsuccess or
Ġinflu ences
Ġnar rative
ĠG aga
Ġ192 9
ar ia
ĠB ure
Ġth in
ĠCh amber
ain ts
Ġst ead
Ġr u
Ġ191 1
Ġe at
Ġex cess
Ġjournal ist
ĠAut hor
Ġchild hood
ĠGil bert
Ġconst ant
Ġexper iences
m ate
Ġpre gn
Ġdef ended
Ġve get
Ġdiscuss ed
ĠPrinc ess
Ġleg s
Ġapparent ly
Ġal co
Ġinstr uments
ĠR ap
Ġass ass
ĠSp ears
Ġ14 0
Ġvict ims
Ġtre ated
Ġg iant
ĠP C
Ġenvironment al
Ġdipl om
f ire
ark ed
Ġexec uted
im ore
Ġdet ail
ĠAs ian
Ġcoin s
Ġ193 1
Ġ192 2
Ġdep os
ann y
Ġoffic es
ob i
Ġfact ors
3 0
Ġm ine
ĠJes us
y ard
ust ed
i ens
Ġbe ar
Ġconc ur
ram s
ĠD esc
ach ment
Ġent ers
Ġhun ting
ĠS omers
Ġwood en
ĠMel bourne
n oon
ĠEv ans
ĠNiel sen
ĠP ope
ĠAtl ant
ast e
Ġch annel
Ġhundred s
Ġr ide
ĠV ice
Ġres igned
ĠGu y
D S
Ġo cean
ro t
ĠCl inton
ĠX box
ili ar
Ġg ay
Ġun iform
ĠM un
Ġsk ills
ĠB ed
Ġn avig
ĠOr gan
Ġreve als
al o
ĠNever theless
Ġsp end
Ġchap ter
ĠC ategory
Ġpoin ted
Ġen h
Ġrid ge
te xt
Ġcl im
E S
or ous
ĠW ing
Ġwatch ing
ĠStew art
Ġb on
Ġprevent ed
us ic
ĠMusl im
Ġ0 5
Ġprefer red
l ie
ut t
ĠRe al
re es
Ġp ushed
Ġp ull
Ġform at
ic ians
Ġloc omot
Ġfoot age
Ġfle w
Ġlangu ages
ĠHe avy
Ġdiffer ence
Ġopp onents
Ġhappen ed
ĠT ower
Ġform ally
Ġthere after
Ġdrum s
Ġint ent
Ġreported ly
Ġche ck
it ter
Ġfac ing
ĠB enn
Ġres ign
Ġrelationship s
Ġaccom p
ĠOrig in
Ġch ain
Ġint ense
ĠCar ib
Ġthous and
ĠBul gar
ĠTurk ish
Ġhand ed
ĠSam uel
ĠExp ress
ot o
t ty
Ġdev ice
Ġnot ably
ĠSar ah
s ki
Ġanim ation
ĠR ey
ĠL im
og ether
Ġf iring
ĠLenn on
Ġv ision
Ġinh abit
Ġex isted
Ġvisit ors
ĠB ird
id i
Ġsurre nder
ĠA ud
Ġg ather
Ġemploy ees
ĠGre ece
M A
ĠBalt imore
Ġb es
on ies
Ġ17 0
Ġaccomp any
ĠAust ria
ĠQue ens
m ad
ĠAlbum s
ro c
be an
ĠH ans
ĠAr k
sp ec
Ġdepart ed
Ġlink ed
Ġhe aring
Ġexp osed
Ġparticip ate
d s
Ġpoet ry
Ġdial ogue
st ic
h att
d a
Ġext ent
o is
Ġf il
ĠSt ock
Ġdet ailed
Ġannoun ce
ol is
ĠColor ado
Ġsubstant ial
y o
ic an
Ġlear ning
Ġbe ach
Ġaud io
ĠC am
ĠR aw
Ġinst ance
Ġunivers e
ĠL ane
ropol itan
Ġreb ell
Ġcru isers
Ġresident ial
j o
un es
Ġimp ressed
pris e
ĠWrit ing
ĠMarsh all
or age
ĠH orn
Ġv ul
or ial
Ġperiod s
Ġav o
ĠInit ially
end ment
ĠC z
Ġs ke
ĠFound ation
Ġm art
Ġh uge
Ġpl ate
Ġpubl isher
ull ivan
ĠMal ays
Ġut il
Ġh at
Ġt aught
Ġe asy
ig en
ĠD ave
Ġafter noon
Ġent hus
l ock
olog ists
Ġtem por
Ġst em
ĠFreder ick
Ġterrit ories
Ġdr iver
Ġimp rison
Ġreview ers
Ġtest ing
rib ed
ĠEr n
Ġvide os
b oy
Ġ192 8
ĠW restling
op ter
Ġh appy
Ġup d
Ġt ests
vi ation
ĠB anks
ĠH aving
iam i
ĠHor se
Ġst able
Ġte eth
Ġfe ud
Ġrep rodu
Ġsym pt
Ġunderst and
Ġisol ated
Ġc a
ro ph
og an
Ġnegoti ations
Ġvess el
ĠSomers et
Ġdiam eter
Ġin her
Ġag ents
Ġsle ep
ot es
Ġpick ed
ĠJ ess
at ically
ĠAn na
Ġ192 5
ĠB uck
Ġb ridges
ĠK now
ĠMar io
Ġgood s
Ġencoun tered
ch o
Ġdang erous
Ġj unior
Ġwithd rew
ĠRele ase
Ġdi agn
Ġl ob
Ġsim ultane
ro ke
Ġag ed
Ġfound er
Ġre un
ĠAng lo
Ġbehav i
Ġfact or
Ġnorm ally
Ġupgrad ed
se a
ĠGi ants
Ġkeep ing
Ġf ur
ĠM iami
Ġspec imens
Ġwind ow
bor ough
Ġt ie
Ġp ounds
Ġ189 0
m ission
ĠSe attle
Ġdet er
Ġmed ium
Ġsat ell
et ime
Ġrel ie
Ġfrequ ent
ol as
Ġsu re
Ġ192 4
Ġcoll aps
Ġeth nic
b ridge
Ġto ll
Ġm ir
Ġd iet
id ae
Ġpart ly
ĠChampionship s
ĠPlay er
ĠE xt
Ġlow est
Ġc risis
Ġpro hib
Ġres ear
Ġengine ering
c hen
ĠTre k
ĠC all
Ġapp rec
ĠS oon
ĠAl ab
Ġout f
Ġtravel ed
Ġv ic
ĠC re
Ġwhere as
Ġorgan izations
hel m
i able
Ġpro ced
aw ay
Ġdesign er
Ġp ed
Ġrare ly
Ġl ose
ĠO p
Ġref ers
Ġt one
ames e
ĠH and
Ġdoes n
Ġtur rets
us al
Ġtechn ique
iec e
b rid
Ġins c
ĠHum an
ĠTreat y
ĠI owa
ger y
Ġv ice
Ã© e
Ġor b
Ġa x
ig s
Ġsp ending
Ġfinal e
Ġ0 7
Ġcritic ised
Ġadv ice
Ġperm ission
Ġmain tenance
Ġl ad
ĠM L
Ġpl atinum
enn is
Ġunc ertain
Ġdifficult ies
Ġp hen
il a
x ual
y gen
Ġcomp lic
Ġpart ially
Ġrest ric
Ġpolic ies
ĠAlab ama
l s
Ġby pass
Ġperson ality
Ġag ree
Ġver se
Ġmain stream
ĠFor ces
Ġcompet e
Ġrank ing
Ġindic ate
Ġl iqu
Ġexc ell
ĠD ur
Ġpro port
Ġrecord ings
in ction
il st
usc ript
ĠCarib bean
Ġun n
ok ed
Ġcom ments
F C
Ġrem ove
Ġant icip
c ol
Ġfinal s
ĠNap ole
Ġm amm
ĠThe n
Ġref uge
ĠB uff
ĠMiss iss
Ġsaf e
ĠLaw rence
atter ed
Ġconcer ts
Ġ192 3
Ġwind ows
ĠYan ke
ĠCan al
Ġstri p
Ġse ats
ud a
Ġrest rict
Ġmor al
Ġsy mp
che ll
ĠCharl ie
Ġover s
Ġmon ument
Ġr ates
Ġj ur
Ġrep air
Ġext reme
Ġfall s
Ġf ighters
ĠA h
ĠN at
Ġrec ur
ĠMin nes
Ġrecomm end
Ġpit ched
ĠB ros
Ġrepresent ative
Ġcover s
ĠCro wn
Ġal ter
Ġtr uth
ĠSen ator
ĠMc D
Ġt enth
en h
Ġdif f
ĠM ach
Ġprompt ed
p ower
is d
Ġfor cing
ran g
Ġdescrib e
Ġprot est
Ġh ockey
ĠC R
ĠI an
Ġph r
Ġt ub
ĠMin istry
Ġrec onst
Ġshe ar
Ġdestroy ers
A r
m ates
Ġmin imum
s k
Ġunder w
ĠM P
ĠB rig
ĠG arden
ĠTown ship
Ġp ric
Ġh ull
ĠH u
Ġch urches
Ġneighbor hood
if er
ĠDe ad
Ġfriend ly
ĠGram my
Ġbas es
Ġboy s
Ġexam ples
ĠUS D
ĠÃ Ĩ
ĠHe alth
ĠBl ood
ĠHung ary
ur ance
Ġdraw ing
ĠCount ry
ĠPol it
ĠNaz i
Ġp in
ĠBen j
Ġtrav elled
m ers
ĠB an
Ġbomb ers
Ġin aug
Ġdo ctor
ĠR oc
ĠD ance
Ġdyn asty
Ġadj acent
Ġm and
Ġappro val
Ġhous ing
Ġdisplay ed
ĠH amp
ĠRet urn
ĠAustral ians
ĠBelg ium
1 0
Ġcreat or
Ġcred its
Ġj u
ĠChrist opher
Ġt urb
Ġgro wn
Ġjoin ing
Ġlist ing
Ġcoll apse
Ġtrib ute
Ġaw are
ĠDie go
Ġpartn ership
ĠShak esp
e u
Ġprot agonist
i ac
Ġf ung
ĠC old
ĠE vent
z z
ĠR and
od ore
ant e
Ġexpl o
ĠMed al
Ä į
Ġmom ents
od s
Ġact ed
Ġchang ing
Ġcreat ive
ã ģ
Ġ *
al ions
Ġdesign ation
w a
ic y
Ġpow ered
ĠG ab
ĠK al
ug by
Ġinstrument al
ĠRep resent
it ud
ĠM uch
Ġref ere
Ġtre nd
ĠLa ure
Ġas ks
ĠChild ren
ĠC amer
ĠD C
onna issance
vel t
Ġrad ar
Ġcan al
b ra
Ġstorm s
ĠMic hel
ĠH ud
Ġar ts
Ġvill ages
ĠC red
ĠL l
Ġposs ession
Ġ190 5
Ġappoint ment
Ġadv is
Ġ190 8
Ġdoll ars
im eter
Ġtreat y
Ġscient ists
d ie
Ġ190 9
oun ced
Ġround s
ĠKh an
st ers
ot ten
ĠRec ord
Ġvict ories
Ġsurv ive
ĠGuard ian
Ã §
Ġelimin ated
Ġpaint ings
ĠBenj amin
Ġcover ing
ĠLeg acy
Ġwhe el
Ġmin imal
Ġprec ip
Ġ els
ĠRo ose
ĠH ockey
c op
Ġels ewhere
Ġt elling
ic ts
ĠVietn amese
ĠH ills
Ġnewsp apers
Ġinn ov
Ġsurpris e
Ġbenef it
iv ated
act ive
ec raft
Ġseek ing
ĠA R
Ġarr iving
Ġanal y
Ġhelp ing
Ġoccup ation
Ġrhy thm
Ġsu icide
ĠMinnes ota
ou ri
Ġpurp oses
ĠF al
ĠAlf red
v y
Ġun like
ĠTh or
Ġval ues
Ġdisp ute
Ġoccas ions
Ġb rick
Ġg ard
ĠH ind
Ġsm ooth
Ġlo an
Ġp ool
ĠS et
ĠMan hatt
Ġtw in
ĠT un
Ġw et
rup ted
Ġo ption
ro id
ĠManhatt an
ĠD iv
um an
Ġman uscript
ograph ical
or ious
Ġso il
Ġg at
ĠK urt
ĠFrank lin
Ġf ishing
ĠInter state
Ġstrugg le
ĠWalk er
Ġc ryst
r m
over s
Ġmur d
Ġ10 5
Ġbal ance
n o
ĠL in
ĠA ff
ĠAdm inist
T A
ĠS on
Ġ12 5
Ġhel ic
Ġdeg rees
ĠAn im
ĠRoose velt
Ġ0 4
Ġpres erved
ĠTr ust
g on
Ġ Ä
Ġsched ule
es h
ĠCom b
ĠShe l
Ġfl ash
ĠPer form
Ġ190 7
Ġc ateg
Ġco oper
ĠFl ight
Ġcircum st
ri x
ĠPen insula
ack s
Ġpublic ly
ather ine
ĠH ong
Ġviol ent
Ġcandid ates
Ġres umed
ĠB eck
rom e
or ph
Ġem peror
Ġ16 4
ac le
ĠB ull
Ġhon our
n ik
ĠI ce
ĠK ansas
Ġcompet ed
Ġpil ots
Ġwed ding
ĠF ried
Ġsurviv ors
ish ment
inc ial
mun ition
Ġd ies
Ġab ilities
ĠIndust ry
ĠB h
Ġpro cl
Ġneut ral
s ky
ĠN ash
act ion
Ġc ook
ul ating
Ġsp an
ĠSat ur
m ph
ok ing
Ġbeaut iful
Ġb id
ĠL ith
ĠMississ ipp
Ġimp ossible
ĠPort land
Ġco ordin
Ġintens ified
ĠB orn
Ġal ignment
Ġarg ument
Ġmult i
Ġteach ing
f ted
Ġadv oc
Ġcust om
Ġass isted
Ġpo ison
Ġw rest
Ġle m
Ġdefe ating
Ġcons ult
Ġelect ronic
ob ile
Ġconc rete
Ġl ists
Ġpro sp
ĠHot el
Ġover t
Ġn ations
ĠW olf
ĠP le
Ġser ial
Ġsim pl
Ġr ivers
ens ions
Ġdisc ip
Ġabs ol
ĠBu ilding
ap h
Ġp y
ĠW ard
ĠDig ital
Ġass ists
Ġfound ation
Ġel abor
ĠBr un
is p
ĠV I
Ġopp onent
ĠJ os
Ġinterest ing
à ¤
Ġd anc
il ty
Ġagricult ural
e are
Ġbusiness es
Ġback ing
Ġox ygen
Ġsu itable
Ġ16 5
ĠCo le
Ġp arent
Ġm ines
Ġsign ing
Ġ188 0
Ġsub mitted
Ġtun nel
Ġfif teen
Ġunderst anding
Ġschol ar
ĠH em
Ġg rey
row s
ĠC ob
ĠL am
Ġencoun ter
Ġsympt oms
ĠBl ues
iven ess
it ated
ĠD w
f ace
Ġc iting
Ġw aves
Ġbeh alf
ĠHal o
ic er
Ġor bit
ĠAlex and
ĠShakesp eare
Ġspirit ual
Ġs unk
ĠD om
ct ic
Ġpercent age
ĠN ative
Ġpar ish
Ġs ank
ĠW ol
ag en
Ġforest s
ĠAre a
ĠTenn ess
ĠHin du
b l
Ġn inet
Ġfor ty
Ġsit uated
un ch
Ġsign s
Ġclos ing
Ġsubject s
ĠCamp bell
ĠV inc
ĠA thlet
onym ous
al ities
Ġam munition
S P
Ġvo iced
d ale
ĠP rom
ĠK ings
Ġus ual
Ġill ness
Ġn om
ĠN on
ĠT ag
Ġrep airs
ĠS ullivan
ĠHer o
Ġres olution
Ġcor por
as ters
ĠSte ven
Ġim perial
ĠLuc as
ĠD est
Ġask ing
ĠB ox
Ġdis aster
Ġfun ctions
Ġcollabor ation
Ġass ess
Ġ0 1
Ġattend ance
Ġcontro ll
Ġrestaur ant
l ah
ĠF riend
Ġl ieutenant
ĠEgypt ian
f ather
Ġev il
Ġaud iences
Ġfeel ings
Ġst ring
Ġunder ground
Ġdel iber
Ä ĥ
Ġw orship
Ġj unction
ĠR en
Ġfl ights
ĠSte vens
Ġport ra
Ġaff airs
Ġsusp ended
u v
ĠMarg aret
am ic
Ġsk ull
ĠTenness ee
ĠR ab
Ġex it
ĠMississipp i
ar on
os m
se x
ĠR ace
od ge
amp s
Ġpr on
Ġwill ing
ĠJ osh
Ġtar gets
ĠLouis iana
Ë Ī
Ġcar go
Ġinit i
Ġearth qu
r ator
Ġrec re
Ġ190 6
ĠM ack
Ġaff air
Ġfun eral
ĠMont real
id d
Ġpro l
Ġoper ational
ĠMc L
ĠHistor ic
res ents
qu es
ĠWar ren
Ġab ol
Ġ36 0
Ġpoor ly
ĠLab our
r us
Ġle ct
Ġmeas ured
Ġ190 4
Ġcomp ilation
ĠPal est
Ġdoc uments
Ġmount ains
ĠMiss ouri
Ġf iled
Ġaim ed
r ants
u able
rac ts
Ġcirc uit
Ġregister ed
Ġan ch
ĠK u
we et
Ġ187 0
ĠDep ression
ĠPhilipp ines
Ġconsc ious
C C
ĠT an
Ġstat ue
Ġfavor able
Ġel der
Ġsub t
Ġaff ili
Ġro ut
Ġlik ed
ĠApp le
Ġadop t
ĠMit chell
or i
an ium
ĠN ag
and al
ĠSt at
Ġb ot
Ġrecogn ised
Ġexplos ion
ĠDrag on
ĠB illy
ate ur
Ġrep resents
Ġprofess or
Ġentertain ment
Ġj azz
f e
Ġtempor arily
cept ion
Ġs ector
ĠSt r
Ġb en
ĠC ow
ĠJo h
ĠSm all
Ġsequ ences
ĠCrit ics
Ġrepl acing
ik a
Ġfif ty
ĠP ed
over e
ĠKir k
g ate
Ġoff ering
Ġshell s
Ġc yl
id el
ad i
Ġart work
ĠR ing
ĠV is
ĠGra ham
ĠIndepend ent
Ġw ore
Ġres idence
Ġinterp re
Ġprepar ation
er a
ĠF em
ine a
Ġmar gin
Ġ0 3
spec ies
ĠMag n
ĠBus iness
ĠCz ech
ord ers
iss ions
Ġref lected
Ġrest oration
Ġnuc le
Ġall iance
Ġpr ime
Ġrel uct
Ġdirect ors
Ġexp ensive
ĠM ess
Ġr ig
ĠL ov
Ġter ror
Ġto uring
ĠS now
ĠN ear
ĠU E
anc ell
yl an
Ġover w
inent al
Ġalco hol
Ġcomple ting
Ġamong st
Ġthink ing
r ace
ĠY e
Ġsuggest ing
ĠM aur
art ney
ĠM es
un c
ĠAri z
Ġb anks
Ġhor ror
Ġgra v
b ishop
el lect
ĠCub a
Ġcanc elled
ĠSe ven
Ġrebu ilt
Ġcover age
Ġc od
ĠF rid
qu ir
Ġpul led
Ġre ven
Ġdec ides
Ġesc aped
Ġd imens
ĠGu ide
Ġer upt
Ġb ay
Ġwas n
Ġam ounts
ĠCh and
ĠEd ge
Ġc ous
ip h
Ġlack ed
Ġtrib es
overe ign
re p
Ġr acing
Ġdram atic
ĠPh oen
Ġclear ly
Ġcommunic ation
Ġg arden
Ġpattern s
ĠTam il
ĠF iles
Ġfam iliar
Ġpred omin
ur ally
Ġeng agement
Ġf rig
Ġr it
Ġown ership
app ing
Ġarg ues
ra k
ĠC her
Ġmark s
u ary
ĠAriz ona
Ġs aved
ĠInd ies
Ġarm ored
Ġpers pective
ĠS ony
ok es
Ġmat hemat
Ġcolon ies
ĠPers ian
Ġg ang
Ġwick et
Ġdro ve
ĠG rey
ĠSatur day
Ġcontrib utions
Ġmerch ant
Ġsol ution
ĠD ylan
st orm
Ġpr int
Ġfast est
t i
Ġplayoff s
Ġart istic
Ġadminist rative
Ġse ed
ĠSc out
Ġremn ants
iet ies
Ġt ag
Ġex ecut
Ġcharacter ized
Ã º
Ġfal se
ĠMar ie
ath y
j e
Ġbound ary
id ency
Ġr ising
Ġmilit ia
Ġk ings
Ġ11 5
Ġsever ely
f ish
Ġcrew s
ex p
Ġinstit utions
Ġarm ament
og a
Ġdisapp oin
ĠL as
Ġbad ly
Ġret ail
Ġdep ending
Ġflag ship
ĠConfeder ate
b re
Ġear ning
Ġbul k
ĠBure au
Ġgen etic
Ġdistinct ive
ov a
Ġbow ling
Ġexpl ains
Ġide al
s es
Ġb ran
ac on
ĠP a
ĠE P
Ġnot ice
Ġrec ip
or er
it ting
Ġb ronze
om ber
Ġfall en
Ġexc av
ĠOk lah
Ġrestric ted
Ġrank s
c ru
Ġcon text
e qu
Ġfr ust
Ġcompar ison
Ġth rew
ĠN ik
ect ic
ĠS in
ĠL iz
ell i
Ġdemonst rated
ment ed
Ġexpl ain
Ġcond em
Ġrang ing
Ġear n
Ġqu iet
u ations
Ġpo ems
Ġin land
Ġ17 4
Ġcontrol s
Ġinhabit ants
l ife
Ġarr ive
ĠSw itzer
ĠWil helm
Ġrid ers
ĠMur phy
Ġt rick
Ġs isters
ĠA my
Ġg ap
ĠProg ram
Ġpract ices
Ġlo op
ĠL ang
Ġk W
Ġw ants
Ġm ental
Ġman eu
ĠHar vey
ĠMr s
ĠS uch
Ġf aster
ĠE conom
Ġv el
Ġcons ervative
Ġelect ron
ĠBroad way
ĠA BC
iv ia
form ation
Ġme at
Ġwid er
ĠSwitzer land
l ings
Ġsh ield
Ġsy nd
Ġob vious
Ġrev ol
Ġk it
ov en
ock ing
ĠN a
Ġsur ge
Ġexc lud
Ġspot ted
ot ton
th a
ĠBar ry
Ġacc eler
Ġvul ner
Ġre aches
ph a
Ġ190 1
Ġdistingu ished
Ġp ace
Ġpl us
Ġnorth ward
r Ã©
Ġev olved
Ġexhib ition
ast s
ant on
Ġapplic ation
Ġg ate
ĠOklah oma
E C
ĠT el
Ġmill imet
ĠAust rian
Ġquarter back
Ġnomin ations
Ġag ency
Ġtri ple
Ġprote in
h u
Ġsub species
ĠFeder ation
Ġfr ame
rupt ion
Ġsatell ite
ĠCl ar
Ġt ip
Ġaut obi
ĠOrig inal
S A
Ġdomin ant
Ġprep are
Ġhousehold s
Ġpred icted
Ġpal ace
in ations
ĠDel aware
Ġw reck
um a
Ġte x
et on
Ġst orage
Ġsl aves
Ġ190 3
ĠB omb
ur er
ĠR at
sequ ently
gr ade
Ġint ellect
Ġ15 5
Ġ190 2
Ġab und
ĠLith uan
Ġth or
el and
Ġv s
Ġart icles
Ġprin ted
uk i
Ġv ast
Ġ0 2
Ġcar riers
Ġatt ained
ĠPer ry
Ġrepeated ly
Ġfix ed
Ġpredecess or
Ġall ies
Ġver tical
Ġsur gery
ĠLes lie
Ġst ores
Ġout l
d in
Ġst rict
Ġsign al
ĠM ik
Ġpe aking
ĠHar v
l us
im en
ĠF if
Ġphilos ophy
Ġy ield
Ġphen omen
Ġadvent ure
Ġbi ographer
Ġblock s
asc ar
Ġexcell ent
on ed
Ġb oss
ĠR ih
Ġdis agre
ĠBab y
Ġt ack
ĠOrigin ally
Ġpre tty
Ġille gal
ript ions
ĠD S
ĠV e
Ġbomb s
ĠA ld
ĠH ur
Ġper ceived
ĠM other
id ers
Ġserious ly
Ġcho ose
ĠTok yo
v ant
ic ate
ĠR ico
ĠL ess
Ġcom fort
Ġap artment
ĠDen mark
Ġremark ed
Ġwest ward
ĠJon athan
ĠRid ge
Ġuse ful
Ġwa iting
Ġt ight
ro se
Ġcircumst ances
augh ters
ĠBern ard
ĠBase ball
yl er
Ġcur ren
ĠPlay ers
ĠAtlant a
ĠRih anna
ar o
Ġsk et
Ġcoin c
Ġsurre nd
Ġmeet ings
Ġdrug s
Ġbatt alions
it age
ĠC hel
Ġdoll ar
Å «
ĠH ann
ĠAbb ey
Ġs ick
ĠJohn ny
Ġinstit ution
ĠN ixon
Ġph one
A R
Ġb reat
Ġcivil ian
Ġlay er
ĠW or
ĠTer rit
Ġarm our
Ġread ers
ĠT on
Ġwh ilst
Ġ10 1
az ing
n g
ĠR oll
Ġg ust
Ġch amber
Ġmat ters
Ġcast ing
Ġfriend ship
r ings
Ġt iss
ĠP il
em en
ap olis
ĠJu an
Ġstrengthen ed
Ġh orn
Ġvis iting
Ġplan ets
m i
Ġh olid
Ġr ub
ĠCamp aign
in ian
ĠM aj
Ġrec onnaissance
Ġ16 8
Ġret ain
Ġsimilar ly
ĠPit ts
Ġsimultane ously
est one
ĠIn n
ĠEd wards
ming ham
r int
ĠC hen
ĠAr nold
Ġleg acy
ess es
Ġaltern ate
Ġdem anded
L C
on omy
Ġty phoon
ri k
ĠO pp
Ġem pt
ĠA y
ĠW ag
Ġpan el
T W
ac c
ĠR al
Ġjust ice
g ro
ĠLe x
Ġenl isted
ar th
ĠS oul
Ġal ive
Ġins isted
ĠRail road
ĠI ran
Ġre vers
ĠPri ze
I S
Ġh ook
ĠR ub
est yle
Ġship ping
ĠMc M
ĠMad ag
ĠKe ith
j an
ĠJim my
ro v
Ġro ots
Ġneigh b
Ġre venue
ent le
Ġprom ised
Ġdem ands
Ġbomb ing
ĠIntern et
ĠS em
Ġperson ally
Ġl anes
Ġathlet es
ĠR achel
Ġcon sole
Ġprop ag
ĠMic ro
ar ation
Ġmain land
Ġdr ivers
Ġstrugg led
Ġdefin ition
Ġlook s
Ġport ions
Ġp ione
ĠP ars
Ġback ed
Ġcontin u
Ġaud ition
Ġorchest ra
Ġbehavi our
l ain
Ġs ung
gh an
ĠJ ar
Ġd iver
ĠC ost
ĠSh aw
ac re
Ġart ific
Ġgu ilty
Ġguitar ist
ĠYanke es
ot yp
ĠB ach
Ġjob s
Ġ16 6
Ġmarket ing
od ox
Ġob lig
Ġarm ies
ar ant
ag h
reg ation
ĠF at
Ġsur pass
ĠGr ay
ĠBir mingham
Ġdemol ished
ĠTr acy
Ġd ancing
it is
ĠL ost
Ġstar ring
ĠFurther more
ĠM ans
Ġrul ing
Ġc up
it i
Ġin du
ic ation
ind ing
Ġfe els
ĠN ine
ĠV ik
ater n
ĠOb ama
ĠH ugh
ĠF el
Ġcomp ens
az ines
Ġincre ases
Ġprof ile
Ġfact ory
ĠConst ant
ĠEvent ually
a very
Ġcompl iment
Ġess ential
Ġ10 9
Ġp unk
ĠS ak
Ġmin ing
Ġhead ing
ĠUnivers al
Ġthe ater
Ġcount ies
ĠCan ter
f olk
Ġp ages
ĠS ig
Ġob st
Ġexp ression
Ġorgan isation
ĠMcC artney
ĠEnter prise
Ġpurs ue
ou ver
Ġdisc ont
Ġbelie ving
Ġaff ect
Ġdiscover s
um ps
ap ped
ract ion
Ġpat ron
Ġdeliver y
Ġbon us
Ġmultip l
A C
ĠB aker
ĠBudd h
ĠPhoen ix
Ġs alt
ĠJ up
Ġcl othing
ĠCom ple
Ġst ick
Ġport s
Ġsuc ceed
ĠHud son
ĠT ol
p y
ĠP ubl
Ġmob ile
Ġs ad
ĠK l
Ġcre st
f le
Ġelev ation
Ġac ou
Ġk iss
ĠBob by
ĠWay ne
ĠKar l
ĠGirl s
c les
ult an
ĠConn ectic
ĠS i
ĠPear l
Ġdr ink
Ġsecret ary
Ġdoub t
ĠImp act
ĠMadag ascar
Ġs q
Ġacc um
Ġfore cast
Ġor n
Ġeng age
tar io
Ġhor iz
ĠTod d
ĠConnectic ut
b ird
ĠPe ace
ĠDef ence
Ġdem ocr
Ġc hest
ĠBos n
ir ty
Ġal tered
au x
ĠMor rison
Ġoverse as
Ġmay or
Ġbab y
ĠH old
ĠR ights
Ġdeter ior
in ces
Ġlist en
ĠP att
ell o
ĠOn tario
Ġexp and
ĠDe b
ow ed
ĠK it
Ġdef ences
Ġer ected
Ġren ov
ĠPot ter
ĠD iam
Ġcan cel
war f
as ant
ir ts
Ġv oy
sh ore
Ġst ress
Ġcomp ounds
Ġsett lers
ĠFrid ay
Ġmusic ian
ĠCanter bury
m und
p ent
ok er
ĠWork s
ack ed
st an
ĠG oth
Ġlegisl ature
m at
Ġp ale
ĠSp art
ĠM anu
ĠR an
Ġobject ive
yr us
ĠCommun ity
ĠLeon ard
O S
ĠF arm
Ġdec isions
Ġra ising
Ġhigh ways
Ġaer ial
Ġliqu id
o ons
Ġdis l
Ġconvers ion
ak s
ĠAll ies
Ġsol ar
Ġafter math
Ġsold ier
Ġconcent ration
Ġsc en
ens ively
Ġcampaign s
ro us
ĠB ath
Ġsit ting
ĠCy cl
Ġindic ating
Ġconsp ir
Ġh app
ul ous
if ies
Ġexact ly
ĠN AS
Ġh idden
Ġpro ve
ĠFore ign
Ġorgan ised
Ġwealth y
Ġacknowled ged
am ents
ĠPr uss
Ġperm itted
Ġdang er
Ġw restling
Ġtro uble
Ġrad ical
o a
ĠL at
ĠK an
Ġimpro vements
Ġdissip ated
ĠGri ff
Ġreal ized
Ġsk i
Ġstri king
Ġgrad uated
Ġd ressed
ĠWind ows
ĠNapole on
ĠT ed
ĠBoy s
Ġappropri ate
Ġconf ron
Ġexec ution
rat ropical
Ġan th
Ġmet er
ĠZ e
ĠUE FA
ĠP y
Ġobserv ations
Ġm ac
Ġra ids
Ġl in
ĠLe gend
ues e
Ġprof it
ĠOut standing
Ġen cl
Ġremov al
Ġinterpret ation
ĠL aur
Ġfew er
Ġtravel s
ot te
Ġsk y
Ġceleb rated
Ġven ue
Ġn et
Ġsh arp
Ġpublic ations
Ġinit iated
Ġagg ressive
ĠV anc
ĠSe ason
Ġtur ret
ĠG ary
Ġtheat rical
Ġchap el
at us
Ġpubl ishing
Ġrequ ires
Ġ15 2
Ġevac uated
Ġjur isd
in ister
iv ation
ĠL ion
ĠVanc ouver
ĠD all
Ġdeb t
itud es
Ġfound ing
Ġorig ins
ĠMin t
Ġorigin ated
Ġt ort
it als
ip per
Ġstation ed
Ġcann on
ĠG ate
Ġexpl an
ĠSy mph
Ġconn ect
ĠEd in
Ġbr ill
ĠJup iter
ol ly
Ġdef ending
ĠAb d
Ġestablish ing
r un
Ġsup ple
ug g
Ġmus h
Ġconsid ering
Ġstep s
Ġrebell ion
Ġsh orter
Ġarrang ements
Ġannounce ment
ad ier
ĠM em
ĠCh ampions
Ġcut ting
ĠPak istan
Ġb ones
ĠMount ains
Ġf antasy
Ġgu arant
ann on
Ġmag ic
it ively
ra pped
ĠDr ive
ĠT NA
ĠL ib
O T
Ã ¦
Ġ17 3
Ġmag azines
Ġconn ecting
aut ical
Ġasp ect
ĠT it
ĠC ov
Ġer r
Ġapproach ing
ĠBrad man
Ġm emor
ĠCh ampion
aj a
Ġext ratropical
Ġhost s
Ġdon ated
Ġwalk ing
ĠÃĨ thel
a is
Ġin g
Ġpl acing
ph one
enn ium
Ġstrateg ic
ĠO ur
Ġins ects
ĠPortug uese
Ġl ying
ĠTri ple
ĠAdminist ration
Ġon going
ĠL en
Ġdiscuss ion
he ars
Ġ10 4
Ġfun ny
Ġcolle agues
Ġtal ent
ĠS hip
Ġc ub
ĠSt u
Ġed ited
Ġyoung est
Ġgl ac
ĠAl ice
Ġpred ict
Ġclos est
à ¸
Ġm al
Ġqual ified
Ġhyp othes
Ġgat hered
Ġfor th
Ġbattle cru
Ġtub es
as a
Ġdec ide
ĠTro phy
Ġvol umes
ec ution
ĠJ oy
Ġput ting
Ġland scape
Ġred e
Ġindic ates
Ġcou p
Ġwaters hed
on ium
ad al
Ġstrong est
Ġsw itch
Ġ186 0
Ġwithdraw al
ĠDw ight
b ow
f ts
ĠG ene
vent h
ĠIs a
Ġ189 3
Ġang le
Ġfor g
Ġcap s
Ġsuppl ied
h ous
Ġmark ets
Ġident ify
Ġgr ay
Ġl es
Ġexp osure
Ġcirc le
ĠMar vel
ĠFle ming
Ġneigh bour
Ġdes ert
Ġspec imen
Ġconf ront
Ġmer ely
Ġcollaps ed
at ra
ĠC hes
ĠP ap
ĠAn c
Ġ189 6
Ġpart ial
Ġchallen ged
ear ing
elt a
ĠRes erve
ĠHon or
Ġbe am
ĠD ub
ann er
Ġdens ity
ĠHamp shire
ĠNC AA
Ġb rig
ĠM ission
ĠEdin burgh
Ġc ock
Ġb are
Ġsh ift
av el
Ġvis its
Ġlim its
Ġdub bed
Ġsp ac
Ġfeed ing
j oin
ĠP am
ĠSt ri
ĠOl iver
Ġhydro gen
ĠB ak
Ġprov ision
so ft
iet h
ĠTh ose
ag ger
Ġcl in
Ġpri ze
Ġeduc ational
Ġconvent ional
ĠD od
ĠMet eor
ĠB eng
Ġpl ain
enn a
ist a
ĠS omet
ĠF lying
Ġse ized
oc y
ather s
ĠAf ghan
Ġdu o
ĠY ears
Ġann ually
ĠT ob
Ġbe aring
Ġcor ps
Ġconcent rated
Ġto pped
ir ates
ot al
Ġex ha
Ġmar ry
Ġmembers hip
Ġch ampions
Ġ189 8
ament al
Ġattend ing
ĠS ay
ip er
Ġass embly
Ġpar ody
Ġb acter
ĠChart s
Ġrang es
ĠMos c
Ġ17 2
Ġdog s
h ard
ĠN atural
Ġoff ense
Ġn avy
ĠT ype
Ġf urn
ar r
ĠT ig
Ġemphas is
ĠP in
ĠPr incip
ĠMon te
igen ous
Ġweek ly
Ġ35 0
ĠBe gin
Ġproduct ions
Ġexerc ise
Ġun less
Ġleg it
Ġtalk ing
Ġtick et
ĠMe g
Ġinvestig ate
ĠL ist
Ġt rough
ĠK ap
Ġbas in
Ġan ime
ĠFin ally
ĠRal ph
Ġpromot ional
Ġcru c
Ã¼ r
ol ve
ter ior
Ġ11 1
ĠVictor ian
Ġb ond
ĠPerson al
Ã °
Ġb one
ĠDemocr ats
Ġj ury
Ġportray al
ĠA x
ĠM and
oy s
ĠDe ep
ĠYork shire
Ġce ased
Ġfort ress
Ġflood ed
uzz le
er k
Ġ12 7
Ġadvert ising
Ġf ill
ĠC elt
ĠO m
ĠK o
Ġreg ime
ĠArgent ina
Ġun com
port ed
Ġcons ervation
ris ing
Ġunc le
Ġbirth day
ĠLl oyd
on ica
ĠP ink
Ġinv ent
Ġco ff
Ġemploy ment
Ġpers ons
Ġout put
Ġqu een
ĠCon vention
Ġball ad
ĠW here
ĠChristian ity
Ġsend ing
Ġatt itude
Ġexperiment al
ĠVill age
Ġphotograph s
Ġb ishop
Ġev al
Ġsoft ware
ĠBrother s
Ġhit ting
Ġquestion ed
ĠH az
ĠJer ry
ad ers
ov iÄĩ
Ġgu ide
ĠOver all
ĠT ak
Ġprov incial
ĠChron icle
ĠL t
Ġsc attered
pl ed
Ġdr inking
Ġtransl ation
Ġagg reg
ĠP rop
Ġunc lear
Ġunderw ent
Ġmat ure
ĠA S
ĠF und
ĠK am
ham mad
Ġ189 9
Ġoverw hel
h in
Ġout d
Ġend ors
Ġrepl ied
Ġassemb led
Ġcous in
ic ations
rap y
ĠBook s
ĠColl ins
Ġc ens
Ġp apers
ĠM ong
Ġcl ock
Ġrepresent atives
Ġliber al
Ġco at
ĠPr im
Ġlaw yer
ĠCra ig
Ġswim ming
as hes
ĠMar ge
ĠC ad
ay an
ra wn
Ġex ternal
Ġcomment ary
Ġw ire
olog ies
Ġprocl aim
ĠAp oll
ĠAnd re
Ġthir teen
Ġimag ery
ĠFin land
Ġster e
a ft
Ġsh r
Ġtra il
Ġmon aster
Ġemp ire
ĠN O
Ġcomp rom
ass ador
ĠMay a
Ġwa it
Ġlov ed
ĠGl en
ĠHow e
ĠG or
Ġlaw su
Ġter rain
Ġacou stic
id al
Ġsl ave
Ġpict ures
Ġexclus ive
Ġd uration
Ġelectric ity
im m
Ġst reak
Ġd aughters
am as
Ġmov ies
Ġ10 8
ows ki
Ġs ang
ĠE ug
Ġdev ast
ĠTurn er
i oc
Ġc ad
ĠW ii
Ġaccompany ing
Ġexper t
Ġbran ches
Ġsurrend ered
ers ed
Ġarr ives
Ġten ure
ate ver
ens ed
Ġstrong er
Ġident ical
ĠS le
ĠJ un
pl er
Ġbur ial
ĠHard y
Ġsuccess ion
ĠP ad
ĠSimilar ly
Ġd read
am an
Ġbe ats
ri ors
ĠNor folk
ĠQueens land
Ġre verse
Ġcomp onents
Ġchar ter
ĠProt est
Ġ16 9
ĠHer itage
ĠJ ama
ĠBo at
Ġredu cing
Ġpric es
Ġsc ar
Ġreve al
ĠS ign
ell ation
pl ace
Ġreinforce ments
ro d
ĠBur ton
ĠHawai i
er g
ĠD in
Ġpre v
Ġtrad ing
ĠBel gian
Ġpen et
ĠNich olas
ĠProfess or
ill es
Ġsp aces
Ġdestroy ing
Ġp ush
ĠR ic
Ġfail ing
Ġmechan ical
Ġcompet ing
Ġis ot
Ġrec all
ĠBe aut
Ġexclus ively
ol en
ĠCommun ist
ĠBenn ett
Ġcomp onent
Ġqu ad
Ġst ops
Ġat omic
ey er
Ġ185 0
ĠRang ers
Ġmy st
ĠC ricket
ĠDav ies
Ġcounter p
ĠServ ices
he ll
er r
Ġsl avery
ĠEm my
Ġprecip itation
Ġd ict
ĠL ock
Ġdevelop ers
ĠVinc ent
ĠD ak
ric ts
Ġdev ices
Ġfoss il
on ian
ib ilities
Ġpol ar
Ġgovern ments
Ġtrad ed
est y
ĠCred its
ĠC atherine
c ase
Ġre ward
Ġmin i
Ġpo le
Ġel ig
Ġconsist ent
ĠLiber al
Ġb anned
ur as
ĠL iving
ab e
ĠTh under
Ġcent ers
Ġconf irm
ĠMed ical
Ġw ish
ĠY ellow
Ġvar ied
