#version: 0.2 - Trained by `huggingface/tokenizers`
Ġ t
h e
Ġ a
i n
Ġt he
e r
o n
Ġ ,
r e
Ġ s
e d
Ġ w
Ġ o
n d
a t
Ġ .
o r
e n
Ġ c
i t
Ġ f
i s
e s
a r
Ġ b
Ġo f
a n
Ġ in
a l
in g
Ġ p
a s
Ġa nd
Ġt o
i c
r o
Ġ m
Ġ d
Ġ h
i on
l e
Ġ Ċ
o u
Ġ T
Ġ re
Ġ =
Ġ S
i l
Ġ A
en t
Ġ "
Ġ 1
Ġt h
s t
e l
Ġ C
Ġ l
Ġ @
o m
Ġ e
a m
Ġ n
a d
a c
Ġw as
Ġ M
Ġ B
e c
Ġ on
ĠT he
l y
u r
Ġ '
e t
i d
o l
Ġ g
i m
Ġ I
- @
Ġ@ -@
Ġf or
i r
i g
i v
o t
t er
Ġ H
u t
Ġa s
u s
o w
it h
a y
Ġ 2
Ġ P
Ġs t
Ġ he
v er
at ion
Ġw ith
Ġb e
Ġ R
Ġth at
Ġ D
c e
u n
e m
Ġ W
Ġw h
Ġ F
c h
Ġb y
t h
Ġa l
Ġ )
Ġ (
Ġ L
u l
Ġ G
Ġ is
Ġc on
er s
Ġa t
c t
Ġ N
r a
o s
Ġ1 9
Ġa n
Ġ it
he r
ro m
a nd
u m
Ġ J
es t
0 0
Ġh is
Ġ E
a g
a v
a in
r i
o d
Ġf rom
Ġ O
is t
Ġc om
Ġ v
Ġp ro
o p
il l
o re
i f
l d
u p
Ġ r
e w
er e
re s
ig h
ĠI n
i es
Ġd e
b er
ar t
ar d
or t
Ġs e
ic h
Ġw ere
at e
al l
a k
an t
o c
u d
a p
Ġe x
q u
on g
a b
Ġc h
Ġo r
Ġ K
g h
e ar
es s
at ed
Ġp l
Ġs h
it y
i p
iv e
am e
Ġ U
Ġ â
Ġh ad
ec t
ac k
ĠS t
Ġâ Ģ
Ġs u
as t
s e
re d
Ġ k
g e
Ġwh ich
ou r
m ent
Ġ le
u nd
Ġa re
o v
i an
i al
Ġn ot
el l
Ġs p
o st
Ġ y
igh t
i a
or d
u st
ar y
in e
t her
p t
r it
Ġ 3
ou n
p p
ic al
ĠC h
av e
Ġ un
Ġ2 00
c c
Ġin c
f ter
ou ld
Ġ V
Ġb ut
ir st
is h
ou s
t e
f f
ion s
s o
Ġcom p
Ġ2 0
id e
Ġ ro
u re
Ġw he
u b
Ġa r
Ġcon t
i e
Ġ ;
o g
ig n
Ġf irst
Ġc l
w o
Ġhe r
r y
u e
Ġit s
as s
Ġthe ir
or m
ĠâĢ ĵ
o k
or k
Ġin t
Ġre s
ĠH e
Ġ :
at er
Ġal so
Ġa b
on d
Ġa d
om e
ou t
r an
m er
i re
he d
r u
Ġ us
ag e
d u
Ġ 4
im e
l ow
Ġp er
p er
Ġwh o
Ġ 5
ĠT h
Ġon e
Ġh ave
Ġs c
p l
al ly
ow n
i le
Ġre c
Ġ1 8
t ed
. @
Ġ@ .@
Ġt wo
it ion
u gh
i z
re e
en ce
t s
ur ing
p ort
Ġbe en
Ġp art
Ġb ec
ic e
Ġh as
ĠA l
Ġa g
Ġa pp
Ġ20 1
ou gh
, @
Ġ@ ,@
Ġ j
Ġ en
Ġd is
l ud
k e
Ġo ver
Ġs er
Ġth is
or y
el y
Ġy ear
ation s
em ber
re n
ct ion
ou nd
ac h
Ġof f
Ġa fter
r ic
Ġ up
l and
Ġpl ay
Ġd es
ac e
ĠI t
ar k
o ver
an ce
Ġo ut
Ġthe y
Ġm an
ad e
Ġt e
ac t
Ġo ther
i b
m an
ul t
Ġ im
Ġ Y
p h
res s
Ġinc lud
c ed
en s
ur n
w n
Ġw ould
in d
Ġt ime
on e
Ġp re
Ġint o
v el
ĠO n
ĠU n
w ard
w e
Ġw e
Ġh im
it e
o in
at es
Ġ 6
Ġs he
l es
Ġe v
il m
Ġat t
as ed
Ġn e
it ed
ab le
e nd
i ed
as e
am p
Ġcom m
or s
Ġin ter
a re
ro ugh
o y
on s
oun t
e p
f orm
Ġal l
os e
o od
an g
Ġm ore
c es
Ġw ork
Ġ 7
a il
ol d
a w
er ed
ing s
v e
il d
ĠA n
Ġn ew
Ġs ec
Ġb et
Ġwhe n
in al
Ġf e
Ġf ilm
ic k
v i
ent s
ĠS e
w ay
at t
f t
is s
a us
f er
Ġ 8
g an
ĠM ar
re at
ri b
Ġcon s
ĠA r
ro und
ak e
Ġre m
v ed
Ġt r
Ġd ec
as on
an s
Ġd uring
Ġ und
or th
ub l
Ġ 9
h ip
Ġag ain
ĠA s
Ġm ost
Ġg ame
ot h
Ġthe m
Ġ19 9
Ġon ly
Ġp r
at h
we en
i x
Ġe ar
ol low
Ġth an
o b
ro p
Ġs up
ation al
f ore
ĠN ew
Ġab out
Ġpro du
u g
Ġc ent
ter n
Ġk n
Ġre t
e y
Ġch ar
Ġs ong
Ġc an
ou th
Ġbet ween
Ġl ater
or n
Ġre le
Ġund er
ic t
Ġth ree
h n
t on
Ġc ol
r on
Ġa ct
Ġ 00
al s
Ġ qu
Ġth rough
ĠE n
or ld
o ok
Ġn um
Ġs o
Ġm e
Ġa cc
Ġre l
Ġwh ile
Ġ ra
Ġe nd
mer ic
ĠL e
le ct
ĠA meric
Ġf l
ter s
oc k
Ġp os
r al
Ġsu b
e ver
ul ar
Ġas s
at ing
Ġwhe re
Ġ ver
Ġd ay
c k
Ġre g
Ġsec ond
en er
a id
Ġb u
ĠC om
Ġm ade
am es
is ion
iv ed
ĠR e
Ġp e
he s
Ġrec ord
s on
Ġde f
b um
Ġf our
Ġg ro
Ġf ollow
Ġse ason
Ġ00 0
Ġe p
Ġfor m
Ġs ome
Ġsu ch
Ġa m
o ol
is hed
Ġm ov
Ġbe fore
Ġt ra
Ġm us
ĠS p
Ġthe re
Ġw rit
he n
ic s
ĠJ o
i o
Ġsp ec
i el
Ġ1 0
i ke
Ġs y
Ġyear s
Ġte am
ĠA t
od e
u al
ĠTh is
id ent
Ġ /
Ġl ar
Ġal bum
ĠS h
Ġin d
ro s
il y
ow ever
Ġ ent
n ing
Ġus ed
Ġc all
an k
Ġs ur
if ic
Ġa c
Ġh igh
ur y
Ġp ubl
Ġbe ing
Ġep is
ain ed
Ġthe n
l ed
t en
vel op
a j
Ġd o
Ġl oc
Ġex p
if e
r is
Ġ1 7
Ġagain st
Ġin v
Ġ 0
Ġb l
Ġp res
Ġsh ow
ot her
Ġnum ber
ĠA fter
Ġchar ac
i ous
Ġse ver
Ġad d
Ġc o
Ġs et
e k
in ce
j ect
ar s
Ġbec ame
Ġre ce
ĠB rit
aus e
Ġle ad
Ġper form
Ġn o
Ġinclud ing
Ġs ing
at her
in s
ĠâĢ Ķ
in es
Ġf ound
ĠUn ited
ran s
a ir
Ġw ell
al e
Ġm on
Ġre p
ĠS c
Ġp ol
Ġb ack
Ġb oth
i er
Ġc ap
Ġ19 8
Ġser ies
Ġ1 5
Ġ1 2
o ber
r am
ĠC on
i k
ow er
Ġsh ip
em ent
it s
er t
i red
u res
le y
ĠW h
ĠS he
iv ers
Ġm ain
p en
Ġ19 4
Ġm in
i et
d er
over n
Ġd id
v en
Ġg o
Ġc re
el f
ol og
Ġim p
Ġde velop
Ġm et
a z
it ies
ĠEn g
Ġl ong
iv er
an y
l l
is ed
er m
t ing
u ch
a red
an n
an e
ir d
Ġe m
ĠJo hn
Ġm ill
f ul
Ġa ir
Ġm at
Ġepis ode
te nd
ire ct
Ġs aid
Ġst ud
Ġman y
ut e
Ġb ro
as h
at ive
Ġde p
Ġc ar
Ġ1 6
Ġc ould
Ġor ig
Ġw ar
Ġcont in
ĠC l
Ġsever al
ĠAmeric an
th ough
Ġd if
ĠI nd
iel d
a h
Ġin st
Ġp op
ou se
is e
em b
Ġkn own
Ġ19 7
t y
u ally
Ġ19 6
ĠA ust
Ġ1 1
Ġcon c
t il
i am
ĠW ar
vi ew
ers on
Ġo b
u ed
ĠG er
Ġs m
Ġret urn
Ġan y
Ġbe gan
Ġ Z
er n
Ġcomp le
Ġdes ign
ĠD e
Ġdes c
Ġs ign
op le
ch ool
ros s
m y
is m
o ot
Ġ est
Ġt rans
cc ess
Ġpro v
ak ing
Ġfe at
ĠB l
id ed
Ġin f
an c
Ġr un
Ġear ly
Ġar t
iz ed
Ġd ist
Ġmus ic
Ġo wn
Ġn ear
Ġrele ased
Ġun til
Ġcall ed
Ġe ff
ĠC ol
im es
ĠU S
r id
ist s
Ġres p
un e
Ġb el
en n
Ġp ass
st em
u red
Ġf in
ial ly
ĠM ay
Ġp h
ut ion
Ġd own
Ġdis c
ment s
Ġc rit
os ed
x t
Ġd irect
Ġg ener
Ġal ong
i um
Ġin s
Ġmill ion
g er
ul l
ĠBrit ish
a x
Ġgro up
Ġoff ic
v ent
ĠGer man
Ġ1 3
Ġf am
e b
Ġthe se
aj or
Ġm od
Ġm ay
Ġ $
ce pt
ĠA d
Ġo pen
an ge
Ġm il
ĠB e
Ġp oin
u c
g g
Ġl and
Ġs im
Ġhis t
ĠA ug
Ġg overn
Ã ©
ĠSe pt
Ġsu ccess
ĠSept ember
ĠAug ust
et s
ĠA p
ĠW orld
ĠSt ates
ib le
in k
er v
Ġg u
Ġo per
Ġc ount
Ġatt ack
Ġus e
Ġs ame
y s
ward s
Ġdesc rib
Ġpe ople
ĠI s
ĠF or
ac ed
Ġcharac ter
y p
am ed
Ġbec ause
ĠAl l
el s
Ġv i
Ġ1 4
Ġl ike
Ġser v
ĠJ u
ĠF ran
g ed
Ġa round
Ġst art
Ġth ough
Ġ ed
Ġ19 5
ĠP l
Ġ Q
n er
Ġw in
Ġk m
Ġcon st
u es
r ing
Ġto ok
Ġo cc
ru ct
av ing
ĠAust ral
Ġb att
ĠO ct
Ġan n
Ġsup port
ov e
ĠN ov
Ġfollow ing
Ġs ix
Ġn orth
Ġe le
ĠC ar
Ġ19 3
ĠH owever
Ġsy stem
Ġapp ear
us s
Ġf inal
Ġrece ived
Ġcl ass
in ed
ĠOct ober
Ġhe ad
iv es
Ġp rom
Ġcons id
en e
ant s
r ad
l ing
il ity
ical ly
ĠD ec
ĠP ro
Ġ19 1
Ġe ver
Ġst ate
Ġbu ild
re t
Ġe ach
an u
Ġex t
Ġf ive
r ist
Ġa ut
ro l
ĠY ork
Ġcent ury
in a
Ġv ar
Ġb o
Ġw ill
Ġare a
ĠThe y
at ely
Ġsm all
g et
os s
Ġpart ic
Ġl ife
ĠN orth
iv ing
r il
Ġre port
Ġ ]
ĠM e
Ġ [
t le
ore d
ĠB y
ĠJ une
ian s
ord ing
Ġc ity
g in
Ġm ar
p ed
ĠK ing
Ġm ajor
Ġwe ek
Ġpubl ic
ĠJu ly
Ġ %
iss ion
Ġcon f
ĠH ar
Ġb and
ect ion
Ġre f
m ed
ĠNov ember
in c
ur ch
Ġre st
ĠCom m
ĠW ill
Ġw orld
ĠP h
Ġm ed
Ġs ince
es p
Ġsing le
ra ft
ra ph
p or
ĠAp ril
b le
ĠM c
ain s
ri ed
l ish
Ġd et
ĠMar ch
om et
Ġj ust
Ġl ast
ect ed
ur al
ion al
he st
ĠE d
a im
Ġt urn
iv ely
Ġhe l
il t
Ġal low
Ġp o
ĠC an
Ġ3 0
c l
i ent
vi ous
ĠG e
Ġle ft
Ġlar ge
Ġl ine
at s
Ġdif fer
al es
ĠS outh
Ġc are
Ġs outh
Ġad v
ĠD uring
if ied
Ġd r
Ġst r
Ġb ook
Ġver s
em pt
Ġs chool
Ġs l
ag ue
ĠDec ember
Ġth ird
av y
Ġinc re
Ġ2 5
Ġmon th
Ġd ue
Ġapp ro
. .
Ġplay ed
Ġm uch
Ġev ent
ro w
ĠP r
Ġ if
ro te
Ġan other
ĠJ anu
Ġ19 2
ĠJanu ary
Ġinclud ed
Ġwh at
Ġpl ace
Ġb ased
Ġsh ort
n e
ĠI I
on y
Ġex pl
Ġgovern ment
Ġp erson
b all
Ġw rote
ĠW hen
Ġtr ack
ap an
Ġc amp
Ġt it
Ġo ld
ĠE u
Ġb re
al f
Ġn ame
Ġde ath
Ġp ort
Ġe lect
ent ly
Ġ. ..
p le
ren t
ĠJ apan
i ence
Ġen g
Ġw on
b y
ĠO r
Ġch ild
Ġpro t
Ġl it
Ġk ill
Ġpro g
o ad
Ġst ory
ide o
ag es
Ġp ower
ĠB ro
Ġre view
ĠT e
od y
Ġv is
it al
Ġh ome
ot t
Ġl ed
p s
Ġdescrib ed
en g
Ġre qu
om an
Ġpre vious
Ġfam ily
Ġg un
ra nd
t ain
Ġw ay
y l
Ġn amed
Ġr ight
Ġn ow
ĠM us
Ġd em
ur ther
i od
iv en
Ġm en
il ar
Ġev en
Ġm ake
emb ers
Ġor gan
ĠG u
re en
is ter
on t
c y
ivers ity
om in
Ġatt empt
Ġb est
it ions
Ġ1 00
Ġc our
Ġ Â
Ġre pl
iv ision
Ġo pp
Ġle g
ren ch
Ġg ames
i or
ac hed
Ġt erm
ĠA nd
Ġcomm and
iv al
Ġh and
ĠF l
Ġpos s
m p
Ġbel ie
Ġd am
Ġver y
o x
ĠH is
Ġth ose
ĠF eb
ĠEu rop
Ġp ar
ĠFeb ru
ĠFebru ary
s h
Ġis s
Ġst ill
Ġto p
Ġne xt
Ġspec ies
ĠCh rist
Ġeff ect
ri end
Ġvi ew
c hed
ĠThe re
ĠN ational
oc i
Ġorig inal
ak en
ĠW e
at ure
en ces
Ġsp e
l u
Ġw ater
n ess
Ġadd ition
Ġj oin
ĠB ar
ĠEurop e
Ġl ist
a u
Ġper iod
Ġwith in
al k
Ġm embers
Ġm ark
et er
Ġde b
Ġhe ld
Ġbu ilt
ĠF rench
Ġex per
h or
a f
ĠA m
Ġ201 0
Ġrele ase
ĠP ar
Ġl ate
Ġal though
Ġfor mer
re w
Ġmat ch
Ġg reat
a ugh
rid ge
n ey
Ġc ur
Ġd est
Ġs old
ut ed
tend ed
Ġv ideo
Ġ2 1
ard s
Ġc aus
ĠW est
l ine
Ġst orm
Ġc over
Ġ X
v es
ec h
Ġin it
Ġro le
rop ical
Ġt ri
ĠWill iam
s elf
Ġc ame
Ġest ab
he l
ĠH er
Ġday s
an ces
Ġres ult
Ġm id
Ġpres ent
n a
le v
Ġcont rol
ag ed
pt ion
o on
ul ation
Ġst and
Ġre al
Ġpol it
Ġh owever
ĠM in
it ary
as ter
h am
Ġ200 8
Ġpro p
le t
en se
Ġ200 9
ĠM an
at ic
id es
Ġf ew
Ġto wn
Ġ2 4
Ġw ind
ĠGe or
om b
Ġy ou
og raph
Ġt w
Ġs ide
Ġs k
Ġcontin ued
Ġof ten
Ġe qu
Ġp ost
ĠE ar
ay s
Ġloc al
Ġ201 1
el t
ĠCh ar
at or
Ġam ong
ĠA ir
Ġsim ilar
ru ction
e ad
c hes
ĠM ich
r act
Ġh um
Ġa v
Ġcl aim
es tern
ĠN o
om en
un g
Ġ &
ĠEng land
re et
re ad
ak es
Ġdiffer ent
s ide
es e
op s
Ġm y
Ġd el
l er
Ġbe h
ĠR ec
olog y
p ar
Ġt yp
Ġ2 2
Ġf urther
Ġs ent
es c
ĠD av
ot s
est ed
Ġle vel
ur s
Ġf re
Ġconsid ered
Ġt ake
Ġl aw
er y
ĠE l
Ġto t
Ġ200 7
g y
Ġcare er
ĠOn e
ron t
Ġprodu ction
ar m
m e
Ġh alf
ic es
ĠP ark
ĠC o
Ġan t
ĠC ity
Ġh aving
amp ions
b o
ĠA cc
ĠEng lish
Ġm ag
Ġro ad
Ġe ast
Ġmov ed
Ġd ra
er ing
Ġever y
Ġw est
Ġwith out
ĠAl though
ro du
Ġc r
ĠC ent
Ġapp e
Ġpl an
Ġplay er
Ġ201 2
in ing
Ġpos ition
Ġc or
Ġbec ome
Ġar r
Ġhist ory
Ġvers ion
ver s
Ġt ro
ĠC al
f ord
ĠAn g
ond on
on es
Ġc ast
ĠC ount
Ġ el
Ġinf lu
iz e
Ġar m
Ġ2 3
ĠL ondon
Ġh ouse
y le
Ġs ound
r ig
Ġf ore
Ġcomm un
res ent
ir c
ap p
ĠB att
Ġg r
Ġcl ub
Ġsu gg
ro y
a ul
at ter
Ġstr ong
Ġinv ol
a i
Ġwrit ten
Ġ19 0
ain ing
ĠW ith
Ġb as
Ġst at
Ġl ess
oun g
ut es
Ġann oun
re st
Ġf oot
ĠR iver
i qu
al d
Ġor der
Ġre fer
iet y
im ent
g es
Ġpro f
c raft
ĠCan ad
a e
Ġa ff
Ġpoin t
se qu
Ġt em
Ġg iven
Ġr ad
Ġl ow
Ġtr ad
Ġh ig
Ġw ant
ĠG ener
ĠUn iversity
il le
Ġk e
Ġg ave
Ġp at
u ck
is c
Ġim port
ĠP ol
Ġne ver
a ff
ĠWh ile
Ġch ang
Ġdef e
or ies
Ġs oc
Ġreturn ed
r ation
ĠA b
Ġv ict
Ġtot al
Ġf act
ĠH igh
Ġg ood
ent ion
ĠT r
Ġcomp any
Ġf ire
s p
ail ed
Ġcount ry
Ġw ent
is on
Ġcom b
c ess
Ġf riend
our s
ric k
ĠE x
Ġcap t
Ġpubl ished
a un
Ġprodu ced
lev ision
Ġf ind
ay ing
c on
Ġreport ed
Ġorig in
ĠS m
Ġ200 6
a ign
Ġl ost
Ġst ated
Ġcomm on
Ġprog ram
ing ton
Ġl ight
y n
Ġpartic ular
ap e
Ġor d
ec hn
Ġad m
Ġinclud e
est s
ĠAcc ording
Ġlar g
ab ly
ur ric
Ġcomp et
Ġ er
us ed
Ġrecord ed
ie f
Ġbuild ing
Ġp ress
ĠSt e
Ġne ed
ĠN e
Ġb us
Ġpro ject
h ing
Ġfor ces
um ent
Ġn ort
Ġ2 7
Ġship s
Ġsh ould
Ġus ing
Ġe ight
Ġ5 0
Ġ2 8
Ġperform ance
in ess
ĠS w
Ġserv ice
b s
Ġpop ular
Ġ ide
pl oy
ĠThe se
Ġt imes
os p
Ġm aking
Ġt en
Ġair craft
Ġhim self
oy al
Ġf un
Ġaut hor
Ġ201 3
Ġf ather
at ch
Ġmil itary
ĠAustral ia
ĠS ec
Ġan im
le ar
Ġbatt le
ampions hip
n ed
ĠJ ack
ĠAs s
Ġs it
Ġl im
Ġsong s
Ġs omet
Ġre ad
ĠA f
ou ther
Ġcrit ic
ens ive
it her
ord s
Ġdevelop ment
Ġs w
Ġh ow
Ġg l
Ġ4 0
ĠGener al
al th
et h
Ġs ol
it ive
ed er
as es
qu ad
Ġ2 6
ĠSt ate
ol l
ĠC or
outher n
ĠJ ames
Ġc ross
c er
Ġ18 9
am b
Ġrep resent
ĠS y
Ġg round
Ġdest roy
ac y
Ġst ar
Ġf t
Ġrem ained
as tern
Ġst e
k s
ri e
Ġcharac ters
ĠAr my
Ġn ational
ĠP res
Ġg et
ri es
w ork
Ġmonth s
Ġsu ff
Ġg en
ĠB o
Ġd ied
a ur
Ġt er
ĠG l
ĠCom p
ubl ic
Ġdevelop ed
Ġtit le
d om
Ġs um
Ġch art
f ic
Ġcamp aign
re am
urric ane
Ġfor ce
ĠLe ague
Ġchild ren
Ġint rodu
land s
en cy
Ġp ra
Ġto ur
Ġprom ot
it ted
ist ed
a el
Ġs on
Ġsign ific
Ġre d
Ġac ross
Ġa way
ress ion
her n
Ġrel ations
Ġob s
Ġhist or
Ġf ield
Ġoffic ial
ĠD ivision
Ġf av
Ġf elt
o le
le ge
ĠAmeric a
Ġnot ed
Ġf ac
ĠS im
Ġn ight
al t
Ġannoun ced
m ost
Ġre ached
ĠR uss
Ġinter n
ĠS up
Ġcre ated
ĠCount y
Ġare as
c om
ĠR ep
ĠM on
Ġte levision
Ġc oun
Ġ200 5
ĠR oad
ĠJapan ese
Ġst ation
he m
ress ed
Ġsuccess ful
ĠM ad
Ġro ck
im ately
Ġv al
ĠG r
ĠRe g
is ing
Ġvar ious
ĠâĢ Ļ
Ġb ar
ĠSt reet
Ġpolit ical
Ġse en
Ġfollow ed
Ġa ver
f ield
i ber
it ing
Ġto o
Ġ2 9
Ġr ank
et t
ĠE ast
op e
Ġperform ed
c ast
ĠR ober
Ġc ult
iz ation
Ġser ved
Ġ201 4
Ġplay ers
Ġf ront
re g
Ġre v
al ity
ĠGeor ge
Ġcon d
Ġf ull
Ġpr im
Ġdec l
Ġbl ack
in ation
ell ing
Ġbe gin
du ct
Ġf le
Ġp ut
ĠS er
Ġc irc
Ġcon v
Ġear l
ĠP er
ol ution
ĠT o
ĠH en
Ġc ost
ab or
id ence
Ġse e
Ġpro cess
Ġn on
Ġd iv
Ġst yle
y ing
Ġl ook
ĠPh il
Ġse ven
Ġv ol
Ġa ud
Ġkill ed
ĠE m
Ġc y
Ġhel p
ric t
Ġle t
l ished
pl ay
Ġthrough out
ĠB ill
Ġt aken
Ġt ropical
Ġab le
an a
Ġf ight
Ġdisc over
Ġag re
ec ut
ert ain
Ġlit tle
Ġw id
Ġbec om
Ġf em
Ġa ge
ur g
Ġsignific ant
ĠS ch
Ġh it
Ġme et
Ġ ident
ĠTh om
way s
ir l
Ġt echn
Ġspec ial
Ġc op
o ice
Ġwrit ing
Ġst ruct
ĠDav id
Ġthough t
Ġestab lished
ĠP art
Ġbro ad
ĠA ct
en ced
ĠM or
Ġm m
Ġappe ared
Ġdo es
Ġcol l
Ġent ire
ĠAustral ian
av al
c il
ep end
Ġy oung
Ġco ast
Ġpoin ts
Ġ !
Ġmil es
i us
Ġb ody
Ġa ward
l ess
Ġimp ro
ĠR ich
Ġro ute
Ġm ember
od es
ough t
ĠM ed
g round
ri pt
Ġw omen
Ġact iv
Ġr ange
st er
as k
ĠP e
iv il
ĠY ou
Ġcaus ed
Ġstart ed
Ġdec ided
i ers
ble m
Ġfeat ures
lect ed
d ay
ĠAf ric
Ġgener al
Ġp ain
ĠQ u
Ġevent ually
at ors
ir on
i ec
in t
um b
m en
con om
op h
og n
u k
d en
ĠR oyal
Ġr ace
Ġar ch
Ġv ot
he re
it ar
Ġgro w
Ġman ag
Ġfe et
pp ed
ris on
Ġto get
Ġtoget her
us h
Ġadd ed
ĠH ist
ĠH ouse
Ġt re
Ġh old
ber t
Ġc ut
iv id
Ġ18 8
Ġwh ite
Ġon ce
Ġn ov
amp le
am ent
Ġform ed
Ġar g
Ġloc ated
Ġst ri
ree k
ur b
Ġcon n
Ġmod ern
o ff
ĠBl ack
Ġen c
Ġinst ead
d le
ĠP ort
he ad
rough t
ac es
Ġro und
Ġ esc
Ġ3 1
Ġb all
ar a
Ġm ix
em y
ĠIn tern
Ġimport ant
e e
Ġp ri
c ing
Ġcre w
Ġs aw
Ġa ction
Ġcomple ted
Ġre du
ĠIt al
Ġplay ing
ect s
ĠInd ian
id s
one y
c ent
r ated
ĠO ther
ell s
Ġ200 4
at a
Ġins p
Ġb ase
Ġm ater
Ġpop ulation
ĠM y
Ġm ot
Ġsur v
ĠMich ael
Ġv oc
Ġas k
Ġr ather
Ġocc ur
Ġopen ed
Ġst age
Ġbeh ind
Ġother s
Ġ18 6
r ay
Ġf all
Ġre n
Ġgun s
as ing
ce ed
Ġbro ther
wo od
em ents
ign ed
Ġcom ment
l in
Ġl ik
st it
Ġb orn
Ġf if
Ġ201 5
Ġs ite
Ġl ive
Ġwork s
Ġl oss
ĠFran ce
Ġb omb
Ġwork ed
fic ult
Ġhe avy
Ġm iss
Ġp red
Ã ¡
ĠS chool
med i
ra p
Ġsub sequ
Ġl ack
Ġpart y
Ġpro blem
nd er
le ction
Ġdif ficult
Ġcl ose
ĠW ash
Ġconst ruction
Ġkn ow
ĠN or
ĠS ome
Ġrelations hip
Ġh ost
Ġweek s
ist ic
ĠS an
Ġorigin ally
Ġse par
Ġass oci
ar ch
c o
Ġup on
Ġpr act
Ġre b
ĠHen ry
Ġlead ing
Ġapp oin
Ġacc om
Ġv ill
Ġal most
Ġm er
ĠRober t
ort s
Ġpe ak
ĠA le
Ġin j
Ġdam age
l ic
un k
Ġsc ored
Ġfour th
os ition
Ġin form
Ġ200 0
Ġre ve
ĠMus ic
ap s
Ġprov ided
ĠB est
m ing
Ġc ase
ĠV ir
ĠSt ar
Ġgo al
Ġcl os
ĠBatt le
bo ard
Ġeng ine
Ġc reat
ĠR ed
Ġac cept
Ġm i
Ġinv est
ic a
or ing
Ġsc ene
ell ow
ĠD esp
Ġhum an
ang u
u le
in o
olog ical
Ġb rought
Ġ5 00
Ġf ree
Ġind ivid
Ġ18 7
ĠP aul
Ġfeat ured
ul a
Ġm other
ĠPres ident
ĠR ou
Ġk ing
Ġle ast
am a
Ġwork ing
a ut
Ġallow ed
Ġl aun
Ġres ul
ĠM il
Ġaver age
ĠC ap
Ġto wards
Ġwant ed
Ġm ult
Ġind ust
Ġtrad ition
av es
Ġreg ion
Ġbus iness
ĠWash ington
ĠH ol
id ing
az ine
ĠA g
ĠQ ue
Ġv e
Ġqu ick
Ġtro ops
Ġpl aced
Ġe ither
Ġc e
Ġresp ect
v ing
Ġoff ice
Ġcrit ics
k y
ĠB el
Ġav ail
Ġh on
ant ic
Ġre ach
Ġ Ã
Ġprof ess
Ġex ample
Ġrun s
Ġmater ial
Ġe conom
Ġrec ogn
Ġf ar
en ed
Ġw ife
z e
g o
ear ch
t o
ch ie
Ġne g
Ġest im
ent ial
Ġar my
Ġf oc
r ight
ĠDesp ite
Ġse x
Ġ200 3
Ġinter est
ĠF ollow
ĠC our
Ġs our
eng th
Ġgener ally
Ġm ass
Ġjoin ed
Ġd ou
Ġra il
quad ron
ĠH am
Ġpro per
ill s
ĠAng el
u ff
en es
Ġcur rent
Ġde v
our n
ĠH all
ĠC up
Ġev ents
Ġbelie ved
ĠG ame
it ch
o f
Ġpartic ip
Ġ3 5
re y
b e
Ġf ig
ĠFollow ing
ĠK e
v ille
ĠF irst
ĠM ary
ĠD r
Ġ z
Ġvict ory
Ġrepl aced
ĠL ou
ĠG reat
art ment
Ġdesign ed
Ġm ph
ict ion
Ġg rad
ĠJ e
Ġr ul
it te
Ġso on
Ġn omin
s c
Ġis land
ĠG ro
Ġf und
x ic
ĠL a
er ous
o or
Ġh ours
ĠEurope an
ĠT wo
Ġem ploy
Ġpres ident
ĠM al
Ġro om
ific ation
Ġinvol ved
al ed
u el
Ġsur f
v al
ap er
Ġfin ished
mer c
Ġst ru
ĠCh ampionship
in n
in ist
as ion
w est
ĠM art
in f
ĠPl ay
Ġbre ak
ĠR oman
Ġh or
ra in
a ren
if f
Ġs aying
ar n
em or
Ġcour t
Ġsh ot
Ġth reat
ĠB er
Ġsc ore
Ġopen ing
Ġreg ular
ĠD an
B C
Ġdes p
Ġdirect or
Ġl ength
ĠM et
ĠM ac
ĠD on
Ġind ic
ad es
le g
c her
ĠSc ott
Ġcon duct
Ġlarg est
Ġcont rib
Ġtra vel
Ġh om
ou l
k i
Ġposs ible
ecut ive
Ġ ill
ud e
n ow
Ġmin utes
Ġhigh way
ĠRou te
Ġs outhern
ish ing
Ġd ro
ĠC ro
Ġh y
ĠV al
ic le
Ġhig hest
Ġrem ov
ĠF rom
Ġearl ier
Ġ200 1
Ġt est
ĠAt l
Ġinit ially
ĠS ing
ag o
Ġl y
Ġavail able
Ġparticular ly
Ġper cent
and er
ant ry
Ġh ard
ĠW il
ann ed
Ġse qu
Ġtra ining
ĠRep ublic
Ġfor ced
Ġm ust
Ġex ist
p ly
ĠM id
ip p
h ib
ĠM ag
ĠKing dom
ĠChar les
ĠN avy
ograph y
as y
Ġp ark
ĠÂ °
ri an
b or
ate g
Ġresp ons
Ġend ed
Ġqu ar
r ac
ĠMc C
ĠO ff
Ġturn ed
Ġw all
ĠThom as
Ġex c
Ġsoc ial
ĠIntern ational
ut ure
ĠB ut
Ġstud io
ĠP al
em s
if orn
ĠR es
ra g
ĠD ep
i os
Ġch ange
ĠWh ite
Ġl angu
ĠVir gin
Ġpra ised
Ġpass ed
Ġsup er
Ġpr iv
Ġb ill
at ural
Ġp iec
Ġincre ased
Ġob ject
ĠBro wn
r up
Ġed uc
Ġh urricane
Ġreg ard
Ġnort hern
he ast
Ġ200 2
Ġke ep
Ġph ys
Ġcent ral
ight s
ĠCh urch
it or
Ġnov el
Ġrel ig
ĠCanad a
s el
Ġspe ed
Ġappear ance
ĠCal iforn
Ġun its
Ġp ast
re m
ers hip
ĠR ock
ĠS l
ke y
Ġst op
Ġch urch
ĠS en
end ed
Ġc ou
Ġim medi
ĠB ay
u ter
Ġsy m
st on
ĠM o
ĠSm ith
oc r
Ġdis p
Ġme as
Ġord ered
augh ter
ĠM er
Ġt reat
iqu e
ĠS am
Ġt aking
fer ence
ĠRich ard
ry ing
itte e
Ġind epend
Ġl ove
ĠAle x
Ġsign ed
Ġmov e
il ities
ĠCaliforn ia
Ġa chie
et work
Ġbet ter
Ġp ers
um p
ĠUn ion
it z
ak er
ĠG od
Ġa p
ĠG overn
ec ess
ar ily
Ġin n
Ġwind s
ĠIs land
Ġcom merc
Ġen ough
Ġw at
Ġpos itive
ear s
n el
um e
ĠCour t
Ġacc ording
Ġh ous
Ġsp ent
ell ed
Ġgo ing
Ġp ot
Ġab ove
ĠB ra
Ġs low
ank s
Ġout side
Ġfilm s
ap t
ĠT om
ĠV ict
ĠU p
ĠC ong
Ġfe el
Ġto ld
Ġfoot ball
m a
ĠA ward
ber g
qu are
Ġc lear
Ġprevious ly
u ation
Ġqu est
Ġst ates
Ġrecord ing
Ġ199 0
Ġme an
and ing
ĠAss oci
Ġ6 0
ĠA c
Ġn ine
he t
Ġp ur
us ion
Ġsub ject
ĠAr t
Ġf ailed
at in
ow s
Ġass ist
Ġcom e
ĠComp any
Ġrequ ired
ren g
os ing
Ġ4 5
Ġele ments
Ġpro b
v an
Ġe y
id a
ĠSt ud
Ġc ru
al ion
ĠInd ia
Ġl ower
ĠGerman y
Ġreview s
Ġinter view
ed y
Ġph ot
Ġpart s
ĠM ark
ĠP eter
ĠG old
Ġits elf
ĠChrist ian
Ġs il
Ġn ar
Ġth ink
n es
ran ch
s hip
Ġdirect ed
Ġab s
is l
Ġ esp
Ġf low
ib ility
Ġdesp ite
Ġc red
am er
Ġcont ract
Ġ18 5
ok e
ĠN Y
ĠTh at
Ġdeb ut
ĠT imes
Ġ ?
ĠÂ £
ĠP at
er ved
Ġacc ess
read y
le b
ĠC ast
Ġbegin ning
o id
Ġb i
Ġgroup s
ĠCol lege
Ġvi ol
on na
ĠH ill
Ġs ection
ĠU K
ĠS ov
ab ility
hest er
Ġwh ose
ĠB r
as ons
Ġclaim ed
ĠW estern
Ġintern ational
Ġask ed
Ġl ines
Ġtrans fer
Ġpre vent
ĠD em
Ġst reng
Ġsc reen
Ġg ive
air s
Ġc he
ĠSov iet
on se
rie f
Ġun c
Ġbe g
Ġk ey
Ġaddition al
Ġf uture
ĠF ilm
m ar
ĠG rand
ĠMe xic
Ġle ague
Ġwh om
ĠFran k
Ġo p
ĠD o
Ġg old
ĠSp an
Ġpo or
ĠB en
ĠA wards
Ġfor t
ly ing
Ġintrodu ced
Ġev idence
Ġd on
Ġpre m
it es
on st
Ġse a
Ġide a
e x
Ġquick ly
Ġc al
at ory
Ġal ready
ĠS oc
Ġ3 2
Ġcent er
Ġb ridge
Ġfre qu
ĠFor ce
us p
ĠM ost
Ġele ction
Ġprodu ct
Ġocc up
ec k
Ġp il
Ġex cept
ĠC oun
b ack
Ġ197 0
un t
Ġde al
ir th
e um
ec ially
Ġp en
Ġus ually
Ġmus ical
Ġ198 0
Ġem b
Ġw estern
Ġarr ived
ar ing
ĠR ob
Ġbl ock
e al
Ġrad io
ĠBrit ain
Ġc ivil
l iam
Ġcy cl
er gy
ul ly
ĠO ver
Ġfem ale
Ġsomet imes
ĠD ay
Ġstud y
Ġf ood
Ġresp onse
Ġdec ision
Ġm oney
ĠP ac
Ġmag azine
Ġesp ecially
ĠH ot
Ġiss ue
ĠL ater
as c
liam ent
ĠVict or
ĠI m
Ġl ab
Ġsurf ace
Ġlit er
g en
r ack
Ġ -
Ġfl ood
Ġm ight
ain t
ĠCh ic
Ġen v
ĠT ra
Ġgu itar
Ġcar ried
ĠB ur
Ġshow s
Ġcommun ity
en a
Ġconst ruct
it er
Ġestim ated
Ġar ran
Ġrem ain
ar ies
ĠM ill
Ġ199 9
Ġrem aining
Ġe astern
Ġmin or
h a
Ġdefe ated
Ġdet erm
ĠR h
in ent
ess ion
ĠVirgin ia
ĠEar ly
Ġappro x
ig an
Ġlar ger
ra w
ul f
Ġbecom ing
Ġra p
Ġw ood
Ġcomple te
ĠM ount
Ġ3 6
ra b
r or
Ġpol ice
Ġsugg ested
por ary
Ġmed ia
Ġpress ure
Ġent ered
Ġsh oot
Ġ8 0
Ġteam s
ric s
ĠL os
ĠJ ust
Ġcommerc ial
Ġan al
ĠIn f
Ġd oc
Ġl atter
and s
N A
Ġmark et
er ve
Ġl o
Ġconsid er
Ġstud ents
is es
Ġsur round
Ġinvest ig
Ġb rief
Ġconc ern
Ġperson al
ĠSec ond
in ct
Ġb ur
ĠI f
ĠTe x
Ġc ertain
Ġpr ison
Ġac qu
Ġdisc uss
ĠF le
ĠJack son
Ġeffect s
Ġcomple t
Ġh op
Ġappoin ted
all ed
Ġd er
Ġsum mer
Ġepis odes
ĠCon t
Ġpri or
eder al
inc ip
ĠFl or
Ġs at
Ġt ar
ch ange
Ġe mer
Ġst aff
ent h
ly mp
Ġs ize
ĠLou is
ore s
Ġchang es
ul ated
Ġcomm ission
s y
om m
t t
im ate
Ġwin ning
Ġlim ited
Ġsc enes
ĠO lymp
Ġr iver
Ġfle et
Ġle aving
Ġdestroy ed
is er
Ġde g
Ġdra w
Ġp ay
I I
ĠCl ub
Ġd en
Ġr id
l o
qu e
ĠSpan ish
Ġ7 5
Ġs elf
g a
s u
Ġright s
ourn al
Ġprov ide
Ġwrit er
i res
rig ade
Ġpol ic
s en
Ġtyp e
id ents
Ġf ail
ar i
ens ion
Ġd ate
Ġt rib
Ġter rit
om s
ĠK h
Ġg irl
Ġprop osed
r d
Ġinflu ence
t ies
ĠG reen
ĠPart y
Ġover all
Ġt ax
Ġ18 4
Ġk il
Ġtrans port
Ġ196 0
Ġstruct ure
ĠT er
Ġcont ro
Ġequ ip
ĠD u
Ġ3 00
Ġd ivision
Ġsc ript
Ġb r
ir al
ines e
Ã Ń
ĠAssoci ation
Ġagre ed
Ġant i
Ġin tended
ĠP ri
Ġj ud
Ġb ow
ĠEd ward
Ġrun ning
if t
end ing
ic les
ĠChic ago
Ġd aughter
Ġb ig
Ġbroad cast
Ġp urch
Ġnear ly
Ġsupport ed
ĠM any
at ives
A F
ĠAd m
Ġde ep
Ġd i
Ġres earch
Ġw ide
im um
Ġestab lish
ĠR o
Ġhel ped
Ġmar ried
Ġ199 8
Ġmov ement
ĠCh inese
Ġaward ed
Ġmult ip
ĠS ong
ĠI r
ĠCoun cil
il i
ĠO per
il es
at ively
ac ing
ir m
Ġcre ate
Ġfav or
Ġint ens
Ġdis s
Ġb ird
ĠS al
ĠEn ter
Ġd ark
Ġs usp
p ris
om er
n y
te en
Ġst ars
Ã ¶
c he
Ġlong er
Ġlangu age
Ġhig her
Ġc at
ĠE v
Ġpl anned
m on
Ġcomp ared
Ġcapt ured
Ġincre asing
Ġf ans
Ġconc lud
Ġcour se
u z
Ġchang ed
ĠS erv
ĠSup er
ĠE mp
ĠJohn son
Ġ3 3
ound s
Ġexper ience
Ġapprox imately
Ġrel ated
sel ves
Ġd one
Ġfeat ure
Ġfif th
Ġl iving
ent y
ĠK ore
Ġthem selves
ab it
ĠHist ory
Ġprodu cer
b ers
it t
Ġ7 0
t ained
a rent
Ġtem per
Ġsp ace
Ġtrack s
Ġmost ly
s s
ĠPac ific
is ions
Ġwith d
ĠIn ter
ĠB ack
ut h
an ced
ol ic
ĠBill board
i j
Ġth us
ĠA pp
ĠB et
ĠN ot
c an
Ġw oman
Ġde ad
um n
ĠM ont
Ġoper ations
Ġim m
Ġrem ains
Ġsy n
Ġb ring
Ġquar ter
th ing
Ġo ur
Ġn atural
Ġwhe ther
im in
v in
Ġ ult
Ã ¼
oin t
Ġcon cept
Ġwe ap
Ġd ram
ĠF inal
ĠSc ot
and ed
Ġprob ably
Ġsold iers
Ġr an
Ġcop ies
r ast
ĠS un
b our
Ġbuild ings
Ġlead er
Ġv oice
Ġ199 7
Ġf ace
Ġb oy
Ġex tended
ĠS ince
Ġly rics
Ġfor ward
Ġdep art
ĠK n
Ġcomple x
Ġbo ard
ĠAtl antic
Ġre act
ir ing
Ġbatt les
ve y
Ġiss ued
Ġhe av
Ġch all
ri age
g ing
Ġre ally
Ġcount ries
osp ital
Ġ3 7
r ate
Ġsuff ered
ĠL ake
ĠCong ress
Ġc m
ĠL ove
ĠF ort
ĠFran c
Ġgo als
ĠFlor ida
ur t
ĠSe ver
Ġinclud es
Ġimmedi ately
Ġmet h
ĠB oth
Ġat tend
ĠB ig
h ood
Ġbre ed
Ġcap ital
Ġmanag er
Ġmix ed
Ġpriv ate
i ant
ĠJ im
ĠJ ew
Ġoffic ers
Ġlik ely
ĠO ld
Ġcan n
Ġdist rib
h old
ĠAn t
i en
Ġm ach
ĠQue en
d e
b ury
Ġremov ed
ĠTex as
Ġpl ant
Ġinit ial
Ġce leb
ĠSe a
Ġincre ase
ven ue
ĠT own
Ġhe alth
Ġsubsequ ently
ĠD ist
Ġle ave
Ġpl ans
ri a
Ġal ways
Ġfoc us
Ġc oin
ĠL aw
Ġn etwork
ect ions
Ġserv ices
Ġm ount
Ġv ia
Ġstat us
Ġcomp an
ĠT rans
ĠT or
ri al
ĠP et
ĠCh ina
Ġvis it
Ġloc ation
ĠM r
ord er
am s
ĠAn other
i ation
Ġfl ag
Ġproblem s
ĠL ord
ĠC amp
ĠH ow
ĠEar th
Ġoff ered
Ġinst r
w ell
ous ly
ail y
Ġmod el
Ġterm s
Ġn orm
et ic
Ġm ur
ĠCon st
Ġcol on
Ġappro ach
Ġsomet hing
Ġvill age
Ġadm inist
Ġt ons
Ġf ell
oun ted
ĠW ood
w er
ĠB oy
ct or
ĠO l
Ġt or
iron ment
Ġs ch
Ġmajor ity
ĠT ur
Ġprofess ional
orn ing
Ġcoun ter
Ġ18 3
ĠCanad ian
ĠI ts
ad ium
ĠR ail
Ã ³
Ġg ot
ib r
ĠAfric a
Ġc ause
ĠM ur
Ġcons ist
b urg
ac hes
ur ies
Ġinter s
Ġdam aged
Ġmeet ing
ĠG re
Ġj ob
Ġappear s
Ġad op
Ġmin ute
Ġrank ed
ol k
Ġl ay
ĠCent er
u f
Ġindivid ual
o es
Ġcomp osed
ce an
Ġreve aled
ĠS quadron
ĠHigh way
if y
Ġan g
st e
Ġfl ight
Ġattack s
ĠRuss ian
it ect
Ġ9 0
Ġpl ot
Ġdiscover ed
Ġra ised
l or
re ak
um ed
ĠR ad
ĠM el
Ġfin anc
Ġrespect ively
Ġm akes
p an
ĠK ent
ĠCar ol
ĠMart in
ĠCent ral
ĠS ir
Ġnum erous
ĠII I
Ġ199 5
Ġassoci ated
Ġal tern
g ar
Ġt akes
ĠAngel es
Ġd omin
Ġneed ed
Ġinsp ired
ĠB ow
Ġan c
Ġl ived
Ġ3 4
o e
a ult
Ġg rand
Ġlaun ched
Ġy et
ri ption
Ġc and
Ġn ature
Ġp ow
Ġam b
Ġd ig
Ġco ach
Ġoccur red
Ġcont ains
ĠD V
Ġve h
est ival
Ġb ene
Ġsh own
Ġattempt ed
u als
Ġattack ed
ĠD es
um ents
Ġmov ing
Ġcond itions
Ġup per
Ġh our
ĠT V
k a
i est
d own
im b
k en
Ġs ales
Ġg ra
ect ive
Ġ3 8
ĠGro up
ĠM iss
j oy
ĠY ear
Ġcol lect
Ġ201 6
ĠD el
augh t
ĠT our
Ġ199 6
or ce
Ġiss ues
Ġb irth
Ġ195 0
ĠRe v
Ġwho le
Ġs al
iz ing
Ġ i
Ġex am
Ġc er
Ġinform ation
Ġy ards
Ġf arm
Ġsl ight
ĠEmp ire
ĠO ut
Ġbo x
ur ity
Ġm om
w in
ver t
Ġrefer red
u ing
Ġcrit ical
o ly
Ġinc or
re me
ĠU nder
ĠP enn
ĠG ar
Ġnum bers
Ġfin ally
Ġsmall er
Ġelect ed
Ġse lected
Ġdefe at
Ġresul ted
Ġs en
Ġsc ient
Ġst ay
Ġb ad
Ġgr ant
Ġqu al
Ġact ive
Ġpr incip
Ġsing er
k in
Ġstand ard
Ġsec ret
Ġp it
it ation
ĠItal ian
u ated
Ġm ission
Ġindust ry
Ġ199 4
en ant
Ġlarg ely
Ġen s
Ġoper ation
Ġs em
and on
ĠJ ose
Ġpre c
Ġl ink
ort un
on ic
ou ra
Ġass igned
us e
Ġs af
Ġleg isl
Ġear ned
Ġth r
Ġcomment ed
it ude
Ġm ale
Ġexp ected
ã ĥ
ĠDV D
ĠCor ps
il ed
ĠD is
Ġro y
Ġaud ience
Ġlist ed
Ġsugg est
Ġg re
ou d
ĠC rit
ĠAr m
Ġcover ed
Ġpur p
Ġun able
ire ction
Ġsc hed
Ġhe art
Ġtradition al
ĠC r
Ġeduc ation
g r
Ġtr ade
Ġart ist
Ġnew sp
y a
Ġdou ble
Ġfriend s
Ġcl osed
ĠV iet
Ġunder st
Ġref used
ag on
Ġa w
Ġrec over
Ġatt ention
oun ts
Ġmeth od
Ġprim ary
igh ter
Ġs ister
og ue
Ġk ind
Ġt alk
ĠMich igan
ĠP re
ter ed
Ġre ason
ff ic
Ġoffic er
Ġpl at
Ġbel ow
Ġcont em
hip s
Ġ194 0
ĠW ales
Ġen joy
Ġab ility
Ġdep ression
Ġme ant
ĠM ass
Ġperform ances
Ġdecl ared
o o
Ġw alk
ĠN ort
Ġ4 9
Ġbl ood
is her
ĠM ore
Ġg iving
ĠC ath
Ġlet ter
Ġcomp l
Ġw ord
und red
pl es
Ġ18 0
Ġfight ing
Ġmid dle
ĠC le
Ġcommand er
Ġrelig ious
Ġbook s
Ġthe at
Ġm ax
Ġh ot
Ġset t
Ġr ate
ĠO x
ĠAr ch
ĠSt ep
ĠL ong
Ġrecord s
il s
Ġmat ches
Ġconst it
ĠAc ad
Ġn ames
on a
ap ed
ĠB ec
ĠT est
ĠDem ocr
Ġprodu ce
Ġquest ion
ĠF er
ĠC are
ant asy
Ġcompet ition
ut ch
Ġcent re
Ġser ious
Ġun it
u x
ĠTe am
od ies
Ġdis app
Ġto uch
Ġvoc als
im s
ĠMin ister
ir t
ĠSever al
i ences
Ġm ention
ĠZ eal
os h
ound ed
Ġ199 2
Ġ ri
ĠM ajor
ect or
ĠC ons
Ġ4 1
Ġacc ount
Ġdoc ument
Ġab andon
ĠW al
ro ad
ic ted
Ġrap id
Ġen ergy
Ġn ecess
a res
Ġm or
qu ar
Ġkil omet
ĠK enn
erv ation
ech an
ĠF ore
Ġd ut
Ġconstruct ed
en ing
Ġthem e
Ġr is
ru g
os es
ri er
ĠF ox
ĠS um
et te
ĠT ime
Ġroy al
Ġp ick
ish op
Ġst ra
Ġnear by
Ġhigh ly
Ġsepar ate
ĠZeal and
y r
ĠE r
Ġcontin ue
vent ion
Ġpre p
ĠS o
Ġch ief
Ġdr um
ail s
Ġeff ort
Ġc as
Ġpresent ed
ed ic
ĠH aw
Ġt ur
ĠS ar
Ġcomb at
ĠMexic o
op er
Ġpos itions
ĠAfric an
Ġredu ced
Ġann ual
ĠB u
et her
Ġ4 00
ib ly
Ġcontro vers
ĠCh ris
ĠM att
Ġdirect ly
ie ut
ĠM a
ĠF our
Ġ193 0
Ġlevel s
c el
Ġme ans
Ġc le
Ġne igh
ĠW all
Ġnot es
Ġat tended
Ġse vent
Ġpract ice
Ġt ried
sh ire
Ġcomp os
Ġfore st
u it
emor ial
Ġ5 5
Ġf ast
Ġh ar
Ġn uc
Ġed ition
Ġtra in
ĠL it
ĠB rad
ĠD ar
ac her
ad o
ĠCh art
ĠT re
ĠB ob
aren ts
Ġtw enty
v ement
Ġmet al
Ġ199 3
ĠMad onna
Ġaccept ed
os en
Ġw atch
Ġst ating
Ġ199 1
Ġmov ie
Ġarch itect
Ġte xt
r ical
ĠH el
Ġrep e
Ġcand id
is ation
t rack
Ġconc ert
ĠScot land
Ġadv ance
stit ute
Ġ17 9
Ġp air
ĠJ ones
Ġport ray
Ġd irection
Ġf r
ir med
h ouse
ers ey
Ä ĩ
Ġse em
Ġdis m
ĠThe ir
Ġschool s
Ġleg al
ĠAn n
an i
Ġre ject
ew ay
l ict
in em
i h
w ide
Ġas p
ĠM anc
ic ip
f all
Ġg e
Ġhor se
ĠC ross
Ġth ick
Ġmar riage
ill ery
ag ing
Ġrec omm
Ġ +
ĠG reek
ĠDep artment
l ight
Ġeff orts
Ġman aged
Ġcol lege
ĠD ou
a wn
Ġ3 9
Ġp urs
l ike
ic ient
ĠG o
Ġw ing
ut ions
Ġresult ing
h y
Ġend ing
ir it
ieut enant
ĠTh ree
b and
Ġshow ed
Ġdro pped
Ġrespons ible
ĠM ic
ĠP ost
M S
ĠInf antry
Ġ18 2
Ġn ation
Ġdis play
Ġins ide
ill ed
ĠF oot
it a
Ġc ases
Ġke pt
Ġc ust
Ġenv ironment
ĠL ad
ĠB ost
Ġ4 8
Ġcult ure
Ġra re
Ġmean ing
Ġr at
ĠLe g
Ġcycl one
ol f
Ġd om
Ġincor por
Ġbeg ins
Ġ4 2
Ġvar iety
ceed ed
Ġm orning
Ġsub st
p e
Ġcer em
p ass
Ġhous es
ĠSt one
Ġform s
Ġch ampionship
ĠServ ice
Ġw ords
ran e
Ġar rest
Ġsch ol
ĠC reek
Ġy ard
per or
ĠWilliam s
ĠH ung
Ġo il
ĠRec ords
ĠSec ret
Ġmark ed
Ġinc hes
ce nd
Ġcontin ues
Ġsp l
in i
Ġsc ience
ĠB C
Ġper m
Ġ18 1
Ġsym b
g l
ĠNew s
gy pt
ect ing
Å į
ol s
Ġb ank
ĠH al
ĠSt an
ĠPar liament
Ġus es
Ġeconom ic
ĠS ur
w rit
c le
Ġsour ce
ĠG ames
t hel
b ed
ĠF in
r as
ĠT ro
Ġqu ality
Ġdef end
ĠP an
ĠT ri
ul ations
Ġle ar
Ġh undred
Ġset tle
Ġimp act
Ġstart ing
Ġconduct ed
ĠB ook
th ur
Ġspec ific
Ġstru gg
Ġallow ing
w h
ĠE gypt
ĠSoc iety
Ġbe at
Ġ194 2
Ġpres ence
ĠS ol
Ġam ount
Ġd u
ĠJ er
Ġs ides
ĠO h
Ġview ers
Ġcap tain
sy ch
e en
Ġd ance
Ġmet res
ing u
Ġch ap
Ġun ivers
Ġsup pl
ĠL u
Ġex hib
Ġr ule
Ġp le
ĠPr ince
ĠS outhern
ĠV er
ĠStep hen
Ġdist inct
Ġmultip le
ĠGeor g
ĠS at
d ing
Ġtransfer red
Ġpot ential
ĠComm ittee
Ġfore ign
Ġ4 7
ĠL atin
Ġcont rast
ĠOx ford
Ġ6 5
Ġpeak ed
in et
it iz
Ġen emy
Ġy our
ar ian
ĠS il
Ġtra ffic
Ġbecom es
Ġm ess
ĠSp ec
p ing
Ġown ed
Ġth ings
Ġfound ed
Ġgre ater
ĠJose ph
ĠL ike
Ġvoc al
ĠAdm iral
Ġo pt
Ġconclud ed
Ġport ion
ver y
Ġcast le
Ġsc oring
ĠC amb
id er
Ġresp ond
y m
Ġst ories
Ġproper ty
ian ce
Ġattempt s
Ġenc oun
ĠBost on
r ong
an es
Ġrel atively
k n
ĠT w
ĠCh ief
ĠManc hester
Ġprim arily
Ġdem onst
ĠHar rison
ĠJe ff
Ġf ederal
Ġfinanc ial
og rap
ĠCl ass
ress ive
ell ig
ĠF orm
ĠCap tain
ĠBec ause
ĠBe fore
Ġact ually
Ġanim als
ĠSw ed
Ġobs erved
ĠH urricane
Ġto urn
Ġl if
ĠW in
Ġcol lection
ĠT im
Ġopp ortun
f ect
ĠViet n
ĠB at
Ġtit led
Ġ5 2
ĠD en
Ġfeat uring
ist ics
Ġwrit ers
Ġ4 6
Ġwrit e
Ġ194 4
ĠDe f
Ġj ournal
ed s
Ġw a
ĠB ridge
e es
ĠF red
Ġstreng th
Ġw or
um ber
Ġin ch
Ġm echan
Ġwe aken
Ġsit uation
ĠO tt
Ġsp ot
Ġp aid
Ġdist ance
Ġprem i
Ġp arents
ĠComm ission
Ġindepend ent
ĠBatt alion
Ġfig ure
Ġsh are
m as
re l
Ġm el
Ġact or
Ġ6 4
Ġact ing
Ġcompan ies
Ġdiv ided
ĠLit tle
ĠPar is
Ġm ind
Ġ4 3
ste in
Ġon to
ĠPro du
ast ic
ĠL uc
Ġcoll abor
ĠL ife
ĠCol umb
ĠCar l
Ġtar get
ann a
Ġslight ly
Ġfun ction
Ġpiec e
ĠSer ies
Ġre form
ĠM od
Ġs elling
Ġ4 4
per ial
ĠEnter tain
a ud
rick et
Ġpower ful
ĠG ra
Ġtor ped
Ġconc ent
c hest
Ġinn ings
Ġr ating
ĠM ax
th let
or ation
ĠB BC
Ġplay s
ist ry
Ġro ugh
Ġl ot
Ġto day
l am
Ġbro ke
u ge
Ġch o
Ġer a
os aur
ĠP op
ann el
ĠCro at
Ġact ions
Ġwat ers
Ġult imately
ĠO s
ĠHist or
Ġtri al
Ġs quare
Ġmax imum
ro wn
ad a
Ġdis e
Ġte nd
it an
Ġpil ot
l oad
Ġb ound
Ġl og
ill a
Ġinter p
rup t
Ġcomplet ely
ĠAcad emy
Ġbl ue
und er
Ġs ought
Ġ192 0
Ġg ar
ot i
Ġ194 5
m ond
Ġsc ale
m ark
Ġsoc iety
ĠL ine
Ġ ess
Ġbeh av
Ġh us
ĠMus eum
ĠS aint
Ġmain ly
ĠS k
al le
ot a
Ġdesign ated
Ġ194 1
z a
ĠH or
om y
Ġcon ver
Ġofficial s
ĠV an
Ġstru ck
Ġ15 0
Ġtrans l
c ers
yl van
Ġactiv ity
Ġpolic y
Ġcomb ined
Ġs ay
ĠW ay
Ġinflu enced
Ġw ear
ol ved
Ġc orn
ian o
Ġse arch
A S
ĠEntertain ment
ĠA rab
Ġv ess
ĠItal y
ent ed
Ġth ous
Ġcall ing
rac ted
Ġalong side
Ġnort heast
Ġsecond s
Ġb atter
al a
ĠB rigade
Ġs out
ĠW ind
ors es
wh ile
ĠAmeric ans
Ġwin ter
ĠCon f
Ġsour ces
ĠLe e
Ġse g
Ġback ground
ph y
ĠI re
Ġwe bs
ain e
Ġ ice
Ġnew s
ud d
Ġth ir
ĠT od
Ġthe ory
r ative
Ġrec ent
ĠAl b
Ġsu c
T V
Ġm em
Ġc row
Ġg ained
Ġnomin ated
Ġplat form
H L
on n
Ġart ists
ad el
ĠReg iment
Ġwid ely
Ġn aval
quar ters
Ġsystem s
Ġpromot ed
Ġelect ric
Ġconf irmed
ub e
ĠIre land
p son
Ġreach ing
Ġpro ved
Ġresul ts
ĠA venue
Ġpass ing
ibr ary
ĠFle et
Ġalbum s
ĠG ood
ĠE ll
Ġexpl ained
Ġsubsequ ent
Ġgreat est
Ġconf lict
er o
Ġw ick
Ġcont ent
Ġinv asion
Ġ ir
Ġs n
ĠA ut
ĠR ay
Ġ198 9
Ġcom ing
Ġchar ge
Ġhe ro
Ġpe ace
Ġres ist
Ġsix th
he w
Ġnorth west
Ġwe ather
ou red
Ġcount y
Ġad j
ĠOr ig
Ġshort ly
g rad
t own
Ġ194 3
ag a
ĠB us
Ġvers ions
ĠS ub
Ġp ath
al ing
Ġser ve
Ġcaus ing
Ġs ays
Ġsu st
ĠL o
Ġ5 1
Ġexp ressed
ic ed
Ġrece ption
Ġse ek
ĠVictor ia
ĠS ant
Ġb urn
it ness
ĠCath olic
Ġres idents
Ġem ot
b on
Ġb order
ĠN orm
ĠChar l
ĠT ropical
ĠW ork
Ġc hem
Ġsound track
ans ion
ĠVal ley
Ġc ities
ĠAd d
ĠM at
ip s
Ġg reen
Ġse asons
t ation
ĠN in
ateg ory
Ġappear ances
Ġs ense
ĠD i
ĠL ight
Ġsex ual
Ġh ospital
Ġrequ ire
A A
inf all
ĠMid dle
Ġp un
Ġphys ical
Ġident ified
Ġold er
igh th
Ġhand s
ĠL ive
ard en
Ġ iron
ĠR am
ĠD un
ĠTh ough
Ġtr ue
Ġt ells
Ġoff er
ĠL iber
Ġd edic
Ġk g
ĠR y
un ction
ĠComm un
ys is
Ġart illery
anc y
ĠSh ow
Ġrepresent ed
ĠT op
Ġweap ons
ĠV ol
Ġext ra
Ġg as
ĠFoot ball
Ġa head
ĠTh rough
e ption
Ġp al
ad ed
ĠM en
ron ic
ylvan ia
Ġe as
ĠK ar
ĠJ ul
Ġheav ily
ĠB ey
ĠUp on
ĠY oung
Ġsup p
ĠD irect
ab eth
it able
ĠT ay
Ġav oid
ĠD utch
l ers
Ġdef ense
Ġchall en
Ġstud ent
Ġag g
ĠWe ek
Ġal one
Ġim age
Ġsp read
Ġapp arent
Ġstud ies
Ġoffic ially
ĠEl iz
Ġhus band
kn own
Ġdist rict
ĠI ll
Ġex ecutive
Ġb it
Ġinst it
ĠAl bert
ĠF re
b ur
ess ions
Ġdeb uted
Ġw ild
Ġprom inent
Ġcapt ure
Ġp ack
Ġcons isted
Ġinstr ument
Ġse nd
Ġinj ury
Ġf ired
Ġorgan ization
Ġequip ment
ĠR og
port s
Ġres c
Ġst one
p ool
Ġpat tern
ĠF ar
Ġpre par
ĠB re
Ġarg ued
ĠD am
Ġa ired
Ġfig ures
ĠB ond
Ġsur pris
Ġexp ed
urb an
Ġgrow th
Ġe th
Ġp ict
ac ity
ĠC ivil
ĠH omer
Ġb ud
Ġh un
Ġcou ple
Ġg raph
Ġdo ing
Ġreturn ing
Ġmag n
Ġr ing
Ġcontem porary
us hed
Ġpo et
Ġc ert
l ines
ro g
Ġp an
Ġwe ight
Ġo x
Ġl aid
Ġdou b
Ġh abit
Ġear th
Ġlead ers
Ġst ep
Ġfl oor
Ġmat ter
Ġaff ected
ĠNort hern
ĠG al
Ġpiec es
Ġt un
Ġ6 00
ap pen
am ber
Ġprop os
ĠSt orm
i as
Ġmain tained
in son
Ġr ang
Ġocc asion
Ġshe ll
ĠH ard
Ġhe re
if ying
Ġvis ited
Ġmain tain
ent al
Ġcommun ic
ĠDan iel
ĠH a
Ġcom es
Ġspe ech
Ġterm in
Ġcritic ized
em ic
Ġhy d
Ġactiv ities
st one
Ġra in
r at
ĠJ on
ĠCarol ina
oc key
Ġex ec
Ġatt ract
ac ement
Ġh all
ol a
Ġc itiz
Ġtourn ament
Ġre ign
Ġem ph
Ġto ward
ock ed
Ġsing les
ul s
Ġd rug
Ġtre es
e ed
Ġrefer ence
n ers
ĠScott ish
Ġcrow d
ĠT em
Ġsen ior
Ġform ation
el ve
Ġ5 3
Ġad apt
Ġ198 7
Ġsur re
ĠR om
ĠMar sh
Ġset ting
Ġmed ical
iv ity
Ġworld wide
ĠSy stem
Ġterrit ory
Ġt rying
ĠGovern ment
est ic
ĠHol ly
Ġ198 8
u ct
Ġapp l
Ġst ations
orn e
ru it
Ġd og
Ġb ul
Ġneg oti
Ġbird s
ĠW rit
ĠF antasy
Ġg od
ĠO cean
g ian
ĠOper ation
ell er
Ġd oll
ĠBack ground
ĠF ield
Ġmach ine
Ġf ellow
ĠGovern or
Ġmur der
emb ly
ĠR od
Ġclaim s
ĠDist rict
ĠH ome
Ġc ell
Ġdis pl
Ġ8 5
ĠDe v
Ġhistor ian
ĠGu ard
Ġra infall
Ġris k
ĠC he
om ers
Ġacc ident
ĠPenn s
Ġf ully
ĠCol on
Ġl oad
ul ed
Ġval ue
Ġthere fore
ot e
Ġspl it
b it
res h
ĠDu ke
Ġch osen
Ġtreat ment
Ġun iversity
Ġgu est
ĠSh ort
velop ment
ra el
Ġs ens
Ġtw ice
ĠStud ios
Ġfrequ ently
ĠG irl
Ġsup ply
ag n
ĠPol ish
ĠL ew
Ġreport s
ord in
stit ution
Ġle aves
ĠBe at
Ġgovern or
il ly
ay er
Ġp aper
g u
Ġ ut
ĠSen ate
Ġrem ark
al y
Ġd yn
amp ion
ĠE astern
led ge
Ġlab el
iz es
Ġf aced
az z
ĠM D
Ġop in
Ġwall s
Ġfollow s
ĠC orn
Ġbill ion
Ġoper ated
ĠB art
Ġg rew
ant ine
ĠR os
uf act
Ġsurround ing
Ġplan et
ĠMe an
m in
Ġs we
re ct
ĠAnd rew
or ter
ant ly
Ġcont ained
on ents
ge nd
Ġcond ition
res p
Ġdeg ree
Ġb al
Ġher self
Ġh orses
Ġman ufact
ĠChrist mas
ĠN ight
et y
Ġcol or
isc o
ĠJ ud
Ġs le
Ġaccom pan
Ġw ounded
ran ce
Ġtyp ically
Ġesc ape
ĠAll ied
Ġ5 4
Ġpass es
Ġun f
Ġm aster
Ġsim ply
ĠWil son
Ġbro wn
Ġf uel
Ã ¨
is ters
Ġre inf
ut ation
Ġrail way
ĠIn st
Ġele ment
Ġd raft
Ġd ang
ĠTay lor
am ing
Ġed itor
Ġl ives
l a
Ġ198 6
Ġord ers
Ġarm s
ĠEliz abeth
Ġph il
m it
ful ly
m ore
Ġserv ing
Ġnot hing
ograp her
Ġc amer
ĠH um
ĠAlex ander
u ous
Ġauthor ity
Ġch ose
ĠM ike
Ġopp osed
Ġwork ers
Ġvot e
Ġmom ent
ĠG i
Ġcons ecutive
Ġcann ot
ric ult
ĠP en
ĠE ach
Ġnew ly
Ġ9 5
ĠJo e
ĠO f
t ar
Ġn ative
ĠJ ac
Ġ5 6
Ġf an
Ġexper iment
uck y
Ġun known
Ġ9 7
is f
Ġparticip ated
ag er
Ġgrow ing
r ich
ĠP ers
Ġwebs ite
Ġcas ual
Ġemph as
Ġp sych
Ġatt rib
anc ing
ã Ĥ
ĠD et
Ġprodu cers
e f
Ġb ass
Ġ Î
Ġnewsp aper
Ġf air
ĠCast le
Ġbene f
Ġl osing
Ã ¤
ĠEx p
ĠF estival
ĠL and
Ġadv anced
Ġadop ted
il ies
Ġfilm ing
im ens
ĠS ound
Ġhe ard
Ġsp irit
Ġfe ed
Ġsever e
ĠPenns ylvania
pt on
Ġoff ensive
Ġopp osition
t hen
Ġf irm
Ġf iction
yp e
ĠR et
Ġex tend
ĠWh at
Ġgu ard
ĠW at
Ġcap acity
Ġ rom
ĠHe ad
ors hip
ĠIs lands
Ġbas is
Ġcoun cil
Ġsequ ence
Ġact ors
ĠC ard
ĠW W
z y
Ġend s
Ġ17 7
Ġa st
ĠRec eption
ĠH y
T C
and a
Ġwe ak
Ġs quadron
us es
ĠG all
ĠBl ue
Ġpr in
Ġcomp ar
Ġadv ant
Ġre ar
Ġabandon ed
ur a
av en
ĠIr ish
ĠF urther
Ġr ival
is ers
ĠT ech
ĠS S
ab les
i ated
Ġprom pt
ĠB ab
Ġk ick
Ġhon or
Ġf lying
le ment
Ġele v
Ġent er
Ġco al
Ġbe y
Ġcreat ing
oc ated
ĠF am
ĠJ ersey
on c
ĠSp ain
Ġlaun ch
Ġfilm ed
ĠHar ry
Ġpol l
B A
Ġregard ed
Ġh appen
Ġnorm al
Ġexp ansion
Ġcritic ism
Ġindivid uals
Ġhom es
ĠC at
el d
Ġagre ement
Ġbey ond
oun ger
ĠU s
Ġinc ident
Ġ17 8
Ġsp ect
Ġ7 6
F A
Ġsp ring
ĠS quare
Ġdel ay
Ġfail ure
ap ers
ĠC a
Ġl iber
ĠCo ast
Ġev ac
Ġde ploy
Ġey e
Ġdism iss
Ġch air
Ġsp orts
ĠL ind
Ġfam ous
in er
Ġin te
Ġv o
Ġs ail
ĠF e
Ġmeas ure
Ġ193 9
ĠA re
ĠS and
Ġposs ibly
Ġbo at
im et
Ġhistor ical
Ġneg ative
Ġb odies
ĠC D
im a
ĠU l
Ġachie ved
Ġm ob
Ġcont act
ĠB ul
ĠW ild
Ġprog ress
Ġstri ke
Ġsil ver
ific ations
Ġbelie ve
ic o
ĠM ul
ĠP ublic
ĠE nd
ĠE lect
Ġro les
ĠBro ad
in y
ĠProdu ction
Ġnar row
Ġ ur
ĠC y
Ġkill ing
ĠV en
Ġret ired
Ġide as
ĠIn stitute
ĠL y
ĠIs rael
i enced
Ġdr ive
on ent
Ġdise ase
m osp
ian a
h ol
Ġp et
Ġtorped o
w ar
Ġim ag
Ġbrief ly
k ins
Ġ6 1
Ġd iam
ĠAr thur
ĠL iver
ĠRev olution
im al
ĠD ue
Ġ196 8
Ġ198 5
Ġt ask
Ġeffect ive
Ġt ree
Ġar med
Ġapp lic
Ġarran g
ed om
Ġto wer
ĠAs h
Ġ6 6
ĠC ub
Ġbud get
Ġper man
Ġrece ive
Ġrepe ated
Ġadminist ration
Ġgrant ed
Ġnecess ary
Ġperson nel
Ġroad s
ĠS und
ock s
Ġreject ed
ĠMean while
en ger
Ġt able
ĠP erson
ĠRepublic an
Ġtw elve
ĠCl ark
Ġkilomet res
Ġin h
ĠDo ctor
Ġgro ss
Ġimpro ved
Ġlead ership
k es
ĠAl bum
Ġcol umn
w orth
Ġinter change
Ġy ellow
aval ry
Ġext ensive
av ed
Ġd ata
ĠM ir
ĠOh io
ĠT y
im ents
our ney
Ġstra ight
Ġturn s
Ġland s
Ġpl ants
Ġinf antry
Ġpurp ose
z il
Ġpar alle
ĠL es
Ġmanag ement
ĠB ell
Ġexp ress
Ġdef in
ĠBo ard
i Äĩ
Ġse at
Ġland ing
o ch
ol n
Ġdescrib es
Ġexp anded
ĠSecret ary
Ġsol o
Ġf ranch
om a
Ġch oice
Ġsuccessful ly
l usion
Ġm ile
Ġbro ken
adel ph
Ġle arn
s et
Ġt ru
Ġcross ing
Ġdid n
Ġint ellig
Ġanim al
u ate
Ġ198 4
Ġdel iver
ĠS a
ĠE p
Ġexpl os
ĠPhil adelph
Ġf ought
g ers
Ġch or
Ġex cl
ĠPro t
ĠB ru
ĠR A
Ġorgan ized
Ġc aught
Ġ8 00
er c
Ġveh icles
Ġcommission ed
Ġsugg ests
ĠB urn
Ġro of
Ġgl ob
ĠE ven
Ġacqu ired
h aps
st ream
et ball
Ġpl aces
Ġcomm ittee
ĠN ever
ri f
Ġanc ient
e v
Ġdram a
ĠI S
ĠH it
ĠGeorg ia
Ġcre ation
ĠS her
ĠM ov
ĠCamb ridge
Ġtyp es
Ġf at
app y
Ġ5 7
Ġg ives
ĠL ar
ĠPhiladelph ia
Ġart icle
Ġcom edy
Ġsevent h
Ġpre fer
Ġnuc lear
ak ers
Ġso ft
z er
Ġun su
Ġw ave
m s
Ġ12 0
i i
a ith
et ts
ĠS R
Ġauthor ities
Ġcont ain
Ġhead quarters
ĠR el
ĠAl so
Ġ196 7
Ġcent uries
Ġcommon ly
Ġdeterm ined
r in
Ġis lands
Ġgen us
n s
Ġro ll
ĠAdd ition
Ġmention ed
att le
ĠRuss ia
ĠM ah
Ġb ott
Ġrec ently
Ġst reet
Ġtra v
ot ed
um es
ĠW ars
Ġbe aut
Ġenc oura
Ġlook ing
ĠG il
Ġcontrol led
am in
Ġfav our
2 0
ip l
rest ling
u an
ĠComm on
art s
ol es
ĠAr g
Ġset s
Ġfam ilies
ĠAm ong
Ġhouse hold
Ġsec urity
ĠLiver pool
Ġa im
Ġfind s
Ġad vert
Ġs and
Ġdec re
ĠNin tend
Ġd rop
Ġsup por
Ġac ad
Ġstand ing
v a
Ġl a
Ġill ust
is hes
ĠL inc
Ġun p
ut ing
ĠNintend o
out s
g n
ĠCh ap
Ġsing ing
Ġwithd raw
ĠK a
ĠEar l
Ġf ish
ĠH ay
Ġd ial
Ġv en
Ġbatt alion
Ġref lect
ĠJ enn
ĠPr ime
ĠColumb ia
ĠB ad
Ġun ique
Ġs ac
it led
Ġdec k
Ġhe ight
Ġcont aining
Ġcult ural
Ġentire ly
Ġor chest
Ġprot ect
w ater
Ġfin ish
ĠLinc oln
o h
Ġtouch down
Ġm ist
ĠSing ap
ill ing
Ġcontrib uted
ĠAs ia
Ġt ry
Ġthem es
ĠDe velopment
ĠKore an
Ġy ounger
Ġprov ides
Ġdef ence
Ġflood ing
ĠL ieutenant
ĠBra zil
Ġ198 3
pp ing
Ġat mosp
Ġ5 8
ĠCh ild
Ġ7 4
Ġa wards
ro om
Ġtit les
Ġm is
ul ate
Ġpurch ased
ĠJew ish
Ġpow ers
in ity
Ġarr ival
ĠH un
Ġcon vers
Ġsched uled
Ġdef ensive
ĠFranc isco
resp ond
Ġres emb
ĠR ol
ĠSingap ore
Ġth ing
Ġaccompan ied
w all
Ġcerem ony
ic ial
Ġun us
Ġqu ite
Ġper fect
Ġ196 4
Ġexped ition
ĠPe ople
Ġw orth
ĠS ix
w ick
Ġ196 9
at ures
Ġloc ations
Ġexist ing
ĠD ark
ĠH on
Ġinter act
Ġadvant age
Ġperform ing
ĠP ot
ĠCare y
Ġphil os
ĠOff ice
r ons
Ġdedic ated
Ġcomp uter
ĠL is
Ġb at
ac ted
k er
ĠB or
ĠDis ney
Ġext rem
Ġrequ est
l aim
Ġâ Ī
Ġintens ity
S tation
ĠT am
ĠK ey
Ġst ore
Ġoccup ied
Ġ191 4
d y
ag an
Ġwh y
Ġs quad
Ġ191 8
ĠPlay Station
Ġf resh
ĠH MS
Ġcar ry
Ġm ounted
il ing
ĠOr der
us c
ĠK el
ash ion
Ġn ob
Ġ198 2
ĠT urn
t a
Ġf ix
Ġt ail
Ġ197 1
Ġm outh
ĠAnd erson
ĠBro ok
ĠB alt
Ġc ricket
Ġm ic
f ort
ĠM ot
ĠSte ve
Ġclos ely
r ations
Ġcons ists
Ġcurrent ly
ĠLew is
man n
ĠMill er
Ġl ic
Ġs ession
Ġ196 6
hen s
ĠBy z
Ġ197 2
ĠRad io
ĠD ie
ĠCon ference
y les
Ġt im
Ġ197 9
Ġindust rial
m outh
Ġe gg
ĠB as
Ġsim ple
av a
Ġ5 9
Ġel imin
pp er
Ġvar i
Ġp iano
ĠOn ce
Ġfac ilities
Ġc old
il ton
Ġsupport ing
Ġdra wn
ĠGr ant
ĠOlymp ic
Ġt y
w are
Ġtra ins
ĠCon n
Ġbel ong
ĠP u
ĠSh ak
Ġprot ection
Ġbo ats
ĠB rian
Ġr ated
Ġr ise
Ġdef ined
Ġse lection
Ġste am
Ġh arm
Ġro w
ot ic
Ġ196 5
Ġreg ions
i ro
ĠS u
aw a
ĠBar b
Ġsub mar
ĠRail way
Ġprot ected
Ġcall s
Ġpro s
Ġh air
ĠN HL
Ġ #
Ġcom ic
ĠEm peror
Ġmot ion
g est
ver se
Ġstruct ures
Ġth row
Ġl ap
Ġa id
Ġsh ark
ĠAt t
Ġl abor
Ġfoc used
Ġopportun ity
Ġ9 9
Ġ197 5
Ġeng aged
Ġrece iving
ing ly
ir ation
Ġcor respond
ĠM u
Ġshoot ing
Ġanal ysis
Ġsp ort
Ġcitiz ens
Ġmot or
b a
Ġobs erv
Ġstreng then
ĠG ulf
os a
Ġnot able
Ã ¸
se y
Ġad ap
ĠA v
ĠJ r
ĠSum mer
uz z
ĠP ress
ĠW ater
Ġexper ienced
ĠGerman s
ĠHolly wood
ul ts
ĠSer b
u a
Ġcon ference
Ġprov iding
Ġhold ing
ĠWal ter
ĠIn c
ing er
Ġvis ual
Ġmount ain
Ġey es
ĠH an
ĠOn ly
Ġ197 4
Ġres ident
ol id
ĠDav is
ad ing
Ġsout heast
ĠL ab
Ġm ut
Ġh ired
Ġchart s
un ior
Ġview ed
F L
Ġmer ch
Ġb ranch
he im
if ically
in th
Ġ6 2
Ġrapid ly
bur gh
Ġrecogn ized
Ġro b
il er
Ġ197 3
ĠG ib
Ġvol ume
Ġv ac
op her
Ġtrans form
Ġal le
ĠDemocr atic
ĠRe view
Ġpro te
Ġschol ars
Ġ6 3
Ġsit es
ess ed
Ġg ain
Ġ7 7
ĠSpec ial
Ġcasual ties
Ġte ach
Ġh yp
Ġsh ared
Ġconc er
Ġparalle l
ĠU N
Ġ7 3
ĠJe an
ĠBet ween
Ġpublic ation
ĠD own
Ġc art
Ġtemper ature
Ġdig ital
ĠF all
Ġ197 6
Ġmod er
Ġeconom y
ĠR ome
ĠB ank
ĠK ir
Ġdevelop ing
Ġste el
Ġreact ion
Ġed ge
b ox
f riend
st anding
Ġc ool
ro ll
ĠPr inc
Ġinters ection
Ġsymb ol
al i
z en
ĠLad y
y er
Ġappro ved
onc Ã©
Ġsecond ary
Ġch ance
ĠN ap
ĠPro v
ĠG ord
ĠO b
Ġv on
Ġhyd ro
om ew
Ġloss es
Ġmy th
Ġcont est
r ant
Ġr ac
ren ce
Ġprep ared
Ġsubst ant
ĠM as
Ġbelie f
it ors
ĠD aily
ĠT en
Ġen l
ĠMus l
if ul
Ġlet ters
olog ist
Ã¡ n
ograph ic
ĠW omen
Ġsignificant ly
Ġw itness
Ġband s
Ġs ort
ond er
Ġc ard
Ġs ave
ĠN az
Ġdom estic
ĠSy d
Ġ25 0
Ġfranch ise
Ġkn ew
ry st
Ġgo es
Ġliter ature
ĠBey oncÃ©
er al
Ġunsu ccess
Ġinst ruct
Ġhead s
ach us
Ġsouth west
Ġact ress
Ġtechn ology
Ġsem i
Ġ6 7
Ġad vent
b reak
or a
Ġdes cend
Ġrough ly
ran ge
Ġ urban
Ġc ab
ast y
ĠComm and
ĠB ern
ak a
un te
ĠPl an
thel ess
Ġpain ting
Ġad ult
Ġl b
ĠM ain
Ġany thing
Ġc ars
Ġp itch
Ġproject s
en c
Ġass ault
ĠInd ust
ĠColon el
Ġex act
ell a
Ġbrother s
i ents
Ġresist ance
Ġgame play
ĠP oint
Ġc ore
ĠN ick
Ġsh ape
Ġstory line
ĠWh it
ĠSup reme
Ġre asons
ĠF air
Ġrul es
im inal
Ġ ign
Ġemploy ed
Ġt ank
ĠI V
rop ri
ĠV ar
ĠKent ucky
Ġd aily
ĠSt ation
Ġsh all
Ġinj ured
Ġ194 6
ĠSp ring
Ġwat ched
Ġ198 1
at i
Ġag ent
ony m
Ġpopular ity
Ġcomp osition
ĠâĪ Ĵ
Ġ9 6
ir a
ĠC ur
Ġper haps
Ġf it
Ġis ol
Ġadd ing
Ġenjoy ed
Ġren amed
Ġopin ion
ĠInd epend
Ġget ting
om ic
Ġdecl ined
Ġcal c
o z
ĠNor way
ag ement
ĠR oss
Ġcomp ris
Ġ6 8
Ġrep utation
Ġl ov
Ġn or
os l
ink ing
ĠThe at
ĠP rem
Ġsh aped
Ġ7 2
Ġest ate
Ġconn ected
Ġunder t
Ġre nd
Ġret ire
Ġd rew
Ġ191 7
Ġmus eum
Ġpo em
Ġregard ing
b ound
ĠOlymp ics
Ġview s
o ir
ĠM os
Ġst ages
ul pt
ĠPhil ipp
Ġconver ted
Ġd ry
ce ived
am m
ĠGold en
ĠMass achus
g al
ĠW alk
if orm
ĠB ase
Ġag ricult
h an
Ġallow s
Ġs un
ĠS el
ad s
Ġdist ingu
Ġn ick
Ġaltern ative
ĠMassachus etts
ĠB all
v est
ĠAb b
re ts
Ġb ed
ĠI mp
Ġhead ed
ig g
Ġj ourney
Ġ8 7
ĠS us
ĠD ream
ath an
Ġdep th
ul es
Ġmiss ing
Ġc ited
at o
Ġincreasing ly
e per
k o
ĠL et
os is
Ġst adium
ĠR on
Ġappro ached
Ġ16 0
ĠAir port
Ġturn ing
ĠH art
Ġrespond ed
Ġplan ning
Ġknow ledge
Ġex erc
ĠV i
Ġeas ily
Ġwe alth
Ġ194 8
Ġover l
Ġc ells
ild ing
Ġf ashion
Ġequ al
Ġesc ort
ol t
Ġ7 00
ĠAb out
Ġcol lected
Ġsuc ceeded
ps ons
Ġconstit ution
m od
em an
ĠK en
Ġfl u
Ġsaf ety
ĠB al
Ġreb u
Ġexist ence
un icip
Ġtri p
Ġp ul
ĠR un
w ise
ign ment
ĠSim psons
Ġintrodu ction
Ġocc as
Ġaut h
Ġmod els
Ġlear ned
ĠIn it
Ġcol le
Ġsust ained
ret t
h i
Ġt all
Ġpromot ion
Ġoper ating
Ġ6 9
Ġ197 8
ur ation
m itted
ĠMc G
Ġbase ball
Ġcar rying
Ġlim it
ĠSong s
Ġex change
Ġshow ing
ig er
Ġy outh
on ia
ĠIm perial
Ġbur ied
eng ers
ĠVietn am
Ġ9 1
Ġhum ans
e g
Ġcred ited
Ġ7 8
c ome
Ġdep end
le ton
Ġarran ged
ĠOtt oman
ĠL oc
Ġimpro ve
Ġim pl
Ġse ems
ĠJ ay
Ġweaken ed
ĠC ape
Ġdesign s
Ġ191 5
in ary
Ġv an
Ġjoin t
ĠShort ly
Ġpain t
Ġa thlet
st ate
ist an
Ġr hy
Ġprodu cing
Ġpro ceed
ĠPol and
el er
ac ts
Ġshe l
ĠSyd ney
Ġfre eway
ĠMo ore
ol i
Ġ197 7
Ġearl iest
Ġfl at
ĠWh o
Ġlast ed
ĠMary land
Ġland fall
Ġsettle ment
p ut
ĠP ict
Ġnot e
ĠR oy
Ġdesc ription
Ġret ained
Ġac res
Ġb rand
ĠSt ew
Ġt on
Ġ9 4
ĠR em
ĠN aval
ĠM TV
ĠA D
Ġlaw s
Ġappoin t
ĠC ra
ival ent
Ġgen re
Ġprogram s
Ġcons c
our ces
Ġassist ant
Ä ģ
re ll
Ġplay off
iv ered
ĠJ es
Ġrepl ace
ad er
Ġinst all
b ell
Ġres erve
iss ance
Ġstat ement
Ġv irt
Ġappl ied
Ġc atch
Ġtr ust
Ġ196 3
Ġviol ence
Ġne ut
Ġscient ific
ins ula
Ġ8 1
ĠAr ts
Ġent rance
Ġcoast al
ot hes
ĠP ass
Ġt ick
ie ge
Ġh its
t ical
Ġcon sequ
av ig
Ġ9 8
Ġexcl us
Ġsyn t
ĠG reg
Ġsc ulpt
Ġpat rol
Ġbatter y
m ath
ĠF ire
Ġit ems
ĠA ri
Ġcandid ate
Ġtown s
le e
Ġindic ated
ĠBow l
Ġun s
Ġgrad ually
Ġdistrib ution
t ime
Ġ191 6
ĠE du
Ġpolit ics
l an
ĠR id
Ġdel ivered
o ard
Ġstop ped
Ġf illed
Ġb an
Ġindepend ence
Ġt act
iz ations
e ke
Ġs ections
Ġdet ails
p et
ĠJ an
ĠI G
ĠConf eder
ĠMul der
el ess
Ġc inem
Ġse lect
Å ¡
Ġcomb ination
m un
Ġ7 1
Ġem p
Ġsuppl ies
Ġway s
Ġgl ass
Ġpart ies
end er
Å Ĥ
Ġst ream
Ġeng ines
us hing
Ġprison ers
Ġcamer a
ĠGord on
Ġappe al
ĠSt adium
ĠA C
ĠB and
Ġ191 9
Ġreg ister
ĠRh odes
Ġcamp us
Ġbas k
em ies
ĠW ell
Ġ196 2
Ġact s
Ġm ig
ĠB on
Ġextrem ely
Ġ8 9
Ġent itled
Ġsec ure
re ets
re c
el a
ĠR a
Ġfind ing
A T
Ġon line
Ġdec ade
ino is
ĠUn ivers
Ġt al
ĠPro f
por ation
iqu es
ĠTheat re
ac ter
Ġwin ner
ĠSt aff
ivers ary
Ġ8 2
Ġar c
rop ol
Ġeven ing
ĠC op
Ġreg iment
Ġ193 8
ĠK im
Ġinvestig ation
Ġ8 8
Ġthreat ened
Ġb ought
Ġmess age
Ġadap ted
Ġs omew
Ġsurv ived
Ġkn ots
Ġcons um
Ġstud ied
ĠB ir
ĠAn th
Ġpropos al
ad or
Ġwrit es
Ġadd ress
as hed
ĠV ill
Ġdeath s
ĠJust ice
i at
Ġro utes
Ġw ars
j a
Ġdown load
Ġrul ed
Ġf ear
ĠN ic
ĠInst ead
Ġrel ief
Ġrelig ion
Ġm ales
Ġredu ce
Ġvot ed
B S
igh ters
ie val
an o
Ġrev olution
Ġspec ifically
Ġsp ons
Ġc rown
Ġph ase
m et
Ġdut y
Ġf ict
ph oon
Ġking dom
ĠA ge
Ġrec alled
bour ne
Ġe c
Ġportray ed
Ġs oul
Ġimp lement
ct ions
ĠC irc
Ġcontrovers y
Ġemer g
ĠH ere
ĠM emorial
h at
Ġcaus es
B N
ĠA st
erv ative
Ġe t
Ġb le
Ġ195 6
Ġevery thing
Ġbreed ing
ap es
ad ow
cher s
a ug
Ġs ell
Ġst ret
Ġ13 0
Ġrefer ences
Ġ17 5
ic ian
Ġbott om
Ġag o
Ġcap able
ĠT ony
Ġconv in
Ġte acher
Ġimport ance
ĠP o
ĠCol l
Ġent ry
Ġmet ers
ĠMc K
ĠSing les
Ġoff ers
ĠI d
ĠN el
ĠK ong
Ġt anks
ĠO d
Ġ7 9
sen al
ĠP ower
b ro
ĠU r
Ġsuff icient
ĠDirect or
ent ially
Ġown er
Ġintern al
Ġarrest ed
Ġoper a
rid ges
ĠAd ams
Ġadm itted
Ġnomin ation
ar p
ĠO k
Ġcorn er
Ġb or
ĠJ ord
ĠM oon
Ġcop y
ĠAl an
Ġ193 6
ĠF A
Ġcross ed
Ġcl imb
Ġproduct s
ĠDou gl
w ich
u ro
ĠCrit ical
b ar
Ġinst alled
Ġequip ped
ĠBe ach
ĠAl f
ĠIG N
Ġpre ced
Ġconcern s
ak i
Ġm ort
Ġover se
Ġaut om
ĠHam ilton
Ġinv ited
ĠSim on
ĠMar ia
ĠEng ine
Ġconv oy
Ġon es
Ġcon qu
Ġinter ested
Ġstart s
ĠAd am
Ġcr ime
Ġprincip al
Ġf ly
ĠG ram
Ġac id
rane an
Ġt ell
ĠY our
Ġrecomm ended
h r
Ġal t
and y
ĠJ ane
Ġun l
ruct ure
ĠPl ot
Ġremain der
Ġmed al
Ġsh ut
ans as
Ġact ual
c a
Ġs now
Ġret reat
ĠU TC
Ġst ock
Ġv ent
Ġup grad
esp read
Ġchar ged
ĠV II
Ġsol id
Ġap art
ĠB os
Ġpr ice
Ġfund s
Ġobject s
ĠC art
Ġdo or
ĠTr ack
Ġ196 1
ĠFore st
osaur us
il ation
Ġcompos er
v is
Ġ8 4
Ġfem ales
ĠV ideo
Ġconsist ing
Ġg all
ak ed
Ġpromot e
ĠDe ath
Ġp age
Ġmil it
i y
ĠN BA
ĠInd ones
Ġconsider able
m b
ĠF ound
ĠPro g
Ġd ates
Ġpo ly
ĠIn t
ill er
h us
ĠN ether
ĠG en
Ġ195 3
Ġtyp ical
Ġground s
ĠKenn edy
er ted
ĠG un
Ġcor rect
ĠTod ay
Ġdut ies
Ġext ension
Ġb low
ck s
re te
Ġev olution
Ġ9 3
Ġsome one
ĠTrans port
Ġcon g
Ġr ural
Ġpen al
ĠMil itary
ĠSund ay
Ġe ighth
B I
v ements
ĠIndian a
Ġsp in
Ġso le
ĠPro ject
Ġhot el
ĠHow ard
os ite
Ġdec ades
ĠNor we
k ing
Ġim ages
ĠP it
Ġdr iving
Ġread ing
Ġident ity
ĠSc ully
ĠH ou
Ġz one
ĠMar c
ad d
Ġocc urs
het ic
ĠLe on
Ġman ner
ĠB ry
Ġsub s
Ġsk in
Ġchallen ge
ĠHit ler
Ġl ane
Ġrem ix
Ġto w
ĠK at
Ġasp ects
Ġperman ent
Ġa er
ĠT ar
Ġb rigade
ĠT a
Ġf rag
Ġ194 7
Ġvol can
Ġd ated
Ġh am
Ġ195 8
ĠC ult
ĠF ive
ĠG ill
Ġv ir
ĠPort ug
Ġnot ing
Ġrest aur
ĠB rist
Ġcol our
e z
a fter
ion e
ĠD rag
ub b
Ġsuppor ters
ĠWW E
Ġslow ly
Ġcle an
ĠB a
Ġpost ed
ĠP ear
Ġ8 6
ens us
ĠTur k
iv als
ĠR ose
ile y
Ġ195 7
Ġ191 0
vel and
ck now
ĠSc ience
Ġdescrib ing
ĠRes earch
Ġinvol ving
Ġ11 0
Ġspe ak
Ġvess els
Ġent ering
Ġen emies
Ġ193 7
ĠAss embly
Ġd ress
Ġequ ivalent
aw are
ĠRy an
ĠH ug
Ġclass es
Ġb ra
Ġdeb ate
Ġsett led
n ic
Ġd in
ĠA k
Ġdep artment
Ġob tained
ĠCon stitution
reg on
Ġacc ur
Ġarm or
Ġpar liament
ĠRol ling
ĠD isc
ert o
ĠMag azine
Ġte le
ĠMount ain
ĠArg ent
Ġsong writ
Ġbas ic
ris is
Ġpurch ase
ag ues
f l
Ġp up
Ġf olk
Ġn est
Ġold est
ĠCle veland
Ġf aith
ĠSp ace
ĠP ier
ĠL enn
Ġconcern ed
Ġdepart ure
Ġwid espread
Ġdec line
Ġform al
Ġconn ection
ĠIll inois
c ation
oph y
Ġinc ome
Ġatt ached
he red
Ġrecogn ition
ĠN ow
Ġinte g
ĠDougl as
Ġm emorial
Ġo uter
ĠThrough out
Ġcert ified
he astern
Ġde leg
Ġacc used
Ġsequ el
Ġ <
orn ey
ĠWeek ly
Ġder ived
Ġdec or
ĠS av
r ates
Ġm ode
ĠI ra
Ġh a
ĠSt and
ĠRe le
are t
ĠAnd y
Ġwear ing
ĠJord an
Ġh ip
Ġass umed
Ġdist urb
Ġsw im
ic it
w estern
Ġw ed
ĠO regon
Ġ195 9
Ġa cknow
ĠStan ley
Ġt orn
ĠFred er
ĠâĢ Ŀ
Ġacc laim
o oth
Ġsur vey
Ġcomm itted
i ot
Ġf oss
ĠAr senal
ĠMed ia
ĠF eder
Ġhost ed
R A
ĠTh ird
Ġreturn s
Ġval ley
Ġseg ment
ĠRog er
Ġs essions
eke nd
ĠD al
Ġpop ulations
ĠPhil ip
agon ist
Ġden ied
Ġf ine
ĠMed iter
ĠT reat
ĠRec ording
Ġtem ple
ĠFam ily
Ġh ang
w an
Ġch ampion
Ġfl o
ĠBeat les
Ġchar ges
ĠT enn
ĠL ow
Ġliter ary
ĠBru ce
ĠKe vin
Ġcan c
Ġreg ional
Ġthous ands
ĠNorwe gian
Ġ195 4
Ġtermin us
Ġtrans ition
Ġ195 5
ĠMediter ranean
Ġcirc um
iv a
Ġsupp osed
Ġwar m
Ġwick ets
ĠBrist ol
ĠâĢ ľ
Ġdem and
ĠE s
ĠD ig
Ġan s
ĠA z
Ġsh ots
hed ral
ĠIS BN
ĠR ain
ud den
Ġstrong ly
he me
ac hel
Ġcirc ulation
ĠB ush
Ġintellig ence
Ġs ailed
Ġposs ibility
Ġpass engers
Ġgener ation
I A
Ġh ope
Ġfict ional
em ed
Ġanim ated
Ġthir ty
Ġfre edom
Ġdown town
ĠH o
ĠCh annel
or gan
ĠF ederal
e ing
it o
Ġh ill
Ġr ich
Ġmin ister
Ġbehav ior
Ġcl oud
ĠMexic an
ra ge
ĠÃ Ĺ
C A
Ġassist ance
Ġrepl acement
Ġbeg un
ĠP ur
Ġf ruit
am i
Ġcommand ed
ĠW eb
Ġdest ruction
atin um
Ġmov es
m es
ĠB ol
Ġcr iminal
ch ar
Ġmiss ed
Ġmiss ions
ĠCon c
Ġcost s
Ġexcept ion
ĠD er
Ġcr ash
or ced
ĠR ow
up t
Ġhigh light
Ġbring ing
Ġt ied
ĠM aster
ĠC as
l ig
ĠE ric
Ġcomm it
ism s
ĠKore a
ĠWith in
Ġint ention
Ġfeel ing
ont o
Ġspe aking
ĠB ah
Ġunus ual
ĠLis a
or al
els h
ĠAddition ally
ĠF ame
Ġinter cept
Ġfin ishing
Ġalle ged
le ts
ĠN ar
Ġdem ol
Ġproper ties
Ġincorpor ated
Ġopp osite
Ġstay ed
ĠS ab
Ġattrib uted
Ġsh op
ĠPh ill
Ġvol unte
Ġrecover ed
b orne
Ġs ons
ĠCol or
Ġbre aking
Ġemer ged
Ġ8 3
Ġserv es
Ġ195 2
Ġatmosp here
ĠMor gan
ĠMor ris
Ġd ipl
Ġchor us
Ġtheat re
ĠNorm an
Ġoccasion ally
r ating
Ġdr iven
oth ing
ole c
ĠSc ient
a ire
ĠE le
Ġstr ateg
ĠRob inson
ĠK r
ens es
um in
ĠE ver
ri ers
Ġclass ic
Ġsp ok
Ġread y
ĠPri or
Ġeffect ively
Ġregular ly
az a
Ġc avalry
Ġ9 2
Ġestablish ment
ĠS ky
Ġpre y
Ġcour ts
Ġmethod s
ĠR aj
Ġsound s
th m
Ġv ary
Ġ193 3
osl av
ĠHaw ai
Ġd ivers
og en
ĠTe levision
Ġsup erv
ĠSim ilar
Ġ17 6
d on
p ective
Ġd ream
ĠA round
Ġcomplet ion
Ġsh ore
ĠUn like
Ġmaterial s
ĠC E
ĠConst ruction
ĠG h
ut y
Ġrespons ibility
Ġdiss ip
Ġwar ning
ĠUS A
Ġaccom mod
w en
ĠC ab
ĠF inn
Ġhe at
Ġatt racted
Ġfield s
Ġsurv iving
Ġprov ince
Ġent ertain
Ġpers u
ĠNel son
ĠI ron
r im
Ġglob al
n old
ec e
ĠN ich
ĠFranc is
Ġm o
Ġqu ant
Ġclass ified
Ġk id
so le
Ġdiffer ences
ĠPrem ier
ĠD E
ĠL anc
ick s
Ġdiv isions
Ġtechn ical
v ens
ĠSwed en
Ġinterp ret
Ġb rain
Ġ193 5
b an
ĠF ord
ĠT echn
Ġcru iser
ĠPat rick
ĠB udd
ip e
Ġpass age
em eter
ab led
ĠAn ton
Ġab oard
Ġn one
ĠM it
in ton
Ġs am
oy d
ĠP A
ĠTem ple
we ight
Ġclub s
Ġst ood
Ġassoci ation
Ġrat ings
Ġne ither
Ġele ven
Ġmusic ians
Ġroom s
n ce
Ġ195 1
Ġ194 9
Ġmed ic
Ġreinf orce
id den
om ot
ĠH ell
Ġdes ire
n ings
Ġh al
Ġsepar ated
ĠTor onto
ĠW elsh
Ġcl imate
ĠAn ne
ag le
Ġs qu
ĠN ations
Ġsh if
Ġout break
Ġclass ification
Ġanc est
ĠD og
Ã³ n
Ġveh icle
ĠMar g
Ġreal ity
Ġpred ecess
Ġseem ed
ĠByz antine
Ġchem ical
Ġvot es
Ġpict ure
te enth
ĠAll en
Ġbattles hips
Ġro se
ĠCh ron
Ġmem ory
Ġhop ed
ic i
ĠProf ess
j i
Ġmov ements
Ġm ent
Ġrequ ested
ĠO pen
ĠNether lands
ĠJ ournal
ĠBel g
og y
Ġra ise
Ġhistor ians
Ġ ille
ĠE very
ĠMatt hew
ĠS n
ĠP ow
b urn
Ġm ap
Ġdifficult y
re ck
Ġbask etball
ind er
ĠW he
ew here
ig e
Ġexp ect
Ġv ide
ab il
Ġcommun ities
Ġrest ored
Ġra id
Ġte en
Ġrem ember
ĠB ang
ĠS ports
Ġprogram me
ĠJew s
Ġpremi ere
Ġp ure
ĠDe an
h ar
Ġf al
Ġdelay ed
ĠJac ob
Ġf er
Ġrel ative
Ġinsp iration
ĠS ax
Ġdiscover y
Ġg al
Ġother wise
Ġgreat ly
ĠUS S
Ġann iversary
Ġinj uries
ĠDes ign
ĠAg ain
Ġneigh bor
Ġacc ounts
Ġsat isf
h ire
Ġfund ing
Ġsurround ed
Ġfl ank
ĠD omin
Ġdep ict
Ġpra ise
ĠUl t
Ġpenal ty
Ġsp oke
il ers
Ġbatt ing
Ġneed s
Ġ19 00
ĠIra q
i ate
Ġd ens
Ġstr ate
Ġd ie
Ġpart ner
Ġc rop
ĠW right
ĠMar ine
Ġmass ive
Ġweap on
Ġphot ograph
Ġrec ru
Ġclaim ing
Ġc ra
ĠD or
an th
ĠB ishop
Ġsu it
Ġass emb
Ġl at
Ġast ron
Ġtri es
Ġform ing
Ġstrate gy
Ġw rong
re al
Ġle gend
ĠO ak
Ġaccom pl
Ġdocument ary
ĠAr men
Ġfl ed
Ġcross es
ĠGl ob
Ġwor st
ĠH op
ĠCroat ian
ĠHe art
ĠD a
Ġstand s
g ets
ĠThom pson
Ġarchitect ure
Ġas h
ĠL ast
ut her
Ġtem porary
ĠJ am
Ġgirl s
ub le
Ġdeterm ine
Ġchair man
ĠD ick
ĠRuss ell
Ġdismiss ed
a ired
ĠIs lam
Ġinvol vement
ĠSt ra
Ġbomb ard
Ġs ale
Ġc ategory
ĠT rib
Ġro t
form ula
Ġpl ane
ĠCent re
Ġin ner
Ġrem n
Ġadapt ation
ĠMar s
Ġhe ar
r um
ond s
go ing
Ġens ure
Ġconvin ced
Ġs ight
Ġen f
ly n
Ġc ul
ĠN C
Ġwe ekend
Ġ0 6
ĠH oly
ĠN FL
ĠPu erto
ĠF ront
Ġres ources
Ġsomew hat
Ġres erv
ĠCar ter
Ġinter ests
ĠWin ter
ĠR ick
w ing
Ġsc heme
Ġmed ieval
Ġimmedi ate
ĠKel ly
ĠHe nd
Ġst reets
ag re
Ġpresident ial
ĠMod ern
Ġl ibrary
ĠK er
Ġr ay
ost er
Ġcar bon
Ġabs or
Ġcons p
ĠCo oper
b ody
Ġ ic
ĠSp e
itz er
p o
Ġfall ing
Ġcolon ial
ĠD ra
ĠAl ong
Ġtechn iques
Ġo ri
Ġclass ical
Ġs ed
Ġf ighter
Ġn inth
ĠN iel
ĠR ang
Ġapp ropri
Ġthr one
ĠG ard
Ġstar red
Ġegg s
ĠBro ther
Ġacad emic
ĠF ree
ĠN etwork
Ġr aces
Ġb right
ic ide
ay a
Ġad ults
ĠP ak
Ġcon vent
Ġcomm emor
Ġpass enger
Ã ±
Ġsurv iv
Ġl oyal
ĠHung arian
ĠN ob
Ġme ets
Ġl ake
n ight
ĠW y
ĠG ri
Ġreview er
es ter
Ġal ien
ĠTh us
Ġ191 3
Ġpremi ered
Ġsubmar ine
r ine
ĠB ou
Ġabs ence
ĠBat man
b ec
we alth
Ġsee ing
Ġren ew
á »
Ġf itted
ĠL abor
Ġel se
Ġsuper ior
os ure
Ġinter ior
ars h
Ġfavor ite
ĠPark er
Ġengine er
ron ze
Ġd ub
P A
ĠE st
Ġair port
Ġpart n
ĠT ok
Ġde emed
Ġattack ing
ĠHar ris
om p
Ġconc lusion
Ġappear ing
ac ent
Ġvis ible
ĠB i
Ġ192 6
Ġd ating
iv an
Ġsynt hes
us ing
Ġcharacter istics
Ġrom antic
Ġ x
Ġlead s
Ġelect ions
Ġr um
Ġoper ate
Ġfac ility
Ġencoura ged
Ġ192 7
Ġm unicip
ĠL ibrary
Ġafter wards
Ġretire ment
ĠD NA
Ġland ed
b ook
Ġcol ony
Ġconv ection
ĠMur ray
Ġtemper atures
Ġbu y
Ġ192 1
Ġevery one
ch ang
ĠA I
Ġdo ct
o en
Ġsuff ering
Ġcred it
Ġ193 4
Ġlegisl ation
Ġhold s
ĠKn ight
Ġmod ified
Ġl ies
Ġchall eng
ĠEdu cation
ĠT s
ĠL ate
a ver
Ġpain ted
Ġcontrovers ial
Ġw ings
e or
Ġs an
Ġg one
Ġâ Ĥ
an ia
ro it
oss ible
ĠHou ston
Ġbelie ves
ix on
Ġc ode
ur ches
Ġdistrib uted
Ġo d
ĠB rand
ĠComm ander
Ġattempt ing
Ġ0 8
ĠPol ice
as ure
ĠBer lin
ĠPal ace
ust er
Ġstand ards
Ġlook ed
Ġresc ue
Ġ9 00
Ġauth ors
Ġsec ured
ĠAd vent
Ġmon arch
Ġdep icted
Ġ191 2
t ic
ĠU t
Ġcan cer
Ġarch ae
Ġdomin ated
ĠF I
Ġbattles hip
ac he
Ġgr ass
Ġhabit at
Ġ Å
Ġany one
sc ape
ap se
ĠY ug
Ġcontin uing
com ing
Ġjud ge
Ġw el
Ġlong est
Ġimm ig
ĠSt ory
ĠSant a
el ine
aw s
Ġbig gest
ĠSwed ish
l i
ĠCommon wealth
Ġunsuccess ful
Ġun ion
Ġgraph ics
ĠG et
Ġp ound
enc ies
Ġn eck
Ġob tain
ĠL i
ĠSim pson
ĠRober ts
Ġtra ined
ĠO t
ĠY an
Ġs udden
Ġw ins
ĠH ospital
Ġ193 2
ult ane
inal s
ĠO bs
Ġj ump
Ġarrang ement
Ġcar rier
ask a
Ġrail road
ow a
ĠInd ians
ĠE y
Ġacknow led
ĠL yn
ĠSil ver
Ġnick n
ĠM ort
om ing
op es
Ġinform ed
Ġmeas ures
e enth
ĠC ook
hes s
ĠRA AF
Ġbel t
Ġrepresent ing
emeter y
Ġrele ases
ĠCor poration
Ġachie ve
ĠSoc ial
ĠN BC
ĠWar ner
tern al
ch ing
Ġse es
Ġ0 9
ĠMer c
Ġgar rison
ĠYug oslav
Ġcon vention
t ure
un a
Ġformer ly
ĠJ ason
Ġgr ade
Ġb ab
Ġgener ated
Ġst yles
Ġclos er
Ġdeploy ed
Ġemerg ency
ĠAnth ony
Ġb ats
Ġal leg
ten ance
el le
Ġquest ions
ol ph
Ġmoder ate
f are
Ġhistor ic
Ġg ets
Ġv eter
Ġtri als
Ġf estival
Ġcy cle
Ġm olec
hem at
Ġs ter
Ġs iege
Ġinflu ential
ĠC ru
Ġemot ional
ĠH in
ĠCroat ia
ĠDet roit
ĠT al
ot ype
Ġown ers
Ġnov els
ut s
ag u
ĠR AF
Ġsuccess or
Ġinflu ences
Ġnar rative
ĠG aga
Ġ192 9
ar ia
ĠB ure
Ġth in
ĠCh amber
ain ts
Ġst ead
Ġr u
Ġ191 1
Ġe at
Ġex cess
Ġjournal ist
ĠAut hor
Ġchild hood
ĠGil bert
Ġconst ant
Ġexper iences
m ate
Ġpre gn
Ġdef ended
Ġve get
Ġdiscuss ed
ĠPrinc ess
Ġleg s
Ġapparent ly
Ġal co
Ġinstr uments
ĠR ap
Ġass ass
ĠSp ears
Ġ14 0
Ġvict ims
Ġtre ated
Ġg iant
ĠP C
Ġenvironment al
Ġdipl om
f ire
ark ed
Ġexec uted
im ore
Ġdet ail
ĠAs ian
Ġcoin s
Ġ193 1
Ġ192 2
Ġdep os
ann y
Ġoffic es
ob i
Ġfact ors
3 0
Ġm ine
ĠJes us
y ard
ust ed
i ens
Ġbe ar
Ġconc ur
ram s
ĠD esc
ach ment
Ġent ers
Ġhun ting
ĠS omers
Ġwood en
ĠMel bourne
n oon
ĠEv ans
ĠNiel sen
ĠP ope
ĠAtl ant
ast e
Ġch annel
Ġhundred s
Ġr ide
ĠV ice
Ġres igned
ĠGu y
D S
Ġo cean
ro t
ĠCl inton
ĠX box
ili ar
Ġg ay
Ġun iform
ĠM un
Ġsk ills
ĠB ed
Ġn avig
ĠOr gan
Ġreve als
al o
ĠNever theless
Ġsp end
Ġchap ter
ĠC ategory
Ġpoin ted
Ġen h
Ġrid ge
te xt
Ġcl im
E S
or ous
ĠW ing
Ġwatch ing
ĠStew art
Ġb on
Ġprevent ed
us ic
ĠMusl im
Ġ0 5
Ġprefer red
l ie
ut t
ĠRe al
re es
Ġp ushed
Ġp ull
Ġform at
ic ians
Ġloc omot
Ġfoot age
Ġfle w
Ġlangu ages
ĠHe avy
Ġdiffer ence
Ġopp onents
Ġhappen ed
ĠT ower
Ġform ally
Ġthere after
Ġdrum s
Ġint ent
Ġreported ly
Ġche ck
it ter
Ġfac ing
ĠB enn
Ġres ign
Ġrelationship s
Ġaccom p
ĠOrig in
Ġch ain
Ġint ense
ĠCar ib
Ġthous and
ĠBul gar
ĠTurk ish
Ġhand ed
ĠSam uel
ĠExp ress
ot o
t ty
Ġdev ice
Ġnot ably
ĠSar ah
s ki
Ġanim ation
ĠR ey
ĠL im
og ether
Ġf iring
ĠLenn on
Ġv ision
Ġinh abit
Ġex isted
Ġvisit ors
ĠB ird
id i
Ġsurre nder
ĠA ud
Ġg ather
Ġemploy ees
ĠGre ece
M A
ĠBalt imore
Ġb es
on ies
Ġ17 0
Ġaccomp any
ĠAust ria
ĠQue ens
m ad
ĠAlbum s
ro c
be an
ĠH ans
ĠAr k
sp ec
Ġdepart ed
Ġlink ed
Ġhe aring
Ġexp osed
Ġparticip ate
d s
Ġpoet ry
Ġdial ogue
st ic
h att
d a
Ġext ent
o is
Ġf il
ĠSt ock
Ġdet ailed
Ġannoun ce
ol is
ĠColor ado
Ġsubstant ial
y o
ic an
Ġlear ning
Ġbe ach
Ġaud io
ĠC am
ĠR aw
Ġinst ance
Ġunivers e
ĠL ane
ropol itan
Ġreb ell
Ġcru isers
Ġresident ial
j o
un es
Ġimp ressed
pris e
ĠWrit ing
ĠMarsh all
or age
ĠH orn
Ġv ul
or ial
Ġperiod s
Ġav o
ĠInit ially
end ment
ĠC z
Ġs ke
ĠFound ation
Ġm art
Ġh uge
Ġpl ate
Ġpubl isher
ull ivan
ĠMal ays
Ġut il
Ġh at
Ġt aught
Ġe asy
ig en
ĠD ave
Ġafter noon
Ġent hus
l ock
olog ists
Ġtem por
Ġst em
ĠFreder ick
Ġterrit ories
Ġdr iver
Ġimp rison
Ġreview ers
Ġtest ing
rib ed
ĠEr n
Ġvide os
b oy
Ġ192 8
ĠW restling
op ter
Ġh appy
Ġup d
Ġt ests
vi ation
ĠB anks
ĠH aving
iam i
ĠHor se
Ġst able
Ġte eth
Ġfe ud
Ġrep rodu
Ġsym pt
Ġunderst and
Ġisol ated
Ġc a
ro ph
og an
Ġnegoti ations
Ġvess el
ĠSomers et
Ġdiam eter
Ġin her
Ġag ents
Ġsle ep
ot es
Ġpick ed
ĠJ ess
at ically
ĠAn na
Ġ192 5
ĠB uck
Ġb ridges
ĠK now
ĠMar io
Ġgood s
Ġencoun tered
ch o
Ġdang erous
Ġj unior
Ġwithd rew
ĠRele ase
Ġdi agn
Ġl ob
Ġsim ultane
ro ke
Ġag ed
Ġfound er
Ġre un
ĠAng lo
Ġbehav i
Ġfact or
Ġnorm ally
Ġupgrad ed
se a
ĠGi ants
Ġkeep ing
Ġf ur
ĠM iami
Ġspec imens
Ġwind ow
bor ough
Ġt ie
Ġp ounds
Ġ189 0
m ission
ĠSe attle
Ġdet er
Ġmed ium
Ġsat ell
et ime
Ġrel ie
Ġfrequ ent
ol as
Ġsu re
Ġ192 4
Ġcoll aps
Ġeth nic
b ridge
Ġto ll
Ġm ir
Ġd iet
id ae
Ġpart ly
ĠChampionship s
ĠPlay er
ĠE xt
Ġlow est
Ġc risis
Ġpro hib
Ġres ear
Ġengine ering
c hen
ĠTre k
ĠC all
Ġapp rec
ĠS oon
ĠAl ab
Ġout f
Ġtravel ed
Ġv ic
ĠC re
Ġwhere as
Ġorgan izations
hel m
i able
Ġpro ced
aw ay
Ġdesign er
Ġp ed
Ġrare ly
Ġl ose
ĠO p
Ġref ers
Ġt one
ames e
ĠH and
Ġdoes n
Ġtur rets
us al
Ġtechn ique
iec e
b rid
Ġins c
ĠHum an
ĠTreat y
ĠI owa
ger y
Ġv ice
Ã© e
Ġor b
Ġa x
ig s
Ġsp ending
Ġfinal e
Ġ0 7
Ġcritic ised
Ġadv ice
Ġperm ission
Ġmain tenance
Ġl ad
ĠM L
Ġpl atinum
enn is
Ġunc ertain
Ġdifficult ies
Ġp hen
il a
x ual
y gen
Ġcomp lic
Ġpart ially
Ġrest ric
Ġpolic ies
ĠAlab ama
l s
Ġby pass
Ġperson ality
Ġag ree
Ġver se
Ġmain stream
ĠFor ces
Ġcompet e
Ġrank ing
Ġindic ate
Ġl iqu
Ġexc ell
ĠD ur
Ġpro port
Ġrecord ings
in ction
il st
usc ript
ĠCarib bean
Ġun n
ok ed
Ġcom ments
F C
Ġrem ove
Ġant icip
c ol
Ġfinal s
ĠNap ole
Ġm amm
ĠThe n
Ġref uge
ĠB uff
ĠMiss iss
Ġsaf e
ĠLaw rence
atter ed
Ġconcer ts
Ġ192 3
Ġwind ows
ĠYan ke
ĠCan al
Ġstri p
Ġse ats
ud a
Ġrest rict
Ġmor al
Ġsy mp
che ll
ĠCharl ie
Ġover s
Ġmon ument
Ġr ates
Ġj ur
Ġrep air
Ġext reme
Ġfall s
Ġf ighters
ĠA h
ĠN at
Ġrec ur
ĠMin nes
Ġrecomm end
Ġpit ched
ĠB ros
Ġrepresent ative
Ġcover s
ĠCro wn
Ġal ter
Ġtr uth
ĠSen ator
ĠMc D
Ġt enth
en h
Ġdif f
ĠM ach
Ġprompt ed
p ower
is d
Ġfor cing
ran g
Ġdescrib e
Ġprot est
Ġh ockey
ĠC R
ĠI an
Ġph r
Ġt ub
ĠMin istry
Ġrec onst
Ġshe ar
Ġdestroy ers
A r
m ates
Ġmin imum
s k
Ġunder w
ĠM P
ĠB rig
ĠG arden
ĠTown ship
Ġp ric
Ġh ull
ĠH u
Ġch urches
Ġneighbor hood
if er
ĠDe ad
Ġfriend ly
ĠGram my
Ġbas es
Ġboy s
Ġexam ples
ĠUS D
ĠÃ Ĩ
ĠHe alth
ĠBl ood
ĠHung ary
ur ance
Ġdraw ing
ĠCount ry
ĠPol it
ĠNaz i
Ġp in
ĠBen j
Ġtrav elled
m ers
ĠB an
Ġbomb ers
Ġin aug
Ġdo ctor
ĠR oc
ĠD ance
Ġdyn asty
Ġadj acent
Ġm and
Ġappro val
Ġhous ing
Ġdisplay ed
ĠH amp
ĠRet urn
ĠAustral ians
ĠBelg ium
1 0
Ġcreat or
Ġcred its
Ġj u
ĠChrist opher
Ġt urb
Ġgro wn
Ġjoin ing
Ġlist ing
Ġcoll apse
Ġtrib ute
Ġaw are
ĠDie go
Ġpartn ership
ĠShak esp
e u
Ġprot agonist
i ac
Ġf ung
ĠC old
ĠE vent
z z
ĠR and
od ore
ant e
Ġexpl o
ĠMed al
Ä į
Ġmom ents
od s
Ġact ed
Ġchang ing
Ġcreat ive
ã ģ
Ġ *
al ions
Ġdesign ation
w a
ic y
Ġpow ered
ĠG ab
ĠK al
ug by
Ġinstrument al
ĠRep resent
it ud
ĠM uch
Ġref ere
Ġtre nd
ĠLa ure
Ġas ks
ĠChild ren
ĠC amer
ĠD C
onna issance
vel t
Ġrad ar
Ġcan al
b ra
Ġstorm s
ĠMic hel
ĠH ud
Ġar ts
Ġvill ages
ĠC red
ĠL l
Ġposs ession
Ġ190 5
Ġappoint ment
Ġadv is
Ġ190 8
Ġdoll ars
im eter
Ġtreat y
Ġscient ists
d ie
Ġ190 9
oun ced
Ġround s
ĠKh an
st ers
ot ten
ĠRec ord
Ġvict ories
Ġsurv ive
ĠGuard ian
Ã §
Ġelimin ated
Ġpaint ings
ĠBenj amin
Ġcover ing
ĠLeg acy
Ġwhe el
Ġmin imal
Ġprec ip
Ġ els
ĠRo ose
ĠH ockey
c op
Ġels ewhere
Ġt elling
ic ts
ĠVietn amese
ĠH ills
Ġnewsp apers
Ġinn ov
Ġsurpris e
Ġbenef it
iv ated
act ive
ec raft
Ġseek ing
ĠA R
Ġarr iving
Ġanal y
Ġhelp ing
Ġoccup ation
Ġrhy thm
Ġsu icide
ĠMinnes ota
ou ri
Ġpurp oses
ĠF al
ĠAlf red
v y
Ġun like
ĠTh or
Ġval ues
Ġdisp ute
Ġoccas ions
Ġb rick
Ġg ard
ĠH ind
Ġsm ooth
Ġlo an
Ġp ool
ĠS et
ĠMan hatt
Ġtw in
ĠT un
Ġw et
rup ted
Ġo ption
ro id
ĠManhatt an
ĠD iv
um an
Ġman uscript
ograph ical
or ious
Ġso il
Ġg at
ĠK urt
ĠFrank lin
Ġf ishing
ĠInter state
Ġstrugg le
ĠWalk er
Ġc ryst
r m
over s
Ġmur d
Ġ10 5
Ġbal ance
n o
ĠL in
ĠA ff
ĠAdm inist
T A
ĠS on
Ġ12 5
Ġhel ic
Ġdeg rees
ĠAn im
ĠRoose velt
Ġ0 4
Ġpres erved
ĠTr ust
g on
Ġ Ä
Ġsched ule
es h
ĠCom b
ĠShe l
Ġfl ash
ĠPer form
Ġ190 7
Ġc ateg
Ġco oper
ĠFl ight
Ġcircum st
ri x
ĠPen insula
ack s
Ġpublic ly
ather ine
ĠH ong
Ġviol ent
Ġcandid ates
Ġres umed
ĠB eck
rom e
or ph
Ġem peror
Ġ16 4
ac le
ĠB ull
Ġhon our
n ik
ĠI ce
ĠK ansas
Ġcompet ed
Ġpil ots
Ġwed ding
ĠF ried
Ġsurviv ors
ish ment
inc ial
mun ition
Ġd ies
Ġab ilities
ĠIndust ry
ĠB h
Ġpro cl
Ġneut ral
s ky
ĠN ash
act ion
Ġc ook
ul ating
Ġsp an
ĠSat ur
m ph
ok ing
Ġbeaut iful
Ġb id
ĠL ith
ĠMississ ipp
Ġimp ossible
ĠPort land
Ġco ordin
Ġintens ified
ĠB orn
Ġal ignment
Ġarg ument
Ġmult i
Ġteach ing
f ted
Ġadv oc
Ġcust om
Ġass isted
Ġpo ison
Ġw rest
Ġle m
Ġdefe ating
Ġcons ult
Ġelect ronic
ob ile
Ġconc rete
Ġl ists
Ġpro sp
ĠHot el
Ġover t
Ġn ations
ĠW olf
ĠP le
Ġser ial
Ġsim pl
Ġr ivers
ens ions
Ġdisc ip
Ġabs ol
ĠBu ilding
ap h
Ġp y
ĠW ard
ĠDig ital
Ġass ists
Ġfound ation
Ġel abor
ĠBr un
is p
ĠV I
Ġopp onent
ĠJ os
Ġinterest ing
à ¤
Ġd anc
il ty
Ġagricult ural
e are
Ġbusiness es
Ġback ing
Ġox ygen
Ġsu itable
Ġ16 5
ĠCo le
Ġp arent
Ġm ines
Ġsign ing
Ġ188 0
Ġsub mitted
Ġtun nel
Ġfif teen
Ġunderst anding
Ġschol ar
ĠH em
Ġg rey
row s
ĠC ob
ĠL am
Ġencoun ter
Ġsympt oms
ĠBl ues
iven ess
it ated
ĠD w
f ace
Ġc iting
Ġw aves
Ġbeh alf
ĠHal o
ic er
Ġor bit
ĠAlex and
ĠShakesp eare
Ġspirit ual
Ġs unk
ĠD om
ct ic
Ġpercent age
ĠN ative
Ġpar ish
Ġs ank
ĠW ol
ag en
Ġforest s
ĠAre a
ĠTenn ess
ĠHin du
b l
Ġn inet
Ġfor ty
Ġsit uated
un ch
Ġsign s
Ġclos ing
Ġsubject s
ĠCamp bell
ĠV inc
ĠA thlet
onym ous
al ities
Ġam munition
S P
Ġvo iced
d ale
ĠP rom
ĠK ings
Ġus ual
Ġill ness
Ġn om
ĠN on
ĠT ag
Ġrep airs
ĠS ullivan
ĠHer o
Ġres olution
Ġcor por
as ters
ĠSte ven
Ġim perial
ĠLuc as
ĠD est
Ġask ing
ĠB ox
Ġdis aster
Ġfun ctions
Ġcollabor ation
Ġass ess
Ġ0 1
Ġattend ance
Ġcontro ll
Ġrestaur ant
l ah
ĠF riend
Ġl ieutenant
ĠEgypt ian
f ather
Ġev il
Ġaud iences
Ġfeel ings
Ġst ring
Ġunder ground
Ġdel iber
Ä ĥ
Ġw orship
Ġj unction
ĠR en
Ġfl ights
ĠSte vens
Ġport ra
Ġaff airs
Ġsusp ended
u v
ĠMarg aret
am ic
Ġsk ull
ĠTenness ee
ĠR ab
Ġex it
ĠMississipp i
ar on
os m
se x
ĠR ace
od ge
amp s
Ġpr on
Ġwill ing
ĠJ osh
Ġtar gets
ĠLouis iana
Ë Ī
Ġcar go
Ġinit i
Ġearth qu
r ator
Ġrec re
Ġ190 6
ĠM ack
Ġaff air
Ġfun eral
ĠMont real
id d
Ġpro l
Ġoper ational
ĠMc L
ĠHistor ic
res ents
qu es
ĠWar ren
Ġab ol
Ġ36 0
Ġpoor ly
ĠLab our
r us
Ġle ct
Ġmeas ured
Ġ190 4
Ġcomp ilation
ĠPal est
Ġdoc uments
Ġmount ains
ĠMiss ouri
Ġf iled
Ġaim ed
r ants
u able
rac ts
Ġcirc uit
Ġregister ed
Ġan ch
ĠK u
we et
Ġ187 0
ĠDep ression
ĠPhilipp ines
Ġconsc ious
C C
ĠT an
Ġstat ue
Ġfavor able
Ġel der
Ġsub t
Ġaff ili
Ġro ut
Ġlik ed
ĠApp le
Ġadop t
ĠMit chell
or i
an ium
ĠN ag
and al
ĠSt at
Ġb ot
Ġrecogn ised
Ġexplos ion
ĠDrag on
ĠB illy
ate ur
Ġrep resents
Ġprofess or
Ġentertain ment
Ġj azz
f e
Ġtempor arily
cept ion
Ġs ector
ĠSt r
Ġb en
ĠC ow
ĠJo h
ĠSm all
Ġsequ ences
ĠCrit ics
Ġrepl acing
ik a
Ġfif ty
ĠP ed
over e
ĠKir k
g ate
Ġoff ering
Ġshell s
Ġc yl
id el
ad i
Ġart work
ĠR ing
ĠV is
ĠGra ham
ĠIndepend ent
Ġw ore
Ġres idence
Ġinterp re
Ġprepar ation
er a
ĠF em
ine a
Ġmar gin
Ġ0 3
spec ies
ĠMag n
ĠBus iness
ĠCz ech
ord ers
iss ions
Ġref lected
Ġrest oration
Ġnuc le
Ġall iance
Ġpr ime
Ġrel uct
Ġdirect ors
Ġexp ensive
ĠM ess
Ġr ig
ĠL ov
Ġter ror
Ġto uring
ĠS now
ĠN ear
ĠU E
anc ell
yl an
Ġover w
inent al
Ġalco hol
Ġcomple ting
Ġamong st
Ġthink ing
r ace
ĠY e
Ġsuggest ing
ĠM aur
art ney
ĠM es
un c
ĠAri z
Ġb anks
Ġhor ror
Ġgra v
b ishop
el lect
ĠCub a
Ġcanc elled
ĠSe ven
Ġrebu ilt
Ġcover age
Ġc od
ĠF rid
qu ir
Ġpul led
Ġre ven
Ġdec ides
Ġesc aped
Ġd imens
ĠGu ide
Ġer upt
Ġb ay
Ġwas n
Ġam ounts
ĠCh and
ĠEd ge
Ġc ous
ip h
Ġlack ed
Ġtrib es
overe ign
re p
Ġr acing
Ġdram atic
ĠPh oen
Ġclear ly
Ġcommunic ation
Ġg arden
Ġpattern s
ĠTam il
ĠF iles
Ġfam iliar
Ġpred omin
ur ally
Ġeng agement
Ġf rig
Ġr it
Ġown ership
app ing
Ġarg ues
ra k
ĠC her
Ġmark s
u ary
ĠAriz ona
Ġs aved
ĠInd ies
Ġarm ored
Ġpers pective
ĠS ony
ok es
Ġmat hemat
Ġcolon ies
ĠPers ian
Ġg ang
Ġwick et
Ġdro ve
ĠG rey
ĠSatur day
Ġcontrib utions
Ġmerch ant
Ġsol ution
ĠD ylan
st orm
Ġpr int
Ġfast est
t i
Ġplayoff s
Ġart istic
Ġadminist rative
Ġse ed
ĠSc out
Ġremn ants
iet ies
Ġt ag
Ġex ecut
Ġcharacter ized
Ã º
Ġfal se
ĠMar ie
ath y
j e
Ġbound ary
id ency
Ġr ising
Ġmilit ia
Ġk ings
Ġ11 5
Ġsever ely
f ish
Ġcrew s
ex p
Ġinstit utions
Ġarm ament
og a
Ġdisapp oin
ĠL as
Ġbad ly
Ġret ail
Ġdep ending
Ġflag ship
ĠConfeder ate
b re
Ġear ning
Ġbul k
ĠBure au
Ġgen etic
Ġdistinct ive
ov a
Ġbow ling
Ġexpl ains
Ġide al
s es
Ġb ran
ac on
ĠP a
ĠE P
Ġnot ice
Ġrec ip
or er
it ting
Ġb ronze
om ber
Ġfall en
Ġexc av
ĠOk lah
Ġrestric ted
Ġrank s
c ru
Ġcon text
e qu
Ġfr ust
Ġcompar ison
Ġth rew
ĠN ik
ect ic
ĠS in
ĠL iz
ell i
Ġdemonst rated
ment ed
Ġexpl ain
Ġcond em
Ġrang ing
Ġear n
Ġqu iet
u ations
Ġpo ems
Ġin land
Ġ17 4
Ġcontrol s
Ġinhabit ants
l ife
Ġarr ive
ĠSw itzer
ĠWil helm
Ġrid ers
ĠMur phy
Ġt rick
Ġs isters
ĠA my
Ġg ap
ĠProg ram
Ġpract ices
Ġlo op
ĠL ang
Ġk W
Ġw ants
Ġm ental
Ġman eu
ĠHar vey
ĠMr s
ĠS uch
Ġf aster
ĠE conom
Ġv el
Ġcons ervative
Ġelect ron
ĠBroad way
ĠA BC
iv ia
form ation
Ġme at
Ġwid er
ĠSwitzer land
l ings
Ġsh ield
Ġsy nd
Ġob vious
Ġrev ol
Ġk it
ov en
ock ing
ĠN a
Ġsur ge
Ġexc lud
Ġspot ted
ot ton
th a
ĠBar ry
Ġacc eler
Ġvul ner
Ġre aches
ph a
Ġ190 1
Ġdistingu ished
Ġp ace
Ġpl us
Ġnorth ward
r Ã©
Ġev olved
Ġexhib ition
ast s
ant on
Ġapplic ation
Ġg ate
ĠOklah oma
E C
ĠT el
Ġmill imet
ĠAust rian
Ġquarter back
Ġnomin ations
Ġag ency
Ġtri ple
Ġprote in
h u
Ġsub species
ĠFeder ation
Ġfr ame
rupt ion
Ġsatell ite
ĠCl ar
Ġt ip
Ġaut obi
ĠOrig inal
S A
Ġdomin ant
Ġprep are
Ġhousehold s
Ġpred icted
Ġpal ace
in ations
ĠDel aware
Ġw reck
um a
Ġte x
et on
Ġst orage
Ġsl aves
Ġ190 3
ĠB omb
ur er
ĠR at
sequ ently
gr ade
Ġint ellect
Ġ15 5
Ġ190 2
Ġab und
ĠLith uan
Ġth or
el and
Ġv s
Ġart icles
Ġprin ted
uk i
Ġv ast
Ġ0 2
Ġcar riers
Ġatt ained
ĠPer ry
Ġrepeated ly
Ġfix ed
Ġpredecess or
Ġall ies
Ġver tical
Ġsur gery
ĠLes lie
Ġst ores
Ġout l
d in
Ġst rict
Ġsign al
ĠM ik
Ġpe aking
ĠHar v
l us
im en
ĠF if
Ġphilos ophy
Ġy ield
Ġphen omen
Ġadvent ure
Ġbi ographer
Ġblock s
asc ar
Ġexcell ent
on ed
Ġb oss
ĠR ih
Ġdis agre
ĠBab y
Ġt ack
ĠOrigin ally
Ġpre tty
Ġille gal
ript ions
ĠD S
ĠV e
Ġbomb s
ĠA ld
ĠH ur
Ġper ceived
ĠM other
id ers
Ġserious ly
Ġcho ose
ĠTok yo
v ant
ic ate
ĠR ico
ĠL ess
Ġcom fort
Ġap artment
ĠDen mark
Ġremark ed
Ġwest ward
ĠJon athan
ĠRid ge
Ġuse ful
Ġwa iting
Ġt ight
ro se
Ġcircumst ances
augh ters
ĠBern ard
ĠBase ball
yl er
Ġcur ren
ĠPlay ers
ĠAtlant a
ĠRih anna
ar o
Ġsk et
Ġcoin c
Ġsurre nd
Ġmeet ings
Ġdrug s
Ġbatt alions
it age
ĠC hel
Ġdoll ar
Å «
ĠH ann
ĠAbb ey
Ġs ick
ĠJohn ny
Ġinstit ution
ĠN ixon
Ġph one
A R
Ġb reat
Ġcivil ian
Ġlay er
ĠW or
ĠTer rit
Ġarm our
Ġread ers
ĠT on
Ġwh ilst
Ġ10 1
az ing
n g
ĠR oll
Ġg ust
Ġch amber
Ġmat ters
Ġcast ing
Ġfriend ship
r ings
Ġt iss
ĠP il
em en
ap olis
ĠJu an
Ġstrengthen ed
Ġh orn
Ġvis iting
Ġplan ets
m i
Ġh olid
Ġr ub
ĠCamp aign
in ian
ĠM aj
Ġrec onnaissance
Ġ16 8
Ġret ain
Ġsimilar ly
ĠPit ts
Ġsimultane ously
est one
ĠIn n
ĠEd wards
ming ham
r int
ĠC hen
ĠAr nold
Ġleg acy
ess es
Ġaltern ate
Ġdem anded
L C
on omy
Ġty phoon
ri k
ĠO pp
Ġem pt
ĠA y
ĠW ag
Ġpan el
T W
ac c
ĠR al
Ġjust ice
g ro
ĠLe x
Ġenl isted
ar th
ĠS oul
Ġal ive
Ġins isted
ĠRail road
ĠI ran
Ġre vers
ĠPri ze
I S
Ġh ook
ĠR ub
est yle
Ġship ping
ĠMc M
ĠMad ag
ĠKe ith
j an
ĠJim my
ro v
Ġro ots
Ġneigh b
Ġre venue
ent le
Ġprom ised
Ġdem ands
Ġbomb ing
ĠIntern et
ĠS em
Ġperson ally
Ġl anes
Ġathlet es
ĠR achel
Ġcon sole
Ġprop ag
ĠMic ro
ar ation
Ġmain land
Ġdr ivers
Ġstrugg led
Ġdefin ition
Ġlook s
Ġport ions
Ġp ione
ĠP ars
Ġback ed
Ġcontin u
Ġaud ition
Ġorchest ra
Ġbehavi our
l ain
Ġs ung
gh an
ĠJ ar
Ġd iver
ĠC ost
ĠSh aw
ac re
Ġart ific
Ġgu ilty
Ġguitar ist
ĠYanke es
ot yp
ĠB ach
Ġjob s
Ġ16 6
Ġmarket ing
od ox
Ġob lig
Ġarm ies
ar ant
ag h
reg ation
ĠF at
Ġsur pass
ĠGr ay
ĠBir mingham
Ġdemol ished
ĠTr acy
Ġd ancing
it is
ĠL ost
Ġstar ring
ĠFurther more
ĠM ans
Ġrul ing
Ġc up
it i
Ġin du
ic ation
ind ing
Ġfe els
ĠN ine
ĠV ik
ater n
ĠOb ama
ĠH ugh
ĠF el
Ġcomp ens
az ines
Ġincre ases
Ġprof ile
Ġfact ory
ĠConst ant
ĠEvent ually
a very
Ġcompl iment
Ġess ential
Ġ10 9
Ġp unk
ĠS ak
Ġmin ing
Ġhead ing
ĠUnivers al
Ġthe ater
Ġcount ies
ĠCan ter
f olk
Ġp ages
ĠS ig
Ġob st
Ġexp ression
Ġorgan isation
ĠMcC artney
ĠEnter prise
Ġpurs ue
ou ver
Ġdisc ont
Ġbelie ving
Ġaff ect
Ġdiscover s
um ps
ap ped
ract ion
Ġpat ron
Ġdeliver y
Ġbon us
Ġmultip l
A C
ĠB aker
ĠBudd h
ĠPhoen ix
Ġs alt
ĠJ up
Ġcl othing
ĠCom ple
Ġst ick
Ġport s
Ġsuc ceed
ĠHud son
ĠT ol
p y
ĠP ubl
Ġmob ile
Ġs ad
ĠK l
Ġcre st
f le
Ġelev ation
Ġac ou
Ġk iss
ĠBob by
ĠWay ne
ĠKar l
ĠGirl s
c les
ult an
ĠConn ectic
ĠS i
ĠPear l
Ġdr ink
Ġsecret ary
Ġdoub t
ĠImp act
ĠMadag ascar
Ġs q
Ġacc um
Ġfore cast
Ġor n
Ġeng age
tar io
Ġhor iz
ĠTod d
ĠConnectic ut
b ird
ĠPe ace
ĠDef ence
Ġdem ocr
Ġc hest
ĠBos n
ir ty
Ġal tered
au x
ĠMor rison
Ġoverse as
Ġmay or
Ġbab y
ĠH old
ĠR ights
Ġdeter ior
in ces
Ġlist en
ĠP att
ell o
ĠOn tario
Ġexp and
ĠDe b
ow ed
ĠK it
Ġdef ences
Ġer ected
Ġren ov
ĠPot ter
ĠD iam
Ġcan cel
war f
as ant
ir ts
Ġv oy
sh ore
Ġst ress
Ġcomp ounds
Ġsett lers
ĠFrid ay
Ġmusic ian
ĠCanter bury
m und
p ent
ok er
ĠWork s
ack ed
st an
ĠG oth
Ġlegisl ature
m at
Ġp ale
ĠSp art
ĠM anu
ĠR an
Ġobject ive
yr us
ĠCommun ity
ĠLeon ard
O S
ĠF arm
Ġdec isions
Ġra ising
Ġhigh ways
Ġaer ial
Ġliqu id
o ons
Ġdis l
Ġconvers ion
ak s
ĠAll ies
Ġsol ar
Ġafter math
Ġsold ier
Ġconcent ration
Ġsc en
ens ively
Ġcampaign s
ro us
ĠB ath
Ġsit ting
ĠCy cl
Ġindic ating
Ġconsp ir
Ġh app
ul ous
if ies
Ġexact ly
ĠN AS
Ġh idden
Ġpro ve
ĠFore ign
Ġorgan ised
Ġwealth y
Ġacknowled ged
am ents
ĠPr uss
Ġperm itted
Ġdang er
Ġw restling
Ġtro uble
Ġrad ical
o a
ĠL at
ĠK an
Ġimpro vements
Ġdissip ated
ĠGri ff
Ġreal ized
Ġsk i
Ġstri king
Ġgrad uated
Ġd ressed
ĠWind ows
ĠNapole on
ĠT ed
ĠBoy s
Ġappropri ate
Ġconf ron
Ġexec ution
rat ropical
Ġan th
Ġmet er
ĠZ e
ĠUE FA
ĠP y
Ġobserv ations
Ġm ac
Ġra ids
Ġl in
ĠLe gend
ues e
Ġprof it
ĠOut standing
Ġen cl
Ġremov al
Ġinterpret ation
ĠL aur
Ġfew er
Ġtravel s
ot te
Ġsk y
Ġceleb rated
Ġven ue
Ġn et
Ġsh arp
Ġpublic ations
Ġinit iated
Ġagg ressive
ĠV anc
ĠSe ason
Ġtur ret
ĠG ary
Ġtheat rical
Ġchap el
at us
Ġpubl ishing
Ġrequ ires
Ġ15 2
Ġevac uated
Ġjur isd
in ister
iv ation
ĠL ion
ĠVanc ouver
ĠD all
Ġdeb t
itud es
Ġfound ing
Ġorig ins
ĠMin t
Ġorigin ated
Ġt ort
it als
ip per
Ġstation ed
Ġcann on
ĠG ate
Ġexpl an
ĠSy mph
Ġconn ect
ĠEd in
Ġbr ill
ĠJup iter
ol ly
Ġdef ending
ĠAb d
Ġestablish ing
r un
Ġsup ple
ug g
Ġmus h
Ġconsid ering
Ġstep s
Ġrebell ion
Ġsh orter
Ġarrang ements
Ġannounce ment
ad ier
ĠM em
ĠCh ampions
Ġcut ting
ĠPak istan
Ġb ones
ĠMount ains
Ġf antasy
Ġgu arant
ann on
Ġmag ic
it ively
ra pped
ĠDr ive
ĠT NA
ĠL ib
O T
Ã ¦
Ġ17 3
Ġmag azines
Ġconn ecting
aut ical
Ġasp ect
ĠT it
ĠC ov
Ġer r
Ġapproach ing
ĠBrad man
Ġm emor
ĠCh ampion
aj a
Ġext ratropical
Ġhost s
Ġdon ated
Ġwalk ing
ĠÃĨ thel
a is
Ġin g
Ġpl acing
ph one
enn ium
Ġstrateg ic
ĠO ur
Ġins ects
ĠPortug uese
Ġl ying
ĠTri ple
ĠAdminist ration
Ġon going
ĠL en
Ġdiscuss ion
he ars
Ġ10 4
Ġfun ny
Ġcolle agues
Ġtal ent
ĠS hip
Ġc ub
ĠSt u
Ġed ited
Ġyoung est
Ġgl ac
ĠAl ice
Ġpred ict
Ġclos est
à ¸
Ġm al
Ġqual ified
Ġhyp othes
Ġgat hered
Ġfor th
Ġbattle cru
Ġtub es
as a
Ġdec ide
ĠTro phy
Ġvol umes
ec ution
ĠJ oy
Ġput ting
Ġland scape
Ġred e
Ġindic ates
Ġcou p
Ġwaters hed
on ium
ad al
Ġstrong est
Ġsw itch
Ġ186 0
Ġwithdraw al
ĠDw ight
b ow
f ts
ĠG ene
vent h
ĠIs a
Ġ189 3
Ġang le
Ġfor g
Ġcap s
Ġsuppl ied
h ous
Ġmark ets
Ġident ify
Ġgr ay
Ġl es
Ġexp osure
Ġcirc le
ĠMar vel
ĠFle ming
Ġneigh bour
Ġdes ert
Ġspec imen
Ġconf ront
Ġmer ely
Ġcollaps ed
at ra
ĠC hes
ĠP ap
ĠAn c
Ġ189 6
Ġpart ial
Ġchallen ged
ear ing
elt a
ĠRes erve
ĠHon or
Ġbe am
ĠD ub
ann er
Ġdens ity
ĠHamp shire
ĠNC AA
Ġb rig
ĠM ission
ĠEdin burgh
Ġc ock
Ġb are
Ġsh ift
av el
Ġvis its
Ġlim its
Ġdub bed
Ġsp ac
Ġfeed ing
j oin
ĠP am
ĠSt ri
ĠOl iver
Ġhydro gen
ĠB ak
Ġprov ision
so ft
iet h
ĠTh ose
ag ger
Ġcl in
Ġpri ze
Ġeduc ational
Ġconvent ional
ĠD od
ĠMet eor
ĠB eng
Ġpl ain
enn a
ist a
ĠS omet
ĠF lying
Ġse ized
oc y
ather s
ĠAf ghan
Ġdu o
ĠY ears
Ġann ually
ĠT ob
Ġbe aring
Ġcor ps
Ġconcent rated
Ġto pped
ir ates
ot al
Ġex ha
Ġmar ry
Ġmembers hip
Ġch ampions
Ġ189 8
ament al
Ġattend ing
ĠS ay
ip er
Ġass embly
Ġpar ody
Ġb acter
ĠChart s
Ġrang es
ĠMos c
Ġ17 2
Ġdog s
h ard
ĠN atural
Ġoff ense
Ġn avy
ĠT ype
Ġf urn
ar r
ĠT ig
Ġemphas is
ĠP in
ĠPr incip
ĠMon te
igen ous
Ġweek ly
Ġ35 0
ĠBe gin
Ġproduct ions
Ġexerc ise
Ġun less
Ġleg it
Ġtalk ing
Ġtick et
ĠMe g
Ġinvestig ate
ĠL ist
Ġt rough
ĠK ap
Ġbas in
Ġan ime
ĠFin ally
ĠRal ph
Ġpromot ional
Ġcru c
Ã¼ r
ol ve
ter ior
Ġ11 1
ĠVictor ian
Ġb ond
ĠPerson al
Ã °
Ġb one
ĠDemocr ats
Ġj ury
Ġportray al
ĠA x
ĠM and
oy s
ĠDe ep
ĠYork shire
Ġce ased
Ġfort ress
Ġflood ed
uzz le
er k
Ġ12 7
Ġadvert ising
Ġf ill
ĠC elt
ĠO m
ĠK o
Ġreg ime
ĠArgent ina
Ġun com
port ed
Ġcons ervation
ris ing
Ġunc le
Ġbirth day
ĠLl oyd
on ica
ĠP ink
Ġinv ent
Ġco ff
Ġemploy ment
Ġpers ons
Ġout put
Ġqu een
ĠCon vention
Ġball ad
ĠW here
ĠChristian ity
Ġsend ing
Ġatt itude
Ġexperiment al
ĠVill age
Ġphotograph s
Ġb ishop
Ġev al
Ġsoft ware
ĠBrother s
Ġhit ting
Ġquestion ed
ĠH az
ĠJer ry
ad ers
ov iÄĩ
Ġgu ide
ĠOver all
ĠT ak
Ġprov incial
ĠChron icle
ĠL t
Ġsc attered
pl ed
Ġdr inking
Ġtransl ation
Ġagg reg
ĠP rop
Ġunc lear
Ġunderw ent
Ġmat ure
ĠA S
ĠF und
ĠK am
ham mad
Ġ189 9
Ġoverw hel
h in
Ġout d
Ġend ors
Ġrepl ied
Ġassemb led
Ġcous in
ic ations
rap y
ĠBook s
ĠColl ins
Ġc ens
Ġp apers
ĠM ong
Ġcl ock
Ġrepresent atives
Ġliber al
Ġco at
ĠPr im
Ġlaw yer
ĠCra ig
Ġswim ming
as hes
ĠMar ge
ĠC ad
ay an
ra wn
Ġex ternal
Ġcomment ary
Ġw ire
olog ies
Ġprocl aim
ĠAp oll
ĠAnd re
Ġthir teen
Ġimag ery
ĠFin land
Ġster e
a ft
Ġsh r
Ġtra il
Ġmon aster
Ġemp ire
ĠN O
Ġcomp rom
ass ador
ĠMay a
Ġwa it
Ġlov ed
ĠGl en
ĠHow e
ĠG or
Ġlaw su
Ġter rain
Ġacou stic
id al
Ġsl ave
Ġpict ures
Ġexclus ive
Ġd uration
Ġelectric ity
im m
Ġst reak
Ġd aughters
am as
Ġmov ies
Ġ10 8
ows ki
Ġs ang
ĠE ug
Ġdev ast
ĠTurn er
i oc
Ġc ad
ĠW ii
Ġaccompany ing
Ġexper t
Ġbran ches
Ġsurrend ered
ers ed
Ġarr ives
Ġten ure
ate ver
ens ed
Ġstrong er
Ġident ical
ĠS le
ĠJ un
pl er
Ġbur ial
ĠHard y
Ġsuccess ion
ĠP ad
ĠSimilar ly
Ġd read
am an
Ġbe ats
ri ors
ĠNor folk
ĠQueens land
Ġre verse
Ġcomp onents
Ġchar ter
ĠProt est
Ġ16 9
ĠHer itage
ĠJ ama
ĠBo at
Ġredu cing
Ġpric es
Ġsc ar
Ġreve al
ĠS ign
ell ation
pl ace
Ġreinforce ments
ro d
ĠBur ton
ĠHawai i
er g
ĠD in
Ġpre v
Ġtrad ing
ĠBel gian
Ġpen et
ĠNich olas
ĠProfess or
ill es
Ġsp aces
Ġdestroy ing
Ġp ush
ĠR ic
Ġfail ing
Ġmechan ical
Ġcompet ing
Ġis ot
Ġrec all
ĠBe aut
Ġexclus ively
ol en
ĠCommun ist
ĠBenn ett
Ġcomp onent
Ġqu ad
Ġst ops
Ġat omic
ey er
Ġ185 0
ĠRang ers
Ġmy st
ĠC ricket
ĠDav ies
Ġcounter p
ĠServ ices
he ll
er r
Ġsl avery
ĠEm my
Ġprecip itation
Ġd ict
ĠL ock
Ġdevelop ers
ĠVinc ent
ĠD ak
ric ts
Ġdev ices
Ġfoss il
on ian
ib ilities
Ġpol ar
Ġgovern ments
Ġtrad ed
est y
ĠCred its
ĠC atherine
c ase
Ġre ward
Ġmin i
Ġpo le
Ġel ig
Ġconsist ent
ĠLiber al
Ġb anned
ur as
ĠL iving
ab e
ĠTh under
Ġcent ers
Ġconf irm
ĠMed ical
Ġw ish
ĠY ellow
Ġvar ied
ĠSw ift
Ġobs c
ĠM alt
ĠD ram
Ġflow ers
Ġartific ial
ĠL em
I V
Ġt ube
Ġp el
ĠN i
Ġrad iation
ĠHug hes
Ġwas te
ĠH ob
ĠR ud
Ġconsid ers
Ġred es
Ġplatform s
Ġvir us
Ġto mb
Ġinc om
ĠLoc al
ĠTransport ation
Ġb ath
ĠC urt
ĠL ook
Ġo w
Ġ16 3
ĠDon ald
leg raph
Ġcontrib ution
Ġdis b
Ġelect rical
Ġearthqu ake
p ike
ĠT ax
et hel
ĠGu itar
itar ian
Ġhy brid
ĠTra ining
Ġburn ed
ĠM ust
ang el
Ġ189 7
ĠPri x
Ġhum or
Ġarchitect ural
Ġsongwrit er
Ġreview ed
Ġe cc
ĠC O
Ġpro ceeded
Ġfour teen
Ġbo ilers
ĠNe xt
Ġprofess ion
ĠMark et
Ġadv ised
rast ructure
Ġunderst ood
g s
on ald
Ġfrequ ency
ĠPet ers
ĠHarv ard
Ġhand led
enes is
Ġinters ects
Ġtalk s
ac les
Ġdestroy er
Ġimpro vement
Ġl ie
Ġhe ir
ĠB ald
Ġam ateur
Ġcop per
ĠA ra
ĠDar win
ĠSax on
Ġtex ts
M I
ro st
Ġrequire ments
Ġthe ore
Ã¶ n
Ġcon ceived
ĠSw iss
Ġsam ples
u ating
as m
ĠD yn
Ġ10 6
Ġconf lic
Ġphr ase
Ġin duct
Ġport r
it ely
Ġinvest ment
ĠCamer on
Ġre in
ĠK ate
ĠâĢ ¦
ĠBl u
Ġsix teen
Ġrefer ring
Ġredu ction
ĠMosc ow
b al
m ith
Ġsh ares
ens is
ĠOs lo
en cing
Ġus ers
ult y
Ġrec on
Ġair field
ĠGall ery
ĠPitts burgh
ed ing
Ġw orn
um ble
Ġchar ity
Ġcertain ly
re hens
Ġwe igh
ax y
ĠHar bor
Ġvot ing
ĠIndones ia
ĠP ic
Ġrespect ive
Ġcle ared
Ġ16 7
Ġpra ising
Ġs oph
ĠPh ys
ĠGe off
Ġpark s
Ġlab our
ĠC raw
Ġconstitution al
et o
Ġex ceed
st rong
Ġl ock
ĠIn v
Ġ15 4
Ġconn ections
Ġphot ography
Ġflow s
Ġtact ics
Ġn it
ĠA M
Ġgross ing
Ġspok en
Ġto ured
ff ield
Ġqual ifying
h aw
Ġbl ind
Ġsurv ival
ing ham
ĠM S
ter y
ethel ess
ep ing
Ġaut umn
Ġshould er
ĠTer ry
Ġswe et
g om
r h
Ã «
av or
Ġcontin uous
Ġf isher
ĠAl i
Ġrul er
Ġre organ
Ġst uff
ĠAl aska
Ġcomm enced
Ġcommand ing
e an
ĠAnton io
Ġn autical
ĠM ond
ĠM ason
Ġpat ients
ĠT ow
Ġun w
Ġconf idence
Ġtax es
Ġlegisl ative
ĠBroad cast
Ġton nes
Ġunl ik
Ġf old
ic ated
Ġopportun ities
Ġenthus i
Ġf asc
Ġex ists
Ġatt orney
Ġtransport ed
ĠWall ace
ĠS weet
ĠR est
Ġsign ature
Ġcommun ist
ĠS om
Ġcompet itive
Ġcamp s
Ġur anium
ĠMicro soft
Ġrel ocated
Ġtransl ated
Ġn at
Ġmel ody
h um
p ot
ĠJ TW
ĠSt ill
ĠJTW C
ar io
ĠMay or
ĠSte f
Ġt ested
ĠG ot
ĠEn t
Ġind eed
Ġrock s
Ġminor ity
ĠU pper
port ing
ĠSy ria
Ġreinf orced
Ġf ulf
ĠA P
ĠAfter math
Ġtravel ing
ĠS id
ĠA T
ĠH D
ash i
ĠCl ay
Ġfair ly
Ġs overeign
Ġm oon
ill o
ces ter
Ġdec e
Ġcommand ers
Ġrev ised
Ġrev olt
min ster
Ġp airs
amb ers
ĠP ast
Ġnob le
ĠO ri
Ġimp ression
Ġcart oon
b es
ĠR P
ĠE mer
ĠGr ace
Ġman ga
Ġexpl icit
exp ected
Ġun con
ĠF r
Ġwithd rawn
Ġcrop s
ĠSt ars
ĠShe ffield
ĠA er
ang er
ĠSe e
Ġbl ues
ĠAd v
ĠEx per
Ġprogram ming
t es
y e
Ġacc ord
urric anes
Ġdis char
Ġextend ing
ĠIsrael i
ĠLar ry
e ared
Ġf ram
ĠE c
Ġdispl aced
ĠR u
oc a
Ġexper iments
ĠSec urity
Ġh ole
Ġ189 5
ĠTra il
Ġprincip les
ĠLu ke
Ġvo ices
Ġp ap
ĠH alf
Ġprom in
Ġext inct
ĠOff icer
w here
ĠC ass
ĠF u
av ia
Ġprov inces
Ġch ron
ĠV el
Ġrepresent ation
Ġmagn itude
Ġlearn s
c ott
is ive
Ġcon ce
se ud
Ġcharacter istic
uss ion
Ġprison er
Ġenf orce
od a
Ġdist ant
Ġcat al
ĠJeff erson
as ks
ut o
ĠO sc
Ġsum m
ĠHer ald
ĠGame S
Ġcul min
ĠPict ures
ĠDall as
Ġs ample
Ġw onder
Ġc raft
Ġab use
Ġmar ine
Ġ17 1
Ġlight s
ĠBry an
Ġinterpre ted
ĠClar ke
ĠJohn ston
l ad
it ious
ĠT ogether
ĠC yrus
um ph
Ġwar fare
Ġn erv
c ar
ach ing
Ġrel atives
ut ton
Ġcomp ound
Ġpract ical
ro oms
Ġhe m
Ġappro aches
Ġrival ry
Ġ id
Ġhe rit
ĠQu est
ĠM ix
ĠAust in
ĠGu inea
Ġvict im
Ġcut s
ĠMalays ia
ĠPerform ance
ĠD aw
ĠCh ile
Ġair ing
ĠDef ense
Ġdispl ays
z ed
Ġtrad itions
Ġjud g
Ġburn ing
Ġpropos als
Ġshif ted
Ġb ull
ĠO wen
Ġcar ries
Ġsk ill
Ġlight ing
Ġre hears
ĠW ells
ĠO range
ue z
Ġwar nings
ĠSte el
ĠW oman
ĠE is
Ġch ore
Ġblock ed
Ġgirl friend
Ġmultipl ayer
Ã ¥
Ġs ings
Ġrest ore
Ġmy ster
ĠNe il
Ġgrad uate
Ġmedic ine
ĠPars ons
ĠF BI
ĠN ord
Ġparticip ation
ĠOff icial
ĠGre ater
ation ally
Ġwe b
Ġreb els
Ġth under
ĠE ight
ag s
Ġman s
Ġabs ent
Ġtransport ation
Ġprepar ing
Ġscore s
ĠFall s
ĠPr iv
Ġ10 2
ici ency
ĠL iter
Ġcon ven
Ġ12 1
Ġmar ch
ĠChel sea
al ia
ĠT ai
Ã ¢
um ped
Ġval uable
ĠDan ish
Ġinterview s
Ġprot ests
Ġcycl ones
ĠForm ation
Ġbrill iant
Ġw ished
ĠS ac
ur d
Ġr iding
ah a
Ġsal ary
ĠClass ic
Ġfilm m
ĠNe v
l en
mer ce
Ġpass ion
Ġsal v
ĠArm strong
ĠDesc ription
y d
Ġp ier
ĠSe ga
ĠBrazil ian
Ġunlik ely
Ġc reek
ĠH av
Ġrecover y
ĠMcK in
le ans
ber ry
Ġinf l
Ġcab inet
ĠE ve
oc ity
ĠQue bec
Ġmaintain ing
ĠF isher
Ġdist ricts
ĠBegin ning
at ers
ĠStud io
Ġreform s
ĠR ena
ĠGreat est
Ġcinem a
Ġf est
ĠY am
Ġinter vention
Ġg arn
Ġarg uing
Ġestim ates
Ġcour ses
Ġgrand father
Ġdrum mer
ĠFour th
ĠKa iser
Ġrac ial
Ġcon tend
Ġcl ar
Ġam ph
Ġa ft
Ġbene ath
Ġrecur ring
ĠG a
ĠAct or
ĠS alt
ĠR io
Ġrele g
ĠSp irit
Ġsignific ance
Ġpet ition
Ġvulner able
Ġe ating
ur i
az e
Ġkill s
Ġtow ers
ĠL ink
ĠE ff
Ġup set
Ġadvert is
Ġaccur ate
est on
our ce
ĠI l
ĠG ay
Ġdivers e
ĠE th
Ġval id
as er
le te
ĠCat hedral
ĠAuthor ity
ĠPl ant
Ġstat istics
Ġcommunic ations
ĠConstant in
ĠAg ency
Ġ Ð
ĠV ers
ĠRe ich
Ġspons ored
Ġc ant
ong e
Ġpar as
Ġapplic ations
Ġh ind
be at
ĠSus an
Ġcl othes
ĠOr leans
n t
i ar
Ġsh ock
Ġans w
ĠK ane
ose xual
Ġnumber ed
Ġeff icient
ĠUt ah
ĠP oly
Ġun expected
ach ute
Ġair line
ĠHar old
ĠCult ural
ĠM end
ĠI van
ab ilities
Ġsur ve
ĠSerb ian
ĠGlob e
Ġto ler
ĠS ug
ĠJ unior
Ġ15 8
Ġste ep
Ġmor ph
Ġsac rif
Ġdecor ated
ĠC BS
ĠAm b
Ġshall ow
ut or
Ġinc lusion
Ġlast ing
it ate
Ġfac es
Ġess entially
Ġans wer
T S
uck er
w right
Ġt ale
Ġp m
Ġm ate
Ġg ender
ĠSc ar
Ġi P
ĠFI FA
er ver
Ġcons olid
Ã© t
Ġ186 1
Ġsurpris ed
M E
ip ped
aff e
Ġchart ed
AT O
Ġm ood
ot ing
Ġch ronic
Ġj et
ĠRich mond
Ġ188 9
Ġemot ion
Ġl iner
ĠPan zer
ĠMu hammad
ĠC S
O C
ĠM I
Ġdeep ly
ĠNew ton
Ġbeat en
m n
r ary
Ġthe ories
ash a
Ġsquad rons
land ers
Ġ16 1
anc he
Ġ189 4
Ġrat io
Ġf ate
Ġmer ged
ĠProv ince
d ess
her s
Ġman age
Ġsum mit
Ġpot entially
ĠConst antine
aid en
or ia
Ġ16 2
Ġdra fted
ke eper
Ġ11 3
ĠRepublic ans
Ġsusp ic
ĠT yler
lev ard
Ġto urs
cast le
Ġprocess es
ik o
ĠScient ology
v et
Ġh o
ĠP ok
Ġgra ve
re ated
ĠMin or
Ġsw it
Ġ189 1
Ġproport ion
ak h
Ġ100 0
Ġcr imes
Ar thur
Ġdesc ent
ĠStu art
Ġsent ence
Ġdanc ers
Ġd ual
Ġsc r
ens on
Ġdem o
ĠFer r
Ġbe ating
op p
ĠYou T
Ġmer c
Ġcivil ians
Ġseg ments
Ġpersu aded
Ġd ense
ĠF ighter
Ġbeaut y
Ġd im
oc ation
Ġfund ed
Ġimplement ed
Ġherit age
Ġh ills
Ġb ell
Ġb oot
ĠIn s
ĠOr chest
Ġaccommod ate
ĠApoll o
ĠYouT ube
Ġreact ions
ĠPict ure
Ġalt itude
ĠPro duct
ĠS out
Ġman ip
Ġcol ors
ĠX II
ĠB es
ĠF ull
Ã© s
Ġpresent ation
Ġgold en
Ġagricult ure
ĠIndones ian
Ġw ine
ĠBuff alo
Ġp ip
ĠAm endment
Ġstruct ural
Ġcompl ained
b orn
Ġ rib
ĠT ang
ist ent
Ġpro of
ap ing
Ġfe ared
Ġ15 6
Ġadm inister
Ġ189 2
Ġdev oted
ĠAl t
Ġev ident
Ġcolumn s
Ġadd ressed
Ġsout heastern
ĠCard iff
Ġn urs
Ġâ ģ
Ġrequ iring
Ġsail ing
Ġd warf
Ġre join
ĠSymph ony
ĠS ultan
bo ards
Ġori ented
ons in
Ġtri ang
ĠQu ar
ĠH ad
Ġ13 5
ĠMc N
Ġbreak s
ĠD ays
ĠCons ervation
Ġf ame
ĠW a
her ic
ĠK yle
ys elf
Ġobs ervation
ĠHun ter
ĠA A
st s
ĠW isc
Ġer ror
ĠP S
Ġ18 00
Ġj ack
Ġtrib e
Ġtru ck
ĠBurn s
ĠBrook s
Ġvoy age
ĠW onder
ĠWith out
ĠG round
Ġfollow ers
Ġrece pt
Ġmyth ology
Ġkid n
Ġc ards
is ons
ĠS ox
ĠReg ister
Ġinteract ion
Ġpregn ant
ĠJoh ann
Ġp ink
ĠD anny
Ġconf usion
Ġjud ges
Ġg ene
ĠR uth
Ġkn ee
ock et
Ġ24 0
Ġresear chers
Ġre ct
ĠA ber
Ġquar ters
ĠElect ric
usal em
Ġholid ay
Ġjurisd iction
ĠS ection
ul us
osp el
ĠC avalry
ĠW alt
ri fic
g ie
s or
ĠN ature
ĠHe b
Ġinter medi
oth y
Ġoper ates
ĠIslam ic
ĠM all
Ġsudden ly
Ġcateg ories
ĠS ide
ĠP ant
ĠP rest
ĠUn til
Ġdiplom atic
ant ed
Ġsu gar
Ġwrit ings
Ġcomment ing
Ġsuper st
Ġop ens
iz er
ious ly
Ġ15 3
osa urs
n els
ro b
ĠF itz
ark s
ĠAct ress
Ġemb arked
ĠT itan
l on
Ġt ension
ĠMet ropolitan
Ġphys ics
ĠH ope
Ġadv ancing
Ġsculpt ure
Ġhighlight ed
Ġâģ Ħ
ch a
Ġext ensively
ĠAir lines
s burg
Ġs ized
ĠJer usalem
m aster
Ġf ert
Ġth rown
Ġbe ars
ĠG ang
od ed
qu est
Ġass um
Ġsimilar ities
Ġprincip le
ĠâĤ ¹
ĠWisc onsin
am ount
Ġg aining
im p
Ġag es
Ġstud ying
ling ton
ĠBo eing
ĠJust in
Ġchalleng es
en os
Ġm ud
ĠB ible
ĠAb u
N C
Ġto oth
ur st
Ġman if
ĠEx ecutive
ĠTr ade
Ġdro wn
Ġgard ens
ĠEd ition
Ġlif etime
ĠK id
ĠSt art
ĠEn v
Ġequ ally
Ġsent enced
Ġstat ements
ĠM eth
Ġkn ocked
ĠLeg isl
ĠTy phoon
Ġinf rastructure
Ġor ange
Ġfe e
Ġconstit u
Ġg ift
Ġr ivals
Ġloc ally
ĠBar nes
ĠSch um
Ġeduc ated
Ġunivers al
Ġdisturb ance
Ġdiv orce
ĠCr us
p ine
th odox
ÃŃ n
ed ia
ĠB ased
Ġpred ators
ĠM ind
Ġtradition ally
Ġdeal ing
Ġbound aries
os ph
Ġvar iation
ĠGr ade
Ġpri est
Ġt ies
ch i
ĠN as
ĠSe an
Ġg h
Ġsw ord
ĠIndepend ence
Ġoverl ook
ancell or
at ched
ĠMil es
Ġdocument ed
ĠS ud
Ġexpl aining
Ġempt y
ĠT rad
Ġres olved
ĠBar on
ĠMont gom
ĠSat urn
ĠMontgom ery
ĠB ud
ĠU C
Ġ188 8
ĠAtt orney
Ġstret ch
Ġrece ives
ĠPat ri
ĠRog ers
Ġr ings
Ġsp awn
ph an
ĠLe af
ĠCent ury
Ġvill ain
Ġsc re
Ġen abled
Ġsettle ments
n i
p iece
ĠCont rol
uls ion
Ġrecru ited
ap le
Ġsup ern
ĠSc ots
Ġdiscont in
Ġgarn ered
Ġt ape
Ġfor b
un ning
Ġ188 5
ĠMac Arthur
Ġconsider ably
ĠTur key
Ġtrav elling
Ġ urg
ĠT u
ĠS yn
Ġn aming
Ġexpl ore
Ġcommerc ially
Ġbenef its
Ġc ry
ĠC emetery
Ġhel ps
Ġtick ets
Ġl ift
Ġst rand
ĠF act
omet ric
Ġhost ile
back s
Ġresc ued
ĠW es
Ġse as
Ġsm oke
Ġopt ions
ĠI cel
Ġcr ashed
Ġ Ï
Ġsub stitute
Ġash ore
ĠW inn
Ġinvol ves
Ġweaken ing
ĠT oy
ri en
Ġcl iff
ĠLe v
ĠChrist ians
Ġfle x
ĠSher man
ĠP ul
Ġdis order
Ġbat ted
Ġd imin
Ġgu y
Ġtask ed
Ġprote ins
c ut
ĠA ges
ĠB ert
Ġconcer ning
w ald
Ġd ying
Ġsp ar
Ġhous ed
ĠMov ie
Ġescort ed
ĠPier re
u ters
ri ft
ren e
Ġdo ors
Ġdet ect
ĠC P
Ġass ert
ĠMid d
h ill
Ġst yl
l ights
ag ers
ov ak
Ġdep icts
ell ar
Ġep ic
ĠBe h
ĠFl ore
z ing
Ġin ning
Ġv ig
ĠSp ider
ann e
Ġcirc ular
Ġelabor ate
Ġ11 2
Ġinn oc
Ġpurs uit
ĠBalt ic
Ġbor row
Ġvolunte ers
Ġconcur rent
ĠIcel and
ĠC er
Ġgod s
ĠJud ge
s a
ĠA ren
ĠK rist
gg ed
Ġdin ner
Ġimprison ed
Ġin hib
ĠF low
ĠU nd
Ã© n
ĠMan agement
É Ļ
Ġt el
Ġre ass
ĠC e
Ġn ut
ĠF ish
ĠF ern
ĠTh ames
Ġauthor ized
Ġcollect ions
ĠRom ney
Ġwars hips
ol ar
ĠN S
ĠN eb
ĠRe f
Ġed itions
Ġcompet itions
Ġconflic ts
Ġteam mate
ĠT ourn
Ġpurs ued
ĠF il
ĠHe arts
ĠAt hens
Ġ14 5
Ġtem po
Ġ186 5
ÃŃ a
ĠBarb ara
Ġp ill
Ġrev ival
l ane
ĠSte in
Ġf ra
Ġl iver
Ġr amp
ard o
Ġevent ual
Ġfavour ite
k h
ac o
Ġpolit icians
Ġ97 8
u ction
ou rag
ĠRe agan
ĠEv il
Ġhar bour
H S
t ains
Ġbelief s
Ġvirt ually
ĠC ode
ĠC row
ĠB ask
Ġopp osing
Ġdra in
ĠReg ional
ĠM ang
Ġcon j
ĠCom edy
Ġscreen play
Ġchem istry
Ġur ged
ĠN ATO
Ġ15 9
Ġmanufact uring
ĠAgain st
Ġrenew ed
Ġc am
ĠB ranch
ĠH unt
ĠP as
Ġab road
ĠZ one
Ġhand ling
Ġveter an
ĠRepresent atives
Ġch ase
Ġc ensus
ĠN ancy
Ġmix ture
Ġc able
ĠF ight
Ġportra it
Ġvel ocity
Ġst ones
Ġle af
Ġun ve
Ġ11 7
cl iff
Ġexam ination
Ġsusp ected
Ġunivers ities
a o
ĠS onic
ĠAn y
Ġmed als
el ing
Ġst olen
Ġparticip ants
Ġcong ress
is ition
Ġr ushing
ubl in
Ġver te
Ġprom ise
g ow
Ġl aps
ĠF ace
Ġsp ur
ĠRe port
ĠTrib une
on ation
Ġtra iler
Ġc ow
ro e
iz z
are st
Ġcol ours
ĠNov a
Ġposs ess
Ġpromot ing
Ġrend ered
Ġremember ed
Ġc attle
an im
Ġthere by
Ġorgan isms
and o
rid or
Ġshark s
Ġinher ited
m o
in ery
ĠT ru
ĠCh ad
Ġpit cher
Ġt aste
Ġapp ly
Ġinter ven
ĠS af
Ġcom ics
ĠNew castle
ĠPortug al
Ġs or
it ic
ĠIn vest
Ġcapt uring
ĠErn est
p oint
ĠG ran
ĠB right
ot ion
Ġtra pped
Ġ45 0
Ġdecre ased
Ġl oud
ĠD raft
Ġpro x
oc al
Ġdec ay
Ġpos itively
Ġ11 4
Ġtrack ed
Ġcost ume
Ġbombard ment
Ġtiss ue
Ġ11 8
ĠConstantin ople
Ġv ital
Ġhop es
Ġcompos itions
Ġaccident ally
Ġinh ab
ĠH as
ob a
Ġra nd
Ġinv aded
Ġceleb ration
ĠW ed
ĠGl as
ĠMag ic
oc c
Ġprot otype
Ġble nd
Ġs av
ild a
ĠCharl otte
Ġju ven
is an
ĠPerson nel
Ġoccas ional
m ont
Ġwar ned
Ġm aps
ĠSh ah
Ġtorn ado
Ġ ib
ĠM i
qu er
Ġlink s
er ts
ĠPet e
ĠHeavy weight
ĠMer ced
Ġhop ing
ĠJos Ã©
l imin
Ġra ins
Ġ186 4
ĠLiber ty
Ġvari ations
Ġanticip ated
id ia
ĠJ oint
Ġup coming
ĠY outh
ick ing
ĠChap el
ĠLabor atory
ĠAff airs
ĠEnv ironment
am pton
Ġboy friend
ov ic
rib le
ĠCorn wall
ĠS aw
ĠOther s
á º
ĠA L
Ġb omber
ĠC ryst
Ġl augh
ĠV oice
Ġsc andal
Ġsepar ation
ĠAg u
Ġbatter ies
b ing
Ġd ust
ĠK on
Ġdo zen
Ġprov isions
Ġmark ing
Ġgen u
Ġlabor atory
v o
Ġs inking
Ġre ver
Ġimp ressive
Ġaccess ible
ĠFre edom
col m
ĠC inem
ep s
Ġgu ests
Ġhoriz ont
f ly
ig ious
ul um
a uc
Ġf ires
ĠS ic
ĠB eth
ĠR O
ri or
Ġbi ological
Ġeas ier
Ġn ose
ick en
ĠFilm ing
Ġdepend ent
Ġnickn ame
Î ±
ĠG on
D I
h ou
rest rial
ĠH om
Ġsupport s
Ġpolit ician
ag les
ĠV o
Ġparliament ary
ĠFriend s
Ġrand om
Î ¿
ĠC hester
Ġind igenous
Ġthreat s
Ġavo ided
E R
or f
ĠT erm
ugh t
Ġaff ord
Ġconsum ption
Ġl ighter
ĠB apt
ĠMar ines
ĠLe ices
ĠArmen ian
he ld
Ġthe rm
Ġf ed
ro gen
art ime
Ġhand le
en berg
Ġprog ressed
ĠD uch
Ġform ula
Ġel d
ĠKenn eth
ĠC and
Ġdep uty
ats u
Ġhy per
Ġbi ography
Ġrestrict ions
Ġf ier
ĠC ase
ĠM embers
ĠD J
pt ic
Ġvolcan ic
Ġcorpor ate
v ar
ĠC inc
ĠV ick
ail ing
ĠMal colm
ĠProtest ant
ĠOsc ar
am ics
ort ed
Ġne p
Ġtru ly
ĠÄ Ĳ
Ġc ash
ĠT ree
ĠB ark
ĠL P
Ġimp osed
ĠX X
ĠMeteor ological
Ġto xic
ĠS kin
am ine
ĠB ears
ĠP eng
ĠTh r
Ġtr unk
ĠEn ergy
Ġmix ing
g Ã©
Ġd a
ĠM ult
ĠL ower
Ġr ugby
Ġpartic les
Ġoccur ring
ĠChamber lain
ĠPed ro
ĠOrchest ra
Ġf les
le m
ag g
Ġus age
ĠBou levard
Ġmurd ered
ĠC ena
Ġprodu ces
ĠAnt ar
ĠIsa ac
Ġnot iced
Ġevac uation
Ġlic ense
iel der
ett a
Ġcust omers
chang ed
Ġdread n
Ġ ãĥ
Ġw ound
Ġin e
Ġp or
Ġcont racts
Ġdefend ers
ĠM V
ĠD ublin
ĠCh air
ach t
Ġac re
rack s
heim er
ĠE RA
all ing
Ġex ile
Ġmet ric
op les
ĠTh an
d ed
os y
ia h
Ġ186 2
Ġcat hedral
ĠT ake
ĠSe x
ĠZ ero
Ġ13 1
Ġcho ir
Ġlawsu it
Ġab b
Ġrel ation
ĠAthlet ic
Ġpre st
Ġw ake
ĠA ction
ĠB reak
Ġ10 7
ĠRo om
ĠCare er
ĠCycl one
Ġspec ulation
Ġkill er
ĠGu ild
Ġord inary
Ġtim ber
Ġintellect ual
Ġnep hew
Ġdeb ris
Ġengine ers
Ġhe nce
Ġpl ates
ĠSl av
Ġang ry
j u
ĠBrad ley
Ġdepict ing
ĠGab ri
Ġdisappoin ted
ĠW atch
ĠAl tern
ĠEd die
Ġc u
Ġas ide
Ġeast ward
b ach
Ġf ab
ĠG lee
Ġdevelop ments
Ġthreat ening
Ġkil og
Ġign ored
Ġconqu est
ĠP el
emb le
Ġindust ries
ĠCont inental
Ġencoun ters
Ġdecre ase
ĠTourn ament
h l
Ġly rical
over ed
Ġterrit orial
ĠArch bishop
Ġthrow ing
Ġcomplic ated
f or
ĠSerb ia
Ġw ard
Ġch rom
ĠLu ft
Ġmechan ism
Ġundert aken
Ġrevolution ary
Ġthunder storm
Ġm it
Ġun e
ĠAlbert a
ĠCinc inn
Ġs tern
Ġbre ast
umber ed
Ġvic inity
al g
Ġm ounts
ĠF uture
ĠOr d
Ġconv icted
Ġel ite
Ġstri kes
Ġhuman ity
Ġtouchdown s
ĠM ann
os ion
Ġrem in
Ġ15 7
Ġconf ident
ĠTom my
Ġchampionship s
Ġconvers ation
ĠSpring field
Ġ å
it ol
Ġm os
ie g
ĠMich a
ĠMet ro
Ġexhib it
ic ing
ent ieth
ĠV illa
ĠCol lection
Ġ22 0
Ġfocus es
on ial
Ġp enn
ol ia
ĠG ates
Ġun t
Ġmamm als
Ġinaug ural
Ġcont acted
ĠJo an
Ġent ert
Ġlack ing
ĠT int
Ġg if
Ġreal istic
Ġsusp ension
Ġpres erve
Ġbo ost
Ġfarm ers
it ure
it ime
ĠPl ace
ĠGib ral
Ġa rose
en cer
ĠV eg
ĠShe p
Ġconst antly
Ġfac il
ĠMusl ims
et ary
Ġmet re
Ġhelic opter
ĠP ros
Ġst im
ik ed
Ġpost s
uk a
ĠStud ies
Ġdiam ond
ĠT ir
Ġinf ection
ĠYugoslav ia
Ġto ols
Ġpat ri
Ġ184 0
ĠMarsh al
b el
Ġin fer
oc ol
ell ers
Ġvot ers
ĠC anu
ĠC het
om ed
ĠK in
Ġfe athers
Ġcollabor ated
Ġpredomin antly
ĠMalt a
limin ary
ĠU k
Ġass erted
Ġphot o
ĠFried rich
Ġthor ough
ĠWag ner
as p
Ġth ro
ĠJ ake
Ġdes per
ĠSh iva
ig a
ĠP ay
ĠL S
ort ion
ĠGibral tar
ĠM aine
ĠR ear
rol led
Ġpat ient
Ġabsor bed
ĠH ood
ĠK az
ran k
Ġcent ered
en z
Ġrele asing
Ġcast les
isc her
oir s
quir y
Ġh oles
ĠH ull
Ġus er
ĠRe ed
ĠRob in
Ġt une
Ġm ad
ĠF ly
Ġgrow s
Ġremov ing
Ġpen insula
ĠWat ers
ĠCincinn ati
ĠCom ics
ĠPark s
ĠAnc ient
ĠTai wan
ĠR ound
ew ork
ub ble
Ġillust rated
Ġp ig
ĠAngel ou
Ġap olog
Ġexplan ation
H g
L A
Ġknow s
Ġspeed s
Ġsust ain
ĠD ud
au ge
Ġcomp iled
ass y
Ġres id
Ġ12 6
Ġ13 2
Ġant ib
W A
ĠM aced
Ġret rie
ĠHis pan
reg ular
Ġbreed s
ĠNorm andy
Ġcancel ed
Ġis n
Ġsit uations
Ġbow l
ĠC ort
enn ial
Ġindepend ently
Ġrelie ved
Ġen orm
Ġen com
ĠL ords
Ġshe ep
ah l
Ġ188 7
Ġl ib
ĠB rid
Ġroad way
ĠVeg as
Ġl over
rit ic
Ġ11 9
as ury
ĠSh ield
Ġple ased
ĠPok Ã©
ĠAll iance
ĠAfghan istan
ĠK ill
Ġoff shore
ĠTw itter
en burg
Ġcl ergy
Ġmar ched
ĠMad ison
ĠOl ivia
Ġlay ers
rel s
ĠVII I
Ã ´
Ġa est
ĠEd mund
Ġ186 3
Ġlocomot ives
m usic
ĠE sc
Ġout standing
Ġview ing
Ġpros per
h all
o i
ul ates
Ġcould n
Ġ188 6
ĠCons ervative
Ġp aying
ĠS ad
ĠR ush
Ġare na
Ġbl ast
Ġgen res
ĠBur ke
o om
u ber
ic ular
ĠE ld
Ġexp anding
ĠTechn ology
Ġclos ure
Ġvary ing
£ o
ĠL ud
Ġback st
ring e
ĠGreg ory
g us
Ġm ild
Ġbut ter
over ty
ĠLe eds
f ound
Ġm ask
Ġcol ored
in stein
Ġsent iment
Ġdisapp eared
ĠForm er
umber land
ĠSchum acher
h art
ĠBrook lyn
Ġb apt
av an
iz ard
ĠRevolution ary
b u
Ġper c
Ġreg ulations
Ġreport ing
Ġsuggest ion
Ġf ant
ĠJ NA
Ġat op
Ġsp ir
rib ution
Ġceleb rate
ĠJul ian
g ary
ĠS or
Ġg rid
ĠOr ton
Ġarm oured
ĠMerc ury
ĠC ond
im ony
ane ous
ĠSer ge
Ġdro pping
Ġas c
ission ed
onn ie
Ġfung us
ĠC ou
ĠC ry
Ġconspir acy
Ġinduct ed
Ġ ËĪ
ĠT alk
ĠS oph
ĠB urg
ĠH ubb
ip her
Ġfac ulty
ĠPrinc eton
ĠC ut
ac ular
ĠD ennis
ish n
Ġant hem
Ġattract ion
ĠBrown s
ĠMcKin ley
ĠA ub
ĠC hem
ĠH us
ĠN ation
ĠK ra
Ġrep orter
ĠHel en
Ġrom ance
z es
ĠR us
Ġfl our
Ġnever theless
Ġcompan ion
Ġe agle
Ġcon ced
Ġwitness es
Ġbl amed
get t
ĠTig ers
f eld
Ġt ent
le ted
ĠCh ang
Ġsub mer
Ġswe pt
ĠÃ ī
Ġox id
ĠOrgan ization
Ġa f
ĠN athan
Ġorgan ic
Ġfund amental
ĠML B
Ġp seud
Ġrem ote
ĠLe o
Ġrep ris
Ġpublic ity
Ġst ored
od ium
Ġposition ed
ĠHistor ical
Ġsubmar ines
f low
in ated
Ġwh atever
ĠSt al
Ġpark ing
Ġa qu
Ġs ulf
ĠM ut
ĠV ern
ĠMus ical
ĠCo al
ĠGh ost
b ie
ĠE C
Ġret reated
Ġann ex
Ġm ail
om on
Ġst ability
Ġvers es
ĠBar cel
ĠMon th
Ġl ung
Ġ188 4
Ġfort ifications
Ġf ract
ĠL amb
ust ers
Ġprog ressive
Ġfocus ing
Ġtarget ed
Ġshel ter
Ġcondem ned
p in
he nd
Ġin Hg
ĠHubb ard
Ġno ise
ĠSte am
ĠNAS A
Ġg entle
Ġsw ing
ĠGlas gow
en ess
ĠF ather
Ġmon it
Ġir regular
Ġdr unk
let t
Ġflow n
Ġcorrespond ing
ĠCanu cks
r ity
y an
Ġ10 3
ed a
ĠT ests
Ġrec ruit
Ġcur ve
Ġresign ation
Ġdisb anded
ĠIs le
ĠOper a
ĠDev il
Ġfoss ils
ĠPolit ical
D A
c ell
ĠP ick
ĠN ass
Ġra b
ĠIs ab
Ġdet ected
ĠN ad
qu al
ĠHe y
Ġconf used
Ġconv ince
Ġcru ise
Ġwin ners
Ġenc ourag
Ġmel od
Ġtorped oes
Ġmagn etic
Ġtele phone
Ġchalleng ing
ĠS A
aren ess
Ġpreced ing
ĠM ak
Ġro ster
ĠSm ack
Ġreb ounds
ĠHol land
ard ed
Ġch a
Ġmach ines
Ġment ions
Ë Ĳ
Ġqu oted
Ġbr ings
ĠSol ar
ĠPhill ies
ĠFif th
Ġr ice
ĠIn side
ĠMont ana
Ġfer ry
Ġb ore
ĠIn sp
Ġsc rap
Ġreg iments
Ġstud ios
Ġins urance
Ġwor se
Ġterm inal
Ġcalc ulated
Ġf ault
el in
ĠThe odore
Ġdirect ing
ĠHer bert
Ġtour ist
Ġconcept s
Ġsole ly
Ġd iversity
ĠR I
Ġtri umph
Ġcreat ure
ĠBC E
aud ed
ĠCelt ic
ĠTint in
ik i
ĠMill ennium
ĠK il
Ġthan ks
ros cop
Ġdark er
ĠM orning
ish ops
Ġro tation
ĠWest minster
Ġjud icial
is k
Ġn ice
ig ation
ĠSt rong
ĠSe b
Ġ187 7
ph al
Ġhistor ically
on so
Ġh ide
Ġ13 8
Ġfav ored
ĠAdvent ure
att y
ĠCE O
Ġt ap
Ġf o
ĠN am
av ian
Ġexam ined
ĠEp is
Ġscholars hip
ĠMerced es
ĠW el
Ġj ersey
over y
hen tic
oura ble
in ter
ĠR av
ĠBra h
ĠDen ver
Ġm yself
ĠP oe
Ġj ew
Ġ187 6
Ġz ero
Ġg ear
ĠY ard
Ġ12 2
ĠAust ro
Ġconf ig
ĠBar n
ĠBask etball
ĠM ig
um i
ew ise
i ors
Ġc otton
ĠAt hen
Ġ23 0
ĠEx pl
Ġbattle field
ĠC ox
amp a
Ġ11 6
ĠAlb any
Ġprompt ing
Ġstead ily
h t
Ġw artime
ĠGl ou
Ġball s
Ġacclaim ed
Ġreconst ruction
s is
ĠB our
Ġsh aring
Ġtri o
Ġmess ages
nd a
ĠO cc
Ġround ed
Ġwalk ed
ĠThe ater
ĠPer cy
Ġmeas uring
ĠSal v
ĠRon ald
Ġmonaster y
ĠS ri
lud e
Ġ12 9
Ġspac ecraft
Ġgh ost
Ġelev ated
ĠGoth ic
Ġm asc
work s
ĠAddition al
ĠBulgar ian
Ġscre ens
ĠC any
ĠL ed
Ġ13 4
Ġtro op
Ġconn ects
Ġlin ear
Ġelig ible
ac er
ĠH ok
ĠR ivers
Ġag encies
Ġgu ards
Ġagre es
Ã¶ r
at isf
Ġflow er
ĠCur rent
Ġgust s
Ġo ct
ĠB ris
ĠV erm
Ġro uting
Ġtr ig
Ġdec isive
Ġthem ed
Ġdist inction
Ġref uses
Ġcur ved
Ġpost p
Ġcommit ment
ri ans
Ġpres ents
ĠOtt awa
ĠCarl os
á» ĩ
M usic
l ined
at on
ar ians
Ġex terior
Ġrad ius
Ġmot if
Ġaccompl ished
ĠNev ada
op ard
ak u
Ġk ids
ĠCh uck
Ġop ined
Ġcloud s
v or
Ġc emetery
Ġst all
iz ers
Ġarg uments
Ġconduct ing
Ġreven ge
c ont
Ġc osm
Ġto ugh
om ical
ĠB erm
ĠP ack
Ġcon vey
Ġcom ed
Ġinc idents
Ġh osp
ĠS quad
Ġpost er
Ġphys ically
Ġwalk s
ĠPokÃ© mon
at ar
Ġe cho
ĠR osen
ĠD uc
ĠAb ra
ĠTerrit ory
Ġproclaim ed
ĠBarcel ona
et a
ol an
Ġcreat ures
Ġlo ose
Ġkilomet ers
ĠCa es
ĠMicha els
ist ical
ab ad
ĠMar l
aul ts
Ġparticip ating
Ġconsequ ence
Ġinteg rated
Ġrit ual
Ġencom pass
ĠF un
if fer
Ġsp ell
Ġ183 0
un ge
Ġind irect
ĠAr c
Ġfin est
ĠMe ga
Ġreb el
s ch
Ġcent imet
Ġcan on
ett es
Ġwid th
Ġ187 5
ĠMil an
ĠCard inals
Ġven ues
Ġin tend
ĠW is
Ġsc out
ĠEn ix
Ġrun ner
Ġto uc
Ġch ann
ree ks
ĠMet ac
Ġtheat ers
it ars
ĠH i
Ġcompliment ed
Ġmar g
Ġdem ographic
Ġless er
Ġproper ly
Ġcerem onies
ĠT as
Ġl akes
ab a
Ġsp ots
Ġun h
Ġenh anced
Ġremin isc
ig hed
Ġpr ince
ank a
Ġcontrib ute
ĠChurch ill
Ġextend s
Ġbor ough
ĠDra ke
Ġdeliber ately
Ġmans ion
ub s
ĠCol in
ĠPark way
Ġbow led
arth y
Ġtel esc
ĠF oster
se ason
Ġcont rad
Ġpe oples
ĠPar aly
ĠRay mond
Ġmart ial
b i
Ġg ram
ĠR BI
Ġins uff
Ġvar ies
Ġ188 3
ĠRoman ian
ĠArch ae
Ġprepar ations
ri um
ĠHe in
Ġrem ake
Ġheav ier
ĠB od
Ġsouth western
Ä «
as ia
Ġh arsh
ĠW ings
Ġweak ness
Ġinstruct ions
Ġintermedi ate
Ġmin isters
ĠEm ma
ĠOper ations
ĠManu el
Ġon wards
ĠComp uter
Ġtransform ed
D own
Ġposs essed
Ġ188 1
Ġplay able
Ġco aches
Ġcontin ental
Ġupd ated
Ġprosp ect
he rent
Ġh urt
Ġachie vements
Ġopt im
l ake
r ush
Ġf ru
ĠR NA
ĠSp eed
ĠCirc le
ĠMidd les
ĠSmack Down
G M
ĠV oy
Ġro ok
ĠSh in
ĠSc iences
ash ire
ĠWe ather
Ġsens itive
Ġiniti ative
Ġw it
Ġâ Ļ
Ġy d
Ġair borne
Ġlog o
H C
y c
in us
ĠAl am
Ġout come
Ġrid er
ĠDiam ond
Ġtrans mission
ĠBl air
ĠBel ie
ĠVen ice
Ġpropag anda
Ġa ided
ĠT otal
Ġcrit ically
ĠNorth west
Ġhom osexual
Ġb in
ch w
ĠRichard son
Ġconsider ation
ĠJama ica
Ġall ied
Ġvari able
Ġmo ist
Ġconscious ness
ĠParaly mp
ĠB ass
og s
Ġdis abled
app a
ĠPow ell
Ġveget ation
Ġautobi ography
ch t
ĠUn it
Ġ186 9
Ġorchest ral
ag i
Ġ15 1
ĠCal gary
Ġtour ists
alt ies
iron ments
Ġemer ging
Ġdepos its
Ġto m
Ġre h
ass ic
act ic
Ġmon ster
Ġdep iction
Ġland mark
ĠComp osition
Ġestim ate
ĠCont em
ĠDun can
Ġexerc ises
ĠLanc ashire
Ġsp ite
Ġ12 8
ĠFer din
ĠAren a
ĠI b
Ġun anim
Ġwork er
ĠB ody
ĠF a
Ġpun ishment
Ġperman ently
ĠHend erson
R S
c ore
ar us
Ġst om
Ġ186 6
Ġconsist ently
Ġmunicip al
Ġrout ine
ĠD elta
ĠFl oyd
Ġnort heastern
Ġcompris ing
Ġb orders
Ġep it
Ġpres idency
Ġlat est
Ġdoct rine
Ġas cend
ĠIs les
Ġamph ib
ĠP sych
Ġst aged
Ġpre f
ring ton
Ġdam aging
Ġassass ination
Ġ ion
Ġperform ers
ator ial
Ġsum mon
ĠMed ic
Ġmanag ing
Ġachie vement
Ġenv ironments
Ġjournal ists
Ġsearch ing
Ġdeleg ates
Ġsubt ropical
Ġd ock
ĠA qu
ri ages
ĠX I
Ġreve aling
Ġpay ment
Ġsail ors
ĠC u
ĠCar n
Ġhon ors
Ġbelong ing
ĠPlan et
R C
ĠM ills
Ġcomple ment
Ġwitness ed
ĠFran ces
ĠBer g
Ġmyster ious
Ġin put
ĠCons erv
ĠEll en
Ġpsych iat
Ġencoura ge
ĠCraw ford
Ġm arsh
ĠR ange
ri p
ĠCl oud
Ġ75 0
ĠUs ing
Ġod d
Ġarchae ological
Ġcon fer
Ġse al
ĠCh an
ĠSp rings
Ġmil k
Ġprior ity
ĠRod rig
Ġenl ar
Ġreluct ant
ĠCany on
ĠP on
Ġphilos opher
Ġphenomen on
z ig
Ġg ates
Ġsil ent
Ġprevent ing
B rien
g or
om ys
ĠD j
Ġdisp atched
Ġunsuccess fully
ĠLeices ter
ol ars
Ġ12 4
arm a
Ġan arch
ian g
Ġact ively
Ġarg ue
Ġvent ure
ĠT ab
id o
ĠV ic
Ġvers us
Ġbelong ed
Ġhypothes is
Ġm ant
Ġpl um
ĠMar qu
ĠGro ve
Ġlength s
Ġcoach ing
ĠVer onica
Ġswit ched
ĠCryst al
ĠF ood
ĠTe legraph
Ġic on
ĠPalest ine
is ations
Ġp overty
ĠT ib
Ġg est
ĠP ra
Ġst range
Ġfin ance
Ġcor ruption
Ġeight een
Ġfrig ate
Ġro ot
Ġlist ening
Ġce iling
Ġdisp uted
Ġaw areness
Ġdistingu ish
Ġexecut ives
ĠT ucker
ad ows
ĠM ile
id ge
ĠP unk
ra ined
ass ed
Ġscient ist
ĠS H
Ġintrodu ce
Ġ188 2
ij ing
or ic
as i
ĠM ull
ĠF ischer
Ġv amp
Ġab st
Ġdirect ions
Ġcontrib uting
Ġmechan ics
ĠHead quarters
Ġo v
st own
im mer
Ġsh aft
Ġexpl oration
ĠAss ist
Ġ187 1
Ġ187 3
Ġexpect ations
ec hes
Ġr ational
ĠAn at
ĠFilm s
Ġadj ust
Ġh oney
ĠWh y
ĠReg ion
Ġproced ure
T unes
le x
Ġwh ales
Ġmet als
Ġintern ationally
Ġs ib
ĠC A
ĠF ur
Ġform ations
Ġcar ved
Ġph osph
ĠBe a
ĠPl at
rew s
bo at
ĠKe pler
Ġmolec ular
ĠP ly
ĠF landers
ust y
ner y
Ġsurpass ed
Ġnat urally
r ud
as aki
Ġm bar
Ġ186 7
Ġobject ives
ĠInt ellig
Ġle agues
Ġshe et
ĠSe as
Ġgu itars
Ġadv ocated
Ġimpro ving
Ġdimens ional
Ġmyst ery
B O
Ġs aving
ĠP ine
ĠTr uman
Ġtrib ut
ĠU B
Ġdes ired
Ġpriv ile
ĠH ass
Ġacc us
Ġship ped
ĠComm ons
ĠTr ue
Ġre op
ĠH il
ult ure
Ġsubmer ged
ĠS yl
Ġun rel
Ġprocess ing
Ġdiscuss ing
Ġabund ant
ĠDud ley
Ã ł
Ġcon vert
ist ocr
Ġrem ind
Ġrequire ment
Ġoverwhel ming
Ġst aying
ier ra
Ġele ph
Ġ187 8
ĠStand ard
Ġcub ic
Ġt asks
ern ess
Ġ13 7
Ġtem ples
Ġaccept ance
ĠMas ters
Ġres on
Ġassoci ate
ĠDes ert
Ã¨ re
Ġcruc ial
w affe
Ġd ive
ou ch
Ġ20 2
og g
Ġhorse power
ĠWat son
ed ed
Ġc ro
am ation
ĠM ail
ĠK y
ĠV lad
ĠNew man
ĠBe ijing
ĠDep uty
Ġpart ners
ang ered
ĠCom merc
ĠEx ped
ĠMal ay
ĠByz ant
ĠAd ela
Ġexpl ored
Ġgen es
ĠMcC arthy
ack ing
Ġest ates
Ġblock ade
Ġcompris ed
Ġp ump
Ġh az
ĠR aid
Ġspec ulated
Ġaut hentic
Ġkey board
Ġrefuge es
Ġnerv ous
Ġcame o
Ġcompos ers
Ġopin ions
ĠGib son
Ġchann els
Ġun re
ĠTr inity
Ġcollect ing
Ġm emb
Ġad equ
Ġj aw
Ġresemb le
Ġfrag ments
Ġnavig ation
G B
ĠB ran
ĠE agle
Ġper f
Ġload ed
Ġg ran
ut ely
ĠR if
ist ing
ĠCol omb
Ġsuff er
Ġaver aged
Ġfem in
Ġphot os
Ġundert ook
C O
in qu
im er
ĠCl if
su ing
Ġi Tunes
Ġimmig rants
ut ter
ĠAl pha
head s
Ġrep ublic
Ġgener a
ĠGu adal
ĠSur v
Ġhabit ats
ĠCult ure
ĠProfess ional
Ġturb ines
Ġperc ussion
el ia
ĠM eyer
ĠSc he
Ġwh ale
av il
Ġse eds
Ġpost hum
Ġcomprom ise
Ġan ts
Ġr ushed
Ġfact ion
Ġcompl aints
Ġmanufact ured
Ġben ch
rehens ive
ĠA aron
ĠM ick
th lete
op ol
Ġass ets
ĠMon ster
l ia
re ction
Ġs ic
Ġb ars
Ġmet all
ĠAng le
Ġhom eless
Ġnetwork s
h o
ĠM obile
ĠL uther
Ġrep et
Ġconsequ ences
Ġles b
w yn
Ġst air
Ġman ages
Ġunder water
ĠMetac ritic
or ig
em ploy
Ġcoast line
ĠWell ington
P S
Ġg auge
Ġen suing
Ġsum mar
Ġdiss olved
ĠApp ro
Ġpsych ological
Ġreconst ruct
Ġabsol ute
ĠMeth od
ĠBapt ist
amp ed
Ġbu ff
Ġsymb ols
igg ins
Ġerupt ion
Ġem ig
Ġcontem por
Ġgod dess
Ġhonor ary
otyp es
ĠLuft waffe
d i
m other
ĠW ant
ov es
Ġup s
Ġimpro v
Ġsym ph
ograp hed
ĠBerm uda
Ġcons ensus
ug s
Ġlength y
ĠTim ber
ĠShel ley
id en
Ġrel ied
Ġult imate
y ll
Ġc ave
un ar
Ġvar iant
ĠMon roe
Ġlem urs
f r
Ã ª
Ġadd s
Ġbr ut
Ġloyal ty
c our
Ġo l
Ġf ears
ĠC ool
ĠM C
Ġsing ers
ott o
ĠUr ban
ĠK em
Ġsign als
Ġint act
Ġland ings
Ġqual ities
Ġreserv es
ĠRP G
Ġfra ud
Ġunve iled
ĠAgu iler
ic us
ol ith
ĠH erm
th rough
yl um
Ġ187 2
ĠWood s
Ġdisapp oint
ĠMach ine
Ġeld est
ĠC M
ĠSh ar
ik es
ĠSel ena
Ġteacher s
Ġassess ment
em a
Ġar istocr
ĠSh an
Ġrock et
Ġ186 8
ĠOt to
ĠAguiler a
ĠNot able
Ġfles h
Ġd uck
us ive
ĠMar x
Ġdef enses
Ġamb assador
Ġinteract ions
Ġdoct ors
ĠH at
ov sky
Ġam id
Ġmill ions
ĠHen ri
ĠEngine ering
Ġbattlecru isers
A L
ĠR ah
Ġemot ions
Ġspect ators
ĠM om
ĠCh oice
Ġdel ight
Ġliter ally
Ġprin ting
Ġgross ed
ĠVar ious
Ġbats man
or ge
ew ard
Ġse ar
Ġcomp aring
Ġtrad em
Ġess ay
Ġpound er
ĠWol ver
Ġo wing
Ġg am
Ġwe ighed
Ġtw entieth
Ġsongwrit ing
ig o
ĠP i
Ġcost umes
Ġlif ted
ĠEll is
Ġch lor
Ġcl ip
ĠFl ames
lic ted
ĠFem ale
Ġenorm ous
st ad
im ity
ĠE sp
eb e
aun a
ĠCab inet
Ġst abil
ĠW ool
ĠSt age
Ġeng aging
Ġintellig ent
Ġexplos ive
Ġbacter ia
ĠDak ota
c ock
Ġr ally
Ġinter f
aur us
Ġren t
ed ar
st ar
ir i
ĠF ab
Ġde alt
ĠLe igh
Ġtri ps
Ġrev ived
ĠW rest
ĠCh in
Ġpolit ically
Ġappe aled
mon ton
Ġinstruct ed
Ġpatrol s
ĠRena issance
c i
u its
ĠM oney
ĠP ent
ĠG enesis
iss a
Ġstr ings
Ġinsuff icient
ĠExped ition
Ġh ier
Ġde als
ĠMV P
d am
Ġt ensions
ic he
ĠM k
ke ley
Ġte lev
ĠNew port
Ġrel ating
ĠNe pt
Ġread er
Ġinstrument ation
Ġhorizont al
Ġst roke
ĠL ore
Ġen rolled
ĠDr um
ĠSoviet s
ĠPhill ips
ĠChand ler
ĠAdela ide
Ġsu ited
Ġdig it
ĠMax well
Ġdise ases
Ġbit ter
Ġgraph ic
ĠWW F
or us
Ġc ats
ĠH anc
ber y
Ġsub ordin
n al
Ġh urricanes
Ġl iv
Ġan x
end ar
Ġwood s
h and
ĠS ans
ĠR iley
ĠHe aven
Ġvocal ist
Ġincom ple
ĠCurt is
ĠGeoff rey
z o
ĠN ak
Ġsub d
Ġ12 3
Ġrefere e
f orce
ĠM ol
ra v
Ġcl an
Ġwid ow
ĠBut ler
Ġslow er
Ġextra ordin
ĠFerdin and
Ġterm ed
Ġchap ters
Ġmush room
Ġreminisc ent
ĠKn ights
Ġinters ections
ĠSur rey
Ġexhib ited
t he
ut onium
ĠBar rett
Ġdecl aration
Ġmiss ile
Ġalleg ations
Ġinc red
olog ically
ĠThere fore
Ġet c
ĠAbra ham
Ġw ishes
ul u
Ġcoun sel
ĠEs sex
Ġover come
ĠSp encer
ĠSc reen
Ġinvol ve
Ġmist ake
Ġdiscip line
od on
ĠMad rid
Ġtact ical
Ġmathemat ics
ĠPly mouth
p ect
ĠP rison
ĠR ight
ĠCap ital
Ġdisl iked
ĠW ald
ĠF ellow
ich i
ĠBl ake
Ġcult ures
ĠMet al
ĠBur ger
ĠRom ans
Ġgall ery
ĠComb at
ĠGameS pot
Ġsacrif ice
Ġh unt
Ġsh irt
ot he
ĠL ie
ĠHe ath
Ġinter ference
Ġmod est
Ġjoin s
Ġathlet ic
Ġquant ities
E D
ĠFran co
ĠMov ement
Ġf rog
ĠT all
Ġsh ar
Ġtrans it
Ġthick ness
z i
od ied
Ġexp ense
Ġproceed s
Ġh ung
ĠH ond
ul k
ĠN L
Ġres ur
Ġsynd rome
ĠRes ident
ĠMarc us
w ind
Ġf inger
al id
ĠC ome
enn e
ĠAd rian
Ġcirc les
Ġfight s
Ġcal iber
Ġnickn amed
ĠBosn ia
Ġb ol
le nd
Ġass ign
ĠDaniel s
Ġsuppor ter
ĠContem porary
Ġ á
ur ers
Ġimport ed
ĠPol l
Ġmach inery
Ġmig ration
ĠHanc ock
ĠB ri
ra ine
Ġsp ores
Ġinterview ed
ĠCont in
kin son
Ġpan els
ĠRel ations
ĠVi ew
Ġlocomot ive
ĠBrig adier
Ġnom ine
Ġrep aired
Ġri fle
Ġfat al
ĠA viation
Ġwas hed
Ġg aming
ĠâĢ ²
ĠFer gus
Ġflu id
ĠT ales
Ġhe ct
ĠG az
ĠE qu
ĠSp it
Ġcontin ent
ĠFl ood
ops is
ĠFlore nce
ic ity
ĠB rew
ol o
im ir
Ġcomment ators
Ġcust ody
Ġf are
st and
Ġj oke
Ġbank rupt
Ġshop ping
ĠNob el
Ġmolec ules
Ġm isc
ĠPubl ishing
Ġprox imity
Ġra w
ĠRe ading
ĠBald win
ĠTas man
Ġbe er
ĠK ub
ĠAg ricult
ĠJer emy
Ġm im
ot illa
art ed
ik h
ĠAdmiral ty
ĠUs her
Ġcurren cy
Ġredes ign
at hetic
ĠS uz
ĠLe ad
ĠNor se
ĠTw enty
c ious
n ut
id ay
Ġcur ves
ĠHer gÃ©
ĠVi enna
ĠArk ansas
Ġpron ounced
p it
Ï Ĥ
Ġl ip
ĠB ot
ĠMan ning
ĠRoman ia
Ġacqu ire
ĠJenn ifer
ĠPrest on
Ġh atch
ast on
Ġall ocated
Ġflu or
ĠLt d
ĠS ib
ĠL af
ĠArt icle
Ġp uzz
ĠP ut
ĠN um
Ġcont ested
Ġunder go
ĠLe ban
Ġsuccess ive
Ġknow ing
Ġsepar ately
Ġrul ers
Ġflo ors
ĠBanks ia
x ide
Ġt ong
it ects
Ġre ef
ĠM am
ur bs
os ity
um ar
ĠSt ories
Ġun aware
ĠSh adow
Ġdem anding
Ġmem ories
f ront
ĠC C
ĠB uch
ĠArch itect
ĠMcD onald
Ġa viation
ĠB ent
elf th
Ġpop ulated
ĠAd ri
Ġ187 9
ĠMot or
w ig
Ġs ect
al ysis
ĠJ G
Ġdis gu
ash ing
ung le
Ġmaneu ver
Ġpre liminary
Ġdiscuss ions
ĠGar c
Ġgather ing
ĠK es
Ġpubl ish
Ġnorth western
re z
ĠS uff
Ġinter rupted
ĠNew found
ĠMin ogue
Ġcompar able
ĠId ol
ĠP all
Ġal ly
ĠO w
Ġpro ud
Ġsc rapped
ĠGl ass
Ġz ones
Ġregard less
ĠElect ronic
Ġd awn
ĠCh ase
ĠMcC ain
Ġcyl ind
Ġcyl inder
p es
Ġb ills
as se
Ġg olf
ĠCap itol
Ġphot ographer
Ġscreen ing
Ġfarm s
ĠSkin ner
ĠAll music
ĠOr thodox
ĠChar acter
ĠBow ie
Ġdemonst rate
Ġeditor ial
ĠBeng al
i ary
l ass
er ia
Ġadv ances
Ġce ase
Ġdiscontin ued
Ġch ord
Ġsub sc
Ġed iting
Ġdam ages
Ġtour ism
Ġmass acre
Ġinstall ation
ĠHawai ian
ĠEd monton
Ġdyn amic
Ġninet eenth
Ġp aved
ĠB og
ĠH ous
ĠN av
ĠSp onge
gu ard
ĠG rad
Ġun rest
ĠPer th
ĠIndust rial
Î ½
Ġ14 1
ĠLanc aster
Ġhal ted
t z
ist ence
ĠPort s
ĠSing le
Ġsport ing
m el
p at
ur se
ĠIn g
Ġsubs idi
ĠNewfound land
Ġs ew
ĠW inc
Ġreg ained
Ġamb itious
Ġlic ensed
Ġgrav ity
Ġthe rapy
ver n
Ġup rising
ĠSen ior
Ġseem ingly
Ġneighbour ing
l ist
Ġg rain
ath a
Ġsub tle
ĠSp in
ĠTur ks
Ġhar bor
Ġcrown ed
er ies
ĠJ ur
Ġbus y
Ġproject ed
Ġopt ed
Ġfunction al
ĠS ep
ĠC rom
Ġan ger
Ġcont racted
Ġinst ruction
Ġprot ecting
Ġdisp utes
Ġcitiz en
Ġadminister ed
ĠGon z
h ow
ol ves
ĠD h
Ġper pet
Ġreg ist
Ġcre ates
Ġless ons
Ġdescend ed
b us
r ide
ĠB ear
Ġg amb
ĠJ en
Ġdeploy ment
ĠBeaut iful
ĠF ras
Ġopen ly
Ġmass es
Ġdescend ants
ĠCirc uit
Ġbare ly
ir k
Ġj oy
ram id
Ġhon est
Ġpriv ately
onn ell
Ġcooper ation
Ġover h
Ġcol oured
ĠSen ators
Ġsym met
Ġaccompl ish
Ġori ent
Ġtot ally
Ġcapt ivity
Ġ27 0
n an
ĠC N
Ġl ux
ĠH off
ĠL ogan
ri pp
Ġde eper
ĠCh op
Ġgener als
Ġcor ridor
ĠMax im
Ġnorthwest ward
a it
t age
ros se
Ġ14 6
Ġplan es
Ġcoll ision
Ġvolcan o
Ġjump ing
ĠBuddh ist
Ġqu it
Ġatmosp heric
z ac
Ġf ile
ĠM ake
ĠM ounted
ĠSh ank
ĠCarol ine
Ġfarm ing
ĠJan et
Ġoutd oor
d an
Ġc hess
ĠT iger
Ġra pper
ĠMot ion
isp here
Ð °
ĠC os
ĠSt ore
less ly
ĠLou ise
Ġnecess arily
Ġdeleg ation
Ġstead y
Ġib n
ĠT ask
Ġn am
Ġinv ented
Ġdel ays
Ġlack s
Ġcoal ition
Ġroll er
ĠAdvent ures
5 0
Ġn ests
ĠR oth
Ġsub urb
ĠProt ection
Ġmut ual
er vers
Ġre iss
Ġe ject
ĠF M
Ġcre am
ĠGener ation
ĠNash ville
on ing
Ġo ak
Ġcont ing
Ġdec omp
ug u
ĠMy st
ĠObs erv
ĠB ron
ab et
achel or
ĠS ierra
ĠB ott
ĠR ams
Ġcon ve
ĠK ens
Ġsh adow
ace ous
Ġpres um
Ġdevelop er
ina e
ĠÃ ģ
ĠOn line
Ġfat alities
ĠProduct ions
ent ric
Ġj okes
Ġtrack ing
Ġdecl aring
ĠLyn ch
Ġexcess ive
P a
ĠHar per
ĠChair man
Ġg reet
ĠH amb
ĠAll Music
Ġ14 9
Ġelect ro
ĠPal mer
Ġh ur
Ġrel ay
ĠI C
Ġteam mates
ĠCommission er
ĠC ann
ĠG ust
ĠPl aza
fic ial
ĠEm ily
Ġcopy right
Ġin ject
Ġl ava
Ġsh ops
ĠAir borne
ĠHy d
Ġprohib ited
Ã £o
Ġg ains
ĠCh all
Ġun employ
ĠAp art
Ġke en
Ġdiv ine
ĠTri p
ĠY et
Ġoper ator
ĠPar achute
Ġstrugg ling
grad uate
Ġkit chen
le w
ĠCon sequently
Ġsix ty
Ġrecogn ize
ot us
ov ich
ĠPar amount
Ġhon ours
ĠBus ch
Ġpregn ancy
Ġaggreg ate
at em
is ans
ĠC ant
ĠD id
ach i
Ġreal izes
Ġtro phy
ĠGar field
ĠDam age
Ġcab in
ĠMaur ice
ĠDram a
O R
Ġb er
ĠN othing
Ġgener ate
ĠMo z
ĠDev on
Ġelimin ate
el i
ĠH ip
Ġ21 0
Ġcal m
Ġt um
ĠS qu
Ġout s
ĠSp y
Ġdisapp ear
Ġiron cl
nold s
H A
oc ene
Ġun st
Ġback up
Ġed ges
Ġstory lines
Ġpar am
m ill
Ġd ug
Ġmin im
elf are
Ġoper as
Ġfind ings
Ġ184 8
Ġmerch ants
Ġa uction
ĠA ur
ĠB ast
Ġcl ay
Ġres erved
Ġdraw s
Ġattract ive
y ers
Ġp ine
il ia
Ġacqu isition
hol m
Ġincomple te
ĠO st
Ġsec ular
Ġso ap
Ġtrans p
ĠReg ard
Ġly ric
Ġunus ually
Ġphilos oph
hous es
ay ette
ĠW id
Ġ187 4
Ġsurf aces
Ġri ff
ĠSo ft
ĠGriff in
Ġmemor able
ĠH oll
ĠCh ancellor
ĠAr ctic
Ġdec omm
let cher
Ġrid ic
ĠPan ama
Ġremark able
ĠS old
ad y
Ġexper ts
Ġpack age
Ġproceed ings
Ġstream s
Ġca ution
Ġsket ch
Ġrevers ed
Ġconj unction
Ġd ors
Ġsp o
Ġpr inc
Ġtrans c
Ġfre ed
ym n
Ġadapt ations
Ġunp op
Ġscen ario
h urst
ĠS ed
ĠE U
ĠÂ µ
Ġgr ants
leg iate
ĠLar ge
Ġperfect ly
Ġch ances
Ġimp ress
ĠVal ent
Ġsubst ance
Ġru ins
Ġped est
ist ically
Ġrestaur ants
ĠFinn ish
Ġt ennis
Ġmet ropolitan
ĠBo oth
Ġkeep s
Ġsufficient ly
m ons
nd um
ĠHe at
ĠRe form
ĠHol mes
ĠDou g
Ġmotor way
ĠStart ing
ĠSponge B
Ġt ab
ĠH M
Ġover d
Ġs hed
ĠH ab
ĠD ian
ĠJ unction
ĠWind sor
ĠArmen ia
Ġlob by
ĠMichel le
Ġfab ric
p ow
ĠN umber
Ġ14 4
ĠPh ant
Ġdet ached
Ġlif estyle
Ġwor ried
ĠLind wall
Ġmic ro
Ġalleged ly
Ġveter ans
ĠC ec
Ġres ort
Ġass essed
Ġmod es
ĠSer bs
ĠJac ques
Ġemphas ized
Ġflo ating
an an
Ġprog ression
Ġtun nels
ĠTun nel
he ro
Ġd iving
Ġh iding
Ġpl ed
ov o
Ġtop ic
ĠTo o
ĠSol omon
ĠForm ula
Ġfest ivals
Ġs in
Ġm uzzle
ĠY ok
Ġnight s
ĠKore ans
Ġdemonst ration
ĠArab ic
roll ing
Ġmanif est
ĠN ed
Ġover th
ĠEd win
Ġer osion
Ġincorpor ates
Ġload ing
bird s
n et
ro zen
ĠR up
ipp ing
ĠCl aire
ĠGu atem
ĠStar r
ux ili
ĠStan ford
bro ok
Ġclimb ing
ĠAdv ance
Ġc oc
ist le
Ġpl utonium
ib l
ĠSp iel
Ġspe eches
ĠSuper man
ĠS ue
om es
Ġst y
ĠR andy
Ġcons ul
Ġmon itor
uch i
ĠBer keley
Ġsupple ment
ĠMond ay
1 2
iv ic
Ġatt achment
Ġesc al
Ġflood s
Ġsyn th
ĠLu is
ol ades
ĠL ut
Ġr ays
ran o
Ġob l
ĠGer ald
Ġcr ust
ĠIll ust
Å ¾
ĠPres ley
Ġput s
ingu ished
p ost
Ġf ox
ol ine
ĠK iss
Ġam endment
Ġintern et
ĠLeg ion
Ġmob il
Ġpros ecut
Ġdiagn osed
Ġerr ors
Ġup grade
Ġcent res
Ġmet ab
ĠEl s
Ġinvestig ated
Ġple asure
Ġtend ed
Ġrang ed
Ġapprec iated
an ian
Ġh aul
ĠMar tha
Ġwar rant
Ġmod ifications
ĠGu ards
Ġfle e
us hes
ĠG am
ĠRec re
Ġintrodu cing
Ġcounter att
ĠCub an
Ġp ist
Ġn aked
Ġcons ent
ĠZ h
ĠCol lect
Ġmer ger
Ġimm un
Ġe ase
ĠW ake
Ġinc ons
off icial
Ġcamer as
ĠPier ce
Ġinhab ited
ĠF ac
ĠO ber
Ġbut t
Ġgener ations
Ġline up
ĠAnt i
l ies
im ination
Ġnot ion
les i
Ġsec uring
ĠJenn ings
Ġcomfort able
pent er
V A
a ude
Ġit em
ĠWar wick
ĠMan or
ĠSound track
ĠRhodes ia
ĠBulgar ia
Ġb onds
Ġcomp at
Ġne arest
ĠAugust us
Ġthough ts
Ġconf ined
ĠIr ving
Ġqual ify
Ġthr ust
Ġham let
ĠBroadcast ing
Ġst ance
Ġen able
Ġ28 0
Ġ185 1
ĠFinal s
ĠDel hi
ĠChap man
Ġstrengthen ing
ĠCommerc ial
Ġin ver
Ġorgan s
ĠBel le
Ġp ushing
Ġre vel
ĠD ere
ran n
Ġam pl
Ġmain tains
ĠPr ice
Ġread s
ĠGabri el
r ators
Ġc ere
Ġmus cle
Ġelect oral
ĠSw ord
ĠMir ror
ĠTurn pike
ish i
ra id
qu et
Ġstri pped
Ġs oci
ĠN ab
over ning
Ġart if
Ġwater line
Ġdoub les
Ġcolle ges
oca ust
Ġs el
ĠG as
ap a
og ical
ĠY u
Ġbet ray
Ġspe aker
ĠGl enn
ĠHay es
ĠSpongeB ob
D P
ig u
velop ed
Ġemb arr
Ġelder ly
is le
im id
Ġgrad uating
Ġgrand son
ĠHop kins
Ġs us
Ġf ib
ĠP un
Ġflag s
ĠSub sequently
Ġw itch
ĠS r
ĠU m
Ġmon ks
ĠBer ry
Ġens emble
ĠPre par
Ġenthusi astic
ĠC G
ĠTh ings
osy stem
Ġto ol
ĠA F
Ġsac red
ĠS N
Ġpre val
Ġsuccess es
ĠGlob al
Ġfil ter
Ġlegit imate
ĠS under
Ġ14 8
ĠBor ough
Ġ es
ĠM ade
ĠE aster
Ġv it
op ters
ount ain
ĠEd gar
Ġcare fully
ĠPr in
ĠDer by
Ġbrig ades
Ġexha ust
ĠF letcher
ĠE SP
yl ogen
Ġste pped
Ġbar rier
Ġcou rage
ĠSpiel berg
Ġl aying
ĠH ess
ĠE t
Ġkn ock
Ġele venth
Ġesc apes
Ġlay out
Ġentert aining
Ġrook ie
Ġinf ected
Ġmonth ly
ĠMan ager
Ġsex ually
ĠCr ime
Ġincorpor ate
ĠReview s
ĠLaur a
N e
Ġ ump
Ġm es
Ġex ceeded
ĠK ot
ĠMc A
ĠSouth ampton
osp here
Ġdark ness
ĠKenn y
ĠBrand on
Ġcompens ation
Ġw ounds
ĠS aints
Ġar bit
Ġfront ier
Ġhon ored
Ġsat ir
ĠBang l
ĠC ave
oin ts
Ġprom ising
Ġread ily
rie ved
oph one
Ġhealth y
ĠEis enh
Ġgenu ine
o op
ĠP irates
Ġ13 6
Ġdefe ats
ĠSch w
ĠVen us
Ġdefin itely
ĠBol ton
ĠPatt on
Ġdr ives
Ġpress ed
rif ied
Ġmist aken
Ġconsequ ently
er als
Ġbe nd
ib al
Ġinv itation
Ġmonarch y
Ġf usion
Ġre ly
and in
od ia
Ġtr am
Ġcar n
ĠHam mer
ĠArt illery
umn i
ĠNO K
b age
is ch
Ġmid night
ĠTr uth
Ġinte gr
ĠBas in
Ġmaneu vers
ĠM ing
ĠL ay
Ġcor p
Ġmiss iles
Ġslow ed
Ġsoph istic
ĠD oc
Ġthird s
Ġdisp ers
ĠArt ist
ĠTra vel
Ġdi ary
Ġfrag ment
ĠHend rix
Ġspawn ed
Ġret ros
Ġsub mit
Ġloc ate
Ġ13 3
Ġconclud es
ĠGo eb
Ġreflect s
Ġpup ils
ĠGard ens
ĠPrincip al
Ġunpop ular
is or
ĠC rane
ĠP orter
ĠLe ader
Ġprof its
Ġconv inc
Ġident ification
Ġemploy ee
Ġdisappoint ment
Ġre per
ĠM ember
ĠR ugby
ĠSt rat
pp ers
ĠRock y
osh i
ou b
Ġdem on
Ġdest ination
Ġmag ical
Ġdra g
Ġblack s
Ġnegoti ated
Ġmeasure ments
Ġinsc ription
ĠSeb ast
ĠG ren
ict ions
Ġtra p
ne um
Ġcompet itors
Ġexc iting
Ġdu et
ĠLight ning
R T
ĠP s
ĠR are
ĠK os
ĠSt op
Ġcomp uters
Ġtra its
Ġnorth bound
Ġref it
Ġceleb rity
ĠTre asury
Ġhero es
Ġcoff ee
Ġt ide
ĠF an
ĠL akes
Ġ37 0
Ġmir ror
Ġcontroll ing
ĠEisenh ower
ĠP rad
ĠW als
Ġcons umed
Ġass ume
Ġsm art
ĠStef ani
n or
ĠV ul
Ġass ignment
Ġaff ecting
ĠArgent ine
ĠNeb r
m itt
ol ics
os ely
Ġcolon el
ĠR ever
ĠF ant
Ġtr il
Ġpos ed
au er
Ġphys ician
ĠWars aw
Ġautom atic
Ġl ined
ĠF ear
Ġdec iding
Ġtest imony
can al
ĠLuc y
Ġaccur acy
ĠPow ers
in ite
Ġd orm
el ic
ne ath
ĠFl ag
Ġfre ight
Ġcho osing
Ġpredecess ors
ĠAI DS
Ġneighb oring
Ġs ink
Ġl ion
ĠI U
Ġfor ts
ĠW as
ĠG one
Ġj ail
ĠBrit ney
Ġdist ances
Ġstrugg les
Ġarc ade
Ġevolution ary
Ġstom ach
ĠFergus on
Ġp sy
ĠAl most
Ġcap abilities
ĠJeff rey
ĠSus sex
Ġproced ures
n am
on om
ĠB av
Ġle ather
ters hire
ĠWill is
Ġtop ics
Ġant iqu
ĠBangl ades
P C
cy cl
ĠRh ode
Ġunn amed
at um
Ġreal ize
ĠCast ro
Ġdrain age
ro ck
ir ate
Ġor al
Ġab d
Ġwould n
Ġrele vant
Ġac ids
ĠCar r
arch y
ĠColumb us
ĠMort on
ĠGuadal canal
j ud
ĠH utch
Ġher ald
ĠSp ect
ĠRey nolds
Ġbes ie
u ates
ĠL an
Ġr ush
Ġse iz
Ġsp are
Ġsc hem
ade qu
Ġsub urban
Ġreg ret
writ er
Ġmoment um
Ġfair y
Ġpreced ed
d ict
ĠS E
be it
Ġtrib al
ĠVar iety
Ġ26 0
ĠUnivers e
Ġvolunte er
k ed
he y
ĠC itiz
ĠM unicip
ĠSh a
ĠFran z
Ġrequ ests
Ġhard ware
Ġcho ices
Ġillust rations
Ġcinem at
rim ination
Ġille g
chang es
Ġh in
ĠR ice
Ġresp ected
Ġtre m
Ġb old
Ġe cl
vi k
Ġbre ad
Ġfem inist
Ġsett ings
ĠAnn ie
Ġkick ed
Ġblow n
ĠMun ich
ĠS ite
ĠA w
ĠH ig
ĠPl aces
ĠRuss ians
Ġnob ility
Ġadvoc ate
Ġqu e
Ġwar riors
Ġ14 2
Ġspe akers
Ġanal og
Ġbur st
ĠBey ond
Ġlimit ations
Ġenh ance
Ġdimens ions
ĠLithuan ia
ĠNebr aska
ĠL ag
ĠG reeks
ĠN y
ĠV a
Ġincor rect
Ġteen age
Ġa ug
Ġto ss
ĠB atter
Ġg overning
ĠH anna
Ġtw elfth
ĠCal vin
ĠPop ular
Ġbass ist
Ġabol ished
ent e
ĠSt yle
Ġle ase
Ġte a
Ġany where
Ġsusp ect
Ġcryst al
ĠH ast
ess a
Ġpain ter
Ġrepe at
Ġresemb les
Ġenforce ment
o ids
Å Ħ
ĠD re
Ġpro ven
Ġunder neath
vers ely
Ġwant ing
Ġske leton
Ġrefere ndum
Ġabsol utely
Ġendors ed
ĠL av
Ġconqu ered
R I
c ope
Ġw are
Ġw ool
Ġh ol
ĠS hen
ĠD awn
ĠQuar ter
ĠIntellig ence
i ott
Ġs ou
ĠS ter
ĠB alk
ĠE ighth
Ġj am
Ġprec ise
Ġthr iller
Ġnation ally
Ġcompris es
Ġnick el
ĠLithuan ian
is bury
Ġpres c
ĠBoy d
Ġcong regation
ĠÅ ł
Ġlem ur
Ġaccord ance
it ating
ĠM umb
ĠP age
oc ese
ĠCh i
Ġpr ayer
ĠBrit t
ĠEu ro
ĠHam mond
ĠUlt imately
Ġmunicip ality
ar u
ĠRh ys
ĠSur vey
ĠâĤ ¬
ĠEug ene
Ġextraordin ary
Ġnam ely
l ance
o ft
ĠP red
ĠG ross
Ġunder lying
ĠCom ic
Ġmat urity
Ġsecret ly
Ġrect ang
v ae
ĠP and
Ġcom merce
so on
Ġren own
ĠDist inguished
ĠCath olics
ĠR ather
ĠL ear
oun ce
Ġfort ified
Ġimprison ment
ĠDere k
ĠD y
ĠE ss
ĠK ur
ãĥ ¼
ĠK ath
Ġfe es
Ġext ant
Ġ185 9
ain ted
ĠK om
Ġpl astic
ip el
Ġspecial ized
Ġsaf ely
ĠLo is
Ġrum ors
Ġinnov ative
Ġdors al
e le
Ġp ian
ĠS port
ot on
ĠP end
ĠN A
Ġan at
Ġse ize
Ġext inction
Ġcou pled
Ġder iv
Ġnegoti ate
Ġjudg ment
ĠSout heast
el est
Ġl ocked
Ġcomp act
Ġfe ver
ij i
Ġcust oms
Ġsubstant ially
ĠUlt imate
Ġtotal ed
Ġgen ius
ĠRoad s
Ġkey boards
ĠRem ix
ĠRoberts on
ĠW ander
ber ger
Ġex port
Ġun ited
Ġsc ales
Ġen acted
Ġlim estone
l ides
ĠR af
Ġpre view
ĠSh ack
Ġnational ist
Ġspecial ist
ĠDou ble
Ġgif ts
r ically
Ġal beit
Ġro d
Ġsc ope
ĠAssoci ated
ĠM ine
ĠD art
ĠW end
ĠW oll
ĠG av
Ġat oms
Ġund ers
Ġret aining
Ġ13 9
Ġconv iction
ĠCat al
Ġhang ing
Ġeat en
Ġmillimet res
Ġsubsidi ary
a que
Ġf art
ĠS au
ĠB M
Ġch ains
Ġ12 00
ĠBl aine
Ġeff iciency
ĠCan ber
Ġtradem ark
ĠWrest le
Ġre writ
Ġpat ch
Ġhosp itals
Ġin ex
ĠD ry
ab ling
Ġrun way
Ġsoc ieties
Ġp ige
Ġpoin ting
Ġdra gon
ĠTax onomy
in ely
ĠSw an
Ġ184 5
Ġfit ting
ĠSunder land
Ġin adequ
ĠQu inn
ĠJoy ce
Ġthro at
ĠFras er
ĠK ay
ĠJo el
Ġpres ervation
Ġreal m
Ġarr ay
Ġinvestig ations
ĠOut side
Ġcrowd s
Ġmerch and
Ġwel com
Ġmurd ers
Ġsp here
Ġcomp rehensive
ond e
Ġdesign ers
Ġsouth bound
Ġfact ions
Ġdiv ide
Ġvol unt
ĠRed s
agon ists
Ġdece ased
g ence
ie v
ĠGame play
ĠSal isbury
Ġsumm ary
Ġf ake
out ed
Ġper ception
Ġgu ided
ĠAnd rÃ©
Ġbar b
ĠMet all
Ġoccup y
ĠArm s
Ġgar age
Ġax is
ĠScout ing
ĠBright on
Ġb out
ĠB un
ĠP ont
Ġst unt
Ġinf ant
Ġintrodu ces
Ġachie ving
Ġthink s
ĠCrit ic
ĠStal in
ĠWill ie
Ġsexual ity
Ġintercept ed
Ġhelic opters
R O
ĠK aren
Ġj e
Ġinf licted
ott a
Ġfac ts
Ġdom ain
ĠLind a
ĠJenn a
Ġconfron ted
Ġcont rary
Ġrel ax
Ġbl ank
ĠHol ocaust
Ġfresh man
ĠLess er
in ate
ĠR esp
Ġv ow
Ġserv ants
Ġreal ised
Ġbreak down
ĠWhit ney
ĠTimber lake
Ġin quiry
ĠH IV
ĠâĢ ĺ
ĠV on
ĠAm az
Ġrap e
Ġsevent een
Ġvac c
ĠRI AA
1 1
I C
Ġp ocket
ĠA zer
ĠH V
Ġres olve
ĠAl c
Ġte nder
ĠSh ir
Ġhigh lights
ĠTor res
z ym
Ġa thlete
or o
Ġm ouse
il ian
ĠC oul
Ġal ert
Ġmon sters
na e
Ġperm it
Ġtend ency
ĠDomin ican
Ġf ut
ad ic
ĠR acing
Ġsc orer
Ġeng ra
aul ted
ĠArab ian
ĠAx is
ĠB le
Ġam ino
Ġprot ective
ĠEx am
ĠNort on
ĠBu enos
Ġpros ecution
Ġpitch ing
Ġhe ll
ĠD iet
Ġeffect iveness
sp ring
Ġavail ability
Ġexc ited
ĠPorts mouth
Ġdecomm issioned
or ters
Ġan k
Ġr er
ĠAr n
ĠSh awn
Ġ14 7
Ġsol utions
Ġball ot
Ġ ãĤ
Ġc ement
Ġd ome
Ġcont ents
Ġsub stit
Ġmat ched
Ġgr ace
Ġadm ired
ĠScot ia
Ġroll ing
Ġsynthes is
ĠBl ock
Ġdraw ings
ĠÎ ¼
Ġlesb ian
Ġ æ
Ġs id
Ġbas ement
ĠMon ument
ĠDay ton
il is
ĠP itt
ĠK ann
Ġbl og
Ġ... .
Ġactiv ated
Ġancest ors
o an
Ġr am
ov an
Ġmon uments
ĠMy c
Ġcollect ive
ĠPeters burg
ĠR Ã©
ĠL ac
Ġam azing
ĠFor bes
ĠAir craft
Ġo z
ĠSing h
ĠEll iott
Ġadopt ion
Ġw ors
ith m
um s
ĠSc andin
Ġins ect
Ġcare ers
itte es
Ġanal ys
Ġdepend s
ĠNon etheless
r ina
ĠIn formation
ĠK le
Ġpl acement
Ġend angered
Ġsub urbs
Ġperform er
ĠTra ff
Ġbot an
ĠBes ides
Ġg ren
Ġal umin
ĠN u
os al
Ġsp ont
Ġcl er
ĠAn a
Ġhom age
ĠGal ile
Ġcitizens hip
Ġski ing
Ġanth rop
ĠFerr ari
ĠSic ily
D T
es ters
ace ae
aud i
ĠBa iley
ĠWeb ber
ĠDur ham
cliff e
ĠESP N
it ory
Ġm ere
ĠC ros
ac co
ĠM Ã¼
ĠK ang
Ġstop ping
Ġden omin
Ġconclud ing
ĠS MS
Ġro de
Ġunder m
Ġreg ulation
Ġmet eor
ys s
ĠAnd ers
Ġbar racks
Ġ182 0
ĠHum ph
Ġmathemat ical
ĠOm aha
an z
ro ft
ĠF C
ĠL odge
ĠEconom ic
ĠCh al
Ġear s
Ġrel iable
Ġann oy
Ġvar ieties
Ġvis uals
Ġfav oured
Ġmot ivated
ĠEngine ers
Ġc it
ĠW ang
ĠAust en
Ġrun ners
iat us
ĠHug o
Ġworld s
Ġcountry side
ĠMod el
Ġsubs id
ĠStra it
j ar
Ġb ishops
Ġd ign
ĠT ell
ĠB irth
Ġcomm ended
Ġwork sh
ret ion
Ġdepart ments
Ġsem if
oura ge
ĠHistor ian
eld a
Ġdin osaurs
h m
ar med
ĠI X
ĠJ ag
Ġgoal keeper
ĠMcM ah
Ġrecon cil
ĠC ock
ad oes
ĠM aple
ĠL ope
ĠG iven
Ġorgan isations
Ġcolle ague
ÅĤ aw
ĠGard ner
Ġunh appy
uxili ary
ĠA j
ĠR uther
ĠG y
ĠN em
Ġim per
Ġmill imeter
ged y
Ġsol ve
agon al
ĠCaes ar
ĠT rain
ĠS my
ĠJ azz
Ġseason al
Ġrece iver
Ġsl ot
Ġwat ches
zy me
Ġh ipp
Ġgovern ed
ĠBer k
Ġreflect ing
Ġsatisf ied
Ġdemocr acy
Ġpuzz les
ĠMumb ai
Ġb inding
Ġd ys
Ġl ingu
ch ild
ant o
Ġback d
Ġgu id
Ġche ap
Ġfort une
ĠPri est
Ġdomin ance
ĠMore over
ĠDemocr at
ĠPhilipp ine
Ġinstall ment
ĠBah amas
ĠDuc hess
Ġthe or
ĠC yp
Ġst ip
Ġst uck
ĠD oll
ĠW ilm
ct ive
ke ys
Ġspec ified
ĠMac L
Ġacceler ated
Ġreh abil
ĠAssist ant
ĠH ed
est ock
te g
Ġph ases
ĠX V
Ġter restrial
Ġtalk ed
Ġinher it
j ord
ĠA U
ĠH ers
ra h
ĠE van
ish na
ĠPl ate
lu ence
ĠMon ica
ĠIm m
Ġwood land
Ġfail s
ias m
Ġcorrespond ence
Ġdiagn osis
ĠPruss ia
ĠCanber ra
I N
ĠW u
Ġex agger
Ġobs ervers
Ġaver aging
Ġ185 4
Ġborrow ed
ar ity
Ġm ast
im an
ĠP ix
ĠD uck
so ver
Ġfun k
Ġgoal tend
ĠAngel a
Ġincorpor ating
Ġexplicit ly
Ï ģ
ĠG iant
Ġmar itime
Ġpers isted
ĠSn ake
unc iation
Ġisot opes
ĠG at
ub a
Ġdown ed
Ġactiv ist
Ġsil ence
Ġ185 7
Ġcle ver
ĠConc ord
ĠLope z
Ġg rab
ĠR overs
ĠW ong
ĠO g
Ġbusiness man
Ġsib lings
or p
Ġl od
ir s
ch ard
Ġmin eral
ĠSy rian
Ġfrust rated
Ġjuven ile
ĠA ven
ĠN ME
Ġle aked
Ġcl uster
Ġperform s
Ġexhib its
ĠE agles
Ġdet achment
ĠNe g
Ġchart ing
Ġboard ing
ĠDist ribution
Ġens ured
Ġprec urs
Ġremark s
ĠPear son
ĠA ires
ĠD iana
th rop
Ġval ued
Ġconfig uration
ĠHamb urg
Ġt ier
Ġo st
ĠW ick
Ġshort ened
Ġconduct or
ĠPal m
Ġmor ale
Ġec osystem
Ġsan ct
ĠOpp en
Ġ à
Ġf us
al and
st ock
ĠL ions
gg y
Ġpresent ing
Ġste al
Ġorb its
ĠRecre ation
ĠC reat
ĠF alk
art e
Ġsound ed
E T
x ter
Ġd rift
ou fl
ĠB ened
id ity
ĠNew ark
Ġbo om
aun ton
Ġer up
Ġbus es
Ġdisagre ed
Ġecc entric
ibl ical
b ul
ĠY ang
Ġintent ions
Ġavo iding
Ġine ff
Ġtril ogy
ĠT ampa
Ġn a
ĠM ale
em pl
ri et
ĠCon v
bor o
Ġvari ants
Ġanch or
Ġm all
ĠC ore
Ġal iens
Ġexp elled
Ġmed ian
Ġsl opes
ĠDi á»ĩ
ĠEngine er
ĠConc ert
ĠJosh ua
ovak ia
Ġb ure
ĠA N
Ġun ity
Ġdevelop s
Ġdesc riptions
ĠBe ast
Ġnortheast ward
ĠVol ume
Ġimmig ration
ĠJess e
er os
av i
Ġtr ump
ĠPl aying
Ġreun ited
Ġpoison ing
ĠDiá»ĩ m
en ary
Ġb icy
Ġn Ã©e
Ġlow ered
ĠHall ow
Ġdeterm ination
Ġimm une
Ġorb ital
ĠHold en
u in
ĠN ig
art z
ĠK as
ĠCom pton
ĠCl aud
ĠFran Ã§
Ġste ering
Ġsuper hero
Ġportr ays
h orn
on i
im o
Ġst rain
Ġafter ward
Ġout lets
Ġreg ain
ĠNe ither
b ane
l ay
Ġacc ent
ĠAd ult
Ġscreen ed
Ġcatal og
z ens
Ġr ises
ons cious
Ġfound ations
ik er
Ã© l
Ġorgan ize
Ġscript s
gr im
hy d
Ġpersu ade
Ġs aves
it ational
ĠR S
Ġret iring
Ġdep ot
ĠMc E
Ġdoub led
ĠDest iny
Ġpromin ence
ĠT ill
ast ical
Ġlar vae
air d
ĠAng lic
ĠTr in
Ġrespons ibilities
Ġche er
ĠRh ine
Ġbow ler
Ġin ability
Ġin ev
Ġd ish
Ġd io
ol esc
Ġch ambers
Ġpl ag
Ġle an
ub les
ail and
ene z
Ġprim itive
Ġattrib utes
Ġdrop s
Ġshel ters
Ġfrig ates
Ġcontinu ously
ĠEnvironment al
Ġoverh aul
ar in
ĠR ip
ĠD um
ĠPhil os
Ġadvent ures
Ġdream s
ĠCru z
ĠHann ah
Ġt ailed
ĠS C
ĠL az
Ġfre ely
Ġ32 0
Ġbig ger
ĠSav age
c ies
at oes
Ġb ag
ĠO C
ĠIm medi
Ġsymb olic
Ġnarrow ly
ĠAsh ley
ĠKnow les
ĠI vy
ĠD ale
if ax
Ġover time
ĠAr med
Ġjud ged
Ġir re
Ġpeace ful
Ġwel come
M ania
Ġc ord
om orph
ĠJ in
Ġtr act
Ġsmall est
ĠSug ar
ĠAdri atic
ĠBanglades h
ĠBut ter
ighth ouse
h al
Ġt ales
per ed
ĠSchool s
Ġgrad uation
Ġbreak through
Ġsil k
Ġlink ing
ĠWrit ers
Ġroof s
Ġenlar ged
g ov
v as
ĠD over
ĠG aza
ĠE b
op al
ĠAll an
Ġ55 0
Ã¤ n
Ġaccommod ation
Ġmanuscript s
Ġp neum
Ġd ent
Ġg ig
ĠH ave
ĠH ollow
Ġtra ils
Ġac ute
ĠKing ston
Ġdet on
ĠSing er
Ġ185 8
ĠDod gers
b in
ĠS AS
ĠSh ore
ĠBro ck
ĠRet rieved
Ġabol ition
ĠTrad ition
m atic
Î ¹
Ġo t
is a
ĠT ank
Ġv eto
ĠK arn
ĠV as
Ġab rupt
oth s
Ġrespons es
Ġlov es
Ġexclud ed
ĠAntar ctic
Ġtong ue
at ab
Ġb red
el age
ĠL ich
Ġcommand s
Ġaccept ing
Ġfinanc ially
Ġspect rum
ĠMov ing
ĠAlexand ria
ĠL or
ĠN an
ĠInd ivid
Ġtransform ation
Ġisol ation
Ġreven ues
G S
ĠR ook
ĠY ank
vi Äĩ
Ġpr ay
ĠLe ft
alf ord
Ġleg ally
ĠWrit ten
ĠBah rain
c hester
Ġh aun
unk er
ĠChap ter
ĠBird s
Ġsovereign ty
Ġcentimet res
ĠC ert
ĠD ata
ĠN ame
ĠSp ot
ĠGu err
ic ia
ĠS ah
am ous
Ġsh apes
Ġshort age
ĠBet ty
Ġlaunch ing
Ġexpress ing
Ġquant ity
Ġkid ney
Ġreleg ated
avil ion
ĠMcMah on
C N
ĠF iction
Ġcon form
Ġbr ass
Ġ181 2
Ġconvoy s
Ġgal axy
ĠLim ited
Ġovers aw
ĠCost a
et e
omet own
Ġpri ests
ĠPresident ial
Ġclear ing
Ġdeterior ated
Ġunw illing
Ġcontempor aries
ĠÂµ m
Ġwelcom ed
F ar
ĠB j
Ġent ries
Ġbl ame
Ġcoun ted
Ġactiv ists
ĠMo h
Ġenthus iasm
Ġre app
ĠS ag
ĠMin ne
ĠIndian apolis
ĠCap com
Ġeconom ics
ĠDan ube
ĠCr ash
ĠObs erver
Ġfier ce
ĠRuther ford
g as
v ous
Ġt ables
at ters
ĠA way
ĠU ran
und y
Ġtechn ologies
Ġrejoin ed
ĠSerge ant
ĠD rew
ĠD ana
ĠG and
qu in
Ġsh ocked
ĠJohn s
Ġfr ames
Ġbul let
Ġsymp athetic
Ġaccum ulated
ĠXII I
ĠCe leb
Ġs aint
Ġp p
st ead
Ġsu ed
Ġdep r
oe uv
Ġpoll s
ĠAv on
ĠBrun s
ic z
ĠF aith
Ġal arm
oy a
ĠRe id
Ġsw all
Ġ184 9
Ġgrand mother
Ġtourn aments
Ġclim ax
ĠTib et
ĠNept une
ĠH od
Ġhe s
ĠL ans
ĠL omb
Ġan onymous
ang a
Ġship ments
Ġmed ley
Ġ185 6
Ġ33 0
ĠCra zy
g un
Ġd ull
ĠC ran
ĠH utton
Ġwh it
Ġph ylogen
Ġmanag ers
Ġfr atern
Ġrecommend ation
Ġnit rogen
orig inal
b rates
g ent
al ine
ĠD ob
ĠF ul
ĠF ringe
ĠAfter wards
ĠUnder ground
ĠJul ia
Ġtelev ised
ĠWinc hester
Ð ¾
Ġcons erv
Ġsubject ed
Ġnar rator
ĠHal ifax
Ġevac uate
Ġworth y
ĠTh ir
ki en
Ġtelesc ope
it ative
ĠD ock
Ġal k
ĠTh ailand
Ġprop eller
Ġlaw yers
Ġsit com
ĠComp an
Ġfav ourable
Ġphys ic
ĠAst ron
ĠDyn asty
Ġf et
Ġcas em
Ġpoll ution
Ġnucle us
ĠPruss ian
Ġconfront ation
Ġwonder ful
olith ic
Ġa ster
ent ry
ĠL il
Ġint rig
Ġdis k
Ġplat oon
Ġpurs uing
Ġtheore tical
ĠHeb rew
Ġb eds
Ġman or
ik k
Ġri ot
Ġhar vest
ĠB ever
Ġhe ating
Ġbe ings
Ġconc lus
ĠCo ch
Ġinvestig ating
Ġdispl acement
ĠWhe eler
Ġsuperst ructure
u ke
w orld
Ġw elfare
ĠO S
ĠK or
Ġcont acts
Ġsc ream
Ġacc idents
Ġcat ches
ĠDisc overy
ĠMiddles ex
E F
Ġp ad
ĠG Ã¶
ĠTh orn
Ġrec apt
ens ing
ting ham
ĠBar ber
Ġmean while
Ġmeant ime
ĠG ould
op l
Ġshow c
sh i
Ġtro ubl
ĠBrad ford
Ġcompar isons
Ġimag ination
Ġalt ogether
Ġwrest lers
Ġprol ong
Ġc ros
Ġc ott
ĠS es
am us
art a
ĠK end
Ġep id
Ġadm its
ĠAR IA
Ġrecre ational
p ur
ĠH ir
ĠH aven
Ġcrit eria
Ġaver ages
Ġdram atically
Ġinfer ior
Ġencourag ing
Ġst ake
Ġnew er
Ġunder graduate
Ġreview ing
Ġpostp oned
z el
he res
Ġl auded
ĠB L
Ġg ills
op us
ĠStaff ord
Ġaffili ated
Ġh ometown
Ġsh ale
Ġpre ference
Ġexp enses
ĠBe au
Ġ14 3
Ġref usal
Ġtro ut
Ġcapt ive
ĠNor wich
ropol is
ĠTraff ord
Ġst ab
Ġpl ug
oy le
ĠAng els
Ġobs erve
ĠInter ior
ĠHaw k
ĠPrim ary
ĠSebast ian
cycl op
Ġrenown ed
Ġt ired
Ġs ax
Ġv in
Ġde er
Ġtr ace
Ġview er
Ġdecl ining
ĠDon na
Ġtend s
Ġrebu ilding
ĠJess ica
ĠMedic ine
ĠLaf ayette
c aster
f act
ĠT ina
id ad
ĠP itch
ĠV ince
ĠAr d
ĠEven ing
Ġc ig
ou k
ĠS ul
Ġl unch
ĠJ ak
ĠJ ava
Ġper ipher
ib e
Ġorder ing
ĠFre eway
Ġautom atically
ĠWrestle Mania
Ġpar ade
Ġdest ruct
Ġevery body
Ġter rible
Ġmoder ately
Ġspok es
an as
Ġd il
ĠC ly
op old
Ġcal endar
Ġcerem onial
Ġsend s
igg ered
ĠStew ie
Ġc av
ĠV augh
Ġtr iggered
ĠLe vel
ĠBy rd
rodu ction
Ġsocial ist
Ġplant ed
ĠGre ene
Ġdedic ation
Ġmanufact urer
Ġsupposed ly
Ġadvertis ement
Ġthunderstorm s
c ip
Ġw ages
Ġinter rog
ĠMar cel
Ġdisturb ed
ĠRoc hester
Ġmonit oring
h aus
Ġm ock
ĠC ai
Ġl oses
ĠP ike
ĠR ot
ĠL ey
Ġret ro
ĠComm odore
Ġimplement ation
Ġpure ly
i ability
Ġt et
Ġd olph
ĠL og
ĠE rie
orm al
Ġadm ission
ĠLiter ary
Ġf ins
Ġse am
ĠWe ber
Ġcur ric
Ġtru cks
Ġrecommend ations
1 9
ĠH appy
Ġst un
red ited
ass ing
Ġdisc rimination
Ġ65 0
Ġhapp ens
Ġdrown ed
ĠR i
Ġex empl
Ġmar ble
ĠCo ach
Ġdeg ener
Ġkind s
Ġreason able
w oman
ĠW ade
Ġconcent rate
Ġsupp ress
ĠDam asc
ĠHun ting
ĠGlou cester
ĠZ oo
Ġfre estyle
d ish
Ġw ond
at as
Ġf ing
an or
ĠT ong
Ġl ibr
Ġg ospel
ĠJ ets
Ġsm oking
ĠCanad iens
ĠPriv ate
ĠBruns wick
Ġc ater
Ġn ost
id an
ĠR ama
Ġbu ying
Ġpass ages
Ġpow der
Ġtherm al
Ġs ab
ĠC IA
Ġn urse
id ian
ov ny
ĠTh urs
Ġpe as
ĠBe ing
Ġconf isc
Ġcivil ization
Ġrow s
ĠBeh ind
Ġrectang ular
b ai
pl ing
ĠDec l
ĠCorn ell
Ġtim ing
ĠShak ira
Ġmort ality
ĠWy att
Ġneighborhood s
Ġexha usted
ĠDuch ovny
f old
ag ara
ĠO il
ĠK ol
Ġapp rent
ĠSh aron
Ġdisc l
Ġ185 2
ĠFore ver
Ġnation wide
Ġcontroll er
Ġguid ance
ĠOppen heimer
Ġt iny
ov ed
Ġdis rupt
Ġsle e
Ġic onic
Ġportr aying
Ġs ided
ĠN im
Ġpro c
Ġco aster
ĠRich ards
ĠMah ar
Ġtorn adoes
Ġbats men
ĠThor pe
Ġdemocr atic
c omb
g i
á ¹
ĠM iy
ĠF ra
iz able
omet ry
Ġnest ing
Ġpublisher s
Ġunn ecess
Ġl or
ĠGu est
Ġdeg rad
oh l
ĠHem ing
ar re
th al
Ġcap ability
Ġprom ises
Ġdet ective
aster ly
Ġaff ection
Ġobject ed
Ġhe ter
th ood
ĠJ oker
Ġbo ards
Ġindu ced
I T
O L
ch ant
if ier
pl ane
Ġins urg
Ġstat ute
ĠMet roid
ĠStud ent
Ġ184 7
ĠBet ter
ĠYank ovic
k ar
on er
ĠF en
ĠF olk
ĠG ret
Ġam ounted
ĠCo hen
Ġlabel ed
ĠD ame
em ics
iff s
Ġcommunic ate
ĠBas il
ĠHind i
Ġencl osed
ĠEpis ode
Ġphilosoph ical
ig uous
ĠR ank
Ġpar ad
Ġpat ent
ĠVol unte
Ġut ter
ĠIraq i
ĠEld er
Ġadequ ate
ĠS z
il us
am y
Ġn as
Ġinst ances
ĠPer u
ĠMy ster
Ġradio active
Ġceleb rations
Ġaccount ing
et ics
ĠF ow
ĠN iger
ĠJ a
oc ate
Ġfl av
Ġsk illed
ĠMil ton
Ġdemol ition
Ġtort ure
Ġh ollow
Ġch im
Ġcl ient
Ġinv ested
Ġoper ators
Ġ185 5
unt a
ĠLouis ville
Ġcomplex ity
c ling
f ast
f ires
Ġfarm land
Ġfilmm akers
c at
Ġgener ic
Ġbed room
ĠLeban on
ĠImmedi ately
ĠH ern
Ġv ibr
ĠK un
Ġinter face
Ġsl ip
ĠDar ren
gest ion
Ġlad y
Ġrecip ient
Ġsophistic ated
ed e
ir able
ĠV enez
ĠHar bour
Ġhel ium
Ġtest ified
Ġhard er
Ġ184 6
Ġqual ification
Ġmanufact ure
Ġsand stone
Ġvirt ual
Ġcanc ellation
Ġculmin ated
Ġaest hetic
ĠMig uel
Ġst ing
Ġsh irts
ord ination
Ġcr us
ĠCle ment
o qu
ĠB Ã©
id ium
se nd
Ġreg ards
Ġsk irm
ĠEy e
Ġinnoc ent
ĠDamasc us
ĠH ank
ĠP ath
ell es
rib e
Ġviol ation
ĠRhodes ian
ĠRup ert
ĠHast ings
at ri
ĠM its
ec a
ĠV ocal
Ġcl erk
ĠAr cher
ĠVir t
che v
Ã³ w
Ġdischar ge
ipel ago
is ure
Ġdiv orced
Ġbroadcast ing
Ġconced ed
ĠSans k
u cc
ĠS audi
ĠH undred
ĠG wen
her d
Ġass ured
Ġpur ple
ĠAC C
ur ated
ĠE uras
Ġdon ations
ĠJul iet
Ġdissip ating
Ġpsy ched
c or
in os
am o
ĠAl onso
ĠAs ide
Ġfl aw
Ġco ached
ĠZ elda
Ġposs essions
Ġtack le
Ġrub ber
Ġconvinc ing
ĠP ale
ĠP aper
ĠAr ist
Ġpe ers
Ġprem ise
hold ers
ĠGeorg ian
Ġconsum er
Ġancest or
ĠJam ie
Ġhorn s
e a
ĠS iege
ĠF i
Ġvict orious
Ġcateg or
ĠLex ington
Ġing red
Ġdesper ate
Ġtrig ger
o que
at z
Ġf og
ĠS it
ĠC ret
ad ar
ĠN olan
ke e
Ġreg ener
Ġ183 2
umber ing
ĠDog gett
Ġcam oufl
ĠChet nik
ĠAzer bai
Ġs its
Ġh alt
om i
ac a
ĠM ater
im son
Ġper imeter
ĠGl ac
Ġru ined
el ong
Ġl ots
ĠH ear
Ġher b
Ġdis rupted
Ġoff spring
Ġbal let
Ġdio xide
c ul
ĠL angu
ass ium
Ġgu ys
ĠCle m
Ġox ide
ĠVis ual
ĠHispan ic
Ġo ath
Ġc ogn
ĠG ael
Ġcl usters
ren cy
ator ies
Ġdev ised
ĠJul ie
Ġrend ition
ĠInit ial
Ġdimin ished
ĠSaf ety
Ġkilog rams
in tend
Ġd y
ĠM ered
Ġhe ated
ie u
Ġred dish
com mun
Ġdecl are
Ġarch itects
Ġinvest ors
ĠAnn ual
ĠTon ight
b red
Ġd ining
ĠC ay
ĠM Ã©
od ing
ap or
ĠTh irty
lud ed
ely n
oul t
Ġdefend er
Ġparallel s
ĠFull er
W R
en stein
il ight
ĠK Ã¶n
ry s
Ġfl ies
Ġcorn ers
ĠStock holm
Ġaccus ations
ĠAppro x
ĠT omb
Ġn erve
ĠW ess
Ġpres umed
ĠNe igh
ĠEm b
Ġmort ar
ĠBuck ingham
ĠMans field
Ð ¸
Ġo re
as ma
ĠS tern
ĠB ess
Ġaccept able
ĠCub s
Ġliv estock
ĠMinne apolis
r ust
ĠC lear
ew ays
ĠAl ien
ath on
ĠWar riors
ĠTe en
Ġstar ter
Ġop ener
Ġcompan ions
ĠLaure n
y t
al us
qu el
ĠWor cester
ĠBris bane
Ġplum age
ĠMered ith
al ore
ch y
Ġv iral
Ġland sc
ĠCar penter
Ġeight eenth
Ġremn ant
Ġsleep ing
Ġrelie ve
Ġabb ey
Ġ Ø
Ġh ate
un ct
ĠL C
ĠE MI
Ġpartic le
ĠOr land
Ġche ek
Ġpay ments
ĠEy es
Ġstrict ly
Ġposthum ously
Ġ Ì
Ġs acked
Ġl ord
Ġperson a
rain ts
Ġexcept ional
Ġcolon ists
Ġbox es
Ġbackd rop
ĠK amp
Ġman oeuv
ĠShe ar
Ġprem ier
Ġinadequ ate
ĠHallow een
d al
Ġa ims
ĠM iz
Ġbe aches
ĠW imb
ĠL anka
ib les
Ġdep ress
ĠInd eed
ĠTe le
ĠGrand e
Ġfeed back
Ġthrow s
ĠScient ific
ĠMethod ist
ĠSansk rit
g ae
ĠK iel
Ġnum er
ĠAd olf
Ġarch bishop
ĠMac D
Ġdiss atisf
Ġcommemor ate
Ġmos que
is en
Ġman ned
ĠLe ip
Ġdef ining
ĠMe et
ĠFl ash
Ġlim bs
ĠWild life
Ġcool er
Ġschem es
Ġ ell
Ġt ear
ĠP or
ĠG ore
ĠBe atty
Ġprof ound
ĠOrig ins
Ġbes ide
1 5
Ġf u
Ġkn ight
ven ge
Ġannoun cing
Ġcomb ine
Ġ185 3
Ġcook ing
Ġorient ation
g irl
h ist
ar ck
Ġh iatus
Ġst alk
ĠD ad
un ion
Ġal tar
Ġcl ad
Ġgu err
Ġcharacter ised
ĠNorth umb
sequ ent
ĠNe ed
ĠKey s
Ġpresum ably
l ide
ĠW ey
Ġcl ause
led on
ĠOr k
Ġcor poration
Ġpen alties
Ġunp re
ĠCher ry
ĠShack leton
ĠT act
ĠB ard
th ouse
Ġun official
Ġsl ope
Ġbre ach
ĠSup porting
ĠCart e
l ot
É ª
Ġth read
Ġl oot
Ġsp arked
ren ches
ces tershire
ĠLe opold
ific ate
Ġcr ack
ĠSpec ies
y on
op ing
ĠCh a
ĠSe ym
ĠCol bert
Ġmake up
Ġcoun ts
Ġbroad er
ĠMor oc
ĠÃ ħ
Ġinstruct or
ĠAnim ation
ĠC um
ĠY ale
Ġrel at
Ġmon soon
Ġuncertain ty
ĠWed nes
Ġt ears
iv ided
Ġam end
Ġmet ap
ĠHer ze
ĠHam pton
Ġpack ed
Ġdies el
Ġecc lesi
ĠOrland o
ar c
Ġl ith
ly ph
Ġj eal
ĠCl are
Ġinf ilt
Ġnon etheless
Ġgra vel
ĠSub sequent
Ġwrest ler
Ġf als
Ġh ub
ou x
ĠC ul
Ġsp ear
Ġsp ans
ced ented
Ġele g
sh adow
ĠPat ric
ĠCast ing
Ġcollect ively
Ġobserv ing
Ġconvent ions
Ġportra its
ĠKap oor
ĠS inc
ad os
ĠL ak
Ġdef ine
Ġdeb ated
Ġrail ways
Ġwild life
Ġoutf it
Ġlect ures
Ġshar ply
Ġw ears
ĠS pl
Ġg rap
iv ier
Ġsp ark
Ġform ats
by ter
Ġsen ator
Ġconcent rations
ĠPers ians
fl ies
Ġforg otten
ĠApprox imately
l air
or g
ĠB end
ĠF o
Ġcon ning
ĠCh ambers
Ġbut ton
ĠTh anks
ah o
ĠDe xter
Ġhum our
Ġant agonist
Ġz inc
ĠHard ing
Ġsed iment
ĠPalest inian
ĠHoff man
ĠSeym our
Ġf oul
Ġcl oth
ĠSh ane
Ġref lection
Ġkey s
Ġtax on
ĠCorn er
Ġf right
Ġen abling
ĠGeor get
Ġfund ra
Ġ184 1
Ġkilomet re
Ġmechan isms
ĠAut o
Ġspeak s
Ġdiff ers
Ġclin ical
Ġadvertis ements
ĠWes ley
ĠB ord
ir us
Ġtr aced
uc lear
Ġref using
empt ion
ĠPar ad
ĠPerson a
ĠLyn n
Ġnomine e
Ġunpre cedented
Ġl ords
Ġcom eb
Ġserv ant
ĠKn ox
Ġlisten ers
Ġfram ework
Ġfant astic
p op
ĠC risis
ut ors
op y
ill on
Ġrep orters
ĠBer gen
Ġemer ge
ĠKr ishna
ĠComple te
Ġtriang le
l led
Ġp ard
as ures
im i
ĠG em
ĠAlb ion
Ġmagn et
ĠWell es
ĠVik ing
ĠPant hers
3 8
Ġs au
Ġadd itions
Ġcour ty
Ġresemb lance
Ġclimb ed
Ġpup pet
Ġf illing
ĠT roy
ĠF ey
res cent
Ġse ated
Ġro uted
Ġland own
Ġel imination
ĠBel arus
ĠVict ory
mar ine
Ġpurch asing
ĠHor ror
ĠCoal ition
roscop ic
it us
Ġto b
ion ed
ĠS elf
Ġrec laim
Ġrem aster
Ġwhere by
Ġdisc o
Ġsouth ward
Ġevery day
ĠJack ie
ĠPre vious
Ġstret ched
ĠTechn ical
ĠSomet imes
ĠHok ies
ic on
am ph
ĠM echan
ag ne
our se
Ġle nd
rit ies
Ġres ource
Ġne u
ĠBel grade
Ġrid ges
Ġpull ing
idel ines
Ġpromin ently
Ġcomed ian
r ors
Ġbe friend
ul ent
Ġrep rin
ĠCar roll
Ġstat ues
Ġ184 4
Ġdig est
ĠCard inal
ĠOak land
Ã± a
ĠSin atra
ĠPil ot
Ġspir its
Ġhect ares
ĠNum erous
in as
ĠS ales
ent in
Ġe ager
ĠD und
Ġse aled
ĠAn imal
Ġdo zens
Ġart ic
ĠStud ents
Ġdisapp ro
ĠWin ston
ĠWork ing
ĠCinem a
en ge
Ġp orn
el man
ĠD ixon
Ġr h
Ġsimilar ity
umb ent
ĠLo ch
Ġteen ager
Ġcurren ts
ĠHeming way
w y
Ġb a
ĠS eth
ĠB ret
Ġcomp osing
Ġmus cles
Ġang les
Ġguarant eed
ĠT win
ur u
ĠH ack
ĠD ors
op oly
Ġste als
ĠKa hn
Ġancest ry
ĠCec il
ĠVenez uel
Ġl av
Ġon set
Ġinter im
aw i
ann i
ĠQ ual
Ġreal ism
Ġhot els
Ġri f
Ġuniform s
ĠM oor
ĠO wn
Ġbo iler
af e
Ġsoc cer
Ġfront al
ĠQu int
Ġdevast ated
c os
r aced
r imin
t ra
er get
Ġ. .
it he
Ġm ating
ĠM A
ĠJ ed
Ġund ef
Ġent ity
Ġship yard
Ġelect rons
Ġassoci ates
Ġexped itions
Ġpatron age
D OT
l im
n ant
ĠD ew
ĠK ids
ĠV ij
Ġwhe els
Ġen zyme
ĠUn f
Ġshoot s
Ġdead line
ĠCamp us
Ġske let
Ġpione er
Ġcounterp art
ĠDaw son
cont inental
ĠSurv iv
i ology
Ġs ne
it ia
Ġp ac
Ġp ub
ĠA chie
st a
Ġst up
ĠJ et
Ġex changed
Ġover night
ĠGu am
Ġaccept s
Ġcontem pl
ĠVer de
hr er
Ġinteg ration
ĠGet ty
Ġovert urn
ĠM GM
ch air
Ġde leted
Ġse ating
Ġsm ugg
Ġmay be
Ġpract iced
Ġbur den
Ġtransport s
ĠTrans it
Ġ179 0
Ġspread ing
ĠSystem s
Ġguarant ee
b led
Ġp s
Ġd up
ĠFer ry
ĠEle anor
ĠâĻ Ń
ĠJ ab
ĠV ery
Ġbet a
Ġbi ology
Ġ183 6
Ġrecover ing
ĠBart on
Ġcra zy
Ġrein st
Ġcha os
ĠWis den
Ġsummon ed
ĠPrad esh
m are
er man
Ġf ond
ĠC rist
ol ving
ĠCl aude
Ġbroad ly
Ġhost ing
Ġunc onscious
Ġelement ary
Ġsuperv ision
ĠMcL aren
Ġreop ened
ĠAnglic an
Ġjeal ous
k ward
ĠT yp
ĠD ol
ĠE S
Ġsp y
Ġen zym
Ġinv ention
Ġsomet ime
Ġutil ized
Ġabund ance
iffer ent
om ans
ĠB ism
ul i
Ġpro se
Ġde ity
ĠK re
Ġpo ets
ĠBatt les
ortun ately
Ġge ographical
Ġjoint ly
Ġt renches
Ġp ant
ur red
em ia
Ġsp ore
Ġinv as
Ġmill s
Ġwest bound
Ġsw ift
Ġagre ements
Ġcompl aint
Ġgas oline
ev o
m m
Ð µ
an za
ul atory
ĠK yl
Ġbar n
Ġsuggest ions
Ġ177 6
Ġdreadn ought
Ġaf raid
ĠByzant ines
Ġw ives
ĠG ive
os er
Ġpr ide
Ġloc als
Ġbar rel
ĠArab ia
Ġconstitu ency
Ġmetap hor
ur ai
Ġg ast
ĠD iss
ĠV ishn
ĠBl oom
Ġreform ed
rell a
Ġanch ored
Ġexclud ing
Ġtouc hed
ĠP P
ĠR ise
Ġr ud
Ġrep ly
Ġel ong
ĠBlack burn
Ġri ots
ĠHa iti
Ġsymp ath
ĠT ud
ĠS ask
Ġext ract
ĠAm azing
hib ition
Ġbill ed
Ġflow ing
ĠAnt illes
Ġ183 7
ĠFeder er
Ġcounterp arts
Ġtroubl ed
G A
ĠH its
ĠD ot
ĠD up
ess ing
Ġmin ers
Ġimp acted
ĠItal ians
Ġcat aly
Ġaw kward
ĠCommun ications
ĠAra bs
Ġsupern atural
ĠUnd ert
F R
R e
ĠL Ã¼
Ġj ungle
Ġdis qual
Ġdef icit
ĠJo ey
Ġcomb ining
Ġcru el
Ġcollect or
Ġbackground s
Ġsket ches
f ork
ĠB ronze
ĠCh am
ph ae
ĠPr imet
Ġassoci ations
Ġcongress ional
ĠWimb ledon
ĠHerze gov
ĠPrimet ime
Ġt rop
on ely
ĠA val
om o
ĠZ agre
ĠGl ad
Ġfac ial
ĠTel ugu
Ġurg ing
e ated
l ore
Ġs her
ĠB ren
ĠK rak
rit z
let te
Ġmater nal
Ġoverl ap
ogen ic
ĠMong ol
ĠAT P
ĠBelie ve
f ax
m id
ĠF ork
ab ul
Ġun beat
Ġcor onation
Ġblock ing
Ġbox ing
Ġauth ored
Ġinsc riptions
ĠReturn ing
Ġcomeb ack
e ur
l ord
ĠA ch
us a
ĠR ut
erv es
ĠPl ains
Ġcreat ors
Ġdism ant
ĠAtt ack
ĠWeb ster
g ic
ĠW itch
ĠK ind
ty m
Ġpost ing
Ġtro ubles
Ġsound ing
ĠSm art
Ġemb ed
Ġmel odies
Ġcros sover
ĠZagre b
ĠS ara
ĠSt ark
Ġtr aces
Ġsculpt ures
ĠValent ine
ĠBened ict
i Ã³n
v ia
ul ative
ul ator
ial s
Ġwe ird
Ġacc ounted
ĠBl anc
Ġhard ly
Å¡ e
ĠBi ography
Ġregist ration
N T
m ass
o j
ig on
ok a
ĠCon rad
Ġhand ful
Ġprest igious
Ġfart her
u er
Ġs izes
ĠC edar
ĠB oot
ĠI g
Ġatt ain
ters on
Ġtra ff
ĠMan a
Ġinform s
ĠCong o
Ġemb ry
Ġshoot er
Ġmountain ous
Ġvac ant
Ġfung i
ĠGaz ette
b one
or um
Ġf eder
ĠH es
Ġinc arn
Ġpr one
Ġsub f
ĠZ imb
anc er
Ġgener ating
isc al
Ġcampaign ed
ĠSand y
Ġterror ist
Ġrenov ation
cour t
ĠOrk ney
ĠM ath
arm s
Ġeast bound
Ġreact or
Ġprin ts
och ond
ĠSher iff
Ġresemb ling
Ġpy ramid
Ġsurve ys
i em
Ġf a
Ġp agan
ĠSt oke
Ġcons ec
Ġmatch ing
Ġfore ver
Ġoccup ying
Ġdiss ent
ĠChief s
Ġlegend ary
ĠGuatem ala
ĠIU CN
intend ent
Ġg orge
ĠF ine
ĠDe al
Ġaw a
Ġod ds
ĠAthlet ics
Ġconsolid ated
Ġnut ri
am oto
Ġch icken
Ġcomp ose
Ġcons ort
Ġlab els
Ġmotor cy
Ġdownload able
Ġremix es
ĠDor othy
ĠSpe aker
Ġlect ure
Ġdevast ating
Ġrecall s
d o
i op
j m
Ġc ob
ew all
Ġen erget
Ġfact ories
Ġste aling
Ġcalc ium
Ġinteg ral
Ġconfron ts
Ï Ħ
an ol
Ġg ases
Ġpl ots
Ġiss uing
bo ats
ape ake
Ġstar board
Ġ183 9
Ġseek s
Ġtermin ated
Ġhall s
Ġrecru iting
ĠSocial ist
ĠTol kien
ĠCros by
ĠS ap
ĠS aff
ĠM atch
ĠL iv
ĠE ly
act ions
ĠSy rac
Ġlik es
Ã¡ r
ĠKh rush
Ġstore y
Ġnob les
Ġadvis ory
c het
he a
as is
ĠC H
Ġfor get
ĠJ ain
Ġtra gedy
Ġgu ilt
Ġheav en
ĠHy de
Ġspect acular
ĠHein rich
Ġunst able
ĠGael ic
t ically
en ic
is ely
ĠHe p
Ġam p
Ġbroadcast s
ãĥ ³
load ed
ĠRos a
ĠReview ers
Ġbreat hing
Ġpap al
ĠiP h
ĠTrin idad
M C
ĠB f
Ġhe ights
Ġr ic
Ġsub pl
Ġbombard ed
ĠArchitect ure
ĠDian e
p arts
v ara
Ġh ailed
ĠH og
ĠW emb
Ġwh ites
ĠN one
Ġle v
ĠY ar
ĠY osh
Ġdesign ing
Ġdeb ts
ĠAir ways
atter ing
ĠEm inem
Ġball ads
Ġpun ct
ĠVol t
ĠAbb as
Ġvir uses
ĠLegisl ative
Ġsulf ur
Ġerup ted
Ê »
ĠE lement
Ġad ul
aw ak
Ġcons oles
Ġend emic
Ġspec ially
Ġrock y
Ġ46 0
Ġswe ep
Ġfirm ly
Ġdeliver ing
Ġneut ron
Ġfaith ful
ĠFel ix
ĠAub urn
ĠGuerr ero
ĠKhrush chev
u j
el ius
ĠH ort
ĠD uff
ĠE man
Ġres ume
Ġem issions
Ġdivision al
Ġcorrect ly
ĠExpress way
K O
Ġ à¤
Ġl umin
ĠB il
Ġg ale
ĠL ass
ĠV eter
Ġne uro
ĠAn s
Ġem blem
Ġprof itable
Ġstri ker
ĠVoy ager
ĠSinc lair
Ġb und
Ġal umni
qu is
Ġkn ife
Ġprompt ly
ĠPlan ning
Ġstrand ed
s ay
Ġb ord
Ġnot orious
Ġemb assy
Ġobtain ing
Ġquad rup
ĠKann ada
Ġc ure
ĠT at
ĠT ul
ĠP om
ĠR aven
ĠPh ot
Ġpress ures
Ġshould ers
Ġgrad ual
ĠSol id
Ġrit uals
Ġmush rooms
ĠSyrac use
m al
p ath
ĠM off
Ġpl aque
Ġab n
Ġtrans mit
Ġtrans mitted
ĠAg re
Ġconsult ant
ĠAndre a
Ġmelod ic
Ġmemb rane
Ġunnecess ary
Ġm aj
Ġh ire
ĠH ipp
us k
Ġst iff
ĠR um
av ier
Ġr ats
ĠCom ment
Ġcontin uation
ĠWorld s
Ġlo ans
Ġthir teenth
ĠMat ilda
ĠGi ro
Ġdepict ions
Ġresid ences
ĠHerzegov ina
ĠWemb ley
v ol
Ġl unar
ra ged
Ġle ased
Ġro pe
Ġexp ired
Ġsurv ives
ĠChes apeake
O W
b ands
Ġt ying
if a
ink s
rick en
ĠMid way
ĠMcC l
ĠArt ists
ĠLi u
ĠAbd ul
Ġd ances
ĠT rent
ĠH imm
ĠJ ill
Ġcomp elling
rag ue
Ġdisp ersed
ĠSix th
ĠRepresent ative
Ġuncom mon
Ġfus elage
ĠThurs day
p a
el o
ĠP od
ab we
Ġsp erm
Ġwhen ever
ĠSouth west
ĠPer fect
Ġenc irc
Ġ183 5
ĠClass ical
vest on
ĠKr usty
ĠWy oming
ĠEff ects
ĠBritt any
Ġmerchand ise
Ġf uck
ĠH ew
ĠR ide
ĠL GB
iction ary
Ġenv ision
Ġpath s
Ġdisappoin ting
Ġabst ract
Ġb ust
ĠM ant
ĠH ale
ins ki
Ġed itors
Ġrev ision
Ġpers istent
Ġquant um
ĠNat al
Ġb inary
Ġcomp ass
ok en
Ġcomm ittees
Ġ30 5
Ġdiffer ently
Ġmag ist
lam m
Ġkingdom s
Ġment or
Ġdanc er
Ġemotion ally
ĠFight ing
Ġbesie ged
ĠSes ame
Ġvin yl
Ġre pt
ĠH ook
us ions
ah u
Ġdet ection
ĠChrist ina
Ġhum orous
Ġgr at
lo o
Ġopt ical
ĠWat ts
Ġre acted
ĠR ox
ace y
row ing
ĠBo hem
Ġdiscover ing
Ġhy phae
ĠTrack s
Ġaccur ately
ĠRand olph
Ġconting ent
Ġcurric ulum
ĠLeip zig
ĠS ut
ĠR ough
ĠJ ourney
gh ai
ĠV iv
Ġman ual
Ġperiod ic
ĠOtt omans
Ġshif ts
Ġreserv oir
Ġdepos ited
Ġcoinc ided
ĠVern on
Ġp amph
ĠB rom
ĠH oney
Ġsp iral
Ġcomp uls
Ġsy ll
ĠSh annon
Ġpo etic
Ġrefer enced
ett i
Ġdeterm ining
Ġceleb rities
ĠVen et
Ġconcur rency
ĠBed e
Ġpin ned
Ġbattlecru iser
Ġvamp ire
ĠWander ers
r ice
Ġp unt
ĠG ilm
ĠJ MA
Ġpop ul
Ġentire ty
ĠMag gie
Ġ179 9
Ġmem oirs
Ġdin osaur
Ġdiff ered
Ġbankrupt cy
ĠHutch inson
Ġt idal
Ġb ark
Ġn u
ĠB ates
ĠG ospel
00 0
ĠSt ructure
ug ged
Ġfl att
ris e
by e
ĠChar ac
Ġcirc ulated
ĠGal veston
Ġgoaltend er
Ġtob acco
ĠZimb abwe
Ġt ides
Ġf itness
Ġhalf way
Ġcr ushed
Ġcal ib
Ġintens ification
Ġdismiss al
ĠComple x
ĠTow ards
ĠAber de
e als
Ġw olf
ĠT uls
Ġdec oration
ram ent
Ġimp ed
Ġexpl oring
isher s
Ġconstit uted
Ġtal ented
enh agen
Ã° r
Ġamphib ious
ĠS P
ig ion
ĠN ep
ĠSt yles
ens en
Ġ183 8
ĠGood man
ĠShan ghai
Ġgamb ling
ĠDecl aration
ĠSask at
ĠL ars
Ġlo osely
ien cing
Ġmel ting
ĠProv idence
ĠTasman ia
Ġank le
atab ase
Ġprolong ed
N S
c ill
Ġb io
ĠH ipper
ĠW it
Ġal igned
ĠN WA
op ot
ĠAl leg
Ġsub mission
Ġshort s
Ġtre ason
ux e
Ġrebu ild
ĠGust av
Far lane
1 3
in ished
Ġf ron
ĠA ston
Ġl ac
et ers
iv orous
ĠHe ights
Ġvis ibility
ĠEx eter
Ġsat ire
ĠClark son
Ġfurn iture
ĠPhant om
6 0
b ot
Ġa uxiliary
is y
ĠC it
ĠC ord
orm an
ail able
Ġprot ested
Ġprop ulsion
Ġdiscuss es
ĠTw ilight
Ġmob ility
Ġham pered
Ġerupt ions
Ġcant ata
Ġfru its
Ġtrem end
Ġunbeat en
4 0
Ġc age
ĠD im
Ġun ified
Ġinc on
Ġinc umbent
orm s
Ġlong time
Ġins erted
ĠWest on
Ġident ifying
ĠPe ak
Ġinsp ection
ĠSl ayer
ĠBay ern
Ġ182 9
occ up
Ġell ip
ĠLGB T
ĠC hess
ac ements
ĠM CC
ĠP ain
ĠR ib
Ġint imid
Ġbal anced
Ġlux ury
ĠPitch fork
L L
Ġs urn
ong s
Ġsp rint
ĠRail ways
Ġris ks
ĠSil ent
Ġwa ited
ĠBre ck
Ġrend ering
Ġobst acles
Ġecho ed
Ġt ill
Ġc aut
ĠG anes
Ġsp or
iz ards
Ġen roll
ib an
ĠWar rior
ograph ies
Ġsol itary
Ġpred ator
Ġlab elled
ĠTor ch
ĠBook er
ĠMagn us
chw ader
Ġt rench
ĠB rett
ĠR ican
ĠL ip
ĠG ear
Ġan ten
um er
ĠAugust ine
ĠCar son
ĠPar ish
Ġrank ings
ĠSch olars
Ġexcept ions
ĠTre vor
Ġretreat ing
ĠWeb b
Ġrecru its
Ġcryst als
ĠLook ing
ĠCharac ters
Ġh ab
ĠS aid
ĠB ag
ĠK ant
ĠDavid son
Ġdress ing
ĠAnim als
g ren
u ce
ĠA us
Ġpre tend
Ġph on
Ġsent ences
ĠJul ius
ĠSomet hing
Ġweigh ing
pow der
p ets
Ġt ens
Ġf iles
ph is
Ġfun nel
ston ecraft
ĠParliament ary
Ġexceed ing
Ġreleg ation
Ġartif acts
ĠWoll stonecraft
ĠiPh one
1 8
Ġst ricken
ĠO z
Ġv est
oc o
ast ically
Ġrad i
ĠPres byter
ĠGl ory
Ġsurf aced
Ġspl its
Ġsn ake
ĠCzech osl
Ġinfl ation
Ġansw ered
Ġverte bra
u ana
ar is
st op
ĠF av
ĠE gg
Ġsh rine
Ġsu cc
Ġ20 5
ater al
ĠGe ography
ĠMore no
Ġ41 0
Ġ48 0
Ġliber ty
Ġham mer
Ġsoph om
ĠUk raine
Ġprecurs or
b en
f a
h ot
Ġto y
Ġh ast
ad ian
ast rous
Ġint ensive
Ġtra vers
Ġph arm
Ġlik ewise
ĠNot e
Ġec ology
ĠVishn u
Ġs ap
en za
an ic
al an
Ġp ipe
Ġal ike
ĠL ik
ĠG entle
ast ed
ob il
Ġmin istry
ĠAd van
Ġvis itor
Ġrepl ica
Ġobject ions
ĠMer cy
Ġsett ling
Ġattract ing
agn etic
Ġoutf low
ĠS alford
ag her
ĠSt reets
Ġdis par
ĠY uc
Ġqu ot
Ġprogram mes
Ġ184 2
Ġ183 1
Ġens ued
ĠCa uc
ĠNaz is
Ġdownload s
ĠProg ress
Ġlat itude
Ġrum ours
Ġreprodu ction
r atory
Ġp aired
Ġd w
ĠD ow
ĠF ast
ĠN om
ĠAmeric as
Ġcontin ually
Ġdist ress
Ġown s
Ġmar ching
ĠEmp ress
ĠLad ies
Ġvalley s
Ġintention ally
Ġreprodu ctive
Ġcryst all
Ġhaz ard
Ġunemploy ment
b ons
l if
ã Ģ
Ġm ars
ĠE g
ĠMar ian
Ġend e
Ġdeb ates
Ġexper iencing
Ġfar mer
Ġrecre ation
ĠNik ol
i ew
an ch
Ġp atern
ĠS T
st age
ĠB ie
ly wood
ĠP Ã©
ĠO DI
Ġun av
Ġgun fire
ĠEx change
ids hips
Ġsequ els
ĠSl ant
ĠNot tingham
Ġhero ic
ĠDev ils
Ġhappen ing
ĠChem ical
ĠBatter y
ĠAmaz on
Ġc rick
Ġl ament
Ġdis astrous
ob s
Ġpat ches
Ġgl am
ĠSl am
Ġmarket ed
Ġut ility
Ġbelong s
ĠCop enhagen
Ġspan ning
ĠBomb ay
ĠUndert aker
Ġdec ent
Ġcar riage
Ġinst ant
ĠNorth umberland
ĠApp eals
Ġ180 1
Ġdial ect
Ġinsc ribed
Ġmoist ure
Ġreconstruct ed
ĠWednes day
b ard
k an
k ov
n ance
ut a
Ġrepl ay
Ġinform al
ĠTs ar
e ason
f inger
ar ius
ĠT ip
ĠE cc
Ġ184 3
Ġgrant ing
Ġharm ony
ĠDream s
n ie
Ġw rapped
ĠM oss
im acy
Ġst ressed
ĠL ines
ib ald
ĠSp ike
Ġwar rior
ĠUS AF
ĠÂ ½
ĠReg ular
Ġstri ps
Ġmor ality
ĠAndrew s
ĠSu ccess
Ġrob ust
Ġsubordin ate
onom ous
f ight
Ġa unt
Ġc aves
Ġb og
ĠS ang
ill ance
ĠSt ro
Ġam idships
Ġstory t
ĠHer man
Ġtot als
ĠWil f
Ġexam ine
ĠWinn ip
Ġmarg inal
Ġconve x
r ath
ĠM ell
ĠN ES
Ġor phan
ge on
ĠBar row
Ġtown ship
Ġbow lers
Ġacad emy
ĠPrin z
ĠMetall ica
ĠYuc at
C l
Ġ ãĢ
ut z
Ġst ellar
ran ger
ough ts
ah an
Ġopp ose
ĠComp et
hem atic
Ġbroad side
ĠIm ag
Ġmic roph
Ġrow ing
Ġthorough ly
ĠMonth ly
Ġenzym es
n ar
ĠM az
ĠP ret
Ġal pha
up s
Ġpl aza
Ġsp iders
Ġind ex
ĠRiver a
Ġren umbering
Ġder ives
Ġden y
Ġens uring
Ġ181 5
Ġreun ion
R NA
ot ted
ĠAd vis
ĠId aho
Ġapprec iation
Ġcounteratt ack
ĠCret aceous
it ian
ĠS K
ĠB orne
ĠL uz
up e
Ġde ities
Ġab ortion
Ġsc iences
Ġdis in
ob e
Ġdown stream
Ġprot esters
Ġide ology
Ġlim iting
ĠTest ament
ĠGal axy
Ġmanufact urers
ĠLet ter
Ġisot ope
Ġsuspic ion
Ġfert il
Ġf rozen
Ġm ates
le ased
est e
Ġsu ite
Ġrem atch
Ġimp acts
Ġturn pike
Ġlight ning
Ġheav iest
Ġadvis ories
Ġcens orship
Ġunrel ated
ĠChall enge
er en
Ġc roc
an us
st idia
ĠB ram
ĠB uc
ĠD enn
ĠG ott
ard i
ĠTh ing
ĠCl aren
Ġext ras
Ġcare ful
ĠChar ter
Ġfail ures
Ġmist akes
ĠAI F
Ġjack et
Ġcu is
Ġprosper ity
ĠAgre ement
er ie
Ġf ran
ĠM ys
Ġinc ap
Ġint imate
Ġind ef
Ġinst antly
au kee
Ġident ifies
Ġren ted
Ġreign ing
Ġgrav itational
Ġexcav ated
Ġcourty ard
ĠWinnip eg
i ago
ar f
ac ious
Ġar ches
ins ky
erv ing
Ġexpl oded
Ġindic ation
Ġcoin age
ĠLeg al
Ġir rit
Ġaqu atic
ĠIsab ella
Ġh oly
ĠC age
ĠC unning
Ġn atives
ĠP ole
ĠK ee
und a
Ġsp ider
ign e
Ġinf ect
ĠNo el
bor g
Ġescort ing
ĠVlad imir
ĠGeorget own
Ã Ł
Ġo mitted
Ġin herent
ĠP hel
ĠR ag
ĠL ance
Ġsh oes
rit e
ĠV amp
Ġdisc arded
Ġequ ality
Ġ23 5
ĠOff ensive
Ġcoin ed
ĠFin anc
ĠMiddle ton
Ġteach ings
ĠTa ft
ĠEconom y
Ġchore ography
Ġconcurrent ly
Ġeleph ant
ĠObserv atory
h im
Ġw ag
ĠS ons
ik ing
Ġstrong hold
Ġord in
Ġfood s
Ġconstruct ing
sk irts
ĠKem p
b ank
u um
Ġb ast
ĠT orn
ĠW orth
ag ements
urn al
Ġret al
Ġra iding
Ġind ie
Ġcor rel
Ġcult ivated
Ġball oon
Ġreject ion
Ġ85 0
Ġtall est
Ġtrust ees
Ġcra fts
ĠCov enant
Ġoverlook ing
ĠDart mouth
Ġinex per
b at
am orph
ran es
ind a
Ġep onymous
Ġsl aughter
ĠPol icy
Ġhost ilities
ĠTown s
Ġmission aries
ĠNic ole
Ġretrie ve
Ġbrut al
ĠCai ro
Ġt ang
ĠT ues
Ġst atic
Ġbe et
ĠK w
ĠV ent
Ġro lled
Ġrel ate
ĠWar ning
Ġgrad es
ĠAc ross
Ġinters ecting
Ġfirm s
ĠIb n
at ches
Ġex otic
Ġwe aker
Ġcomm ence
ĠCom merce
Ġexp end
Ġair play
Ġgovern ors
Ġconst ellation
Ġbas al
aut s
ĠAg ent
ĠLoc ke
Ġsuperv isor
Ġgran ite
p us
Î µ
Ñ Ģ
or row
Ġc ents
ĠM is
ĠB A
ĠR az
ĠF resh
ak ov
Ġout skirts
ĠPl atinum
Ġorgan izing
Ġenjoy able
Ġassum ing
ĠLev ine
Ġd itch
ĠB aja
ĠSe venth
ĠCl ose
ĠPar agu
Ġcritic izing
Ġ180 9
Ġcinem atic
D H
p rin
ro vers
ĠS F
ĠR otten
ĠG M
ĠG aming
ĠJ ump
ĠCh o
Ġcl ips
Ġj umped
ĠRe bell
ann ers
ĠPl ain
Ġmark ings
Ġappe als
Ġlik ened
Ġpract ition
Ġpers ecution
Ġ179 4
ĠMaria h
ĠRand all
ĠRO K
ĠPrepar ations
k ill
Ġd ed
Ġh Pa
ĠE instein
rit ion
Ġmen u
ĠMad ras
Ġprob able
Ġmodel ed
Ġ38 0
udd y
ĠDiv isions
ĠComb ined
Ġbot tle
ĠM ih
ĠI A
ĠP ist
ĠL ux
Ġra v
ific ent
ĠGerman ic
Ġsl ide
ĠHer oes
Ġbus h
Ġcoll ided
Ġgra ves
Ġquestion ing
Ġsuperior ity
ĠLeaf s
ĠFact ory
Ġmetall ic
en b
ĠW er
ĠL A
ĠL yr
ĠSt anton
Ġref urb
ĠMon ten
Ġult ra
Ġasp ir
Ġstrateg ies
ĠMatthew s
k ind
Ġf iscal
ĠV id
Ġres isted
Ġup stream
ĠMar ion
Ġoccur rence
ĠAltern ative
i ya
al ley
Ġp ose
ĠM W
Ġun in
Ġam alg
ĠChrist ine
Ġtemper ate
Ġ179 8
Ġresemb led
ĠAlexand ra
ĠMem phis
Ġcock pit
Ġrepet itive
Ġcylind rical
ĠAdvan ced
g ency
Ġb ind
ĠC F
ĠB ols
ĠP emb
Ġst ained
ĠW ords
Ġun ions
Ġteam ed
Ġind oor
Ġpol es
Ġeng agements
ĠBro ken
Ġnovel ist
Ġimm inent
ĠMic key
ĠPop M
ĠField s
ĠAgricult ure
Ġt u
Ġt in
Ġw age
at ics
ĠT ouch
ĠE k
Ġver dict
umb led
Ġz oo
Ġaccess ion
Ġec ological
ĠCow boy
Ġaudition ed
ĠHab sburg
Ġintegr ity
it ement
ĠS ource
Ġ20 3
Ġdist ract
Ġaut o
ĠBar ack
Ġappe aling
ĠNe gro
Ġbar ometric
Ġtow ed
ĠIllust rated
Ġfin anced
Ġburn t
ĠWork ers
Ġsac rific
Ġmemorial s
Ġansw ers
ĠHass ett
Ġmetab ol
Ġpian ist
u h
Ġs a
ĠThe od
ĠI st
ĠL akers
all i
ĠK et
Ġatt itudes
Ġrep uls
Ġinf lict
ĠHar ald
Ġill umin
Ġdiss olution
ĠGib bs
hard t
ĠCornwall is
Ġdreadn oughts
Ġfacil itate
Ġgreet ed
ĠFranÃ§ ois
ĠBism arck
k ers
u ins
Ġp ond
id able
ĠF rost
ond heim
Ġinf lamm
Ġamb ush
ĠEr in
Ġsle nder
ocol ate
Ġdigit ally
Ġineff ective
Ġc odes
Ġp uzzle
et ed
ĠR as
Ġle ak
Ġtr im
ĠEurope ans
ĠRev ival
Ġsurpris ing
Ġkidn apped
1 4
or ers
ĠB reat
ber n
ĠU P
ĠV ari
ĠMcC le
Ġcong reg
ĠMort al
Ġyield ed
Ġforb idden
ĠM old
ĠL oyal
Ġare n
ĠV ett
Ġback s
Ġins ight
ĠÂ ²
ĠX en
ĠRock ets
Ġpersonal ities
Ġemerg ence
ĠLam bert
ĠVerm ont
Ġpreval ent
Ġdestruct ive
ĠClaren ce
Ġse ab
ĠÂ ±
ĠAm ster
ĠEl vis
sp e
Ġtechn ically
ĠBat ista
Ġsomew here
ĠCas ino
Ġsuperv ised
Ġupd ate
Ġanth ology
Ġpeas ants
Å Ľ
at ile
and ra
up er
oin ing
ĠRe bec
Ã© r
ĠIs m
Ġpot assium
Ġviol ated
Ġunc overed
Ġtheat res
Ġsevent y
ĠAlb ania
Ġexpress es
Ġmuseum s
Ġinnov ation
ĠLangu age
c over
at l
Ġp its
Ġst alled
ĠL anding
ĠN g
Ġout n
Ġcor al
ĠMart y
ĠShep herd
ĠWals h
w aukee
Ġex iled
Ġpl asma
ĠEn c
Ġmus c
Ġ22 5
ĠCal iph
Ġvill ains
Ġsex es
Ġdomin ate
gr at
Ġ181 4
Ġ181 9
Ġnob ody
Ġfrust ration
ĠEmer gency
Ġprinc ess
ĠHep burn
c are
Ġf ool
ĠI B
ĠK any
ĠK au
pp e
Ġad olesc
ĠLe h
aj i
ĠCol t
ĠGreen land
Ġbene ficial
Ġintercept ion
sole te
Ġaffili ate
Ġuncom fort
Ġtrunk line
Ġcamoufl age
a ic
Î »
Ġt uber
Ġb anner
Ġm a
le igh
ress es
Ġass erts
Ġmus k
ĠEurop a
sh ine
ĠNe ville
Ġintens ify
Ġstra ined
Ġwebs ites
Ġcool ing
Ġcoordin ated
Ġmini ature
ĠRest oration
Ġspokes man
v ana
ĠT able
ĠA ce
ĠP ond
ĠOn o
Ġunder going
ĠEd g
Ġelect rom
Ġgun nery
Ġaff ects
Ġtre asure
Ġmother s
ĠBry ant
ester ly
Ġcomplic ations
Ġmillimet ers
Ġunexpected ly
ĠFace book
ĠBott om
Ġ ç
ĠH itch
ĠIn form
Ġdis hes
Ġout post
Ġvis ually
Ġpost season
Ġproblem atic
Ġcommission er
Ġdefend ant
Ġunf inished
ĠBon o
agu ar
v als
w alk
Ġb oring
ad vant
ĠR ac
ill as
ong o
Ġcl ients
Ġpre jud
Ġaut onomy
ĠMan it
field s
ĠGro ves
Ġdisp osal
ĠOld ham
ĠMur d
gl ades
lyn n
ĠBark er
Ġconsul ted
ĠCunning ham
ip se
Ġover c
Ġadm iral
Ġfle eing
ĠÃ ĸ
Ġviol in
Ġden ounced
Ġtext ure
Ġ179 3
Ġcert ification
ĠRa o
Ġobsc ure
ĠShir ley
Ġenvision ed
ĠAberde en
Ġn ave
ir ming
Ġst ems
ch us
ul ance
ri o
ĠU g
ĠV ed
og le
ax ies
Ġgroup ed
Ã¡ l
Ã¡ s
d ays
Ġb ail
Ġh ij
ĠT aunton
Ġe ch
th y
ĠG C
ĠE ston
ath i
Ġunder way
Ġexp ecting
omb at
Ġlight ly
ĠThom son
ĠGold man
ĠCart man
ĠEver glades
Ġchrom os
Ġecclesi astical
ĠAmster dam
p ole
r ill
Ġl uc
Ġâ Ĩ
ĠSt am
Ġoff s
ĠSc outs
Ġsix teenth
Ġcult iv
ĠFar mer
Ġcart oons
Ġvirt ue
Ġculmin ating
bu ilding
Ġpsyched elic
ĠT z
Ġre work
ĠP resent
ĠN HC
ĠSh arp
ĠCon versely
Ġdep ressed
ĠZ ach
Ġcontrib utor
II I
Ġsusp ects
ĠInst r
ĠS I
Ġsu ck
ĠY uk
Ġfl uct
ĠBu ild
ĠLand mark
Ġexplos ives
Ġs op
iv ities
ĠL ing
ĠO kin
ast ing
ep ers
Ġcent red
ger ald
Ġvi able
vers ion
ĠEx c
ĠBr uss
ij uana
Ġattract ions
ĠRel igion
Ġshif ting
ĠTun is
Ġoxid ation
ĠBols he
h oe
Ġ ~
st en
Ġmon k
Ġprov oked
Ġposs ibilities
ĠWe in
ĠPer iod
ĠBra un
Ġdead ly
ĠCongress ional
Ġ181 0
ĠProdu cer
Ġtarget ing
ĠEvery thing
ĠEls ewhere
c ats
Ġc um
ĠN uclear
Ġv ector
ĠV HS
Ġchar m
ĠCol ony
Ġmid st
aun ch
Ġacqu iring
ĠWal ton
ĠRod gers
ĠBosn ian
ĠFitz gerald
Ġspar row
ĠNig el
l und
l ining
È Ļ
ist ice
Ġr all
Ġdis organ
ĠPl ans
ĠPe ggy
Ġhun ter
Ġdoub ts
ĠGill ian
Ġdeliber ate
ĠStri ke
Ġenerget ic
Ġl ocks
ĠB rent
id as
Ġal gor
ost ic
ĠCh amp
Ġwhe at
Ġob solete
Ġdispl aying
ĠNap les
ĠAchie vement
Ġd rought
ĠT S
ĠB rest
ĠD ang
ch ron
ag ua
Ġinc ent
Ġinter changes
Ġjust ified
Ġhum ili
Ġfing ers
ĠMoff at
ĠHimm ler
b ath
it ius
ĠI P
ĠE bert
ĠSh oot
its u
Ġtw ist
ĠMed ieval
ĠRh y
bour g
Ġdemonst rations
Ġplanet ary
ĠMot ors
Ġconsc ience
Ġupgrad es
Ġparas ites
ĠSurviv or
ĠRebec ca
Ġt ips
Ġw and
ĠC asc
ĠI OC
ĠP ione
Ġar che
Ġamb ition
ĠRel ief
ĠKey nes
ĠErn st
ĠGene va
ĠMarl borough
Ġthe ology
Ġc ivic
Ġh ood
ĠM ets
ĠB elf
ĠR ita
ĠL ocated
ĠG ul
ke f
Ġchar itable
Ġback wards
Ġground ed
ĠGod win
Ġ177 5
ĠConc ern
ĠBrun o
ĠHumph rey
ĠFinanc ial
U P
Ġs odium
ĠT aking
ĠC yn
Ġup held
Ġconst raints
Ġobs erver
Ġsurround ings
ĠAcad emic
ĠLind say
Ġelimin ating
Ġrob ot
ĠDick inson
Ġanticip ation
Ġflex ible
ĠTud or
b eck
on ne
le en
ĠS ounds
ĠM orm
ĠM ales
et ically
ĠR ash
ile m
Ġfe as
fore st
ĠHigh land
ĠSup port
Ġcost ly
Ġcorrespond ent
Ġsurge on
ĠFil ip
ed o
ar an
Ġp iv
ĠB ax
ĠP ill
ag ogue
ĠK ip
ok i
Ġdis advant
ĠMar se
Ġ15 00
ism atic
Ġref use
Ġprot agonists
iment al
Ġindivid ually
ĠOl ivier
Ġcust omer
Ġagg ression
Ġpan ic
Ġimpl ied
Ġspons or
anth a
Ġadvis or
haw k
Ġdischar ged
Ġmerc ury
elest ial
Ġm aid
ĠIn stitution
Ġen act
ĠCl imate
ĠCan ning
Ġpar ap
ĠEv olution
Ġ179 2
ĠDet ective
Ġcolumn ist
ĠJenn y
Ġol ive
ĠÎ¼ m
ĠC ust
ĠC ertain
ĠC ensus
ĠM oses
ĠH ert
ĠL one
ag asy
ass ment
Ġgovernment al
Ġcr ater
Ġcapt ains
ĠBra ves
ĠNot re
ĠSar awak
Ġdefend ants
Ġpun ish
Ġsight ed
ĠNob le
Ġalter ations
Ġcontinu ity
Ġsus cept
ĠGlac ier
tym ology
il ib
ĠP R
ĠD ru
th on
ok u
ĠPh ase
Ġaddition ally
Ġve in
ĠWil kinson
onst ruction
Ġconcept ion
Ġplant ation
Ġprogress es
ĠVi ol
anth rop
Ġreward ed
Ġredes igned
ĠFern ando
ĠPresbyter ian
ĠBruss els
o os
Ġb ite
ĠP D
ĠP os
ĠW S
ĠN avig
Ġout line
Ġanim ators
ĠMil waukee
ĠLiter ature
Ġmit ochond
Ġtribut ary
Ġreper to
Ġst aging
ĠK oh
Ġj un
ĠY ah
Ġsub du
Ġnumber ing
Ġfound ers
Ġdev otion
que z
ĠHon ours
ĠRome o
ĠEver ett
Ġclim bs
Ġexcav ations
Ġprofession als
ĠSalv ador
ĠBorne o
ĠPopM atters
nd on
Ġd ried
Ġd rif
ĠC umberland
ĠI TV
iv o
ĠH our
pl ant
Ġinf ra
Ġke eper
ĠHigh lands
Ġcat ast
Ġi OS
Ġtouch ing
Ġsevent eenth
Ġinterpret ations
Ġastron omers
ĠAmb assador
ut ies
ab y
Ġdec ree
yl on
Ġage nda
ĠAct s
ĠWild e
Ġrot ating
Ġmamm al
acc ur
C ube
Ġp ec
ĠS ale
ĠThe me
ĠO uter
ĠIn ch
Ġsu its
ĠCh ak
Ġup t
ĠSe v
ans en
ĠCl iff
ĠAle c
ĠSant iago
Ġvac ation
ĠMult ip
ĠBrid g
t ail
v ie
Ġm our
ir ie
ĠR onnie
ĠW enger
ĠN et
Ġun changed
Ġfe eds
Ġmod ification
Ġeight y
Ġarch ipelago
Ġcann ons
Ġfulf ill
ĠJohann es
ĠMunicip al
2 5
v re
Ġm asters
Ġh orm
Ġch ords
ĠSh op
Ġhel met
na i
reg or
Ġlad der
ĠShank ar
f ielder
s m
ĠM are
ĠH uff
art et
Ġpl ains
ĠWh ig
Ġcou ples
Ã¼ hrer
ĠAlb anian
ĠMalays ian
Ġinterven e
ĠPay ne
Ġgram mar
ĠClif ton
ĠSoft ware
Ġembed ded
Ġsophom ore
Ġt iger
Ġc ope
Ġc ites
Ġd irt
ĠB P
ĠI gn
ĠE rik
ber ht
Ġrel ates
Ġpe er
ĠMin aj
ĠChap lin
Ġninet een
Ġdiver ted
Ġow ed
Ġrehears al
ĠHi ros
ĠChop ra
Ġin accur
Ġl ent
Ġas ylum
Ġcont amin
ĠMar co
app ropri
Ġfact o
ĠFre eman
Ġpsych ology
Ġgal axies
ĠEst ab
Ġsan ction
Ġrede velopment
Ġprest ige
ĠParalymp ics
Ġhab its
h arm
Ġl ig
ist ani
Ġsome body
ek s
ĠAll ison
ĠDav en
Ġwall ed
ĠSecond ary
Ġ182 5
ici ary
ĠIran ian
Ġtom bs
ĠCrom well
Ġironcl ad
ĠRegard ing
Ġcorp se
ĠRebell ion
Ġc ree
Ġm ould
Ġd uel
ĠL ana
ab i
ĠK ell
Ġne o
ĠAr gy
ĠSh ock
Ġstation ary
Ġwid ened
Ġmer it
Ġscript ed
Ġ182 4
Ġcatch ing
ĠSav oy
Ġsymp athy
ĠMaj esty
Ġsupple mented
Ġhomosexual ity
Ġbicy cle
ĠAzerbai jan
p ers
r ÃŃ
z an
il ated
st aff
ir ling
Ġcon grat
ĠJ ut
ew ood
Ġapp lying
ps il
ĠAm bro
Ġ21 5
ĠSol o
ĠTim othy
Ġresist ant
Ġ178 9
ĠBeaut y
ĠNass er
Ġmim ic
om al
am bo
ĠB iden
ĠH ag
ĠL ob
Ġcom edic
Ġsh y
ath am
Ġmin erals
enn es
Ġfin ed
Ġpick s
Ġfix ture
Ġdisagre ement
ĠLegisl ature
Ġbapt ism
ĠContin uing
Ġ é
ĠS uk
Ġl aser
ĠM itch
iz arre
Ġwar ming
ĠMcC oy
ĠCamb odia
Ġble w
Ġcriminal s
ĠPak istani
Ġscr ut
enz ie
Ġbure auc
N G
Ġ u
ĠT il
ĠT osh
st ones
Ġl ighthouse
ĠW hed
ant i
Ġdis orders
Ġair ports
Ġrest ing
Ġ180 4
Ġ179 5
ĠTri ang
Ġhun ted
ĠRele ased
Ġru in
Ġconsult ing
Ġobvious ly
ĠLion el
ĠClay ton
ur us
ĠI rene
Ġat om
any a
ĠAb yss
ĠGr im
Ġhit ter
Ġredu ces
Ġmunicip alities
ĠiP ad
Ġredesign ated
ĠFow ler
ĠDors et
m ir
in itely
le af
ĠB S
ut nant
ĠR ings
un s
ĠG ob
Ġbu ck
Ġmat rix
Ġdem ise
Ġpar an
Ġneg atively
ĠCour se
raw l
ĠGo ing
Ġstrike outs
ez vous
Ġalleg iance
ĠPhys ical
at ro
it ivity
ĠT otten
Ġn mi
ĠK art
Ġcl ade
ĠRec ent
ĠSal am
Ġmind ed
ĠDest roy
ĠRever end
Ġrehabil itation
Ġ q
he ed
ic ious
ĠB enson
Ġhe x
ĠU tt
Ġtr unc
amb a
Ġdev ot
ĠMal agasy
Ġmission ary
Ġ182 1
Ġkick off
Ġbreat h
Ġglac iers
ĠCase y
i u
p ro
Ġthe rap
Ġin und
Ġm aiden
ĠS earch
ol ation
ig ue
hes is
ik ini
Ġdem ons
Ġdam s
Ġbas ically
ĠCoast al
ĠWhe el
Ġtrend s
Ġphenomen a
Ġoblig ed
or an
Ġh airs
ĠS ally
ĠAn alysis
Ġhy mn
het amine
Ġceleb rating
Ġ34 0
ĠHel ena
ĠSand ers
Ġsatisf ying
ĠBuff y
ĠAh mad
Ġprol ific
Ġexagger ated
ĠMacD onald
on al
Ġre int
ĠK ombat
ĠAr row
ob ic
Ġins ert
Ġlast s
pris es
ij a
ĠTown send
Ġhun ters
Ġundert ake
ĠLet ters
Ġbutter fly
Ġinherit ance
b ral
om ac
ĠB elt
Ġg lee
ĠE cho
if iers
Ġsp ells
Ġ20 6
ĠCom ing
ĠZ ack
ĠDe e
ĠHer c
Ġtechn ological
Ġinvest ments
ĠÃ ĵ
Ġemploy er
Ġ183 3
Ġsen ators
ĠGra ves
Ġenf orced
ĠColomb ia
ĠSaff ir
b uck
Ġg low
ĠW ord
Ġwh olly
ĠL Ã©
ill ion
Ġsup reme
Ġrel inqu
Ġdepart ing
ih an
Ġtal ents
Ġmand atory
Ġretros pective
Ġcasem ates
Ġtremend ous
i w
Ġst ir
ĠSt re
ĠV ander
Ġout rage
Ġso ils
Ġed it
Ġstat istical
Ġcampaign ing
ĠSch u
Ġrelig ions
Ġ179 7
ĠHung arians
Ġspect ral
Ġexplo it
ĠWolver ines
Ġreperto ire
r ar
t ures
in ers
ar ios
Ġlater al
Ġme g
Ġsing ular
ll a
ĠGeor ges
ĠGro ening
ĠOff ic
Ġtreat ments
Ġphot ographed
Ġmind s
Ġ178 0
Ġtru ce
Ġfolk lore
Ġsurve illance
ĠTitan ic
ĠWilm ington
ĠCly de
ĠEuras ian
Ġm ol
Ġh aven
Ġl uck
Ġn ude
Ġg ill
ra ul
ish a
ek a
Ġins ign
ĠCar m
ĠPro per
Ġexpl ores
ĠBro oke
Ġnight cl
uff ed
Ġcompens ate
ĠâĨ Ĵ
at aka
es is
ĠT ate
ĠC B
Ġe man
ĠThe mes
Ġst re
Ġhe aling
ĠL if
ĠV il
ĠY o
Ġret ains
ĠGl aston
Ġconclud e
Ġ180 5
Ġ180 6
Ġmax im
ĠWrit er
Ġathlet ics
ĠGriff ith
ĠPic ard
Ġuncomfort able
es ome
ĠT ry
ĠP oul
ĠR ising
pt ical
Ġdes k
ph abet
Ġme al
Ġtra gic
Ġequ ation
ĠCal d
Ġappoint ments
Ġthe sis
el ly
Ġn an
ĠH ole
ĠK ab
Ġday light
Ġsl am
Ġcor rupt
ĠTer ror
ĠBet a
Ġang ered
Ġess ays
Ġdefin itive
Ġwel ding
ĠEug en
ĠVick ers
Ġunanim ously
R L
ĠC rew
Ġg ymn
ĠP rague
ĠD as
Ġsp r
Ġshort ages
Ġcommun ists
Ġvol ley
less ness
quar tered
Ġsculpt or
ĠMaur itius
Ġsear ched
Ġanx iety
ĠMoz amb
Ġcroc od
ĠTues day
I P
ĠS EC
ĠC oin
ĠF ew
Ġfl ames
ĠCon an
ĠPr att
Ġrac ism
ĠExt ra
Re illy
p end
r ade
Ġh iring
Ġg onna
Ġse ap
ov al
ĠBy r
ĠKn own
Ġfinanc ing
Ġaim ing
Ġconfirm ation
Ġsher iff
ĠDaven port
ĠT ah
ĠH BO
Ġcon gestion
ist on
Ġle isure
Ġem ission
Ġrest oring
Ġcomment ator
ĠPat terson
Ġimm ort
Ġmaster piece
ĠÎ ±
Ġdecor ations
Ġvolunte ered
Ġfold ed
g il
g ra
ĠC ull
ĠH ogan
ĠN ell
oc ative
ĠIs s
ĠGu in
ox ide
Ġview ership
Ġtrad ers
Ġboard ed
ĠEr lew
Ġbank ing
ĠHan over
Ġeval uation
ĠNad u
Ġdisappear ance
ĠErlew ine
Ġw avel
it ism
ĠT oul
Ġl ing
ĠI w
Ġst ole
ĠF ry
ĠN W
ĠY es
Ġinter fer
ĠRe vel
Ġdiffer ing
ĠMon k
Ġemploy ing
Ġbreak away
ĠMac don
Ġpick ing
ĠCharl eston
Ġlegend s
ĠStevens on
Ġconven ed
Ġelong ated
ĠGlaston bury
w ord
ĠP t
ĠF oss
ĠEn s
Ġra ided
Ġmon itors
ĠPl uto
ĠFl otilla
Ġbar rage
unk ers
Ġfort unes
Ġang ular
ĠCr iminal
ĠAlam os
Ġb il
Ġex its
Ġsc rew
ĠMal vern
Ġaltern ating
Ġcontend er
L U
f oot
Ġ ^
ĠS M
Ġen velop
ĠAr j
ubl ished
ĠBo one
Ġvarious ly
ĠSan ct
ĠCont rovers
Ġcommission ing
Ġ300 0
ĠAnt io
ĠCatholic ism
ĠPot omac
roph ic
ĠKyl ie
S h
as urer
ĠT ran
im ated
ĠW augh
ĠCh ip
Ġcar c
gg ing
ĠBlack s
Ġprem ises
Ġir rig
Ġwars hip
ĠInn oc
ĠHond uras
ĠSuff olk
1 7
C onn
ar ium
ĠB onnie
ĠIn ner
ip ed
Ġ29 0
Ġtreat ing
Ġproduct ive
ĠArm oured
ĠColon ial
Ġdecre asing
ĠNick el
ĠCart oon
ĠBol lywood
Ġingred ients
ĠBreck in
e i
m ere
Ġ ions
ĠM ud
ol and
ol son
ĠH orses
ĠR esc
ĠAl ger
act ory
man ship
ang o
ook s
Ġgro ove
Ġcar b
uk ov
Ġesc aping
Ġmot iv
Ġmal aria
Ġkilog ram
ĠKany e
b ins
ĠF ritz
ĠG le
ich o
ĠK atherine
ĠTh ur
Ġdec ks
Ġinv ade
ĠAm ber
rig an
Ġgrad uates
Ġcriticism s
Ġautom obile
Ġaccomplish ments
Ġwavel ength
m aker
o it
Ġo val
ĠB ly
ĠP oor
ĠG ir
od ont
ran ged
af i
Ġ27 5
Ġten or
Ġsex y
Ġcommercial s
ĠFort ress
ĠHy der
Ġastron omical
Ġnom inal
Ġtack les
ĠLen in
Ġunanim ous
ĠRodrig uez
ĠSche er
Ġware house
Ġdup lic
ro be
ĠB ene
ĠK ash
Ġy e
Ġun se
Ġapp ar
Ġout right
Ġsal mon
Ġge ographic
Ġ61 0
Ġrehears als
ĠNass au
1 6
w aters
Ġ ul
Ġpl enty
ĠSc ream
Ġpop e
ĠCar ne
Ġref ined
ĠInter active
ĠBrad y
Ġeth anol
ĠRain bow
Ġimprov ised
Ġo urs
le z
ver age
em ann
ĠG oes
Ġcomb ines
Ġpeak s
Ġbad ge
oura ged
Ġglob e
ĠCre ation
ĠNi agara
haw ks
Ġpip eline
eli hood
Ġc ass
Ġd well
Ġst int
ĠD ix
ĠN E
ron es
ĠRe x
ĠPol es
Ġadm it
ĠBen ch
ĠMill ion
Ġpal m
ĠPhill ip
ĠTal bot
ĠJar rett
ĠWess ex
Ġundef eated
2 4
ĠC ory
ĠN ir
Ġover head
old ing
Ġexp ans
Ġany way
ĠCol ts
Ġdest inations
Ġcult ivation
ĠPer haps
Ġcy t
ĠFle m
ĠGi ov
ĠBor is
ĠAv atar
ĠSac rament
Ġscr atch
Ġoverlook ed
ĠSoph ia
ĠPhel ps
ĠVett el
u o
Ä ĳ
Ġg lands
ĠF ig
ian ces
pl us
ĠUn cle
ll er
Ġdown grad
ĠCal ais
yn t
Ġdev il
ĠBer ger
ĠTom atoes
Ġprec isely
ĠOs wald
Ġcouncil s
ĠEp stein
Ġcatch y
Ġturb ine
ĠRook ie
c s
ĠS as
ent on
ĠC av
ĠC over
ĠSt ones
rop ods
Ġfl anks
ĠPr act
ĠQu ick
ĠLaw s
ĠHun ters
Ã¸ r
Ã± o
Ġb urg
ĠA V
id y
ĠI z
ĠR ous
ĠW igan
os o
Ġste amer
ĠQu ater
Ġconvin ces
ĠParalymp ic
Ġchlor ide
Ġsty led
ĠA in
ig ma
Ġpro st
Ġdet ention
Ġcompet itor
iec es
Ġbomb ed
Ġ183 4
Ġyour self
Ġremix ed
Ġdim ension
ĠCrow ley
l ov
is se
ĠT in
ad h
ĠF erm
Ġr het
Ġk in
ia e
oy ne
Ġend ured
ident ified
ves ter
Ġlog ic
book s
ĠBed ford
Ġairfield s
Ġboot s
Ġoverth row
Ġremaster ed
Ġcuis ine
ĠLyr ically
ĠManit oba
ĠB ung
us ement
ĠR umble
Ġr amps
Ġcoll ar
Ġexc itement
Ġprem ature
Ġfur ious
ĠVaugh an
y ch
he art
al is
Ġfor aging
ĠH ib
ĠE state
Ġmon etary
Ġbro w
Ġinf ections
ĠAb ove
rag on
Ġconsum ers
Ġoverwhel med
ĠInvest igation
Ġmant le
ĠOkin awa
ĠMacdon ald
ĠQuater mass
Ġt s
Ġf ence
th ms
ap arte
ĠK ru
lect ric
Ġfin ishes
Ġlet ting
ĠRes erv
Ġcomplex es
Ġreason ing
Ġrend ezvous
Ġrig id
Ġrevel ation
Ġump ire
ĠC otton
op a
ew orth
ĠU se
ĠRe formation
Ġpres eason
ĠBe ech
ĠSy nd
ĠHam let
Ġmo ons
Ġvertebra e
d ad
Ġt iles
ĠM T
ĠM uss
ĠV ision
ĠRe qu
Ġdep osed
ern er
Ġbel ly
ourn als
ĠGar rett
ĠMa o
Ġfresh water
ĠEver ton
Ġmorph ology
Ġcompat ible
ĠMultip le
ĠAmbro se
b ase
ĠI M
ĠCh ange
oph on
Ġblood y
Ġveget ables
Ġphr ases
ĠRoc kef
ĠLik ewise
n otes
Ġl ions
ĠG amb
ĠN ina
ond a
ĠChar ity
sc he
Ġamb itions
Ġign or
Ġtiss ues
ĠExper ience
ĠÏ Ģ
Ġinterf ere
ĠYucat Ã¡n
ilib rium
I n
el ope
Ġn ons
ec uted
ly ss
Ġal ign
Ġshe er
Ġkn ights
ody n
ĠRep orter
ĠMcC ay
ĠCirc us
Ġpreced ent
Ġvolcan oes
Ġchemical s
Ġlad ies
Ġprosp ects
Ġcrick eter
R E
b les
l ar
Ġp all
Ġbe ef
ĠD irection
ĠL ap
ĠO K
Ġag round
Ġj umps
Ġover run
ĠCom et
Ġshow case
Ġrest art
ĠAnd ri
af ia
ĠMan ila
ĠCanad ians
Ġsepar ating
Ġlif elong
ĠMir anda
ĠKer ry
Ġpron unciation
ĠAnat omy
Ġderiv ative
ĠPix ar
al ach
Ġd atabase
ĠA ccess
Ġn oun
ĠB uzz
ow itz
ĠL ec
est a
vi ated
ik ovsky
ling er
ĠMe gan
Ġdet ained
Ġprop elled
Ġpress ing
ett o
ĠHam m
ãĥ «
Ġ182 8
Ġagg ress
oz o
ĠRem ember
ĠHere ford
ĠRey es
ĠHem isphere
Ġautobi ographical
ĠRat ings
c ons
Ġo mn
ĠI o
ĠR KO
her ical
op ath
lud es
Ġover ly
Ġinter vals
ft ime
ĠRe in
ĠSh Åį
Ġ31 0
Ġadminist rator
ĠSum mit
Ġillust ration
ĠRang er
ĠBuddh ism
ĠKub rick
Ġchim ney
ĠTotten ham
B i
n ell
Ġc ripp
Ġp od
st reet
ĠC ope
am ily
ĠD res
ce ans
ĠW ine
ĠG ris
and ro
ĠAs hes
Ġhead quartered
Ġrest ed
ĠPr ide
Ġbar ons
Ġbar rels
ĠMil ky
Ġhero ine
Ġ74 7
Ġimpl ies
Ġstret ching
Ġdecor ative
Ġcatal ogue
Ġunre leased
abul ary
Ġw is
ro le
Ġch ased
ĠK iller
Ġgu idelines
ĠIs h
ĠEd dy
Ġlist ened
ĠHol iday
uff s
ĠBr as
Ġspok esp
Ġfisher men
Ġpip es
Ġjew el
ĠKarn ataka
Ġreprin ted
Ġsurn ame
Ġthe ft
er un
ĠI ch
ĠF lynn
ew ater
Ġcons ume
Ġcur tain
Ġtotal ing
ĠNort heast
Ġtur tle
ĠCarl isle
Ġess ence
ba um
Ġexerc ised
ĠRow land
Ġreluct antly
ĠTob y
Ġassum ption
Ġmasc ul
Ġpist ol
Ġinver te
Ġstoryt elling
ĠWhed on
or se
ĠB ound
Ġbe es
ĠR it
ĠF ay
Ġcomp ares
ĠMar ina
Ġchar ging
ĠBrit ten
Ġmat hematic
Ġfif teenth
Ġhost age
gr ass
ĠLy on
Ġhear ings
Ġplate au
ĠVul can
Ġlibr aries
Conn or
g io
g iving
l ian
Ġin appropri
ĠL ark
pl ate
Ġinter mitt
ll an
Ġ181 6
ĠRun ning
Ġfear ing
Ġteen agers
ĠPriv y
ĠIndivid ual
ĠMozamb ique
p ox
Ġw rought
ĠM uk
ĠG an
ĠN ike
ĠE z
Ġex ported
ĠK aw
ind y
ual a
az ed
Ġext r
ae a
ĠMy ers
Ġvill agers
Ġneg lected
Ġclear ance
ĠTw elve
Ġconver ting
Ġhyd raul
Ġconsp ic
for ward
ĠConserv atives
nae us
Ġtraff icking
Ð ½
Ġd irty
ĠB agh
Ġg ut
Ġst amp
ĠR C
ĠR ory
