#version: 0.2 - Trained by `huggingface/tokenizers`
Ø §
Ù Ħ
Ù Ĭ
Ġ Ø
Ù ħ
Ø§ ÙĦ
Ù Ī
Ù Ĩ
Ġ Ø§ÙĦ
Ø ±
Ø ª
Ø ©
Ø ¯
Ù ģ
Ø ¨
Ù ĩ
Ø ¹
Ø ³
Ù ĥ
Ù Ĥ
Ġ Ùħ
Ġ ÙĪ
ĠØ§ÙĦ Ø
Ø§ Ø
Ġ Ùģ
ĠØ ¨
ĠØ £
ÙĬ Ø©
Ġ .
Ø Ń
ĠØ Į
ĠØ ¹
Ø§ ÙĨ
ĠÙģ ÙĬ
Ġ ÙĦ
Ø ¬
Ù ī
ĠØ§ÙĦ Ùħ
Ø§ Øª
ĠØ ª
ĠÙħ ÙĨ
ÙĬ ÙĨ
Ø ·
Ø µ
Ø§ Ø±
Ø§ Ùħ
Ø ´
ÙĦ Ùī
Ø ®
Ġ ÙĬ
ĠØ ¥
Ø ²
Ġ Ùĥ
Ùĩ Ø§
Ø £
Ø ¶
Ø «
ÙĬ Ø±
ĠØ§ÙĦØ £
ÙĪ ÙĦ
ÙĪ ÙĨ
ĠÙĪ Ø§ÙĦ
Ø °
ĠØ Ń
Ø± ÙĬ
ĠØ§ÙĦ Øª
Ø§ Ø³
ĠØ ³
Ø§ Ø¯
ĠØ§ÙĦ Ø¹
Ġ Ùĩ
Ø º
Ø§ Ø¨
Ġ ÙĤ
ÙĪ Ø±
Ġ ÙĨ
Ġ 1
ÙĦ ÙĬ
ĠØ¹ ÙĦÙī
Ù ĭ
Ø§Ø ¡
Ø§Ø ¦
Ùħ Ø§
ĠØ ¬
Ġ "
ĠÙĦ ÙĦ
Ø¯ ÙĬ
ĠØ£ ÙĨ
ĠØ§ÙĦØ Ń
ĠØ¥ ÙĦÙī
ĠØ§ÙĦ Ø³
Ø§ Ø¹
Ùģ ÙĬ
ĠØ§ÙĦ ÙĤ
ÙĦ Ùĥ
ĠØ ¯
ÙĪ Ùħ
ĠØ§ÙĦ Ø¨
Ġ )
Ġ (
Ø± Ø¨
Ø ¸
Ø§ Ùģ
ĠØ ±
ĠØ ´
ÙĬ ÙĦ
Ù ĳ
ĠØ§ÙĦØ ¬
Ù İ
Ø§Ø Ń
Ø¯ Ø©
Ø³ Øª
Ø± Ø©
Ġ 2
ÙĬ Ø§
ĠØ§ÙĦ ÙĨ
ĠÙħ Ø¹
Ø¨ Ø±
ĠØ¨ Ø§ÙĦ
Ù ı
Ùĩ Ùħ
Ø§ ÙĤ
ĠØ§ÙĦØ ´
ĠØ ®
Ø¹ Ø¯
ĠØ§ÙĦØ ¥
ĠØ¹ ÙĨ
ÙĦ Ùħ
ÙĪ Ø³
Ø ¥
Ø¹ Ø©
Øª Ùħ
ĠØ§ÙĦ Ùĥ
Ġ1 9
ĠØ§ÙĦ Ø¯
Ø± Ùĥ
ÙĤ Ø¯
ÙĬ Ùħ
ĠØ§ÙĦ Ùģ
ĠØ¹ Ø§Ùħ
Ø§Ø ¬
ÙĪ Ø¨
ÙĪ ÙĬ
ĠØ§ÙĦ Ø±
Ø§ÙĨ Øª
Ø ¦
Ġ :
Ø§Ø³ Øª
ĠØ£ ÙĪ
0 0
Ùħ ÙĨ
Ùħ ÙĦ
ÙĪ Ø¯
ÙĬ Ø³
ÙĬ Ø¯
ĠÙĩ Ø°
Ø§ Ùĥ
Ùħ Ø©
ĠØ§ÙĦØª ÙĬ
Ø³ Ø¨
Ø§Ø ·
ÙĦ Ø©
Øª Ø±
ĠØ µ
Ø¨ ÙĬ
ÙĤ Ø©
ĠØ ·
Ø¨ ÙĦ
Ġ -
ĠØ§ÙĦØ ®
ĠØ§ÙĦØ °
ÙĦ Ø§
ĠØ °
Ùĥ ÙĨ
Ùĥ Ø§ÙĨ
ÙĪ Ø¬
Ø§Ø µ
ĠØ§ÙĦØ µ
ĠØ¨ ÙĨ
ĠÙĪ Øª
ÙĪ ÙĤ
ĠØ º
ÙĪ Ø§
Øª ÙĬ
Ø´ Ø±
Ùħ Ø±
Øª Ùĩ
Ø ¤
Ø® Ø±
ØŃ Ø¯
ÙĨ Ø©
ĠÙĪ Ø£
Ø§ÙĨ ÙĬ
Ø§Ø ²
ĠØ§ÙĦ ÙĦ
ÙĪ Ùģ
Ù Ĳ
ĠØ§ÙĦØ «
ÙĬ Ø§Øª
Ø§ Ùĩ
Ùĥ ÙĦ
ĠØ «
Ø¯ Ø±
ĠØ§ÙĦØ ·
ÙĪ Ø¹
Ø¯ Ùħ
Ø³ ÙĬ
Ø³ Ùħ
Ø§Ø ¶
ÙĪ Øª
ĠÙħ Ø§
ĠØ¨ ÙĬÙĨ
ĠÙĪ Ùĩ
Ø¬ Ùħ
Ø§ÙĦ ÙĬ
ĠÙĥ Ø§ÙĨ
Øª Ø¨
ÙĤ ÙĬ
Ø³ ÙĦ
Ø§ÙĦ Ùħ
ÙĦ Ùģ
Ø¯ ÙĬÙĨ
Ø¹ ÙĦ
ÙĨ ÙĬ
ÙĬ Ø«
Øª ØŃ
Øµ ÙĦ
Ø§Ø ®
Ø§Ø «
Ø§Ø± ÙĬ
Ùĩ Ø±
Ø§Ø± Ø©
Ø¨ Ø¯
ĠØ§ÙĦÙħ ÙĨ
ĠÙħ ØŃ
ĠÙĦ Ùħ
ĠØ£ ÙĬ
Ø¹ Ø±
ĠÙĪ Ùħ
ĠØ¨ Ø¹Ø¯
Ùĥ Ø±
ÙĦ Ø§ÙĦ
ĠØ§ÙĦØ° ÙĬ
ÙĬØ± Ø©
Ø± ÙĨ
ĠØ§ÙĦ ÙĪ
ÙĨ Ø¯
Ùĥ ÙĪÙĨ
ĠÙĩ ÙĪ
ÙĬ Øª
ÙĬ Ø¹
Ġ2 00
Ø§ÙĨ ÙĬØ©
ĠØª ØŃ
ĠÙĩØ° Ùĩ
Ø§Ø ´
Øµ Ø±
Ùİ Ùĳ
Ù Ģ
ĠÙĩ ÙĬ
Ø¹ Ø¶
Ø¬ ÙĦ
ÙĤ ÙĦ
Ø« Ø±
ÙĬ ÙĪ
Ø§Ø¯ Ø©
Ø« ÙĦ
Ġ Ø§Ø³Øª
Ø¨ Ø©
ĠØª Ùħ
Ùħ Ø§ÙĦ
ĠØ ¢
ĠØ° ÙĦÙĥ
Ø¯ÙĬÙĨ Ø©
Ø¯ÙĬ Ø¯
ĠØ£ Ùĥ
ĠØ ²
ĠÙĩØ° Ø§
Ø£ ÙĨ
ĠØŃ ÙĬØ«
ÙĬ Ùģ
Ø· ÙĦ
ĠØ ¶
ĠØ¹ ÙĦÙĬ
ĠÙĪ Ø¨
Ø³ Ø±
ĠØ§ÙĦØ º
Ùĩ Ø¯
ÙĪ Ùĥ
Ø· Ø©
Ø± ÙĤ
ÙĬ Ø²
Ġ2 0
ĠÙĥ ÙĦ
Ø¹ Ø¨
ÙĪÙĦ Ø©
Ø§Ø¯ ÙĬ
ÙĪ ÙĬØ©
Ø¯ Ø¯
Ø¥ ÙĨ
ÙĪ Ø±ÙĬ
Ø± Ø¶
ĠÙĦ Ø§
Ø±Ùĥ Ø©
Ùħ Ø¯
ĠØ§ÙĦ Ùĩ
Ġ Â
ĠÙĪ ÙĬ
ÙĪ Ø§Øª
ĠÙħ Øª
Ġ Ø§ÙĨ
Ø° Ø§
ÙĨ Ø§
ĠØ§ÙĦØ£ Ùħ
Ø±ÙĬ ÙĤ
ĠØª Ø¹
Ø§Ø³ Ùħ
ÙĪ Ø²
ĠÙĪØ§ÙĦ Ùħ
Øµ Ø¨
Ġ 3
ĠØª ÙĤ
Ġ /
ĠØ¨ ÙĦ
Ø± ÙĬØ©
Ø§Ùģ Ø©
Ùģ Ø±
ØŃ ÙĬ
Ø¬ Ø©
ÙĨ Øª
ĠÙĥ Ø§ÙĨØª
Ø® Øµ
Ø° ÙĦÙĥ
Ø³ Ø©
Øª Ùī
ĠÙĪ ÙĤ
ÙĪØ± Ø©
ĠÙħ ÙĤ
ĠØ¨ Ø¯
ĠÙĪ Ø¬
Ø¹ Øª
Ù Ĵ
Ùģ Ø³
ÙĪ ÙģÙĬ
Ø£ Ø³
ĠÙħ Ø±
ĠØ³ ÙĨØ©
ĠÙħ Ø³
Ø¦ ÙĬØ³
ĠÙĤ Ø¨ÙĦ
ĠØ£ Ùħ
Ġ20 1
ÙĨ ÙĬØ©
Ø ¡
ĠØ§ÙĦÙħ Øª
ÙĦ Ø¨
Ùģ Ø©
Ø±Ø¨ ÙĬØ©
ĠÙĦ Ùĩ
ĠØ§ÙĦØ ²
ĠÙĪ Ø¹
Øª ÙĦ
ĠØ® ÙĦØ§ÙĦ
ĠØ§ÙĦ ÙĬ
ØŃ Ø©
Ø±ÙĬ Ùĥ
Øª ÙĩØ§
ĠØ§ÙĦÙħ ØŃ
ÙĬ Ø´
ĠØ§ÙĦÙħ Ø¹
ĠÙĪ Ùĥ
Ø®Ø± Ùī
ĠØ¹ÙĨ Ø¯
Øª Øµ
ĠØ¨ Ùħ
Ø§Ø±ÙĬ Ø®
ÙĬ Ùĥ
Ø¶ Ø§
Ø³ Ø·
Ø§ÙĦ Ø©
ĠØ¨ Ø¹Ø¶
ĠØ¨ Ø±
ĠÙħ Ø«ÙĦ
ĠØ§ÙĦØ¹ Ø§ÙĦÙħ
Ø´ ÙĥÙĦ
ĠØ³ ÙĬ
ĠÙĤ Ø¯
ĠØ¹ Ø¯Ø¯
Ø§Ø± Ùĥ
ĠØ¥ ÙĨ
ØŃ Ø±
ĠØŃ ØªÙī
Ø§ÙĦ ÙĬØ©
ĠÙĬ Ùħ
ĠÙĦ Øª
ĠÙĪ ÙĦ
ÙĤ Ø±
ĠÙĦÙĦ Ùħ
ĠØ£ Ø¨
Ø· ÙĤØ©
ÙĪÙĦ Ø§
ÙĪ Ø¶
Øª Ø§Ø¨
ĠÙĪ ØŃ
Ø® ÙĦ
ÙĬ Ø¨
Ø· Ø±
Ġ1 8
ĠÙĥ ÙħØ§
ĠØº ÙĬØ±
Ø¬ Ø±
ĠØ« Ùħ
ĠØ§ÙĦÙħ Ø³
Ø² ÙĬ
ĠÙĪÙĩ ÙĪ
ĠØ§ÙĦØ ¢
Ø« ÙĬØ±
ÙĦÙĬ Ùħ
Ø® Øª
ÙĪ Ùĩ
Ùĥ Ùħ
Ø§Ø¦ ÙĦ
Ø® Ø¯Ùħ
ĠÙĥ Ø¨
ĠÙĬ Øª
ĠØ¬ Ùħ
Ø§Ø± Ø§Øª
ĠØ£ Ø³
ĠØ§ÙĦÙħ Ø±
Ġ 4
Ġ ÙĬÙĨ
Ø§Ø¦ ÙĬØ©
Ø® Ø¯
Ùģ Ø¶
Ø¹ ÙĬØ©
ĠÙĪ ÙħÙĨ
Ø§ Ø©
ĠØ§ÙĦØ¹ Ø§Ùħ
ĠÙĬ Ø¹
ÙĪ Ùī
Ġ ,
ĠÙħ Ø³Øª
â Ģ
Ġ %
ØµØ¨ ØŃ
Øµ Ùģ
Ø§ ÙĬ
Øª Ùģ
ÙĪ ØŃ
ÙĤ Ø·
ĠØ³ Ø¨
Ø§Ø¦ ÙĬ
ÙĪ Ø§ÙĨ
ÙĪ Ø§ÙĦ
ÙĦÙĥ ÙĨ
ÙĪ Ø¹Ø©
ĠØª Ø´
Ø¹ Ùħ
ĠÙħ Ø¯ÙĬÙĨØ©
Ø¹ ÙĬ
ÙĨ Ø§Ø¡
Ø¸ Ùħ
ĠÙĪØ§ÙĦ Ø£
Ġ Ø§ÙĨØª
ĠØ§ÙĦÙħ Ø³Øª
ĠØ¹ Ø¨Ø¯
ĠØ¯ Ø±
Ø¯ Ø§
ĠØ§ÙĦØ¥ ÙĨ
ÙĦ ÙĬØ©
ĠÙĪ ÙģÙĬ
ĠÙħ Ø¨
ĠØ£ÙĨ Ùĩ
Ø§Ø¹ Ø©
Ġ 5
Ø³Ø¨ Ø©
ÙĪ Ø©
Ø§ÙĦ Øª
ĠÙĪ ÙĨ
ĠØ£Ùĥ Ø«Ø±
Ġ19 9
ÙĪØ± ÙĬØ©
ĠÙħ Ø¯
Øº ÙĬØ±
ĠÙĪ ÙĤØ¯
ĠØ¨ ØŃ
ĠÙĬ ÙĤ
ĠØª ÙĨ
ĠÙĪÙĩ ÙĬ
ĠÙĪ Ùģ
ĠØ§ÙĦØ³ ÙĬ
ĠØ£ ÙĪÙĦ
Ø±Ùĥ Ø²
ÙĨ ÙĪØ¨
ĠØ§ÙĦÙħ ØªØŃ
ĠØ§ÙĦÙĦ Ùĩ
Ø ¢
ĠØ§ÙĦØ¨ ÙĦ
ÙĤ Ø§
ĠØ§ÙĦØ£ ÙĪÙĦ
Ø± Ø¯
ĠØ¨ Øª
Ø¨ Ø§Øª
Ø¸ Ø§Ùħ
ÙĪ ÙĦÙī
ĠØ§ÙĦØ£ Ø³
Ø³ÙĦ Ø§Ùħ
ĠÙģÙĬ ÙĩØ§
ĠÙĪ Ø§ØŃ
Ø¦ Ø©
Ø¨ÙĦ Øº
Ġ Ø§Ø¨
ÙĨ Ø§Ùĥ
ĠØ¨ Ùĩ
Ø³Ø¨ Ø¨
ĠÙĪØ§ÙĦ Øª
ĠÙĦ Ø£
Ġ 6
Ø®Ø¯ Ø§Ùħ
Ø§Ø± Ø³
ĠÙħ Ø´
Ùħ Ø¨Ø±
Ø§Ø º
ĠØ£ Ø¹
ĠØ§ÙĦØ¨ Ø±
ÙĬ ÙĬÙĨ
ĠÙĪ ÙĦÙĥÙĨ
ÙĪ Ø·
ĠØª Øª
ÙĪ Ø§Ø±
ĠØ£ ØŃØ¯
ÙĦ Ø§Ø«
ÙĬ ÙĤ
Øº Ø©
ĠØ¹ ÙħÙĦ
ĠØ§ÙĦØ³ ÙĦ
ÙĪÙħ Ø©
Ø« Ùħ
Ø®Øª ÙĦÙģ
Ġ âĢ
ĠØª Ø±
Ùħ Ø³
ĠØ£ÙĬ Ø¶Ø§
ĠØ§ÙĦ Ø§Ø³Øª
Ø§ÙĦ Ø¨
Ùģ Øª
ÙĬÙĦ Ø©
Ø° Ùĩ
ĠØ¹ Ø´Ø±
Ù į
ĠÙħ Ø¬
ĠÙħ Øµ
ÙĤ Ø§ÙĦ
ĠÙĪ Ø³
Ø§ÙĨ ÙĬØ§
ĠØªØŃ Øª
Ùģ ÙĦ
ĠÙĬÙħ ÙĥÙĨ
ĠÙĪØ§ÙĦ ØªÙĬ
Øª Ø´
ĠØ§ÙĦÙħØªØŃ Ø¯Ø©
ĠØ¨ Ø´ÙĥÙĦ
ĠÙĪ ÙĦØ§
ĠØ§ÙĦØ ¶
Ø§Ø³ Ø©
Øº Ø±
ĠØ³ ÙĨ
ĠØ¨ Ø£ÙĨ
ĠØ§ÙĦÙħ Øµ
ĠÙĦ ÙĬ
ØŃ ÙĪ
ĠØ§ÙĦÙħ Ø¬
Ø¯ ÙĬØ©
ĠÙģ Ø±
Ø§Ùħ ÙĦ
ĠÙĨ ÙģØ³
Ø±Ø¨ ÙĬ
ÙĪØ³ Ø·
ĠÂ »
ĠØ£ Ø®Ø±Ùī
ĠØ§ÙĦÙĤ Ø±ÙĨ
ĠØ§ÙĦÙħ Ø¯
ĠÂ «
ÙĪ ÙĤØ¯
Ø§Øµ Ø©
ĠØ Ľ
Ø§Øª Ùĩ
Ø¨ ÙĬØ©
ĠØ¨ ÙĬ
Ùĩ Ø©
ĠÙĪ Ø±
ĠÙħØŃ ÙħØ¯
Ø² Ø©
ĠÙĪ Ø¥
Øª Ø¯
Ø§Ø³ ÙĬ
ĠØ¨ ÙĩØ§
ÙĬ Ø·
Ø§Ø± ÙĬØ©
ĠÙĪ ÙĥØ§ÙĨ
ĠØ§ÙĦÙħ Ø¯ÙĬÙĨØ©
ÙĦ ÙĤ
ĠØ§ÙĦØ¬ Ø²
ÙĪØ¬ Ø¯
Ø§Ø °
ĠÙħÙĨ ÙĩØ§
Øµ ÙĪÙĦ
ĠØ§ÙĦÙħ Ø´
Øª ÙĬÙĨ
Ø¶ Ø§ÙģØ©
Ø§ ÙĬØ©
ĠØ§ÙĦÙħ ÙĪ
Ø§Ø³ ÙĬØ©
ĠØ§ÙĦØ¹ Ø±Ø¨ÙĬØ©
Ø¹ Ø§Øª
Ùĥ Ø³
ĠÙģ Ø¥ÙĨ
ĠÙĬ ØŃ
ÙĬÙĨ ÙĬ
ĠÙĥ Ùħ
Øº Ùħ
ĠÙħ Ø¬Ùħ
Ø§Ùħ Ø¹Ø©
Ġ19 8
Ø§Ø¨ Ø©
Ø§ÙĤ Ø©
Ø§ØŃ Ø©
ĠÙĬ ØªÙħ
ĠØª Øµ
e r
ĠØ§ÙĦØ¹ Ø¯ÙĬØ¯
ĠØ§ÙĦÙħ ÙĦÙĥ
ÙĬÙĨ ÙĬØ©
ĠØ§ÙĦÙħ Ùħ
ĠØ¨ Ø£
ĠØ§ÙĦØ¯ ÙĪÙĦ
Ø± Ø§Øª
Ø¯ÙĬ Ø¯Ø©
ĠÙħ Ø¤
ĠØ ¸
ĠØ£ Ø¯
Øª Ø±Ø©
ÙĪÙĤ Ø¹
ĠÙĬ ÙĥÙĪÙĨ
Ø³ Ø§
ĠÙħ ÙĪ
a n
Ùĥ ÙĬ
Ġ Ø§Ø¹
o n
Ø± Ùģ
Ġ 7
Ø¶ Ùħ
Ùĥ ÙħØ§
Ùĥ Øª
Ø³ ÙĬØ©
Øª Ø¬
i n
ÙĤ Ø¨
ĠØ§ÙĦØ¥ Ø³ÙĦØ§Ùħ
Ø§Ø± Ø¬
Ġ 8
ĠØ³ ÙĦ
ĠØª ÙĦÙĥ
Ø¸ Ø±
Ġ Ø§Øª
ĠÙħ Ùħ
ĠØª Ø¬
ĠØ§ÙĦØ£Ùħ Ø±ÙĬÙĥ
Ùĩ ÙĦ
ĠØ§ÙĦØ£ ÙĪÙĦÙī
ĠØ¬ Ø²
ĠØ§ÙĦØ± Ø¦ÙĬØ³
Ø§Ùħ Ø©
ĠÙĨ Ø³
ĠØ¹ÙĦÙĬ Ùĩ
ĠØ¹ Ùħ
Ø¯ Ùĩ
ÙĬ Ùĩ
Ø§ ÙĬØ±
ÙĬ Ø®
ÙĤØ¯ Ùħ
ĠØ£ Ø´
Ø¬ÙĦ Ø³
ÙĪ Ø§ÙĦÙĬ
ĠØ¥ ÙĦØ§
Ø§ÙĦ Ø§Øª
ĠØ§ÙĦÙħ Ø¤
ÙĪØ± ÙĪØ¨
Ø® Ø¨
ĠÙĬ ÙĪÙħ
Ġ Ø§Ø®
Ø¯ÙĬ Ùħ
ĠØ§ÙĦØ¹ ÙħÙĦ
ĠÙĦ ÙĩØ§
ĠØ§ÙĦØ¹ Ø±
ĠØ¥ ÙĦÙĬ
Ġ ]
Ġ19 7
ĠÙĦ ÙĥÙĨ
ĠØ§ÙĦÙĤ Ø±
ĠÙĤ Ø±
ÙĦ Ø§Øª
ÙĪ ÙĬØ±
ĠØ£ ØŃ
Ø³ ÙĨ
ĠØ¨ Ø·
Ø³Øª Ø®Ø¯Ùħ
Ø¹ ÙħÙĦ
ĠÙħ ÙĪØ³
Ø§Ø¶ ÙĬ
ÙĪ Ø¯Ø©
Ø¨ Ùĩ
Ġ Ø§Ø³Ùħ
Ø§Ùģ Ø¸
ĠØ± Ø¦ÙĬØ³
ĠØ§ÙĦØ¹ ÙĦÙħ
Ø¯ÙĬ Ø«
ĠØ£ Øº
Ø¨ ÙĨ
Ø± Ø¬
ĠÙħÙĨ Ø°
o r
ĠØ§ÙĦØ¹ ÙĦ
Ø¯ Ùģ
Ø¶ Ø¹
ĠØ§ÙĦ Ø§Øª
Ø§ÙĨ Ø§Øª
ĠØ¨Ø§ÙĦ Ùħ
Ø¹Ø± Ùģ
ĠØ§ÙĦØ° ÙĬÙĨ
ĠØ« ÙĦØ§Ø«
ĠÙĪ Ø²
ĠØ¬Ùħ ÙĬØ¹
Ø±ÙĬ Ø¨
ÙĦÙĬ ÙĦ
ÙĪ Ø§Ø¹
ĠØ§ÙĦØª Ø¹
ĠÙĤ Ø§Ùħ
ĠØŃ Ø¯
Øª ÙĪ
ĠØ§Ø¨ ÙĨ
Ø¸ ÙĩØ±
Øµ Ø©
Ùĥ Ø±Ø©
Ø° ÙĬ
Ø¬ Ø¯
ĠØŃ ÙĪÙĦ
Ġ19 6
ĠØ¨ ÙĪ
Ø§ÙĦ ÙĬØ§
Ø§Ø¨ Ø¹
Ġ >
ĠØ§ÙĦØ£ ÙĨ
ĠÙģÙĬ Ùĩ
ĠÙĥØ¨ ÙĬØ±
Øµ Ø¯
ÙĪÙĦØ§ ÙĬØ§Øª
ĠØ§ÙĦØ¬ Ùħ
Ø±ÙĬ Ø·
Ø³ Ø§ÙĨ
ĠÙĥ ØªØ§Ø¨
Ġ 9
Ø§Ø· ÙĤ
Ø¨Ø¯ Ø£
ĠØ§ÙĦ ÙģÙĬ
Ø§ÙĨ ÙĪÙĨ
ĠÙħ ÙĦ
ĠØª ÙĥÙĪÙĨ
ĠØ§ÙĦØ« Ø§ÙĨÙĬ
ĠÙģ ÙĤØ¯
ĠØª Ø£
Ø§Ø¨ Ø§Øª
ØŃ Ø§Ø¯
ĠØ§ÙĦÙħ Ø¨
ĠÙĨ Ø§Ø¯ÙĬ
ĠØ® Ø·
ĠØ§ÙĦÙĪ Ø·
ĠØ¹ÙĨØ¯ ÙħØ§
Ġ1 5
Ø¨ Ø¹Ø¯
ĠÙħÙĨ Ø·ÙĤØ©
ĠØ§ÙĦ ÙĪÙĤ
ĠØ§ÙĦØŃ Ø±
Ø¬ Ø¨
Ø§Ø¯ Ø±
ĠâĢ ĵ
Ø§Ùħ Ø¬
ĠÙĦÙĦ Ø£
ĠØ£ Ø±
ĠØ§ÙĦØŃ Ùĥ
ĠØ¯ ÙĪÙĦ
ĠØ§ÙĦØ¨ ÙĬ
ĠØ¹ ÙĦÙħ
ØªÙħ Ø±
ĠÙĩ ÙĨØ§Ùĥ
ĠÙĪ Ø´
ĠØ§ÙĦØª ØŃ
ĠØ· Ø±ÙĬÙĤ
Ø® Ø·
ĠÙħ ØµØ±
ÙĦ Ùĩ
ĠØ§ÙĦØª ÙĤ
ĠØ§ÙĦ Ø±ÙĬ
Ùħ ÙĪ
ĠØ¹ ÙĦ
Ø§ÙĦ Ø«
ĠØ³ ÙĥØ§ÙĨ
ÙĤÙĬ ÙĤ
Ø§Ø¦ Ø±
ÙĪ Øµ
ĠÙħ ÙħØ§
Ġ1 0
ĠØ§ÙĦØŃ Ø±Ø¨
Ø§Ø¬ Øª
Øª ÙĤ
ØŃ ÙĬØ©
Ġ1 2
ĠØ¨ Ø³Ø¨Ø¨
ĠÙĪØ§ÙĦ Ø¹
Ùĥ ÙĪ
Ùĩ ÙħØ§
ĠØ§ÙĦØ¯ Ø±
Ø§ÙĤ ØªØµ
Ø¨ Ø¹
Ġ Ø§ØŃ
Ø® Ø°
Ø¬ Ùĩ
Ø¶ Ø±
ĠØ° Ø§Øª
ĠØª Ø·
Ø§ÙĦ ØŃ
Ùĥ Ø©
ĠØ§ÙĦØª ÙĨ
ĠØ§ÙĦÙħ Øº
Ø³ ÙĬÙĨ
Ùĩ ÙĬ
Ø¬ Ø²
ÙĪ Ø§Ø¬
ÙĨ Ùī
Ġ [
ĠØ§ÙĦÙħ ÙĤ
ĠØ¨ Ø¹
ÙĪÙĨ ÙĬ
ØŃØ¯ Ø«
Ġ1 7
ÙĦÙĥ Ø©
Ø§Ø¬Øª ÙħØ§
00 0
ĠØª Ø³
Ġ1 3
ĠÙĬ Ø¯
ĠÙĦ Ø¥
ĠØ§ÙĦØª Ø¬
ĠØ¨Ø§ÙĦ Ø¥
ÙĪÙħ Ø§Øª
ĠØ¢ Ø®Ø±
ĠØª Ø¯
Ġ19 4
ĠØ¹ÙĦÙĬ ÙĩØ§
ĠÙĦ Ø£ÙĨ
ĠØ§ÙĦ ÙĪÙĦØ§ÙĬØ§Øª
Ùĥ ØªØ¨
ÙĬØ§ Ø©
ĠØŃ ÙĪØ§ÙĦÙĬ
Ø² Ø¨
Ùħ ÙĬ
Ùģ Ø¹
ĠØ£ ØµØ¨ØŃ
ĠØª Ø§Ø±ÙĬØ®
ĠØ¨ Ø¥
ĠÙģ ÙĦ
Øª ÙĨ
Ġ19 5
Ø§Ø¨ ÙĦ
Ġ s
ÙĪ Ø§Ø¡
ĠÙĪ Ø°ÙĦÙĥ
ĠØ¹ Ø¯Ø©
Ø·ÙĦ ÙĤ
l a
Øª Ø¹
Ġ1 4
ĠØ§ÙĦØ´ Ø±
ĠØ§ÙĦÙģ Ø±ÙĨ
Ø§Ø¯ ÙĬØ©
ÙĪ ÙĬÙĦ
ĠØ¨ Ø§Ø³Ùħ
ĠÙħØ¬Ùħ ÙĪØ¹Ø©
ĠØ£ÙĨ ÙĩØ§
ĠØ§ÙĦØ¹Ø± Ø§ÙĤ
Ø§ÙĨ Ø¨
ĠØ£ Ø«
ĠÙĦ ØŃ
ĠÙħ ÙĦÙĬ
Ø· Ø¨
Ø±Ø¨ Ø¹
Ø¹Ø± Ø¶
ĠØ´ Ø®Øµ
ĠÙģ ÙĤØ·
ĠØ§ÙĦØ¬ ÙĨ
Ø§Ø¨ ÙĤ
ĠØ£Ùĥ Ø¨Ø±
Ø¸ ÙħØ©
Ġ A
Ø§Ø¹ Ø¨
ÙģØ¶ ÙĦ
Ø±ÙĬ Ø¯
ĠØ§Ø³Øª Ø®Ø¯Ø§Ùħ
Ø¬ ÙĨ
Ġ C
ĠØ¬ ÙĨ
Ø´ ÙĬ
ĠØ¯ ÙĪØ±
ÙĦ Øª
ÙĪØ¯ ÙĬØ©
ĠØ¯ ÙĬ
ĠØ³ Øª
Ġ Ø§Ùħ
Ø§Ø® ÙĦ
ĠØ§ÙĦØ£ Ø®Ø±Ùī
ĠØ§ÙĦÙĪÙĤ Øª
Ø· Ùģ
ĠØ§ÙĦ Ø§ÙĨØª
Ø´ Ø§Ø±
ÙĬÙħ Ø©
ĠÙĦ ÙĨ
ĠØŃ ÙĬÙĨ
Ùĥ Ø±ÙĬ
ĠÙħ Ø®ØªÙĦÙģ
e n
Ġ S
Ø¹Øª Ø¨Ø±
ĠÙĨØ³ ÙħØ©
ĠÙĦ Ø¹
ĠØ§ÙĦÙħÙĨ Ø·ÙĤØ©
Ø¶ Ø§Ø¡
ÙĬÙĨ Ø©
ĠØ§ÙĦØ¬ ÙĨÙĪØ¨
ĠØ§ÙĦØ¯ ÙĪÙĦØ©
ĠØ´ Ø±ÙĥØ©
ĠÙĪØ§ÙĦ ØŃ
ĠØ§ÙĦ Ø§ÙĨ
Ø¬ ÙĦÙĬ
Ø¹ ÙħØ§ÙĦ
ĠÙĪØ§ÙĦ Ø°ÙĬ
Ùħ Ø§ÙĨ
Ġ Ø§Ø±
Ø§Ø¦ Ø¯
ĠØ¨ ÙĤ
Ø§Ø¹ Ø¯
Ø¨ Ø·
ĠÙĤ Ø¯Ùħ
ĠØ¶ Ø¯
ÙĪ Ø«
ĠØ¯ ÙĪÙĨ
Ø¨ Øª
Ġ1 6
ĠØ§ÙĦØ¯ ÙĬÙĨ
ÙĦÙĬ Ø§Øª
ĠØ§ÙĦØ¨ ØŃ
ĠØ§ÙĦØ³ ÙĥØ§ÙĨ
Ø§ ÙģÙĬ
ĠØ§ÙĦÙĬ ÙĪÙħ
Ġ 0
ĠØ§ÙĦÙħ ÙĦ
ĠØ§ÙĦØ£ Ùĥ
ĠØ£ ÙĤ
Øº ÙĬ
ĠØ¥ Ø¯
ØŃØ¯ Ùī
ĠØ¹ ÙħØ±
ĠØ§ÙĦØ£ Ø¯
Ùģ ÙĨ
Øº ÙĦ
ĠØ£ ÙĩÙħ
ĠÙĪØ§ØŃ Ø¯
Ùģ Ø§Ø¹
Ġ1 1
ĠØ§ÙĦØ´ Ø±ÙĤ
ĠØ§ÙĦØ£ Ø±Ø¶
Ø¨ Ø§ÙĦ
Øª Ø¨Ø±
Ø¹Ø¯ Ø§Ø¯
ĠÙĪØ¬ ÙĪØ¯
ÙĬ Ø¬
ĠØ£ Øµ
ĠØ§ÙĦØ£ Ø®
Ø³Ùħ Ùī
ĠÙĨ Ø³Ø¨Ø©
Ø· Ø§ÙĨ
ĠÙĦÙĦ ØŃ
Ø§Øµ Ø±
ĠØ§ÙĦÙģ ÙĦ
a r
Ø§Ùģ ÙĬØ©
ĠÙħ Ø±ÙĥØ²
Ø· Ø§Ø±
a l
Ø° ÙĥØ±
ÙĪ Ø¯ÙĬ
ĠÙĪØ§ÙĦ ÙĨ
ĠØ£Ø¨ ÙĪ
ĠØ¹ Ø¨
e s
Ùĩ ÙĪØ±
ÙĩØ§ ÙĬØ©
Øº Ø·
Ø² Ø±
ĠØ¨Ø¯ Ø£
ĠØ§ÙĦÙģ Ø±
Ø¯Ø± Ø³Ø©
Ø±ÙĬ ÙĤØ©
ĠÙĪØ£ ÙĨ
ĠØ§ÙĦØ¯ Ùħ
ĠØ¹ Ø¨Ø±
ĠÙĪ Ø®
Ø§ÙģØ¸ Ø©
ĠØ§ÙĦØ´ ÙħØ§ÙĦ
ĠØ§ÙĦÙĥ Ø¨
ĠÙĨ ÙĤ
Ø¹ ÙĦÙī
ĠØ§ÙĦØ« Ø§ÙĦØ«
Ø´ Ø£
ÙĨØª Ø§Ø¬
Ġ19 3
Ø§Ø¨ Ø¹Ø©
Ø§ ÙĪÙĦ
ĠØ¶ ÙħÙĨ
ĠØ§ÙĦØ« Ø§ÙĨÙĬØ©
Ø² ÙĦ
Ø§Ø± Ø§Ø©
ĠØ§ÙĦØ· Ø¨ÙĬ
ÙĪ Ø£
ĠØ§ÙĦØ¨ ØŃØ±
ĠÙĬ Ø´
Ø¯ Ùī
ĠÙĨ ÙĪØ¹
ĠÙħ Ø±Ø©
ĠØ§ÙĦÙĤ Ø¯Ùħ
ĠØ§ÙĦØ´ ÙĬØ®
ÙĲ Ùĳ
ÙĬÙħ ÙĬ
Ø®Ø± Ø¬
ÙĬØ± Ø§ÙĨ
ØŃ ÙĦØ©
Ùħ Ø¹
ĠØ§ÙĦØ£ÙħØ±ÙĬÙĥ ÙĬØ©
Ø« Ø§ÙĦ
ÙĬÙħ ÙĥÙĨ
ÙĬØ§ Ùĩ
ĠØ¥ ØŃØ¯Ùī
ĠÙĬ Ø³Øª
Ø² Ùħ
ĠÙĬ ÙĪÙĨ
ÙĬÙĨ Ø§
ĠØ¨ Ø§Ø±
ĠÙĥØ¨ ÙĬØ±Ø©
Ø¹ Ø§Ø¯Ø©
Ùĥ Ø§ÙĨØª
Ø§Ø¹ Ø¯Ø©
Ø³ ÙĥØ±
ĠÙħÙĨ Ùĩ
ĠØ¬ Ø§ÙħØ¹Ø©
ĠÙģ Ø±ÙĨ
ĠÙĪ Ø¯
Ùģ Ø±ÙĬÙĤ
ĠÙĤ ÙĬ
ØŃ Øª
ĠØ§ÙĦÙħ ÙĪØ³
ĠÙĪØ§ÙĦ Ø¥
ĠÙĬ Ø±
Ø¨ ÙĤ
ĠØ¥ Ø°Ø§
ĠØ´ Ø±
ĠØ§ÙĦÙħ Ùĩ
ÙĨ ÙĬÙĨ
ĠØ§ÙĦØ£ Ø±
ĠÙĪ ØºÙĬØ±
Ø§Ùħ Ø§
ĠØŃ ÙĤ
ĠÙĨ ØŃÙĪ
ÙĨ Ø§ÙĨ
ÙĦÙħ Ø©
Øµ ÙĨ
Ġ =
ÙĪÙĬ Øª
ØªØ± Ø§
Ø§Ùģ ÙĤ
Ġ Ø§Ø³
ĠÙĨ Ø¸Ø§Ùħ
Ø· Ø§Ø¹
Ùģ Ø§ÙĤ
ĠØ§ÙĦØŃ Ø¯ÙĬØ«
Ø´Ø± ÙĬÙĨ
Ø±Ùĥ Ø§Øª
ĠØ¨ ÙħØ§
ĠØ§ÙĦØª Ø§Ø±ÙĬØ®
Ø¨ ØŃ
t i
ĠØ§ÙĦÙħ Ø³ÙĬ
Ø§Ø³ Ø§Øª
Ø² ÙĬØ©
Ø§ØŃ ÙĬØ©
ÙĪÙħ ÙĨ
Ùħ ÙĬØ©
ÙĪÙĦ ÙĬ
Ø³Øª Ø±
Ø§ÙĨ Ø§
Ø±ÙĬ Ùģ
Ø´ Ø§Ø¡
ĠØ§ÙĦÙĤ Ø¯ÙĬ
ÙĬÙĨ Ø§Øª
ĠØ§ÙĦØ£ ÙħØ±
ØªÙĬ Ø¬Ø©
Ġ M
ĠÙħ Ø¬ÙĦØ³
ĠØ¬ ÙĨÙĪØ¨
Øª Ø®Ø¨
ĠØ§ÙĦØ¬ ÙĬØ´
ĠØ§ÙĦØª Øµ
ĠØ£Ùħ Ø±ÙĬÙĥ
Ø§Ø¦ Ø±Ø©
Ø§Ùħ ÙĬ
ØŃ Øµ
Ø¶ Ø©
ĠØ§ÙĦØ¹ Ø±Ø¨ÙĬ
Ø§ÙĤ Ø¹
ÙĪÙĦ ÙĪØ¬
Ø§Ø¹ ÙĬØ©
ĠØªÙĤ Ø¹
ĠØŃ Ø±
ĠÙĪÙĥ Ø§ÙĨØª
ÙĪÙĨ ÙĬØ©
ĠØ³ Ø±
ÙĪ ÙħØ§
Ø¯ Ø§Ø¯
ĠØ£ÙĬ Ø¶
ĠØ¨ Ùĥ
ĠØ§ÙĦØª Ø±
ĠØ§ÙĦÙĩ ÙĨØ¯
ĠØ§ÙĦØ£ ØŃ
ÙĪÙĦ Ø¯
Ø§Ø· Ø¹Ø©
ÙĬØ± Ø§
ÙĦÙħ ÙĬÙĨ
ĠØ´ ÙħØ§ÙĦ
ĠÙħØ¹ Ø¸Ùħ
ØªÙħ Ø¹
ĠØ§ÙĦØ³ Ø¹
ÙħØ¨Ø± Ø§Ø·
Ø¯ ÙĦ
Øµ ÙĪØ±
ĠØ³ Ùħ
Ġ <
ĠØ£ ÙĦ
ĠØª Ø±Ùĥ
ĠØ§ÙĦØ¹ Ùħ
Ø³Ùħ ÙĬØ©
ĠÙģ ØªØ±Ø©
ĠÙĪ ÙĦÙħ
ĠØ¹ÙħÙĦ ÙĬØ©
ĠØ§ÙĦ Ø§ØŃ
Ø¹ Ø§
Ġ19 2
ĠÙĪ ØªÙħ
ĠÙĬ Ø³
ĠÙĪ Ø§Ø³
Ø§Ø¦ ÙĦØ©
ÙĨØ¯ Ø§
ĠØ¨ Ø§Ø³Øª
ĠÙĪØ§ØŃ Ø¯Ø©
ĠØ§ÙĦØŃÙĥ ÙĪÙħØ©
ØªØ¨ Ø§Ø±
ĠØµ ÙĨ
ĠØ§ÙĦØ® Ø·
ĠØ£ Ø¨ÙĬ
ÙĪ Ø´
ĠÙĪ Ø§Ø³Øª
ĠØ¯ Ø§Ø®ÙĦ
Ø§ÙĨ Ø©
ĠÙĪÙĦØ§ ÙĬØ©
Ø´ Ùģ
ĠØ§ÙĦØ± ÙĪÙħ
ĠØ£ ÙĪØ±ÙĪØ¨
Ø§ØŃ ÙĦ
ĠÙĪØ§ÙĦ Ø¯
Ùĩ ÙĪ
ĠØ§ÙĦØ§Øª ØŃØ§Ø¯
ĠØ§ÙĦÙģ ØªØ±Ø©
ÙĬÙģ Ø©
ÙĬØ³ Ø©
ÙĪØ±ÙĬ Ø§
Ø§ÙĦ Ø£
Ġ t
ĠØ¨Ø§ÙĦ ÙĨ
ĠØ¯Ø± Ø¬Ø©
ĠØ§ÙĦØ± ØºÙħ
Ø§Ø± Ø¨
ÙĪØ¨ Ø©
Ø§Ø¦ ÙħØ©
Ø§Ø ¸
Ø§Øµ ÙħØ©
Ø± Øª
ĠÙħÙĪØ³ Ùħ
Ø¬ ÙĬ
ĠÙĤ Ø§ÙĦ
ĠØ§ÙĦØ´ Ø®Øµ
Ø³ ÙĪÙĨ
ĠØŃ Ø³Ø¨
Øº ÙĬØ±Ø©
ÙĪ ÙĥØ§ÙĨ
Ø¬ ÙĪÙħ
ØªÙħ Ø¯
ĠØ´ ÙĬ
ĠØ§ÙĦÙĦ ØºØ©
ÙĦ Ø§Ùģ
Ùģ Ø§
ĠØ§ÙĦØ¨ Ø±ÙĬØ·
ĠÙĤ Ø¨
ĠØ¥ Ø°
ĠØ³ÙĨ ÙĪØ§Øª
Ø§Ø¦ ÙĬÙĦ
ĠØª Ø²
Ùĩ ÙĪØ±ÙĬØ©
Ø¸ ÙĬÙħ
ĠÙĥ Ø«ÙĬØ±
ÙĦÙĬ Ø§
ĠÙĩ ÙĢ
ĠÙħÙĦÙĬ ÙĪÙĨ
ĠØ¨ Ø´
ĠÙĥ Ø±Ø©
Ø±Ø¨ Ø¹Ø©
Ùħ Ø§Ùħ
Ø¬Ùħ Ø¹
ĠØ§ÙĦØ£ ÙĦÙħ
ĠÙĥ Ø±
ĠØ§ÙĦØ¹Ø§ÙĦÙħ ÙĬØ©
ÙĤ Ùħ
ÙĤÙĬ ÙĤØ©
ĠÙĪ Øµ
ĠØ® Ø§ØµØ©
ĠØ£Ø« ÙĨØ§Ø¡
ĠØ§ÙĦØª Ø´
Ø§Ø¹ ÙĬ
Ùħ ÙĬÙħ
ĠØ§ÙĦÙĥ Ø«ÙĬØ±
ĠØ§ÙĦØ¨ÙĦ Ø§Ø¯
Ġ P
Ø±Ø¨ Ø©
ÙĬ ÙĪÙĨ
ÙĪ Ø¡
ĠÙĪØ§ÙĦ Ø´
Ø£ ÙħØ§
ĠÙĦ Ø¯ÙĬ
Ùģ Ø§Øª
ĠÙĤ Øµ
ĠÙĦ Ø¬
ĠØ§ÙĦ Ø§Ø¬ØªÙħØ§
ĠØ§ÙĦÙĤ ÙĬ
Ø¨ Ø§
ĠØ§ÙĦØ® Ø§Ùħ
Ġ T
ÙĤ Øª
ĠØ§ÙĦÙĥ ØªØ§Ø¨
ĠØ¨Ø§ÙĦØ¥ Ø¶Ø§ÙģØ©
ĠØ¨ Ø¬
ĠØ§ÙĦØ¹Ø§Ùħ Ø©
ĠØ´ ÙĥÙĦ
Ġ201 0
Ø§Ø¹ Ø§Øª
Ø§Ø¦ Ùħ
ĠØ§ÙĦØ£ Ø´
Ø§Ùĩ Ø±Ø©
ĠÙĪÙĤ Øª
Ġ D
Ù Į
ĠØ£ ÙĦÙģ
ĠØ¨Ø§ÙĦ Ø£
ĠØ§ÙĦÙħ Ø¹Ø±
ĠØ£ ÙħØ§
ĠØ§ÙĦ Ø§ÙĤØªØµ
Ø±ÙĬ ÙĦ
Ø¹ Ùī
ĠØ§ÙĦØ¢ ÙĨ
ÙĤ Ø§Ùħ
ĠÙĦÙĦ Øª
Ġ Ø§Ùĥ
ĠØ£ØŃ ÙħØ¯
ĠØ§ÙĦØ ¸
Ùĥ Ø§Ø±
Ġ f
ĠØ¨ÙĬÙĨ ÙħØ§
Ġ200 8
ÙĪ ÙĬÙĨ
Ø¨ Ø§Ø¨
ĠØ§ÙĦÙħ ÙĪØ¬
Ø· ÙĬ
ĠÙħ Ø§Ø±Ø³
ĠÙĪÙħ Ø¹
ĠØ£ Ø®
Ġ19 1
ÙĩØ¯ Ùģ
Ø³ÙĦ Ø³ÙĦ
ĠÙĦ Ø§ØŃ
ÙĬØ§Øª Ùĩ
ÙĪÙĦ ÙĬÙĪ
Ø§ÙĨ Ø¯
ĠÙģÙĬ ÙħØ§
Ġ c
ĠØ§ÙĦØŃ Ø¯
ĠÙĦÙĦ ÙĨ
Ġ201 1
Ùĥ Ø§
ÙĬØ± ÙĬ
ĠØ£ÙĪØ±ÙĪØ¨ Ø§
ĠÙĥ ØªØ¨
Ġ200 7
Ġ B
Ø³ Ø§Ùħ
Ø§Ø¯ Ø§Øª
Ġ200 6
Ø§Ø¦ Ø²Ø©
Ø³ ÙĦØ©
ĠØ² ÙĬ
ÙĢ ÙĢ
ĠÙĦÙĦ Ø¥
Ġ Ø§
ĠØ§ÙĦÙħ Ø®
Ø· ÙĪØ±
Ġ2 5
ĠØ§ÙĦÙĤØ¯ÙĬ ÙħØ©
ĠØ§ÙĦØ¹ Ø«Ùħ
Ø´Ø± ÙĪØ¹
ĠØ§ÙĦÙĨ Ø§Ø³
ĠØ¹ Ø¶
ĠØ¯ Ùħ
ĠÙĨÙģØ³ Ùĩ
Øª ÙĩÙħ
ĠØ¬ Ø±
ĠØ§ÙĦØ® Ø§ØµØ©
Ùģ Ùĩ
Ø±ÙĨ Ø§ÙħØ¬
ĠØ° ÙĥØ±
ĠØ«ÙĦØ§Ø« Ø©
ĠÙĬÙĨ Ø§ÙĬØ±
ĠØ§ÙĦØ¨ Ø·
Øµ Ø§Ø±
Ø³Ø± Ø§Ø¦ÙĬÙĦ
ĠØ£ ÙĦÙħ
ĠØ§ÙĦÙħ ÙĬÙĦ
Ùĩ Ø±Ø¨
Ø« Ø§Ø±
ØªÙĪ Ø¨Ø±
Ø³ Ø§Ø¡
ÙĩÙħ Ø©
ĠÙĬ Ø¤
ØªÙģ Ø§Ø¹
ĠØ£Ø¹ ÙħØ§ÙĦ
ĠÙĬ Ø¬
ĠÙĪØ§ÙĦ ÙĤ
ĠØ£Ùĥ ØªÙĪØ¨Ø±
Ø² ÙĬØ²
ĠØ§ÙĦÙĥ ÙĨ
ÙĤ Ø¨ÙĦ
ĠÙģ Ø£
Ø³ Ø³
Ø³ÙĥØ± ÙĬØ©
Ùĩ ÙĪØ¯
ÙĪØ± Ø¯
ĠØ§ÙĦÙĨ Ø¸Ø§Ùħ
Ø§Ø¦ ÙĤ
ĠÙĪ ÙĦÙĬ
Ø² Ø§
ĠØ¨ÙĨ Ø§Ø¡
ĠÙĨ ÙĪÙģ
ĠØª Ùģ
Ø§ÙĦ Ø¯
ĠØ§ÙĦØ£ Øµ
ĠØ§ÙĦØ³ ÙĨ
ĠØ£ Ø¬ÙĦ
ĠØ¯ ÙĬØ³
Ø¬ Ø§ÙĦ
ĠØ¬Ø² Ø¡
ĠÙĦ ÙĬØ³
ĠØ± Ø³
ĠØ§ÙĦØ® Ø§Ø±Ø¬
ĠØ§ÙĦÙħ Ø±ÙĥØ²
ĠÙĨ ÙĩØ§ÙĬØ©
ĠØ¥ Ø³
Ø§ÙĦ Ùĥ
ĠØ´ ÙĩØ±
ĠØ§ÙĦØ±ÙĬ Ø§Ø¶
ÙĤ Ùĩ
ĠØ¨ ÙĬØ±
ĠØŃ ÙĥÙħ
Ø§Ø¯ ÙĦ
ÙĤ ÙĦÙĬÙħ
l e
ĠØ§ÙĦÙĪØ· ÙĨÙĬ
i s
ÙĤ Ø§Øª
ĠÙħ ØªØ±
Ø§Ùħ ÙĬØ©
ĠÙĨ Ø¬
ĠÙĪ Ø¶Ø¹
ĠÙģ ÙĪÙĤ
Ø·Ùģ Ø§ÙĦ
ĠØ¹ Ø±Ø¶
ĠØ¨Ø§ÙĦ ÙĤ
ĠØ§ÙĦÙĨ ÙĤ
Ø·ÙĦ Ø§ÙĤ
ĠÙĥ ÙĪÙĨ
ĠÙĬ Ø²
ĠØ§ÙĦØ¹ ÙĨ
ĠØ® Ø§Ø±Ø¬
ĠÙĪØ¨ Ø¹Ø¯
ÙħÙĦ Ø©
Ø§ÙĤ Ø§Øª
ĠØ§ÙĦØŃ ÙĬÙĪ
Ø± ÙĪÙģ
ØµØ± ÙĬØ©
ĠÙĪ Ø·
ĠØ± ÙĬ
ĠØŃ Ø§ÙĦØ©
Øª Øª
ĠØ§ÙĦÙĤ ÙĪØ§Øª
ĠÙħØ¨ Ø§Ø±Ø§Ø©
ĠØ§ÙĦÙħÙħ ÙĦÙĥØ©
t e
ĠØ§ÙĦØ´ Ø¹Ø¨
Ø· ØŃ
ĠØ§ÙĦØµ ÙĨ
Ø·ÙĦ Ø¨
ĠØ§ÙĦ ÙĪØ³Ø·
Ø¨ ÙĬÙĨ
ĠØ§ÙĦÙħÙĨ Ø§Ø·ÙĤ
Ġ200 9
Ø¹ Ø§Ø±
Ø¹ ÙĬØ¯
ØªÙħ Ø¨Ø±
Ø· Ø¹
ÙĬØ± Ø§Øª
ĠØ§ÙĦØ· Ø¨
ĠÙħ Ùĩ
Ø§ÙĦ Ùģ
ĠÙħØ§ ÙĬÙĪ
ĠÙĬ ÙĪÙĦÙĬÙĪ
ĠÙħØ®ØªÙĦÙģ Ø©
ĠØ§ÙĦØª Ø±Ùĥ
ĠÙħ ÙĬÙĦ
ÙĪ Øº
ĠØ¹Ø§Ùħ Ø§
ÙĪØ¬ Ùĩ
Ø³ ÙĬÙħ
ĠØŃ Ùħ
Ġ d
ĠÙĩ Ø¯Ùģ
Ø´ Ø§Ø·
ĠØ Ł
ÙĪÙħ ÙĬ
ĠÙĦÙĦ Ø¹
ĠÙĪÙĥ Ø°ÙĦÙĥ
Ġ3 0
ĠÙģØ±ÙĨ Ø³Ø§
ĠØ§ÙĦÙĨ Ùĩ
ĠØ§ÙĦØ³ ÙĨØ©
ĠÙĦ ÙĤ
ĠØ§ÙĦØ£ ÙĪØ±ÙĪØ¨
ĠØŃ Ùĥ
Ø¹Ø¯ Ø¯
ÙĦ ÙĬÙĨ
h e
ĠØ¯ÙĬØ³ ÙħØ¨Ø±
ĠÙģÙĬ ÙĦÙħ
ĠØ§ÙĦØŃ ÙĬØ§Ø©
ĠØ¯ÙĪÙĦ Ø§Ø±
ĠØ³Ø¨ ØªÙħØ¨Ø±
Ø¬ Ø§Ø±
ØªØ¨ Ø¹
Ø£ Ø©
ĠØ¨ Øº
ĠØ¹ Ø§ÙĦÙħ
ĠÙħ ÙĦÙĥ
Ùĩ Ø°Ø§
ÙĨÙĬ Ùģ
ĠØ¥ Ùħ
ĠÙĪØ§ÙĦ Ø±
ĠÙĦ ÙĥØ±Ø©
ĠØ¥ ÙĨØªØ§Ø¬
Ø¬ ÙĬÙĦ
Ø¶ ÙħÙĨ
ĠØª ÙĦ
Ġ Ø§Ø´
ÙĨØ§ Ø©
ĠÙĨÙĪÙģ ÙħØ¨Ø±
Ø¹Ø¶ Ø§Ø¡
Ùı Ùĳ
ĠØ§ÙĦØ¥Ø³ÙĦØ§Ùħ ÙĬØ©
ĠØ§ÙĦØ« ÙĤ
Ġ Ø§ÙĤ
ÙĪÙħ ÙĬØ©
ĠØ§ÙĦÙħ Ø¬Ùħ
ĠØµ Ùģ
ĠØ£ ÙħØ±
i c
Ø§Ùĥ Ùħ
ÙĪØ¶ Ø¹
ĠÙĬÙĪÙĨ ÙĬÙĪ
Ø® Ø©
ĠØ¨Ø¯ Ø§ÙĬØ©
Ø³Ø· Ø³
ĠØ§ÙĦØ¹ Ø±Ø¨
ĠØ¹ Ø´
ĠÙĪØ§ÙĦ Ø¨
ĠØ§ÙĦØ« ÙĦØ§Ø«
ĠØ¹ ÙĩØ¯
Øª Ø²
ĠÙĪØ§ÙĦ Ø³
Ø¨ ÙĥØ©
Ùĩ ÙĢ
ĠØª Ø³Øª
r e
ĠÙħ ÙĥØ§ÙĨ
ĠÙĥ Ø£Ø³
ØŃ ÙĦ
ĠØ£ÙĨ ÙĪØ§Ø¹
Ø§Ø² ÙĬ
ÙĤ ÙĬØ©
ĠÙĦ Ø¨
ĠÙĥ Ø«
ÙĪÙĨ Ø©
ĠÙħÙĨ ÙĩÙħ
Ø¹ ÙĬÙĨ
ĠÙħ Ø®
ĠØ§ÙĦØ¥ ÙħØ¨Ø±Ø§Ø·
ĠØ¨ ÙĢ
Ø¬ÙĦÙĬ Ø²ÙĬØ©
ÙĪ Ø§Øµ
ĠÙĥ ÙĨ
Ø³Ùħ ÙĬ
ĠØ¬ Ø¯Ø§
Ġ b
ĠØ§ÙĦ Ø§Ø¹
Ġ Ù
ĠØ¬ Ø¯ÙĬØ¯Ø©
ÙĪØ¹ Ø§Øª
ĠÙħ Ø§Ø±
ĠØ§ÙĦØ¥ÙĨ Ø³Ø§ÙĨ
ÙĨØ¯ ÙħØ§
ĠÙĦ Ø§Ø¹Ø¨
ĠØ´ Ø±ÙĤ
ĠÙħ ÙĪØ¬
Ø¦ Ø§Øª
ĠÙħ ÙĪÙĤØ¹
ĠØ§ÙĦ ÙĬÙħ
ĠØ§ÙĦØ£Ùħ ÙĬØ±
ĠÙħØ¬ Ø§ÙĦ
Ø´ ÙĤ
ĠØ§ÙĦÙĬ Ø§Ø¨
ĠØŃ ÙĦ
ĠØ£Ø´ ÙĩØ±
ÙĪÙĤ Ùģ
Ø¹ÙĦ ÙĪÙħØ§Øª
ĠÙĪØ§ÙĦ Ùģ
Ø¯ Øª
ÙĦÙĥ ØªØ±
ĠÙĥ Ø§Ø±
ĠØ§ÙĦÙģØ±ÙĨ Ø³ÙĬ
ĠØ¹ Ø¯Ùħ
ÙĪÙģ Ø±
ÙĦØ§ ÙĬØ§
ÙĨ Ø¨
ĠÙģ Ø¨Ø±
ĠØ§ÙĦØº Ø±Ø¨ÙĬØ©
Øª Ø§
ĠÙĦ ÙĥÙĦ
Ø§Ø¦ Ùĩ
ĠØ§ÙĦÙĤ Ø§ÙĨÙĪÙĨ
ĠØ¨ Øµ
ĠØ¨ÙĦ Øº
ÙĥØª ÙĪØ±
ĠØª Ø£Ø³
Ø§Ø¦ Ø¨
ĠØ£Øº Ø³Ø·Ø³
ĠÙĤ Ø±ÙĬØ©
Ġ I
ĠÙĪ ØµÙĦ
ĠÙĦ ÙĪ
Ø¬ Ø±Ø©
ÙĪØ³ ÙĬ
Ùĥ Ø§ÙĦ
ÙĪ Ø§Ø¨
Øª Ø§Ø¬
ĠÙĥ ÙĬÙĦ
Ø¯ÙĬ Ø§
ĠÙģØ¨Ø± Ø§ÙĬØ±
ĠØ§ÙĦÙĤ Ø¨
ĠÙĨ Ø¸
ĠØ¥ÙĦÙĬ Ùĩ
ĠØ£ ÙĤÙĦ
ĠØ£ ÙģØ¶ÙĦ
ĠØ£ ÙĩÙĦ
ĠØ¹ Ø§Ø¯Ø©
ĠØ§ÙĦØ¥ Ø¯
ĠØ§ÙĦØŃ ÙĥÙħ
ÙĩØ§ Ø¯
Ø·ÙĦ ØŃ
Ùĩ Ø§Ø²
ĠØ¬ Ø§ÙĨØ¨
ĠØ§ÙĦØ± ØŃ
Ø§Ø¨ ÙĤØ©
Øµ ÙĪØµ
Ø§Øª Ø¨
Ø§ÙĦ ÙĨ
ĠÙĬ ÙĦ
ĠØ¨ÙĪ Ø§Ø³
ĠÙĬ ÙĥÙĨ
ĠÙĪ ÙħØ§
ĠØ§ÙĦÙĬ ÙĪÙĨ
ĠÙĬ ÙĪØ¬Ø¯
ĠØ£Ùħ Ø§Ùħ
Ø· Ø§Øª
ÙĪØ³ ÙĬØ§
ĠØ§ÙĦØµ ØŃ
ĠØ§ÙĦØ« Ø§Ùħ
ĠØ¯ ÙĪÙĦØ©
ĠÙĦ Ùĥ
ĠÙħ Ùĥ
ĠØ¬ Ø¯ÙĬØ¯
ÙĪ Ø°
ĠÙģ ÙĨ
Ùĩ Ø¨
ĠØ§ÙĦÙģÙĬ ÙĦÙħ
ĠÙħÙĤ Ø§Ø·Ø¹Ø©
Ø§Øª ÙĩØ§
Ø§Ùĩ Ø¯
ĠØ· ÙĪÙĦ
Ø±ÙĬ Ùħ
ĠØ§ÙĦØªØ¹ ÙĦÙĬÙħ
Ø® ÙĬ
ĠØ§ÙĦ ÙĦÙĬ
ĠØ³ÙĥØ§ÙĨ ÙĩØ§
ÙĨ Ø·
ĠØ§ÙĦØ£ Ø±Ø¯
Ġ200 0
ĠØ§ÙĦØ¹ Ø¨
ÙĬÙĥ ÙĬØ©
ĠØŃ Ø§ÙĦÙĬØ§
Ġ R
Ø¬ Ø§ÙĨ
ĠÙĨ ÙĬ
Ġ L
ĠØ§ÙĦÙĤ Ø¯
ĠØ§ÙĦØ² Ø±
Ø· Ø¨ÙĬ
ĠØ³Ø¨ ÙĬÙĦ
Ùģ ÙĬØ©
ĠØ· Ø¨ÙĬ
Ùħ ÙĬÙĨ
ĠØ¹ÙĨ Ùĩ
ĠØ¨ ÙĪÙĦ
ĠØ§ÙĦØ´ Ø±ÙĥØ©
ĠØ§ÙĦØ¯ Ø§Ø®
ĠÙĪØ¹ ÙĦÙī
ĠÙĪØ§ÙĦ Ùĥ
ĠÙĪØ§ÙĦ Ø¬
ĠØ¸ ÙĩØ±
Ø¹ Ø§Ø¨
ÙĪÙĨ Ø§Øª
ÙĪ Ø¨Ø±
ĠÙĪ Ø¥ÙĨ
ÙĪ Ø§Ø¯
ĠØ§ÙĦÙħØ³ ÙĦÙħÙĬÙĨ
ĠÙĦÙĦ ÙĤ
ĠØ§ÙĦÙħ Ø²
ĠØ§ÙĦ Ø§Ø®
ĠØ¹ Ø±
ĠØ§ÙĦØª Ø£
ĠØ¢ ÙĦ
ĠÙĬ Ø¬Ø¨
ÙģØ±ÙĬÙĤ ÙĬØ§
ĠÙĦÙħ Ø¯Ø©
ĠØ± Ø£Ø³
Ø§ ÙĪÙĨ
ĠØ¨ÙĪØ§Ø³ Ø·Ø©
ÙĪØ± ÙĨ
ĠØ¨ÙĨ ÙĬ
Ø³ Ø§Ø¨
ØªÙħ ÙĬØ²
ĠØ§ÙĦÙĪØ· ÙĨÙĬØ©
ĠØ§ÙĨØª ÙĤÙĦ
2 0
ĠÙĦÙĦ Ø´
ĠÙĪ Ø§ÙĨ
ĠØ§ÙĦÙħ ØŃÙĬ
ÙĨ Ø¯ÙĬ
ĠØ§ÙĦÙĨ Ùģ
Ġ200 5
ĠÙĨ Ø´Ø±
ĠØ£Ø¨ Ø±ÙĬÙĦ
ĠÙĪØ§ÙĦ Ø«
Û Į
Ø§ÙĦ Ø¬
ĠØº Ø±
ĠÙĬÙĤ ÙĪÙħ
a s
ĠØ§ÙĦØ® ÙĦÙĬ
ÙĩØ§ Ø¨
Ġ2 1
Ø§Ø± Ø¹
ĠØ§ÙĦØ³Ø¹ ÙĪØ¯ÙĬØ©
ÙĩØ¯ Ø§Ùģ
ĠØ§ÙĦÙħØ¹Ø± ÙĪÙģ
ĠÙħØŃ Ø§ÙģØ¸Ø©
ĠØ§ÙĦÙħØµ Ø±ÙĬ
Ø³Øª Ø§ÙĨ
Ġ H
Ø· Ø±Ø©
ĠÙĦ ÙĩÙħ
Øµ Ø§ÙĦ
Ùħ Øª
ĠØ§ÙĦØ¬ Ø¯ÙĬØ¯Ø©
ĠÙĦ Ø¯Ùī
Ø³Ø· ÙĬÙĨ
m u
ĠØŃ Ø±Ø¨
Ø§Ùĩ ÙĬÙħ
Ø§Ø± Ø¯
ĠØ§ÙĦØ¢ Ø®Ø±
Ø§Ùħ ÙĦØ©
Ø¬ Ø§Ùĩ
ĠÙĥØ§ÙĨ ÙĪØ§
ĠØ· Ø±
ĠØª Ø®
ÙĬØ± ÙĬØ©
r o
Ø§Ø± Øª
ĠØ§ÙĦØ± Ø³
Ø« Ø©
Ø§Ø´ Ø±Ø©
Ø§ÙĦØª Ø§ÙĦÙĬ
ÙģØ± Ø§Ø¯
ÙĪØ§ ÙĬØ©
Ø§Ø¯ Ø±Ø©
ĠØ§ÙĦÙħ Ø§Ø¡
Ø³ ÙĥØ±ÙĬ
ÙĨØ¯ ÙĬØ©
ĠØ§ÙĦØ³ Ø§Ø¨ÙĤ
Ġ G
Ø§Ø¡ Ø§Øª
ĠÙĦ Ø´
ĠØº Ø±Ø¨
ĠØŃ ØµÙĦ
Ùģ Ø¸
Ø§Ø± Ø§
ĠÙħØ³Øª ÙĪÙī
ĠÙģ Ø±ÙĬÙĤ
Ø±ÙĬ Ø³
ĠÙħ Ø¶
ĠÙģ Ø¹
Ø£ ÙĬ
Ø§Ø¨ Øª
ĠÙħ Øº
Ø§Ø¨ Ùĩ
ĠØ¨ ÙĤÙĬ
Ø¬ Ø±ÙĬ
ĠØ¨ Ø³
ĠÙĪ ÙĬØ¹
Ø· Ø§ÙĤ
Ġ2 3
ĠÙħ ÙĬ
ĠØ¨Ø· ÙĪÙĦØ©
Ø¬ Ø§Ø²
ĠØ§ÙĦÙģ ÙĨ
ĠØ§ÙĦØ´ÙħØ§ÙĦ ÙĬØ©
Ø¯ Ø§ÙĨ
ĠØ¨ ÙĬØª
ÙĪ Ø§Ùģ
ĠØ§ÙĦØ¯ÙĪÙĦ ÙĬ
ĠØ± Ùħ
ĠØ¥ ÙĬØ·
Øª Ø±Ùĥ
Ġ2 4
Ø§ ÙĪÙĬØ©
ĠØªÙĤ Ø±ÙĬØ¨
Ġ p
Ø§Ø¶ Ø·Ø±
ØªØ± Ø§Ùĥ
Ġ200 4
Øµ ÙĬ
ĠØ¬ Ø¯
ĠØ³ Ø¬ÙĦ
ĠØ§ÙĦØª Ø¯
ĠÙĦ ØªØŃ
Ø¹ ÙĪØ¯
ÙĨ Ø§Øª
ĠØ§ÙĦÙĥ ÙĦ
ĠÙĦÙĦ Ø³
ĠÙĪØª ØŃ
Ø¬Ùĩ Ø²Ø©
ÙĪ Ø§ØŃ
e l
Ø§Ø¬ Ø±
Ġ F
Ġ1 00
Ø® Ø§Ø¨Ø§Øª
Ø¢ ÙĨ
ØºØ± Ø§ÙģÙĬ
ĠØ§ÙĦØŃ ÙĤ
Ø® ÙģØ¶
ĠØ² ÙĪØ¬
ĠØ§ÙĦÙģØ±ÙĨ Ø³ÙĬØ©
ĠØ§ÙĦØ¬ Ø±
ĠÙĦ ÙħÙĨ
ĠÙĪ Ø³Ø·
ĠØ§ÙĦØ£ Øº
ĠØ§ÙĦÙģ Ø±ÙĬÙĤ
1 9
a t
ĠØª Ø¨
ĠØª Ùĥ
ĠØ§ÙĦÙĪ ØŃ
Ġ2 2
Ø°Ùĩ Ø¨
ØªØ¨ Ø©
Ø´ ÙĦ
ĠØ£ Ùģ
ÙĤØ± Ø§Ø·
ĠØ§ÙĦØ³ ÙĪÙģÙĬ
ØŃØ¯ Ø§Ø«
ØŃ Ø§
ĠØ¥ Ø³Ø¨
ĠÙĨ ÙĤÙĦ
ĠØ§ÙĦ Ø§Ø³Ùħ
Ø¬ Ø¹
Ø§Ùĩ ØªÙħ
Ø§Ø® Ø±
Ø§ÙĦ Ø³
ĠØŃ Ø±ÙĥØ©
ÙĦÙĬ Ùģ
ĠØ¬ Ø¹ÙĦ
ĠÙĬ Ùģ
ĠØ§ÙĦØ³ÙĬ Ø§Ø³ÙĬØ©
ĠÙ ª
Ø§Ø¡ Ø©
Ø§Ø±Ùĥ Ø©
ĠÙĦ Ø¨ÙĨ
Ø¹Øª ÙĤØ¯
ĠØ§ÙĦÙħ ÙĬØ§Ùĩ
ĠØ§ÙĦØ³ Ø¨
Ø§Ø´ Ø±
ĠØ£ØµØ¨ØŃ Øª
ĠØ§ÙĦØ¬ Ø¯ÙĬØ¯
ĠØ§ÙĦØ¬Ø² ÙĬØ±Ø©
ĠØ§ÙĦØ¹ ØµØ±
ÙħØ§ Ø¹
Ø¨Ø± Ø²
ÙĬÙĤ Ùī
Ø§Ø³ Ø¨
ÙģÙĬ Ø°
ĠØ§ÙĦØ¥ ÙĬØ·
ĠØ§ÙĦØ´Ø±ÙĤ ÙĬØ©
ÙĪÙĨ Ø³
ÙĦÙģ Ø²ÙĬ
Ø± Ø³
Ø¬ Ø§
Ø¹ÙĦ ÙĨ
Øª ÙĦØ§ÙĦ
Ġ Ø§Ùģ
Ġ E
ĠÙħ Ø²
ĠØ§ÙĦØ¯ÙĪÙĦ ÙĬØ©
Ġ N
ĠØ§ÙĦÙĥ Ø±
ĠØ® Ø§Øµ
ĠØ§ÙĦØ· Ø§ÙĤØ©
ĠÙĪ ÙĬÙĨ
ĠØ§ÙĦØ£ ÙĦ
Ø« ÙĦØ©
ĠØ¥ Ø¶Ø§ÙģØ©
ÙĪØ± Ùĥ
ÙĪÙĬ Ø§Øª
ÙħØ§ ÙĬØ©
Ø³ ÙĬØ§
Ø· ÙĬØ¹
ĠØ£ÙĦÙħ Ø§ÙĨÙĬØ§
ÙĪ Ø§Ø¦
ĠØ¥ ÙĦ
ĠØ§ÙĦØ¹ ÙħØ±
ĠØ£ ØµÙĦ
Ø§Ø¹ Ø±
Ø§Ùĩ Ø±
Ø§Ùħ Ø§Øª
Ø¨Ø± Ùī
ĠÙĪ Ø«
ĠÙĨ Ùģ
Ġ201 2
ĠØ¨ Ø¨
ĠÙħÙĨ Ø§Ø·ÙĤ
ÙĪØ± Øª
Ø¯ÙĬ ÙĦ
Ø³ÙĦ ØŃØ©
ĠØ§ÙĦØ±Ø¦ÙĬØ³ ÙĬØ©
Ø§ÙĨÙĬ ÙĬÙĨ
ĠØ§ÙĦÙħ Ø±Ø¶
Ø§Ø³ Ø¹
ĠÙĨ ÙĩØ±
ĠØ§ÙĦØ¬ Ø§Ùħ
ĠØ§ÙĦØ´ Ø¹
ĠØ¨ÙĦ Ø§Ø¯
ÙģÙĦ Ø§Ùħ
ĠØ¥ÙĦÙĬ ÙĩØ§
ĠÙģ Øª
ĠØ¥Ø¯ Ø§Ø±Ø©
ĠØ§ÙĦÙħ ØµØ±ÙĬØ©
ĠØ§ÙĦØ¹ Ø³ÙĥØ±ÙĬØ©
ĠØ¨Ø§ÙĦ Ø¹
ĠÙħØ¹ Ùĩ
ĠØµ ØŃ
ĠÙĪ Øº
ĠØ§ÙĦØŃ Ø²Ø¨
ĠØ§ÙĦØ¹ Ø´Ø±ÙĬÙĨ
Ùĥ Ø«Ø±
ĠÙĨ ØªÙĬØ¬Ø©
ĠÙĤ Ø¯Ø±
ĠØ§ÙĦÙĤ Ø±ÙĬØ©
ĠÙħÙĨ ØªØ®Ø¨
ÙĪØ§ÙĦ ÙĬØ¯
ÙĦ Ø¯
ĠÙħ Ø«
Ø± ÙĬØ±
ÙĪØ³ ÙĬØ©
ĠØ§ÙĦØ´ ÙħØ³
Ùĥ ÙĬÙĦ
Ø³Ø± ØŃ
ĠØ§ÙĦÙħ Ùĥ
Ġ U
Ùħ Ø³Ø©
ĠØ¨ Ø±ÙĨØ§ÙħØ¬
ĠØ¬ ÙĪÙĨ
Ø® ÙĪÙĦ
ĠÙĪÙĦ Ø¯
Øª ÙĦÙĥ
u s
ĠØ§ÙĦØ´ ÙĬ
ĠØ§ÙĦÙĥØ¨ ÙĬØ±
ĠØ§ÙĦØ£Ùĥ Ø«Ø±
ĠØ§ÙĦØ¥Ø³ÙĦØ§Ùħ ÙĬ
ÙĤ ÙĤ
Ø¬Ùħ ÙĬØ¹
o m
ĠØ§ÙĦÙħ Ø¹ÙĦÙĪÙħØ§Øª
ÙĪ ÙĬÙĦØ©
ĠÙĪØºÙĬØ± ÙĩØ§
ĠÙĤ ÙĪØ§Øª
ĠÙĪ Ø¸
ÙĤØ¯ Ø±
ÙĦ Ø§Ø¡
ĠØ£Ø¹ ÙĦÙī
ĠØ¨Ø§ÙĦ ÙĦ
Ø§Ùģ Ø§Øª
Ø¹ Ø§Ø¯
Ø§Ø¦ Ø¹
ØŃ Ùħ
Ø§Ø¨ ÙĬ
ĠØ¹ Ø¯
ÙħÙĪ Ø°
ĠØ¨Ø§Ø³Øª Ø®Ø¯Ø§Ùħ
Ø®ØªÙĦÙģ Ø©
ÙĦÙħ Ø§ÙĨ
ĠØ£Ø³ Ø§Ø³
ĠØª Ø³ØªØ®Ø¯Ùħ
ĠÙĤ Ø§ÙĨÙĪÙĨ
ĠØ¨Ø£ÙĨ Ùĩ
ĠØª ÙĬ
ÙĪÙĦØ§ ÙĬØ©
mu la
ØŃ Ø¨
ÙĪØ± Ø§Øª
ĠØ§ÙĦØ¹ ÙĤ
ÙĪ Ø§Ùħ
ĠØ§ÙĦÙĨ Ø¨Ø§Øª
ĠØ§ÙĦÙħ Ùģ
ØµØ¯ Ø§Ø±
ĠÙĪÙĩ Ø°Ø§
Ġ ÙĩØ§
ĠØ§ÙĦØ±Ø¦ÙĬØ³ ÙĬ
ÙĤ ÙĦØ§ÙĦ
ØªÙĬ Ø§Ø±
ĠØ§ÙĦØ¥ Ø¹ÙĦ
ÙĪÙĬ Ø³
ĠØ¬ ÙĬ
i t
or mula
ĠØ§ÙĦØ¨ Ø¹Ø¶
ĠÙĪ ÙĬØª
Ø¯ ÙħØ©
ĠØ§ÙĦØŃ Ø±ÙĥØ©
ÙĪØ¨ ÙĦ
ĠØ§ÙĦÙħ ÙĤØ¯
Ġ |
ĠØ§ÙĦØª Ø³
ÙĪ ØµÙĦ
ĠÙħ ØŃØ¯
ĠØ¹Ø¨ Ø§Ø±Ø©
ĠØµ ØºÙĬØ±Ø©
Øµ Ø¯Ø±
ĠØ§ÙĦØ³ Ùħ
ÙĪÙħ Ø¹
ÙĪÙĦÙĪØ¬ ÙĬØ§
ÙĨ Ùĩ
ĠØ¥ Ø³Ø±Ø§Ø¦ÙĬÙĦ
ĠØ§ÙĦØ³ Ø±
ĠØ§ÙĦØ¬Ø² Ø¡
ĠØ³ÙĦ Ø³ÙĦØ©
ĠÙĦ Øµ
Ø§ÙĤ ÙĬ
Ùĥ ÙĪØ±
ĠØ¯ Ø®ÙĦ
ĠØ§ÙĦØ¨ Ø´Ø±
a m
Ø§Ø¦ ÙĩØ§
ĠØ§ÙĦÙĤ Øµ
ĠØ¨Ø¯Ø£ Øª
Ø® Ø§Øµ
Ø¶ ÙĬ
ÙĪØ± Ø¬
d e
Ø§ØŃ Ø¸
ĠØ§ÙĦÙħ Ø«Ø§ÙĦ
ĠØ§ÙĦØ¹ Ø¯
ĠÙĪØ§ÙĦ ÙħÙĨ
ĠØ± ÙĤÙħ
ĠØ· Ø¨
Ø¦ ÙĬØ©
ĠÙĤØ§Ùħ Øª
ĠÙĦÙĦ Ø¯
ĠØ¬ Ø¨ÙĦ
ĠØ§ÙĦØª Ùħ
Ø§Øª ÙĬ
ÙĪØ¶ ÙĪØ¹
ĠÙĬØ¹ ÙħÙĦ
ĠØ¨Ø§ÙĦÙĨ Ø³Ø¨Ø©
ĠØªØ£ Ø«ÙĬØ±
Ùģ ÙĬÙĨ
Ø³ Ø³Ø©
ĠÙħØ¹ ÙĩÙħ
ÙĬØ¯ Ø±
ĠÙĪØª Ø¹
ĠØ³ Ø·ØŃ
ĠØ§ÙĦØ£ Ø²
ĠØ¨Ø§ÙĦ Øª
ĠÙĬ Ø¹Ø±Ùģ
ĠØ§ÙĦÙħØ¬ ØªÙħØ¹
ØŃ Ø§Ø¡
ØŃ ÙĬØ«
Øº Ø§Øª
Ø®Øµ Øµ
Ø±ÙĬ Ø§Øª
ĠØ§ÙĦØ£ Ø¹ÙħØ§ÙĦ
ĠØ§ÙĦØ³ ÙĪØ¯
Ġ19 0
ĠÙħÙĨ ØµØ¨
ØºÙĬ ÙĬØ±
Ø§ÙĦØ¨ Ø§
ĠØ£ ÙĪØ±
ĠÙĥ Ø°ÙĦÙĥ
Ø§ ÙĪÙĬ
Ùĩ ÙĬØ±
ĠÙĦ Ø¯
ĠØ´ Ø§Ø±Ùĥ
Ø± Ø®
ĠØ§ÙĦØŃ Ùħ
Ø§ÙĨ Ø³
ĠØ§ÙĦØ£ ØŃÙĬ
Ø§ ÙĩÙħ
ĠØ£ÙĬ Ø§Ùħ
ĠØ§ÙĦØ´ Ø¹Ø±
ĠÙħ Ø¯Ø±Ø³Ø©
ĠØ§ÙĦÙħ Ø®ØªÙĦÙģØ©
ĠÙĥ Ø§ÙĦ
Ø¹ Ø¨Ø©
o l
ĠØ§ÙĦÙĨ ÙĪØ¹
ĠØ§Ùĥ ØªØ´
ĠÙĪ ØµÙģ
ĠØ§ÙĦÙĥ ÙĪÙĬØª
ÙĬØ¯ Ø§
ĠØ§ÙĦØ± Ø§Ø¨Ø¹
ĠØ§ÙĦØ« ÙĪØ±Ø©
Ġ2 6
Ø§Ø¬ Ø©
ĠÙĬ Ø³ØªØ®Ø¯Ùħ
ĠÙħ ÙĪØ§ÙĦÙĬØ¯
ĠÙģ ØªØŃ
ĠÙĤ Ø³Ùħ
Ø° Ø±
ÙĪ ÙĬÙħ
ĠØŃ Ø¬Ùħ
ĠÙĩ Ùħ
ĠÙĦ Ø°ÙĦÙĥ
ÙĪÙĥ Ø§ÙĨØª
ĠØ§ÙĦØ³ Ø§Ø¯
ĠØ§ÙĦØª Ø§ÙĦÙĬ
ĠØ§ÙĦØ¥ Ø³
ĠØ§ÙĦØ£ Ø³Ø±
Ø§Ø ¤
ĠØ¯ Ø§Ø±
ĠÙĨ Ø¸Ø±
ÙĪ Ø³Øª
Øª Ùĥ
ÙĪ Ø®
ÙĪØ³ Ùģ
ØŃ Ø§Øª
Ø¬ ÙĬÙĨ
ĠØ§ÙĦØ£Ø® ÙĬØ±Ø©
Ø¬Ø² Ø§Ø¡
ĠØ§ÙĦØ¬ Ø§ÙħØ¹Ø©
Ø§Ø¨ Ø§
ĠØ¬ Ø§Ø¡
ĠØ¥ÙĨ Ø´Ø§Ø¡
ØªØ¨ Ø·
5 0
ĠÙħØ³ Ø§ØŃØ©
ÙĬØ± ØªÙĩ
ĠØª Ø¤
ĠØ§ÙĦØ® ÙĦ
ÙĬØ³ ÙĬ
ĠÙĪ Ø§ÙĨØª
ĠØ§ÙĦØ¹ Ø§ØµÙħØ©
ĠØ§ÙĦ Ø§Ùħ
ĠÙĬ Ø¹ØªØ¨Ø±
ĠØ¹ ÙĤØ¯
Ø¨ Ø§Ø±
ĠØ¥ ÙĬ
Ø¨Ø± Ø§ÙĩÙĬÙħ
ĠØ§ÙĦÙħÙĪ Ø§Ø¯
Ùĩ Ø§Ø±
ĠØ§ÙĦØ£ÙħØ±ÙĬÙĥ ÙĬ
ĠØ¹ ÙĬÙĨ
ĠÙģ Ø¶
ÙĪØ± Ø§
ĠØ§ÙĦØ® Ø§Øµ
ĠØ§ÙĦÙħ Ø·
ĠØ§ÙĦØ¹ Ø²ÙĬØ²
ĠØ§ÙĦÙĥ ÙĩØ±Ø¨
Ø§ÙĦ ÙĤ
ÙĪÙĬ Ø¯
ĠØ¨Ø§ÙĦ ØŃ
Ġ200 3
ĠØ§ÙĦØ¬ÙĨÙĪØ¨ ÙĬØ©
ĠØ§ÙĦÙħ Ø±Ùĥ
ĠÙĪØ§ÙĦ Øµ
ĠØ§ÙĦØŃØ¯ÙĬØ« Ø©
ØµÙĦ Ø§ØŃ
Ùĩ Ø§Øª
Ġ Ø§Ø«
ĠÙĦ Ø¹Ø¨
ÙĦÙĬ Ø¨
Ùģ Ø§Ø¶
ĠØ¹ Ø§Ø¯
Ø² ÙĪ
Ġ2 8
Ġ2 7
ÙĦ Ø³
ÙĪØ¨ Ø¹Ø¯
ĠØ¥ÙĬØ· Ø§ÙĦÙĬØ§
ĠØ¨ Ø±ÙĬØ·
ĠÙĪ Ø¢
ĠØ¢ ÙĨ
ØªØ± ÙĨØª
ÙĬØª ÙĩØ§
Øº ÙĬÙĦ
ĠÙĪØª ÙĤ
ĠØ§ÙĦØº Ø±Ø¨ÙĬ
ĠØ§ÙĦØº Ø±Ø¨
ĠØ¥Ø³Ø¨ Ø§ÙĨÙĬØ§
Ø° Ø§Ùĥ
Ġ in
ĠØ§ÙĦØµ Ùģ
Ø¤ ÙĪÙĦ
ĠØ¹ÙĨ ÙĩØ§
ĠØ£ Ø±Ø¨Ø¹Ø©
ĠØ§ÙĦØª Ø§Ø³Ø¹
ĠØ§ÙĦØªÙĤ ÙĦÙĬ
Ø§ÙĦ Ùĩ
ĠØ£ Ø±Ø¶
Ø´ Ø§Ø±Ø©
ÙĪ ØŃØ©
ĠØ¨ÙĦ Ø¯ÙĬØ©
ĠØ¨ Ùģ
ÙģÙĬ Ø¯
Ùĩ Ø§Ø¡
ĠØ§ÙĦÙħ Ø¶
ĠØ· ÙĦØ¨
ĠØ§ÙĦØ¨ ÙĨ
Ø§Ø´ Ø§
ĠØ¬Ø² ÙĬØ±Ø©
Ø³Ø¨ Ø§Ø¨
ĠØ§ÙĦ Ø¯ÙĬ
ĠØ§ÙĦÙģÙĦ Ø³Ø·
ĠÙĪØ§ÙĦ Ø®
ĠØ¬ ÙĬØ´
ÙĬÙĦ Ø§
ÙĪÙĩ ÙĪ
Ø³ÙĦ ÙĪØ¨
Ø³Ùħ Ø§Ø¡
Ø³Ùħ ØŃ
ĠØ§ÙĦØª Ø§ÙĦÙĬØ©
ĠÙĪØª ÙĨ
ĠØ¨Ø§ÙĦ Ùĥ
ĠØ§ÙĦØ¹ÙĦÙħ Ø§Ø¡
ĠØ§ÙĦØ´ Ùħ
ĠØ¥ Ø¹Ø§Ø¯Ø©
Ġ n
Ø¨ÙĬ Ø¶
Ø§ÙĦ Ø¹
Ø®Ø± Ø§Ø¬
ĠØ§ÙĦØŃØ± Ø§Ø±Ø©
ĠØ§ÙĦØ³ Ùģ
ĠØ¹ ÙĤ
ĠØ§ÙĦÙħ Ø¬ÙĦØ³
Ġ200 2
ĠÙĤ ÙĦ
ĠØ£ÙħØ±ÙĬÙĥ Ø§
Ùħ ØŃ
Ùĥ ÙĬØ©
ĠØ£ ÙģØ±ÙĬÙĤÙĬØ§
ĠØªØ· ÙĪÙĬØ±
ØŃ Ø§Ø¨
ÙħÙĪØ° Ø¬
ĠÙĥÙĦ ÙĬØ©
ÙĪ Ø§ÙĤ
ÙĪÙĦ Ø§Øª
ĠØ§ÙĦØ¹ÙĦ ÙĪÙħ
ÙĤ Øµ
Ø§ÙĨ ÙĪÙĬØ©
ĠÙĦ Ø³
ĠÙģ ÙĩÙĪ
ĠØ§ÙĦÙħØ¯ ÙĨ
ti on
ĠÙĤ ØªÙĦ
Ø§ØŃ Ø¨
ĠØ¬ Ø§Ø¦Ø²Ø©
Ø¦ ÙĬ
Ø±ÙĬ Øª
ĠØ§ÙĦØ¨Ø±ÙĬØ· Ø§ÙĨÙĬØ©
Ø¬ Ø§Øª
ÙħØ§ Ø¹Ø©
ĠÙĦ ÙĤØ¨
ĠØ§Ø± ØªÙģØ§Ø¹
Ùĩ ÙĨØ§Ùĥ
Ø§Ùĩ Ø¯Ø©
a c
ĠØ¯Ø± Ø§Ø³Ø©
Øµ Ø§Ø¨Ø©
ĠÙĪ ØŃØ¯
ĠØ§ÙĦ Ø±Ø¨
ĠÙĨ Ø³Ø¨
ĠØ§ÙĦÙĨ Ø§Ø¯ÙĬ
e t
ĠØ§ÙĦØ¬ Ø³Ùħ
Ø§Ø¬ Ø¹
ĠØŃ Ø²Ø¨
ÙĬØ² Ø©
ĠÙĦÙĦ Ø¬
Ø§ØŃ Ø«
ÙĪ ØªØ±
ĠØŃ ÙĬ
ĠØ® ÙĦÙģ
ÙĦØ¨ ÙĬØ©
Ø« ÙĨØ§Ø¡
Ø¶ ÙĬØ©
ØªÙħ ÙĬ
Ø§Ùģ Ø±
ĠÙĪØ§ÙĦ Ø¯Ùĩ
ĠØ§ÙĦØ¯ ÙĪØ±ÙĬ
ĠØ§ÙĦØ³ÙĦ Ø·Ø§ÙĨ
Ø¹ÙĦ ÙĤ
ĠÙĨ Ùĩ
ĠØ§ÙĦØ¥ Ùħ
ĠØ§ÙĦØ£Ø± Ø§Ø¶ÙĬ
Ø§Ø¬ Ùħ
ĠÙĦ Ø±
ĠØ§ÙĦØ¥ ÙĦÙĥØªØ±
Ø¥ Ø¶Ø§ÙģØ©
ĠÙħØ¹ Ø±ÙĥØ©
ĠØ¯Ùħ Ø´ÙĤ
ĠØ§ÙĦ ÙĪØ±
ĠØ¨Ø§ÙĦ Ùģ
Ġ !
ĠØ²ÙĬ Ø§Ø¯Ø©
ĠØ§ÙĦØ§Ø¬ØªÙħØ§ Ø¹ÙĬØ©
Ø§Ø¦ Ø¬
Ø§Ø¨ ÙĬØ©
Øª ÙĪÙĬ
Ùĥ ÙħØ©
ĠÙĦÙĦ Ùĥ
ĠØ§ÙĦÙĪØ³Ø· Ùī
ĠÙħÙĤ Ø±
ĠØ§ÙĦØ¥ Ø³Ø¨
ĠØ¨ Ø§Øª
ĠØ± ÙĪØ³ÙĬØ§
Ø¨ ÙĬØ±
ĠØ§ÙĦÙĤ Ø§ÙĩØ±Ø©
ĠØ§ÙĦØ¯ ÙģØ§Ø¹
ĠØ£Ø¯ Ùī
ÙĪÙĦ Ùĩ
ĠØ§ÙĦÙħÙĬÙĦ Ø§Ø¯
Ø¥ Ø°Ø§
ĠÙħ ÙĥØªØ¨
ĠÙģ ÙĩÙĬ
Ø¯Ùħ Ø§Øª
ĠØ§ÙĦØ¹ ÙĦÙĬØ§
ĠØ¨Øº Ø¯Ø§Ø¯
ĠØ± Ø¨
Ø§Ùĥ ÙĦ
ĠÙĪ Ø¶
ÙĪØ§Ø± Ø¯
ĠÙħØ¹ Ø±ÙĪÙģ
ÙĪØ¬ ÙĪØ¯
ĠØ§ÙĦÙĥÙĨ ÙĬØ³Ø©
i d
ĠÙħØª ÙĨ
Ġs p
ĠØŃØ¯ Ø«
ĠØ§ÙĦØ£ Ø¨
ĠÙĤ ÙĪØ©
ĠØ£ÙĨ ØŃØ§Ø¡
ĠØªØŃ Ø¯ÙĬØ¯
ĠØ§ÙĦÙĥ Ø¨Ø±Ùī
ĠØ¨ Ø°ÙĦÙĥ
ÙĪ Ø§Ø²
ĠØ§ÙĦØ¹ Ø¶
ĠØ§ÙĦØ£ Ùģ
ĠÙĤ Ø§Ø¦ÙħØ©
Ùĥ Ø¯
ĠÙĬ Ø¨ÙĦØº
Ġ5 0
ÙĪ Ø¸
ĠØ¨Ø¹Ø¯ ÙĩØ§
ĠÙĪØ¨ ÙĬÙĨ
ĠØª ÙĪØ¬Ø¯
ĠÙĦØ¨ÙĨ Ø§ÙĨ
Ø² ÙĬÙĨ
Ø´ Ø©
ĠÙĬ Ø£
ĠØ§ÙĦÙħØº Ø±Ø¨
ĠÙħØ¨ Ø§Ø´Ø±Ø©
Ġ m
ĠØ§ÙĦØ£ ØµÙĦ
ĠÙĨ ØµÙģ
ĠØª ÙĥÙĨ
Ġ200 1
ÙĬÙĨ Øº
ĠÙĪØ£ ØµØ¨ØŃ
ĠØ§ÙĦÙħØ³ÙĬ ØŃÙĬ
Ùħ Ùħ
ĠØ§ÙĦØ³ÙĬ Ø§Ø³ÙĬ
ĠØ³ ÙĦÙĬÙħ
ØªØµ Ùģ
ĠØ§ÙĦØ¨ØŃ Ø±ÙĬØ©
ĠØ¨ ÙĪØ±
ĠØ§ÙĦØ¯ ÙĥØªÙĪØ±
ÙĪØ§ Ø©
ĠØªÙĤ ÙĪÙħ
ĠØ§ÙĦÙĨ Ø¸
Ø§Ø¨ ÙĨ
Ø§Ø¨ Ø·
ĠØ´ Ø¹Ø¨
Ø¨Ø¯ ÙĪ
Ġ '
ÙĪÙĩ ÙĬ
ĠØ´ Ø¨Ùĩ
ĠØ§ÙĦÙĨ Ø¨ÙĬ
ĠØ§ÙĦÙĤØ± Ø¢ÙĨ
ÙĪÙĦ ÙĥÙĨ
ĠØªÙĤØ±ÙĬØ¨ Ø§
ĠØ§ÙĦØ£ ÙħÙĨ
ĠÙħØª ÙĪØ³Ø·
ĠØ¨ ÙħÙĨ
Ø« ÙĬÙĦ
ĠØªØ£Ø³ ÙĬØ³
Ø§ ÙĪ
ĠØ§ÙĦ Ø¯ÙĬÙħ
ĠØ§ÙĦØ®Ø§Ø±Ø¬ ÙĬØ©
ĠØ§ÙĦØ¨ØŃ Ø«
ÙĪØ¨ ÙĬ
Ġ ÙĢ
Ġ Ø§Øµ
ĠØ³ ÙĪØ±ÙĬØ§
ĠØ§ÙĦÙĨ ÙĪ
ĠØ§ÙĦ Ø§Ø´
ĠØ§ÙĦÙĤ Ø¯ÙĬÙħ
Ġ w
ĠÙĥ ÙĬ
ĠÙĦØ¹ Ø§Ùħ
ĠØ§ÙĦÙĥ ÙĬÙħÙĬ
ĠÙĦ Ø§Ø³Øª
ĠÙģÙĦ Ø³Ø·ÙĬÙĨ
ĠÙħ Ùģ
Ø§Ø¦ Ø±Ø§Øª
Ø§Ø¨ ÙĦØ©
ĠØªØ¹ ØªØ¨Ø±
ĠÙĥ ÙĦÙħØ©
Ø¹ Ø§Ùħ
l o
ĠØ§ÙĦØŃ Ø¶
ĠØ§ÙĦÙĨ Ø³
ĠØ§Øª ÙģØ§ÙĤ
ĠØ´ÙĬ Ø¡
Øª ÙĦØ©
ÙĬÙģ ÙĬØ©
ĠØ§ÙĦØ´Ø± ÙĤÙĬ
Ø¹Ø¯ Ø¯Ø©
1 0
Ø³ Ùĥ
ĠØ§ÙĦÙĤ Ø·
ĠØ¥ Ø¨Ø±Ø§ÙĩÙĬÙħ
ĠØŃ Ø¯ÙĬØ«
ĠØ§ÙĦØ¹ÙĦÙħ ÙĬØ©
ØŃ ÙĨ
ÙĦÙĬ ÙĬÙĨ
ĠÙĪ ØªØ±
Ġ Ø§ÙĬ
ĠØ§ÙĦØ¹ÙħÙĦ ÙĬØ©
ÙĦ ÙĪÙĦ
Ø¹Ø± Ø§Ø¶
ĠØ§ÙĦÙħØ³ÙĬ ØŃÙĬØ©
ĠØª ÙĤØ¯Ùħ
ĠÙĪØ² Ø§Ø±Ø©
Ġ18 6
in g
Ø· ÙĪÙĬØ±
ĠØŃ ÙĬØ§ØªÙĩ
Ġ W
ĠØ§ÙĦØ£ Ø·ÙģØ§ÙĦ
ÙĪØ² ÙĬØ¹
Ùĩ Ø°Ùĩ
ĠØ§ÙĦØµ ÙĬÙĨ
Ùĥ ÙĦØ©
ĠØ§ÙĦØ¬ Ø¯
ĠØ£ ØŃÙĬ
ĠØµ ÙĦ
Ġ2 9
Ø§Ø¦ Ùģ
Ø¦ Ø§Ø³Ø©
ĠØ§ÙĦØ¯Ø§Ø® ÙĦÙĬØ©
Ø«ÙĦ Ø§Ø«
Ø¬Ø± Ø§Ø¡
ĠØ§ÙĦÙĩ ÙĬ
Ø§Ø¦ Ø¯Ø©
ĠØ£ÙĪ Ø§Ø®Ø±
Ø§ÙĩØªÙħ Ø§Ùħ
ĠÙĦ Ùģ
ĠØ£ Ø±Ø¨Ø¹
Ùĩ Ø±Ø©
ĠØ¨ Ø§Ø´Ø§
ĠÙĬ Ø³ÙħÙī
ĠÙħ Ø´Ø±ÙĪØ¹
Ø®Ø¯ ÙħØ©
ĠÙĦ ÙĢ
ĠÙĦÙĩ Ø°Ø§
ĠØ§ÙĦØ² ÙħÙĨ
ĠØ§ÙĦØ®Ø§Ùħ Ø³
Øª Ø§ÙĨ
ĠÙĪÙħ ØŃ
ĠØ¯ ÙĬÙĨ
ĠØ§ÙĦØ¹Ø§ÙĦÙħ ÙĬ
ĠØ§Ø³ ØªÙħØ±
ÙĤ Ø§Ø¡
ĠÙĪÙĨ Ø³Ø¨Ø©
ĠÙĬÙĤ Ø¹
ĠØ§ÙĦØ· ÙĦ
Ø±ÙĬ Ø¨Ø©
ĠÙĪØŃ ØªÙī
Ø±ÙĬ Ø¶
Ø° Ø¨
ĠØ· ÙĪÙĬÙĦØ©
ĠÙĪØŃ Ø¯Ø©
Ø§Ø« ÙĪÙĦ
ĠØ£ Ø¹Ø¶Ø§Ø¡
Ø¹ Ø§ÙĬØ©
ĠØ¨ØŃ ÙĬØ«
ĠØ¹ Ø§ÙĦÙĬØ©
ÙĨØ¯ ÙĨ
Ġ4 0
Ø± Ø§Ø¡
ĠØ®ÙĦØ§ÙĦ ÙĩØ§
ĠØ§ÙĦØ³ÙĦ Ø·Ø©
Ġ o
ĠÙĨ Ø·Ø§ÙĤ
ÙĥÙĪ ÙĬÙĨ
Ùĩ ÙĨ
ĠÙģ Ø§Ø²
Øª ÙĪÙĨ
Ø§Ø² ÙĦ
Ùħ Ø²
ĠØ¥ ÙĤÙĦÙĬÙħ
Ùĥ Ø§Øª
ĠØ° ÙĪ
Ø³Øª Ø§Ø°
ĠØ§ÙĦØ· Ø±ÙĬÙĤ
ĠØ§ÙĦØ® ÙĦØ§ÙĬØ§
i l
Ø§Ø¯ ÙĬÙħ
ĠÙĩ ÙĨ
ĠÙħÙĨ Ø¸ÙħØ©
ĠØ± Ø¤
ĠØ¹Ø´ Ø±Ø©
ĠÙĬ ØµÙĦ
ĠØª ØªÙħ
ÙĪØ§ÙĨ ÙĬÙĨ
ĠØ§ÙĦÙĥ ÙĪÙĨ
ĠØ§ÙĦÙħ Ø¯Ø±Ø³Ø©
u r
ĠÙĦØ£ ÙĪÙĦ
ĠÙħ Ø±Ø¶
Ø§ÙĨ Ùĩ
ĠØ§ÙĦ ÙĢ
Ø³Øª ÙĪØ±
Ø¯Ø± Ø³
ĠØ§ÙĦØª Ø§Ø¨Ø¹Ø©
Ø§Ø¬ Ø§Øª
ĠØ¨Ø§ÙĦ Ø±
ĠÙĪØ¬ Ùĩ
ÙĨØ§ ÙĪÙĦ
ĠØ§ÙĦØ£Ùĥ Ø¨Ø±
Ø§ ÙĬØª
ĠÙĦ ÙħØ§
ÙĬÙĥ ÙĬ
Ġf ormula
Ø±ÙĬ Ø§
ĠØ§ÙĦØ¨Ø±ÙĬØ· Ø§ÙĨÙĬ
Ø² ÙĨ
ĠØµ Ø¯
Øª Ø§ÙĦ
ĠÙĤ ÙĨØ§Ø©
ĠÙĥ ÙĪÙĦ
ĠØ§ÙĦØªØ¬ Ø§Ø±ÙĬØ©
ĠØªØ¹ ÙħÙĦ
ĠØ¹ ØµØ±
ĠÙħØ¹ ÙĦ
ĠØ§ÙĦØ´ ÙĥÙĦ
Ø§Ø± ÙĨØ©
Ø¹ Ø·
ĠØª ÙĪÙģÙĬ
ĠØª Ø³ÙħÙī
ĠØ§ÙĦØ¬Ø² Ø§Ø¦Ø±
Ø¨ ÙĪ
Ġ18 9
ÙĬ ØªÙĩ
ÙģØ§Ø¹ ÙĦ
ĠØ¨ Ø§Ø¹
ĠÙħØ¯ ÙĨ
ĠÙĬÙĤ ÙĪÙĦ
ĠØ§ÙĦØ´Ø®Øµ ÙĬØ©
Ø§Ø¦ÙĦ Ø§Øª
ĠØ± ÙģØ¶
ĠÙĥÙĬÙĦ ÙĪÙħ
Ø¤ ÙĦØ§Ø¡
ÙĬ ØŃ
ÙĦ ÙĦ
ĠØ§ÙĦÙħØŃ ÙĦÙĬØ©
ÙĪ ØµÙģ
ĠØ¹ Ø§Ø¦ÙĦØ©
ĠØ± Ø¬ÙĦ
ĠØ§ÙĦØ£Ø³ Ø§Ø³ÙĬØ©
ĠÙħ ÙĪÙĨ
Ø± Ø§Ø¹
ĠÙĬØ¤ Ø¯ÙĬ
ĠØ§ÙĦØ¯ ÙĬÙĨÙĬØ©
ÙĬÙĥ Ø§
ĠÙĥ ÙĦØ§
Ø¬ ÙħØ©
ĠØªØµ ÙĨÙĬÙģ
ĠØ§ÙĦÙĦ Ø¨ÙĨ
ĠÙħØ§ ÙĬ
ĠØ§ÙĦØ¨ Ø§Ø±
ĠÙħÙĤ Ø§Ø¨ÙĦ
Ø³Ø³ Ø§Øª
Ùħ ÙĪÙĨ
Øª Øº
ÙĨ Ø¹
Ø¨ Ø§Ø·
ĠØ§ÙĦØ£ ÙĪØ±
ĠØ§ÙĦØ®Ø§Ùħ Ø³Ø©
ĠÙĪØ¨ Ø§ÙĦØªØ§ÙĦÙĬ
ĠØ§ÙĨ Ùĩ
ĠØ§ÙĦØº Ø°
ÙĨ Ø§Ø·
ÙĪØ¬ ÙĬÙĨ
ĠÙħ Ø·
ĠÙĦØ¯ÙĬ ÙĩØ§
ĠÙĪ Ø§Ø¯ÙĬ
ÙĪØ¹ ÙĬØ©
Ġsp an
ĠØ§ÙĦØ³ ÙĬÙĨ
ĠÙĬ Ùĥ
ĠØ¹Ùħ ÙĦÙĬØ§Øª
Ø« ÙĬ
ØŃ ÙĤ
ÙĪ Ø§ÙħÙĦ
Ø® Ùħ
ĠØ§ÙĦØ¨Ø± ÙĪØª
ĠÙĪÙĦÙĥÙĨ Ùĩ
ĠØ§ÙĦÙħÙĪØ¬ ÙĪØ¯Ø©
ÙģØª Ø±Ø©
Ø§Ùģ Ø¹
ĠØ§ÙĦØ¯ ÙĪØ±
ĠØ´ Ø¹Ø±
ØªÙĩ Ø±
ĠØ§ÙĦØ¥ÙħØ¨Ø±Ø§Ø· ÙĪØ±ÙĬØ©
ÙĪ ÙĬØ§
ĠØŃ Ø³ÙĨ
ĠØ§ÙĦØª Ùģ
ĠØª Ø¹Ø¯
e d
ĠÙĦÙĩ Ø°Ùĩ
ĠØŃ ÙĬØ§Ø©
Øª ÙĤØ¯
ĠØ§ÙĦÙħØ¬Ùħ ÙĪØ¹Ø©
ĠÙĬ Ø¹Ø¯
ĠØ§ÙĦØ¹Ø«Ùħ Ø§ÙĨÙĬØ©
ØªÙħ ÙĦ
ĠØ³ ÙĬÙĨ
ĠØ§ÙĦØ£ Ùĩ
ØªÙħ Ø§Ø¯
ĠØ§ÙĦØ·Ø¨ÙĬ Ø¹ÙĬØ©
ĠØ§ÙĦØ³ Ø±ÙĬ
ĠØ§ÙĦØ³Ø§Ø¯ Ø³
ĠÙħ Ø§Ùĥ
ÙĦ Ø§Ùħ
Ø§Ø¦ Ø©
l u
ĠÙĪ Ø§Ø¶
ĠÙĦØ§ØŃ ÙĤ
ĠØ§ÙĦØŃÙĬÙĪ Ø§ÙĨØ§Øª
ĠÙĦÙĦ ÙħÙĨ
ĠØ¢ Ø³ÙĬØ§
ĠÙĪØª Ø´
Ø§Øµ ÙĦ
ĠÙĪÙĬ ÙĤ
ĠØŃÙĥ ÙĪÙħØ©
ĠØ® ÙħØ³Ø©
ĠÙĪØ§ÙĦ Øº
ĠÙĦÙĦ Ø±
ĠØª ØµÙĦ
ĠØ§ÙĦÙħ Ø¹Ø¯
Ø§Ø¨ Ø±
Ùģ ÙĤ
ĠØ§ÙĦØ¥ÙĨ ØªØ±ÙĨØª
Ø¨ÙĬ Ø¹
Ġ O
ÙĥÙĨ Ø¯Ø±
ĠØ¹ Ø¯ÙĬØ¯Ø©
Ø§Ùĥ Ø²
ĠØ£ Ø®Ø°
ĠØ§ÙĦÙħ ÙĪÙĤØ¹
ĠØª ÙĨØª
ĠÙĥØ« ÙĬØ±Ø©
Ø±ÙĬ Ø¯Ø©
ĠØŃ Ø§ÙĦ
Ġ a
Ø§Ø± ÙĬØ§
ĠÙħ Ø§ÙĨ
ØŃÙĬ ØŃ
ĠØªØŃ ÙĤÙĬÙĤ
Ø§Ø± ÙĬØ§Øª
ĠÙĨÙģØ³ ÙĩØ§
ĠÙħØ¹ Ø¯
ØªÙĦ Ø§Ùģ
ĠÙĦ ÙĬÙĨ
ĠÙĦ Ø¥ÙĨ
ĠÙĦÙĬ Ø³Øª
u n
Ø§ÙĦÙĬ Ùģ
ĠÙĪ ÙĩÙħ
ĠØ§ÙĦØ¬Ùħ ÙĩÙĪØ±ÙĬØ©
Ø¶ Ø§Ùģ
ĠØª Ø¹Ø±Ø¶
ĠÙĥ ÙĦÙħ
Ø¯Ø± Ø¬Ø©
ĠØ§ÙĦØ¯Ø± Ø¬Ø©
Ø²Ø± Ø§Ø¡
ĠÙģÙĬ Ø±
ĠÙĩ ÙĨØ§
ĠÙĬ Ø®
ĠÙĨ Øµ
ĠØ§ÙĦÙĥØ¨ ÙĬØ±Ø©
ĠØ® ÙĦÙĬ
ĠÙĬÙĦ Ø¹Ø¨
ĠØ§ÙĦØ£Ø® ÙĬØ±
ĠØ¸ ÙĩÙĪØ±
Ġ18 8
ĠØ§ÙĦØŃ ÙĦ
Ø¯ÙĬ ÙĪ
ĠØ§ÙĦÙħØª ÙĪØ³Ø·
Ø§ÙĨ ÙĪ
Ø¬ ÙĬØ©
Ø®ÙĬ Øµ
ĠÙĦ ØºØ©
ĠØ§ÙĦÙĪ Ø²Ø±Ø§Ø¡
Ø² Ø§Ùħ
Ġ201 3
ĠØ§ÙĦØ£Ùħ Ùħ
ÙĪØ§Ø¹ Ø¯
ĠØ§ÙĦØ¨Ø· ÙĪÙĦØ©
ĠÙĦ ÙĨØ¯ÙĨ
Ø¹ Ø§ÙĨ
ĠÙĦÙĦ Øº
ĠØ§ÙĦØ¬ ÙĪÙĬØ©
ĠÙĪØ¨ Ø¹Ø¶
ĠØŃ Ø³ÙĬÙĨ
ĠØ§ÙĦØŃØ¯ ÙĪØ¯
ĠØ¹Ø¶ ÙĪ
ĠØ§ÙĦÙħØ³Øª Ø®Ø¯Ùħ
en t
ĠØ§ÙĦØ£ØŃ ÙħØ±
ĠØ¨ÙĨ Ø³Ø¨Ø©
ĠØ¹Ø§Ùħ ÙĬ
Øª Ø§Ø±
ĠÙħ Ø±Ùĥ
ĠÙħ ÙĤØ¯
ÙĦÙĬ ÙĪÙĨ
ĠØªØŃØª ÙĪÙĬ
ĠØ® ÙħØ³
ĠÙĦÙĥÙĨ Ùĩ
Øª ÙĬØ©
Øª Ø§Ø¦Ø¬
ÙĤ Ø³Ùħ
Ø§Ø¯ Øª
ØªÙĬ Ø¨
ĠØ§ÙĦØ¹ÙĦÙħ ÙĬ
Ø¹Ø¯ Ùħ
ĠÙħØŃ Ùħ
ĠØ§ÙĦØ¹ Ø¯Ø¯
ĠØ§ÙĦÙĤ ÙĦØ¨
ĠØ¨Ø±ÙĬØ· Ø§ÙĨÙĬØ§
Ø´ ÙĬØ¯
Ø§Ø± Ø¶
ØªÙģ Ø¹
Øª Ø§Ø²
ĠØªØ· Ø¨ÙĬ
ĠØ§ÙĦØ¹ÙĦ Ø§Ø¬
ÙĦØ¨ ÙĪÙħ
ĠØ³ ÙĪØ§Ø¡
ĠØ§ÙĦØ¥ÙĨ Ø¬ÙĦÙĬØ²ÙĬØ©
ĠØ§ÙĦØ¯Ø± Ø§Ø³Ø§Øª
ĠØ§ÙĦØŃ Ø¯ÙĬØ¯
ĠØ¨ Ø§Ø¨
ĠØ£ Ø¨Ø±Ø²
ÙĤØ± Ø§Ø±
ĠÙĨÙĤ Ø·Ø©
ÙĤ ÙĦØ©
ĠØ§ÙĦØ¨ Ø¯
ĠÙĪ Ø³ÙĬ
Ġ *
ĠØ§ÙĦÙħ Ø°
Ùĩ Øª
ĠÙĤ Ø·
ĠØµ Ø¯Ø±
ĠØ´ Ø¨ÙĥØ©
ĠØ£ ÙĩØ¯Ø§Ùģ
an d
ĠØ§ÙĦØ¯ÙĬÙħ ÙĤØ±Ø§Ø·
ĠØ¬ Ø§Ùħ
ĠØ· Ø±ÙĬÙĤØ©
ĠØ£ Ø¬
ĠØ£ Ø«Ø±
ĠØ§ÙĦØ³ÙĦ Ø§Ùħ
ĠØ± Ø³Ùħ
ĠÙĬ ÙĪØ³Ùģ
Ø¨Ø¯Ø£ Øª
Ø³Ø± Ø¹Ø©
ĠØ§ÙĦØ£ÙĦÙħ Ø§ÙĨÙĬØ©
Ø¶ Ùī
ĠØ¬Ùħ ÙĩÙĪØ±ÙĬØ©
ĠØ§ÙĦØ¥ ÙħØ§Ùħ
ĠÙĤ ÙĦÙĬ
r a
Ġ201 4
Ġ3 1
ØªÙĤ Ø¹
ÙĪÙĥ Ø³
ĠØ³ Ø§Ø¨ÙĤ
Ø³Ø± Ø§Ø¦ÙĬ
ĠØŃØ¯ ÙĪØ¯
h t
ĠØªÙĤ Ø¯ÙĬÙħ
ĠØ£ Ø·ÙĦÙĤ
ĠØ¹ Ø§ØµÙħØ©
ĠØ¨Ø£ÙĨ ÙĩØ§
ĠØ§ÙĦÙĤ ÙĦ
ĠÙĨØ¬ Ø§ØŃ
ĠØ§ÙĦØ£Ø±Ø¯ ÙĨ
ĠØ§ÙĦØ¥ÙĨ Ø¬ÙĦÙĬ
Ø§ÙĦ Ø¬Ø©
ĠØ§ÙĦØ«Ø§Ùħ ÙĨØ©
ĠØ¨ Ø§ÙĨ
ĠÙĪÙģ Ø§Ø©
ĠØ§ÙĦÙģ Ø¶
ĠØ¨ÙĤÙĬ Ø§Ø¯Ø©
ĠÙĪØ§ÙĦ ÙĦ
ĠØ§ÙĦØŃ Ø§ÙĦØ©
ĠØ§ÙĦØŃ Ø§ÙĦÙĬ
ĠØ¹ÙĦÙħ Ø§Ø¡
ĠØ§ÙĦØ¹Ø«Ùħ Ø§ÙĨÙĬ
Ø±ÙĬ ØŃ
ĠØ§ÙĦØ«Ø§ÙĦØ« Ø©
ĠÙħ ÙĬÙĨ
ĠØ§ÙĦØ£ Ø¨ÙĬØ¶
ĠØ¨Ø§ÙĦ Ø¥ÙĨ
ĠØ§ÙĦØ³ Ø§Ø¨ÙĤØ©
Ø® ÙĦØ§ÙĦ
ĠØ§ÙĦØ§ÙĤØªØµ Ø§Ø¯ÙĬØ©
Ø¬ ÙĨØ©
ĠØ´ Ø¹
Ø§Ø³ ÙĦ
Ø§ ÙĪÙĦØ©
ÙĪØ¹ ÙĬ
ĠØ§ÙĦØµ ØºÙĬØ±Ø©
Ø§ÙĤØªØµ Ø§Ø¯
ĠØ³ Ùģ
ĠØ¬Ùħ Ø¹
ĠÙħØ¬ ÙĦØ©
ĠØ¬ ÙĪØ±Ø¬
ĠØ¨ Ø³ÙĬ
ÙĪØ± Øº
ĠØ§ÙĦÙĩ ÙĪØ§Ø¡
ÙĬ Ø§Ø±
ĠØ£ÙĪ Ø§Ø¦ÙĦ
ĠØ§ÙĦÙħ Ø§ÙĦ
ĠÙĪ Ø§Ø¬
ĠØ± Ø¬Ø§ÙĦ
ĠÙĪØ² ÙĬØ±
ĠØ§ÙĦØŃ ØµÙĪÙĦ
ÙĩØ§ Ø¯Ø©
ØªØ± Ø§Øª
ĠÙĪÙĤ Ø§ÙĦ
ĠØ§ÙĦØ¨ÙĬ Ø§ÙĨØ§Øª
ĠØ¹ÙĦÙĬ ÙĩÙħ
ĠÙħØ¹ ÙĬÙĨØ©
ĠØ¨Ùĩ Ø°Ø§
ÙĦØ§ÙĦ Ø©
Ø§ ÙĬÙĨ
ĠØ§ÙĦØ£ÙĪØ±ÙĪØ¨ ÙĬ
ÙĪ Ø§ÙģÙĤ
ĠØ§Ø³Ùħ Ùĩ
ĠØ§ÙĦØ¥ ÙĨØªØ§Ø¬
Ø£ ÙĦÙģ
Ø¨ Ø§ØŃ
ÙĬÙĨ ÙĬØ§Øª
ĠØ§ÙĦØ±ØŃ ÙħÙĨ
ĠØ§ÙĦÙĨ Ø§Øª
ÙĪÙĦ Øª
ĠØ§ÙĦØŃ ÙĬ
Ø§Ø³ Ø¨Ø©
ĠØ¨ÙĨ ÙģØ³
Ġ V
ĠÙĬØ¹ ÙĨÙĬ
ĠØ§ÙĦØ® Ø±
Ø§Ø¦ Øµ
l y
ĠØŃÙĤ ÙĪÙĤ
ĠØ§ÙĦØ£ Ø¹
ÙģØ³ ÙĬØ±
ĠØ§ÙĦØ£ÙĦÙħ Ø§ÙĨÙĬ
ÙĪØ³ Ø¹
ĠØ§ÙĦØ¹ Ø³ÙĥØ±ÙĬ
ĠØ§Ø³Øª Ø®Ø¯Ùħ
Ġ Ø§Ø¬ØªÙħØ§
Ø¤ ÙĪÙĨ
ĠÙħÙĨ ØªØµÙģ
Ø¯Ø§ ÙĬØ©
ĠØ¨Ø§ÙĦÙĤ Ø±Ø¨
i a
ĠÙĪ Ø§Øª
ĠØ· Ø§ÙĦØ¨
Ø³ ÙģØ©
Ġ199 9
ĠØ§ÙĦÙħÙĦÙĥ ÙĬØ©
ĠØ§ÙĦÙĬØ§Ø¨ Ø§ÙĨ
ĠØ§ÙĦØ¥ÙĬØ· Ø§ÙĦÙĬ
ĠØ´Ø®Øµ ÙĬØ©
ĠÙĪÙĦÙĬ Ø³
ĠØ§ÙĦØ¬Ø² Ø§Ø¦
ĠÙħØ± ØŃÙĦØ©
ĠØ§ÙĦØªØ§Ø±ÙĬØ® ÙĬØ©
ĠÙĦØ£ÙĨ Ùĩ
Ø· ÙĤ
c h
ĠÙĬ Ùĩ
ĠÙĪ ÙĬØ³
Ø§ ÙĬÙĦ
ĠØ¨Ø¯ ÙĦØ§
ĠÙĥØªØ§Ø¨ Ùĩ
ÙĨ Ø§Ø¦ÙĬ
ĠØ¨Ø¯ ÙĪÙĨ
ÙĨ ÙĪØ§ÙĨ
ÙĤ Ø§ÙħØ©
ĠØ§ÙĦØ£ ÙĬ
ĠÙĩÙĬ Ø¦Ø©
ĠÙĬØ¹ ÙĬØ´
ĠØ§ÙĦÙĨ ÙģØ³
ĠÙģ Ø¹ÙĦ
Øµ ØŃ
ĠØ¨Ø§ÙĦ Ø³
ĠØ§ÙĦØ° Ùĩ
ĠØ§ÙĦÙĦ Ø§Ø¹Ø¨
ĠØ§ÙĦØ´Ø¹Ø¨ ÙĬØ©
ĠØ§ÙĦØ±ÙĪÙħ Ø§ÙĨÙĬØ©
Øª Ø§Ø±ÙĬØ®
ĠÙĥ Ø§ÙħÙĦ
ĠØ§ÙĦÙĬ Ùĩ
Ø´ ØŃ
ÙĬØ± ÙĪØ³
Ø§Ø³ ØªÙħØ±
ĠØ£ÙħØ±ÙĬÙĥ ÙĬ
ĠÙĨ Ø²
Ø³Øª ÙĪÙĨ
Ø§Ø¯ Ùĩ
ĠØªØ¹ ÙĦÙĬÙħ
ØªØ¬ Ø§Øª
ĠØ§ÙĦÙħØŃÙĬ Ø·
ĠØ§ÙĦ Ø§
ĠØ§ÙĦÙģ ÙĨØ§ÙĨ
ĠØ§ÙĦØ£ÙĪØ±ÙĪØ¨ ÙĬØ©
Ø§ÙĤ Ø¹Ø©
Ø³Ø± ØŃÙĬØ©
ĠÙħØµ Ø·ÙĦØŃ
ĠÙĩ Ø¤ÙĦØ§Ø¡
Ø¹ÙĦ ÙĪÙħ
ĠØ§ÙĦÙĪ ØµÙĪÙĦ
ÙĤ Ø§ÙģØ©
ĠØ¨Ø§Ø± ÙĬØ³
Ø´ Ø¨
ÙĨ Ùģ
ĠØµ Ø§ØŃØ¨
ĠÙĪ ÙĥÙĦ
ĠØ§ÙĦÙħ Ø§Ø¯Ø©
ÙĨØª ÙĬÙĨ
ÙĬ Ø¨ÙĦØº
ĠÙĥ Ø§Ùħ
ÙĦÙģ Ø§Øª
ĠØ§ÙĦÙĬ ÙĩÙĪØ¯
ĠØªØŃ ÙħÙĦ
ĠØ§ÙĦØ£Ø³ Ø±Ø©
Ø´ Ø§Ø±Ùĥ
ĠØ§ÙĦØ¬ ÙĩØ§Ø²
ĠØ§ÙĦØ³ ÙĬØ¯
ĠÙĥ Ø£
ÙģÙĬ Ø§
ĠØ± Ø£
Ø² ÙĪØ¬
ĠÙĤØ± Ùī
ĠØª Ø¹Ø¯Ø§Ø¯
Ø¬ Ø§Ø¬
ĠØ§ÙĦÙĪ Ø§ÙĤØ¹
Ġ18 7
ĠØ§ÙĦØ³ÙĨ ÙĪØ§Øª
ĠØŃ ÙħÙĦ
ÙĦÙħ ÙĪÙĨ
Ġ K
Ø¯ÙĬ Ø§Øª
i g
ĠØ§ÙĦØ´ Ø¨Ø§Ø¨
ĠØ³ Ø§ÙĨ
ĠÙĥØ«ÙĬØ± Ø§
ÙĪÙģ Ø©
ĠÙĦØµ Ø§ÙĦØŃ
Ø§ÙĤ ÙĬØ©
ĠØ£Ø³ Ø±Ø©
Ø±Ø§Øª ÙĬØ¬
ĠØ§ÙĦØª Ø¨
ĠØ® Øµ
ÙģÙĩ ÙĪÙħ
Ø§Ø± Ùģ
ĠÙĪ ÙĬÙĦ
ĠØªØµ ÙħÙĬÙħ
ÙĤ Ùī
ØŃØ¯ Ø¯
ĠØ§ÙĦÙĨ Ø³Ø§Ø¡
ĠÙĪÙģ ÙĤØ§
ĠØ¨Ùħ Ø¹
ĠØ¨Ø¯ ÙĪØ±
ÙĬ ØªÙħ
Ø· ÙĪÙĦ
ĠÙĪØ§ÙĦ Ùĩ
Ø¹ ÙĬÙħ
ĠÙĪ Ø§Ø¹
ĠØ² ÙħÙĨ
Ø± Ø±
ĠØ§ÙĦØª ÙĪÙĨ
ĠØ§ÙĦÙĥ ØªØ¨
Ø¯Ø± Ø§Ø³Ø©
ĠÙĦÙĦ Ø¨
ĠØ¥ Ø·ÙĦØ§ÙĤ
ĠÙĤ Ø·Ø±
Ø§Ø· Ø©
ĠØ§ÙĦØ£ØŃÙĬ Ø§ÙĨ
Ġ199 8
ĠÙĪ ÙħØ±
ĠØ± ØºÙħ
ĠØ§ÙĦØ¹ ÙĩØ¯
ĠÙĪ ÙĬØ±
ĠØ£ ÙģØ±Ø§Ø¯
Ø¬Ùħ ÙĪØ¹Ø©
ÙĪ ÙĩØ§
ĠÙĬ Ø¸ÙĩØ±
ĠÙģ Ø§ÙĦ
Ø¬ÙĦ ØªØ±Ø§
ĠÙĬØ¹ ÙĪØ¯
ØŃØµ Ø§Ø¡
ĠØ¬ ÙĩØ©
Ø§Ø² ÙħØ©
ĠØµ ÙĪØª
ĠØ® ÙĦ
ĠÙħ Ø§Øª
ĠØª Ùĩ
ĠØ± ÙĪÙħ
ÙĪÙĬ ÙĪØ±Ùĥ
ĠØ§ÙĦØ¨ Ø¯Ø§ÙĬØ©
ĠÙĨ Ø´Ø§Ø·
Ø¹ÙĦ Ø§Ø¬
ĠØ§ÙĦØ£ ÙĪØ³Ø·
ĠØ¶ Ø¹
ĠØ£Ø¨ ÙĨØ§Ø¡
ĠØª Ø¹Ø±Ùģ
ĠÙģ Ø§ÙĨ
Ùħ Ø·
Ø§Ø¬ Ø¯
ĠÙħ ØªØŃ
ĠØ§ÙĦØ¬ ÙħØ§
Ø§Ø¨ Ø·Ø©
ĠØ§ÙĦØ«Ø§Ùħ ÙĨ
ÙģÙĬ Ø§Øª
ĠØ§ÙĦÙĥ Ø§Ø«ÙĪÙĦ
ĠØ§ÙĦÙħ Ø«
ĠØ§ÙĦÙħØ¬ Ø§ÙĦ
ĠØ¨Ø§ÙĦÙĦ ØºØ©
ØªØ±Ø§ ÙĪØŃ
Ø´ Ø¹
Ø²ÙĬ Ø§Ø¡
ĠÙĪØ§Ø³ Ø¹
ĠØ¹Ø§Ùħ Ø©
Ø¯ Ø§Ø±Ø©
ĠÙĬØ¬ Ø¹ÙĦ
ĠØ¯ ÙĪØ±ÙĬ
ĠØ³ ÙĬØ±
Ø¹ Ø§Ø¡
ĠØ¥ ÙĬØ±Ø§ÙĨ
ĠØªÙĨ Ø¸ÙĬÙħ
ĠØ§ÙĦ Ø§Ø±
Ø´Ø± ÙĤ
ĠÙħ Ø±Ø¨Ø¹
ĠÙĬ ØŃØ¯Ø«
i v
ĠÙģ ÙĤØ§ÙĦ
ÙĪØ¨ Ø§Øª
Ġ ;
ĠØ§ÙĦÙħØ¨ Ø§Ø±Ø§Ø©
ÙĪ Ø§Ùĥ
ĠØ¨ÙĦ Ø¯Ø©
ĠÙĪÙģ ÙĤ
Ø§Ø· ÙĨÙĬÙĨ
ĠØ§ÙĦØ³ÙĥØ§ÙĨ ÙĬØ©
Ø§ÙĦ ÙħÙĨ
ĠÙĪÙĤ Ø§Ùħ
Ùģ Ø§Ø¸
ĠØ¬ ÙĩØ§Ø²
ÙĪØ§Ø¦ Ø²
ĠØª Ø´ÙĥÙĦ
ĠØ³ Ø±ÙĬ
ĠÙĬØ² ÙĬØ¯
Ø¨ØŃ Ø«
ĠØª Ø¸ÙĩØ±
ØŃ ØµÙĦ
ĠØ¢ÙĨ Ø°Ø§Ùĥ
ĠÙħØ± Ø§Øª
Ġt he
ĠØ£Ùħ ÙĬØ±
ĠÙĦ Øº
ĠØ§ÙĦØ± ÙĤ
ĠØ§ÙĦÙĪ Ø§ØŃ
ĠÙĨ Ø¨Ø§Øª
ĠØ£ÙĩÙħ ÙĬØ©
Ùĥ Ø§Ùħ
ĠØ§ÙĦØ¹ ØµÙĪØ±
Ø¹ Ùĩ
ĠÙĪØ§ÙĦ Ø³ÙĬ
ĠØ´ ÙĩØ¯
ÙĪÙģ ÙĬØ±
ĠØ§Ø® ØªÙĬØ§Ø±
ĠÙĪØ£ ÙĬ
Ø´ Ø·Ø©
ĠØ§ÙĦÙħ Ø§Ø¶ÙĬ
Ø«Ùħ Ø§ÙĨ
ĠØ§ÙĦØŃ Ø§ÙĦØ§Øª
ĠÙĪ Ø¨Ø±
Ø¹ ÙĨØ¯ÙħØ§
ĠØ§ÙĦØ®ÙĦÙĬ Ø¬
ĠØµ ÙĪØ±Ø©
ĠÙĬ ÙĦÙĬ
ĠØµÙĨ Ø§Ø¹Ø©
ĠØ£Ø± Ø§Ø¶ÙĬ
Ġ +
ĠØ² Ø±
ĠÙĩ ÙĪÙĦ
Ø§Ø¯ÙĬÙħ ÙĬØ©
ĠÙħØ¯ Ùī
Ùħ Ø§Ø±
ÙĥÙĬ Ø¨ÙĬ
ĠÙĬ Ø§
ĠØ® Ø±
ĠØ§ÙĦØ³ Ø§Ø¨Ø¹
ØªØ± Ùģ
ĠØ§ÙĦÙħØ¤ Ø±Ø®
ĠØ§ÙĦØ´ Ø§Ùħ
ĠØ£ Ø³Ø±
ĠØ§ÙĦÙĥ Ø«
ĠØ¨Ø¹Ø¶ ÙĩØ§
Ġ Ø§Øº
ĠÙħØµ Ø¯Ø±
Ø§ÙĦ Ø§
ÙĨ ÙĬØ§Øª
Øµ Ø§ÙĦØ§Øª
ĠØ§ÙĦØ¹ Ø¸Ùħ
ĠØ¯ Ø¹
Ø¨ÙĤ Ùī
ĠØ¨ ÙĥÙĦ
ĠØ¯ Ø¹Ùħ
Ùħ Ùī
ĠØªÙħ ÙĥÙĨ
o s
ĠØ§ÙĦØª ØŃØ±
Ø±Ø¨ ÙĪÙĨ
ĠÙĤÙĬ Ø§Ø¯Ø©
ĠÙĪØ® Ø§ØµØ©
ĠØµ ØºÙĬØ±
Ø§Ùħ ÙĬÙĨ
ĠØ£ØŃØ¯ Ø§Ø«
ĠØ§ÙĦØ·Ø¨ÙĬ Ø¹ÙĬ
1 2
Ø±Ø¨ Ø·
Ø§ÙĤ Ø¨Ø©
ĠØ§ÙĦÙħØ± ØŃÙĦØ©
Ġ Ø§Ø¬
ĠØª Ø¶Ùħ
ĠØ¯ ÙģØ¹
ĠØ£ Ø¬Ø²Ø§Ø¡
ĠØ§ÙĦØ¹ Ø§Ø¦ÙĦØ§Øª
Ø§ÙĦ Ø¥
ĠØ¹ Ø±Ùģ
ĠÙĤ ØµØ±
ÙĪÙĬ ÙĤ
ĠØ¸ ÙĦ
Ġ v
ĠØª ÙĪÙĨØ³
Ø± Ùī
ĠØ§ÙĦÙģ Ø±Ø¯
Ùħ Ùĩ
ĠÙĪ ÙĬÙħÙĥÙĨ
ĠÙĨØ¸ Ø±ÙĬØ©
3 0
Ø´ Ø±Ø©
ØªØ± ØŃ
ĠØµ Ø§ÙĦØŃ
ĠÙĦ ÙĬØ¨
ĠØ§ÙĦØ· Ø±ÙĤ
ĠÙĤ ÙĬÙħØ©
ĠØ³Ø¨ Ø¨
ĠØ§ÙĦÙħ ÙĤØ§ÙĦ
ĠÙħ ÙĥÙĪÙĨ
ĠØ§ÙĦÙĤ ÙĪØ©
Ø¨ Ø§Ø¡
ĠØ¬ Ø¨Ø§ÙĦ
Ġ199 0
Ø¨ Ø§ÙĨ
ĠØ§ÙĦÙĤØ¯ Ø³
ĠØ§ÙĦØ´Ùħ Ø§ÙĦÙĬ
Ġ6 0
ÙĬ Ø¨Ø©
ĠØ³ Ø§ÙĨØª
ĠÙĦÙĦ Ùĩ
ĠØ· ÙĪÙĬÙĦ
Ø´Ùģ Ùī
Ùĥ Ø°Ø§
ĠØ£ Ø²
Ø² Ø§Ø¨
ĠÙħÙĨ ØŃ
ĠÙħØ¬Ùħ ÙĪØ¹
ĠÙģ ØµÙĦ
ĠÙħ ÙĩÙħØ©
ĠÙħØ¹ Ø¯ÙĦ
ĠÙĦÙĦ Ùģ
ÙĪÙĨ Øº
Ø° Ø©
Ø¹ ÙĦÙĬÙħ
ĠØ³ Ø§Ø¨
ĠÙħ Ø³ÙĦØ³ÙĦ
ĠØ§ÙĦØ· Ø±ÙĬÙĤØ©
ØµØ± Ùģ
ĠÙĨ Ø§ØŃÙĬØ©
ĠÙĪÙħÙĨ ÙĩØ§
ĠØ§ÙĦØ±ÙĬØ§Ø¶ ÙĬØ©
ĠÙĪ Ø±Ø¯
ĠØ³ ÙĪÙģ
ĠØ§ÙĦØ£ ÙĤÙĦ
ĠØ§ÙĦÙħØ¯ Ø§Ø±Ø³
Øµ ÙĦØ©
ĠØ£Øº ÙĦØ¨
ÙĬØ± ÙĬØ§
ÙħØ§Ø¹ ÙĬÙĦ
ĠØŃØ± Ø§Ø±Ø©
Ø±Ø³ Ø§ÙĦ
ĠØ³ Ø¹ÙĬØ¯
ĠÙħÙħ ÙĦÙĥØ©
ĠØ§ÙĦØ¥ Ø³Ø±Ø§Ø¦ÙĬ
ĠØ§ÙĦØ£Ø³ ÙĪØ¯
ĠØ¸ÙĩØ± Øª
ĠØ§ÙĦÙħÙĨ ØªØ®Ø¨
ÙĬ Ø§Ø¨
ĠÙģØ¥ÙĨ Ùĩ
ĠØ¨ Ø±ÙĬ
ÙĪÙĦ Ùħ
ĠÙĥØ¨ÙĬØ± Ø§
ĠØ§ÙĦØŃ Ø¨
ĠØ§ÙĦØ³ ÙĪØ±ÙĬØ©
ĠØ§ÙĦÙħ ÙĥØªØ¨
ÙĪÙĦ ÙĬØ©
ĠØ« Ø§ÙĨÙĬ
ĠÙĪØ¬ Ø¯
q u
ĠØ§ÙĦØ¬ Ø§ÙĨØ¨
Ġ201 5
Ø¹ÙĦ ÙĨØª
ĠØ§ÙĦÙĬÙħ ÙĨ
ÙĤ ÙĪØ·
ĠÙģ ÙĥØ±Ø©
ĠØ§ÙĦÙĪØŃ ÙĬØ¯
ÙĨ ÙĩØ§
Ø§Ø¯ Ùħ
ĠØ§ÙĦØµ ÙĪØª
ĠØ§ÙĦØ§Ø¬ØªÙħØ§ Ø¹ÙĬ
Ø§ÙĦ Øº
ÙĬÙħ ÙĨ
ĠÙħØª Ø¹Ø¯Ø¯Ø©
ÙħØ± Ø§Ø¡
Ø§ ÙĪØ±Ø©
Ø¶Ø§ ÙĬØ§
ÙĦÙģØ²ÙĬ ÙĪÙĨ
ĠØ¥ Ø¹ÙĦ
ĠØ§ÙĦØ£ ÙĤ
ÙĬÙĤ ÙĬØ©
ÙĬ ÙĪØ¬Ø¯
ĠØ¨Ùĩ Ø°Ùĩ
Øª ÙĤÙĦ
ĠÙĦÙĦ Ø·
Ø¸ÙĩØ± Øª
ĠÙħ Ø¬Ø±
Ġo f
ÙħØ§ Ùĥ
ĠÙĨÙĬ ÙĪÙĬÙĪØ±Ùĥ
Ø§ÙĦ Ø±
ĠØ§ÙĦÙħ ÙĬ
ÙĪÙĨ Ø§
ĠÙĪ Ø§Ø´
ÙĪ ØªÙĬ
ĠÙĪØ§ÙĦ Ø·
ĠÙĩ Ø±
ÙĪØ§Ø¬ Ø¯
ĠØ§ÙĦØªÙĤ ÙĪÙĬÙħ
Ø§Ø¯ Ø§
ĠØ§ÙĦØ± Ø³ÙħÙĬ
ĠØ¬ Ø§ÙĨ
Ø¹Ùħ Ø§Ø±
ĠØ§ÙĦÙħÙĬÙĦ Ø§Ø¯ÙĬ
ĠØ§ÙĦÙħØ³ Ø¬Ø¯
ĠÙħØ´ Ø§Ø±Ùĥ
ÙĦ ÙĨØ¯Ø§
ĠØŃ Ø§ÙĦØ§Øª
i k
ĠØ¯ Ø§Ø¦
ÙĬ Ø§ÙĨ
ĠØ¨Ø¹ ÙĨÙĪØ§ÙĨ
ĠØ§ÙĦ ÙĪÙĦ
ĠØ§ÙĦÙħ Ø§ÙĦÙĬØ©
Ġ199 6
Ø¹Ø¨ ÙĬØ±
âĢ ¢
ÙĪ ØªÙĩ
ÙĦ ÙĤØ¯
ĠØª ØºÙĬÙĬØ±
Ġ Ø§Ø²
ĠØª ÙĦÙĤ
ĠØ· ÙĦ
Ø¯ Ø®ÙĦ
Ø¯ Ø§Ø¨
Ø³Ø¨ ÙĪØ¹
ÙĦ Ø²
Ø± ÙģØ©
Ġ3 5
ĠÙģ ÙĥØ§ÙĨ
ÙĪØª Ø´
Ø®Ø¨ Ø§Ø±
ĠØ§ÙĦØŃ Ø³
Ø§Øµ ÙĬÙĦ
ØªØ± Ø¶
ĠÙĪØ§ÙĦ ÙħØ±
1 1
ĠØµ ÙĪØ±
Ø§ÙĦØª Ø§Ø±ÙĬØ®
Ø´ Øª
ĠØ£ Ø¹ÙĦÙĨ
ĠÙĬ Øµ
ĠÙĬÙħ Ø«ÙĦ
ĠØ§ÙĦØ¨ Ø±ÙĨØ§ÙħØ¬
ĠØ± ÙĪÙħØ§
Ġ Ø§Ø¯
ĠØ§ÙĥØªØ´ Ø§Ùģ
ĠØ§ÙĦÙħ Ø³ÙĦØ³ÙĦ
ĠØ§ÙĦØªØ¬ Ø§Ø±Ø©
Ø° ÙĪØ±
ĠØ£ÙĨ ÙĩÙħ
ĠØ§ÙĦØª Ùĥ
ĠØ§ÙĦØ· Ø¨ÙĬØ©
ĠØ§ÙĦÙģ ÙĨÙĬØ©
ĠØ¹ÙĦ Ø§ÙĤØ©
Ùĩ ÙĪÙĦØ©
ĠØ§ÙĦØ´ Ø±ÙĥØ§Øª
Ø§Ø¶ ÙĬØ©
ĠÙĥ Ø§Øª
Ġ199 7
Ø§Ø³Øª Ùĩ
ĠØ§ÙĦØ«ÙĤ Ø§ÙģØ©
ĠÙĦ Ø§ÙĨ
Ùĩ Ùī
Ø¹ ÙĦÙħ
Ø§Ø±ÙĬ Ø¹
ĠØ§ÙĦØ¬ Ø¨ÙĦ
ĠØµ ÙĬ
ĠØ§ÙĦÙģÙĦØ³Ø· ÙĬÙĨÙĬØ©
ĠÙĦÙĦ Ø§Ø³Øª
ĠÙĤ Ø±Ø¨
ÙĪØ¹ ÙĦÙī
Ø· Ø§ÙĦ
ĠØŃØ¯ ÙĪØ«
ĠÙĤ ØµØ©
Ø® ÙģØ§Ø¶
Ø§Ø¦ Ø¹Ø©
ĠØ§ÙĦÙħ Ø´Ø±ÙĪØ¹
ĠØ¨Ø§ÙĦ Ø¬
ĠÙĪØ§Ø³ Ø¹Ø©
Ø®ÙĦ Øµ
Ø¬ Ø§ØŃ
ÙĤØ§ ÙĪÙħØ©
ĠØ§ÙĦØ¨Ø± ÙĦÙħØ§ÙĨ
ĠØ¥ ØµØ¯Ø§Ø±
ĠÙħØ³ ÙĬØ±ØªÙĩ
ĠØ¹ Ø²
ĠØŃ Ø³
ÙĪØ¬ ÙĬÙĩ
ĠØ§ÙĦØ§ÙĨØª Ø®Ø§Ø¨Ø§Øª
ĠØ§ÙĦØ£ Ø¹ÙĦÙī
ÙĩØ± Ø¬Ø§ÙĨ
ĠØŃ Ø¶
ĠÙĦØ¬ ÙĨØ©
Ġs t
Ø´Ø± Ùģ
Ùħ ÙĬÙĦ
ĠØ³ÙĦÙĬÙħ Ø§ÙĨ
Øº Ø§
ÙĪØ± ÙĪ
ĠÙĤ Ø¯ÙĬ
ĠØ§ÙĦÙĥ Ø±ÙĬÙħ
ĠØª ØºÙĬØ±
ÙĦØ§ Ø©
ĠØ§ÙĦÙĨÙģ Ø·
ĠÙĪØ§ÙĦ Ø§Ø³Øª
ÙĪØ§Øµ ÙĦ
ĠØ§ÙĦÙħØ± Ø£Ø©
ĠØ§ÙĦØ¬ ØºØ±Ø§ÙģÙĬ
ĠØ® Ø§ÙĦØ¯
ĠØ§Ùħ ØªØ¯
ÙĪÙĨ ÙĬØ§
ÙĪÙĥ ÙĬ
Ø£ ÙĦ
ĠØ§ÙĦÙĦ ÙĪÙĨ
ĠØ§ÙĦØ´ Ùĩ
Ø¨ÙĨ Ùī
Ġ Ø§Ø¶Ø·Ø±
ĠØ§ÙĦ Ø§Ø¨
ĠØ§ÙĦØ³ ÙĪØ±ÙĬ
ĠØ§ÙĦØ¥ ÙĬØ±
ĠØ³Øª Ø©
Ø° ÙĬØ©
ĠØ¨ÙĬÙĨ ÙĩØ§
Ø¨ Ø±Ø©
ĠØ§ÙĦØ³ ÙĪÙĤ
ĠØªÙħ Ø«ÙĦ
ĠØ¨ Ø®
ĠÙĤØ¨ ÙĬÙĦØ©
ĠØ³ ÙĪÙī
ĠØ§ÙĦØ£ ØŃØ¯Ø§Ø«
ĠØ§Ø³Øª Ø·Ø§Ø¹
ĠØ§ÙĦÙħÙĪØ³ ÙĬÙĤÙī
ĠØª ØŃØ¯Ø«
ĠÙĤ Ø§Ø¹Ø¯Ø©
ĠØ§ÙĦÙħØ¹Ø±ÙĪÙģ Ø©
Ø§Ùģ Ø³
ÙĬÙħ Ø§ÙĨ
Øª Ø³
ĠÙħØŃÙħ ÙĪØ¯
ĠØ§ÙĦÙĥ ÙĦÙĬØ©
ĠØ¨Ø§ÙĦ Ø¯
ĠØ§ÙĦØ¨ÙĦ Ø¯Ø§ÙĨ
ĠØ« ÙĪØ±Ø©
ĠØ¯ Ø¨
ĠØ¨ ØªØŃ
ĠØ§ÙĦØ¶ ÙĪØ¡
ĠØ¥ÙĨ Ø¬ÙĦØªØ±Ø§
Ġ199 4
ÙģØ± Ø¯
Ø¨ ÙĩØ©
ĠØ³ ÙĬØ¯
Ø¸ Ø©
ĠØ§ÙĦÙĨ Ø¸Ø±
ĠØ³ Ùĥ
ÙĬØ§Øª ÙĩØ§
ĠÙĤ Ø§Ø¦Ø¯
Ø§Ø± Ùĩ
Ġ J
ĠØ§Øª ØŃØ§Ø¯
Øµ ÙĬÙĦØ©
ĠØ§ÙĦØ± ÙĪØ³ÙĬØ©
ØŃØ± Ø§Ø¡
Ùĥ ÙĦÙĬ
ĠØ§ÙĦ Ø§Ø³
ĠØ¨ ØŃØ±
ĠØ§ÙĦØ§Ø´ ØªØ±Ø§Ùĥ
ĠØ§ÙĦØº Ø§Ø²
ĠØ§ÙĦØªÙĤÙĦÙĬ Ø¯ÙĬØ©
ĠØªØ¹ ÙĨÙĬ
ĠØ£ ÙĤØ¯Ùħ
ĠØ£Øµ Ø¯Ø±
ĠÙĨØ³ Ø®Ø©
ĠØ§ÙĦØ¹Ø±Ø§ÙĤ ÙĬØ©
ĠØ§ÙĨØª Ø´Ø§Ø±
Ø®Øµ ØµØ©
Ø§ ÙĩØ§
ÙĥÙĬØ¨ÙĬ Ø¯ÙĬØ§
c k
ĠÙĬØŃ ÙħÙĦ
c lu
ĠØ£Ùĥ Ø³
ĠÙĨ ÙĪØ±
Ø§Ø³ ÙĪØ¨
Ø´ Ø·
ÙĤ Ùģ
ĠØ§ÙĦÙĨÙĩ Ø§Ø¦ÙĬ
T C
Ø§Ø¯ Ø¦
ĠØ§ÙĦÙĨ ÙĩØ§ÙĬØ©
ÙĪ Ø§Ø¦ÙĬØ©
ĠØ§ÙĦÙĦ Ø§Øª
ĠÙĦÙħ ØŃ
ĠØªØ´ ÙĥÙĬÙĦ
ÙĬÙĪ Ø§ÙĨ
ĠÙħØ¤ Ø³Ø³Ø©
Ø¬ ÙĦØ©
ĠØ§ÙĦØ¨ÙĦ Ø¯Ø©
ĠÙħ ÙĩÙħ
Ø§Ø¶ Ø±
ÙĬÙĨ ÙĪ
1 3
ĠÙħ ÙĬØ§Ùĩ
ĠØ§ÙĦØ¨ ÙĪÙĦ
ÙĬ ÙĪØ±
ĠØ¨Ø± ÙĪØª
ĠØ§ÙĦØ¨ Ø§Ø¨
Ø§Ø¦ ÙĨ
ÙĬØ¹ ØªØ¨Ø±
ĠØ¨ÙĬØ± ÙĪØª
ĠØ§ÙĦÙħ ÙĥØ§ÙĨ
ĠØ§ÙĦØ¥ÙĨ Ø³
ĠØ§ÙĦØ¹ Øµ
ĠØ§ÙĦØ§ÙĤØªØµ Ø§Ø¯
a d
ĠØ§ÙĦÙĥ Ùħ
ĠØ§ÙĦØ± Ø³ÙħÙĬØ©
ĠØ³ ÙĪÙĤ
ĠØ§ÙĦØ¬Ùħ Ø¹ÙĬØ©
ĠØ§ÙĦÙĤØ¨ Ø§Ø¦ÙĦ
ÙĪÙħ Ø¨
ĠØº Ø§ÙĦØ¨Ø§
Ø®Ø· Ø·
Ø§ÙĦ Ùī
ĠØ¨Ø± Ø§ÙħØ¬
clu de
ĠØªØ´ ÙħÙĦ
ĠÙĪÙĦÙĥÙĨ ÙĩØ§
ĠÙĨ ÙĬÙĪ
ĠØ§ÙĦÙĤ ÙħØ±
ĠØªØ² Ø§ÙĦ
ĠØ§ÙĦØ¨ Ø§ØŃØ«
ĠØ¨ ÙĥØ±
ĠÙĩ ÙħØ§
ĠØ¢ ÙĦØ§Ùģ
ĠÙĬØŃ ØªÙĪÙĬ
ĠØ§ÙĦØ«ÙĦØ§Ø« Ø©
ÙĪÙĨ Ø¯
ĠØ§ÙĦÙħØ¹ Ø±ÙĥØ©
Ġ Î
ÙĬØ¯ Ø§ÙĨ
ĠØ§ÙĦÙĤØ± Ùī
Ġ199 1
ÙĬØ± ÙĪ
ĠÙħÙĨ Ùģ
Ø§Ø¦ Ø³
ĠØªØ· ÙĪØ±
ĠØ« Ø§Ø¨Øª
ĠØ§ÙĦØ¥Ùħ Ø§Ø±Ø§Øª
Ø¯ÙĬ Ùĩ
ĠØ§ÙĦØ¥ ÙĤÙĦÙĬÙħ
ĠØ³ Ø§Ø¹Ø©
Ø§Ø· Ø¦
ĠØ§ÙĦØ£Ø´ Ø®Ø§Øµ
Ø« Ø±Ø©
ĠØ§ÙĦÙħÙĪØ³ Ùħ
ÙĨÙĬ Ø¹
ĠØ£ ØµÙĪÙĦ
1 8
Ø¬ ØŃ
ĠØ£Ø³ Ø³
ÙĪÙĥ Ø¨
ĠØ§ÙĦØ³ Ø§Ø¹Ø©
ĠØ§ÙĦØ¶ ØºØ·
Ø¬Ùħ Ø§ÙĦÙĬ
Ø´ Ø¦
ÙĦÙĬ Ø³
ĠØª Ø§Ø¨Ø¹Ø©
ĠâĢ Ŀ
Ġ3 2
ĠØ§ÙĦØ¹Ùħ ÙĦÙĬØ§Øª
ÙĤÙĬ ÙĤÙĬ
ĠÙħØ³ Ø§ØŃ
Ø§Ùħ Ùĩ
ĠØ§ÙĦØ£ Ø¬
ĠÙħÙĦÙĬ Ø§Ø±
ĠÙĪÙģ Ø§ØªÙĩ
ĠØª ØªØ¨Ø¹
ĠÙħØŃ Ø§ÙĪÙĦØ©
ĠÙĦØ§ØŃ ÙĤØ§
t er
ĠØ· Ø±ÙĤ
Ġ199 2
Ø³ Ø§Ø¹Ø¯Ø©
ĠØ³ Ø¹ÙĪØ¯
o w
ĠÙĪØ§ÙĦ Ø¨Ø±
ĠØ§ÙĦÙĦ Ø¬ÙĨØ©
ĠÙĬØ² Ø§ÙĦ
1 5
ĠÙĥ Ø±ÙĬ
Ø¬ Ø§Ø¨
Ø§ÙĦÙħ ÙĪÙĤØ¹
ĠØ¨ØŃ Ø³Ø¨
Ø¨Ø§ÙĦ Ø¥Ø¶Ø§ÙģØ©
ÙĪØ¬ Ø¨
Ø§ÙĦ Ø´
ØªÙĩ ÙĬ
ÙĤ ÙĬÙħ
ĠØ§ÙĦØµ ÙĦ
ĠØ£ Ø¬ÙĩØ²Ø©
Ø§Ø¦ ÙĬØ§Øª
ĠØ¢ Ø«Ø§Ø±
ÙĤØ· Ø¹
ĠØ§ÙĦØ± Ø§Ø¨Ø¹Ø©
Øµ Ùī
ĠØ§ÙĦÙħÙħ ÙĥÙĨ
ÙĪÙĦÙĪØ¬ ÙĬØ©
ĠØ§ÙĦÙħ Ø·ÙĦ
ĠØªØ¹ ÙĪØ¯
Ø§Ø· Ø±
ĠØ¨ Ø¥ÙĨ
ĠØ§ÙĦØ¹ ÙĬÙĨ
ĠØ§ÙĦØ¹Ø±Ø§ÙĤ ÙĬ
ĠØ§ÙĦØ¯Ø± Ø§Ø³Ø©
ĠØ§ÙĦØ¥ÙĨØ¬ÙĦÙĬ Ø²ÙĬ
Øª Ø§Ø¡
ĠØ§ÙĦØ« Ø§ÙĨÙĪÙĬØ©
ĠØ§ÙĦØµÙĨ Ø§Ø¹ÙĬØ©
ĠØ® ØµÙĪØµ
1 4
Ø² ÙĬÙħØ©
ĠÙĪØ± Ø§Ø¡
ĠØ§ÙĦØ¹ Ø§ÙĦÙĬ
Øª Ø©
Ø¯Ø± Ø¬
Ø¯ Ø§Ø¡
ÙĤÙĬ Ø§Ø³
ĠØ¯ Ø®ÙĪÙĦ
Ġ8 0
Ùħ Ø«ÙĦ
Ġ199 5
ĠØ§ÙĦÙģ ÙĦÙĥ
ĠØ¨Ø· Ø±ÙĬÙĤØ©
ĠØ§ÙĦØ¥Ø¯ Ø§Ø±Ø©
ĠØ§ÙĦØ¨Ø´Ø± ÙĬØ©
ĠU TC
Ø§ØŃ ÙĬ
ĠØ§ÙĦÙģ Ø¶Ø§Ø¡
e m
ĠØ§ÙĦØ£Ø³ Ø§Ø³ÙĬ
Ø§Ø¯ ÙĦØ©
ĠÙĪ Ø¹Ø¯Ø¯
Ùħ ÙĬØ±
Ø¹ÙĦ ÙĤØ©
ĠØ¢ Ø±
ĠØ§ÙĦØ® Øµ
ĠØ£Ø´ ÙĥØ§ÙĦ
ĠØ£Ø± Ø³ÙĦ
ÙĪÙĦ ÙĬÙĨ
ĠØ± ÙĪØ§ÙĬØ©
ÙĥÙĨØ¯Ø± ÙĬØ©
u m
ĠÙĪØª Øª
ĠØ§ÙĦÙĨ Ø§Ø±
ÙĬÙĪ Ø®
Ø¶ ÙĬÙģ
ĠØ§ÙĦÙħØ³Øª ÙĪÙī
ĠØ¬ ÙĦ
Ø´ Ø¯
ĠØ§ÙĦÙħØ¹ Ùħ
ĠÙħ Ø§Ø¯Ø©
ĠØ§ÙĦØ¬ÙĨÙĪØ¨ ÙĬ
ÙģÙĬ Ùģ
ĠØ§ÙĦØ¹ÙĦ Ø§ÙĤØ§Øª
ĠØ§ÙĦØ¢ Ø«Ø§Ø±
ÙĤØ§ ÙģÙĬ
ĠØ§ÙĦØ§ÙĤØªØµ Ø§Ø¯ÙĬ
ĠØ§ÙĦØ³ÙĬ Ø·Ø±Ø©
Ø¹ ÙĪÙĨ
Ø§Ø¦ Ø·
ĠØ¨ Ø³Ø±Ø¹Ø©
Ø³ Ø¯
ĠØªÙħ Øª
ĠØ¹ Ø§Ø´
Ġ201 6
ĠØ¨ ÙħØ±
ĠØª Øº
ĠÙħÙĨ Øª
ĠØ¨ÙĬÙĨ ÙĩÙħ
ĠØ§ÙĦÙĨ Ø¨
a g
Ø§ ÙĪØ±
ĠØ§ÙĦØ¨ ÙĬØ²
Ġ {
Ø²ÙĬ Ø§Ø¯Ø©
ĠÙĥÙĨ ÙĬØ³Ø©
Ø§Ø¨ Ø³
Ø®Ø· ÙĬØ·
ĠÙģ ÙĩÙħ
ĠÙĬ ØªØ¨Ø¹
ĠØ¯ ÙĪ
ĠØ« Ø§ÙĨÙĬØ©
ÙĪ Ø§Ø¦ÙĦ
Øµ Ø§Ø¨
Ø±ÙĬ ÙĤÙĬ
ÙĨ Ø§Ø¦ÙĬØ©
ĠØ§ÙĦØ£Ø¯ Ø¨
ØªØ¯ Ø§Ø¡
ĠØ§ÙĦØ£ÙĨ ÙĪØ§Ø¹
ĠØªÙĨ ÙģÙĬØ°
Ùģ Ø§Ùģ
Ġ194 8
ĠÙģ Ø±ÙĤ
ĠØŃ Ø³Ø§Ø¨
ĠÙĨ Ø´Ø£
ĠØ§ÙĦØŃ Ø³ÙĨ
ĠØ¨Ø§ÙĦØ¥ÙĨ Ø¬ÙĦÙĬØ²ÙĬØ©
ĠØ§ÙĦØ® ÙĬ
ĠØ£Øº ÙĨÙĬØ©
ĠØª Ø³Ø¨Ø¨
ÙĪÙĬ ØªÙĬ
Ø§ÙĬ ÙĬØ±
ĠØ¯ Ø§Ø¦Ø±Ø©
ĠØŃ Ø¨
Ø§Ùĥ ØªØ´
6 0
ØªØµ Ø§Øµ
ĠØ¨Øµ ÙĪØ±Ø©
ĠØ§ÙĦØ§Ø³Øª ÙĤÙĦØ§ÙĦ
4 0
Ø§ÙĦ ØªØŃ
ĠØ§ÙĦØŃ Ø§ÙĦ
ĠØªÙħ Ø§ÙħØ§
ÙĦÙģ ÙĬØ©
ĠÙĬ Ø·ÙĦÙĤ
ĠØ³ ØªÙĬ
ÙĬÙģ Ø§
Øª ÙĪÙģÙĬ
ÙĤ Ø§Ø·
ĠØ§ÙĦØ¹ Ø±Ø¶
ĠØ§ÙĦÙħ Ø¹Øª
ĠØ§ÙĦÙħÙĨ Ø§Ø®
âĢ Į
Ø± Ø§ÙĦ
Ø³ØªØ± Ø§ÙĦÙĬØ§
ĠÙħØ¯ ÙĬØ±
on ly
ĠØ§ÙĦØ³ÙĬ Ø§Ø³Ø©
Ø§ ÙĬØ§
ĠØ§ÙĦÙĪ Ø²
ĠØ§Ø¨ÙĨ Ùĩ
ĠÙĪØ§Ø³ ØªÙħØ±
ĠØ¨Ø§Ø¹ ØªØ¨Ø§Ø±
ĠØ¬ ÙĬÙħ
Ø´ Ø±ÙĬ
ĠØ³Ø§Ø¨ ÙĤØ§
ĠØ¬Ø² Ø±
Ø§Ø¯ ÙĤ
ĠØª ÙĤØ¯
ĠØ§ÙĦØ£ Ø«Ø±
ĠØ§ÙĦØŃ Ø§ÙĦÙĬØ©
ĠÙħ Ø·ÙĦ
Ø¨ÙĬ Øª
ĠØ§ÙĦØ³Ø¹ ÙĪØ¯ÙĬ
ĠØ§ÙĦØ· Ø§Ø¦Ø±Ø©
Ùĩ Ø§Ùħ
ĠÙĥØªØ§Ø¨ Ø©
ĠØ§ÙĦØ¬ ÙĪÙĬ
ĠØ¶ ØºØ·
ÙĪ ØªÙħ
ĠØ§ÙĦØ¹ ÙħØ§ÙĦ
Ø¬Ø² Ø¡
Ø´Ø± ÙĪÙĨ
ĠØ§ÙĦØ¥Ø³Ø±Ø§Ø¦ÙĬ ÙĦÙĬ
ĠÙĤ Ø§Ø¦
ĠÙħÙĪ Ø§ÙĤØ¹
ÙģØ±ÙĬÙĤ ÙĬØ©
ĠØ§ÙĦØ± ÙĪØ§ÙĬØ©
ĠØ§ÙĦÙħØŃÙĬ Ø·Ø©
ÙĤÙĦ ÙĬØ©
ÙĬÙĦ ÙĬØ©
ĠÙħ Ø³ÙĬ
ĠÙĪ Ø¨ÙĦØº
ĠÙħØ¹ ÙĬÙĨ
ĠÙĥÙĬÙĦÙĪÙħ ØªØ±
ĠØ§ÙĦØ¨Ø± ØªØº
ĠÙĦ Ø§Øª
ĠØ§ÙĦØ¥ÙħØ¨Ø±Ø§Ø· ÙĪØ±
ĠØ§ÙĦØ´Ø± Ø·Ø©
ÙĪØª ÙĪ
ĠØ¬ÙĨ Ø³
Ø± Ø³ÙĦ
ĠÙħØ¯ Ø§Ø±
ĠÙĨ Ø¬Ø¯
ĠÙģ ÙĤ
Ø´ ÙĩØ¯
ÙĪ Ø§Ø³
ĠÙħÙħ Ø«ÙĦ
ĠØ§ÙĦÙĦ ØºØ§Øª
ĠØ¥ ÙĬØ±
Ø§Ø± Ø¶Ø©
ĠØ§ÙĦØ¨ ÙĨØ§Ø¡
ØŃØ¯ Ø§Øª
Ùĥ ÙĪÙħØ©
ĠÙĤ Ø§Ø¯
ĠØªØ±Ùĥ ÙĬØ§
ĠÙĪØ³ Ø§Ø¦ÙĦ
ĠÙĤ ÙĦØ¨
ÙĦ Ø¹Ø¨
ĠÙĪØ§ÙĦ ØªØŃ
ĠÙĨ ÙħÙĪØ°Ø¬
ĠØ¨Øª Ø§Ø±ÙĬØ®
ĠÙĪØ´ Ø§Ø±Ùĥ
ØªØ¨ Ø·Ø©
ĠÙĪÙħ Ø³
Ø¨ØŃ Ø§Ø«
Ùħ Ø¬
ĠØ§ÙĦÙĨ ÙħØ³
ĠØ§ÙĦÙħØª ÙĨ
ĠØªØ´ ÙĬØ±
ĠØ¬ ÙħØ§ÙĦ
ĠØ´ Ùĥ
Ø¬ÙĦ Ø§Øª
ÙĪÙĨ Ùĩ
ĠØ§ÙĦØ± Ø¬Ø§ÙĦ
ÙĪØŃ ÙĬØ¯
Ùĥ ÙĬØ±
Ø¯Ùħ ÙĬØ±
ĠÙħØ¹ÙĦ ÙĪÙħØ§Øª
ĠÙģ Ø§Ø±
Ø´Ø± Øª
ĠØªØ¹ ÙĬÙĬÙĨ
ĠØ§ÙĦØµ ØŃÙĬØ©
o t
ĠÙģ ÙħØ§
Ø² Ø§ÙĦØ©
ĠÙĬ ØªØŃ
Ø´ ÙĬØ±
Ġ196 7
ĠØ§ÙĦØ²Ø± Ø§Ø¹Ø©
ĠØ³ÙĬ Ø§Ø³ÙĬ
ĠØ§Ø³Ùħ ÙĩØ§
Ø·Ùģ Ùī
ĠØ§ÙĦØ´ Ø±ÙĬ
ĠØ¬Ùħ Ø¹ÙĬØ©
Øº Ø§ÙĨ
Øª Ø±ÙĥØ©
ĠÙĪ ØµÙĪÙĦ
ĠÙĤØµ ÙĬØ±Ø©
ĠØ§ÙĦØ· Ø±Ùģ
ĠÙĤ Ø·Ø§Ø¹
Ø¯ÙĬ ÙĤØ©
ØªØ§Ø¨ Ø©
ĠØ§ÙĦØ¶ Ø±
ĠØº Ø§ÙĦØ¨
ĠÙĪÙĩ ÙĨØ§Ùĥ
ÙĪØ² Ø¹
ĠÙħ ÙģØª
Ø§Ø¦ ÙĨØ§Øª
ĠØ¶ Ø±
ĠØ¯ ÙĬØ±
ĠÙħ ÙĪØ¶ÙĪØ¹
Øº Ø¨
ĠØ§ÙĦØ³Ø¨ Ø¨
ÙĤØ± Ø±
ĠØ¨ ÙĩÙħ
Ġ201 7
Ø¯ÙĬ ÙĤ
ĠØ§ÙĦØ® Ø¯ÙħØ©
1 6
Ø´ ÙĨ
ĠØŃ Øµ
ĠØ§ÙĦÙĦ Ø¹Ø¨
ĠØ§ÙĦÙħÙĨ Øª
Ġ199 3
ĠÙĪØ³ Ø¬ÙĦ
ĠÙħØ¬Ùħ ÙĪØ¹Ø§Øª
ĠÙĥÙħ ÙĬØ©
1 7
ĠØ§ÙĦØªØŃØ± ÙĬØ±
ĠÙĬ Ø¹ØªÙĤØ¯
ĠØ£ ÙģÙĦØ§Ùħ
ĠØ§ÙĦÙĤ Ø³Ùħ
ĠØ³Ø± Ø¹Ø©
ĠØ§ÙĦ ÙĬØ³
ĠØª ÙĪÙĤ
ÙĦØ§ ÙĬÙĬÙĨ
ĠØ§ÙĦÙħÙĦÙĥ ÙĬ
Ø¦ Ø§
Ø¨ÙĦ ÙĪÙħ
ÙĪÙĩ ÙĨØ§Ùĥ
ØªØ¨ Ø§Ø·
Øª Ø¹ØªØ¨Ø±
2 5
ĠØ§ÙĦØ³ Ø¨Ø¹
ÙĨÙĬ ÙĬÙĨ
Ø§Øµ Ø±Ø©
Ø§Øª ÙĦ
ĠØ· Ø±Ùģ
ĠØ§ÙĦØµ ÙĦÙĬ
Ø¶ Ø§ÙĨ
ĠØ§ÙĦÙĪ Ø¸
ÙĦÙģ Ø§Ø¡
ĠØ§ÙĦØ£ÙħØ± Ø§Ø¶
ĠØ§ÙĦØ§ØŃ ØªÙĦØ§ÙĦ
ÙĪØ§ ÙĬ
Ø§Ø± Ø¨Ø©
ÙĦÙħ Ø§Øª
ØªØ± Ø§Ùģ
ĠØ§ÙĦÙĨØ¨Ø§Øª Ø§Øª
ÙĦÙħ ÙĬ
ĠØ¹ÙĦ Ø§Ø¬
Ø¶ ØŃ
Ø±ÙĬ Ø¬
Øº ÙĪ
ĠØ¨ ÙĬÙĦ
ĠÙĪ Ø§Ø®
ÙĪÙĩ Ø°Ø§
ĠØ¥ ÙħØ§
Ø£ Ø«Ø±
ĠØŃ Ø§ÙĪÙĦ
ĠÙĪØ§ÙĦ Ø¢
ĠÙĤ Ø·Ø¹
9 9
ĠØ´ ÙĩØ§Ø¯Ø©
ÙĪØŃ Ø¯Ø©
ĠØ§ÙĦØ³ÙĪØ¯ Ø§ÙĨ
Ø¯Ùģ Ø¹
ÙĥØ§ÙĨ ÙĬØ©
Ø² ÙĬÙħ
Ø£ ØµØ¨ØŃ
ĠÙĬØ³Øª Ø·ÙĬØ¹
ĠÙħÙĨ Ø¹
ĠØ§ÙĦØª Ø·Ø¨ÙĬ
Ø¨ÙĦ Ø¯ÙĬØ©
ĠØ¥ Ø¬Ø±Ø§Ø¡
ĠØŃ Ø²
ĠÙģ ÙĦÙħ
Ø§Ø¨ÙĦ Ø³
Ø¸Ùħ Ø§Øª
ĠØ¥Ø³ ÙħØ§Ø¹ÙĬÙĦ
ØŃ Ø³Ø¨
ĠØ§ÙĦØ¥Ø¹ÙĦ Ø§Ùħ
Ø´Ø± Ø§Øª
ĠØ§ÙĦ ÙĪØ³
Ø§Ø´ ÙĬ
ĠØ§ÙĦØ£ÙĦ Ø¹Ø§Ø¨
ĠØ§ÙĦÙħ Ø³Ø±ØŃ
Ġin clude
ĠÙĥ Ùģ
ĠØ§ÙĦØ¯ Ø¹
ĠÙĦÙĦ ÙħØ±
ĠØ§ÙĦÙĩ Ø¬ÙĪÙħ
ĠØ¨ Ø§Ùĥ
ÙĬØ¯ Ø§Øª
8 0
Ø® ÙħØ©
ĠÙħØ³ Ø¬Ø¯
ĠØ® Ø±Ø¬
ĠÙĦ ÙĥÙĬ
ĠØ§ÙĦØ£ ÙĨØ¯
Ø¹ ÙĨ
Ø§Ùħ Ø±
ĠØ¹ÙĨ ÙĪØ§ÙĨ
ÙĪØ±ÙĨ ÙĬØ§
Ø±ÙĬ Ø´
ĠØ§ÙĦÙĪ Ø§ÙĤØ¹Ø©
ĠØ§ÙĦÙħ ÙĪØª
ĠØ§ÙĦÙħ ÙģØª
ĠØ§ÙĦÙħØŃ ÙĦÙĬ
Ø§ ÙĬØ¯
ĠØ¯Ø± Ø¬Ø§Øª
Ġ198 0
ĠØ§ÙĦÙħØ³Øª ÙĤØ¨ÙĦ
ĠØ¨Ùħ Ø¯ÙĬÙĨØ©
ĠØ§ÙĦØ¥ÙĬØ· Ø§ÙĦÙĬØ©
ĠÙĤØ± Ø§Ø±
ÙĪ ÙĬÙħÙĥÙĨ
ĠÙĬ ØŃÙĬ
ĠØ³ Ø¹Ø¯
ĠÙĪÙĦ Ùĩ
ĠÙħØ¹ ÙĩØ¯
ĠÙĪØ£ÙĬ Ø¶Ø§
ĠØªØŃ Ø±ÙĬØ±
ĠØ§ÙĦÙĨ ÙĩØ±
ÙĤÙĬ ÙĬÙħ
ĠÙħ ÙĥØ©
ĠØª Ø¨ÙĦØº
ĠØªØ¹ ØªÙħØ¯
ÙĪØ§Ø¬ Ùĩ
Ø¸ Ø§ÙĩØ±
ĠØ§ÙĦØ£ÙħØ±ÙĬÙĥ ÙĬÙĬÙĨ
ĠØªØ·Ø¨ÙĬ ÙĤ
ĠØ¯ ÙĪØ±Ø©
Ø£ Ùħ
u t
ĠØ§ÙĦØ± Ø¬ÙĦ
Ø§Øª ÙĬØ©
Ø®ÙģØ¶ Ø©
ĠØ§ÙĦÙĩ ÙĬØ¯Ø±
ĠØ§ÙĦÙħØµ Ø§Ø¯Ø±
ĠØ¨ØŃ Ø«
ĠØ§ÙĦØ£ Ø³Ø·
ĠÙĦÙĦ Ø¹ÙħÙĦ
Ø§ÙĦØ³ ÙĥØ§ÙĨ
ÙĪØ¨ Ø§
ÙĨ Ø³
Ø§ÙĦÙĬÙģ ÙĪØ±ÙĨÙĬØ§
Ø¯ ÙĬØ±
ĠØ¨Ø¯ Ø¡
ĠØ§ÙĦØ± ÙĪØ³ÙĬ
Øª ÙĤØ§ÙĦ
ĠØµÙĦ Ø§ØŃ
Ġinclude only
ĠÙĥ ÙĪØ±
ĠÙĪØ¹ ÙħÙĦ
Ø° Ùģ
ĠØ· Ø§ÙĤØ©
ĠÙģ ÙĦØ§
ĠØ£ Ø³ÙħØ§Ø¡
Ø§Ø· Ø¹Ø§Øª
ØŃÙĬ Ø¯Ø©
ĠØ§ÙĦØ¨ØŃØ± ÙĬÙĨ
ÙĪÙģ ÙĬØ©
ĠÙĩ Ø§Ø±
ĠØ® Ø¯ÙħØ©
ĠØ¯ ÙĤÙĬÙĤØ©
ĠØ§Ø¹ ØªØ¨Ø§Ø±
ĠØ§ÙĦØ¥ ØµØ§Ø¨Ø©
ĠØ§ÙĦØ£ Ø±Ø¬
ĠØ§ÙĦØ£Øµ ÙĦÙĬ
Ùħ Ø±Ø©
ĠØ§ÙĦÙħØ¬ Ø§ÙĪØ±Ø©
Ø±ÙĬ Ø§Ø¶
ĠØ¹ Øµ
ĠØ§ÙĦØ¹ÙĨ Ø§ØµØ±
ĠØ§ÙĨ Ø¶Ùħ
ĠÙĪÙĦ Ø¹Ø¨
ĠÙģØ± Ø§ÙĨ
ĠØ§ÙĦØŃ Ø¬
Ġ198 9
Ø§ÙĨ Ø¹
ĠØ§ÙĦÙĨ Øµ
Ø¬Ùħ Ø§Øª
ĠÙħØŃ ÙĦ
i m
Ø³ÙĬÙħ Ø§Øª
Ø²Ø± Ø§Ø¹Ø©
ĠØ£ Ø³Ø·
ÙĤ ÙĪÙĤ
ĠØ§ÙĦÙĨ Ø²
ĠØª Ø³ÙħÙĬØ©
ĠØ§ÙĦÙĤ ÙĪÙī
ĠÙĦØ¯ÙĬ Ùĩ
ĠØ§ÙĦØª Ø®
ĠÙĪÙĬ ØªÙħ
ĠØ§ÙĦÙĤØ¯ Ø±Ø©
Ġ al
ĠØ§Ùħ Ø±
ĠØ§ÙĦØª ÙĦ
ÙĥÙĦ ÙģØ©
ĠØ§ÙĦØ£ Ø¬ÙĨ
ĠØ§ÙĦØ£ ÙģÙĦØ§Ùħ
ĠØ±Ø³ ÙĪÙĦ
ĠØ§ÙĦØŃÙĥ ÙĪÙħÙĬØ©
Ø§Ø¬ ÙĩØ©
Ø§Ø° Ø§
ĠØ§ÙĦØ£ Ø¹Ø¶Ø§Ø¡
ĠÙĪ ÙĬÙħ
Ùħ ÙĦÙĥØ©
ĠÙħØ¤ ÙĦÙģ
Ø¹ ÙħØ±
ĠØ§ÙĦØ¬ ÙĪ
Ø§Ø´ Ø©
ÙĪØŃ Ø§Øª
ĠØ§ÙĦÙģ Ø±ÙĤ
ÙĪÙĤ Ø§ÙĦ
ĠØ± ØŃ
ĠØ§ÙĦÙħØ³ÙĬØŃÙĬ ÙĬÙĨ
ÙĨ ÙĬØ§
ÙĬÙĪ Ø´
ĠØ¨ ÙĩØ¯Ùģ
ĠØ§ÙĦÙģ ÙĥØ±
ĠØ§ÙĦØ± Ùħ
Ø« ÙĪØ±
Ø§Ùĥ ÙħØ©
ĠØ±Ø³ Ø§ÙĦØ©
ĠÙģ Ø±Ø¶
ĠØ¹ Ø³ÙĥØ±ÙĬØ©
ĠÙĦ ÙģØªØ±Ø©
ĠØ§ÙĦÙĤ ÙĨ
ÙĨ Ùħ
ĠØ§ÙĦ ÙĪÙĦØ§ÙĬØ©
ĠÙĪØ§ÙĦÙħ Ø³
ĠÙħ Ø¯Ø©
ĠØ§ÙĦÙħ Ø³ÙĦØŃØ©
ĠØ§ÙĦÙĪØŃ Ø¯Ø©
ĠÙĥ Ø§ÙģØ©
ĠÙĦÙĥÙĨ ÙĩØ§
ĠÙħ Ø§Ø±Ùĥ
ÙĦÙĬ ÙĪ
ĠØ§ÙĦØ® Ø¯ÙħØ§Øª
Ø®Øµ ÙĪØµ
ĠØ· ÙĪØ§ÙĦ
Ùģ ÙĤØ¯
Ġ7 0
Ø® Ø§ÙĦ
ĠØ§ÙĦ ÙĬØ¯
ĠØªØ³ Ø¬ÙĬÙĦ
ÙĪØ· ÙĨ
Ġ18 5
Ùĭ Ùĳ
ĠÙħØŃ Ø·Ø©
ĠØ¨ Ø·Ø±
ĠÙħØ« ÙĦØ§
ĠØª ÙĪÙħ
ĠÙĩ Ø§Ùħ
ĠÙħ Ø§Ø±ÙĬ
Ø·Ø± Ø§Ùģ
Ø´ ÙĬØ©
ĠØ§ÙĦÙĨ ÙĬ
Ø±ÙĤ ÙĬØ©
ĠÙĪÙĬ ÙĥÙĬØ¨ÙĬØ¯ÙĬØ§
ĠØ§ÙĦØ±ÙĪÙħ Ø§ÙĨ
ĠÙĪ Ø§Ø±
ĠØ§ÙĦ ÙĩØ¯Ùģ
ĠØ§ÙĦÙĥÙĩØ±Ø¨ Ø§Ø¦ÙĬØ©
ĠØ§ÙĦÙĬÙĪÙĨ Ø§ÙĨ
ĠØ§ÙĦÙĨ Ø´Ø§Ø·
ĠØ§ÙĦÙħ Ø¬Ø±
ĠÙĪØ£ Ø®
ĠØ§ÙĦ ÙĩØ±
ĠÙħÙĦ Ø¹Ø¨
ĠÙĤ ÙĨ
Ġ198 2
ĠÙĪØ£ Ùħ
ĠØ¨ Ø´Ø±
ÙĬØ³ ÙĬØ©
ĠÙĪÙĬ Ø¨ÙĦØº
ĠÙĪØ§ÙĦ Ø¥ÙĨ
ĠØ¹ÙħÙĦ Ùĩ
ØŃØª ÙĪÙĬ
o d
ÙĬ ÙĤØ©
ĠØ§ÙĦØ²Ø± Ø§Ø¹ÙĬØ©
ØŃ ÙĬÙĨ
ĠØ§ÙĦØµ ÙĬ
ĠØ§ÙĦØ³ÙĦ Ø·Ø§Øª
ĠØ§ÙĦÙĬÙĪÙĨ Ø§ÙĨÙĬØ©
Ø´Ø± Ø§Ùģ
ØµÙĨ Ø§Ø¹Ø©
ĠØ§ÙĦÙħØŃ ÙĥÙħØ©
ĠÙĦÙĦ Ø¥ÙĨ
ĠØ§ÙĦ Ø±Ùĥ
a tion
ĠØ¥ ÙĬØ¬
ĠØ§ÙĦÙĩÙĨØ¯ Ø³Ø©
Ġ4 5
ÙĥÙĨ ÙĪÙĦÙĪØ¬ÙĬØ§
ĠÙģØ± ÙĤØ©
Ø§Ø± Ø³Ø©
ĠØ§ÙĦØ³ÙĬ Ø§Ø±Ø§Øª
ĠØ§ÙĦÙĤ Ø§Ø¯
ĠØ§ÙĦÙĦ Ø¹Ø¨Ø©
ĠÙħ ÙĪØª
ĠØ§ÙĦØ² ÙĬØª
ĠØ§ÙĦÙħÙĨ Ø¸ÙħØ©
ĠÙĦ ÙĪÙĬØ³
ĠÙħÙĤ Ø§Ø±ÙĨØ©
ĠØ§ÙĦØ¯Ùħ Ø§Øº
Ø¨ÙĤ Ø§Øª
ĠØ¨ÙĦ Ø¯
ĠÙĬ Ø³ÙħØŃ
ĠÙħÙĪØ¬ ÙĪØ¯Ø©
ĠØ§ÙĦØ´ Ø¨ÙĥØ©
ĠØ§ÙĦØ·Ø¨ÙĬ Ø¹Ø©
ĠÙĪØ§ÙĦ Ø²
ĠÙĪÙĩ Ø°Ùĩ
ĠØ§ÙĦØ¨ÙĬ Ø¦Ø©
ĠÙĩÙĨ Ø±ÙĬ
ÙĦÙĬ Ø¯
ĠØ± Ø¯
Ø£ Ø®
ĠÙĪØŃ ØµÙĦ
i r
Ø§ÙĦÙĬ Ø¨
ĠØ§ÙĦ Ø§Øµ
ĠØ§ÙĦØ®ÙĦÙĬ ÙģØ©
ĠØ§ÙĦØ§Øª ÙģØ§ÙĤ
Ø§Ùĥ ÙĬ
ĠØ§Øª Ø¬Ø§Ùĩ
ĠØ§ÙĦØ± Ø¦
ĠØ§ÙĦØª Ø§Ø¨Ø¹
ĠÙĥ ÙĬÙģ
Ġ198 6
ØªØª Ø§ØŃ
ĠØµØŃ ÙĬÙģØ©
ÙĪØª ÙĨ
ĠØ¹ÙĨ Ø§ØµØ±
ĠÙĬØ´ ÙĬØ±
ĠØ§ÙĦÙħØ±ÙĥØ² ÙĬØ©
ĠØ¥ Ø·Ø§Ø±
ĠØ§ÙĦÙħØ³Øª Ø®Ø¯ÙħØ©
ØŃ ÙĬØ§ØªÙĩ
Ø¹Ø¯ Ø§Ùħ
ĠØ§ÙĦØµ ÙĪØ±Ø©
ĠØ¨ ÙĦØ§
ĠØ® ÙĬ
ĠØ§ÙĦØ¹ Ø§Ø¦ÙĦØ©
ĠØ§ÙĦÙħØµ Ø·ÙĦØŃ
ĠØ§Ø® ØªØ±
ĠØ§ÙĦØ¹ ØµØ¨
ĠØ§ÙĦØ«ÙĤ Ø§ÙģÙĬØ©
Øª Ø£Ø³
ĠÙħ Ø·Ø§Ø±
ĠØ§ÙĦØŃ Ø³ÙĬÙĨ
Ø³Ø±Ø§Ø¦ÙĬÙĦ ÙĬØ©
Ø¨ÙĬ Ùĩ
Ùĩ ÙĪØ±ÙĬ
ÙĨØ¯ Ø³Ø©
ĠØ£ØŃÙĬ Ø§ÙĨØ§
ĠØ§ÙĦÙĨÙĪ ÙĪÙĬ
ĠØ¨ ÙĬØ¹
Ø¨Ø· ÙĪÙĦØ©
ĠØ§ÙĦÙĨ ÙĤÙĦ
ĠÙħ Ø§ÙĦ
ĠØª ÙĪÙĦ
ĠØª ÙħØ±
Ġ6 5
Ø¬ Ø§Ø¨Ø©
Ġ198 8
Ùĥ ÙĬÙĨ
ĠÙĦØª ÙĨ
Ø¨Ø¹ Ø§Ø¯
Ùĩ ÙĬÙĦ
ĠÙĪØª Ø³
ÙĪØ§ ÙĬØ§Øª
ÙĦØ§ Ùĩ
ĠØŃ ÙħÙĦØ©
ĠØªØ¹ ÙĬØ´
ĠÙĥ Ø§ÙĦÙĬÙģÙĪØ±ÙĨÙĬØ§
ĠÙĦÙĦØº Ø§ÙĬØ©
ĠÂ ²
Ġ }
ĠØ§ÙĦØ¨ Øµ
ĠÙĦØ£ÙĨ ÙĩØ§
Ġ18 4
Ø®Ø· ÙĪØ·
ØªÙħ Ø¹Ø§Øª
ĠØ§ÙĦÙħØŃ Ø§ÙģØ¸Ø©
Ġ198 4
ĠØ§ÙĦÙģ Øª
ÙħÙĨ Ø°
ĠØ¯Ø§Ø¦ ÙħØ§
ĠØªÙĤ Ø³ÙĬÙħ
ĠØ¥ÙĨ Ùĩ
ĠÙĥØ¨ Ø§Ø±
ĠØ§ÙĦÙĨ Ø¬Ùħ
ĠÙĦÙĦ Øµ
ĠÙĥØ§Ø± ÙĦ
ĠØªØŃ ÙĪÙĬÙĦ
ĠÙħÙĪØ³ Ùī
ĠØ§ÙĦØ¨Ø± Ø§ÙħØ¬
Ùģ ÙĪ
Ø³Ø§ ÙĪÙĬ
ĠÙĦ ÙĬØª
ĠØ§ÙĦØŃÙĬÙĪ ÙĬØ©
Ø¨Ø± Øª
ĠÙĪÙħ Ø¤
ĠÙĨ ØªØ§Ø¦Ø¬
ĠØ¨Ø¹Ø¶ ÙĩÙħ
ĠÙĪ ÙĪ
ĠÙĨ Ø¬Ùħ
ĠØ¨ÙĨ Øª
ĠÙĨØ¸Ø± Ø§
Ø³Ø§ ÙĩÙħ
ĠØ§ÙĦ Ø§ÙĤ
ĠØ§ÙĦÙģ ÙĤÙĩ
ĠØ§ÙĦØµ ØŃØ©
ĠØ§ÙĦØ® ÙħØ³
ĠÙĬ ØµØ¨ØŃ
Ø§Ùĥ Ø±Ø©
Ø³ Ø§Øª
ĠØ± ÙģØ¹
ÙĪÙĬ Ø¬
o p
Ø´ Ø§Ø±ÙĥØ©
ĠØ§ÙĦØ¨ ÙĬØª
Ø¹ÙĦ Ø§Ùħ
Ø§Ø± ÙĤØ©
Ø¬Ø§ ÙĪØ²
ĠÙģ Ø¦Ø©
ĠÙĤÙĦÙĬ ÙĦØ©
ĠØ§ÙĦØ¥ Ø³Ø±Ø§Ø¦ÙĬÙĦÙĬØ©
Ġ3 3
ĠØ§ÙĦÙĤ Ø·Ø§Ø¹
Ø§Ø¦ ÙĩÙħ
ĠØ£ Ø¹Ø¯Ø§Ø¯
Ø§Ø« Ø©
ĠØ§ÙĦØ¨ Ø¹
ĠØ§ÙĦØ¨Ø± Ø§Ø²
ĠØ§ÙĦÙĤ ØµØ±
Ø§ ÙĬÙħ
ĠÙħØ± ÙĪØ±
u l
ĠØ´ Ø¨
ĠØ³ ÙĪÙĬ
Ø³Øª ÙĬØ±
ÙĤÙĬÙĤ ÙĬØ©
ĠØ§ÙĦØ² ÙĬ
Ø®Øª Ø§Ø±
ĠØª ÙĪØ±
ĠØ£ Ùĩ
ĠØ§ÙĦÙĤ ÙĨØ§Ø©
ĠØ§ÙĦØ³ Ø§ØŃÙĦ
ÙĬØ² Ø§Øª
ĠØ¹ÙħØ± Ùĩ
ĠØµ Ø§Ø±
ĠØª ØªØŃ
ĠÙħØµ Ø§Ø¯Ø±
Ġ9 0
ĠØ¬ ÙĪ
ÙħØ§ ÙĥÙĨ
ĠÙĦÙĦ Ø³ÙĬ
Ø¬Ùħ ÙĩÙĪØ±ÙĬØ©
ĠÙħØµ Ø±ÙĬ
ĠØ£ Ø¹ÙĦÙĨØª
ĠØª ÙĬÙħ
ĠØ§ÙĦØ±ÙĪÙħ Ø§ÙĨÙĬ
ÙĤ Ø§Ø·Ø¹Ø©
ĠØ® Ø§ÙĨ
ĠØ¨ Ø«
ĠØ§ÙĦØ¨ Ø§Ø¨Ø§
ĠØ§ÙĦØ¬ÙĨ Ø³ÙĬØ©
ĠâĢ ľ
Ġ201 8
ĠÙĦÙĦ Ø®
ĠØ§ÙĦÙĪ Ø¶Ø¹
ĠÙĪØ§ÙĦ Ø°
ĠØ§ÙĦØµ ÙĪØ±
Ġ18 0
ĠØ´ Ø¯ÙĬØ¯
ĠØ¹ Ø±Ø¨ÙĬØ©
ĠØª Ø¶
ØºØ±Ø§ÙģÙĬ Ø§
ĠØªØ¹ Ø±ÙĬÙģ
ĠÙħØ¤ ØªÙħØ±
ĠÙĤÙĬ Ø§Ø³
ĠØ§Ø³Øª Ø¹ÙħØ§ÙĦ
Ġ re
ĠØ§ÙĦØ¥Ø³Ø¨ Ø§ÙĨÙĬ
ĠØ¨ÙĬ Ø§ÙĨØ§Øª
ØŃ Ùģ
Ø¹ÙħÙĦ ÙĬØ©
Ø¨ÙĬÙĨ ÙħØ§
ĠØ¬ Ø§Ùĥ
Ø« ÙĪØ°
ĠØ§ÙĦØ¨ÙĬ Ø¶Ø§Ø¡
ĠØµÙģ ØŃØ©
ĠÙĪØ¥ ÙĦÙī
Ġ197 0
ĠØ¹ ÙĥØ³
ĠØ§ÙĦØ³ Ø§ØŃ
Ø¨ÙĦ Ø§Ø¯
2 00
ĠÙħØ¹ Ø±ÙģØ©
ØºØ· ÙĬ
ØºÙĬ ÙĬØ±Ø§Øª
ĠØ¨ Ø¶
ĠØ¬ Ø³Ùħ
ĠØ¹Ùħ Ø§ÙĨ
ĠØ§ÙĦØ· ÙĬØ±Ø§ÙĨ
ĠØ§ÙĦØŃ ÙħÙĦ
ĠØ§ÙĦØ³ÙĪÙģÙĬ ØªÙĬ
ĠØ§ÙĦØ£ Ø±Ø¨Ø¹
ĠÙĦÙĦ ØªØ¹
ĠÙģ Ø§Ø±Ø³
ĠØŃ ÙħØ§ÙĬØ©
Ø¯ Ø¨
ĠÙĦ ÙĪÙĨ
ĠØ§ÙĦÙĨ Ø¬ÙĪÙħ
ĠØ¹Ø¶ ÙĪØ§
ĠØ§ÙĦÙĦØ¨ÙĨ Ø§ÙĨÙĬØ©
ĠØ£Ø³ Ø§Ø³ÙĬ
Ġ197 9
ĠØ§ÙĦØ¥ Ø°
ĠØ§ÙĦÙĥ ÙĦÙħØ©
ĠØ£ÙħØ±ÙĬÙĥ ÙĬØ©
ĠØ§ÙĦØ¯Ø§Ø® ÙĦÙĬ
Ø§Ùģ Ø§
ĠØ§ÙĦÙĩ ÙĪÙĦ
ĠØ¥ Ø³ÙĦØ§Ùħ
Ø§Ø² Ø§Øª
Ø§Ø¨ ÙĬÙĨ
ĠÙĩ ÙĬØ±
Ø§Ø¦ ØŃ
ĠØ´ Ø§Ø±
ÙĦÙĬ Ùĩ
ĠÙĬØ¹ ØªÙħØ¯
a b
ĠÙĪÙĬ Ø³Øª
ĠÙħ ÙĪØ±
Ø¨Ø± ÙĬØ©
ĠÙĤØ± Ø±
ĠØ³ ÙĤÙĪØ·
Ø£ ÙĦØ©
ĠØ§ÙĦØ·ÙĦ Ø§Ø¨
ĠØ§ÙĦÙħÙĪ Ø§ÙĤØ¹
ĠØ§ÙĦÙĥØ« Ø§ÙģØ©
Ø° Ø§Ø±
e c
Ø£ Ùĥ
ĠØ§ÙĦØ° ÙĥÙĪØ±
Ø¬ Ø§Ø¡
ĠÙĪØ¹ ÙĦÙħ
Ø§Ø¯ ÙĨ
Ùĩ ÙĪÙĦ
ĠØŃ ÙĦØ¨
ĠØ§ÙĦØ¹ Ø§ÙĦÙĬØ©
ĠÙĪØµÙĦ Øª
ĠØ§ÙĦØ¬ ÙĦ
ÙĪØ¨ ÙĬØ©
ĠØ§ÙĦØªØ±Ùĥ ÙĬØ©
ĠØ´ Ø§Ø±Ø¹
Ø§Ø² Ùħ
Ø§Ø¯ Ø«
ĠØ§ÙĦÙģ ÙĨÙĬ
ĠÙĪØ§ÙĦØª ÙĨ
ÙĬ Ø¯Ø©
ĠØ§ÙĦÙħØ³ Ø¤ÙĪÙĦ
Ùĥ Ø´
ĠØ´ Ø±ÙĥØ§Øª
Ø¦ ÙĬÙĨ
ĠÙĦØª ÙĤ
ÙĬÙĨ Øª
ÙĪ Ø§Ø¦ÙĬ
ĠÙģ Ø³
ĠØª Ø´Ø±ÙĬÙĨ
ĠÙĤØ¨ Ø§Ø¦ÙĦ
ĠØ° ÙĬ
ĠØ° Ø§
ĠØ§ÙĦØ· Ø±
ĠØ§ÙĦÙĥØªØ§Ø¨ Ø©
Ø§Ø¨ Ø¯
ĠØ§ÙĦÙĨ Ø§ØŃÙĬØ©
ĠØ§ÙĦØªØŃ ÙĥÙħ
ÙĪØ³ Ø·Ø©
ĠØª ÙĤÙĦ
Ø§Ø¬ ÙĬ
ÙĨÙĬ Ùĩ
ĠÙĨ Ø§Ø¨
Ø§Ùĥ Øª
ØªØ¨ Ø§Ø¹
ĠÙĤÙĬ Ø§Ùħ
ĠØ± Ø³ÙħÙĬ
ĠØ§ÙĦØ§Ø³Øª Ø®Ø¯Ø§Ùħ
Ø¨Ø¯ Ø§
Ø³ ÙĥÙĬ
Ġ198 7
ĠØ§ÙĦÙĥ Ø±Ø¨ÙĪÙĨ
ĠÙħØ¹ Ø§
ĠÙħÙĤ Ø§
ĠÙĪÙĤ Ø¹
ĠØ¨Ø§ÙĦ Ø´
ĠØ§ÙĦÙģ Ø¹ÙĦ
ĠØ§ÙĦØ¥ ÙĦÙĩ
Øº ÙĦØ¨
ĠØ§ÙĦØ¹ÙĦ Ø§ÙĤØ©
ĠØ§ÙĨ Ùģ
ĠØ§ÙĦÙĤ ØªØ§ÙĦ
ĠÙĪ Ø³Øª
ĠÙħ ÙĪÙĦ
Ø®Ø¯Ùħ Ø§Øª
ĠØª Ø¨Ø¯Ø£
ĠØ§ÙĦØ´ Ø§Ø¹Ø±
ĠØ§ÙĦ ÙĪÙģ
ÙĤ ÙĪÙĦ
ĠØªØ¬ Ø§Ùĩ
ĠØ§ÙĦÙģ ÙĤ
ĠØ£Ø¹ÙħØ§ÙĦ Ùĩ
ĠØ²ÙĪØ¬ ØªÙĩ
ĠÙħØ¨ Ø§Ø±ÙĬØ§Øª
Ø® ÙĪØ±
ĠØ¬Ø²Ø¡ Ø§
Ø¨ Ø¹Ø¶
ĠØµ Ø±
Ø§Ø· ÙĬ
ĠØ§ÙĦÙĥ Ø§ÙħÙĦ
ĠÙĨÙĤ Øµ
ĠØ§ÙĦØŃ Ø¬Ùħ
ĠÙĥØ§ÙĨ ÙĪÙĨ
ÙģÙĬ Ùĩ
ĠØ§ÙĦØ¯ ÙĤÙĬÙĤØ©
ÙĢÙĢ ÙĢÙĢ
ĠÙħÙĪ Ø§Ø¯
ĠÙĦÙĬØ¨ ÙĬØ§
ÙĦÙĤ Ø§Øª
ØµÙĨ Ø¹
ĠÙħ ÙĦØ§ÙĬÙĬÙĨ
ĠØ¹ Ø³ÙĥØ±ÙĬ
Ġ194 5
ĠØ§ÙĦØª Ø·ÙĪØ±
ĠØ§ÙĦØ¯ Ø³ØªÙĪØ±
ÙĬØª ÙĬÙĨ
ĠØ§ÙĦÙĥ Ø±Ø©
Ø§ÙĦ ÙĦ
Ø¨ÙĬ Ø¨
ĠØ§ÙĦØ· Ø§Ø¦Ø±Ø§Øª
Ġ3 00
ĠØ§ÙĦØ±ÙĬ Ø§Ø¶ÙĬ
ik i
ĠØ· Ø§Ø¦Ø±Ø©
ĠØ® Ø·Ø±
Ġ197 5
ĠØ£ Ø¬Ø±
ĠØ£ Ø³ÙĦÙĪØ¨
Ø§Ø± ÙĤ
ĠÙĥÙĬÙĦ ÙĪ
ĠØ¹ Ø«ÙħØ§ÙĨ
ĠÙĨ Ø§Ø¦Ø¨
ĠÙĦØª Ø´
ĠØ§ÙĦÙħØ¤ ØªÙħØ±
Ø²ÙĬ Ø¦Ø§Øª
ĠÙģ ÙĪØ±
ĠÙĪØºÙĬØ± ÙĩÙħ
2 2
ÙĪØ¬ Ø©
Ø±ÙĤ Ø§Ùħ
ĠØ£ÙĨ Ø¸ÙħØ©
ØºØ± Ø§ÙģÙĬØ©
ÙģØ§ ÙĪØ¶
ĠØ§ÙĨØª Ø®Ø§Ø¨Ø§Øª
ĠØ§ÙĦØ£ØµÙĦ ÙĬØ©
ĠØ§ÙĦÙĥÙĦ Ø§Ø³
ĠØ¯ Ø§Ø®
ĠØ§ÙĦØªØµ ÙĪÙĬØ±
ĠØª ÙĪØ³
ÙĨØ¯ ÙĪÙĤ
ĠØ§ÙĦÙħØ± ØªØ¨Ø©
ĠØ§ÙĦØ¥ Ø±
ĠØ§ÙĦÙĤÙĬ Ø§Ø¯Ø©
ĠØªØª ÙĥÙĪÙĨ
ĠØ¨Ùħ ØŃ
Ġ198 5
Ø¹Øª ÙĩØ§
ĠÙĪØ§ÙĦÙħ ØŃ
ĠØ¥ Ø±
ĠÙĤÙĦ Ø¹Ø©
ĠÙĪ Ø§ÙĤ
Ġ5 00
Ø§Ø± ØªÙĩ
Ø§Ø± ÙĩØ§
ĠØ§ÙĦØ¢Ø®Ø± ÙĬÙĨ
ĠØ£ ÙħÙĨ
ĠØ§ÙĦ Ø§Ùģ
ĠØ´Ø¹Ø¨ ÙĬØ©
ĠÙĪØ§ÙĦ ØªØ±
Ø¯ÙĬ Ø§ÙĨ
Ġ3 6
r i
Øµ Ø§Øµ
ĠØ®Ø· ÙĪØ·
ĠØ§ÙĦØ³ ÙģÙĨ
Ø§Ùģ ÙĤØ©
ĠÙĪ ÙģØ±
Ø¨Ø± Ùĩ
ĠÙĬØª Ø¹ÙĦÙĤ
ĠØ§ÙĦØ·Ø¨ ÙĤØ©
ĠØ§ÙĦØªØ´ Ø±ÙĬ
ÙĬ ÙĤÙĬ
ĠØ§Ø¹ ØªÙħØ§Ø¯
ĠÙħ Ø¯Ø±
7 0
ĠÙħ Ø§ÙĦÙĥ
ĠØ§ÙĦØŃÙĤ ÙĪÙĤ
ĠØ§ÙĦÙĤ Ø¶Ø§Ø¡
Ø¥ ÙĦØ§
ĠÙĦÙħ Ø¹
ĠØªØŃ ÙĪÙĦ
Ġ18 3
ÙĪÙģ Ø§
ĠÙħØµ Ø·ÙģÙī
ĠØ§ÙĦÙĨØ¸ Ø±ÙĬØ©
ĠØ§ÙĦØªØµ ÙħÙĬÙħ
Ø¹Ø± Ø§ÙĤ
ĠØ¬ ÙħØ§Ø¹Ø©
ĠØ±Ø¨ ÙħØ§
ÙĦÙĬ ÙĤ
Ġ197 3
Ø·Ø¨ Ø§Ø¡
ĠÙħØ¹ Ø§ÙĩØ¯Ø©
ÙĨØ¯ Ø³
Ø¬Ø± Ø§Ø¡Ø§Øª
ĠØ¨ÙĬÙĨ ÙĩÙħØ§
Ø±Ø¬ Ø¹
Ġ la
Øª ÙĪÙī
ĠØª ÙĥÙĪÙĬÙĨ
ÙĪ Ø§Ø±ÙĬØ®
ĠÙĥ Ø§ÙħÙĦØ©
ĠØ§ÙĦØ· Ø¹Ø§Ùħ
ĠØ§ÙĦØ· ÙĬÙĪØ±
ĠØŃ Ø§ÙĥÙħ
ĠØ´ Ø£ÙĨ
ĠØ£Ø¯ Ø§Ø¡
ĠØ§ÙĦØ´Ø®Øµ ÙĬØ§Øª
ĠØª ÙĪØ²ÙĬØ¹
ĠØ§ÙĦÙħØ´ Ø§Ø±ÙĥØ©
Ø§Ø¦ Ø²
ĠØ®Ø§Ø±Ø¬ ÙĬØ©
ĠÙħ ÙĬØ±
ĠØ± ÙĤ
Ø±Ø§ØªÙĬØ¬ ÙĬØ©
ĠÙħ Ø³Ø±ØŃ
Ø§Øª ÙĩÙħ
Ø¸ ÙĦ
ĠÙĬ ÙħÙĨ
ĠØ§ÙĦØ² ÙĪØ§Ø¬
ÙĨ Ø²
ĠØ±Ø³Ùħ ÙĬØ§
Ùĥ Ùĥ
ĠØ¨Ø§ÙĦ ØªØ¹
Ø§Ø¨ ÙĬØ¹
ĠÙĪØ¹ ÙĨØ¯ÙħØ§
ĠØ§ÙĦÙĨ ÙħÙĪ
ĠØ§Ø¹ ØªØ¨Ø±
ĠØ£Øµ ØºØ±
Ø§Ø« Ø±
Ùħ ÙĥØ§ÙĨ
ĠÙĪÙĬ ØŃ
ÙģØ³ ÙĩÙħ
ĠØ§ÙĦÙħ ÙĪØ¶ÙĪØ¹
ĠØ§ÙĦØ®Ø§Ø±Ø¬ ÙĬ
Ġ Ú
ĠØ§ÙĦÙĦØ§Øª ÙĬÙĨÙĬØ©
ĠØ¨Ø§ÙĦ Ø·
Ø§Ø° Ø¬
ĠØ§ÙĦÙĥÙĬÙħÙĬ Ø§Ø¦ÙĬØ©
Ġ198 1
ĠØ§ÙĦØ£Ùĩ ÙĦÙĬØ©
ØŃÙĪ Ø«
ĠØ¨Ø´ Ø£ÙĨ
ÙĪØ² ÙĬ
ĠÙĦØ¨ Ø¹Ø¶
ĠÙħ Ø¦
Ø£ Ø«ÙĬØ±
ĠØ´ ÙĬØ®
ĠØ£ Ø·ÙģØ§ÙĦ
ĠÙħØ³ Ø¤ÙĪÙĦ
ĠØ§ÙĦÙħÙĦ Ø¹Ø¨
Ø¶ Ø¨
Ø« Ùī
ĠØ¥ Ø«Ø±
Ġ l
ĠØ§ÙĦÙħÙĤØ¯ Ø³
ĠØ§ÙĦÙħ ÙĥÙĪÙĨ
ĠØ§ÙĦÙħØª Ø¹ÙĦÙĤØ©
ÙĪÙĬ Ø¶
Ġ h
ĠØ¯ÙĪØ± Ø§
ĠØ£ Ø³ØªØ§Ø°
ĠØ§ÙĦÙĨ ÙĬÙĦ
ĠÙĨ Ø¨
ĠØ³ÙĬ Ø§Ø³ÙĬØ©
t h
ĠÙĦØ¹ Ø¨Ø©
Ø¨ Ø³
ĠÙĪØ§ÙĦ ÙħØ¯
ÙĪÙģ ÙĤØ§
ĠÙĤ ÙĪÙĬØ©
Ø§Ø¤ Ùĩ
ĠØ´ Ø§Ùĩ
Ø¹ ÙĨØ¯
ĠØ¥ Ø®Ø±Ø§Ø¬
ĠØ§ÙĦØ¨ÙĬ Ø¶
ÙĩÙħ ÙĬØ©
Ø§Ø· ÙĨ
ĠØ§ÙĦØ´ Ø±ÙĬÙģ
Ø¯Ùģ ÙĤ
ÙĪØª Ø§
ĠÙħ ÙģÙĩÙĪÙħ
ĠØ§ÙĦÙĨ ØµÙģ
ÙĬ ØªÙĬ
ĠØ« ÙĤ
ĠØ±Ø¦ÙĬØ³ Ø§
ĠØ§ÙĦØªØ£ Ø«ÙĬØ±
Ùģ Ø§Ø¡
Ġ197 4
ĠÙĪØª Ø±Ùĥ
ĠØ³Ø¨ Ø¹Ø©
ĠØ§ÙĦÙĬÙĩ ÙĪØ¯ÙĬØ©
t p
ÙĪÙĬ ÙĬÙĨ
ĠÙĩ ÙĦ
ĠØ³ÙĬ Ø¯ÙĬ
ĠØ¹Ø¯Ø¯ Ø§
ÙħÙĨ Ø©
ĠØ¶ Ø±Ø¨
Ø±ÙĬ ÙħØ©
ĠØ¬ ÙĬÙĨ
ĠØ§ÙĦÙĪØ§ØŃ Ø¯
Ø³Ø¨ ÙĤ
Ø§Ø¦ ÙģØ©
ĠØªØµ ÙĪÙĬØ±
ĠØ§ÙĦÙĨØ§Øª Ø¬
ĠÙĪØ§ÙĦÙħ Ø¹
ĠØ£ÙĨ Ø´Ø£
ĠÙħØ¹ ÙĩØ§
ĠÙĪØ§ÙĦØ¹ Ø´Ø±ÙĬÙĨ
ĠØ³ Ø§Ùħ
ĠÙĬ Ø´ÙĥÙĦ
ĠØ³ÙĬ Ø§Ø³Ø©
ĠØ³ ÙĬÙģ
ĠØªØ¯ Ø®ÙĦ
ĠØ§ÙĦÙģØ± ÙĤØ©
ĠØ³ÙĦ Ø·Ø§ÙĨ
Ġ196 0
ĠØ¹ÙħØ± ÙĪ
ÙĪØ§ØŃ ÙĬ
ĠØ§ÙĦÙħÙĥ Ø³ÙĬ
Ġ Ø§ÙĩØªÙħØ§Ùħ
ĠÙĦÙĦÙħ Ø±Ø©
ÙĬ Ø§Ø¡
Ø§ÙĤØªØµ Ø§Ø¯ÙĬØ©
ĠØ§ÙĦØ¨ÙĦ Ø¯
ĠØ§Ø® Øª
ĠØ§ÙĦÙħØ±Ùĥ Ø²ÙĬ
ĠØ³ ÙĥÙĨ
ĠÙħØ³Øª ÙĤÙĦØ©
ĠØ§ÙĦØ£ ÙģØ±Ø§Ø¯
ĠØ§ÙĦÙħØ¨ ÙĥØ±Ø©
Ġ15 0
Ø§Ø· Ø¹
Ø´ Ø§Ø¨
ĠÙĬ Ø¨Ø¯ÙĪ
ĠØ§ÙĦØ¹ ÙĤØ¯
Ġ g
2 8
ĠØ³ Ø§ÙĩÙħ
ÙĨØª Ø¬
Ø§ÙĦ ÙĬÙĨ
Ø§Ùĥ Ø±
ĠØ§ÙĦÙħ ØªØ¨
ĠØª ÙĪÙĦÙī
ĠØ§ÙĦØŃ ÙĤÙĬÙĤÙĬ
Ø¦ Ø±
ĠØ§ÙĦÙĤ ØµØ©
ĠØ§ÙĦÙħÙĪ Ø§ÙģÙĤ
ĠØ§ÙĦØ¬ Ø¨Ø§ÙĦ
Ø¹Ø¯ ÙĦ
Ø§Ø³ Ø¹Ø©
ĠØ§ÙĦÙĨ Ø®
ĠÙĦØ¯ÙĬ ÙĩÙħ
ĠØ§ÙĦÙĨØ³ Ø®Ø©
ĠØ® ÙĦØ§ÙĬØ§
ÙĨ ÙĤ
2 1
ÙĨØ¯ ÙĤ
ĠØ¬ ÙħØ§
ÙĤÙĦ Ø§Ø¨
ÙģÙĬ ÙĦÙħ
ĠØ§ÙĦÙħØ¬Ùħ ÙĪØ¹Ø§Øª
ĠØ¨Ø¹Ø¯ Ùĩ
ĠÙĪÙĤ Ø¹Øª
Ġ198 3
ĠÙħÙĪ Ø§Ø³Ùħ
Ø§Ùģ Ø³Ø©
ĠØ§ÙĦØ£ÙĪÙĦ ÙĬØ©
ĠÙħØŃØ¯ Ø¯Ø©
ĠØ§ÙĦØ¨ Ø±ÙĬØ©
ÙĪØ¯ Ø§
ĠØŃÙĤ ÙĤ
ĠØ§ÙĦÙĥØ§Ø«ÙĪÙĦ ÙĬÙĥÙĬØ©
Ø° ÙĨ
ĠØ§ÙĦÙħØ¤ Ø³Ø³Ø§Øª
ÙĪØ¨Ø± Øª
Ø· ÙĨ
ĠØªØ´ ØºÙĬÙĦ
ĠØ± Ùĥ
ÙĪØ³ ÙĪÙģ
ĠØ§ÙĦÙĤÙĬ Ø§Ùħ
Ø§ÙĦ Ø³ÙĬ
ĠØ¢ ÙĬ
ĠÙģ ÙĪÙĦ
ĠØ±Ø¦ÙĬØ³ ÙĬ
ĠØ§ÙĦØ§Øª ØµØ§ÙĦ
ĠØ§ÙĦØ¬ÙĨ ÙĪØ¯
Ø±Ø¨ ÙħØ§
ĠØ§ÙĦØ´Ø¹ Ø¨ÙĬ
ĠÙĨ Ø¸Ùħ
ÙĬÙĪ Ø§ÙĨØ§Øª
ĠØ· ÙĨ
ĠØ§ÙĦÙħ ÙĩÙħØ©
ÙĨØ§Ø· ÙĬØ³ÙĬ
ØºÙĬØ± Ø§Øª
ĠØ§ÙĦØ£Ø«Ø± ÙĬØ©
Øº Ø§Ø±
ĠÙĪØ£ ÙĥØ«Ø±
ĠØ£ Ø³ØªØ±Ø§ÙĦÙĬØ§
ÙĪØ¹ Ø§
ĠØ§ÙĦÙģÙĦØ³Ø· ÙĬÙĨÙĬ
ht tp
ĠØ®ØµÙĪØµ Ø§
ĠØ§ÙĦØ¥Ø³ ÙĥÙĨØ¯Ø±ÙĬØ©
Ø¨ ØºÙĬ
er s
Ø£ ÙĪÙĦ
ÙĬØ³ Ø§ÙĨ
ĠØ® ÙĦÙĤ
ĠØªØ§Ø±ÙĬØ® ÙĬØ©
Øº Ø§ÙĦ
ÙĨ Ø´Ø£
ĠÙĬ ÙĤØ¯Ùħ
ĠØ§ÙĦØŃ Ø±Ø©
ĠØ§ÙĦÙħ Ø±ÙĬØ¶
ĠØ¬ ÙĬØ¯
Ø§ÙĤ Ø¨
ĠØ±ÙĬ Ø§Ø¶
o te
ĠØ§ÙĦØŃ Ø§Ø³ÙĪØ¨
Ġ and
ĠØ§ÙĦÙħ ÙĤØ§ÙĪÙħØ©
Ùĥ ÙħÙĦ
ØªÙĬ Ø§ÙĦ
ĠÙģ Ø±ÙĬØ¯
ĠØ§ÙĦØ¬ ÙĩØ©
ĠØ§ÙĦØºØ° Ø§Ø¦ÙĬØ©
ĠØ§ÙĦÙħÙĤØ§ÙĦ Ø§Øª
ĠØ§ÙĦØµ ÙĬÙĨÙĬØ©
Ùħ Ø«
ĠØ§ÙĦÙĪØ· ÙĨ
ĠÙĬ ÙĤÙĦ
ĠÙĥÙĦ ÙĩØ§
ĠØ§ÙĦØŃ Ø§ÙĥÙħ
ĠØ§ÙĦØªØ±Ùĥ ÙĬØ¨
Øº Ø§Ø¡
ØªÙħ Ø§ÙĦ
ĠØ§ÙĦÙģ ÙĤØ±
ĠØ§ÙĦØ® Ø¶Ø±
ĠØ§ÙĦÙģÙĨ ÙĪÙĨ
Øº Ø±Ø¨
Ġ197 8
ĠØ§ÙĦØ¬Ø§Ùħ Ø¹Ø§Øª
Ġ197 6
ĠØ§ÙĦÙģ Ø¹
ĠØ¯Ø± Ø§Ø³ØªÙĩ
ĠØ§ÙĦÙĤ Ø§Ø¦ÙħØ©
Ø§Ø±ÙĬ ÙĪ
ĠØ§ÙĦÙĪ Ø«
ĠØ¨Ø§ÙĦ ÙħÙĨ
ĠÙĬØ¯ Ø¹Ùī
ĠØ§ÙĦØ§Ø¨ ØªØ¯
Ø§Ø± ÙĬØ±
Ùħ ÙĥÙĨ
Ø«ÙĪØ° ÙĥØ³
ĠÙĦ Ø®
ÙĪÙĬ Ùĩ
Ø§Ùħ ÙĨ
ĠÙĥ ÙĩØ±Ø¨
ĠØ§ÙĦÙĥ ÙĪÙĬØªÙĬ
ĠØ§ÙĦØµ ØŃØ±Ø§Ø¡
ĠØ§ÙĦØ¥ Øº
ĠÙģØ¶ ÙĦØ§
ĠØ§ÙĦØ£ Ø±Ø¨Ø¹Ø©
ĠØ§ÙĦØ£ÙĪÙĦ Ùħ
ĠØ§ÙĦÙĤÙĦ Ø¹Ø©
ĠÙħÙĨ Ø²ÙĦ
ĠÙĪØ£ Ø³
Ø® Ø§Ø°
ØªØ± Ø§Ø¶
ĠØª ÙĨØ§ÙĪÙĦ
ÙĪÙĨ ÙĩØ§
Ø§ØŃ Ø§Øª
ÙĩÙĦ Ø§Ùĥ
ĠØ§ÙĦÙģ ÙĪØ²
ĠØ§ÙĦÙħØ¹ ÙĩØ¯
ĠØ¯ Ø§
ĠØ± Ùģ
ĠØ§ÙĦÙĪ ØŃÙĬØ¯Ø©
ĠØ§ÙĦØ³ ÙĬØ±
ĠÙĦÙĦØŃ ØµÙĪÙĦ
Øª ØªØŃ
Ø² Ø§ÙĦ
Ø± ØºÙħ
ĠÙĥ ÙĨØ¯Ø§
ĠÙĩ ÙĬÙĦ
ĠÙĤ ÙĦÙĬÙĦ
ÙĤØ¯ ÙħØ©
ĠÙĦÙĬ ÙĥÙĪÙĨ
ĠÙĪØŃØ¯ Ø§Øª
Ø£ Øª
ĠØ§ÙĦØ£ Ø¬ÙĩØ²Ø©
ĠØ§ÙĨ Ø®ÙģØ§Ø¶
ĠÙģØ± Ø¹
9 0
ĠØ§ÙĦØ¯ÙĬÙħÙĤØ±Ø§Ø· ÙĬØ©
Ø® Ø§Ø¨
ĠØ§ÙĦÙĤ ÙĪÙĦ
Ø¬ ÙĪ
ĠØ§ÙĦÙĤØ± Ø§Ø±
ĠØ´ Ùħ
ĠØ§ÙĦØµ Ø¯
ĠØ§ÙĦØ¬Ø¯ ÙĪÙĦ
ĠØ¬ÙĬÙħ Ø³
Ø³ ÙĨØ©
Ùħ Ø§Ø°Ø¬
ĠÙĦ ÙĬÙĦ
ÙĤØ¨ Ø§ÙĦ
ĠØ£ ÙĦØ¨ÙĪÙħ
ĠÙģÙĬ ØµÙĦ
ĠØ§ÙĦÙĩ Ø¬Ø±ÙĬ
ĠÙĤ ÙĬÙħ
Ùħ Ø§Ø·
ĠØ·Ø¨ ÙĤØ©
ĠÙĪÙħ Ø³Øª
ĠÙĪØ£ØµØ¨ØŃ Øª
Øª Ø±ÙĬ
ĠØ§ÙĦÙĨ ÙĤØ¯
ĠØ§ÙĦÙĩÙĬ Ø¦Ø©
ĠØ§ÙĦ ÙĪÙĬ
ĠØ¨Ø¯ Ø§
ĠÙĪ Ø°
ĠÙĥ ØªÙĦØ©
ĠØ§ÙĦØ® ÙĦÙĬØ©
ĠØ² Ø§ÙĦ
ÙģÙĬ ÙĦ
ĠØ¨ ØªØ±
ĠØº Ø²Ø©
ĠØ§ÙĦØªØ± Ø§Ø«
Ø¹Ø¶ ÙĪ
ĠÙĨ ÙħÙĪ
ĠØ® Ø¯ÙħØ§Øª
Ø¬ ÙĬØ±
ĠÙĥ ÙĪÙħ
lo ck
ĠØ± ÙĬØª
Ø¹Ø· Ø§Ø¡
ĠØ§ÙĦØŃ Ø§Ø¬
ĠØ¹ ÙĬØ¯
ĠÙĪÙħ Ø¯
ĠÙħØ³Øª ÙĪÙĬØ§Øª
ĠÙĦÙĦÙħ Ø¯ÙĬÙĨØ©
ØªÙģ Ø¸
ĠØ§ÙĦÙĨ Ø³Ø¨
ĠØªØ¤ Ø¯ÙĬ
ĠÙĬ ÙĪ
ĠØ³ ÙĪØ±ÙĬØ©
Ġ201 9
ĠÙĪ Ø¨Ø¯
ĠØ§ÙĦÙħØ¹Ø± ÙģØ©
Ùħ Øµ
ĠÙĦØ´ Ø±ÙĥØ©
ĠÙĬ ÙĪÙħØ§
Ø¯Ø± Ø§Ø³Ø§Øª
Ġ3 4
ĠÙĪØ£ ØŃ
ĠØª Ø¬ÙħØ¹
ĠØ£ ÙĪØ³
Øª Ø¹Ø¯
Ø¹ ÙĪ
ĠØ¨ Ø§ÙĤÙĬ
ĠØª ÙģØ³ÙĬØ±
ĠØ£ÙĨ Ø§
ĠØ´ ÙĤÙĬÙĤ
ĠØ³ÙĬ Ø§Ø±Ø©
Ø§Øº Ø©
ĠØ§ÙĦØ³ ÙĪÙĬ
ĠØ§Ø³Øª ÙĤÙĦØ§ÙĦ
ĠØ§ÙĦØ¬ÙĨ Ø³
ÙĪØ³ ÙĬÙĤÙī
ĠØ§ÙĦØµ ÙĬØ¯
Ø³ÙĬ Ø¬
ĠÙģ ÙģÙĬ
Ø§Ø¦ ÙĬØ§
ĠØª Ø®ØªÙĦÙģ
ĠØ§ÙĦØŃ ÙħÙĦØ©
ĠÙĦÙĦ ØªØŃ
ĠØ§ÙĦØ¥Ø¯ Ø§Ø±ÙĬ
ĠØ± Ø¦Ø§Ø³Ø©
ÙĬÙģ Ø±
Ø£Ø³ ÙĬØ³
ÙĪÙģ Ø§ØªÙĩ
ÙĪØ¶ Ø©
ĠØ® Ø³
ĠØ§ÙĦØ±ÙĬØ§Ø¶ ÙĬØ§Øª
ĠØ§ÙĦØŃ ÙĤÙĬÙĤØ©
ĠÙĥ ÙĦÙĬ
ĠÙħØ± Ø§ÙĥØ²
Ùĩ Ø±ÙĬ
2 4
Ø¯ ÙĪÙĨ
ÙĦ ÙĪ
ĠØ± Ø¬
ĠØµ Ø¨Ø§ØŃ
Ø§ÙĪÙĦ Ø§Øª
ĠÙħØ¹Ø±ÙĪÙģ Ø©
Ø· ÙĨØ©
ØŃ Ùĩ
ĠØ§ÙĦÙħÙħ Ø«ÙĦ
ĠØ§ÙĦÙħØ±Ø¶ Ùī
Ø³Øª Ø§ÙĨØª
Øª Ø¨ÙĦØº
ĠÙĪ ÙĬØ¯
ĠØŃÙĦ ÙĤØ©
ĠÙħØ¨ ÙĨÙī
ĠØ§ÙĦÙħØ² ÙĬØ¯
ĠÙģ Ø´ÙĦ
ĠØ§ÙĦØŃ Øµ
Ø¹Ø± ÙģØ©
ĠØ§ÙĦØ¥ÙĨØ³ Ø§ÙĨÙĬØ©
Ø§Ùĥ ÙĨ
Ø³Ø· ÙĨØ·
ĠÙħØªÙĨ ÙĪØ¹Ø©
Ø§ÙĨ Øº
ĠÙĬØ± Ùī
Ø§ ÙĪØ²
ĠØ§ÙĦ Ø§Ø«
ĠØ§ÙĦÙħ Ø¯Ø±
Ø§Ø± ÙĬØ³
ĠØ® ÙĦØ§Ùģ
ÙĬÙħ ÙĪÙĨ
ĠØ£Ø¹ Ø·
Ø¬ Ø§Ø±Ø©
Ø±ÙĨ Ø³Ø§
ĠØ§ÙĦØ³ ÙĥÙĨ
ĠÙģ ÙħÙĨ
ÙĦÙħ Ø§ÙĨÙĬØ©
Ġ196 2
ĠÙħ Ø°
ĠØª ØµØ¨ØŃ
Ø§Ø² ÙĬØ©
ÙĪØ§Ø± Ø¹
Ø¹ ÙģØ±
ĠÙĦ ÙħØ±
Ġ196 3
ĠØ« Ø§ÙĦØ«
ĠØ±Ø¦ÙĬØ³ ÙĬØ©
ĠØª Ø«
ĠØ§ÙĦÙĪ ØŃØ¯Ø§Øª
Ġ195 6
ĠØ¨Ùĥ Ø«ÙĬØ±
ĠØ§ÙĦØ§ØŃ ØªÙģ
ÙĤ ÙĨ
Ø§Ø¯ Ùī
ĠØ§ÙĦØ£ Ø·ÙĦ
ĠØ§ÙĦÙĤ Ø§Ø¦Ø¯
Ġ3 7
ĠØ§ÙĦØ´ ØªØ§Ø¡
Ø§Øµ Ø¨
Ø³ ÙĪÙħ
ĠØ§ÙĦØ£ ÙħØ©
ĠØ§ÙĦØ£ ÙĥØ³
ĠÙĬ Ø°ÙĥØ±
ĠØ§ÙĦØªÙĪÙĨ Ø³ÙĬØ©
Ø¨ÙĬ ÙĪØªØ±
ÙĪØ¨ ÙĬÙĨ
ĠØ£ÙĪÙĦ Ø§Ø¯
ĠØ¨Ø§ÙĦ Ø¨
ĠØ§ÙĦØ¥ Ø´Ø§Ø±Ø©
ĠØ¨Ùħ Ø«
ĠÙħ ÙĩØ±Ø¬Ø§ÙĨ
ÙĬÙĨ ÙĬØ§
ĠÙĥØ« Ø§ÙģØ©
ĠÙĥ Ø§Ø¨
ĠØ£ ÙħÙĦ
ĠØ¥ ÙĦÙĥØªØ±
ĠØ§ÙĦØ£ØŃÙĬ Ø§Ø¡
ĠØ³ Ø¹
ĠØ§Ø« ÙĨÙĬÙĨ
ĠÙĦÙĬ ÙĪÙĨ
ĠÙħØ¯ Ø±ÙĬØ¯
ĠØ£Øµ ØŃØ§Ø¨
ĠØªØ£Ø³ Ø³Øª
ĠÙĤ Ø§Ø¯Ø±
ĠÙĬØª ÙĥÙĪÙĨ
ĠÙĪ Ø¹Ø¯Ùħ
ĠÙħØ´ ÙĥÙĦØ©
ĠØ§ÙĦÙĨÙĪ ÙĪÙĬØ©
ĠÙĪØ§ÙĦ Ø£Ø³
ĠØ§ÙĦØ¥ ØµÙĦØ§ØŃ
ĠØ¨Ø¬ Ø§ÙħØ¹Ø©
ĠØ±Ùħ Ø¶Ø§ÙĨ
ĠÙĪØ§ÙĦ Ø£ÙĨ
ĠØ¯ Ø§Ø¦Ùħ
ĠØ§ÙĦÙħØ³ ÙĦÙħÙĪÙĨ
Ø¬ ØªÙħØ¹
ĠØ§ÙĦØ¬Ø²Ø§Ø¦ Ø±ÙĬ
Ø§Øª ØŃØ§Ø¯
ĠÙĪØ¹ ÙĨ
ĠØ£ ÙĪÙĦØ§
Ø¯Ùģ Ø§Ø¹
ĠØ£Ø¯ Øª
ĠÙĨ ÙĬÙĥ
ĠØ§ÙĦØ¥Ø¯ Ø§Ø±ÙĬØ©
ĠÙĥ ÙĨØª
Ø®Øª Ø¨Ø±
ÙħÙĦ Øª
2 7
ĠÙĤ ÙĪØ§Ø¹Ø¯
ÙĦÙĬ Ùĥ
ĠØ§ÙĦØº Ø§ÙĦØ¨
ĠØ§ÙĦØ£Øº ÙĨÙĬØ©
ĠØ¨ÙħØ¹ ÙĨÙī
ĠØ§ÙĦØŃ ÙħØ±Ø§Ø¡
ĠÙĪØ§ÙĦÙħ Ø¤
ĠØ§ÙĦØ¬Ø²Ø§Ø¦ Ø±ÙĬØ©
ĠÙģ Ø±Ø¯
ĠØ§ÙĦÙħÙĪ ØµÙĦ
Ġ197 2
s t
Ø³Ø± Ø§
Ġ195 8
ĠØ§ÙĦÙħØ³ÙĬ ØŃ
ĠT he
ĠØ· Ùģ
ĠØ£ÙĤ ÙĬÙħ
Ø±ÙĬ Ø¨ÙĬØ©
ĠØµ ØŃÙĬØŃ
ÙĤÙĬ Ø¯Ø©
Ùģ Ø²
Ø¹ÙĬ Ø¯Ø©
ĠØ§ÙĦÙģÙĦ Ø³ÙģØ©
Ø¨ÙĬ ÙĬÙĨ
ĠØ¶ Ùħ
ÙĪØ±ÙĬ ÙĪØ³
ĠØ§ÙĦÙħ ØªØ±
ÙĪÙģ ÙĤ
Ġ197 1
ĠÙĩ Ø¬ÙĪÙħ
3 3
Ġ196 8
Ø® Ø§Ø±
ĠØ§ÙĦØªØ´ ØºÙĬÙĦ
ĠØµÙĨ Ø¹
ĠÙĦ Ø°Ø§
ĠØ¨ Ø§Ø®
ÙĪØ± ÙĬÙĨ
c e
ĠÙĦ Ø·
Ġ197 7
ĠØ§ÙĦØ¹ ÙĪØ¯Ø©
ĠØ§ÙĦØµ ÙĬÙģ
ÙĪØ¶ ØŃ
ĠÙĦÙħ Ø³
ĠÙħØ¬ Ø§ÙĦØ§Øª
ĠÙģØ± Ø§ÙĨØ³
Ġ196 9
ĠØ£ ÙĦØ¨
ĠØ§ÙĦÙĥ Ø§ØªØ¨
ĠØªÙĤ ÙĨÙĬØ©
Ø¶ Ø§Ø¹
ĠØ§ÙĦØª Ø³ÙħÙĬØ©
ĠØ§ÙĦØ¬ Ø¨ÙĩØ©
ĠØ§ÙĦØ£Ùħ ÙĪØ±
ÙĪØ§ÙĨ Ø¨
ĠØ§ÙĦØ£Ùħ Ø·Ø§Ø±
ØºØ± Ø§Ø¶
ÙĨ Ø§ÙħØ¬
ĠØ§ÙĦÙĨÙĤ Ø·Ø©
ĠÙĬ Ø±ÙĬØ¯
Ø´ Ø§Ø±Ø§Øª
ĠØ§ÙĦØ± Ø£Ø³
ĠØ¨Ø¹Ø¯ ÙħØ§
ÙĤØ· Ø§Ø¹
2 6
ĠØ§ÙĦØ¹ Ø´
ĠØ§ÙĦÙģ ØµÙĬÙĦØ©
ĠØ§ÙĦØ¬ ÙĦØ¯
ĠØ° ÙĪÙĬ
ĠÙĦ Ø¢
ĠØ¥ ÙĬÙĩ
ĠØ§ÙĦÙĨ ØŃ
ĠØ° ÙĩØ¨
ĠØ§ÙĦÙĬØ§Ø¨ Ø§ÙĨÙĬØ©
ÙĥÙĨ ÙĬØ³Ø©
ĠÙħØ³ Ø§ÙģØ©
ĠØ¨Øª ÙĤ
ÙĤ Ø§Ø°
ÙĬÙĦ Ø§Øª
ĠØ§ÙĦØµ ØºÙĬØ±
ĠØ¥Ø¹ÙĦ Ø§ÙĨ
ĠØ¹Ø§Ùħ ÙĦ
ĠØ¨Ø§ÙĦÙĥ Ø§ÙħÙĦ
ĠØ¨Ùħ ÙĪØ¬Ø¨
ĠØ¨ÙħØ« Ø§Ø¨Ø©
ĠØ§ÙĦØµ ØŃÙĬ
ĠÙĪØ¬ Ø¯Øª
ĠÙĤ Ø¶
ĠÙĪØ± Ø¦ÙĬØ³
Ġ196 4
ĠÙĦ ØªØ±
ĠÙĤØ¯ÙĬ ÙħØ©
ÙĪ ÙĥÙĦ
ĠØ§ÙĦÙĥ Ø§Ø¦ÙĨØ§Øª
ĠÙħÙĤØ§ ÙĪÙħØ©
ĠØ¥ ØŃØµØ§Ø¡
ĠØ§ÙĦØ« ÙħØ§ÙĨ
ÙģÙĨ ÙĪÙĨ
on t
ĠÙĪÙĬØ¹ ØªØ¨Ø±
ĠØ£ÙĥØ³ ÙĬØ¯
ĠØ¢ Ø¨
Ø± Ø²
ĠØ§ÙĦØ· ÙģÙĦ
Ġ id
ĠØ¬ ÙĬØ±
Ø±Ùĥ Ø§ÙĨ
Ġb lock
ĠØ§ÙĦØ´ ÙĩÙĬØ±
Ø¨Ø¯ Ø§ÙĦ
ĠØªÙĤ Ø±ÙĬØ±
ÙĤØ§ ÙĬØ§
ĠØ§ÙĦØ±Ø³ ÙĪÙĦ
ĠØ§ÙĦÙĦ ØŃ
Ø§ØŃ ÙĤØ©
ĠØ§ÙĦØ¹Ø¸Ùħ Ùī
ĠÙħ ÙĬØª
ĠÙĬ Ø¶Ùħ
ĠØ§ÙĦØ´ ÙĩØ±
ĠØ§ÙĦÙħØµ Ø¯Ø±
ĠØ§ÙĦØ³ÙĬÙĨ ÙħØ§
ÙĬØ± Ùĥ
Ùħ Ø§Ø¦ÙĬ
ĠØ§ÙĦØª ÙĩØ§Ø¨
ĠØŃ ÙģÙĦ
Ø® Ø±Ø©
ĠØ§ÙĦØ° ÙĩØ¨
ĠØ£ÙĤ ØµÙī
ĠÙģÙĬ ÙĨ
ĠØ§ÙĦÙħÙĨ Ø´
ĠÙħØ¨ Ø§Ø´Ø±
ĠØ§ÙĦÙħÙĪØ¬ ÙĪØ¯
Ø¨ Ø§Ùĩ
ÙĬ Ø³Øª
ĠØ§ÙĦØ£ Ø³ÙĦØŃØ©
ĠÙĤØ¯ Ø±Ø©
ĠØ§ÙĦØ¢ Ø³ÙĬ
ÙĤ Ø§ÙĦØ©
Ġ4 8
ĠØ§ÙĦØ¨Ø±Ø§Ø² ÙĬÙĦ
ĠÙĬ Øº
ĠÙĤ Ø±ÙĬØ¨
ĠÙĤ Ø¶Ø§Ø¡
ĠØ§ÙĦØ¥Ø³Ø¨ Ø§ÙĨÙĬØ©
ĠÙħ ÙĬØ²
ĠØ¥ Ø³Øª
ĠØ² Ø§ÙĦØª
ĠØ³ÙĬ Ø·Ø±
ĠÙħØ¤ Ø³Ø³
ĠØ§ÙĦÙĦ Øº
ĠÙħØ³Øª Ø®Ø¯Ùħ
ĠØ¹ Ø§Ø¦ÙĦ
Ġ3 8
ĠØ£ Ø³Øª
ĠØ§ÙĦØªÙĬ Ø§Ø±
ĠØ§ÙĦØ¹ ÙĤÙĦ
ĠØ«Ùħ Ø§ÙĨÙĬØ©
ĠØ£ÙĨ Ø·
ĠØ£ Ø³Ø¨ÙĪØ¹
Ġ Ã
ĠØ¨Ø³ÙĬ Ø·Ø©
Ø§ÙĦ Ø®
ĠØ§ÙĦÙħØ¯ ÙĨÙĬØ©
ĠÙĦÙĦØ³ ÙĥØ§ÙĨ
Ø·Ø¨ ÙĤ
Ø± Ø§
Ø³ Ø¬Ø©
ĠØŃØµÙĦ Øª
ĠØ§ÙĦØ¨ Ø´Ø±ÙĬ
Ø«Ùħ Ø§Ø±
ĠØ§Ø³ØªØ®Ø¯Ø§Ùħ ÙĩØ§
ĠÙĤØµ ÙĬØ±
Ùĩ ÙĦÙĥ
Ø§ÙĤ Ø´
ĠØ§ÙĦØ¥ÙĨ Ø§Ø«
Ø¹ÙĬ ÙĬÙĨ
ĠÙħ ÙħÙĨ
ĠØ§ÙħØ± Ø£Ø©
ĠÙħØ´ Ø§ÙĥÙĦ
ĠÙĪØª Ø·ÙĪØ±
ĠØ§ÙĦØ« ÙĤØ§ÙģÙĬ
ĠØ§ÙĦØ£ ØµÙĪÙĦ
ĠØ§ÙĦØ° Ø§ØªÙĬØ©
ĠØ§ÙĦÙĨÙĩ Ø§Ø¦ÙĬØ©
Ø³ ÙĪØ±
ĠÙħÙħ Ø§Ø«
ĠØ¥ Ø«
ĠØ§ÙĦÙĤ ÙĬÙħØ©
ÙĪÙĦÙĪØ¬ ÙĬ
Ùģ ÙĬØ±
ĠØ§ÙĦÙĨ Ø§ØµØ±
ĠÙħÙĬÙĨ Ø§Ø¡
ĠØ¨ Ø°
ĠÙĦ ÙĬÙģ
ĠØ§ÙĦØª Ø±Ø¬
ĠØ§ÙĦØ° Ø§ØªÙĬ
ĠØ¶Ø¹ Ùģ
ÙĤÙĬ Ø§Ùħ
ĠØ§Ùģ ØªØªØ§ØŃ
Ø²Ø§ ÙĬØ¯
ĠÙĬØ£ ØªÙĬ
ĠØ¨ Ø¯Ø±
ĠØ¨ÙĦØº Øª
Ø® ÙĪØ§ÙĨ
ĠØ§ÙĦØªÙĨ ÙģÙĬØ°
Ġ e
Øµ ÙĬÙĦ
ÙĪÙĦ Ùģ
Ø¤ ÙĬØ©
ĠÙĪÙĬ ÙĪØ¬Ø¯
Ø§Ùħ Ø¨
Øµ ÙĪØ±Ø©
ĠØ£ Ø¨Ø±
Ø¦ Ø°
ÙĪØ¨ÙĦ Øº
ĠØ§ÙĦØ´ Ø¨
ÙĦØ§ ÙĪØ©
ĠÙħØ± Ø§ØŃÙĦ
ĠØ¨ÙĤ ÙĬØ©
ĠØ¹ÙĦ ÙĪÙħ
ĠØ§ÙĦØŃ Ø§Ø¬Ø©
ĠÙĨ ÙĪ
ÙĪØ³ Ø©
Øº Ø¨Ø©
ĠØ± ØŃÙĦØ©
ÙĤØ§Ùħ Øª
ĠÙħØ³ Ø§Ø¹Ø¯
ĠØª ÙĪÙģØ±
ØªØµ ÙħÙĬÙħ
Ùħ Ø¬Ø©
ÙĨ Ø§Ùĩ
ĠØ¬ Ø±ÙĬØ¯Ø©
ĠÙĬ Ø¨Ø¯Ø£
ĠÙĥ ÙĬÙħÙĬ
Ø§ÙĦ ØªÙĩØ§
ĠØ§ÙĦÙĥ Ùĩ
ĠØ§ÙĦÙĤØ¯ÙĬ Ø³
ĠØ£ÙħØ§ ÙĥÙĨ
ĠÙģÙĬ ÙĦ
Ø§Ø± ÙĬÙĨ
ĠØ¯Ø± Ø³
ĠØªØª Ø¶ÙħÙĨ
ĠØ¨ ÙĪØ¬ÙĪØ¯
Ø§Ø¶ ÙĬØ¹
ĠÙĪØ¹ Ø¨Ø¯
ĠÙĪ Ø¨Ø¯Ø£
ÙĦÙĬ Ø§Ùħ
ĠØ§ÙĦØ¥ Ø³Øª
ĠÙĪ ÙħÙĦ
ÙĪØ¹ ÙĨØ¯ÙħØ§
qu ote
ĠØ§ÙĦØ± ÙĪØŃ
ĠÙĬÙĨ ØªØ¬
ĠØ§ÙĦØ¬ÙĨ Ø³ÙĬ
ĠØ§ÙĦØ¸ Ø±ÙĪÙģ
ĠÙĬÙĨ ØªÙħÙĬ
Ø§Ø³Øª Ø®Ø¯Ø§Ùħ
Ù ¾
ĠÙħ ÙĥØª
Ùĥ ØªÙĦ
ĠÙĪ Ø³ÙĦ
ĠÙħØ¯ Ø§Ø±Ø³
ÙĪØ§Ø¨ Ø·
ÙĪ Ø§ÙĨÙĬ
ĠØªÙĨØª Ø¬
Ø² Ø¹
ĠØ£Ø¨ Ø·Ø§ÙĦ
ĠØª ÙĪÙģÙĬØ±
ĠØ§ÙĦØ³ Ø¬ÙĨ
ĠØ´ Ø±ÙĬÙĥ
ĠØ§ÙĦØªØ¹ Ø§ÙĪÙĨ
Ø±Ø¨ ÙĬÙĨ
ĠØ§ÙĦØ£Ø±Ø¯ ÙĨÙĬØ©
ĠØ§ÙĦØ¹ Ø«ÙĪØ±
Ø´ÙĬ Ø§Ø¡
Ġblock quote
ĠØ§ÙĤ ØªØ±
ĠÙĥØ±ÙĬ Ø³Øª
ĠØ£ÙĩÙħ ÙĩØ§
ĠÙħØµ ÙĨ
ĠÙĤ ÙĪØ§ÙĨÙĬÙĨ
ĠØ¨Øª ÙĨ
ĠÙĪ Ø¨ÙĬ
ĠØ¥ ÙĦÙĩ
Ø¶ ÙĬØ±
2 3
ĠØŃ Ø¬Ø±
ĠØ« ÙĨØ§Ø¦ÙĬ
Ø§Ø´ ÙĬØ©
ĠØ§ÙĦØŃ ÙģØ§Ø¸
ĠØ§ÙĦØ¯ Ø¨
Ġ Ø§ÙĤØªØµØ§Ø¯
ĠØ£ÙĪ ÙĦÙī
Ùĥ Ø°ÙĦÙĥ
ĠØ¨ØŃ ÙĬØ±Ø©
ĠØ§ÙĦØªØ¬ Ø§Ø±ÙĬ
ĠØ£Ùħ ÙĬÙĨ
ĠØ¨ØŃ ÙĪØ§ÙĦÙĬ
ĠØ³ ÙĬÙĦ
ĠÙħ ØªØ±Ø§
ĠÙĤ ÙĪÙĬ
ÙĥØª ÙĬØ±ÙĬØ§
ĠØ³ÙĨ ÙĪÙĬØ§
ĠØ§ÙĦÙĤ Ø§Ø¹Ø¯Ø©
ÙĪÙĥ ÙĪÙĦ
ĠÙħØ¬ ØªÙħØ¹
ĠØªØŃ Ø³ÙĬÙĨ
ĠØªØ² ÙĪØ¬
ĠØ§ÙĦÙĥ ÙĦÙĬ
ĠØ¨Ø¹ ÙĬØ¯
ĠÙĦØ£ ÙĬ
ĠØ§ÙĦØ¯ ÙĪØ±Ø©
ĠØ¨Ø§ÙĦÙģ Ø¹ÙĦ
ÙĤ Ø³Ø§Ùħ
ĠØ§ÙĦØµ Ø±Ø§Ø¹
ĠØ§ÙĦØ£Ùĥ Ø§Ø¯ÙĬÙħÙĬØ©
Ùģ Ø§ÙĦ
ĠØ¯ ÙĦÙĬÙĦ
ØªÙĦ Ø±
ĠØ§ÙĦØ£Ø³ Ø§Ø³
s s
ĠÙģ Ø±ÙĬ
Ø§Ø±Ø³ ÙĬØ©
ĠØ£ Ø³Ø¨Ø§Ø¨
ĠØ§ÙĦØªÙĤ ÙĨÙĬØ©
Øµ ÙĬØ¨
Ø§Ø¯ ØªÙĩ
ØŃØ± Ùģ
Ø§ÙĤ ÙĦ
ĠØº Ø²
Ø³ÙĬ ÙĤ
ĠØ¨ Ø·ÙĦ
ĠØ£ÙĦ Ø¹Ø§Ø¨
Ġd iv
ÙĬÙĦ Ø§Ø¡
Ø§Ø¬ Ø¹Ø©
Ø¶ Ø§ÙģÙĬØ©
ĠØ§ÙĦÙĤ ÙĪÙħÙĬØ©
ĠÙĪÙĦ Ø°ÙĦÙĥ
Ø±ÙĬ Ø®
ÙĪØ§ Ùĩ
ĠÙĪÙĤ ØªÙĦ
Ùģ Ø§ÙĨ
ĠØª ÙĤØ¯Ø±
ĠØ§ÙĨØª ÙĩØ§Ø¡
ĠØ§ÙĦØ¥ÙĦÙĥØªØ± ÙĪÙĨÙĬØ©
Ø· Ø§
ĠÙĪØ§ÙĦ Ø§Ø¬ØªÙħØ§
ĠØ§ÙĦØ® Ùħ
ĠØ³ÙĦ Ø§ØŃ
ĠØ§ÙĦÙģÙĬ Ø¯ÙĬÙĪ
Ø§Ùģ ØŃØ©
ĠÙĨØ³Ø¨ ÙĬØ§
ĠØ¬Ø§Ùħ Ø¹
ĠØŃ ÙģØ¸
ĠØ§ÙĦØª ÙģØ§Ø¹ÙĦ
ĠØ§Ø¨ ÙĨØ©
Ġ X
ĠØ§ÙĦØªÙħ Ø«ÙĬÙĦ
Ø® ÙĬÙĨ
ĠÙĦØª Ø¹
ÙĨØ· ÙĨ
ĠØ§ÙĦÙĥØ± ÙĪÙĬØ©
ĠÙĩ Ø²Ùħ
ĠÙĪØ¬ ÙĨÙĪØ¨
Ġ â
Ø§Ø³ØªÙħØ± Ø§Ø±
ĠÙĪØª ÙĪÙģÙĬ
ĠØ³ÙĬ ÙĥÙĪÙĨ
ĠØ§ÙĦØŃØ± ÙĪØ¨
ÙĬØ¯ ÙĬØ©
o g
ĠØ§ÙĦØ¯Ùħ ÙĪÙĬØ©
ĠØµ Ø¹
ĠØ¨ Ø§
ØŃØ¯ Ø±
ĠØ§ØŃ ØªÙĦ
ĠÙħÙĤ ØªÙĦ
ĠÙĦ ÙĪÙĥ
ĠØ³ Ø§Ø¹Ø¯
ÙħØ§ÙĦ Ùĥ
Øª ØµØ±
ĠØ¨ ÙĪÙĨ
ĠØ± Ø³ÙħÙĬØ©
ĠÙĬØŃ ØµÙĦ
ĠØ§ÙĦØ¹Ø± Ø´
Ġd e
ÙħØ§ Ø©
ĠØ§ÙĦØ§Øª ØµØ§ÙĦØ§Øª
7 7
ÙĪÙħ Ø§ÙĨ
ĠØ® Ø³Ø±
Ġ196 1
ĠÙĥ Ø´
ĠÙħØ³Ø§ØŃ ØªÙĩØ§
ĠÙħÙħ ÙĥÙĨ
ÙĨ Øº
ĠÙĪ Ø«ÙĦØ§Ø«
ĠØ£ Øª
ÙĤ Ø§Ø¨
ÙĤÙĬ Ø¨
ĠØªØ´ Ø§Ø±
ĠI n
ÙĤ Ø§Ø¯
ĠØŃÙħ Ø¶
Ġ \
ĠØ¹ ÙĬ
ĠØ§ÙĦÙĤ ÙĪÙħÙĬ
Ø¨ÙĬ Ø¹Ø§Øª
ĠØŃÙĬÙĨ ÙĩØ§
ÙĤØ§ÙĦ ÙĬØ¯
ĠØ¨Ø± Ø¬
Ø· Ø§Ø¡
ĠØ¨Ø£ ÙĬ
Ø§Ø¬ Ø³ØªÙĬØ±
ĠØ¹Ø¨ Ø§Ø³
ĠØ§ÙĦØ§Øª Ø¬Ø§Ùĩ
ĠÙħØ¦ ÙĪÙĬØ©
Ø§Ø³ Ø§
ÙĬØ³ Ùī
ĠÙĬÙĤ Ø±Ø¨
Ø§Ø¸ Ø±
Ø§ÙĦ Ø¨Ø©
ĠØ§ÙĦÙħÙĨ ØªØ¬
ĠÙħÙĪ Ø¸
ĠÙħÙħ Ø«ÙĦØ©
ĠÙĨÙĩ Ø§Ø¦ÙĬ
2 9
ĠØª Ø³ÙħØŃ
ĠØ§ÙĦØ¹ ÙĪØ§ÙħÙĦ
Ġ196 5
ØŃ Ø§Ø«
ĠØ³ Ø§Ø¹Ø§Øª
ĠÙĪØ§Ø¶ ØŃ
Ø± ÙĪØ©
ĠØ§ÙĦØ¬Ùħ ÙĩÙĪØ±ÙĬ
ÙħØ¬ ÙĬØ§Øª
ĠÙĦÙĦØ¯ ÙĪÙĦØ©
ĠÙĦ ÙĬÙĦØ©
ĠØ§ÙĦØªÙĨ Ø¸ÙĬÙħ
ĠØ§ÙĦØ³ÙĦ Ø³ÙĦØ©
ĠØ§ÙĦØªØ¹ Ø§ÙħÙĦ
ĠØ³Ø¨ ÙĤ
ĠØ§ÙĦÙħØ¤ ÙĦÙģ
ĠØ§ÙĦÙħ ØŃØ¯
ØŃÙĬ Ø§Ø¡
ÙĪÙĦ ÙĪ
ĠÙĤ Ø¶ÙĬØ©
ĠØ§ÙĦØ¯ ÙĬÙĨÙĬ
ĠØ§ÙĨØª ÙĩØª
ÙĤØµ Ùī
ĠØ§ÙĦØ± Ø£ÙĬ
Ùĩ Ø§ÙĨ
Ġ7 5
Øª Ø§ÙĦÙĬØ©
Ùģ Ùī
ĠÙħ ÙĪØ±ÙĬ
Ø§ÙĦÙĬ Ùĥ
ĠØ³ÙĬ ÙħØ§
ĠÙĬ Ø¨
Ø¸ Ø§Ø±
Ø¯Ø± Ø§ÙĨ
ĠÙģ ÙĪÙĨ
ĠØ§ÙĦÙĨ Ø·Ø§ÙĤ
ÙĨ Ø±
ĠØ¹ Ø±Ø¨
ĠÙĪØ§ÙĦ Ø³ÙĦ
ĠØªØ¹ Ø§ÙĦÙī
ĠØ§ÙĦØ£Ø¯ ÙĪÙĬØ©
ĠÙĦ ÙĪØ³
ĠØ§ÙĦØ¯ Ø¹Ùħ
ÙħØ¨Ø±Ø§Ø· ÙĪØ±ÙĬØ©
ĠØ§ÙĦØ£Ø±Ø¶ ÙĬØ©
Ø§ÙĦ ÙħØ±
Ø§ØŃØ¸ Ø©
ÙħØ± Ø§Ø¶
ĠØ¥ ÙĥØ³
ĠÙĩ Ø§Øª
ĠØªØ¹ ÙĦÙħ
ĠØ¨Ø¨ Ø¹Ø¶
ĠØ§ÙĦØ¨ÙĬØ² ÙĨØ·
ÙģÙĬ ÙģØ©
ÙĪÙĤ Ø§Øª
ĠØ¨ Ø§ÙĨØª
Ø§ÙĤ Ø¯
ĠØ§ÙĨ Ø³
ĠÙĬØŃÙĬ Ùī
ÙĤÙĦ Øª
ĠØ§ÙĦØªÙĪÙĨ Ø³ÙĬ
ĠØ§ÙĦØª ÙĦÙģØ²ÙĬ
ĠØ§ÙĦØ°Ùĩ Ø¨ÙĬ
ĠØ¬ÙĨ Ø¨
ĠÙĦÙĦ ØªÙĨ
ĠÙħÙĥØªØ¨ Ø©
ĠØ§ÙĦØ¬ ÙĬÙĦ
ĠÙĨ ÙĪØ¨ÙĦ
ĠØ³ÙĦ Ø·Ø©
ĠØ§ÙĦØ£Ø´ Ø¹Ø©
ĠØ§ÙĦÙģ ÙĬØ±ÙĪØ³
Ø®ÙĦ Ø§ÙĤ
ĠØ¨ ÙĬØ¯
ĠÙħØ¬Ø± Ø¯
ĠÙģ ÙĪØ²
ĠØ§ÙĦØ¹ Ø¸ÙĬÙħ
ĠØ§ÙĦÙħÙĦÙĥ Ø©
ĠÙĦÙĦÙħ Ø³
ĠØ®ÙĦÙĬ ÙģØ©
Ø¬ ÙĪÙĨ
ĠØ¹ÙĨ ØµØ±
ĠØ§ÙĦØ¯ÙĬÙħÙĤØ±Ø§Ø· ÙĬ
ĠØ¹ Ø¯Ø§
ĠÙĦ Ø§Ø¹
ĠØ£ÙĨ Øª
Ø§Ùħ Øª
ĠØ§ÙĦØŃ Ø±ÙĬØ©
ĠÙĦÙĦ Ø«
ÙĥÙĦ ÙĬØ©
Ġ195 0
ØŃ Ø§ÙĨ
Ø¯ ÙĪØ²
ĠØŃ Ø¶Ø±
ĠØ§ÙĨ ÙĩØ§
ĠÙĪØ¬ Ø¹ÙĦ
Ø± Ø§Ø¯
ĠØ§ÙĦØ´Ùĩ ÙĬØ±Ø©
Ġ4 00
ĠÙĪØ£ÙĨ Ùĩ
ĠØ§ÙĦØ£Ø± Ø«ÙĪØ°ÙĥØ³
ĠØ§ÙĦÙĤ ÙĪØ§ÙĨÙĬÙĨ
ÙĦ ÙĩØ©
ĠØ§ÙĦÙħÙĪØ³ ÙĬÙĤÙĬØ©
ĠØ§ÙĦÙĨ ÙħÙĪØ°Ø¬
ØªØ¨ Ø§Ø±Ø§Øª
ĠÙĪ Ø§Ø¨ÙĨ
ĠØ³ Ø§ØŃÙĦ
ĠØ§ÙĦÙĨ ØµØ±
ÙĬÙĤ Ø¹
ĠØ§ÙĦØŃ Ø§Ø¯ÙĬ
ĠØ±ÙĬ Ø§ÙĦ
ÙĪØ¬ ÙĦ
Ø¬ Øª
ĠÙĥ ÙĪØ±ÙĬØ§
ĠØ§ÙĦØ³ ÙĥØ±
ĠØ§ÙĦÙģÙĬ Ø²ÙĬ
Ø¹Ùħ ÙĦÙĬØ§Øª
ĠØ§ÙĦÙħØ¤ Ø³Ø³Ø©
Ø±ÙĬ Ø§ÙĨ
ĠØ§ÙĦÙħÙĨ ØªØ¬Ø§Øª
ĠÙĪØ¨ Ø°ÙĦÙĥ
ĠÙĪØ§ÙĦ Ø§ÙĨØª
ĠØ§ÙĦÙĨ ÙĪØ§Ø¨
ĠØ§ÙĦØ¥ Ø·ÙĦØ§ÙĤ
ĠØ§ÙĦØª Ø±Ø¨Ø©
ĠØ§ÙĦÙĩÙĨØ¯ ÙĬØ©
ĠØ§ÙĦÙħ Ø¸
Ø¸ Ø±ÙĬØ©
ĠØ¨Ùħ Ø³
ĠØ¢Ø®Ø± ÙĬÙĨ
ĠÙħÙĪØ¬ ÙĪØ¯
ĠØ¥ ØŃØµ
ĠØ§ÙĦÙģ Ø¦Ø©
ĠÙĪØ£ ÙĪÙĦ
Ø¤ Ø¯ÙĬ
ĠÙĪÙĩ ÙħØ§
ĠØªØ¯ Ø±ÙĬØ¨
ĠØ§ÙĦØ¬Ø² Ø±
7 5
r on
ÙĪØ± Ùĩ
p h
ĠØ§ÙĦÙħ Ø±Ø©
ĠØ± ÙĪØŃ
ĠØ¥Ùħ ÙĥØ§ÙĨÙĬØ©
Ø±ÙĬ Øº
ĠØ§ÙĦØ¬ÙĨ Ø±Ø§ÙĦ
ÙĬ ÙĦÙĬ
ÙĬØ± ÙĪÙĨ
ĠØ§ÙĦØŃ ÙĬÙĨ
ĠØ±Ø¤ ÙĬØ©
ĠÙĨØ¨Ø§Øª ÙĬ
ĠØª ÙħÙĨ
Ø§Ùĥ Ø³
ĠÙħØŃ Ø§ÙģØ¸
ĠØ§ÙĦØ£Ø¯ Ø¨ÙĬØ©
ĠØ§ÙĦÙĤ Ø¶
Ø§Ø¬ ÙħØ©
ØŃØ¯ ÙĩØ§
ĠÙĬØŃ ØªØ§Ø¬
ĠØ£Øº Ø§ÙĨÙĬ
ÙĪØ±ÙĬ Ø¯
c om
ĠØ§ÙĦØªÙĤÙĦÙĬ Ø¯ÙĬ
ĠØ¯ ÙĬÙħ
ĠØ¨Ø± ÙĦÙĬÙĨ
ĠÙĦØ¹ Ø¯Ø©
ĠÙħ ÙĬØ¯
ĠÙĤ ÙĬØ¯
ĠÙĪØª Ø¯
ĠÙĪØ§ÙĦ ÙħÙĦ
ĠØ§ÙĦØ§ÙĨ Ùģ
Øº ÙĦØ§ÙĦ
ĠØ§ÙĦØ£Øµ ÙĦÙĬÙĬÙĨ
ÙģØ± ÙĤØ©
ĠØ¯ÙĪÙĦ ÙĬØ©
ÙĪØ§Ø² ÙĨ
Ø¯ÙĬ Ø¨
ĠÙĪÙĥ Ø§ÙĦØ©
ĠØ§ÙĦØ£Ø® Ø¶Ø±
ĠÙĨ Ø´
ĠØ§ØªÙģØ§ÙĤ ÙĬØ©
ĠÙħØªØŃ Ùģ
ĠØ§ÙĦØ¨ÙĦ Ø¯ÙĬØ©
ĠØ¬ÙĬ Ø¯Ø©
ĠØ® Ø·Ø©
ĠØ¨ØŃ ÙĦÙĪÙĦ
ĠÙĬÙĤ Ø§Ø±Ø¨
ĠÙħ Ø³Ø±ØŃÙĬØ©
ĠØ´ ÙĩØ±Ø©
ĠÙĦÙĦÙħ Ø¹
Ùģ ÙĪØ±Ø¯
ĠØ§ÙĦØ¬Ùħ ÙĬØ¹
Ø§Ø¯ Ø«Ø©
ØŃÙĬ Ø·
ĠØ§ÙĦØ£ÙĬ Ø§Ùħ
ĠÙĦ ÙĤØ¯
Ø£ ØªÙĬ
ĠØ¨Ø§ÙĦ Øµ
ĠØ¹Ø± ÙģØª
Ø² Ø§ÙĨ
ĠÙĪØ¹ ÙĨØ¯
ĠÙħÙĨ ØªØ¬
ĠØµ ÙģØ±
ĠØ§ÙĦÙħØ¨ Ø§ÙĨÙĬ
ĠÙĤØ· Ø¹Ø©
ĠÙĪ Ø³Ùħ
ĠØ§ÙĦØª ÙĤØ¯Ùħ
Ø§ÙĦÙĬ ÙĬÙĨ
ĠØ§ÙĦØ³ÙĬ Ø§Ø±Ø©
ĠØ§ÙĦØ¹ÙĦ ÙĪÙĬ
ĠØ¨ ÙĪÙĦØ§ÙĬØ©
ĠØ§ÙĦØ£Ø³ ÙħØ§Ùĥ
ĠÙħ Ø³Ø¨
ĠØ§ÙĦØ³ ÙģØ±
ĠØ¯ Ø¨ÙĬ
ĠØ§ÙĦØ± ÙĤÙħ
ĠØ§ÙĦÙĦ Ø§Ø²ÙħØ©
ĠØµÙģ ÙĪÙģ
ĠØ§ÙĦØ¨ Ø§ÙĦØº
ØªØ´ Ùģ
ĠÙħÙĨ ÙĩÙħØ§
ĠÙħÙĤ Ø§ÙĦØ©
Ġ196 6
Ø§Ùħ Ø¹
ĠØ³ ÙģØ±
ĠØªÙĤ ÙĦÙĬ
ĠØ§ÙĦÙĥ ØªÙĦØ©
Ġ20 20
ĠØ¨ ÙĬÙĥ
ĠØ§ÙĦÙĥ Ùģ
ĠØ¨Ø§ÙĦ Øº
Ġ195 4
ĠØ§ÙĦ ÙĦÙĬÙĦ
Ùĩ ÙĪØ±Ø©
ĠØ¥ Ø±Ø³Ø§ÙĦ
ÙĨ Ùĥ
ĠØ§ÙĦØµ Ø¯Ø±
ĠÂ °
ĠÙĬ Ø±Ø¬Ø¹
ÙĦÙĥ ÙĬØ©
ĠÙĪØ£ Ø®Ø°
ĠØ£ÙĨ ÙģØ³ÙĩÙħ
ĠØ° Ø§ØªÙĩ
ĠØ§ÙĦÙĨÙĩ Ø¶Ø©
Ø¨ ÙĪØ¨
Ø§ÙĨÙĬ ÙĪÙĨ
ĠÙĦØª ÙĥÙĪÙĨ
ĠØŃ Ø±Ùģ
ĠÙħØ± ØªÙĬÙĨ
ÙĪ Ø§ÙĤØ¹
ĠØ§ÙĦÙĩ Ø¬Ø±Ø©
ĠÙĪÙĬ ÙĥÙĪÙĨ
Ùĩ Ø¬
ĠÙħÙĤ Ø§Ø¨ÙĦØ©
ÙĬ ÙĪÙħ
ØºØ· ÙĬØ©
ĠØ±Ùħ Ø²
ĠØ§ÙĦÙħ Ø³Ø±ØŃÙĬØ©
Ã ©
ĠÙĦÙĦÙħ ØŃ
in e
ĠÙĬÙħ ÙĦÙĥ
Ùħ Ø§Øª
ĠÙħ Ø§Ø¡
ĠØ§ÙĦØ£ ÙħØ§ÙĥÙĨ
ĠÙħÙĦ ÙĪÙĥ
ĠØ§ÙĦÙħØº Ø±Ø¨ÙĬØ©
ÙĤÙĬ Ùĩ
ĠØ§ÙĨØª ÙĤØ§ÙĦ
ĠØ§ÙĦÙħØµ ÙĨ
w w
ĠÙĪ Ø´Ø±
ĠØ§ÙĦØ³ÙĦ ÙĪÙĥ
ĠØ¹ÙĦ Ø§ÙĤØ§Øª
ĠØ§ÙĦØµÙģ ØŃØ©
ĠÙĥ Ø§ØªØ¨
ĠÙĦÙĬ ØµØ¨ØŃ
ĠØ´ Ø¨Ø§Ø¨
ĠØ¬ ÙĪØ²
ĠØªØ¹ Ø¯ÙĬÙĦ
ĠØ§ÙĦØŃ Ø¬Ø±
ĠØ± ÙĪØ¯
Ġ194 9
ĠØ·Ø¨ÙĬ Ø¹ÙĬØ©
ĠØ§ÙĥØªØ´ Ùģ
ĠÙĪØ¢ Ø®Ø±
ÙĪØ² Ø§Ø±Ø©
ØŃ Ø§ÙĤ
ĠØ§ÙĦÙħØŃ Ø§ÙģØ¸
Ø£ Ø®Ø°
ĠØ§ÙĦØ³ ÙĪÙĬØ¯
ÙĬØ§ ÙĤ
y le
ĠÙĩ Ø¯
ĠÙħØ¹ Ø§ÙĦØ¬Ø©
Ø§Øµ Ùħ
ĠØ§ÙĦÙħØªØŃ Ùģ
ĠØ¬ Ø¨
ÙĬØª Ø§ÙĨ
ÙĥØ± Ø§
Ġ5 5
Øº Ø±ÙĤ
ÙĪØ¯ Ùĩ
ĠÙĤØ§Ø¦ ÙĦØ§
ĠØ§ÙĦÙħ Ø§Ø¦ÙĬØ©
ĠØª Ø³Ùħ
Ø¯ÙĬ ÙĦØ§Øª
ĠØ§ÙĦØ« ÙĦ
ÙĬ Ø¹Ø¯
ÙĪ ØµÙĪÙĦ
Ø³ Ø§Ø³
ĠØ´ Ø¯ÙĬØ¯Ø©
ĠÙĬ Ø³Ø¨Ø¨
ĠØ§ÙĦØŃ ÙĬØ©
ĠØ§ÙĦÙħØŃ Ùħ
ĠØ§ÙĦØº ÙĬØ±
ĠØªØµ Ø¯Ø±
Ø§ÙĦ Ø·
ÙĦÙĬ Ø§Ùģ
Ø±ÙĨ Ø³ÙĬØ©
ĠØª Ø®Ø±Ø¬
Ġ193 9
ĠØ£ Ø±Ø¬
Ġ195 2
ĠØ¯Ø¨ ÙĦÙĬÙĪ
ĠØ¥ ÙĤØ§ÙħØ©
ĠØ§ÙĦØ¥ Ø«
ĠØªØ£ ÙĦÙĬÙģ
ĠØ± ÙĪØ¨Ø±Øª
ĠÙĤØ¯Ùħ Øª
ĠÙĦÙĦ Ø¨Ø±
ĠØ§ÙĦØ¨ ÙĤ
ĠÙĪØ£ Ø´
ĠØ§Ø® ØªØ¨Ø§Ø±
ĠÙĪØ§ØŃ Ø¯Ø§
ÙĪ Ø§ÙĦÙħ
ÙĬØ± Ùĩ
Ø§Ø¦ ØŃØ©
ÙĪØª ÙĬÙĨ
ĠØ§ÙĦÙħØ¯ ÙĨÙĬ
ĠØ´ÙĩØ¯ Øª
Ø¥ ÙĦÙī
ĠØ° Ùĩ
ĠØ§ÙĦÙħÙĩ ÙĨÙĬØ©
Ġ195 7
ĠÙģØ±ÙĨ Ø³ÙĬ
ĠØ§ÙĦØŃØ¯ÙĬØ¯ ÙĬØ©
Ùĥ Ø§Ø¡
ĠØ¥ Ùģ
ĠÙħØŃ Ø±Ùĥ
ÙĥØ± Ø±
ĠÙħÙĤ Ø§ÙĦ
ĠØª ÙĪ
ĠÙĤ Ø¨Ø±
ĠØ§ÙĦ ÙĩØ§
ĠØº Ø§Ø²
ĠØ§ÙĦØ¶ ÙĪ
ĠØ§Ø® ØªÙĦØ§Ùģ
ĠØ§ÙĦØ³ Ø·ØŃ
ĠØ§ÙĦØ® Ø¨Ø±
ĠÙĪ ÙĪØ¶Ø¹
ĠØ§ÙĦØª ÙĪØ§ÙĦÙĬ
Ø² Ùģ
ĠØ§ÙĦÙĤ Ø§Ø·ÙĨÙĬÙĨ
ĠØ¹ ÙĤØ¨
ĠØ§ÙĦØ°Ùĩ Ø¨ÙĬØ©
Ø¹ Ø§ÙħÙĦ
ĠØ·Ø¨ÙĬ Ø¹Ø©
ĠØ§ÙĦØ¯ Ùĩ
ĠØ§ÙĦØµ ÙģØ±
ĠÙĦØª Ø³
ĠØ¸ Ø±ÙĪÙģ
Ġ Ð
ĠØ§ÙĦØ¯ ÙĪ
ĠØ§ÙĦØª Ø±Ø¨ÙĬØ©
ĠØ£Ø® ÙĬÙĩ
Ø§Ø¤ ÙĩØ§
ĠÙĦØ¥ÙĨ ØªØ§Ø¬
ĠØ§ÙĦØ³ ØªÙĬÙĨ
Ø¬Ùĩ Ø§Ø²
ĠÙĪØ¥ÙĨ ÙħØ§
ĠØ¬ ÙĬÙĦ
Ø¬Ùħ Ø¹ÙĬØ©
ĠÙħÙĨ Ø²
Øª ÙĪØ¬Ø¯
Ø¯ Ø§Ùħ
ĠÙħØ³Øª ÙĤØ¨ÙĦ
ØªØ§ ÙĬÙĨ
ti c
ĠØ¨Ø§Ø³Øª Ø«ÙĨØ§Ø¡
3 5
ĠÙĪÙģ Ø§Ø²
ØŃ ÙĪÙĦ
Ø§Ø³ ÙĬÙĨ
ĠØ§ÙĦØ´ ÙĬÙĪØ®
ĠØ£Ùģ ÙĥØ§Ø±
ÙĩÙĬ Ø§Ø±
Ġ192 0
ĠÙĩ Ø§ÙĨ
ĠØ§Ùĥ Øª
ĠØ§ÙĦÙħØ´ Ø§ÙĥÙĦ
ĠØ§ÙĦ ÙĪØ¬Ùĩ
ĠØ¥ Ø´Ø§Ø±Ø©
ĠÙĨ ÙĬØ³Ø§ÙĨ
ĠØ§ÙĦØ£Ø³ ÙĨØ§ÙĨ
ĠÙĪØ§ÙĦØª Ø¹ÙĦÙĬÙħ
ĠØ§ÙĦØ¯ Ø§Ø¦Ø±Ø©
ĠÙĪØª Ø¹ØªØ¨Ø±
ĠÙĪÙħØŃ ÙħØ¯
ĠØ§ÙĦØ¨ Ø±ÙĬ
ĠÙģ ÙĥØ§ÙĨØª
ĠÙĦ ÙĨØ§
ĠØªØŃ ÙĦÙĬÙĦ
ĠØ§ÙĦÙģÙĬ Ø²ÙĬØ§Ø¡
ĠØ§ÙĦÙģ Ø§Ø±
ĠØ§ÙĦÙĨ ØªØ§Ø¦Ø¬
ĠÙĪØ§ÙĦÙħ Ø³Øª
Ùĥ Ø¨Ø±
Ø´ÙĦ ÙĪÙĨØ©
ÙĤ Ø¯Ø©
ĠØ§ÙĦÙĨ Ø¬
ĠÙĦ ÙĦÙĬ
ĠØ§ÙĦÙħ ØªÙħ
ĠÙĪØªÙĤ Ø¹
a y
Ø¨Ø± Øº
ĠØ§ÙĦÙħÙĤØ¯ Ø³Ø©
Ø§Ùĩ ÙĬØ©
ĠØ¹ÙĦÙħ ÙĬØ©
Ø¨ Ø±ÙĬ
ĠÙĨÙĤ Ø§Ø·
ĠØ§ÙĦØ³Ø±ÙĬ Ø¹
ĠØ§ÙĦØ£ ÙĪ
ĠØ£ Ø¬ÙĨ
ĠØ® Ø¨Ø±
Ùģ Ø§Ø¯
ĠØ£Ø± Ø§Ø¯
Ø®Ø± ÙĬØ©
ĠÙĪØ§ÙĦ Ø¨ÙĬ
ĠØ§ÙĦÙħ Ø®Ø±Ø¬
ĠØ§ÙĦØ£ ÙĦØ¨ÙĪÙħ
ØªÙĤ Ø§Ø¯
ĠØ§ÙĦØ¬Ø§Ùħ Ø¹
es s
ĠØ§ÙĦØª Ø¹Ø¨ÙĬØ±
ĠØ¯Ø± Ø§Ø³Ø§Øª
ĠØ§ÙĦØ£ÙĨ Ø¸ÙħØ©
ĠÙģØ± ÙĪØ¹
ÙĦÙĤ Ùī
ĠØ£Ø³ ÙģÙĦ
ĠÙĥ ÙĪÙĥ
ĠØ§ÙĦØª Ø·
ĠØ§Ø³ØªÙħØ± Øª
ĠØ§ÙĦØ³ ÙĪÙĬØ³
ĠØ§ÙĦÙħÙĨ Ø²ÙĦ
ĠØ§ÙĦØ¨ØŃ Ø±ÙĬ
ĠØ§ÙĦØ£ÙĨØ¯ ÙĦØ³
ĠØŃ Ø¬
ĠØ£ Ø·ÙĪÙĦ
Ø§Ø³ ÙĬÙĬÙĨ
e g
ĠÙħØ¹ ÙĨÙī
ĠØ§ÙĨ Ø¯ÙĦ
ĠØ®Øµ Ø§Ø¦Øµ
ĠÙħØ¹ Ø±Ø¶
ĠÙĪÙħ Ø±ÙĥØ²
ĠØ¹ Ø±Ø¨ÙĬ
ĠØ¬ ÙĪØ§Ø¦Ø²
ĠØ§ÙĦØ¨ ÙĨÙĬØ©
ĠÙħ Ø«Ø§ÙĦ
ĠØ§ÙĦØ¥ Ø´Ø¹
ĠØ§ÙĦØ¶ ÙģØ©
Ø§Ø° Ø¨ÙĬØ©
ĠØ§ÙĦØªÙĨ ÙħÙĬØ©
ĠØ§ÙĦØ¹Ø¯ ÙĪ
ĠÙģ Ùĥ
ĠÙĤ Ø§Ø¯Ø©
ĠØ§ÙĦØ£ Ø³Ø¨
ĠØŃ Ùģ
Ġ194 7
Ġ Ø§Ø·
Ø¬ ÙĬØ¹
ÙĬØ³ ÙĬØ§
ĠØ§ÙĦØ¨ ÙĪ
ÙĬØ³ ÙĥÙĪ
ÙĦÙĤ Ø¨
ĠØ§ÙĦØ£Ø´ Ø¬Ø§Ø±
ĠØ§ÙĦØµØŃ Ø§ÙģØ©
ĠØ£ ØªØ¨Ø§Ø¹
ĠØ§ÙĦÙħ Ø°ÙĩØ¨
Ùħ Ø¤
ĠØ§ÙĦÙĨ ØŃÙĪ
9 8
ĠÙĥ ÙģØ±
ĠØ§ÙĦØµ ÙĪÙħ
ĠØªØ¬ Ø§Ø±ÙĬØ©
ĠØ² ÙĬÙĨ
Ġ195 9
ĠØ§ÙĦØª ØºÙĬÙĬØ±Ø§Øª
Ø§Ø³ ÙĬØ§
ĠÙģØ¥ÙĨ ÙĩØ§
ĠÙħ Ø§ÙĦÙĬ
ØªØ´ ÙĬØ±
ĠÙĪØ§Ø´ ÙĨØ·ÙĨ
ÙĪØª ÙĩØ§
ĠØ§ÙĦØ³Ùħ Ø§Ø¡
ĠØª Ø¨Ø¹
ĠØªØ¯ Ø¹Ùī
ĠØ§ÙĦØ¹Øµ Ø¨ÙĬ
ĠØ§ÙĦÙĥÙĩØ±Ø¨ Ø§Ø¦ÙĬ
ĠØ§ÙĦØ¨ Ø³ÙĬ
ĠØ§ÙĦØ®Ø· ÙĪØ·
ĠÙģÙĬ ÙĦÙĬØ¨
Ġ6 4
ĠØª Ø¨ÙĤÙī
ĠØ´ÙħØ§ÙĦ Ø§
ĠÙĤ ÙħØ©
ĠØºØ± ÙģØ©
ĠØªØ±Ùĥ ÙĬØ¨
Ø´ Ùĥ
ĠÙĪØª Øµ
ĠØ£ Ø¹Ø±Ø§Ø¶
ĠØ§ÙĦØ¥Ø¹ÙĦ Ø§ÙĨ
ĠØ¨Ø¬ Ø§ÙĨØ¨
ĠÙĥ ÙĬÙĨ
Ø³Øª ÙĬÙĨ
Ø´Ø¦ Øª
9 5
ĠØ§ØŃ ØªÙĬ
ĠØ§ÙĦØ´ÙħØ³ ÙĬØ©
ĠØ§ÙĦØ¥ÙĦÙĥØªØ± ÙĪÙĨÙĬ
Øµ Ø§Øª
ĠØ§ÙĦÙħ ÙģØ±
ĠØ§ÙĦÙģ ØµÙĦ
ĠØ¹ ÙĪØ§ÙħÙĦ
ĠØªÙħ ØªÙĦÙĥ
Ø´ Ø§
ĠØ¬ÙĨ Ø¯ÙĬ
ĠØ§ÙĦØ´ÙĬ Ø¹Ø©
ÙģØ§Ø¹ ÙĦØ§Øª
ĠÙĨ Ø§Ø¬
ÙĦØ§ÙĦ Ø§Øª
a p
ĠØ§ÙĦÙħØ´ ØªØ±ÙĥØ©
ĠØ§ÙĦØºØ° Ø§Ø¡
Ø§Ø¯ ÙĬÙĪ
ĠØ§ÙĦØ· ÙĦØ¨
ĠÙħØ³ ÙĦÙħ
ĠÙĦÙĬ ØµÙĦ
ĠØ® Ø¯Ùħ
ĠÙĪØ§ÙĦØ£ Ø±Ø¨Ø¹Ø©
f ormula
ĠØ¹ ÙĪØ¯
ĠÙĦ ØºØ§Øª
ÙĪØ§ÙĦ Ø¯
ĠØ¥ Ø²Ø§ÙĦØ©
Ø¬ÙĦ Ø¯
Ø´Ø£ Ø©
ØŃ ÙĬÙĦ
ĠØ§ÙĦÙĪÙĤ ÙĪØ¯
ÙĤ Ø³
Ġ194 6
ØªÙģ Ø¹Ø©
ĠÙĪ Ø¹Ø±Ø¶
ĠÙĤØµ Øµ
ĠØ§ÙĦÙĥÙĦ Ø§Ùħ
ĠØ§ÙĦÙĥÙĨ Ø§Ø¦Ø³
Ø§Ø¯ ÙĬÙĨ
i as
Ø² Øª
ĠØ§ÙĦÙħÙĤ Ø§ÙĦØ©
ĠÙĩ ØªÙĦØ±
ĠØ³Ø¨ Ø¹
Ø±Ø¨Ø¹ ÙĪÙĨ
ĠØ§ÙĦÙħØ¬Ùħ ÙĪØ¹
ĠÙĥ ÙĪØ¨
ĠØ§ÙĦØ° Ø§ÙĥØ±Ø©
ĠØ§ÙĦÙħØ¹ Ø§Ø±Ø¶Ø©
ĠÙĪÙĬ ÙĦÙĬØ§Ùħ
ĠÙĪØ§Ø¶ ØŃØ©
ĠÙģ Ø¬
ĠØª ØªØ±Ø§ÙĪØŃ
Ø¯Ø± Ø§Øª
ĠØ· Ø§Ø¦Ø±Ø§Øª
Ø² ÙħØ©
ĠØ²ÙĪØ¬ ÙĩØ§
Ú ¯
Ø§Ø³ Ø¨Ø§Øª
ÙĪÙĩ Ø§Øª
ĠØª ÙĥØ³
Ø§Ø¶Ø·Ø± Ø§Ø¨Ø§Øª
ÙĪÙģ Ùī
ÙĬØª Ø§
ĠØ§ÙĦØµ Ø¨Ø§ØŃ
ÙĨÙħ Ø§Ø±Ùĥ
ĠÙĪØŃ ÙĬØ¯
ĠØ£ ÙĪØ¨
ĠÙĥ ÙĬÙģÙĬØ©
ØªÙĬ Ø¨Ø©
Ø³ÙĬ Ø·Ø±
ĠØ£ Ø¶
ĠÙĨ ÙħØ·
ĠØ§ÙĦÙħØ¬ ØªÙħØ¹Ø§Øª
ĠØ¨Ø§ÙĦÙħ Ø¯ÙĬÙĨØ©
ĠØ§ØŃ ØªÙĦØ§ÙĦ
ĠÙĬØ¯ Ø®ÙĦ
ÙĪ Ø·Ø©
ĠÙħÙĦ ØŃÙĪ
ÙĨ Ø³Ø¨Ø©
ĠÙĥ Ø§ÙĦØªØ§ÙĦÙĬ
ĠÙĪØ¬ ÙĩØ©
ĠØ§ÙĦÙħØ³ Ø§ØŃØ©
i on
Ø§Øµ ÙĦØ©
ĠØ§ÙĦØº ÙĦØ§Ùģ
ĠØ³ ÙĪ
ĠØ¯ Ùģ
Ġ193 6
ĠÙĪØª ÙĥÙĪÙĨ
ĠØºÙĬØ± ÙĩØ§
ĠØ³Ùħ ÙĬØª
ĠÙĪØ¨Ø¹Ø¯ ÙĩØ§
9 6
ĠØªØ² ÙĬØ¯
ĠÙħÙĪØ³ ÙĥÙĪ
Ġ194 0
ĠØ§ÙĦÙħÙĥØ³ÙĬ Ùĥ
ĠÙĪØ§ÙĦ ÙĤØ±
ĠÙĨ Ø¬ÙĪÙħ
ĠØ§ÙĦØ° ÙĥØ±
Ø§ÙĦ ÙĬØ§Øª
Ø¯Ø§ ÙĪÙĦ
ĠØ§ØªÙģØ§ÙĤ ÙĬØ§Øª
ĠØ·Ø± Ø§Ø¨ÙĦØ³
ĠØ§ÙĦÙħ Ø´Ø±
ĠØ¨Ø§ÙĦ ÙĦÙĩ
ÙĨ Ø¬
ĠØ¹ Ø§ÙĦÙĬ
ĠØ¨ÙĤ ÙĪØ©
ĠÙħÙĨ Ø´
Ġ195 5
ĠØ§ÙĦØ§ØŃ ØªØ±
ÙĤ ÙĪØ¨
ĠØ§ÙĦÙħ Ø¨ÙĨÙī
ĠØª ØªÙħÙĬØ²
Ø§Ùĩ Ø±Ø§Øª
ÙĪØ³ÙĪÙģ Øª
ĠØªÙĤ ÙĪÙĦ
Ø¹Ùħ Ø¯Ø©
ĠØªØŃØª Ø§Ø¬
ĠØ§ÙĦØ¬Ùħ ÙĩÙĪØ±
ĠØ§ÙĦÙħ Ø«ÙĦ
ĠØ± Ø¨ÙĬØ¹
ĠØªØ± Ø¬ÙħØ©
ĠØ§ÙĦÙĩÙĬØ¯Ø± ÙĪØ¬ÙĬÙĨ
ĠÙĪ Ø§ÙģÙĤ
ĠØ§ÙĦØ¬Ùħ Ø¹Ø©
ĠØ´ ÙĪ
ĠØ§ÙĦØªØŃ ÙĤ
Ø§ÙĨ ÙĪÙĬ
ĠØ§ÙĦÙĨ Ø¬Ø§ØŃ
ĠØ§ÙĦÙĥ Ø¨Ø¯
ĠÙħØŃ ÙĥÙħØ©
ĠØ¬ Ø¹ÙģØ±
ĠÙħØ³Øª Ø´ÙģÙī
ĠØ§ÙĦØ¥Ø° Ø§Ø¹Ø©
ÙĥØ± ÙĪØ³ÙĪÙģØª
ØªÙĦ Ø·
ĠØ·Ø¨ÙĬ Ø¹ÙĬ
ĠØ¨Ø§ÙĦØ± ØºÙħ
ĠÙĪÙħ Øª
ĠØ´ÙĬ Ø¦Ø§
ĠØ§ÙĦØ£ Ø¨ØŃØ§Ø«
ĠØªÙħ ØªØ¯
ĠØ£ Ø±Ø¨
ĠÙĦ Ø¬ÙħÙĬØ¹
ĠØŃ ÙĤÙĬÙĤØ©
ĠØ§ÙĦÙĨÙģ Ø³ÙĬ
ĠØ§ÙĦØ±ÙĬ Ø§ØŃ
ĠÙħØ¬Ùħ Ø¹
ĠØªØ¬ Ø±Ø¨Ø©
ÙĨØ§Ø· ÙĬØ³ÙĬØ©
ĠØ§ÙĦØ¬ ÙħØ§Ø¹Ø©
Ø² ÙĬÙĦ
Ø¨Ø± Ø§
ĠÙĥ Øª
ĠØ§ÙĦÙģ ØªØŃ
ĠØªØ³Øª Ø·ÙĬØ¹
ĠÙģ Ø§Ø³Øª
ĠØ§ÙĦØ¯ Ø³Øª
ĠØµ ØŃÙĬ
ĠÙħÙħ Ø§Ø±Ø³Ø©
b el
ĠØ§ÙĦØµÙĨ Ø§Ø¹Ø©
Ġ Ø§Ø¶
ĠÙĦÙĦ Ø³ÙĦ
ĠØ§ÙĦÙĥÙĩØ±Ø¨ Ø§Ø¡
Ø¯ ÙĪ
ĠØ§ÙĦØ¬ ÙĬ
ĠØ§ÙĦÙĦØ§Ø¹Ø¨ ÙĬÙĨ
3 6
ĠØ³ ÙĩÙĦ
ĠØ·Ø± Ø§Ø²
Ø¨ ÙĪØ·
Ø³ ÙĪ
ĠØ¨ÙĨ ÙĬØ©
ĠÙħØ§ÙĬ ÙĥÙĦ
ØªØ² ÙĪØ¬
ĠÙħÙĨ Ø®ÙģØ¶Ø©
ĠØ¨Ø§Øª Ø¬Ø§Ùĩ
ĠØ´ Ø§Ø¹Ø±
ÙĨØ§ ÙĬØ©
Ùĥ ÙħØ§ÙĦ
ĠØª ÙĪØ¬Ùĩ
ÙĪÙĤ Ø±
ĠØªÙħ ÙĪØ²
ĠØ´ ØºÙĦ
ĠÙĬÙĨ Ø¨ØºÙĬ
ÙĦ ÙĩØ§
ĠØ§ÙĦÙħØ¨ Ø§Ø´Ø±
ĠØ¥ ØµÙĦØ§ØŃ
Ùģ Ø°
Ø§Ø· ÙĬØ©
ĠØŃ ÙħØ¯
ĠØ± ØŃÙĦ
ĠÙĪØ¨ ÙĤÙĬ
Ø§ÙĦÙħÙĨ Ø§Ø®
ĠÙĬ Ø¬Ø¯
ĠØ§ÙĦÙĥ ÙĦÙħØ§Øª
Ø¢ Øª
ĠØ§ÙĦØ£ Ø¹Ø±Ø§Ø¶
ĠØŃ Ø§ÙĦÙĬ
ĠØ¥ Ø¬ÙħØ§ÙĦÙĬ
ĠØ§ÙĦÙĨ ØµÙĪØµ
ØµØ¯ ÙĤ
ĠØ± Ø£ÙĬ
ØŃ ØªÙī
ĠØ§ÙĦØµÙĨ Ø§Ø¹ÙĬ
ÙĨ Ø¸Ø±
ĠØŃ Øª
ÙĪÙĬ Ùĥ
Ø§Øº ÙĪ
Ġ194 1
ÙĬØ³ Ø±
ĠÙĩÙĪÙĦ ÙĨØ¯Ø§
ĠÙĪØ£ ÙĦ
ĠÙħÙĤ Ø§ÙĦØ§Øª
ĠØ£ÙĤ Ø±Ø¨
ĠØ£ Ø¹Ø¯
ĠÙĦ ÙĬØ¹
ĠØ¬ Ø°
ĠØ§ÙĦØŃØ± Ø§Ø±ÙĬØ©
ĠØ± Ø¨Ø·
Ø¯Ùħ Ø§Ø¬
Ø®ÙĦ ÙĤ
ĠØ§ÙĦØ¬Ùħ Ø¹
ĠØ® ÙĬØ±
ĠÙĤÙĦÙĬ ÙĦØ§
ĠØ§ÙĦØ´ÙĬ ÙĪØ¹ÙĬ
ĠÙĨ ØµØ±
ĠØ§ÙĦÙħÙĪØ³ ÙĪØ¹Ø©
Ùģ Ø§Ø±
ĠØª Ø§Ø¨Ø¹
ĠÙĤ Ø§Ø¯Ø±Ø©
Ø° ÙĬØ¨
ĠØ§ÙĦØ¹ØµØ¨ ÙĬØ©
ĠØªØ± ØªÙĬØ¨
ĠØ¨ÙĨÙģØ³ Ùĩ
Ø¶Ùħ Ø§Ùħ
ÙģÙĬ ÙĬÙĨ
ĠØ§ÙĦÙĨ ÙħØ·
ĠØ§ÙĦÙħØ¯ Ùī
ÙģØ§ÙĪØ¶ Ø§Øª
ĠØ§ÙĦØªØ¯ Ø±ÙĬØ¨
ĠØ§ÙĦØª ÙĦÙģØ²ÙĬÙĪÙĨ
Ġ1 000
Ø¤ Ø§ÙĦ
Ġ14 0
ĠØ§ÙĦÙħ ÙĪØ§Ø±Ø¯
ĠØ§ÙĦØº Ø±
ĠÙĨ Ø§ØµØ±
ĠÙħ ÙĪÙĤÙģ
ĠÙĪÙħ Ø´
Ùģ ÙģÙĬ
ĠÙĪÙĥ ØªØ¨
Ø§Ø³ Ùĥ
ĠÙĪØ§ÙĦÙħ Øª
ÙĬÙĤ ÙĪÙĦ
ĠS t
ĠÙĬØ³ ÙĪØ¹
ĠØ§ÙĦØ¹ Ø§Ø´Ø±
ĠÙĤ Ø¯ÙĬÙħ
ÙĪÙħ ÙĬÙĨ
ĠØ³Ùģ ÙĬÙĨØ©
ÙĦÙħ Ø§ÙĨÙĬØ§
ĠØ£ÙĬ Ø¯ÙĬ
ĠØ§ÙĦØ±Ø¨ ÙĬØ¹
Ø¯ ÙĨ
Ø¹ Ø¨Ø¯
ĠÙħØ¤ ÙĤØª
ĠØ§ÙĦØ§Ø¨ØªØ¯ Ø§Ø¦ÙĬØ©
ĠØ¥ Ø¨
ĠØ¬ ÙĩÙĪØ¯
ÙĬ Ø³ØªØ®Ø¯Ùħ
ÙĪØ§Ùĥ Ø¨
ĠØ§Øª Ø®Ø°
ĠØ¨ ÙĪØ³
ĠØº ÙĦ
Ġ12 0
ĠØ¹ ÙĬØ³Ùī
ĠØ§ÙĦØªØ±Ùĥ ÙĬ
ÙĪ ÙĤØ©
ĠØ§ÙĦØ³ Ø§Ø¦ÙĦ
ĠÙħ ØªÙħ
ĠÙħ ÙĪØ¶Ø¹
ĠØ§ÙĦÙħÙħ ØªØ§Ø²
Ø¬Ø±ÙĬ Øª
u b
ÙĨ Ø§Ùģ
Ø®Ø± Ø§
ÙĪÙĬ Ø´
ĠÙĬ ÙħØ±
ĠØ¯ÙĪÙĦ ÙĬ
Ø§ÙĦ Øµ
ĠÙĦØªØŃ ÙĤÙĬÙĤ
ÙģÙĬ Ø°ÙĬ
Ø¯Ùģ ÙĨ
ÙħÙĦ ÙĪÙĥ
ĠÙĪØ¸ ÙĬÙģØ©
ĠØ§ÙĦÙĥÙĦØ§Ø³ ÙĬÙĥÙĬØ©
ĠØ§ÙĦØ£ÙĪÙĦÙħ Ø¨ÙĬØ©
ĠØ§ÙĦÙĤ Ø§Ø±Ø©
ĠÙħÙĪ Ø§Ø¬ÙĩØ©
ĠØ§ÙĦÙħ Ø·Ø¨
ĠÙĩ Ø²ÙĬÙħØ©
ĠØ· ÙĪØ±
Ø¨ Ø§Ø¹
ĠØ§ÙĦØŃ Ø§Ø¶Ø±
Ø¬Ø± Ø¯
ĠØ£ Ø±Ø¯
ÙĤ Ø§Ø±ÙĨØ©
ĠÙħØ³ Ø§Ø¹Ø¯Ø©
4 5
ĠÙĦ ØªØµ
Ø§Ùĩ Ø¨
ĠÙĬØª ØŃØ¯Ø«
ÙĤØ§ÙĦ ÙĬÙħ
ĠØ£ ÙĦØ§
ĠÙĪØ³ ÙĦÙħ
Ġt o
Ġw ww
ĠÙħ Ø¸
ĠØ§ÙĦØº Ø§Ø¨Ø§Øª
ĠØ¨ÙĦ Ø¯ÙĬØ§Øª
ĠØ§ÙĦØªØµ ÙĨÙĬÙģ
3 8
Ø·ÙĦ Ø¨Ø§Øª
Ġ193 4
ĠÙĦÙĪ ØŃØ©
ĠØ§ÙĦØ´Ø±ÙĬ Ø¹Ø©
ØŃØ§ ÙĬØ§
ĠØ¨Ø§ÙĦ ÙħØ±
ĠØ¨Ø´ Ø¯Ø©
u p
Ġ193 0
ĠØ§ÙĦØª Ø¶
Ø§ÙĨ ÙĬÙĨ
Ø±ÙĬ ÙĬÙĨ
ĠÙĬØ¹ Ø§ÙĨÙĪÙĨ
ĠØ§ÙĦØµØŃ Ùģ
Øª ÙĬÙĦ
Ùģ Ø§Ø¯Ø©
Øª ÙĬØ±
Ø« Ø¨Øª
ĠØ§ÙĦØ« Ø¯ÙĬ
Ø´ÙĬ ØŃ
Ø Į
ĠÙĬ ÙĥØªØ¨
Ø´Ø§Ø± Ø¯
ĠØ§ÙĦØ¯Ø¹ ÙĪØ©
ĠØ³ Ø§ØŃØ©
Ø§Ùĥ Ø¨
ĠÙħÙĪØ³ ÙĬÙĤÙī
ĠØ´ ÙħØ³
v e
ÙĨÙĬ Øª
ĠØ¥Ùħ Ø§Ø±Ø©
ĠÙĪ Ø¨ÙĦ
ĠØ§ÙĦÙĩ ÙĨØ¯ÙĬ
ĠÙħØ¨ Ø§Ø±Ùĥ
Ġ191 8
ĠØ§ÙĦØ¹ÙĨ Ùģ
Ø¯Ø± Ø§ÙĦÙĬØ©
ĠØ§ÙĦØ®ÙĦ Ø§ÙģØ©
ĠÙĦØ³ ÙĨØ©
ÙĤ ÙĬÙĨ
ĠÙħÙĤ Ø§Ø·Ø¹Ø§Øª
Ġ186 1
ĠØª ÙĪÙĤÙģ
ĠØ§ÙĦØŃ ÙĦÙģØ§Ø¡
ĠØ§ÙĦØ£ Ø³ØªØ§Ø°
ĠÙĪØ§ÙĦ Ø§ÙĨ
ĠØ² ÙĬØ¯
ĠÙħ Ø§Ø¯
ĠØ§Ø³Øª ÙĤØ±
ĠØ§ÙĦØªØ§Ø±ÙĬØ® ÙĬ
ĠØ£Ø¨ÙĬ Ùĩ
ØŃ Ø§ÙĪÙĦ
ĠØ¥ Ø¹
ĠØ§ÙĦØ£ ÙĦØ¨
ĠØ§ÙĦØ¯ Ø§Ø®ÙĦ
ĠÙĪØ§ÙĦ Ø³ØªÙĪÙĨ
ĠØ£ÙĨ ØªØ¬
ĠØ§ÙĦÙĤ Ø¶Ø§ÙĬØ§
ĠÙģØ± ØµØ©
ĠØ§ÙĦ Ø§ÙĩØªÙħØ§Ùħ
ĠØ¨ ØµÙģ
ĠØ§ÙĦØµ ØºØ±
ĠØ¨Ø± Ø´ÙĦÙĪÙĨØ©
ĠØ£Ø³Ø§Ø³ Ø§
Ø§ÙĥØªØ´ Ø§Ùģ
Ø§ØŃ ÙĬÙĨ
Ø³Ø± ØŃÙĬ
ÙĤØ· Øª
ĠØ² Ø¹ÙĬÙħ
ÙĬØ· Ø§ÙĨ
is t
ĠÙĬ Ø®ØªÙĦÙģ
ĠØ§ÙĦØ£ Ø«
ĠØ§ÙĦÙħØ´ ØªØ±Ùĥ
Ø±ÙĬÙĥ Ø§
ĠÙħØ´ ØªØ±Ùĥ
ĠØ§ÙĦØŃÙĬÙĪ Ø§ÙĨ
ĠØ§ÙĦÙħ Ø·Ø§Ø±
ĠØ§ÙĦÙħØ± ØªØ¨Ø·Ø©
ĠØ§ÙĦÙħÙĪØ³ ÙĬÙĤÙĬ
4 8
ĠØ¨ ÙĪØª
ĠØ£ÙħØ± Ø§Ø¶
ĠØ¯Ø®ÙĦ Øª
ĠØ§ÙĦØ£ Ø³ÙĦÙĪØ¨
Ø·ÙĦÙĤ Øª
ĠØŃ ÙĬØ§ØªÙĩØ§
ĠØ´ Ø¹Ø§Ø±
Ġ4 6
ĠØ§Ø³ØªØ®Ø¯Ø§Ùħ Ùĩ
ĠÙĦØªØŃ Ø¯ÙĬØ¯
ĠØ£ Ø°
Ø¯ Ø§Ø±
ĠØ£ÙĤ Ø³Ø§Ùħ
ĠØ§ÙĦØ± Ø¹Ø§ÙĬØ©
ĠØ§ÙĦØ£ Ø´ÙĬØ§Ø¡
ĠØŃ Ø§ÙģØ¸
Ø² ÙĬØ¯
ĠÙħØ·ÙĦ Ø¹
ĠØ§ÙĦÙĨÙħØ³ Ø§
ĠØ´ Ùĩ
ĠÙħ Ø¦Ø§Øª
ÙĬÙĨ Ø§Ø¡
ĠØ§ÙĦØ¥ ØµØ¯Ø§Ø±
ĠÙĦ Ø§ÙĨØª
ĠØ§ÙĦØ¯ Ø§Ø±
Ø¨ Ùĥ
ÙĪØ± Ø§ÙĨ
ĠØ§ÙĦØ§Ø¬ØªÙħØ§ Ø¹
ĠØ§ÙĦØ³Ùģ ÙĬÙĨØ©
ĠØ§ÙĦØ³Ø± Ø¹Ø©
ĠØ¨ Ø§ÙĬ
ĠÙĪØ¸ Ø§Ø¦Ùģ
ĠØ§ÙĦØªØµ ÙĪÙĬØª
ĠØªÙħ Ø§Ùħ
r an
ĠÙĨØ³ Ø®
ĠÙģÙĬ Øª
Ø² ÙĤ
ĠÙĨØ´Ø± Øª
ĠØ³ Ø¯
ĠØ¹ÙĦ Ø§ÙħØ©
3 1
ĠØªÙħ ÙĬØ²
Ø§Ùĥ ÙĪ
ĠÙĪ Ø±Ø¨ÙħØ§
o c
ĠØ³ÙĬ ØªÙĬ
Ġ Y
ØºÙĦ Ø§ÙĤ
ĠØ§ÙĦÙħ ÙĥØª
ĠØ§ÙĦØ£ÙĥØ³ Ø¬ÙĬÙĨ
ĠØ¥ÙĨ Ø´
ĠØªØ¬ Ø§ÙĪØ²
ĠØ§ÙĦÙĪÙĦ Ø§Ø¯Ø©
7 6
ĠØ³ Ø§ÙĦÙħ
Ø³ Ø§Ø¯
ĠØ§ÙĦØ£ ÙģØ±ÙĬÙĤÙĬØ©
ĠØ£ÙĨ Ø¯ÙĬØ©
ĠØ§ÙĦØ£ ÙĪØ³
ĠØ±ÙĬØª Ø´Ø§Ø±Ø¯
ÙĦ Ø§ÙĨ
ĠÙħ ÙĦÙģ
ĠØ§ÙĦÙħØ³ Ø§Ø¹Ø¯Ø©
ĠØ§ÙĦØªØŃ ÙĤÙĬÙĤ
ĠØ§ÙĦØª Ùĩ
ĠØ§Ø± ØªØ¨Ø§Ø·
i e
ĠØ§ÙĦÙħÙĪ Ø§Ø·ÙĨÙĬÙĨ
Ú ¤
ĠØ§ÙĦÙģ ÙĥØ±Ø©
ĠØ§Ø® ØªØµ
ĠØ¨ ÙģØ¶ÙĦ
Ø§Ø¯ ÙĪ
ÙĤØ±Ø§Ø· ÙĬØ©
ĠØª ÙĪØ£
ĠØ¶ Ø®ÙħØ©
Ø¬Ø² ÙĬØ±Ø©
Ø® ÙĬØ±
ĠØº Ø²ÙĪ
ĠØ§ÙĦÙĤØ§ÙĨÙĪÙĨ ÙĬØ©
ĠÙħ ÙĩÙħØ§
ĠÙĦÙĦ Ø¶
ĠØ§ÙĦÙħØ¬ Ø§ÙĦØ§Øª
ĠØ£ ÙĪÙĨ
ĠÙĪØ§ÙĦ Ø¹ÙĦÙĪÙħ
ĠØ§ÙĦÙĪ Ø§Ø¯ÙĬ
ĠØ§ÙĦÙħØº ÙĨØ§Ø·ÙĬØ³ÙĬ
ĠØ§ÙĦØ£Ø·ÙĦ Ø³ÙĬ
ĠÙĪ Ø¹Ø¯
ĠØ§ÙĦØ£ ÙĤØµÙī
Ø£ÙĨ ÙĪØ§Ø¹
ĠØ§ÙĦØ£ÙĦÙħ Ø§ÙĨ
ĠØ§ÙĦØ¨Ø§ØŃØ« ÙĬÙĨ
ĠØ¨ÙĬ Ø§ÙĨ
ÙĪØ³ Ùħ
ĠØ§Ø¬ØªÙħØ§ Ø¹
ĠØ§ÙĦ ÙĩØ¯
Ø³ Ø¹
ĠØ§ÙĦØ³ ÙĨÙĬÙĨ
ĠØ£ ÙĤØ±
ĠØª Ø¯ÙħÙĬØ±
Ø§Ø´ Ø¯
ĠØ§ÙĦØ£ÙĪÙĦ ÙĬ
ÙĬ Øµ
ĠØ§ÙĦØŃ ÙĤÙĬÙĤÙĬØ©
ĠØ§ÙĦÙħØµØ±ÙĬ ÙĬÙĨ
ĠØ§ÙĦ Ø§Øº
ÙĪÙĦ ÙĤØ¯
ØªÙĩ ÙħØ§
ĠØ¨Ø³ ÙĩÙĪÙĦØ©
ÙĪØª Øª
ĠØ³ÙĦ ÙĪÙĥ
Ø§Ø²ÙĬ Øº
ĠØ§ÙĦÙħ ÙĤØ¨
ĠØ¢ ÙĦØ©
ĠØ§ÙĦØ£ÙĪØ± Ø§ÙĤ
ĠÙħØ³ Ø§Ø±
8 5
Ø¨ ÙĪÙĨ
ĠÙĦÙĨ ÙģØ³
ÙĦ ÙĨØ¯ÙĬØ©
Ø° Ø§Ø¡
ÙĪØ¯ÙĬ ÙĪÙħ
ĠØ§ÙĦØ³ÙĥÙĨ ÙĬØ©
Øª Ø§Øª
ÙĪÙĤ ÙĬØ©
ĠØ§ÙĦÙĬØ§Ø¨ Ø§ÙĨÙĬ
ĠØ§ÙĦÙħØ· Ø§Ùģ
Øº Ø°ÙĬØ©
Ġ x
ĠØ§ÙĦØŃ ÙħØ§ÙĬØ©
ĠØ§ØŃ ØªÙģ
ĠÙħØ³ Ø¤
ĠÙĦÙħØŃ Ø§ÙģØ¸Ø©
Ø¬Ø§Ø² Ø§Øª
ĠØ§ÙĦÙĨ ÙĪØ±
ĠÙĤØ¯Ø± Ùĩ
ĠÙģ ÙĥØ±
ĠÙĬ ØªØ±
ĠØ§ÙĦÙĥ Ø´Ùģ
ĠØ§ØŃ ØªØ±
ĠØ§ÙĦØµ ÙĬÙĨÙĬ
ĠØ§ÙĦÙħÙĤ Ø§Ø·Ø¹Ø©
ar d
3 2
ĠØ§ÙĦØ£Øµ ØºØ±
i f
ÙĤ Ø§Ø¦ÙĤ
Ø¹ÙĬÙĨ ÙĬØ§Øª
ĠØ¬Ø§Ø¡ Øª
ĠØ¨ ÙĤØ§ÙĬØ§
ĠØ§ÙĦØ·Ø¨ÙĬ Ø¨
ĠØ§ÙĦØ±Ø³ Ø§ÙĦØ©
ĠØ§ÙĦØ£Øº Ø§ÙĨÙĬ
ĠØ§ÙĦÙĬÙĪÙħ ÙĬØ©
ÙĪÙĩ Ø°Ùĩ
ÙģØ§Ø¶ Ø©
Øº ÙĨÙĬØ©
Ø¦ Ùĥ
ĠØ¨ Ø¯ÙĬ
ĠÙĦÙĦÙĤ ÙĪØ§Øª
ĠÙħ Ø¨Ø¯Ø£
ĠÙģ Øµ
ÙĪÙģ Ø±Ø©
ĠØ§ÙĦÙħÙģØª ÙĪØŃØ©
Ø¯ Ø¹
ĠØ§ÙĦÙĤ Ø¶ÙĬØ©
ĠÙĬØ³ Ø§Ø¹Ø¯
Ú ©
ĠØ§ÙĦ ÙĩØ§Ø¯
ĠØ¥ ÙĬÙģ
ĠØªØ±Ùĥ ÙĬØ²
ĠÙģ Ø£ÙĨ
ĠÙħØ¬ Ø¯Ø¯
ĠØ§ÙĦØ³ÙĦ Ø§ØŃ
ĠØ§ÙĦØ¥ÙĬØ± Ø§ÙĨÙĬØ©
Ø¬ Ø§Ùħ
ĠÙħØ³Øª ÙĤÙĦ
ĠØ§ÙĦÙħØ´ ÙĥÙĦØ©
ÙĨ ÙĪÙĨ
ĠØªØ£ Ø«Ø±
ĠØ³ÙĬ Ø·Ø±Ø©
ĠÙĪØ§ÙĦØª ÙĤ
ĠØ§ÙĦØ¹Ø¶ ÙĪÙĬØ©
Ġla bel
ĠØ§ÙĦØ¥Øº Ø±ÙĬÙĤ
ĠØ± Ø§Ùħ
ĠÙħ Ø¯ÙĬÙĨ
ĠØªÙħ Ø«ÙĬÙĦ
ÙĦ Ø·Ø§ÙĨ
ĠÙĩ ÙĨØ¯
ĠØ§ÙĦÙĥ Ø§Ùħ
ĠÙĦÙħ Ø¯ÙĬÙĨØ©
ÙĪØ§ ÙĩØ±
ĠØ³ÙĦ Ø§Ùħ
Ġal ias
ĠÙĪÙĤ Ùģ
ĠØ§ÙĦÙħØ±Ùĥ Ø¨Ø§Øª
ĠØ¥ Ø®
ĠØ³ ÙĦØ§ÙĦØ©
ĠØ§ÙĦ Ø§Ø¯
ĠØ§ÙĦØ£ Ø³Ø¨Ø§Ø¨
ĠC h
ÙĪ Ø§Ø¦Ø¯
ĠÙĥ ÙĪ
Ø§ÙĤ Ùģ
ĠØª ÙģØ§Ø¹ÙĦ
Ġ195 3
Ø§Ùħ Ø±Ø©
ĠÙĬ ÙĪØŃ
Ø¹Ùħ Ø±Ø©
a te
ĠØ¸ Ø§ÙĩØ±Ø©
ÙĪØ§Ùģ ÙĤØ©
ĠØ§ÙĦØŃ Ø±Ùģ
ĠØ±Ø£ Ùī
ĠÙĪ Ø®ØµÙĪØµ
ĠØ± ØªØ¨Ø©
ĠØ§ÙĦØ®Ø· Ø§Ø¨
ĠØ§ÙĦÙĥÙĬÙħÙĬ Ø§Ø¡
ĠÙĬØªÙħ ÙĥÙĨ
ÙĪØ§Ø¦ Ùģ
ĠØ®ÙĦÙĬ Ø¬
Ġalias es
ĠÙĪØª Ø£
ÙĦ ÙĨØ¯ÙĬ
ĠØµ ØŃØ©
ĠØªØµ ÙĨÙĬØ¹
Ø§ÙĨÙĬ ÙĪÙħ
ĠØ§ÙĦØŃØ¶ Ø§Ø±Ø©
ĠØ£ ÙĬØ©
ĠØ§ÙĦÙħÙĨ Ø²
Ùĥ Ø³ÙĬ
ĠØª ÙĪÙĨ
ĠØ§ÙĦÙħÙĦ ØŃ
ĠÙĦ ÙĥÙĪÙĨ
ĠØ¹Ø§ÙĦÙħ ÙĬØ©
ĠØª Ø¶ÙħÙĨ
ÙĪ Ø§Ø·
ĠØ¬ ÙĩØ¯
Ġ193 8
a k
ĠØŃ ÙĪØ¶
ĠØ§ÙĦØ²ÙĬØª ÙĪÙĨ
3 7
ĠÙĪØ§ÙĦ ÙģÙĦ
ĠØ§ÙĦÙĥ ÙĩØ±
ĠØ§ÙĦØ¯ Ø®ÙĪÙĦ
ĠØ§ÙĦØ³ÙĪØ¯ Ø§Ø¡
Ġst yle
ØµÙĦ ØŃØ©
Ø§Ø¬Ø± ÙĬÙĨ
ĠØ³ Ø¬ÙĨ
ĠØ§ÙĦÙħØ¹ ÙĬØ´
ĠØ± ÙĪØ¨
9 2
ĠÙĬØ´ ÙħÙĦ
ĠØ§ÙĦÙħ ÙĥØ±
ĠØ¨ÙĨ ØªÙĬØ¬Ø©
ØªÙĬ Ùĥ
ĠØ£ ÙĦÙĥ
ĠØ§ÙĦÙħØ¹ Ø§Ø±Ùĥ
ĠÙĥÙĪÙĨ ÙĩØ§
ĠÙĦØª ØµØ¨ØŃ
Ġ194 4
ÙħØ« ÙĦØ§
Ø¯ Ø±ÙĬ
ĠØ§ÙĦØªØŃ Ø§ÙĦÙģ
ĠØ§ÙĦØ§ÙĨØª ÙĤØ§ÙĦ
ĠØ¥Ø¯ ÙĪØ§Ø±Ø¯
ĠÙĬØ¬ ÙĬØ¯
ĠØ§ÙĦÙĤ Ø·Ø¹
ØªÙĦ ÙĤÙī
ĠÙĬØ¹ Ø·ÙĬ
ĠØ¥ ÙģØ±ÙĬÙĤÙĬØ§
ĠØ§ÙĦØ´Ø± Ø¹ÙĬØ©
ĠÙĬ Ø·
ÙĬØ± ÙĦÙĨØ¯Ø§
ĠØ£Ø¨ ØŃØ§Ø«
ĠØ´Ø®Øµ ÙĬØ§Øª
ĠØ³ ÙĦÙħ
ÙĦ Ø§ÙĨØ¯
Ø² ÙĪÙĨ
Øº ÙĪØ·
Ø¯Ùħ Ø¬
ĠØ£Ùħ Ø«Ø§ÙĦ
ĠÙĪ ÙĥÙĨ
Ø§Ùĩ ÙĬ
ĠØ§ÙĦØ¹ÙĦ Ø§ÙħØ©
ĠØ§ÙĦØ£ØŃ Ø²Ø§Ø¨
3 4
ĠÙĪØ§ÙĦ Ø´Ø±
Ø±ÙĬ Ø¨ÙĬ
ĠØ§ÙĦØ£ÙĦ ÙĪØ§ÙĨ
ĠØ§ÙĦÙħ Ø§ÙĦÙĬ
ĠØ§ÙĦÙĨ ØªÙĬØ¬Ø©
ØªØ£Ø³ Ø³Øª
ØªØ´ ÙħÙĦ
ĠÙĦ Ø¨Ø±
ĠØ§ÙĦÙħÙĥØªØ¨ Ø©
Ùħ ÙĪØ±
ÙĦÙĬ ÙĦØ©
ĠØ¨Ø§ÙĦ ØªØŃ
ĠØ§ÙĦØ± Ø³Ùħ
Ø§Ø« ÙĬØ©
ĠØ§ÙĦØº Ø²ÙĪ
ĠØ§ÙĦØ£Ø¯ Ø§Ø¡
Ġ ar
ĠØ§ÙĦØ£ ÙĩØ¯Ø§Ùģ
ĠÙĪÙĬ Ø´
ĠØµ ÙĬÙģ
ĠÙħ ÙĪØ²
Ø· Ø¨Ø©
ĠÙĬ Ø¶
ĠØ§ÙĦØ£Ùģ ÙĥØ§Ø±
Ø§ÙĨ Ùī
ĠÙĤ ÙĪÙĦ
Ø¯Ø± Ø§Ùĥ
Ø¯Ø± Ø§ÙĦÙĬ
ĠÙģ Ø§Ø¹
ĠÙĪÙħÙĨ ÙĩÙħ
ĠØ§ÙĦØªØ¹ÙĦÙĬÙħ ÙĬØ©
ØªÙħ Ø«ÙĬÙĦ
Ġ4 4
ĠØ§ÙĦØŃÙħ Ø¶
ĠØ§ÙĦØ§Ø´ØªØ±Ø§Ùĥ ÙĬØ©
ĠØ§ÙĦÙħØ¹ Ø§ØµØ±
ĠØ§ÙĦØ§Ø³Øª Ø¹ÙħØ§Ø±
ĠØ§ÙĦÙħØº Ø±Ø¨ÙĬ
ĠØ£Ø¹ Ø¸Ùħ
ĠÙĬØ´ Ø¨Ùĩ
Ø± Ùħ
ĠØ¨Øª Ø³
ĠÙĥÙĦÙħ Ø§Øª
ĠØ³ Ø§Ø±
ĠØ§Øª ØµØ§ÙĦ
ĠÙĥÙĪÙĨ Ùĩ
ĠØŃ Ø§Ùħ
ØªÙĦ Ø§ÙģØ§Øª
ÙĨ Ø·ÙĬ
ĠØ§ÙĦØ± Ø§Ø¨Ø·Ø©
Ø§Ùģ Ø¹ÙĬ
ĠØ§ÙĦÙħØ¤ ÙħÙĨ
ĠÙĦÙĦ Ø§ÙĨ
ĠØ§ÙĦÙĤØ¨ Ø¶
ÙĪØ§Ø¬ ÙĩØ©
ĠØ§ÙĦÙĤØµ ÙĬØ±Ø©
ĠØ§ÙĦÙħÙĬ ÙĥØ§ÙĨ
ĠÙĪ ÙĨÙĬ
ĠØ¨ÙĦ Ø¯Ø§ÙĨ
ĠØ§ÙĦÙħØ³ Ø§
ĠØ¹Ùħ ÙĪÙħØ§
Ġn ow
ĠØ§ÙĦÙĨØ§Øª Ø¬Ø©
Ùģ ÙĪÙĨ
ĠØŃ ÙĬØ§Øª
ĠØ± Ø§Ø¨Ø·Ø©
ĠØ§ÙĦ ÙĪØ¬
ÙĪØ¨ ÙĬØ§
ĠØ² Ø§Ø¯
Ġ192 2
ĠØ£ÙĤÙĬÙħ Øª
ĠØ§ÙĦÙģ Ùħ
ĠÙģ Ø¨ÙĦØº
ĠÙħÙĨ Ø¸
8 8
ĠØ± Ø´ÙĬØ¯
ĠÙĪÙħÙĨ Ø°
ĠÙĪØ§ÙĦØ£ Ø¯
Ø§Ø² Ø©
ĠØªÙħ ÙĦÙĥ
ĠØ§ÙĦØ¹Ùħ Ø§Ø±Ø©
ĠÙĪØ§ÙĦØ´ ÙĬØ®
ĠØ§ÙĦØ£Ø¬ÙĨ Ø¨ÙĬØ©
ĠÙĨ Ø§Ø¯Ø±
ĠØ§ÙĦÙĩ Ø§Øª
ĠÙĪØ£ Ø¯
ĠÙĬØŃ Ø§ÙĪÙĦ
ĠØ¯ÙĬ ÙģÙĬØ¯
Ùģ Ø±Ø©
Ġ8 5
ĠØ§ÙĦØ£ Ø·Ø¨Ø§Ø¡
ĠØ§ÙĦÙħÙĨ Ø¸ÙħØ§Øª
ÙħØŃ ÙħØ¯
ĠØ§ÙĦÙĥÙĬÙħÙĬ Ø§Ø¦ÙĬ
ĠØ§ÙĦÙĤ Ø§Ø¯Ø±
9 7
ÙĦÙĬ Ø§ÙĨ
ĠØ§ÙĦÙħÙĨ ÙĪØ±Ø©
ĠØ§Ø¹ Øª
ĠØ§ÙĦØ¨ÙĬ Ø¦ÙĬØ©
ĠØ£ Ø·
ĠØ« ÙĦ
ĠØ§ÙĦØ¯ÙĥØªÙĪØ± Ø§Ùĩ
ĠØ£ØŃØ¯ Ø«
ĠØªÙĪÙħ Ø§Ø³
ĠØ§ÙĦØ¨Ø±ÙĪØª Ø³ØªØ§ÙĨØª
Ġ ×
ĠØ¯ ÙģØ§Ø¹
Ø§Ø¨ ÙĩØ©
ĠÙĥÙħ ÙĬØ§Øª
ÙĪ Ø§Ø¦Ùħ
ĠØ¹ ÙĪØ¯Ø©
ĠØ¨Ø§ÙĦ Ø§ÙĨ
Ø§ÙĦÙħ Ø³
ĠÙģÙĦ ÙħØ§
ĠØ§ÙĦØ® ÙĦØ§Ùģ
ĠØ§ÙĦÙĤØ± Ø§Ø¡Ø©
ĠØ§ÙĦØ£ Ø¬Ø²Ø§Ø¡
ÙĪØµ ÙĬÙĦ
ĠØ£ ÙĬÙĨ
ĠØ¬ ÙĪØ¬ÙĦ
ÙĬØª ÙĪ
ĠÙģÙĦ Ø³Ø·
Ø§ ÙĬØ³
ĠØ§ÙĦØ¬Ùħ ÙĬÙĦØ©
ÙĬ ÙģÙĬ
ÙĪ ÙĩÙħ
ÙĪ Ø§Ø³Øª
ĠØ· Ø±Ø¯
ÙģØ± Ø¹
Ùģ Ø£
ĠÙĪ Ø³Ø¨
ĠÙĩ Ø§ÙħØ©
ÙĪÙĬ Ø¹
ĠØ§ÙĦÙħØŃ Ø±Ùĥ
ĠÙĪØªØŃ Ø¯ÙĬØ¯
Ø§ÙĬØª Ø¯
ĠÙĥ ÙĪÙĥØ¨
ØŃØ§ ÙĪÙĦØ©
ĠØ§ÙĦÙĨ Ø§Ø´
ĠØŃ Ø±ÙĬØ©
ĠØ§ÙĦØ´Ø¹ ÙĪØ¨
ÙĤØ± ÙĬØ±
ÙĬÙĤ Ø§Ùģ
ĠØ± ÙģÙĬ
ÙĤ Ø±Ø©
ĠØ¥ Ø¶Ø§ÙģÙĬØ©
ĠØ±ÙĪÙħ Ø§ÙĨÙĬØ§
ĠØ§ÙĦØ¨Øµ Ø±Ø©
9 4
ĠØ® Ø§Ø¶
ĠÙĪÙĨ Ø´Ø±
ĠØ¥ÙĦÙĬ ÙĩÙħ
ĠØ§ÙĦØ§ØŃ ØªÙĬ
ĠØ§ÙĦØ¨Ø¹ Ø«
ĠÙĪ Ø³Ø±
ÙĬÙĦ ÙĪÙĦ
ĠØ§ÙĦØ£Ø³ Ø¯
ĠØ¯ ÙĬÙĨÙĬØ©
Ø¹ÙĦ Ø§ÙĤØ§Øª
ĠÙĦØ£ ÙĥØ«Ø±
ĠØ§ÙĦÙħÙĨ ØµØ¨
ØµØ¯ Ø§Ø±Ø§Øª
ĠÙģ Ø§Øª
ÙĤÙĦ Ø¨
ĠØ§Ø³ØªØ®Ø¯Ùħ Øª
ĠÙĥ Ø§Ùģ
ĠØªØ´ Ø¨Ùĩ
ĠØ§ÙĦØ³Ø§Ø¯ Ø³Ø©
ĠØ§ÙĦØŃ Ø±Ø¨ÙĬØ©
Ø§Ø¬ Ùĩ
ĠØŃØ¯ÙĬØ« Ø©
Ġ r
ÙĦ ÙĨ
Ø§Ø¨ ÙĬØ¨
ĠØ¹Ø§Ùħ Ø±
ÙĪÙĤ Øª
Ø§Ùĩ Ø²
ÙĦÙģ Ø©
ĠØ§ÙĦÙĨÙģØ³ ÙĬØ©
ĠØªØ´Ø§Ø± ÙĦØ²
ÙĬÙĥ ÙĪ
Ø® Ø§ÙĨ
ĠØ± ÙĪØ²
ĠØŃØ² ÙĬØ±Ø§ÙĨ
Ø¨ÙĬ Ø¹Ø©
ĠØ£Ø³ Ø§Ø³ÙĬØ©
ĠØ§ÙĦÙģØ±ÙĨØ³ÙĬ ÙĬÙĨ
ĠØ§ÙĦØ¶ Ø¹
ĠØ§ÙĦÙħ ÙĤØ±
Ġ4 7
ÙĪÙħÙĬ Ø¯ÙĬ
ĠÙĪØ¶ Ø¹Øª
ĠØ¥ Ø¹Ø¯Ø§Ø¯
ÙĪØ³ Ø§
_ _
ĠÙĪÙħ Øµ
ĠØ¨ÙĦ ÙĤØ¨
ĠØªØ¬ Ø¹ÙĦ
ĠÙĥÙĪÙĦ ÙĪÙħØ¨
ĠÙħØ±ÙĥØ² Ø§
ĠÙģ ØªØ±Ø§Øª
Ø®Øµ ÙĬØ©
ĠÙĥ ÙĬØ±
Ø¦ Ø§Ø¨
ĠØ§ÙĦØ£Øµ ÙĪØ§Øª
ĠÙĨ Øª
Ġnow iki
ĠÙĬÙĤ Ø§ÙĦ
ĠØ§ÙĦØ¨ÙĨ Ùĥ
ĠØ§Ø¹ ØªÙħØ¯
ĠØ§ÙĦÙĦØ¨ÙĨ Ø§ÙĨÙĬ
ĠØ§ÙĦÙħÙĦ ÙĪÙĥ
ĠÙĬØ£ Ø®Ø°
ĠØ§ÙħØªØ¯ Øª
Ø³ Ùĩ
ĠØµ Ø¯ÙĬÙĤ
ØªÙĩ Ø±Øª
ÙĬ Ø¸ÙĩØ±
Ø´ Ø§Ø¯
ÙĬÙĤ ÙĪÙħ
Ø·Ø¨ÙĬ ÙĤ
ĠØ§ÙĦÙħØ¤Ø±Ø® ÙĬÙĨ
Ø¸ ÙĬÙħØ©
8 6
Ø® Ø§Ø¨ÙĬØ©
ĠØ§ÙĦÙħØ´ Ø§Ø±ÙĬØ¹
ĠØ§ÙĦØ£Ùħ ÙĪØ§ÙĦ
ÙĦ Ø°ÙĦÙĥ
ĠÙĥ Ø³Ø±
ĠØ¬ ÙĨÙĬÙĩ
ĠØ§ÙĦÙħØ³Øª Ø¹ÙħØ±
ĠÙĬÙħ ØªÙĦÙĥ
ĠÙħØ´ Ø§Ø±ÙĬØ¹
ĠØ§ØŃ ØªØ¬
ĠØ§ÙĦØ£Ø±Ø¯ ÙĨÙĬ
Ùħ Ø§ÙĨÙĬØ©
ĠØ³ ÙħØ¹
Ø¯ Ø£
ĠØªØ³ Ø§Ø¹Ø¯
ĠØ§ÙĦÙĤØµ Øµ
ÙĨØ§ ÙĩØ§
ĠÙĦØª ÙĦÙĥ
ĠÙĬØ¯ ÙĦ
o u
ĠÙĪÙĬÙĨ Ø¯ÙĪØ²
ĠØ§ÙĦÙħ ÙĬØ«
ĠØ¨Ø§ÙĦ Ùĩ
ĠØ£ Ø®Ø¨Ø§Ø±
ØŃ ÙĩØ§
Ø¨Ø± Ø§Ø·
ĠØ§ÙĦØªØ±Ùĥ ÙĬØ²
ĠØ§ÙĦÙħØ¹Ø¯ ÙĨÙĬØ©
Ø§ÙĨ Ùĥ
ĠØ§ÙĦØ³ÙĬ Ø¯Ø©
ĠØ§ÙĦÙħ Ø·Ø±
ĠØ§ÙĦØª ÙĪÙĤ
Ġ191 9
ĠÙħ Ø£
ĠØ§ÙĦÙħØ± Ø¬
ĠØ§ÙĦØ±Ø³ ÙĪÙħ
Ø§Ø· ÙĬØ±
ĠØ§ÙĦØº Ø²
ĠØ§ÙĦÙħØ¹ Ø§Ø¯ÙĨ
ĠØ¥ ØŃ
ĠØ· Ø¨ÙĤØ§Øª
Ġ Ø§ÙĩØªÙħ
Ø¨ ÙĪÙĦ
ĠØ¨ Ø¹ÙħÙĦ
ĠØŃ ØµÙĪÙĦ
ĠØª ÙĪØ¬ÙĬÙĩ
ĠÙĬÙĨ Øª
ĠØº Ø§Ø¯Ø±
ĠØ£ÙĤ ÙĪÙī
Î ±
ĠØª ÙĦÙģØ²ÙĬ
ĠØª ÙĤÙĬÙĬÙħ
ĠÙĪÙĦ ÙĩØ§
ĠÙĪØ² Ø±Ø§Ø¡
ĠØ§ÙĦØŃØ¯ Ø«
ĠØ´ Ø¤ÙĪÙĨ
ĠØµ ÙĦÙī
ĠØ§ÙĦØ² Ø§ÙĪÙĬØ©
ĠØ¨ÙĬ ØªØ±
ĠÙĬÙĪØŃ ÙĨØ§
ĠØ¨ÙĨ Ùĥ
Ġ Z
ĠØ¨Ø· ÙĪÙĦ
ÙĤ Ø§ÙĨ
Ø§Ø±Ø³ Ø§Øª
ĠØ§ÙĦØŃÙĦ ÙĤØ©
ĠØ§ÙĦØ¢Ø³ÙĬ ÙĪÙĬØ©
Ġ k
ØªÙħ ÙĦØ©
ĠÙĪØ§ÙĦ Ø¶
Ø§Ø± ÙĨ
Ø±Ùĥ ÙĬØ©
ĠØ¨ØŃ Ø±ÙĬØ©
ĠØ«Ø§Ø¨Øª Ø©
ĠØ§ÙĦÙħØª Ø¹Ø¯Ø¯Ø©
Ġ193 7
ĠÙģÙĬØ± ÙĪØ³
ã ĥ
ĠÙģ Ø§Ø³
Ø§ÙĤØªØµ Ø§Ø¯ÙĬ
ĠØ§ÙĦÙħØ³ØªØ®Ø¯Ùħ ÙĬÙĨ
ĠÙĨ Ø§Øª
Ø®Øµ Ø§Ø¦Øµ
ĠÙĪÙĤ Ø±
ĠØ¹ÙħØ± ÙĩØ§
ĠØ§ÙĦØ¬Ø§Ùħ Ø¹ÙĬ
ĠØ²Ø± Ø§Ø¹Ø©
ĠØ§ÙĦØªØ·Ø¨ÙĬ ÙĤØ§Øª
ĠÙĪØ§ÙĦ Ø¨ÙĦ
ĠÙĪÙĦ Ø¯Øª
ĠØ£ÙĨ Ø¯Ø±
ÙĬØ¯ Ùĩ
ÙĪÙĤ ÙĬ
ĠØ§ÙĦÙħØ± Ø§ÙĥØ²
ĠØ£Ø´ Ø¹Ø©
Ùħ Ø§Ø¦ÙĬØ©
ÙĦ Ø§Ø¹
ĠØ¥ Ø¹Ø·Ø§Ø¡
ĠØ· ÙģÙĦ
ĠØª Ø¨Ø¹Ø¯
ĠØ§ÙĦØ§ÙĨØª ÙĤ
ÙĥÙĦÙĬ Ø²ÙĬØ©
ĠÙħØ¹ Ø³ÙĥØ±
ĠØ³ ÙħÙĬ
Ùĥ ÙĪØ±Ø©
ĠÙħÙĤ Ø¹Ø¯
ĠØ§ÙĦØ¶Ø± Ø§Ø¦Ø¨
ĠØ§ÙĦÙģØ¶ Ø§Ø¦ÙĬØ©
8 7
ØŃØµ Ø§Ø¦ÙĬØ©
Ø§Ø± ØªÙĩØ§
ĠØ³ ÙĪØ±Ø©
ÙħØ§ Ùĩ
ĠÙĦÙĦ Ø¢
un d
ØŃ ÙĨØ©
ĠØ³ Ø§ÙĦ
ÙģØ¹ Ø§ÙĦ
Ġ195 1
ĠØ¹ Ø±ÙĤ
ĠÙĪÙĤ ØªÙĩØ§
ĠØ§ÙĦÙħØ¹Ùħ Ø§Ø±ÙĬ
ĠØª ÙĥØ±ÙĬ
ĠØ§ÙĦØ£ Ø¨Ø¹Ø§Ø¯
ĠØ§ÙĦØŃ ØµØ§Ø±
ĠØ§ÙĦØ£Ø² Ø±ÙĤ
ĠØ§ÙĦØ³ Ø¯
ĠÙĦØ§Ø³Øª Ø®Ø¯Ø§Ùħ
ĠØ§ÙĦØ³ Ø·
ĠØ¯ ÙĬØ²
ĠÙĤ Ø§Ø¨ÙĦØ©
ÙģÙĬ Ø³
6 5
ĠØ§ÙĦØ¬ Ø²ÙĬ
ĠØ¢ Ø°Ø§Ø±
ĠØ¨Ø¥ÙĨ Ø´Ø§Ø¡
ÙĪÙĬ Ø¹ØªØ¨Ø±
ÙĨØª ÙĩØ§
ĠØ¥Ø¯ Ø®Ø§ÙĦ
ĠØªØ¤ Ø«Ø±
Ø· ÙĪØ¨Ø©
ĠÙĤ Ø±ÙĨ
ĠÙĪØ¨ Ø§ÙĦ
ĠØ§ÙĦØ´ÙĬ Ø¡
ĠØªÙĥØ³ Ø§Ø³
ĠØªÙĨ ØªÙħÙĬ
ĠØ¨Øµ ÙģØ©
ĠØ§ÙĦØ£Ø³ ÙĪØ§ÙĤ
ĠÙħØ³ÙĬ ØŃÙĬ
Ø´ ÙģÙĬØ§Øª
ĠÙħØ³ Ø£ÙĦØ©
ĠØ§ÙĦØ¹ Ø§Øµ
Ø¬Ø± Ùī
ĠÙħÙĨØµØ¨ Ùĩ
ĠØ§ÙĦÙĤ Ø·Ø¨
ĠÙħ ÙĬØ´
ØªØ± Ø§Ø¹
ĠØ§ÙĦØµ ÙĦØ§Ø©
Ġt h
ĠØ§ÙĦØ£Ø¬ Ø³Ø§Ùħ
Ø¹Ø§ ÙĪÙĨ
ĠØŃØ¯Ø« Øª
ĠÙĪ Ø§Ø¨
ĠØ§ÙĦÙĤ ÙĬÙħ
ÙģØ± Ø¬
Ø¨ÙĤ Ø§Ø¡
ĠÙħÙĤØ¯ ÙħØ©
ØºØ§ÙĨ Ø³ØªØ§ÙĨ
ÙĤ Ø§Ø¨ÙĦ
ÙĪØ² ÙĬØ±
ĠØ¨ Ø§Ø³
ĠÙĬÙĪÙĨ Ø§ÙĬØªØ¯
Ùĩ ÙĦØ©
ĠØ¨ Ø±ÙĨ
ĠØ§ÙĦÙģ ÙĪÙĦ
ĠÙģÙĤØ¯ Ø§ÙĨ
ĠØ§ÙĦØªØ¯ Ø±ÙĬØ³
ĠÙħØŃØ¯ ÙĪØ¯Ø©
ĠØ§ÙĦØ´ Ø¯ÙĬØ¯
ĠÙĪÙĩ ÙĥØ°Ø§
ĠØ£ÙĪØ± Ø§ÙĤ
ĠØ§ÙĦÙģØ± Ø³
ĠÙĪØ§ÙĦØ° ÙĬÙĨ
ĠÙĬØª Ø·ÙĦØ¨
ĠÙĪØ§ÙĦØ¹ Ø´Ø±ÙĪÙĨ
ĠØ§ÙĦØ· ÙĪÙĬÙĦ
ĠÙĩ Ø§Ø±ÙĬ
ĠØ£Ø¹ ÙĪØ§Ùħ
ĠØ§ÙĦÙĪ Ø²ÙĨ
ĠÙħØª Ø¹Ø¯Ø¯
ĠØ¬ Ø³
ĠÙĪØ¨ ÙĨ
ĠÙħØ¯ Ø±Ø¨
ĠÙĨØ¬Ø§ØŃ Ø§
Ø§ÙĬ ÙĬÙĨ
ĠÙĪÙĤ ÙĬÙĦ
ÙĪÙĩ ÙĥØ°Ø§
ĠÙĪ Ø§Øµ
ĠÙĦ Ø¯Ø±Ø§Ø³Ø©
ĠØ§ÙĦØ± ØµØ§Øµ
ÙħØ± Øª
ĠØ§ÙĦÙĦ Ø§ØŃÙĤØ©
ÙĢ Ø©
ĠÙħØ´ Ø§Ø±ÙĥØ©
ØŃ ÙħØ¯
Ø§ÙĤ Ùħ
Ø§Ø· ÙĬÙĨ
ĠÙĨØ¬ ØŃ
ĠØ¨Ø§ÙĦ Ø°ÙĥØ±
ĠØ§ÙĦÙĥÙħ Ø¨ÙĬÙĪØªØ±
Øª Ø±Ø¨
ÙģÙĬ Ø¶
ÙĦ Ø¹
Ø³ÙĦ Ø³ÙĦØ©
ĠÙĥ Ø§ÙģÙĬØ©
ÙħØ³ ÙĬØ±ØªÙĩ
ĠÙĦÙĨ Ø§Ø¯ÙĬ
ĠØ§ÙĦØ³Ùģ ÙĦÙĬ
ĠØ¨Ø§ÙĦ Ø®
ĠØ§ÙĦÙĤØ§ÙĨÙĪÙĨ ÙĬ
à ¸
ĠØ¯ Ø³ØªÙĪØ±
Ø¬ÙĦ ÙĪØ³
Ø±ÙĬ Ø¬ÙĬ
ĠØªØ± Ø¬Ùħ
ĠØ§ÙĦØµ Ø§ÙĦØŃ
ĠØ§ÙĦÙģÙĨØ§ÙĨ ÙĬÙĨ
6 6
Ø¯ÙĬ Ø³
ĠÙĪØ³ ÙĬÙĦØ©
Ġ191 7
ĠÙĪÙĨ ØµÙģ
ĠÙĬØ³Øª Ø¹ÙħÙĦ
Ø¶ Ø¨Ø©
Ø®Øµ Ø©
Ġ194 3
i z
ØªÙħ Øª
ÙĪÙħ Ùĩ
ĠØŃ Ø§Ø¬Ø©
Ø± Ø§Ø¶ÙĬ
Ø£ ÙĩÙħ
ĠØ§ÙĦÙĤØ± ÙĪÙĨ
ĠØŃÙĬÙĨ ÙħØ§
ĠØ±Ø£Ø³ Ùĩ
ĠØ²ÙĪØ¬ Ø©
ĠØª Ø®ØµØµ
ĠØ§ÙĦØ¯ ÙĨÙĬØ§
ĠØ§ÙĦÙħØ¯ ÙĬØ±
Ø¹ÙĦ Ø§ÙĨ
Ø¶Ùħ Ø§ÙĨ
ĠØ§ÙĦØ« Ø§Ø¨Øª
ÙĪÙĥ ÙĪ
ĠØ§ÙĦÙħÙĤ Ø§Ùħ
ĠÙħØ± ØªØ¨Ø·Ø©
ĠØ§ÙĦÙħØª ÙĪÙĤØ¹
ĠØªØ¹ Ø²ÙĬØ²
ĠÙĬ Ø³Ùħ
ĠÙħÙĤ Ø¨Ø±Ø©
Ġ &
ĠØ§ÙĦÙĤ Ø±ÙĬØ¨Ø©
Ùģ Ø§Ø²
ĠØ¹ Ø·
ĠØ¨ÙĪÙĦ ÙĨØ¯Ø§
ĠØº Ø¶
ÙĪØ±ÙĬ ÙĬÙĨ
ĠØ¯ ÙĬÙĦ
ĠØ§ÙĦØ³ÙĬ Ø§ØŃÙĬØ©
ĠØ§ÙĦØµ ÙĩÙĬ
ĠØ§ÙĦØ£Ùħ Ø«ÙĦØ©
ĠØ§ÙĦØ¹Ø§Ùħ ÙĦØ©
ĠÙĤ Ø§Ø³Ùħ
ÙĤØ± Ø§Ø¶
Ø£ ÙĪ
ĠØ§ÙĦÙĤ Ø§Ø¦Ùħ
ĠÙĪØ§ÙĦ ÙĬ
ĠØ§ÙĦØ¨ ØªØ±
ĠÙĦÙĦ ØªØ±
Ùħ ÙĬØ²
Ø· ÙĪØ±Ø©
ĠØªØ£ ØªÙĬ
ĠØ³Ø¬ÙĦ Øª
ĠØ§ÙĦÙĨÙĤ Ø§Ø¯
ĠØ§ÙĦØ¹ Ø¸Ø§Ùħ
ĠØ§Øª Ø®Ø§Ø°
ĠÙģ Ø´
ĠÙĦ ÙĪØ§Ø¡
ØªÙħ Ø±Ø§Øª
ĠØªÙĪØ£ ÙħØ©
ĠÙĪ Ø§Ùħ
ĠÙĤ Ùħ
Ø´ Ø³ØªØ±
ĠÙĤ Ø§Ø¨ÙĦ
ĠÙħØŃ ÙĦÙĬØ©
ÙĪØ±ÙĪØ¨ Ø§
ÙĪØµÙĦ Ø§Øª
ĠÙħ ÙĦÙħ
ĠØ§ÙĦØ£ Ø³Ø¨ÙĪØ¹
ĠØ§ÙĦÙħØ³ Ø§ÙģØ©
ØªÙĬ Ø§Ø²
Ġ3 9
ĠØŃÙĥÙħ Ùĩ
ĠØ¬ ÙĪÙĦ
ĠØ§ÙĦÙĩ Ø§ÙħØ©
Ø²ÙĬ Ø¬
Ùħ Ø´
ĠØ§ÙĦØ£ Ø³ÙħØ§Ø¡
Ø®Ø· Ø§Ø¡
ĠØ§ÙĦØµÙĪØª ÙĬØ©
ĠÙħÙħØ§Ø« ÙĦØ©
ĠØ¨ Ø«ÙĦØ§Ø«
Ø± Ø§ÙĨ
ĠÙĦÙĦ Ø²
ĠØªÙĤØ¯ ÙĬØ±
ĠÙħØ¹ Ø¨Ø¯
ĠÙĪØ¥ Ø°Ø§
ØŃÙĦ ÙĪÙĦ
Ð °
ĠØ§ÙĦØ¬ Ø³ÙĬÙħØ§Øª
ĠØ¹ Ø«Ø±
ĠØ§ÙĦÙħ ÙĩÙħ
Ø±ÙĬ Ø·Ø©
Ø§Ø¨ ÙĩØ§
ĠØ§ÙĦÙĤ Ø§Ø³Ùħ
ĠØ¨Ø§ÙĦ Ø§Ø³Øª
ĠÙĥ Ø¬Ø²Ø¡
ĠØ§ÙĦØ¬ Ø§Ø¦Ø²Ø©
ĠØ§ÙĦØ³ÙĬ Ø§ØŃØ©
ĠØªØ¯ ÙĪØ±
ĠØ§ÙĦØ³ÙĪÙģÙĬ ØªÙĬØ©
Ø®ÙĦ Ø§Ùģ
Ø§ÙĬ Ø¯Ø©
ĠÙĪØ¹ Ø§Ø¯
ĠØ£Ø³ Ø§Ø¨ÙĬØ¹
ĠÙħØ´ ØªØ±ÙĥØ©
ĠÙĪØ´ ÙħØ§ÙĦ
ĠØªØ§Ø±ÙĬØ® ÙĩØ§
ĠÙħØŃØ¯ Ø¯
ĠØ¨Ùħ Ø³Ø§Ø¹Ø¯Ø©
ÙĦÙĤ Øª
ĠA n
ĠÙħÙĦØŃÙĪ Ø¸
Ø¯ ÙĪØ±
Ùģ ÙĪØ±
Ùĥ ÙĪÙĥ
ĠØ§ÙĦØªÙĨ ÙģÙĬØ°ÙĬ
ĠÙģØ¶ ÙĦ
ĠØ³ Ø·
ÙħÙĨ Øª
Ġ9 5
Ġ193 3
ÙĨØ¨ ÙĪÙĦ
ĠÙĨ Ø¹
ĠØ§ÙĦÙģ Ø§Ø±Ø³ÙĬØ©
ĠØ§ÙĦØ· ÙĪÙĬÙĦØ©
ĠÙĪØ§ÙĦØ¹ Ø¯ÙĬØ¯
ĠÙĥ Ø³
ĠÙĪØª Ùģ
ĠØ§ÙĦØ¶ Ø¨Ø§Ø·
ĠØ¨ ÙĪØ¶Ø¹
ĠØ§ÙĦØ¨ ÙĨØ¯
Ø¬Ùħ Ø¹Ø§Øª
ĠÙĤØ± Ø§Ø¡Ø©
ĠØ¨ÙĪ ØµÙģ
Ø£ ÙħØ©
ĠØ§ÙĦÙģØ±Ø¯ ÙĬØ©
Ø´ ØªØ§ÙĬÙĨ
ĠØ§ÙĦÙħØª Ø¹
ĠØ¨ÙĪ Ø´
Ø¹ Ø§Ø´
Ø§ÙĦ ØŃØ©
ĠØ´ ÙĬØ±
ĠØ§ÙĦÙħØº ÙĪÙĦ
Ø¨ØŃ ÙĦÙĪÙĦ
ĠØ§ÙĦÙĬÙĪÙĨ Ø§ÙĨÙĬ
ĠØ§ÙĦÙħ Ø¬ÙħØ¹
ĠØ§ÙĦØ¯ Ø®ÙĦ
ÙĪØ§ ÙĬØ§
ĠÙĦÙħÙĨ Ø·ÙĤØ©
ĠØ§ÙĦÙģØ¶ ÙĦ
ĠØ§ÙĦØ£ Ø³ØªØ±
ÙĤÙĬ Ø§Ø¯Ø©
ØªØ¨ Ø§Ùĥ
ĠÙĪØ® ÙĦØ§ÙĦ
ĠÙĬØ³ ÙĥÙĨ
ĠØ§ÙĦØ³Ø± Ø·Ø§ÙĨ
ĠØ§ÙĦÙħÙĨØ§Ø® ÙĬØ©
ĠØ§ÙĦØ¹Ø«Ùħ Ø§ÙĨÙĬÙĬÙĨ
ĠØ§ÙĦØ¨ ØŃÙĪØ«
ÙĪÙĬ Ùģ
ĠØ§ÙĦÙħØ³ Ø§Ø¬Ø¯
ĠÙħØ±Ùĥ Ø¨
ĠÙĦ Ø§Ùħ
ĠØ§ÙĦØ£ Ø·Ø±Ø§Ùģ
ĠØ§ÙĦØ¬ ÙĩØ¯
Ø§Ø± ÙĪ
ØªØŃ Øª
Ġ194 2
ĠÙĨØ§Ø¨ ÙĦÙĬÙĪÙĨ
ĠÙĬ ÙĤØ¯Ø±
ÙĦÙģ Ùĩ
Ø¨ ÙĩØ§
ØªØ´ Ø±Ø©
ĠØ´Ø± Ø§Ø¡
ĠÙĥ Ø§Ø³
ĠØ§ÙĦØª Ø±Ø¨
ĠØ° Ø±
ÙĩØ§Ø¯ Ø§Øª
ĠØ§ÙĦØŃ Ø§Ø±
ĠØ§ÙĦÙħØ¶ Ø§Ø¯Ø©
ĠØªÙĦÙĤ Ùī
Ùħ ÙĤØ§Ø·Ø¹Ø©
ĠØ£ Ø®Ø±
ĠØ£Ø¯ ÙĪØ§Øª
ÙĪØ® ÙĦØ§ÙĦ
ĠÙĬØ¹ÙĬØ´ ÙĪÙĨ
ĠØ®Ø· Ø·
ĠØª Ø§ÙĬÙĦ
Ø¶ ÙĪØ±
ĠØ§ÙĦØµÙĨ Ø§Ø¹Ø§Øª
ĠØ¨Ø§Ø¹ØªØ¨Ø§Ø± ÙĩØ§
Ø§ÙĦ ÙĬÙħ
ĠØ§ÙĦØ£ ØªØ±Ø§Ùĥ
Ø³Ø¨ Ø§ÙĨÙĬØ©
ĠÙĪØ§ÙĦ Ø¹ÙħÙĦ
ĠØ§ÙĦÙĦ ÙĤØ¨
ĠÙħØ§ÙĬ ÙĥØ±ÙĪØ³ÙĪÙģØª
ØªØŃ Ùģ
ĠØ¨Ø¹ ÙĬØ¯Ø§
ĠÙģÙĬ Ø¯ÙĬÙĪ
ĠÙĨ Ø§Ø´
ĠÙĪ Ø§Ø³Ùħ
ĠØµ Ø±Ø§Ø¹
ØŃØ¯ ÙĪØ¯
ĠÙģÙĬ ÙĩÙħ
Ùĥ ÙĬÙħ
Ø§ÙĨ Ø¯ÙĬ
ÙĬØ§ ÙĥÙĦ
ĠØ§ÙĦØ¥ Ø¬ÙħØ§ÙĦÙĬ
ĠØ§ÙĦØ¨ ÙĥØ§ÙĦ
Ġ193 1
ĠØ²ÙĬ Ø§Ø±Ø©
ĠÙĬ Ø§Ø¨
ĠÙĬÙħ ØªØ¯
Ø· Ùī
ĠØ§ÙĦØ¹ Ø§Ø¯ÙĬØ©
ĠØ· ÙĬÙĦØ©
ĠÙĩÙĬ ÙĥÙĦ
ĠØ´ÙĬ ÙĪØ¹Ø§
ÙĬØ² ÙĬØ¯
Ùĥ ÙĦÙħ
ÙĪØ¬ Ø§Øª
Ø·ÙĦ Ø§Ø¹
ĠØ§ÙĦØ£Ø±Ø¬ ÙĨØªÙĬÙĨ
ĠÙĪØ¯ Ø®ÙĦ
ĠØ§ÙĦÙĩÙĬ ÙĥÙĦ
ĠÙĦÙĦ Ø£Ø³
Ø³Ø¨ Ø§ÙĨÙĬØ§
ĠÙĪØ¹ Ùħ
ĠØ§ÙĦØªØ¹ Ø±ÙĬÙģ
ĠÙĦÙĦØŃ Ø²Ø¨
Ø´ Ø§Ùħ
ĠØ´ Ø¬Ø±Ø©
ÙħØ¹ Ø¸Ùħ
ĠØ£ÙĩÙĦ ÙĩØ§
Ø¯ Ø¹Ùī
Ø´ ÙĬÙĨ
ĠØ§ÙĦØ· Ø¨ÙĤØ§Øª
es t
Ø³Ø·ÙĬÙĨ ÙĬÙĬÙĨ
ĠØ§ÙĦØ§Ø´ØªØ±Ø§Ùĥ ÙĬ
ĠØ¹ÙĩØ¯ Ùĩ
ĠÙħÙĨ ØªØ¬Ø§Øª
ĠØ§ÙĦØ£ Ø¹Ø¯Ø§Ø¯
ÙĬÙħ ÙĨØ©
ØªÙĪ Ø£ÙħØ©
4 7
ĠÙĦ Ø¹Ø¯Ùħ
ĠØ¨Ø¹ Ø¯Ø©
ĠØ§ÙĦØ®Ø¶Ø± Ø§Ø¡
ÙĦ Ø§ØŃØ¸
ĠÙĥÙĦ ÙħØ§
ĠÙĥØªØ¨ Ùĩ
ÙĥØ± Ø§ÙĨÙĬØ§
ÙģØª Ø§Ø¡
ĠØ§ÙĦÙĪØ§ØŃ Ø¯Ø©
ĠØ§ÙĦØ® ØµÙĪØµ
ĠØ§ÙĦÙħÙħ Ø§ÙĦÙĬÙĥ
ĠØ§ÙĦÙĦÙĬ Ø¨Ø±
Ø§Ø¶Ø·Ø± Ø§Ø¨
Ø±Ùģ Ø¹
ØªÙĬ ØŃ
ĠØ² ÙĪØ§Ø¬
ĠØºÙĬØ± Ùĩ
ĠÙħØ³Øª ÙħØ±
ĠÙĤØ± Ø§Ø¨Ø©
ĠØ§ÙĦØªØ¬ Ø§Ø±Ø¨
ĠØ¶ ÙĪØ¡
ĠØ¨ÙĬ Ø¦Ø©
ØµØ¯ ÙĤØ§Ø¡
ĠØ§Ø¬ØªÙħØ§ Ø¹ÙĬØ©
Øª Ø³ØªØ®Ø¯Ùħ
ĠØ§ÙĦØª ÙħØ±
Ø§ÙĤ Ø´Ø©
ĠÙħØŃ Ø·Ø§Øª
ĠÙĪÙħ ØµØ±
ĠØ¨Ø¹Ø¯ Ùħ
ĠØµØ¯Ø± Øª
ĠØ¥ÙĦ ØºØ§Ø¡
ĠØ§ÙĦØ£Ø¹ Ø¸Ùħ
ĠØ§ÙĦØªÙģ ÙĥÙĬØ±
ĠÙĪØ§ÙĦØ§Ø¬ØªÙħØ§ Ø¹ÙĬØ©
ĠÙĨÙĪØ¹ Ø§
ĠØ§ÙĨØªÙĤÙĦ Øª
ĠÃ Ĺ
Ġ å
ĠØ§ÙĦØ£ Ø®Ø¨Ø§Ø±
ĠÙħØ± ÙħÙī
ĠÙĪÙģÙĬ ÙĩØ§
ĠÙĦÙĦØ£ Ø·ÙģØ§ÙĦ
ĠÙĪ Ø¯ÙĬ
ĠØ® Ø´
ĠØ£Ø´ Ø®Ø§Øµ
Ø±ÙĬ Ø²
ĠØ³ ÙĪØ¯
ĠÙħÙĨ Ø§Ø³Ø¨Ø©
ĠÙĥ Ø¨Ø±Ùī
Ø¶Ø± ÙĪØ±Ø©
ĠØªÙĪÙĤ ÙĬØ¹
ĠØ¹ Ø§ÙĦ
ĠØ± ÙĪØ§
ĠØ¨ÙĬÙĨ Ùĩ
ØŃÙĬ Ø§ÙĨØ§
Ø¬ ÙĬÙĥØ§
ĠØ§ÙĦØ¯ Ø¨ÙĦÙĪÙħ
Ø¨Ø¹ Ø«
ĠÙħÙĬÙĦ Ø§ÙĨ
ĠÙĥ ÙħØ§ÙĦ
Øº ÙĨ
ĠØ§ÙĦØ¹Ø± ÙĤÙĬ
ĠØ§ÙĦÙĨ Ø±
ÙĪØ¬ Ø±
ĠØ¥ÙĨ ÙĩØ§
ĠØ§ÙĦØ¢ Ø¯Ø§Ø¨
ĠÙĬØ¹ ÙĤÙĪØ¨
Ø¨Ø§ÙĦ ÙĨØ³Ø¨Ø©
ĠÙĦ ÙĪØŃ
ĠÙħØµ ÙĨØ¹
ĠÙĥÙĦ Ùĩ
ĠØ§ÙĦÙħØµ Ø§Ø¨ÙĬÙĨ
ĠÙģÙĨ ÙĦÙĨØ¯Ø§
Ø§Ùĩ ÙĨ
ĠØ£Ø¨ ÙĨ
ØªÙģ Ø¹Ø§Øª
ĠØ´ Ø±Ùģ
ĠØªÙĤ ÙĨÙĬØ§Øª
ĠØ§ÙĦÙħØ³Øª Ø´ÙģÙī
ĠØ§ÙĦÙĬÙħ ÙĨÙĬØ©
ĠØ§ÙĦØ·ÙĦ Ø¨Ø©
ĠØ¨Ø·Ø± Ø³
ĠÙĪ Ø¨Ø¯Ø£Øª
ĠÙĪØ² ÙĨ
ĠØ¯Ùħ Ø¬
ĠÙĪØ§ÙĦØ¹ Ø§ÙĦÙħ
Ø¬Ø² Ø§Ø¦Ø±
ĠÙħØ¹Ø¯ ÙĦØ§Øª
ĠØ§ÙĦØµ Ø±
ĠÙĪØ§ÙĦÙħ Ø´
ĠØ£Ùĩ Ø§ÙĦÙĬ
Ø§ÙĬ Ø®
8 9
ĠÙĬØ³ Ø¬ÙĦ
Ø¬Ùħ Ø§ÙĦ
ØµÙĨ Ùģ
Ø§Ø¯ ÙĩØ§
ĠØ§ÙĦØ£Ùħ ÙĬÙĨ
Ø§ÙĦ Ø¨ÙĬ
ĠÙħ ÙĬØ¯Ø§ÙĨ
ÙĦÙĤ Ø§Ø¡
ĠØ§ÙĦØ£Ø± ÙħÙĨ
Ø§Ø¨ Ø±Ø§Øª
ÙĪØª ÙĪØ²Ø¹
ĠâĢ Ķ
ĠÙĪØ§ÙĦÙħ Ø¹Ø±
ĠØ¨Øª Ø¹
ĠØ¬ÙħÙĬØ¹ Ø§
ĠØ³ ÙĪØ¡
ĠØ§ÙĦØ® Ø²
ĠØ§ÙĦÙĪÙĦ ÙĬØ¯
ĠÙĨ Ø®
ĠØ³ÙĬ Ø§Ø±Ø§Øª
ĠØµ ÙĨØ¯ÙĪÙĤ
ĠØ§Ø® ØªØ§Ø±
ĠÙĦØ¨ ÙĨØ§Ø¡
Ø§Ø¦ ÙĤØ©
ÙĪØ¯ ÙĬÙĨ
ĠÙĦÙĦÙħ Ø¤
ĠÙħØ¨ ÙĥØ±
ĠØ¯ Ø¹Ø§
ĠØ§ÙĦØ¨ ÙĤØ§Ø¡
ĠØ§ÙĦØ¨Ø± Ø¬
Øª ÙĪØ³Ø·
ĠØ« ÙĤØ§ÙģØ©
ĠØ§ÙĦØŃØ± Ø§Ø±ÙĬ
ĠÙĪØª Ø·ÙĪÙĬØ±
ĠÙĪØ§ÙĦØ¯ ØªÙĩ
ĠÙĪØ· ÙĨÙĬØ©
ĠØªØª Ø·ÙĦØ¨
Ø° Ø§ÙĨ
ĠÙħØª ÙĦ
ĠØ§ÙĦØ§ÙĨ Ø³
ĠØ´Ø± ÙĪØ·
Ø¬ Ø£
Ø§ÙĨ Ø¸Ø±
ĠØ§ÙĦØ³ ÙĥØ±ÙĬ
ĠØ§ÙĦØµ Ø®ÙĪØ±
ĠØ³Ø± Ø·Ø§ÙĨ
ĠØ´Ø§Ø±Ùĥ Øª
ĠÙĨ ÙĤØ¯
ØºØ± Ø³
ĠØ³ ÙĥØ±
ĠÙĤ Ø±ÙĬØ¨Ø©
ĠØª ÙĥØ±
ĠØ§Ø³Øª ÙĤØ§ÙĦ
Ø³ÙĨ Ø¯Ø±
ĠØ§ÙĦØ´Ø®Øµ ÙĬ
ĠÙĦÙĦØ¬ ÙĬØ´
ĠÙĥ Ø´Ùģ
Øº ÙĪØ±
ĠØ§ÙĦØŃ Ø¬Ø§Ø²
ĠØ¨ÙħÙĨ Ø·ÙĤØ©
Ø± ÙĬÙĨ
Ø§Ø¹ Ø¯Ùĩ
ĠØ± ÙĪÙĨ
ĠÙĦ Ø¯Ø±Ø¬Ø©
Ø° Øª
ĠÙĪ Ø§ÙĤØ¹Ø©
ĠÙħØ¨ Ø§Ø¯Ø¦
3 9
ĠÙħ ÙĬØ³
ĠÙħØ¯ Ø®ÙĦ
ĠØ§ÙĦØ£Ø±Ø«ÙĪØ°ÙĥØ³ ÙĬØ©
ĠÙĪØ®ØµÙĪØµ Ø§
ĠÙĪØ£ Ø¨ÙĪ
ĠØ´Ø± ØŃ
ĠØ§ÙĦØªØ±Ø¬ ÙħØ©
ĠØ§ÙĦØ³ ØŃ
ÙĪØª Ø¹ØªØ¨Ø±
ĠØ§ÙĦÙħÙĪ Ø¸
ĠÙĦÙħÙĨ Ø¹
Ø¶Ø¹ Ùģ
ĠÙĪ Ø°ÙĥØ±
ĠØ§ÙĦØ¨Ø±ØªØº Ø§ÙĦ
y s
Ġ4 2
ĠØ¹Ø¨ ÙĬØ¯
ÙĦ ÙĪÙĨ
ĠØ§ÙĦØ£ÙĨ Ø´Ø·Ø©
Ø®Ø·ÙĪØ· Ø§Øª
ĠÙĦ Ø¹Ø¯Ø¯
ĠØ§ÙĦØŃ Ø³Ø§Ø¨
ÙģÙĬ Ø¯Ø©
ĠØ¨Ø¯ ÙĦ
ĠØ£Ø¨ Ø§
ĠÙĬØª Ø¶ÙħÙĨ
Ġ16 0
ĠØ§ÙĦØŃÙĬ ÙĪÙĬ
ĠØªØ± Ø¯Ø¯
ĠØª Ø®Øµ
ÙĪØ±ÙĬ Ø§Øª
ĠÙħØ± Ø§Ø¯
ĠÙĨÙģ ÙĪØ°
ĠØ£ÙĨ Ø«Ùī
ÙģÙĬ ÙĦØ¯
ĠØ´ ÙĨ
ÙĦÙħ Ø§Ø¡
ĠØ§ÙĦØ£Ø² ÙĩØ±
ĠØ§ÙĦ Ø§Ø¨ÙĨ
ØªÙħ ÙĥÙĨ
4 4
Ø§Ùĥ Ø§
ĠØ³ Ø¹Ø±
ĠØ§ÙĦØµ ÙĪØ¯ÙĬÙĪÙħ
ĠØ³ÙĪÙĬ Ø³Ø±Ø§
v er
ÙĤØ¯ ÙĬØ±
ĠÙĪÙģ Ø±ÙĨØ³Ø§
ĠØŃ Ø¯ÙĬÙĤØ©
ĠØ§ÙĦØ¬ ÙĪØ¯Ø©
ĠØª ÙĩØ¯Ùģ
Ø§Ø´ Ø§Øª
ĠØ®Ø· Ø£
ĠØª Ø°ÙĥØ±
ÙĤ ØªÙĦ
ĠØ§ÙĦÙĥ Ø§ÙħÙĦØ©
Ġ193 5
Ø§Ø« ÙĬ
ig ht
Ø§ÙĤ Øµ
ĠØ§ÙĦÙĩ ÙĦØ§ÙĦ
ĠÙĦ ÙģØ¸
ĠÙĤ Ø§Ø¨
ĠØ±Ø³ Ø§Ø¦ÙĦ
Ø¨Ø¯ Ø§ÙĬØ©
ĠØ§ÙĦÙħØ³Øª ÙħØ±
Ġ5 6
Ø£ Ø®Ø±
ĠØ§ÙĨ Ø¸Ø±
ĠÙĪØ§ÙĦ ÙĪÙĦØ§ÙĬØ§Øª
ÙĨØ¯ ÙĪÙĨ
ĠØ£ÙĤ Ø§Ùħ
ĠØ§Ø®ØªØ± Ø§Ø¹
ĠØ§ÙĦ ÙĪØ¹
ÙĪÙĬ ØªÙħ
Ø§ÙĤ ØªÙĩ
ÙĩØ± Ø§ÙĨ
ĠÙĥ ØŃ
ĠØ§ÙĦØ³ Ø§Ø¨Ø¹Ø©
ĠØ¹Ø§ÙĦÙħ ÙĬ
ĠØŃ ØµØ§Ø±
Ø¨Ø· Ø§ÙĦ
ĠØ§ÙĦØ± ÙĪØ§ÙĬØ§Øª
Ø¶Ø§ Ø©
ĠØ§ÙĦØ¨ ÙĥØªÙĬØ±ÙĬØ§
ĠØ§ÙĦØ¯ ÙĨÙħØ§Ø±Ùĥ
ĠØªØŃ ÙĪÙĬ
Ø³ ÙħØ©
ĠÙĪØªØ¹ ÙĨÙĬ
ĠØ§ÙĦÙĬÙĩ ÙĪØ¯ÙĬ
ĠØ§ÙĦØµØºØ± Ùī
Ġ Ø§Ùĩ
ĠØ§ÙĦÙĨ ÙĪØ§Ø©
ĠØ¨ ØªØµ
ĠØ¨Ø¹ Ø«
ĠØ·ÙĪÙĦ Ùĩ
ĠØ®Ø± ÙĪØ¬
ĠÙĪØª Ø®
ĠØŃ Ø¯ÙĬØ¯
ÙĪÙĥ Ø°ÙĦÙĥ
Ġ6 00
ĠØ³Ø± Ø§ØŃ
ĠØµÙģ ØŃØ§Øª
ĠØ§ÙĦÙĤØ§Ø¯ ÙħØ©
u c
ÙĤØ¯ Ø§Ùħ
ĠØ´Ø± ÙĤÙĬ
ĠØ§ÙĦØ£ ÙĨØ¯ÙĬØ©
ĠÙĬÙĪÙħ ÙĬØ§
ĠÙĤØ§Ùħ ÙĪØ§
ĠØ§ÙĦØ£Ø¯ Ø¨ÙĬ
Ø£ØµØ¨ØŃ Øª
Ø° Ùī
ĠÙĬØª ÙĨ
ĠØ§ÙĦØª ÙħÙĬ
ĠA l
ĠÙĪØ« ÙĬÙĤØ©
ÙĤ Ø¹
ĠÙĪÙĦ ÙĦ
ÙĪØ§Ø± Ùĩ
ĠÙħØŃ Ø§ÙĪÙĦØ§Øª
ĠØªØŃ Ø§ÙĦÙģ
Ø´ÙĥÙĦ Ø§Øª
ĠÙĪÙĦ ÙĪ
Ġ13 0
ĠØ§ÙĦÙħ Ø§Ø¦Ø©
ĠØ§ÙĦØ¥ Ø®ÙĪØ§ÙĨ
Ø£ ØµÙĦ
ĠØ§ÙĦÙħ Ø§Ø¬Ø³ØªÙĬØ±
ĠØ§ÙĦØ¬ Ø§ÙĨ
ĠØµ ÙĬØ¯
ØªÙĬ Ø§Øª
ĠØ² ÙĬØª
ĠØ£Ø¨ÙĬ Ø¶
Ø² ÙĦØ©
ĠØ§ÙĦÙĤ Ùħ
ĠÙħØ¹ Ø§ÙĦØ¬
ĠÙĪØ¨ÙĦØº Øª
ÙĤ ÙĪÙħ
Ø§Ø¬ Ø¦
ĠØ§ÙĦÙħØ¹ Ø§ÙĦØ¬Ø©
Ġ193 2
ĠØ§ÙĦØª ÙĪØ§ØµÙĦ
ĠØ§ÙĦØª Ø®Ø·ÙĬØ·
ØªØ¯ Ùī
ĠØ¬ Ø³Ø±
ĠÙĪØª Ø¬
ÙĪØ¶ ÙĬØŃ
ĠÙģ Ø¥Ø°Ø§
ĠÙĩ Ø¬
ĠÙĤ ÙĪÙī
ĠØªØ³ Ø¹Ø©
ĠÙĪØ§ÙĦØ£ Ùħ
ĠØ§ÙĦ ÙĪØ¬ÙĪØ¯
ĠØ§ØŃ Øª
Ġ192 1
ĠÙĦØŃ ÙħØ§ÙĬØ©
ĠØŃ Ø§Ø¬
ĠØªØª Ø¹ÙĦÙĤ
ĠØ§ÙĦÙħÙĤ Ø§Ø·Ø¹Ø§Øª
ÙĪ ØŃÙĬ
ĠÙģ Ø®
ĠØ£ Ø¨Ø¯
Ø§ØŃ Ùģ
ĠØ§ÙĦÙĤ ÙĪØ§Ø¹Ø¯
ĠØ¬ÙĨ ÙĪØ¯
Ø² ÙĬØ§
ĠØªØŃ ØµÙĦ
ĠØ§Ø³Øª Ø¨Ø¯Ø§ÙĦ
ĠØ§ÙĨ Ø·ÙĦØ§ÙĤ
ĠØ§ÙĦÙĥØ§Ø«ÙĪÙĦ ÙĬÙĥ
ĠØ§ÙĦØ±ÙĤ ÙħÙĬØ©
ĠÙĥ Ø±Ø¨
ĠØ´ Ø¨Ø§Ø·
ĠØ£Ø´ Ø§Ø±
ĠØ§ÙĦÙħ ÙĬØª
ĠØ¯ ÙĬÙĥ
ĠØµ Ø¨
ĠÙĤØ¯ÙĬ ÙħØ§
Ø±ÙĤ Ø§Ø¡
ĠØªÙħ ÙĬ
ĠØ¬ Ø±Øª
ÙĦÙĥ ÙĬ
ĠÙĦÙĦ Ø°
ĠØ§ÙĦØ¨ ÙĪØª
ÙĬØª Ø´
ĠÙĦÙĦØ¹ Ø¯ÙĬØ¯
ĠØ¬ÙĪØ² ÙĬÙģ
ĠØ§ÙĦØª Ø®ØµØµ
ÙĪØ§Ø¯ Ø«
ĠØ§ÙĦØ£Ùĩ ÙĦÙĬ
Ġre f
ĠÙĦÙĦ Ø¨ÙĨ
ÙĪØ§Ø± Ø²Ùħ
ĠØ§ÙĤ ØªØ±ØŃ
ĠØµØ¯ Ø§Ùħ
ĠÙĪØ§ÙĦ ØŃØ±
ÙĥØ± Ùħ
Ùģ ÙĪØ¸
Ùĥ Ø´Ùģ
ĠÙħØ¹ Ø§ÙħÙĦ
Ø¹ÙĦ Ø§ÙĤØ©
ĠØªØ´ ÙĬ
ĠØ¹Ø§Ø¦ÙĦ ØªÙĩ
ĠØ£ ÙĦÙĬ
ĠØ§ÙĦÙħ Ø£
Øº ÙĪÙĦ
ÙĪØ± ÙĩØ§
ĠØ§Ø³Øª ÙĨ
ĠØ§ÙĨØª ØµØ§Ø±
Ø§Ø² ÙĨ
ĠØ² Ø¹Ùħ
Ġ192 3
ĠØ£ÙĦÙħ Ø§ÙĨÙĬ
ĠØ¨ Ø£Ø³
ĠØ§ÙĦØ³ Ø§ØŃØ©
ĠØ§ÙĦÙħØ´ Ø§Ø±Ùĥ
ĠØ§ÙĦØªØŃ ÙĦÙĬÙĦ
ĠØ§ÙĦØªØ¬ Ø±Ø¨Ø©
ĠÙĨØ´Ø£ Øª
Ø£ÙĨ Ùĩ
ĠØ¨Ø¨ ÙĨØ§Ø¡
ĠØ¨Ø§Ø¹ØªØ¨Ø§Ø± Ùĩ
ĠØª ÙĪØŃÙĬØ¯
ĠÙħÙĨ Ø§Ø®
ĠÙĪØ§Ø³Øª Ø®Ø¯Ø§Ùħ
Ø¨ ÙĨØ§Ø¡
ĠØ§ÙĦØ¬ ÙĬÙĪØ´
Ø¦ ÙĦØ©
ĠØ§ÙĦÙĪ Ø§Ø¶
ÙĤØ± Ø£
ĠØ¹Ø´Ø± ÙĬÙĨ
ÙĦÙĤ Ø§Ø¨
ĠÙģ ØŃ
ÙĬÙħ Ø±
Ø§Ø¹ Ùħ
ÙĦÙģ Øª
ĠØ§ÙĦÙĪÙĬ Ø¨
ĠØ§ÙĦÙħØ¹ Ø§ÙĦØ¬
ĠÙĩ Ø±Ø¨
ĠØ§ÙĦØ« ÙĪØ§Ø±
ĠØ¶ Ø§Ø¨Ø·
ĠØª Ø±Ø¨Ø·
Ø§Ùĩ Ø¯ÙĬÙĨ
ĠØ§ÙĨØª ÙĤ
ĠØ¹Ùħ Ùĩ
ĠÙĪÙĨ ÙĤÙĦ
ĠÙĥ ÙĤ
ĠØ§ÙĦÙĤ ÙĪÙħ
ĠØ§ÙĦÙģ ÙĪØ±
ĠØ§ÙĦÙĪØ« Ø§Ø¦ÙĤ
ĠØ¹Ø§Ùħ ÙĬÙĨ
ĠÙĬ ÙĪØ±ÙĪ
ĠÙĤ Ø¶Ø§ÙĬØ§
ĠØ§ÙĦÙħØªØŃ Ø±ÙĥØ©
ĠØªØ·Ø¨ÙĬ ÙĤØ§Øª
ĠÙģ ØŃØµ
ĠØ¨ ÙĬØ²
ĠØ§ÙĦÙģØ± Ø¹
ĠÙĪÙĬÙĤ Ø¹
ĠØ§ÙħØªØ¯ Ø§Ø¯
Ø±ÙĬØ§Ø¶ Ø©
Øµ Ø§Ø¨Ø§Øª
ĠØ§ÙĦØªØŃ ØªÙĬØ©
ĠØ§ÙĦÙĩÙĪÙĦ ÙĨØ¯ÙĬ
Øª Ø¶Ùħ
Ø¯ÙĬ ÙĬÙĨ
ĠØ§ÙĦØ¨ Ø®
ĠÙĪ ÙĪØµÙĦ
ÙĦÙĬ Øª
ĠØ¨ÙĨ Ø¸Ø§Ùħ
ĠØ§ÙĦØ² Ø¬Ø§Ø¬
ĠØ§ÙĦÙħØ³Øª ÙĤÙĦØ©
7 4
o ur
ĠØ¯ Ø±Ø¨
ĠØ§ÙĦÙĪØ² ÙĬØ±
ĠØ§ÙĦØŃ ÙĨ
ÙĪÙģÙĬ ØªØ´
ÙĬ Ø¬Ø¨
ĠÙĪÙĤ Ø¨ÙĦ
Ø£Ø³ Ø³
Ġ25 0
ĠØ§Ø´ ØªÙĩØ±
ÙĪÙĤ Ø¹Ø©
ĠØ§ÙĦÙħÙĤ Ø§Ø¨ÙĦ
ĠØ¨ÙĨ ØŃÙĪ
ĠÙĪ Ø§Ø¯
ĠØ§ÙĦØ£ ÙĦÙģ
ĠØ´Ø±ÙĤ Ø§
i p
Ø¹ ÙĬÙĨØ§Øª
ĠØµ Ø¯ÙĬ
ĠØ£ÙĦÙģ Ø§
e x
9 1
Ø¯ ÙĩØ±
Ġf or
ĠØ§ÙĦ Ø§Ø¬
ĠÙħ ÙģØ±
Ġ192 5
ĠÙĪ ÙĬÙģ
Ø² Ùĩ
Ø³ÙĦ ØŃ
ÙĬØ¹ ÙĪØ¯
ÙĦØ³ ÙĪÙģ
ĠØ§ÙĦØ¥ÙĤÙĦÙĬÙħ ÙĬØ©
ĠØ§ÙĦØ¯ÙĪ Ø§Ø¦Ø±
ÙĬØ³ ÙĪÙĨ
ÙĪØ§Ùħ Ø±
ÙĪØ¶ ÙĪØ¹Ø§Øª
ĠØ§ÙĦÙĥ Ø§Øª
Ø§Ùĥ Ø©
ĠØ¥ÙĨ Ø³Ø§ÙĨ
ĠØ§ÙĦØ£Ø¯ ÙĪØ§Øª
ĠÙĪØ§ÙĦØ« Ø§ÙĨÙĬ
Ø±Ø¬ Ø§Ø¹
Ġ191 4
ĠØ§ÙĦØ´Ø¹Ø± Ø§Ø¡
Î ¿
Ø®ÙĦ Ø§Øµ
Ø±Ø¬ Ø§ÙĦ
ÙĬ ÙħØ§
ĠØ§ÙĦÙħ ÙĬØ¯
ĠØª ÙĪÙĬ
ÙĪÙĦ Ø§ÙĨ
Ø¦ ÙĦ
ØªØŃ ØªÙĪÙĬ
ĠØ§ÙĨ Ø¹
ic e
ĠÙĬ Ø¬ÙħØ¹
ĠÙĤ ÙĬÙĦ
ĠØ¹ÙĨ ÙĩÙħ
ĠØ§ÙĦÙĬÙħ ÙĬÙĨ
ĠÙħØ¹ Ø§ÙĬÙĬØ±
ĠÙĪØ±Ø¯ Øª
Ø§Ø¯ Ø±Ø§Øª
ĠÙĨ Ø§Ùģ
ĠØ§ÙĦØ¨ Ø±ÙĬØ¯
ĠØ¨Ø§ÙĦ Ø¶
ĠØ¹ Ø¸Ùħ
ĠØ§ÙĦØ´ Ø§Ø¨
ØªÙĤ ÙĪÙħ
ĠØ¢Ø®Ø± ÙĪÙĨ
ĠØŃ Ø¸
ĠÙħØ´ Ø§ÙĩØ¯
9 3
a v
ron g
ĠÙħ ØªØ¨
Ø¶Ø± Ø§Ø±
Ø³ Ùī
ĠØ¨ Ø§ØŃ
ĠØ¨Ø¯ÙĪØ± Ùĩ
ĠØ§ÙĦØ´ Ø§Ø±Ø¹
ĠÙĦ ÙĪÙĬ
ĠØ§ÙĦØ³ ÙħØ§
ÙĪØ±ÙĬ Ø³
ĠØ§ÙĦØ§Ø³Øª Ø¹Ùħ
ĠØ£ ÙĬÙĦÙĪÙĦ
ĠØ§ÙĦØ± ØŃÙĦØ©
ĠØ§ÙĦÙĨ Ø³Ø¨Ø©
ĠØ§Ø¹ ØªÙĤØ§ÙĦ
ĠÙĦÙĨ Ø¸Ø§Ùħ
Ø±ÙĬ Ø¹
Ø§Ø¨ ÙĪÙĨ
Ø§Ø¶ Ø¹
ĠØ£Ø´ Ø¬Ø§Ø±
ĠØ³Ø± Ø¹Ø§ÙĨ
ĠÙĤØ¨ ÙĪÙĦ
ĠØ£Ø®Ø° Øª
ĠØ£ØµØ¯Ø± Øª
ĠØ§ÙĦÙĨ Ø§Ø¬
ĠØ³ ÙģÙĨ
ĠØªØŃ ÙĥÙħ
ĠØªÙĬ Ø§Ø±
ĠØ§ÙĦØ¬Ø¨ÙĦ ÙĬØ©
ĠØ§ÙĦØ² ÙħØ§ÙĨ
ĠØ³ ÙĨØªÙĬÙĨ
ĠØ§ÙĦÙĦ ÙĪØ§Ø¡
Ø¹Ø§Ø± Ø¶
ĠØ§ÙĦØ¹ Ø§Ø¯ÙĬ
ĠÙħØ§Ø± ÙĬØ§
ĠÙģ ÙĩØ¯
ĠØ§ÙĦØµ ÙĦØ¨
ĠØ³ÙĨ ÙĪÙĬ
ĠØ§ÙĦØªÙħÙĬ ÙĬØ²
ĠØ¨ Ø¯Ø±Ø¬Ø©
ĠØ§ÙĦØ¥ Ùģ
ĠÙĪØª Ø³Øª
ĠÙħØ¤ Ø®Ø±Ø§
ĠØ¬ÙĨÙĪØ¨ Ø§
ĠÙĪØ£ ÙĩÙħ
Ø³ÙĨ ÙĪØ§Øª
ĠÙĪØ² ÙĪØ¬
ĠÙĬØ¬ Ø±ÙĬ
ĠÙħØŃ ÙĬØ·
ĠØº ÙĬØ§Ø¨
ĠØ§ÙĦÙħÙĨ Ø§Ø²ÙĦ
Ø·Ø± Ø¯
ĠØ¨Ø¶ Ø¹Ø©
ĠØ¨ Ø²
ĠØ£Ùĥ Ø§Ø¯ÙĬÙħÙĬØ©
ĠØ¨ÙĨ ÙĪ
Ùĥ ÙĬØ¯
ĠÙħ ÙĤØ¯Ùħ
ĠÙĪØ§ÙĦØ¯ ÙĩØ§
Ø° Ùĥ
ĠÙħØ¹ Ø§Ø±Ùĥ
ÙĪÙĥ ÙĬÙĪ
ĠØ® Ø²
Ø¹ÙħØ§ÙĦ Ùĩ
ĠØ§ÙĦØ£Ùģ Ø±ÙĬÙĤÙĬ
ĠØ§ÙĦØ¨ÙĬØ² ÙĨØ·ÙĬ
i b
ĠÙĦ ÙĬØ´
ĠÙĨ Ø§Ø¯
ĠØ§ÙĦÙħØ±Ùĥ Ø¨Ø©
ĠØ§ÙĦØ· ÙĪÙĦ
ĠØ§ÙĦØ¬Ø§Ùħ Ø¹ÙĬØ©
ĠØ±Ø³ ÙĪÙħ
ĠØ§ÙĦØ´ Ø¤ÙĪÙĨ
ĠØ§ØŃ ØªÙħØ§ÙĦ
ĠÙĦÙĤ Ø§Ø¡
ĠØ§ÙĦÙħ Ø´Ø±ÙĤ
ĠØ§ÙĦÙħØ¹ ÙĨÙī
ĠØ§ÙĦØªÙĨ ÙģØ³
ĠÙĦØ¯ Ø¹Ùħ
Ø· Ø§Ø¬
ĠÙĬØªÙħ ØªØ¹
ĠÙĥÙĬÙĦÙĪÙħ ØªØ±Ø§
ĠÙħ Ø®Ø±Ø¬
Øµ Ø§Ø¯Ø±
Ø¸ ÙĩÙĪØ±
ĠØº ÙĬ
ĠÙĪØ¥ Ø¹Ø§Ø¯Ø©
Ġ192 9
ĠØªØ¹Ø±Ø¶ Øª
ĠÙĦ Ø§Ø®
ĠÙĩ Ø§Ø¬Ø±
Ø§Ø²ÙĬ ÙĦÙĬ
ĠØ§ÙĦØµ ØŃÙĬØŃ
ĠØ¹ Ø§Ø¦
ĠØª ÙĬØ±
ĠÙĬ Ø±Ø¨Ø·
ÙĪÙĦ ÙĬØ¯
ÙĬÙĦ Ø§ÙĨ
ÙĤØ¯ Ø§Ø±
ĠØªØ¬ Ø§Ø±Ø©
ĠÙħØµØ± ÙĬØ©
ĠÙĨ Ø§Ø±
ĠÙħØ¹ ØªÙħ
ĠÙĬØª Ø¬Ø§ÙĪØ²
ĠÙĦ Ø¹ÙĦØ§Ø¬
ĠÙĬØªÙħ ÙĬØ²
ĠÙĪØ¨ Ø·
ĠØ¨Øª Ø´
ĠØ§ÙĦÙĥ Ø±Ø¯
Ø¨ÙĦ Ø§Ø¡
ĠÙĤØ± ÙĪÙĨ
ĠÙĪ Ø§Ùģ
ĠØ§ÙĦØŃ Ùģ
ĠÙħØ¹ Ùħ
ĠØ§ÙĦÙĩØ§Ø¯ Ø¦
ÙĤ ÙĬØ¯
ĠØ§ÙĦÙģ Ø§Ø·
ĠØ§ÙĦØ± Ø§ØŃÙĦ
ĠØ¬ ÙĬØ¯Ø§
ĠØ§ÙĦØ± ÙĪØ³
ĠØ· Ø§Ø¦Ø±
ĠØ¹Ø´Ø± Ø§Øª
ĠÙĦÙĨ ÙĤÙĦ
ĠÙĬØ¤ Ø«Ø±
ĠØ³ ÙĨØª
ĠØ£Ø¹ ÙĤØ§Ø¨
ĠÙħÙĨÙģ ØµÙĦØ©
ĠØ´Ø§Ø± ÙĦ
Ø¬ Ø¯ÙĬØ©
ĠÙĦØ£ ÙģØ¶ÙĦ
Ø¨Ø¯ ÙĦ
ĠØ¸ ÙĦØª
ĠØŃ ÙĦÙģ
ĠØ§ÙĨØª ÙĩÙī
ĠØ§ÙĦØ§Ø¹ ØªØ±Ø§Ùģ
Ø³Ø·ÙĨØ· ÙĬÙĨÙĬØ©
ĠØ¹ÙĪØ¯ ØªÙĩ
Ø§Ø¯ ÙĬÙħÙĬ
ĠØ§ÙĦÙħØŃ ØªÙħÙĦ
ĠØ§ÙĦÙħØ¹Ùħ Ø§Ø±ÙĬØ©
6 7
ÙĤ ÙĪØ¯
ĠÙĤ Ø§Ø¹Ø©
ĠÙħÙĨ ØµÙĪØ±
ĠÙħÙĦ ØŃ
ĠØ¹Ø§ÙĦÙħ ÙĬØ§
ĠÙĪØ§ÙĦØ« ÙĤØ§ÙģØ©
p x
Ø¨ ÙĪØ±Øº
ĠÙĤ ÙĪÙĦÙĩ
ĠÙħØ¹ Ø§ÙĦÙħ
ĠØ§ÙĦÙħÙĨ Ø®ÙģØ¶Ø©
ĠÙĪØ¹ ÙĬÙĨ
ĠØ§ÙĨØª Ø®Ø§Ø¨
8 1
ĠÙģ ÙĨØ§ÙĨ
ĠØ¨ Ø±Ùĥ
ĠÙĬ Ø¨ÙĤÙī
ĠØ§ÙĦØ¥ Ø¹
ĠØ¨Ø§ÙĦÙĤ Ø§ÙĩØ±Ø©
ĠØ§ÙĦØ³ÙĬÙĨ ÙħØ§Ø¦ÙĬ
Ø¨ Ø«
ĠÙĪ Ø®Ø·
Ø¸Ø± Ø§
ĠØ³Ø±ÙĬ Ø¹
ĠØ§ÙĦÙĤ Ø§Ø¯Ø©
ĠØ± Ø¦
ĠØ§ÙĦÙħÙħ Ø«ÙĦØ©
8 3
ĠÙħ ØªÙħÙĬØ²
ĠÙĨ ØŃ
ĠÙĦÙĦØŃ ÙĥÙĪÙħØ©
ĠÙĤØµ ÙĬØ¯Ø©
ĠÙĦÙĦ Ø§ÙĨØª
Ø§Ø¬ Ø¦ÙĬÙĨ
ĠØ³ÙĨ ØªÙĬ
ĠØ§ÙĦÙĤ ÙĦÙĬÙĦ
ÙĬØª ÙĥÙĪÙĨ
ĠØ§ÙĦÙħØ® Ø§Ø¨Ø±Ø§Øª
ĠØ§ÙĦØ¹ Ø§Ø¯Ø©
ÙĨÙĬ ÙĪÙħ
ĠØ§ÙĦØ¥ÙĨØ¬ÙĦÙĬ Ø²
ĠØ³ Ø§ÙģØ±
Ø§ÙĤ Ø¶
Ġ Ø§ÙĤØªØµØ§Ø¯ÙĬØ©
Ø¯ÙĬ ÙĩØ§
ĠØ§ÙĦÙħØ¹ Ø§ØµØ±Ø©
Ø²ÙĬ Ø§Ø±Ø©
ĠÙĦØ£ Ø³Ø¨Ø§Ø¨
ĠØ§Ø¶Ø·Ø± Ø§Ø¨
Ø¹ÙĬ Ø§ÙĨ
ĠØ§ÙĦØ¹ÙħØ± ÙĬØ©
ĠÙĪØ§ÙĦ Ø¯ÙĬÙĨ
ÙģÙĬ Ø²
ĠØ¶ ÙĪ
ĠØ£ØŃÙĬ Ø§ÙĨ
ĠÙģØ±Ø§ÙĨ Ùĥ
ĠØ¨Ø§ÙĦ Ø¹ÙħÙĦ
ĠÙĥ Ø±Ø¯
ĠØ§ÙĦÙĤ Ø§Ø¶ÙĬ
ĠØ§ÙĦÙħÙĨ Ø§Ø³Ø¨Ø©
ĠÙĦØ¥ Ø¹Ø§Ø¯Ø©
ØµØ¯Ø± Øª
ĠÙĤ Ø§ÙĦØª
ĠØ§ÙĦÙħÙĩ Ø¯ÙĬ
ĠØ§Ùģ ØªØªØŃ
Ø§ÙĦ Ø§Ø³Øª
ĠØ¨Ø¹Ø¯ Ø¯
Ùħ Ø«Ø§ÙĦ
ĠÙĪØ§ÙĦ ØªØµ
Ġ u
ĠÙĬ ØªØ±Ø§ÙĪØŃ
ĠØ§ÙĦØ¬ ÙħØ§ÙĦ
ĠÙĪÙĤ ÙĪØ¹
Ġst rong
ĠØ§ÙĦÙħØ¨ Ø§Ø±ÙĬØ§Øª
ĠØ¨ÙĦØ§Ø¯ Ùĩ
Ø§ÙĦØªÙĩØ§ Ø¨
ĠÙĬ Ø·ÙĦØ¨
Ġ5 4
8 4
ĠØ³ ÙĬÙħ
ĠØ§ÙĦØ¹Ø¶ ÙĦØ§Øª
ĠØ¨ØªÙĤ Ø¯ÙĬÙħ
ĠÙĬ Ø®Ø±Ø¬
ĠÙĪØ§ÙĦØª Ø§Ø±ÙĬØ®
ÙĩÙĬ Ø¦Ø©
ĠØ¥ Ùĥ
ĠØ¹Ø¯Ø¯ ÙĩÙħ
ÙĬÙĦ Ùĩ
ĠØ¨Ø£ ÙĥÙħÙĦ
Ø§ÙĦØ± ØºÙħ
ĠØ§ÙĦØ§ÙĨØª Ø®Ø§Ø¨ÙĬØ©
ĠØ§ÙĦØ® ÙħØ³Ø©
ĠÙħØ¤ Ø³
or g
ĠØ°ÙĥØ± Øª
Ø·Ø¨ÙĬ Ø¹Ø©
ÙĬ Ø¦Ø©
ĠØª ØµÙģ
ĠÙĦÙĦ ØªØ¬
ĠØ¨Ø§ÙĦ Ø³ÙĬ
ĠØ§ÙĦØµ Ø¹ÙĬØ¯
ĠØ®Ø· Ø§Ø¨
ĠØ£Ø³Ø± Ø¹
ĠØ¨ ÙĪØ¨
Ø´ ÙĪ
ĠØ§ÙĦØ±ÙĬØ§Ø¶ Ø©
ĠØºØ§ÙĦØ¨ ÙĬØ©
Øª Ø¯Ø©
ĠÙĦ Ø³ÙĬ
ĠØ§ÙĦÙħ ÙĪÙĤÙģ
ĠØ± Ø¹Ø§ÙĬØ©
ĠØ§ÙĦØ£Ø¯ ÙĨÙī
ĠØ§ÙĦØ¨ÙĬØ²ÙĨØ· ÙĬØ©
Ø®Øµ ÙĬØ§Øª
ĠØ§ÙĦÙħØŃ ÙĪØ±
ĠØ§ÙĦØ¢ ÙĦÙĩØ©
Ġ4 1
ÙĥØ´ Ø§Ùģ
ĠØ¬ ÙĪØ¯Ø©
ĠØ® ÙĦÙĬÙĦ
ĠØ§ÙĦÙħ ÙĪØ±
ĠÙĦÙĦ ØªØ¯
ÙĬØ± ÙĩØ§
ĠØ§ÙĦØªØ± ØªÙĬØ¨
ĠØ¹Ø¯ ÙĨ
ĠØ§ÙĦØ£ ØŃØ¯
ĠØ§ÙĦÙĨ Ø¸Ùħ
Ø¦ ÙĬØ§
ĠØµ ÙĤÙĦÙĬØ©
ĠØ£Ø« Ø¨Øª
ĠÙĪÙĦ ÙĤØ¯
ĠØ£Ø³ ÙĪØ¯
ĠÙĪØª Ø³ÙħÙī
ĠØªØ´ Ø®ÙĬØµ
ĠØ§ÙĦØ¨Ø± ÙħØ¬ÙĬØ§Øª
Ġ4 3
ĠØŃÙħ Øµ
ĠØ§Øº ØªÙĬØ§ÙĦ
ÙĪØª Ø³
ĠÙħÙĥÙĪÙĨ Ø©
ĠØª Ø¯ÙģÙĤ
ĠÙĪØ§ÙĦ ÙģØ±
ĠÙĦÙĦ Ø¨ÙĦØ§Ø¯
ĠØ§ÙĦØµ Ø¨
it y
ĠØªØ¹ÙĦÙĬÙħ Ùĩ
ĠØ§ÙĦØ®Øµ Ø§Ø¦Øµ
ĠØŃ ÙĦÙĤØ§Øª
ĠØ§ÙĦØª ÙĪØ±
ĠØ± Ø§Ùģ
ĠØ± Ø¨Ø¹
ĠØ² Ø§ÙĪÙĬØ©
ÙĪÙĥ Ø§
ĠØ£Ùħ Ùĩ
ĠØ§ÙĦØ£ÙĨ Ø³Ø¬Ø©
ĠØ§ÙĦØ¸ Ø§ÙĩØ±Ø©
Ø§Ùħ Ø³
ĠØ§ÙĦØº ÙĨØ§Ø¡
ĠØ§ÙĦØ¬ÙĨ Ø§ØŃ
ĠØª Ø±ÙĬ
ĠØ§ÙĦØ£Ø´ ÙĥØ§ÙĦ
Ø¤ Ø§Ø¯
ĠÙĪ ÙĪÙĦ
ÙĪÙģ Ø§Ùĥ
ĠØ£Ø² ÙħØ©
Ø¹ ÙĪØ©
ĠÙĪØ¸ ÙĦ
ĠØµ ÙĦØ§Ø©
ĠØ§ÙĦÙĤØ±ÙĨ ÙĬÙĨ
ĠØ·Ø¨ÙĬ Ø¨
ĠÙħ Ø§Ø¦Ø©
ÙĦÙĬ ÙĩØ§
ĠÙħÙĬ ÙĥØ§ÙĨ
ĠØ§ÙĦØŃÙħ ÙĬØ¯
ĠØª Ø±Ø¨
ĠØª Ø¨ÙĬÙĨ
ĠØ¥ÙĨ Ø¬Ø§Ø²
ĠØ§ÙĦØ¬ Ø°
Ø§Ø´ ØªØ±Ø§Ùĥ
ĠØ§Ø¨ ØªØ¯Ø§Ø¡
ĠØ§ÙĦÙħÙĩ Ø§Ø¬Ø±ÙĬÙĨ
ag e
ĠÙĦÙĦ Ø¹ÙĦÙĪÙħ
ÙĪØ² ÙĨ
ĠØ§ÙĦØ²Ø± Ø§Ø¹ÙĬ
ÙĪØ¨Ø± Ø§
ĠÙĪØ§Ø¬ Ùĩ
ĠØ·ÙĪÙĬÙĦ Ø§
ĠØ¨Ø§ÙĦÙħ Ø¹
Øª ØªÙħÙĬØ²
Ùĥ ÙĬÙģ
ĠÙĦÙĦÙħ Ø³Øª
la ss
ĠÙĪØ¹ Ø´Ø±ÙĬÙĨ
ĠÙĬÙĨ Ø¸Ø±
Ġ192 4
ĠØ§ÙĦØ³ Ø¬
ĠØ£ØŃÙĬ Ø§Ø¡
ĠØ¬ Ø¨ÙĩØ©
ĠØ§ÙĦØ¢ Ø´
Ø§Ø± Ø¦
ÙĪØ¶ Ø§Ø¹
ĠØ¥ ØµØ§Ø¨Ø©
ĠØ§ÙĦÙħØª ÙĪØ³Ø·Ø©
or d
ÙĤ ÙĪØ³
Øµ Ø§
ĠØ§ÙĦÙĥ ÙĪÙĦ
ĠØ§ÙĦØ± Ø´ÙĬØ¯
ĠØ± ÙĪØ³
ĠØ§ÙĦØ¬ Ø§Ùĩ
ĠØº Ø§ÙĬØ©
Ø¯Ø± Ø§Ø¦ÙĬØ©
ĠÙĨ ÙĪØ§Ø©
ĠØ§ÙĦÙĩØ§Øª Ùģ
ĠØ¨Ø± Ø¦Ø§Ø³Ø©
Ùį Ùĳ
ĠØ§ÙĦÙģØ± ØµØ©
ÙĤ Ø§ÙģÙĬØ©
Øµ ÙĬØ¯
Ø« Ø§ÙģØ©
ĠÙħÙĪØ¬ Ø©
ĠØ§ÙĦØµÙĦ Ø¨Ø©
ĠØ¨ Ø¢
ĠÙħÙĨ Ø®ÙģØ¶
ĠÙĦ Ø§Ùģ
Ġ #
Ø£ ÙĩÙĦ
ĠØ§ÙĦÙħØ¯ Ø±Ø¨
Ø¶ Ø§Ø¦Ø¹
ÙĪØª Ø©
ĠØ¹ÙħÙĦ Øª
ÙĪØ± Ø§ÙĤ
Ø§Ø³ Ø±
am e
ĠÙĪØ¹ Ø§Ø¯Ø©
ÙĩØ± ÙĬØ©
Ġ192 8
ĠØ§ÙĦÙħØ° ÙĥÙĪØ±Ø©
Ø£ Ø±
ĠØ§ÙĦØª Ø¹Ø±Ùģ
ĠØ¢ Ø¯Ùħ
Ø±ÙĬØ¬ ÙĬØ§
ĠÙĪ ØŃØ±
ĠÙĪÙĥ ØªØ§Ø¨
ĠØ°Ø§Øª ÙĩØ§
ĠØ§ÙĦØ£ÙĨØ¯ ÙĦ
Ø§Ø³ ÙģØ©
ĠØ§ÙĦØ¹ Ø¯ÙĦ
ĠØ§ÙĦÙģØ± Ø§Øº
Ø· ÙĪØ¹
ĠØ§ÙĦØ£ÙħÙĬØ± ÙĥÙĬØ©
ĠØ¹Ø§Ø¯ Øª
ĠÙĩ ÙĥØª
ĠÙĦØª Ø·ÙĪÙĬØ±
ĠØªØ¬ Ø§Ø±ÙĬ
ĠØ§ÙĦØ¹ÙĨ ØµØ±
ac k
ĠØ§ÙĦÙĨØ³Ø¨ ÙĬØ©
ĠØ§ÙĦÙĨØŃ Ø§Ø³
ĠØ§ÙĦØ¨ ÙĬØ±
ĠØ§ÙĦÙĥ ÙĪØ§ÙĥØ¨
Ø¯ Ø§Øª
ĠØ§ÙĦØŃ Ø±ÙĥØ§Øª
ÙĬÙĦ ÙĬÙĨ
ĠÙħØ³ Ø§Ø¡
ĠÙĪØ§ÙĦ Ø§Øª
Øº ÙĨÙĬ
ĠØ´ ÙĬÙĥ
ÙĥÙĦ Ùģ
ĠØ« Ø§ÙĨÙĪÙĬØ©
Ø·ÙĦ Ø¹
ĠÙħØ¤ Ø³Ø³Ø§Øª
ÙħØ§Ùħ Ø§Øª
ØªØª ÙĥÙĪÙĨ
Ġ 00
ĠÙĦ Ø£Ø³
ĠØ§ÙĦØ£Ø¯ ÙĦØ©
ĠØ§ÙĦÙĬØ³ Ø§Ø±
ĠØ§ÙĦÙħÙĨ ÙĤ
ĠØªØ³Øª Ø¹ÙħÙĦ
ĠØ£ Ø·Ø±Ø§Ùģ
ĠØ§ÙĦÙħ Ø³Ø¨
ĠÙħÙĨ ÙĤ
ĠÙĬÙĤ ÙĪØ¯
Ø«Ùħ Ø§ÙĨÙĬ
ĠØª Ø§ÙĬÙħ
ĠØ§ÙĦØ¥ ÙĬÙħØ§ÙĨ
ĠÙĪØ¹ Ø´Ø±ÙĪÙĨ
ĠØ§ÙĦÙħØ¹ Ø§ÙĦÙħ
ĠØ³Ø¨ Ø§ÙĤ
ĠØ§ÙĦØŃÙĤ Ø¨Ø©
ĠÙĪ Ø±ÙĬ
ĠÙĪ ÙĬÙĪ
Ø¸ ÙĩØ§Ø±
ĠØªØ± ØªØ¨Ø·
ĠØ§ÙĦÙħÙĨ Ø§Ø¹Ø©
Ø°Ø§ ÙģÙĬ
ĠØ§ÙĦÙħÙĪ Ø§ÙģÙĤØ©
ĠÙĦØŃ Ùħ
ĠÙĥÙĪÙĦÙĪÙħØ¨ ÙĬØ§
6 4
ĠØ³ ÙĪØ±
ĠÙħØª Ùĥ
ĠÙħ ÙĩØ¯
ÙĪØ¨ Ø§ÙĨ
ØªØ§Ø¨ Ø¹
Ø¬ÙĨ Ø¨
ÙĬØ· Ø§ÙĦÙĬØ§
ĠØ§ÙĦØªØ¯ Ø®ÙĦ
Ùģ Ø¹ÙĬØ©
ĠØ± ÙĬØ¯
ĠØŃÙĥ ÙĪÙħÙĬØ©
ĠÙĤÙĨ ÙĪØ§Øª
ÙĩØ± Ø¬
Ø³Ø± Ø·Ø§ÙĨ
ĠÙħØ³ Ø§Ø¨ÙĤØ©
ĠÙħØ´ Ø§Ø¨ÙĩØ©
ĠØŃØ¯ÙĬØ« Ø§
ĠØ§ÙĦÙħØ·ÙĦ ÙĪØ¨
I I
Ø§Ø³Øª Ø®Ø¯Ùħ
ĠÙĪØ¨ ÙĨØ§Ø¡
ĠÙĪÙĦ ÙĩØ°Ø§
ĠØ£Øµ ÙĪØ§Øª
ĠØ§ÙĦØ´Ø¹Ø± ÙĬØ©
ĠØ¨Ø§Ùĥ Ø³ØªØ§ÙĨ
5 5
Ø£ Ùī
ĠØ³ÙĬ ØªÙħ
ĠÙĩÙĨ Ø§ÙĦÙĥ
ĠØªØŃ ÙĤÙĤ
ĠÙĪØ§Ø³Øª Ø·Ø§Ø¹
ĠØ§ÙĦÙĪØ³Ø· ÙĬ
ĠØ§ÙĦÙħØŃ Ø±
ĠÙħ Ø®Ø·Ø·
Ø£ Ø«ÙĨØ§Ø¡
ØªÙħ Ø«ÙĦ
ĠØ£ Ø¨Ø¯Ø§
ĠÙĪÙĬ Ùĥ
ĠØ¹Ùħ ÙĪÙħ
ĠØ§ÙĦÙĤØ¨ ÙĬÙĦØ©
ĠÙĪØ§ÙĦØ« Ø§ÙĨÙĬØ©
or t
ØªÙĨ Ø§Ùħ
ĠØ§ÙĦÙĪØ² Ø§Ø±Ø©
ĠÙĪØ§ÙĦ ÙģÙĨ
ĠØ² Ø§Ø±
ĠÙĬØ¹ Ø§ÙĨÙĬ
ĠÙħØ¹Ø¸Ùħ ÙĩØ§
Ø´ Ø¹Ø©
ĠÙĪØ¬ ÙĬØ²Ø©
ĠØ§ÙĦÙĪØ¸ Ø§Ø¦Ùģ
ĠÙģ ÙĤØ±
ĠØ¥ Ø³Ø·
ĠÙĥ Ùĩ
ĠØŃ ÙĬÙĪ
Ø§Ø¶ ÙĪÙĦ
Ø§Ø´ Ùħ
ĠØ£Ø¹ ÙĬØ¯
ÙĦÙĬ ÙħØ©
ĠÙĬØ¹ Ø§Ø¯ÙĦ
ĠØªØª ÙĨ
ĠØ§ÙĦØ¨ ÙĪØ³
ÙĪØ¨ Ø§ÙĦ
ĠØ· Ø¨ÙĤ
ĠÙħØ±Ùĥ Ø¨Ø§Øª
Ø³ ÙĦÙħ
ÙĤØ¯ Ø±Ø©
Ø§Ø· ÙħØ©
ĠØ§ÙĦØ® Ø³
ĠØ§ÙĦÙħØ° ÙĥÙĪØ±
ĠØ§ÙĦØ³Ø§ØŃ ÙĦÙĬØ©
ĠÙĪØ³ Ø§Ùħ
Ø¯ Ø±ÙĬØ¨
ĠÙĪ Ø±ÙĤ
Øµ Ø·ÙĦØŃ
ĠÙĥ ÙĪØ³
ĠØ¬ ÙĪØ§ÙĨØ¨
ĠÙħØ³Øª Ø´Ø§Ø±
ĠÙĬØ´ Ø§Ø±Ùĥ
ĠØ³Ùħ ØŃ
ĠØ§ÙĦØ£Ø² ÙħØ©
ĠÙħ Ø·Ø¨
ĠØ³ Ø§
Øº Ø§Ùħ
ĠØ§ÙĦÙĪ ÙĩØ§Ø¨
ĠØŃÙĪÙĦ Ùĩ
ĠØ§ÙĦÙħÙĥØ± ÙħØ©
ĠØ¨ÙĥÙĦ ÙĬØ©
Ø§ØŃ ÙĤ
Ø§Ø¨ÙĤ Ø§Øª
Ġb r
ĠØ§ÙĦØ¹Ø¨ ÙĬØ¯
ĠÙħ Ø®Øª
ĠÙĪØ§ÙĦØ¬ ÙĨÙĪØ¨
ĠØ£ Ø³Ùħ
ĠÙĬ Ø¶Ø¹
Ø±Ùĥ ÙĬ
ĠØ§ÙĦØ® ÙĬØ±
Ø§ÙĦÙħ Ø¹
5 00
ĠØ§ÙĦÙħ Ø§Ø¶ÙĬØ©
ĠØ¥Ø¯ Ø§Ø±ÙĬ
ĠÙħØ§ÙĨ Ø´Ø³ØªØ±
ĠØ§ÙĦØ± Ø§Ø¨Ø·
ĠÙħÙĩ Ø§Ùħ
ĠØ·Ø¨ ÙĤØ§
ĠØ´ Ø±Ùĥ
Ø§Ø² ÙħØ§
ĠÙħØ± Ø§ÙĤØ¨Ø©
ØµÙĬ Ø¯Ø©
ĠÙĪ Ø²ÙĬØ§Ø¯Ø©
ĠØ§ÙĦÙģ ØŃÙħ
ÙĪÙĦØ¯ Øª
ĠÙħ Ø±ÙĬÙħ
ĠØªÙĤ ÙĦÙĬÙĦ
ĠÙĦÙĦÙħÙĨ Ø§Ø·ÙĤ
ĠØ§ÙĦÙħØ·ÙĦ ÙĪØ¨Ø©
ĠØ¯Ø§ ÙĪØ¯
Ø¬ ÙĬØ¨
ĠÙĤ Øª
ĠØ§ÙĦØ² Ø¹ÙĬÙħ
Ø·Ø§Ø¹ Ùħ
ĠØ¨Ø³ÙĬ Ø·
ĠØ§ÙĦÙħØ¬ ÙĦØ©
ĠÙĪÙħØ¹ Ø¸Ùħ
Ġ y
Ø¯Ùħ Ø§ÙĨ
ĠÙħ Ø´Ø±
Ø´ Ø¹Ø§Ø±
ĠØ§ÙĦØ´ Ø§Ø¦Ø¹Ø©
ĠÙģØ±ÙĨ Ø³ÙĬØ©
ĠØ¨ Ø§Ø¯
ĠØ§ÙĦÙĨ Ø³ÙĬØ¬
ĠØ¨Ø§ÙĦØªØ¹ Ø§ÙĪÙĨ
ĠØ§ÙĦÙĥ Ø§Ø±
ĠÙĪØ§ÙĦÙħ Ùĩ
Ø·Ø± ØŃ
ĠØ§ÙĦÙģÙĦ Ø³Ø·ÙĬÙĨÙĬÙĬÙĨ
ĠØ£ÙĪ Øº
ÙģÙĦ Ø§Øª
ĠØ§ÙĦØ±Ø³ Ø§Ø¦ÙĦ
ĠØµØ¹ ÙĪØ¨Ø©
ĠØ¨Ø§ÙĦ ÙħØ³
ĠØ§ÙĦØµØŃ Ø§Ø¨Ø©
ĠØ¨ Ø§Ø±Ùĥ
ÙģÙĬ Øª
ĠØ§ÙĦØªÙĦÙģØ²ÙĬ ÙĪÙĨÙĬØ©
ĠÙĨ Ø§Ø¦
ĠØ§ÙĦØª ÙĥÙĨÙĪÙĦÙĪØ¬ÙĬØ§
ĠØ§ÙĦØµ Ø¹Ø¨
ĠØ§ÙĦÙħØ¹ Ø¨Ø¯
Ùģ ØµÙĦ
ĠØ· ÙĬØ±Ø§ÙĨ
ĠØ§ÙĦØ® Ø´Ø¨
u d
ĠÙĦ Ø¹ÙħÙĦ
ĠØ§ÙĦØ· Ùģ
ĠØ£Ùħ ÙĪØ§ÙĦ
an g
ĠØ§ÙĦØ®Ø± ÙĪØ¬
ĠØ¥ÙĬØ¬ Ø§Ø¯
ĠÙĪØ§ÙĦØ§ÙĨØª Ø´Ø§Ø±
Ø´Ø± ØŃ
ĠÙĪØ¬ Ø²
ĠØ§ÙĦÙħØ¹ Ø§Ø¯ÙĦØ©
ĠØ§ÙĦØ·Ø±Ùģ ÙĬÙĨ
ĠÙĬÙħÙĨ Ø¹
Ø£ ÙĥØ¯
ĠØ§ÙĦÙĨ ÙĪÙħ
ĠØ§ÙĦØ° Ø±Ø©
ĠØ§ÙĦÙħÙĨ Ø§ÙģØ³Ø©
ĠØ§ÙĦØ¨ÙĥØ§ÙĦ ÙĪØ±ÙĬÙĪØ³
ĠÙĪØª Ø¨Ø¹Ø¯
Ø±ÙĬ Ø¶Ø©
ĠÙĪÙĤØ¯ Ùħ
ĠÙĪ ÙĦØ¨
ĠØ§ÙĦØ¢ ÙĦØ§Ùģ
ĠØ§ÙĦÙĨÙĤ Ø§Ø·
ĠØ¨Ø¯ÙĪØ± ÙĩØ§
ĠØ£ Ø¬Ø±ÙĬØª
ĠÙĤ ØªØ§ÙĦ
ĠØ§ÙĦØ² ÙĪØ¬
ĠÙĪØ¹ ÙħØ±
ĠØªØ§Ø±ÙĬØ® Ùĩ
ĠØ§ÙĦØ¨ØŃ ÙĬØ±Ø©
ĠØ¨Ø¬ Ø§Ø¦Ø²Ø©
ĠØªÙĪØ³ ÙĬØ¹
ĠØ§ÙĦÙĥ Ø§ÙĦØ³ÙĬ
Ø´Øª Ø§ÙĦØ©
ÙĪØ§ÙĨ Ø¦
ĠØ§ÙĦØ§Ø¹ ØªØ¨Ø§Ø±
Ø§ÙĤ Øª
ĠÙĦ ÙĬØ¯
ĠÙĩ ÙĨØ¯Ø³Ø©
ĠØ§ÙĦØµ Ø§Ø±
ĠÙĦÙĦ Ø£ÙĨ
ĠØ·ÙĦ Ø§Ø¨
ĠÙĪÙĬ Ø¹Ø¯
ĠØ§ÙĦÙħØ¤ ÙĤØª
ĠÙħ ÙħØ±
ĠØª Ø¨Ø±
ĠØ§ÙĦÙĦÙĬ Ø¨ÙĬØ©
Ø§ÙĦ ØªÙĩ
ĠØ£ÙĬ Ø§Ø±
ĠÙĬØ¹ ÙĦÙħ
ĠÙĤ Ø§Ø¦Ùħ
Ø·ÙĦ Ø§Ø¨
ĠØ³ ØŃØ¨
ĠÙħ ÙĬÙĪÙĨ
Ø§Øª ÙĦØ©
ĠØ¬ Ø¯Ø©
ĠØ§ÙĦØ¬ ÙĩØ§Øª
Ġ5 7
ĠØ£Øµ ÙĬØ¨
ĠØ£Ø¨ÙĪ Ø§Ø¨
ĠØ§ÙĦØ¹Ø§Ùħ ÙĦÙĬÙĨ
ĠØ§ÙĦÙģÙĦ Ø³
ĠØª ØºØ·ÙĬ
ĠØŃ Ø§ÙħÙĦ
ĠØ´ Ø§Ø¨
ĠØ· Ø§Ø¨Ø¹
ĠØ§ÙĦØµÙĦÙĬ Ø¨ÙĬØ©
ĠÙĬ Ø¹Ø±Ø¶
ĠØªØŃ ÙĪÙĦØª
n e
ĠØ¨ÙĨ ÙĬØª
ĠØ¹ÙĦÙħ ÙĬ
Ø¬ÙĦÙĬ Ø²ÙĬ
Ø§Ø¶ Ø±Ø§Øª
an t
ĠØ·Ø± ØŃ
ĠØª ÙĥÙĦÙģØ©
ĠØ§ÙĦØ£ ÙģØ¶ÙĦ
Ø§ÙĦØª Ø¹ÙĦÙĬÙħ
Ġ8 00
ĠÙĪ Ø§ÙĬ
ĠØ® Ùħ
Ùģ ÙĥØ§Ø±
ĠØ¹ ÙħØ§
Ø§Ø¦ Ø±ÙĬ
ĠØ§ÙĦØ¨ Ø§ÙĦ
ĠØ§ÙĦØ± Ø¬
Ø§ÙĨØª ÙĤÙĦ
ÙĪÙħÙĨ Ø°
ĠØ§ÙĦØ¨Ø³ÙĬ Ø·Ø©
Ð ¾
ĠØ¨ Ø¦Ø±
ĠØ¹ÙĦ Ø§ÙħØ§Øª
ĠØ¹Ø± Ø´
ĠØ¨ Ø§Ø³ØªÙħØ±Ø§Ø±
ĠØªØ¹ Ø·ÙĬ
ĠÙħØ¬Ø¯Ø¯ Ø§
ÙĪÙĬ ÙĪØ¬Ø¯
ÙĪØ¹ ÙĨØ¯
ĠØ£ÙĪÙĦ Ø¦Ùĥ
ÙģÙĬ Ø§ÙĨ
Ø¨ Ø§ÙĨÙĬ
ĠØ¨ ÙĪÙĬ
ĠØ¯ ÙĬÙĪØ§ÙĨ
ĠÙħÙĦÙĥ ÙĬØ©
ĠØ§ÙĦØªØ³ Ø¬ÙĬÙĦ
Ø¨ ÙĪØ±
Ø« ÙħØ±
ĠØŃ ØµÙĨ
ĠØ§ÙĦÙħØª ÙĤØ¯ÙħØ©
ĠØ§ÙĦØ¨ Ø«
ĠØ§ÙĦØ¹Ø§Ùħ ÙĦ
ĠØªØ£Ø³ Ø³
ĠØ§ÙĦØª ØºÙĬÙĬØ±
ĠÙĪØ¨ Ø´ÙĥÙĦ
Ø³ Ø®
ĠØ¨ Ø®Ø·
ĠØ¨ Ø¨Ø·ÙĪÙĦØ©
ĠØªÙĦ Ø¹Ø¨
ĠÙħÙĥØ§ÙĨ Ø©
ĠØ¨Ø£ ÙħØ±
ĠØ§ÙĦØ³ÙĪÙģÙĬ ÙĬØªÙĬ
ĠØŃ ØªÙĬ
ĠØ³ Ø§Ø¨ÙĤØ©
ĠØªÙĨØª Ø´Ø±
Øµ Øª
Ø¥ Ø°
ĠØº Ø§Ùħ
ĠØ¬Ùħ ÙĬÙĦ
ĠÙħØ¯ ÙĬØ±ÙĬØ©
ĠØ§ÙĦÙħÙĦ Ø§Ø¨Ø³
ĠØ§ÙĦØ¨Ø±ÙĪØª ÙĬÙĨ
ĠØ± Ø´
ĠØ§ÙĦÙĨ ÙĬÙĪ
ĠØ§Ø¨ Øª
Ø§ØŃØ¸ Ø§Øª
ĠÙģ Ùħ
ĠÙĬ ØµÙģ
ĠØ§ÙĦÙħØ± Ø§ØŃÙĦ
ĠØ§ÙĦÙĩØ± Ùħ
ĠØ¬ ÙĦØ¨
ĠØ¬ Ø°ÙĪØ±
ĠØŃØ± ÙĪØ¨
ĠØ§ÙĦØ£ØŃ ÙĪØ§ÙĦ
ĠØ§ÙĦØª Ø¹Ø±Ø¶
ĠØ¹Ùħ ÙĦÙĬ
ĠØ§ÙĦØŃØ± Ø³
ĠØ¨ Ø¨Ø±
ĠØ³ ÙĬØª
ĠÙħÙĥÙĪÙĨ Ø§Øª
Øº Ø§ÙĨÙĬ
Ø®Ø± ÙĪØ¬
p la
ĠØŃ ÙĤÙĬÙĤÙĬØ©
ĠØ£Ø³ Ø§ÙĦÙĬØ¨
ĠØ§ÙĦØ¹Ùħ ÙĪÙħ
ĠØ§ÙĦÙħ Ø§Ø±
ĠÙĬ Ø°ÙĩØ¨
ĠØ³ ØªØ±
ĠØ£Ø« Ø§Ø±
ĠÙĦØ¥ÙĨ Ø´Ø§Ø¡
ĠØ§ÙĦØ«ÙħØ§ÙĨ ÙĬÙĨØ§Øª
ĠÙĦ ÙĪØ¬ÙĪØ¯
ĠØ§ÙĦØ£ ÙĬÙħÙĨ
ĠÙĩ ÙĬØ¯Ø±
ĠÙĨ ØµÙĪØµ
ĠÙħØ¹ Ø§ÙĪÙĬØ©
ĠØ§ÙĦØ¹ ÙĬ
ĠÙĪØª Ø¹Ø¯
o b
ĠØ£ ÙĪØ¨ÙĦ
ĠØ¬ Ø²ÙĬØ¦Ø§Øª
ØªÙģØ§Ø¹ ÙĦ
ĠØ§ÙĦØ¥ÙĦÙĥØªØ± ÙĪÙĨ
ĠÙĦÙĦ Ø§ØªØŃØ§Ø¯
ĠØ§ÙĦØ³ Ø§Ø¦Ø¯
ĠØº Ø±Ø¨ÙĬ
ĠÙħØ§Ø± ØªÙĨ
Øª Ø³Øª
ĠØ¬ ÙħÙĦØ©
ĠÙĦÙħ Ø¬ÙħÙĪØ¹Ø©
ĠØ§ÙĦØŃÙĥ ÙĪÙħØ§Øª
ĠÙħ ÙĤÙĬØ§Ø³
ØªØ± ÙĤ
ĠØ± ÙĬÙĨ
ĠØ¥Ø³ÙĦØ§Ùħ ÙĬØ©
ĠØª ÙĪØ§Ø¬Ø¯
ĠØªÙħÙĬ ÙĬØ²
ĠØ¹ ÙħØ§ÙĦ
ĠÙĪÙĦ ÙħØ§
Ø²Ø± Ø¹Ø©
ÙĪØ± Ùī
ĠØ§ÙĦØªØŃ ÙĪÙĦ
en s
ĠÙĪ Ø·ÙĦØ¨
ĠØ¹ Ø§ØµÙħ
Ø³Øª Ø§ÙĨÙĬ
ÙĪØ¯ Ø§ÙĨ
ĠØ§ÙĦÙħÙĨ Ø§Ø³Ø¨
Ø¨Ø· ÙĬØ©
ĠØ§ÙĦÙĪ Ùĥ
ĠØ£ÙĨ ØµØ§Ø±
Ø¦ ÙħØ©
ĠØ§ÙĦØ® ÙĦÙģÙĬØ©
ĠØ§ÙĦÙħØ¹ Ø§Ø±Ø¶
ĠØµÙĨ Ø¹Ø§Ø¡
ĠÙģ ÙĤØ§Ùħ
ĠØ± ÙĪÙĬ
ĠÙĤØ± Ø±Øª
ĠØ§ÙĦØ¯ÙĬ Ø§ÙĨØ©
ĠÙĪÙĬÙĤ ÙĪÙħ
ĠÙģ ÙĨÙĬØ©
ĠØ¨ Ø§Ùģ
Ø° ÙĬÙĨ
ĠØŃ Ø±Ø©
ĠÙħØ± Øª
ÙģØ§Øª ÙĬØŃ
Ġf ont
ĠØ¨Ø±ÙĪØª ÙĪÙĥÙĪÙĦ
ĠÙħ Ø¨ÙĦØº
ĠÙĦ Ø§Ø¨
Ø· Ùħ
ĠØ§ÙĦÙħÙĨ Ø·
ĠØ¹Ø¯Ø¯ ÙĩØ§
Ø±Ø¯ ÙĨ
ĠØ³Øª ÙĥÙĪÙĨ
ĠØ§ÙĦÙħÙĩ ÙĨØ¯Ø³
ĠØª Ø¬ÙħÙĬØ¹
ĠØ§ÙĦØ« ÙĨØ§Ø¦ÙĬ
ĠØ§ØŃ ØªÙħ
ĠØ§ÙĦØ·Ø± Ø§Ø²
Ø¨Ø¯ Ø§Ø¹
ĠÙĬÙħ Ø§Ø±Ø³
ĠØ±ÙĬ Ø§Ø¶ÙĬ
Ø³ ÙĦÙħÙĬÙĨ
ĠÙĪØ£ ØŃØ¯
Ø§Ø¶ ÙĦ
Ø²Ø§Ø¨ ÙĬØ«
ĠØ§ÙĦØ¹ ÙĥØ³
ĠØ¯ Ø¨ÙĦÙĪÙħ
ĠØ§ÙĦØ¢ ÙĦØ§Øª
ĠØ´Ø®Øµ Ø§
ĠÙĪØ® Ø§Ø±Ø¬
ĠÙĪØŃØ¯ Ùĩ
ĠÙĪÙĥØ§ÙĨ ÙĪØ§
il l
ÙĦ Ø¹Ø§Ø¨
ĠØ§ÙĦÙĤ ÙħØŃ
ĠØ§ÙĦØ¥ ØŃ
ĠØ«ÙĦØ§Ø« ÙĬ
Ġ191 2
ĠÙħ ÙĬØ«
ĠØ§ÙĦÙħØ³ Ø§Ø±
ĠØ¹ Ø³
ØªØ§Ø¨ Ø¹Ø©
ÙħØ§Ø± Ø³Ø©
i te
ØŃ Ø§Ø±
ĠÙĦÙĦÙħ ÙĦÙĥ
ĠÙĦÙĦØ£ ÙħÙħ
ĠÙħ ÙĦÙĥØ©
ĠÙĬØ´ Ø¹Ø±
Ġ192 7
ĠØ¬ Ùĩ
ĠØ§ÙĦØ¹Ø¯ ÙĪÙī
ĠÙħØ± ØªØ¨Ø·
ĠØ§ÙĦ ÙĦÙħ
Ø§Ø¯ ÙĦØ§Øª
ĠØ¯ ÙĤÙĬÙĤ
ĠØ¯ ÙĤØ§Ø¦ÙĤ
ĠØ´ Ø§Ø¦Ø¹
Ø³Ø¨ Øª
ĠØŃÙĪÙĦ ÙĩØ§
ĠØ£Ùģ ØºØ§ÙĨØ³ØªØ§ÙĨ
ĠØ§ÙĦÙĥØ§ÙĦØ³ÙĬ ÙĪÙħ
ĠØ° Ø§Ùĥ
ÙĨ ÙĪØ¯
ØŃ ÙĥÙħ
ĠØ§ÙĦÙħ ÙĪÙĦ
ĠÙĦÙħ Ø¬ÙĦØ³
ĠØ¹ÙĨØ¯ Ùĩ
ĠÙħÙħ Ø«
ĠØ§ÙĦÙħØ¨ ÙĥØ±
ĠØ£Ø·ÙĦÙĤ Øª
Ġ5 2
ĠÙĬØŃ ÙĥÙħ
ÙĪØ¸ ÙĬÙģ
ĠØ£Ø¨Ø±Ø² ÙĩØ§
ĠÙĪØ§ÙĦ Ø·Ø¨
ĠÙĤ Ø´ØªØ§ÙĦØ©
ĠÙĦÙĦ ÙĤØ±
ĠØ§ÙĦØ¬ Ø§Ø°Ø¨ÙĬØ©
ĠÙģØ± Øµ
ĠØªØ¯ Ø±ÙĬØ¬ÙĬØ§
ĠØ¨ Ø¹ÙĬØ¯Ø©
ĠØ¨Ø¯ ÙĤØ©
ĠØ§ÙĦØªØ±Ùĥ ÙĬØ¨Ø©
ĠØ§ÙĦÙģÙĥØ± ÙĬØ©
Ø¯ Ø±ÙĬØ³
ĠÙĦ Ø³Ø§ÙĨ
ĠÙħÙĨ Ø§Ø²ÙĦ
ĠØ§ÙĦÙħØ¨ Ø§Ø´Ø±Ø©
ĠØªØ¯ Ø¹Ùħ
ĠØ¬Ø± Ùī
Ø¶ Ø§Ø±
ĠØ¨Ø§ÙĦ Ø§ÙĨØª
ĠÙĪÙħÙĨ Ø·ÙĤØ©
ĠØ°ÙĥØ± Ùĩ
ĠØ§ÙĦØ£Ø² ÙĪØ§Ø¬
ĠÙĪ ÙĥØ±
ĠØ§ÙĦØ® ÙĨ
on e
ĠØ§ÙĦØŃØ¶ Ø±ÙĬØ©
i o
ĠØ§ÙĦÙĤ Ø³Ø·ÙĨØ·ÙĬÙĨÙĬØ©
ĠØ¯Ø§Ø® ÙĦÙĬØ©
ĠÙĦÙĦ ÙĪØµÙĪÙĦ
ĠÙĪØ£ ÙħØ±
ĠØ§ÙĦØªÙĨÙģÙĬØ° ÙĬØ©
Ġ Q
ĠØ§ÙĦØ¥ Ø¬Ø±Ø§Ø¡Ø§Øª
ĠÙĪØ£ Ø±Ø³ÙĦ
Ġ4 9
ĠÙħØ² Ø¯
ĠØ§ÙĦÙħØ´ ÙĩÙĪØ±
ĠØ§ÙĦØ£Ùģ Ø§Ø±ÙĤØ©
m ent
ĠØ¨Ùħ ØªÙĪØ³Ø·
Ġ8 4
ĠØ§ÙĦØ§Ø¹ ØªÙħØ§Ø¯
Ø·Ø¨ÙĬ ÙĤØ§Øª
ĠÙĦ Ø¶
ĠØŃ ÙĤÙĦ
ĠÙĦØª Ø®
ĠØ§ÙĦØ¨Ø± ÙĪÙĨ
ĠØªØ¬ Ø¯
al l
ĠØ§ÙĦØŃØ¨ ÙĪØ¨
ĠÙĨ ÙħØ§Ø°Ø¬
ÙĪÙĤ Ø§Ø²
ĠØ§ÙĦÙĤÙĨ ÙĪØ§Øª
ĠÙĪØ§ÙĦØª Ø¹
ĠÙĪÙĤØ§Ùħ Øª
Ø· ÙĩØ§Ø¯
ĠØ§ÙĦÙĥ Ø§Ø±ÙĬ
ĠØ§ÙĦØ® Ø´
Ø¤ ÙĪØ³
ĠØ§ÙĦÙħØ³Øª ÙĪØ·
ĠØ§Ø¨ ØªØ¯
ĠÙĤ Ø±ÙĬØ´
ÙģÙĬ ÙħØ§
ĠØ« ÙĨØ§Ø¦ÙĬØ©
Ø§Ø±Ø§Øª Ùĩ
Ùģ ØªØŃ
ĠØ§ÙĦØ´ Ø±Ùģ
ĠØ§ÙĦ ÙĪØ¹ÙĬ
ĠØ£ ÙĬØ±ÙĦÙĨØ¯Ø§
ĠÙĦÙĦ ÙĪÙĦØ§ÙĬØ§Øª
ĠØ¨Ø§ÙĦ Ø²
ĠØ§ÙĦØ¬ÙħØ§ Ø¹Ø§Øª
ĠØ§ÙĦØª Ø·ÙĪÙĬØ±
ĠÙĦÙĦØ· Ø§ÙĤØ©
Ø¯Ùĩ Ø§Ø±
ĠØ«ÙĦØ§Ø« ÙĬØ©
ĠÙģ ÙĩØ±
ĠØ§ÙĦÙĤ ØªÙĦ
Ø§ØŃ Ø¨Ø©
ÙĬÙĥ Ø³
Ġ192 6
ÙĪØ¯ ÙĪØ±
Ø¬Ø² Ø±
ĠØ§ÙĦØ§ÙĨØª ÙĩØ§Ø¡
Ø¬ÙĬ Ø§ÙĦ
ĠØ§ÙĦØ´ÙĬ ÙĪØ¹ÙĬØ©
Ø¸ ÙĬÙģ
ĠØ§ÙĦØ¬ ÙĪØ§Ø¦Ø²
Ø§ÙĬ ØªÙĩ
ĠØ¨Ø§ÙĦØ¹ Ø¯ÙĬØ¯
ĠÙħ Ø§ÙĦÙĬØ©
ĠØµ ÙĦØ©
ĠØ§ÙĦØ± Ø¤ÙĬØ©
Ø®ÙĦ Ø§ÙĤÙĬØ©
ĠØª Ø§
ÙĪØ§ÙĦ Ø¨
ĠØ§Ùħ Ø§
Ø§ÙĦ ØªØµ
ĠØ§ÙĦÙħ Ø§Ø¯ÙĬØ©
ĠØ§ÙĦØ£ ÙĪØ¹ÙĬØ©
ĠØ§ÙĦÙħÙĨ ØµÙĪØ±
ĠÙħØ± Ø¬
ĠØ§ÙĦØ¶ Ø®ÙħØ©
ĠÙĥ Ø§
ĠÙĨ Ø§ÙĦ
ĠØ§ÙĦØŃ Ø¬Ø±ÙĬ
ÙĪÙħÙĬ Ø¯ÙĬØ§
ĠØªØ® Ø²ÙĬÙĨ
ĠØ§ÙĦØ¥ ÙĬØ¬
ÙĪØ² Ø©
Ø§Ø³ÙĬ ÙĪÙħ
ĠØ±ÙĬ Ø§Ø¶ÙĬØ©
ĠØ£ Ø¸ÙĩØ±Øª
ĠØ§ÙĦØ£ ÙĪØ§Ø¦ÙĦ
Ø±Ø¨ ÙĬØ§
ÙĪÙĦ ÙĩØ§
ĠØ¯ ÙĪÙĤ
Ø¹Ø± ÙģØª
Ø¬Ø¯ ÙĦ
ĠØ§ÙĦØ³ Ø¨Øª
ĠØ§ÙĦÙĤ Ø°Ø§ÙģÙĬ
ÙĪØª ÙĪÙĨ
Ø§Ø±ÙĬ ÙĬÙĨ
ĠØ§ÙĦØªØ´Ø±ÙĬ Ø¹ÙĬØ©
ĠÙĨ Ùħ
Ø¸ Ùī
ĠÙĪØª Ø§Ø±ÙĬØ®
ÙĥØ± Ø±Ø©
ĠØ£Ùħ ØªØ§Ø±
ĠÙĤØ¨ ÙĬÙĦ
ĠÙĪ Ø¯Ø±
ĠØ¨ Ø§ÙĪÙĦ
ĠØ³ ÙĪØ±ÙĬ
ĠÙĪ Ø¯ÙģÙĨ
ĠØ§ÙĦÙħ ÙĩØ¯
ĠÙĥ Ø§Ø³Øª
ĠØ¨Ùħ ØµØ±
Ø¶Ø§ ÙģÙĬ
ĠØ§ÙĦØ§ÙĨØª Ø´Ø§Ø±
ĠØ§ÙĦØ§ØŃ ØªØ¬
ĠØ§ÙĦÙĨØ¨Ø§Øª ÙĬ
Ø§ÙĨ Ø²
ĠÙħØª Ø¹
ĠØ§ÙĦØ§Ø³Øª ÙĤØ±Ø§Ø±
ĠÙĦØ¥ ØŃØµØ§Ø¦ÙĬØ©
ÙħØ¨Ø±Ø§Ø· ÙĪØ±
ĠØ§ÙĦÙĤÙĬ Ø§Ø³ÙĬ
ĠØ§ÙĦØ´Ø¨ ÙĥØ§Øª
ÙĦ Ø±
Ø§Øª Ùħ
Ø· ÙĪÙĬ
ĠÙĨ Ø¯
Ø§Ø³Øª ÙĩØ§
ÙĩØ¯ Ø§Ø¡
ĠØ§ÙĦÙħØ¹ Ø§ÙĬÙĬØ±
Ø²Ø± Ø¹
ĠØ¨ÙĬØª Ø§
ĠØªÙĩ Ø¯ÙĬØ¯
Ø£ Ø¯Ùī
ĠØ£ÙĪ ÙĥØ±Ø§ÙĨÙĬØ§
ĠØ§ÙĦØ±ÙĬ Ùģ
Øª ÙĥÙĪÙĨ
ĠØ§ÙĦÙĤ ÙĪÙĬØ©
ĠÙĦ Ø¯ÙĬÙĨ
ĠØ§ÙĦØ¨ Ø±Ø¨
ĠØ§ÙĨ ÙĩÙĬØ§Ø±
ĠÙĦÙĦ ØªØµ
ĠØ§ÙĦØ¬ ÙĦÙĬ
ĠØ£Ùĥ Ø¯
ĠÙĬØ¹ÙħÙĦ ÙĪÙĨ
ĠÙĦÙĬÙĦ Ø¹Ø¨
ĠØ§ÙĦØªÙĤ Ùī
ĠØ§ÙĦØ«ÙĦØ§Ø« ÙĬ
ĠØ² ÙħÙĦ
Ø¬Ø§Ø² Ø©
ĠÙĦ Ø§Ø³
ÙĪÙħ Øº
ĠØ§ÙĦØ³ ÙĦÙħ
ĠØ³ Ø§Ùĥ
Ø¦ ÙĬÙĦ
ĠØ£Ùħ ÙĪØ±
ĠØªØªÙħ ØªØ¹
ĠØ§ÙĦÙĨÙĤØ¯ ÙĬØ©
ĠØ³ ØŃ
ĠØ§ÙĦØ¹ ÙĬÙĪÙĨ
ĠØ§ÙĦÙģ Ø·
Ø¬ Ø¹ÙĦ
ÙĬØ¯ ÙĬÙĨ
ĠØªØ§Ø±ÙĬØ® ÙĬ
ĠÙĦ ÙĪÙĦØ§ÙĬØ©
ĠÙĪØº Ø§ÙĦØ¨Ø§
6 2
Ø§Ø¹ Øª
ĠØ¹ÙĤ ÙĪØ¯
Ø§Ùģ Ø¦
ĠØ§ÙĦØ´ ÙĪØ§Ø±Ø¹
ĠØ§Ø³Øª ÙĩÙĦØ§Ùĥ
ÙĦØª Ø§
ĠØ± ÙĪÙĥ
ĠØ§ÙĦÙĨ Ø´Ø±
ÙħÙĦ ÙĬØ©
ĠÙĦØŃ ÙĤÙĪÙĤ
ĠØ§ÙĦÙģØ§Ø± Ø³ÙĬ
ĠØ§ÙĦØ±ØŃ Ùħ
ĠÙĬÙĥ ÙģÙĬ
ĠØºØ¶ ÙĪÙĨ
8 2
ÙĬ Ø¯ÙĬ
ĠØ§ÙĦØ® ÙĬØ±ÙĬØ©
ĠØ§Ø³Øª Ø¹ÙħÙĦ
ĠØªÙĤ Ø§Ø±ÙĬØ±
ĠØªØ± Ø§Ø¬Ø¹
ĠØ§ÙĦÙĥØ¨ Ø§Ø±
ĠÙĪØ¶Ø¹ ÙĩØ§
ĠÙħØ±Ùĥ Ø¨Ø©
ĠÙĪØ§Ø¬ ÙĩØ©
ĠØŃ Ø¨ÙĬØ¨
ÙĤØ· Ø§Ø¨
ĠÙĪÙĬÙĤ ÙĪÙĦ
ĠØ³ Ø§ØŃ
ĠØ¨ÙĤÙĬ Øª
ĠØ§ÙĦ ÙĬÙĪ
Ø§ÙĨ Ø¬
ĠÙĦ ÙĬÙĪ
ĠÙĦÙĦ Ø§ØŃ
Ø¨ÙĬ Ø§Øª
ĠØ§ÙĦØ· Ø§ÙĦØ¨
ĠØ¨Ø± ÙĪÙĨ
ĠØ£Ø¯ ÙĪØ§Ø±
ĠØ¨Ø· ÙĪÙĦØ§Øª
ĠØªØ£ Ø®Ø°
Ø§ÙĦØŃ ÙĬØ§Ø©
ĠØ§ÙĦØ£Ø¬ Ø§ÙĨØ¨
Ø±ÙĬ ØªÙĩ
Ø³Øª ÙĨ
ĠØ§ÙĦØ¥ ØŃØµØ§Ø¡
ĠØ§ÙĦØ· ÙĪØ§Ø±
ĠØ¶ Ø®Ùħ
ĠØ£ÙĦ ÙĪØ§ÙĨ
ĠÙģØª Ø§Ø©
ĠØ³Ø¹ ÙĪØ¯ÙĬ
Ø¨ ÙĬØ¯
ĠÙĪØª Ø®Ø±Ø¬
ĠØ± Ø¹
ĠØ§ÙĦØº Ø±Ø¶
Ð ¸
ĠØ¨Ø§ÙĦ ØªØ±
ÙĬÙĥ ÙĪØ³
ĠØ§ÙĦÙħØ¹ÙĬØ´ ÙĬØ©
Ø§ÙĦÙĬ ÙĪÙĨ
ĠØ¨ØŃ ÙĥÙħ
ĠØ£ØŃØ¯ ÙĩÙħØ§
ĠØ§ÙĦØŃØ± ÙĪÙģ
ĠÙħÙĪØ³Ùħ ÙĬÙĨ
ĠÙħÙĨ Ø³
ÙĬÙĨ Ø²
ÙĨØ¯ Ø³ÙĬÙĨ
ĠØ³ÙĦ Ø§ÙħØ©
Ø° Ø¨Ø©
ĠØ¥ÙĨØªØ§Ø¬ Ùĩ
ĠØ§Ø´ ØªØ±
ĠØªØ¨ Ø§Ø¯ÙĦ
ĠØª Ø¨Ø¯ÙĪ
ĠØ¬ ÙĬÙĪØ´
ĠØ§ÙĦØ³ Ø±ÙĬØ©
ĠâĢ ¢
Ø±ÙĬØ· Ø§ÙĨÙĬØ§
ĠÙĦÙĦ Ø¹Ø¨
ĠØ´ Ø¯Ø©
ĠØ¨Ø§ÙĦ Ø¨Ø±
ÙĢ ÙĬ
Ùĩ ÙĬØ¯
ĠÙĪØ§ÙĦØ¥ Ø³ÙĦØ§Ùħ
Ø³ Ø§Ø·Ø©
ĠØ§ÙĦØ²ÙħÙĨ ÙĬ
ĠØ§ÙĦØ³Ø±ÙĬ Ø¹Ø©
ÙĪÙĦ ØªÙĩ
ĠÙĦÙĦ Ø¯ÙģØ§Ø¹
ĠØ§ÙĦØ± Ø¦Ø§Ø³Ø©
ØªØ± ÙĪØ¬ÙĬÙĨ
ĠØ§ÙĦØ³ÙĦ Ø¹
ĠØ³ ÙĦÙħØ§ÙĨ
ĠÙħØ® ØªÙĦØ·
ĠÙħ Ø§Ø³
ĠÙĦØ§ØŃ Ø¸
ĠØ§ÙĦÙĥÙĪÙĬØª ÙĬØ©
ĠÙĬ ØªØ¨
ĠÙĬØª Ø±Ùĥ
Ø± ÙĪ
ĠÙħ ÙĬØ¬
ĠÙĪ Ø¹Ø¶ÙĪ
ĠØŃ Ø¯Ø¯
ĠØ§ÙĦØ® Ø·Ø±
ĠÙħØ± ØªØ¨Ø©
ĠÙĦØ£ ØŃØ¯
ĠØ¹Ùħ ÙĤ
ĠÙĥØªØ¨ ÙĩØ§
ØŃ Ùī
Ø· ÙĪÙħ
ĠØ§ÙĦØ¯ ÙģØ¹
Ø³Ø¨ ÙĪØ±Øº
ĠØªØ¹ Ø§ÙĪÙĨ
ĠØªØ· ÙĪØ±Øª
ĠØ§ÙĦØ¨ØŃ Ø§Ø±
ĠØ¥Ø³ ØŃØ§ÙĤ
Ø£ Ø´
ĠØ®ÙĦØ§ÙĦ Ùĩ
ĠØ¨Ùĥ Ø«Ø±Ø©
ĠØªØ±Ùĥ ÙĬ
Ġ is
Ø¨ Ø³Ø¨Ø¨
ĠÙĤ Ø¶Ùī
ĠØ§ÙĦØªØ¹ ÙĦÙħ
ĠØ§ÙĦÙģØ± Ø¹ÙĬØ©
ĠØ§ÙĦÙħØ¤ÙħÙĨ ÙĬÙĨ
Ø² Ø§Øª
ĠØŃ Ø¸Ø±
ĠÙħ Ø°ÙĩØ¨
Ø¹Ùħ Ø§ÙĨ
ĠÙĬÙĩ ÙĪØ¯ÙĬ
o k
Ø¶ Øª
ĠÙĪØ§ÙĦ ÙģÙĬ
ÙĪØ± Ø³
ÙĬÙĦ Ø¹Ø¨
ĠØ§ÙĦÙħÙĩ Ø§Ùħ
ÙĨ ÙĪ
ĠÙĪ Ø¬ÙħÙĬØ¹
ĠØ¯ ÙģÙĨ
ĠØ§ÙĦØ¬ Ø²ÙĬØ¦Ø§Øª
ÙĤÙĦ Ø¹Ø©
ĠØ§ÙĦØªØ´ Ø®ÙĬØµ
Ø§Ùĩ ÙĬØ±
ĠØ§ÙĦÙĩ Ø§Ø´
Ø¹Ùħ ÙĤ
ÙĥØªÙĦ ÙĨØ¯Ø§
ÙĦ ÙĬÙĨÙĬ
ĠØª ØŃØ¯Ø¯
Øµ Ø±ÙĬ
ĠØ§ÙĦØ³ ÙĪØ±
ĠØ± ÙĪØ§Ø¯
ĠÙħØ± ÙĪØ§ÙĨ
ĠØ§ÙĨØª Ø´Ø±Øª
ĠÙĥÙģ Ø§Ø¡Ø©
ĠÙĪ ÙĪØµÙģ
ØªØ± Ø¬Ùħ
ÙĬØª ÙĩÙħ
ĠÙĦÙĦ Ø§Øª
ĠØ§ÙĦØ¬ ÙĬÙĨØ§Øª
ĠØ§ÙĦØªØ¬ Ø§Ø±
ĠØ¨Ùģ Ø¹ÙĦ
ĠØ§ÙĦÙħ ÙĦÙģØ§Øª
ĠØ§ÙĦØ±Ø¦ Ø§Ø³ÙĬØ©
ĠØ§ÙĦØ¬ ÙĩØ§Ø¯
ĠØ§ÙĦØ´ Ø±Ùĥ
ĠÙĪØ£ Ø®Ø±Ùī
ĠØ¨ Ø¨Ø·
Ø· ÙĬÙĦ
Ø® Ø¨Ø§Øª
ĠØ§ÙĦØ³ Ø§Ø®
ĠØ± Ø§Ø´Ø¯
ĠØ§ÙĦÙģ Ø§Øª
ĠÙĪØª ÙĦ
ĠØ£Ø¯ Ø§Ø©
Ø´ ÙĬØ·
ÙĪÙĦ ÙĬØ³
ĠÙĩ Ø§ÙħØ§
ÙĪÙħ ØªØ±
ĠØ£ÙĪ Ùģ
ĠÙĪØ² ÙĬØ±Ø§
ĠØ§ÙĦÙħÙĤØ¯ ÙħØ©
ĠØ§ÙĦØ¥ Ø¨
Ġ17 0
ÙĤÙħ Ø§Ø±
ĠÙĦÙĦ ÙģÙĨÙĪÙĨ
ĠØ§ÙĦØ¹Ø¨ Ø§Ø³ÙĬ
ĠØ§Ø³ØªÙħØ± Ø§Ø±
ÙĬÙĦ ÙĪ
ĠÙħÙħ ÙĬØ²Ø©
ĠÙĪØ§ÙĦÙĩ ÙĨØ¯
ĠØ¶Ø± ÙĪØ±Ø©
ÙĤ ØµØ©
ĠØ¨Ø¹ ÙĬÙĨ
ĠØ§ÙĦØ¨Ø§Ø± Ø¯Ø©
ĠØ§ÙĦØ¨ Ø·Ø±
ĠØ§Ø³Øª Ø¹Ø§Ø¯Ø©
ĠÙħØ³ ÙĤØ·
ĠÙħ Ø¨ÙĬØ¹Ø§Øª
Ø§ÙĨ ÙĩØ§
ĠØ¯ ÙĪÙħ
ĠØ¬Ø¹ÙĦ Ùĩ
ĠÙĪ Ø¹ÙĦ
ĠØ«ÙĦØ§Ø« ÙĬÙĨ
Ø¶Ø§Ø¡ Ø©
Ø¹ ÙĪØ§
ĠÙĥ Ø§ÙĦÙħ
ĠØ³ ÙħØ§
ĠØ¨Ø¯ Ø¹Ùħ
ĠØ§ÙĦØŃØ± Ùħ
ĠØ§ÙĦØ³ÙĨ ÙĪÙĬ
ĠÙĪÙĬØ³ ÙħÙī
ĠØ¯ ÙĥØªÙĪØ±
ĠØ· ÙĪÙĥÙĬÙĪ
ĠÙĪØª Ø¨
Ùħ Ø§ÙĨÙĬ
ĠØ¨ÙĨ Ùī
ĠÙĪØª Ø¶Ùħ
ĠØ§ÙĦØ´Ùħ Ø³ÙĬ
ĠØ± Ø§Ø³
Ø¬Ø± Ø§Øª
ĠØ§ÙĦØ§Ø± ØªÙģØ§Ø¹
ĠØ¨ ÙĪÙħ
ÙĪØ¨ Ø§ÙĦØªØ§ÙĦÙĬ
ĠØ§ÙĦÙħØŃ ØªÙĪÙī
ĠÙħÙĥ Ø§ÙģØŃØ©
ĠØ´Ø¹ Ø¨ÙĬ
ĠØ¨ÙħØ± Ø¶
ĠØ´Ø¨ ÙĥØ§Øª
ĠÙħØªÙĦ Ø§Ø²ÙħØ©
ĠØ¹ Ø§Ø¯ÙĦ
ĠØ§ÙĦÙħÙĪØ¬ Ø§Øª
ĠÙĥØªØ¨ Øª
ĠØ§ÙĦÙħØ® ØªØµ
ĠØ§ÙĦØ£ ÙħÙĦ
ÙĪØ± Ø§ÙĨÙĬÙĪÙħ
ĠÙħØŃ ÙĪØ±
ĠÙĪÙĬ Ø¨
ĠØ§ÙĦÙħØ± Ø´ØŃ
ĠØ§ÙĦÙĨÙĩ Ø§Ø±
ĠÙĦØ¹Ø¨ Øª
ĠØª Ø±Ø¨ÙĬØ©
ĠØ§ÙĦØªÙĤ ÙĨÙĬØ§Øª
ĠÙĩØ¯Ùģ Ø§
Ø¨Ø§Øª Ø§Øª
ĠÙĬÙģ Ø¹ÙĦ
ĠØ§ÙĦØ§ØªÙģØ§ÙĤ ÙĬØ©
Ø§ÙĦ Ø¨Ø±
ĠÙĩ Ø´Ø§Ùħ
ÙģØ§ ÙĬØ§Øª
ĠØ¯ Ø§Ùħ
ĠØ´ Ø§Ø¦Ø¹Ø©
ĠÙħÙĦ Ø§ØŃØ¸Ø©
Ø§ÙĨ Ø¯Ø±
ĠÙĦ Ø³ÙĦ
ĠØ§ÙĦØŃ Ø´Ø±Ø§Øª
ĠØ§ÙĦØ¯ ÙĪØ§Ø¡
ÙĨØ¨ ÙĦØ©
ĠÙĬ ØŃØ¯Ø¯
Ø¶ Ø§ÙĦ
ĠØ§Ø® Ø±
ĠØ¥Ø° Ø§Ø¹Ø©
ĠØª ÙĦÙģØ²ÙĬÙĪÙĨ
ĠØ§ÙĦÙĩ Ø¶Ùħ
ĠØ§ÙĦØµ Ø±Ùģ
Øª ØºÙĦ
Ø±ÙĬ Ùĩ
ĠÙĨØµ ÙĬØ¨
Ġ http
Ø¨ Ø¤
Ùĥ Ø«
ÙĪØªØ´ ÙħÙĦ
Ø¹ ÙĤØ¯
6 8
ĠÙĪØ¬ Ø§Ø¡
Ġ5 1
ĠØ§ ÙĪ
ĠØ®Ø³ Ø§Ø¦Ø±
ĠØ£ÙĪØ¨ÙĦ Ø§Ø³Øª
Ø§Øª ÙĬÙĨ
Ø§Ø¬ Ø§
ĠÙĩØ¯Ùģ ÙĬÙĨ
ĠØ§ÙĦÙħØ´ ÙĩÙĪØ±Ø©
at a
ĠØ§ÙĦÙĨØ³ Ø®
ĠØ§ÙĦØµ ØŃØ±
ĠØ¥ÙĨ ÙħØ§
ĠÙĪØºÙĬØ± Ùĩ
ØªØ² Ø§ÙĦ
ĠØ¨ Ø§Ø¨ÙĦ
ĠÙĪØ§ÙĦØ£ ØŃ
ØªÙĤ Ùī
ĠØ§ÙĨØ¯ÙĦ Ø§Ø¹
ĠÙĬ ÙĪÙģØ±
ĠÙĦÙĦ ÙģÙĨ
ĠØ¬Ø¯ÙĬØ¯ Ø§
ĠÙħ Ø·Ø±
ÙĬØ¹ ÙĬ
ĠØ£Ø³ ÙĩÙħ
ĠØ§ÙĦØ· ÙĪØ§Ø¦Ùģ
ĠØ§ÙĦÙĩ ÙĪØ§Ø¦ÙĬØ©
ĠÙħØ§Ùĥ Ø³
Ùģ ÙĤØ§ÙĦ
ĠÙģÙĬ ÙĬÙĨØ§
Ø§Ùĩ Ø¬
ĠØ§ÙĦÙħØ¹ Ø§ÙĩØ¯Ø©
ÙĪØ§Ùģ Ø±
ĠÙħÙĨ Ø·
ĠØ§ÙĦØ¥ ØŃØµ
ĠØ¥ÙĨ ØªØ±
ĠØ¹Ø±Ø¶ Ùĩ
ĠÙĪØ§ÙĦÙħÙĨ Ø§Ø·ÙĤ
ĠÙħÙģØª ÙĪØŃØ©
ØŃØ± Ø²
ĠØ¹ÙħÙĦ ÙĩØ§
Ø§ÙģÙĬ Ø§
ĠØ±Ùħ ÙĪØ²
Ï ģ
ĠØ§ÙĦØ¬ ØºØ±Ø§ÙģÙĬØ©
ÙĪÙģ Ø§Ø©
ÙĨÙĬ Ùĥ
ÙĨØª Ø§Ø¦Ø¬
ĠÙħØ± ØªÙģØ¹Ø©
à ¤
ĠØ¯ ÙĦ
ÙĦØ§ ÙģÙĬØ§
ĠØ¨ÙĦ Ø¬ÙĬÙĥØ§
Ø¬ ÙħØ§Ø¹
ĠÙĦÙĦØ£ Ø³Ø±
ĠØ£ Ø³ÙĦ
ĠØ§ÙĦØ´ Ùģ
ĠÙĪÙĦØ§ ÙĬØ§Øª
ĠØ§ÙĦÙĤÙĬ Ø§Ø³
ĠÙĪØ§ÙĨ Ø¶Ùħ
ĠØ¨ ÙĪÙĥ
ĠØ§ÙĦØŃ Ø§ÙĥÙħØ©
ĠØ± ÙĪ
ĠØ§ÙĦÙĪ Ø§ÙĤ
ĠÙĦÙĦÙħ Ø³ØªØ®Ø¯Ùħ
Ø¬Ø¨ Øª
ĠØ§ÙĦØªØ³ Ø¹ÙĬÙĨØ§Øª
ĠØ§ÙĦØ¥ÙĬØ± Ø§ÙĨÙĬ
ĠÙĩ Ø¬ÙħØ§Øª
ĠØ§ÙĦØ¬ Ø¯Ø¯
ĠØ¨Ùħ Ø¹Ø¯ÙĦ
ĠØ¨ÙĬ ÙĪØª
ĠÙĥÙĪÙĨ Øº
ĠØ· Ø¨Ø¹
ĠÙĪØ§ÙĦØª Ø¬
ĠØ¯Ø¹ ÙĪØ©
ĠØ¨Ø¯Ø§ ÙĬØ§Øª
ĠÙĪØ§ÙĦ Ø§ØŃ
ĠØ§ÙĦØµ Ø§Ø¯Ø±
ĠÙħØ´ ÙĩÙĪØ±
ĠØ§ÙĦÙĤØ¯Ùħ Ø§Ø¡
ĠÙĪØªØ´ ÙħÙĦ
Ùħ ÙĪÙĤØ¹
ĠØ¨ Ø§Ùħ
ĠÙĨ ÙĬÙĦ
ĠØ§ÙĦÙĤØ± Øµ
ØŃØª Ø§Ø¬
ĠØ±Ø¬ ÙĦØ§
ĠÙĨ Ø§Ø¯Ø±Ø©
ĠØ· Ø§ÙĦ
Ø¬ÙĦ Ø¨
ĠØ§ÙĦÙħØ¹ Ø¯Ø©
ĠØ§ÙĦØ®Ø· Ø£
ĠÙĦÙĪ ØµÙģ
ĠØ¬Ø¹ÙĦ Øª
Ø°Ø± Ø§Ø¡
Ø² Ø²
ĠÙĪØ§ÙĦ Ø¹Ø±Ø§ÙĤ
ĠØ¬ÙĪØ±Ø¬ ÙĬØ§
Ùģ Ùģ
ÙĪØ± ØºÙħ
ĠÙĨ Ø´Ø·
ÙĪØ³ ÙĬØ¹
ĠØªØ± Ùī
ĠØ§ÙĦÙħØ´ Ø§ÙĩØ¯
Ø¹ Ø¯Ø©
ĠØ¯ Ø§ÙĨÙĬ
ÙĪØª ÙĬØ©
ĠØ§ÙĦØ£Ø³Ø· ÙĪÙĦ
Ø£Ø® ÙĪØ°
ĠÙĦ ØªÙħ
ĠØ§ÙĦÙħ Ø®ÙĦ
Ø±Ø¨ÙĬ Ø¬Ø§ÙĨ
ĠR e
ĠØ¨ Ø¯Ø±Ø§Ø³Ø©
ĠÙĬ ÙĪØº
ÙĪØ³ ÙĬÙĨ
ĠÙħØª ÙĪØ³Ø·Ø©
ĠÙĪØ§ÙĨØª ÙĤÙĦ
ĠÙĦ Ø§Ø¨ÙĨ
Ø£ Ø³Ùħ
ĠØ§ÙĦØ¹ ÙĤÙĬØ¯Ø©
ĠØ§ÙĦØ¬ ÙĦÙĬØ¯
ĠØ§ÙĦÙħØª Ø®ØµØµØ©
ĠØ§ÙĤØªØ± Ø§ØŃ
Ùĥ Ø¨
ĠÙĤ Ø³
ĠØ¢ ÙĦÙĬØ©
ĠÙĦ Ø²
ĠÙĦÙħ Ø¤
ĠÙĪÙĨ Ø´Ø£
ĠØ¨Ø¥ ÙħÙĥØ§ÙĨ
ĠØ§ÙĦÙĩØ§ Ø¯ÙĬ
Ø¹ ÙĩØ§
ØªÙĬ Ø´
Ø¬Ùħ Ø§ÙĦÙĬØ©
ĠØ§ÙĦ Ø§Ø¶Ø·Ø±Ø§Ø¨Ø§Øª
Ø³ ÙĬØ¯
ĠØ£Ø³ Ø¹Ø§Ø±
ĠØ§ÙĦØ³ÙĥØ§ÙĨ ÙĬ
ĠÙħ Ø°ÙĥØ±
ĠÙĪØ§ÙĦ ØªÙħ
ĠØ¨Ø§ÙĦØ¹ Ø±Ø¨ÙĬØ©
ĠØªØ¯ ÙĦ
ĠÙĪØ§ÙĦ Ø§Ø¹
ĠØ§ÙĦØ´ Ø§ÙģØ¹ÙĬ
ĠØ§ÙĦØ¬Ø¯ Ø§Ø±
ĠØ± Ø¶Ø§
ĠØ§ÙĦØ¬ Ø±ÙĬÙħØ©
ĠØ§ÙĦÙħØŃ Ø§ÙĥÙħ
7 1
ÙĨ Ø§Ø¯ÙĬ
ĠØ± ÙĪØ§ÙĬØ§Øª
ĠØ§ÙĦØ£Ùħ ÙĬØ±Ø©
ĠØ£Ø¯ ÙĨÙī
a in
ĠÙĬ ÙĦØª
ĠØ§ÙĦØ³ ØªØ©
ĠØ§ÙĦØ¨ ÙĪØ±
ĠØ¨Ø§ÙĦ ØªÙĨ
ĠÙħÙħ ÙĬØ²
ÙĤØª Ø§ÙĦ
Ø§Ø± Ø¯Ø©
ĠÙģØ£ ØµØ¨ØŃ
ĠÙĤ ÙĬØ³
Ø¯ÙĬ Ø§Ø¯
Ø§Ùĩ ÙĪ
ĠÙħØŃ Ø±ÙĥØ§Øª
ĠÙĪØ§ÙĦÙĦ ØºØ©
ÙĩØ±Ø¬ Ø§ÙĨØ§Øª
ĠØ§ÙĦ Ø§ÙĦØª
ĠØ¨ÙĬ Ø¶Ø§Ø¡
ĠÙĪØ§ÙĦ ÙĦÙĩ
ĠÙĪØ£ Ø±
ĠØ§ÙĦØ¨Ø± ÙħØ¬Ø©
ÙĤØ§ÙĦ Ø§Øª
ÙĪØ« ÙĬÙĤ
ĠØ®ÙĦÙģ ÙĬØ©
ĠØ¬ Ø§Ø¨Ø±
Ø¯Ø± Ø§Ø¬
ĠØ¨ØŃ ÙĤ
ĠØ¨ÙĤ ØªÙĦ
ĠØªÙģ ÙĪÙĤ
ĠØ¯ÙĬØ² ÙĨÙĬ
Ùħ ÙħØ§
Ø§ÙĦ Ø¯ÙĬÙĨ
ĠÙĪØ§ÙĦ Ø®Ø¯ÙħØ§Øª
ĠØ§ÙĦØ³ Ø§ÙĤ
ĠÙĪØ£ ØŃÙĬØ§ÙĨØ§
ÙĬ ØŃØªÙĪÙĬ
Øª Ø¹Ø¯Ø§Ø¯
ĠØ§ÙĦÙħ Ø¨Ø±
Ø² Ø§Ø¡
ĠØŃ Ø§Ø±Ø³
ĠØ§ÙĦØª Ø§Ø³Ø¹Ø©
ĠØ§ÙĦØŃ Ø¬Ø§Ø¬
ar t
ĠØ§ÙĦÙĨÙĤ Ø§Ø´
ĠØ§ÙĦØ¬ÙħØ§ Ø¹ÙĬØ©
ĠØ¹ Ø¸ÙĬÙħ
ĠØ§ÙĦÙĥ Ø§Ø¨
ĠÙĦÙĩ ÙħØ§
ĠØ¹Ø±Ø¶ Ø©
ĠU n
ĠØ§ÙĦØ£ÙħÙĨ ÙĬØ©
Ġ11 0
ĠØ³Ùħ ÙĬØ«
ĠØ§ÙĦØ®ÙĦ ÙģÙĬ
6 9
7 8
ĠØ³ Ø±ÙĬØ©
ĠÙĨ ØŃÙĨ
ĠÙĬØŃ ÙĤÙĤ
ĠØ§ÙĦÙħÙħ ÙĬØ²Ø©
Øº Ø¯
Ø³Øª Ø§
Ø§ÙĦÙħ ÙĪ
Øª ÙĨØ§
ĠØª Ø®Ø·ÙĬØ·
ĠØŃ Ø§Ø²
ĠÙĦÙĦ Ø¨ØŃØ«
ĠÙĩ Ø§Ø¦ÙĦØ©
ĠØ§ÙĦØ¨Ø±ÙĪØª ÙĬÙĨØ§Øª
ÙĪØ§Øª Ùģ
ĠØ§ÙĦØ¯Ø± Ø§Ø³ÙĬØ©
Ø±Ø¨Ø¹ ÙĬÙĨ
ĠØ§Ø± ØªÙĥ
ent er
Ø² Ùī
Ø§Ø¦ Ùĥ
ĠØ§ÙĦØ¬ Ø³
Ø±Ø§ØªÙĬØ¬ ÙĬ
ĠØ§ÙĦÙħ ØµØ±
ĠÙĬ Ø¯Ø±Ø³
ĠØ¹ÙĨØ¯ ÙĩØ§
ĠØ¯ÙĪØ± Ùĩ
ĠÙħ Ø²ÙĬØ¬
ĠÙĦ ÙĥÙħ
ĠØ§ÙĦØ® Ø·Ø©
ĠØ¨ÙĨ Ø¬Ø§ØŃ
ÙĬØ¹ ØªÙĤØ¯
ĠØ§ÙĦØº Ø¯Ø©
Ø§ÙĦØª ÙĤ
ĠØªÙģ Ø§ØµÙĬÙĦ
ØŃ Ø«
ĠØ§ÙĦÙĪ Øµ
ÙĪÙĨ Øª
ÙĪØ¯ÙĬ ÙĪ
ĠÙĬ Ø´Ø§Ø±
ĠÙĦÙĦ ØªÙĤ
Ø§ÙĤ Ùĩ
Ø§Ø« ÙĦ
ĠØ£Ø¹ ÙĦØ§Ùĩ
ĠØ¥Ø³Ø· ÙĨØ¨ÙĪÙĦ
ĠØ§ÙĦØª ÙģØ³ÙĬØ±
ÙĪØ¶ Ùī
ĠÙĬØ± ØªØ¨Ø·
ĠÙħÙĥ Ø¹Ø¨
Ø§Ø²ÙĬØº ÙĬØ©
ĠØ£ Ø¸ÙĩØ±
ĠÙħÙĨ Ø·ÙĤ
ÙĥØªØ¨ Ø©
ĠÙħÙĨÙģ ØµÙĦ
ĠÙħÙģØª ÙĪØŃ
ĠØŃ ÙĨ
ĠØ§ÙĦØª Ø®ÙĦØµ
Ø§Ùĥ ÙĩØ©
ØºØ± Ø§Ø¯
ĠØ¨ÙĪ Ø§Ø¨Ø©
Ø§Ø±Ø¯ ÙĪ
7 2
ĠØ§ÙĦØ¬ ÙĩÙĪØ¯
ĠØ§ÙĦÙħØŃ Ø§ØµÙĬÙĦ
ĠÙģ Ø¤Ø§Ø¯
ÙģØ± Ø¯Ø©
ĠØ§Ùħ ØªØµØ§Øµ
Ø§Øª Ø§
ĠØ¥ ØªØ´
ĠØ£ÙĪ Øª
ĠØªØ³ ÙĦÙĬÙħ
ĠÙĨÙĤ Ø§Ø´
Ġ æ
ÙĪ Ø¥Ø°Ø§
Ø· ÙĬØ©
ĠÙĦÙĦ ÙħØ¯
ĠØ§ÙĦØ§Øµ Ø·ÙĨ
5 4
ĠØ§ÙĦ ÙĦØ§
Ø¨ Ø²
ÙĤ Ø±ÙĬØ©
ĠÙģ ØŃØ³Ø¨
Ø¶Ø¹ Ø§Ùģ
ĠØ£Ø« ÙĬÙĨØ§
ĠØºØ±Ø¨ Ø§
ÙĤÙĨ Ø§Ø¹
ĠÙĥ ØªÙĦ
ÙĬØ¨ Ø§
ĠÙħÙĤØ± ÙĩØ§
Ø´ Ø§ÙĦ
ĠØ§ÙĦØ£ ÙĩÙħÙĬØ©
Ø§Ø¯ ÙĪØ±
ĠÙĪØ¬ Ø§ÙħØ¹Ø©
ĠØ¬ÙħÙĬØ¹ ÙĩØ§
Ø§Ø¸ Ùħ
ĠÙĪÙĬÙĦ Ø²
ĠØ¨ ÙĪØ¯
ĠØ§Ø³Øª ØºÙĦØ§ÙĦ
ĠÙĦØ¥ Ø¯Ø§Ø±Ø©
ĠØ§ÙĦÙĪØ§Ø¶ ØŃ
ĠØ¥ ÙħØ§Ùħ
ĠØ§ÙĦØ£ÙĨ Ø§Ø¶ÙĪÙĦ
ĠØ§ÙĦØ§Ø® ØªØ¨Ø§Ø±
ĠÙĪ ÙĦÙĥ
ĠØ§ÙĦÙģ Ø±Ø§Øª
ĠØ§ÙĦØ£ÙħØ± Ø§Ø¡
ĠØ£Ø±Ø§Ø¶ÙĬ ÙĩØ§
c t
ĠØ§ÙĦØ³Ùħ Ø§ØŃ
ĠØ§ÙĦÙħ ÙĬÙĨØ§Ø¡
ÙĬØ² ÙĬ
ØªØ¯ Ø§Ø¯
Ø¨Ø¹ Ø§Ø«
Ø¨Ø§ÙĦ Ø±ØºÙħ
ĠÙĪØ§ÙĦØ´ Ø¹
ĠØŃ Ø±ÙĥØ§Øª
ĠØ¨Ø§ÙĦ Ø£Ø³
Ø§Ùĥ ÙĬÙĨ
Ø¸Ø± ÙĪÙģ
ÙĪ Ø£ÙĨ
ÙĪÙģ ÙĪ
ĠØ¨ÙĨ Ø´Ø±
ĠÙĪØ£ ÙħØ§
ĠØªÙĨ ÙĤÙĦ
Ġc lass
Ø¬ Ø§Ø¹Ø©
ĠÙĨ Ø§ÙĨ
ĠØ· Ø§Ø±ÙĤ
ĠÙħØª Ø®ØµØµØ©
ĠØ§ÙĦØ¹ÙħÙĦ Ø©
ĠÙħÙĨ Ø§ØµØ¨
ĠÙĨ Ø³Øª
Ø¨Ø¯ Ø¡
ÙģØ± Øº
Ø¯Ùĩ ÙĪØ±
ĠØ§ÙĦØ§ÙĨØª Ø¯Ø§Ø¨
N A
ĠØ§ÙĦØ£ ÙĬØ³Ø±
ĠØ§ÙĦØ³ ÙĦØ©
ĠØ§ÙĦÙĤ ÙĪÙĬ
ÙĪØ· ÙĨÙĩ
ĠØ§ÙĦÙĩÙĪÙĦ ÙĨØ¯ÙĬØ©
o v
ĠÙħØŃ ÙħÙĬØ©
ĠÙĦÙĦ ØŃØ±
Ø§Ø« ÙĬÙĦ
ĠØ§ÙĦØ§Ø³Øª ÙĬÙĦØ§Ø¡
ĠØ£Ø¯ Ø®ÙĦ
ĠØ¹ Ø²ÙĦ
Ø§Ùĥ Ø§Ø©
ĠP ro
ĠØªØ¬ Ø§Ø±Ø¨
ĠÙĦÙĦÙĨ Ø¸Ø§Ùħ
Ø²Ø§ ÙĬØ§
ĠÙĪØ§ÙĨØª ÙĩØª
Ùħ Ø§Ø¶
Ùģ Ø±ÙĬ
ĠÙĪØ§ÙĦ Ø§ÙĤØªØµØ§Ø¯ÙĬØ©
ÙĬÙħ ÙĬÙĨ
ĠÙĪØ§ÙĦØ£ Ø¯Ø¨
ĠÙħØ¤ Ø´Ø±
ĠÙĬÙĪÙħ ÙĨØ§
ĠØ§ÙĦØ¨Ø±ÙĬØ· Ø§ÙĨÙĬÙĬÙĨ
Ø£ÙĦÙģ Øª
ĠØ¨ ÙĤØ¯Ø±
ĠØ§ÙĦØª ÙĪ
ĠÙĨ ÙĩØ§
Ø§ÙĦØª Ø³ÙħÙĬØ©
6 3
Ùħ ÙĪØª
Ø· Ø§ÙĦØ¨
ĠØ§ÙĦØ° ÙĩØ§Ø¨
ĠÙĦÙĦØ¥ Ø´Ø§Ø±Ø©
Ø£ Ø¯
ĠÙĪ Ø§Ø²
ĠØ¬ÙĨ Ø¨Ø§
ĠØ§ÙĦØªØ± Ø¯Ø¯
ĠØ§ÙĦØ®Ùħ ÙĬØ³
ĠÙĥ Ø§Ø²
ĠØŃ Ø§Ø±
ĠÙĪØª Ø¨ÙĦØº
Ø¯Ùħ Ø´ÙĤ
ĠØ§ÙĦÙħØŃ ÙĦÙĬÙĬÙĨ
ĠØ§ÙĦÙħØ± ÙĪØ±
ĠØ§ÙĦØ³ÙĪÙģÙĬ Ø§ØªÙĬ
ĠÙģ Ø§Ø·ÙħØ©
ĠØ¨Ø± ÙĪÙĥ
Ø®Ø¨ Ø§Ø±Ø§Øª
ĠØ§ÙĦÙĤ Ø³
ĠÙĪØ¨ Ø³Ø¨Ø¨
ĠÙĬØª Ø¹Ø±Ø¶
ĠÙģØ¹ Ø§ÙĦ
ĠØ§ÙĦØ£ÙĨ ÙĩØ§Ø±
ĠÙĦÙĦØŃ ÙģØ§Ø¸
ĠÙħÙĪÙĤØ¹ ÙĩØ§
ĠØ§ÙĦÙģÙĬØ²ÙĬ Ø§Ø¦ÙĬØ©
ĠØ§ÙĦÙĥ ÙĪÙĥØ¨
Ø§Ø¶ Ø±Ø©
ĠØ¬Ùħ ÙĬÙĦØ©
ĠÙĦØ¯ ÙĪÙĦØ©
ĠØ§ÙĦÙģÙĬØ±ÙĪØ³ Ø§Øª
Ø§ ÙĪÙģ
ĠÙħ Ø®ÙĦ
ĠØŃ ÙĬÙĪØ§ÙĨØ§Øª
ĠØºØ± Ø§Ø±
Ùĥ Ø§Ø³
ĠØ§ÙĦÙĨ Ø§Øµ
ÙĬØ¹ ÙħÙĦ
ĠÙħÙĪØ³ ÙĬÙĤÙĬØ©
ĠØ§ÙĦØª ÙĪØ§Ø²ÙĨ
ĠÙħÙĤ ÙĬÙħØ©
ÙĪÙĦ ÙħØ§
ĠØ§ÙĦÙħØ¯ Ø®ÙĦ
Ø¨Ø±Ø§Ø· ÙĪØ±ÙĬØ©
Ø§Ùħ ØŃ
ĠÙħØ¹ ØªØ¯
ĠØ³Øª Ø§ÙĦÙĬÙĨ
Ø§ ÙĬØ§Øª
ĠØ§ÙĦÙħ ÙħØ±
ĠÙħÙĤ Ø§Ùħ
y p
Î ½
ĠÙĪØ± ØºÙħ
ĠÙĪØ¥ Ø¯Ø§Ø±Ø©
ĠÙĪØ¯ Ø¹Ùħ
ĠØ§ÙĦÙħÙĪØ¸ ÙģÙĬÙĨ
ĠØµ ÙģØ©
ĠØº Ø±ÙĬØ¨
ÙģØ± Ø§Øª
ÙĪÙĦØ§ ÙĬ
ĠØ§ÙĦØ¹ ÙĬØ´
ÙĬÙĦ Ø§Ø¯
Ø§Ø® Øª
ĠØªÙĥÙĨ ÙĪÙĦÙĪØ¬ÙĬØ§
ĠØ¨ Ø±Ø¨
ĠØ§ÙĦØŃ ÙĦÙĬØ¨
ĠØ§ÙĦØ° Ø±ÙĬØ©
ĠØ¶ Ø¨Ø§Ø·
ĠÙĪØŃØ¯ ÙĩØ§
ĠØ§ÙĦØ¥ÙĨØ³ Ø§ÙĨÙĬ
Î ¹
ĠÙħ Ø®Ø·
ĠØ§ÙĦØ£ Ø±ÙĤØ§Ùħ
ĠØ± Ø¬Ø¨
ĠØ§ÙĦØ¬ Ø¨
e b
ĠØŃ Ø°Ùģ
Ø§Ùģ ÙĦØ©
Ø§Ùĥ ÙĬØ©
ĠÙģØ¹ Ø§ÙĦÙĬØ©
ÙĬ ÙĩØ§
ĠÙĪØ§ÙĦ ØªÙģ
ĠÙĨ Ø²ÙĦ
ĠØ¯ Ùĩ
ÙĤÙĦ Ø§Ø¹
Ø¹Ø¯ Ø§Øª
ĠØ· Ø§Ø¦ÙģØ©
ĠÙĬÙĨ ØªÙĤÙĦ
ĠØªÙĨ ØªÙĩÙĬ
ĠÙĬÙĥÙĪÙĨ ÙĪØ§
ĠØ£Ø´ Ø¯
Ġ191 6
ĠØ§ÙĦØ¯Ø³Øª ÙĪØ±ÙĬØ©
Ø§ÙĦ ÙģØ©
ĠØ¨ ÙĥÙĪÙĨ
ĠØ¹ Ø§Ø²
ĠØ§ÙĦØª ÙĪØ³Ø¹
ĠÙĤ ÙĦØ©
Ø§Ùģ ÙĦ
ĠÙĪØ¬ Ø±
ĠØ¨Ø§Ø³Ùħ Ùĩ
ĠØ§ÙĦØ³Ø¨Ø¹ ÙĬÙĨØ§Øª
ĠØ¨ÙĤ ÙĬÙħØ©
e w
ĠÙĨ ÙĬØ¬
Ø§ØŃ Øª
ĠØ· Ø¨ÙĬØ©
Ø£ÙĬ Ø¶Ø§
ĠÙĤØ¯Ø± ÙĩØ§
Ø§Ø± Ø¹Ø©
ĠØ§ÙĦØºØ° Ø§Ø¦ÙĬ
Ø§Ø¨ ÙĬØ±
ĠÙħØ´ Ø§Ø¨Ùĩ
ĠÙħÙĦÙĥ Ø§
ĠØ§ÙĦØªØ£ ÙħÙĬÙĨ
ĠÙĦØªÙĤ Ø¯ÙĬÙħ
ĠØ§ÙĦÙħ Ø³ÙħÙī
ÙĦÙĬ Ø¬
ĠÙĦÙĦ ØºØ©
ĠØ´ Ùģ
ÙĨÙĬ ÙģØ©
ĠØ·ÙĪÙĦ ÙĩØ§
ĠÙĥ ÙĦÙģ
ĠÙĥ Ø±ÙĬÙħ
ĠØ§ÙĦØ£ ÙĦÙĬØ§Ùģ
ĠÙĦÙĦØ´ Ø±ÙĥØ©
ĠÙĦØ± Ø¦ÙĬØ³
h a
ĠÙĬÙħÙĥÙĨ Ùĩ
ĠØ¬Ø¯ Ø§Ø±
ĠØŃ Ø¯Ø©
ĠØ§ÙĦÙĨ ÙĤÙĬ
ĠØ§Ø² Ø¯Ø§Ø¯
ĠØ§ÙĦØ´Ùĩ ÙĬØ¯
ĠÙħ ÙĪÙĩ
ĠØ§ÙĦØµ ÙĦØ©
ĠÙĪØ§ÙĦØ³ÙĬ Ø§Ø³ÙĬØ©
ĠØŃ ÙģØ±
ÙĦÙĬ ÙģØ©
ÙĪÙĤ Ø§
ĠØ¨Ø± Ø§ÙĪÙĨ
ĠÙĥØªØ§Ø¨ Ø§Øª
ĠØ§ÙĦØ¹Ø¯ Ø§ÙĦØ©
ÙĪ Ø§ÙĨÙĬØ©
ĠØ´ Ø±ÙĬØ·
ĠÙĪØ£ Ø¹
ØªØŃ Ø§Ø¯
ØªÙĦ Ø§Ùĥ
ĠØ¨ØŃ Ø§Ø¬Ø©
ĠØ§ÙĦÙħÙĪ ØŃØ¯
ĠØ§ÙĦØ¥ÙĦÙĥØªØ± ÙĪÙĨØ§Øª
Ġ ?
ĠÙĪ Ø¬ÙħØ¹
ĠØ° Ø§ÙĥØ±Ø©
ĠØ§ÙĦÙĦ ÙĤ
ĠÙħØª ØªØ§ÙĦÙĬØ©
ÙĪØ§ÙĦ Ø¯Ùĩ
ĠÙĪÙĦÙĬ Ø§Ùħ
Ø· Ø±ÙĬÙĤØ©
ĠØ´ ÙĬÙĨ
Ø¨ÙĬ ÙĪÙĨ
ÙĪØ§Øª ÙĬ
ĠØªØª Ø¬Ø§ÙĪØ²
ĠØ¨Ø¥ Ø¹Ø§Ø¯Ø©
ĠÙĪ ÙĪØ±
ĠÙĪØ¨ ÙĩØ§
ĠØ¹Ø¶ ÙĪÙĬØ©
ÙĤ Ø§Ø¦ÙħØ©
ĠÙħ Ø¨Ø±
ĠØ§ÙĦÙĥ Øª
ĠÙĪØ§ÙĦØ« Ø§ÙĦØ«
Ø§ÙĦ Ø¥ÙĨ
ÙĦÙĬ ÙĪÙħ
ĠØ§ÙĦÙĥ ØŃÙĪÙĦ
ÙħÙĨ Ø§
ÙħØ¯ Ø§Ø¯Ø§Øª
ĠØ¬ÙĨ Ø§ØŃ
ĠØ§ÙĦÙħØ² Ø¯
Øª ÙĪÙĦÙī
ĠØ² ÙħÙĬÙĦ
ĠØ® ÙģØ¶
ĠÙĦÙĦ Ø¨ÙĬ
ĠØ¯ÙĬÙĨ Ø§Ø±
ĠØ³ ØªÙĬÙĨ
ĠØ¬Ø± Ø§Ø¡
ĠØ§ÙĦØ¹ ÙĤÙĦÙĬØ©
ĠØ§ÙĦØŃ ÙĪØ§Ø±
ÙħÙĦ Ø¹Ø¨
ĠØ§ÙĦÙħØ´ Ø§Ø©
ĠØ§ÙĦØ¨Ø§ØŃØ« ÙĪÙĨ
ĠØµ ØŃÙĬØ©
ĠØ¹ØµØ± Ùĩ
ĠØ§ÙĦÙħØ¤Ø±Ø® ÙĪÙĨ
Ø´ÙĩØ¯ Øª
ĠÙĦÙĦØªØ¹ ÙĦÙĬÙħ
ĠØ§ÙĦÙģ Ø§Ø¹
ĠØ§ÙĦÙħÙĨ ØŃ
ĠÙħØµ Ø§ÙĦØŃ
ĠØ±ØŃ ÙĦØ§Øª
ĠØ¬ ÙĬØ¨
ĠØ´ Ø§Ø´Ø©
ĠÙħØ³ ÙĬØ±Ø©
ĠØªØ¬ Ø±ÙĬ
ĠØ³ÙĬÙĨ Ø§Ø¡
ĠØª Ø®ÙĦ
ĠØ§ÙĦØ´ Ø§Ø´Ø©
ĠØ³ÙĨ ÙĬÙĨ
ĠÙħÙĪ Ø«
ÙĦ ØŃ
Ø¬Ùħ ÙĪØ¹
ĠÙĪÙħ ÙĤØ±
ĠØ§ÙĦÙħØ³ Ø§Ø¦ÙĦ
ĠÙħÙĬÙĦ Ø§Ø¯ÙĬ
ĠØ§ÙĦØ¨ Ùĩ
Ø³ÙĬ ØŃÙĬ
Ø·Ø¹ ÙħØ©
i an
Ø¨ ÙĤÙĬ
Ø³ÙĬ ØŃÙĬØ©
ĠØ§ÙĦÙĩ ÙĪÙĬØ©
ÙĪØ¶ ÙĪØŃ
ØªÙģ Ø§Ø¡
ed ia
ĠÙĥ ÙħÙĨ
ÙĬØ± Øª
ĠØ§ÙĦØ¹ Ø¬
ĠØ§ÙĦØªÙĤ Ø§Ø±ÙĬØ±
ĠÙĨØ³Ø¨ ÙĬ
ĠØ§ÙĦØ¬ÙħØ§ ÙĩÙĬØ±
ĠÙĨ ØµØ¨
ĠÙħØ¹ Ø§Ø±Ø¶
ĠÙħØ¹ Ø§Ø±Ø¶Ø©
ÙĨØª Ø´Ø±
ĠØ§ÙĦØ§ØªØŃØ§Ø¯ ÙĬØ©
el l
ĠØµÙĬ ØºØ©
ĠØ§ÙĦØª ÙĪØªØ±
ÙĬØ¯ ÙĪ
ĠØ¨ ÙħØ¯
ĠØ£ Ø³Ø¨
ĠØ§ÙĦÙħ ÙĦÙģ
ĠØ§ÙĦÙħØ³ Ø§Ø¹Ø¯
ĠA r
5 3
u re
ĠØ§ÙĦØ³ ÙĥÙĥ
ĠØ² ÙĨ
ĠÙħØ³ ØŃ
ĠÙħØ³ Ø¹ÙĪØ¯
Ø§ÙĬ ÙĬØ³
ĠØ§ÙĦÙģØ± Ø³Ø§ÙĨ
ĠØ¯ ÙĤØ©
Ø§Ùģ Ùĩ
ÙĬÙĦ ÙĪÙĨ
ĠÙĪÙĬØ¹ ÙħÙĦ
ĠÙĪ Ø§Ø·
ĠØ¨ ÙĥÙħ
ĠØ§ÙĦÙħ ØªÙħÙĬØ²
ĠØ§ÙĦØ¬ Ø³Ø±
ĠÙħØ³ Ø§ÙĩÙħ
ĠØ§ÙĦØ£Øº ÙĦØ¨ÙĬØ©
Ø´ Ø¹Ø±
ĠØ¯ Ø§ÙĦØ©
Ø¬Ø± Øª
ĠØŃÙĤ ÙĤØª
ĠØ§ÙĦÙħÙĥÙĪÙĨ Ø©
ĠØ§ÙĦØª ÙĦÙģ
ĠØ§ÙĦØª ØºØ°ÙĬØ©
ĠÙħØ± Ø§Ø¬Ø¹Ø©
ĠÙĪÙĬØ¹ ÙĪØ¯
ã Ĥ
ĠØ§ÙĦ Ø±Ø¨Ø¹
ĠØ§ÙĦØº Ø±ÙģØ©
ĠÙĪÙĨ Ø§Ø¯ÙĬ
ĠØ£Ø¯ ÙĦØ©
Ġ191 1
ĠØ¯ Ø§ÙĨ
Ø§Ø· Ø±Ø©
ĠØ§Ø³Øª Ø¹Ø¯Ø§Ø¯
ĠÙĪÙģ ÙĦ
ĠØ§ÙĦÙĤÙĬ Ø§Ø³ÙĬØ©
6 1
ĠÙħØŃ ÙģÙĪØ¸
ĠØ§ÙĦØŃ Ø§Ø¯Ø«
ÙĪÙģ ÙĬÙĨ
ĠÙģØ§Ø² Øª
ÙĪÙģØ§Ùĥ ÙĬØ§
Ø£ ÙħÙĬÙĨ
ĠØ§ÙĦÙĤ ÙĦÙĬÙĦØ©
ĠØ§ÙĦØ´ Ø§Ùĩ
Ø±ÙĨ Ø§
ĠÙģÙĦ Ø³ÙģØ©
ĠØ§ÙĦØ´Ø± Ø¹ÙĬ
ĠØ¨Ø§Ø± Ø²
ĠØ§ÙĦØ£ØŃ ÙĥØ§Ùħ
ÙĤÙĬÙħ Øª
Ġ j
Ø¨ Ø§Ø¯Ø¦
ĠØ§ÙĦÙħÙĨ Ø¸
ĠÙĦÙĦÙħ Ø´
Ġ5 3
ØµÙĨ Ø§Ø¹Ø§Øª
ĠØŃÙĥ Ø§Ùħ
ĠØ§ÙĦ ÙĦÙĬÙħ
ĠÙĬØ¬Ø¹ÙĦ ÙĩØ§
f f
Ø§ÙĨ ÙĪØ³
ĠØ§ÙĦØ¹ Ø¨Ø±ÙĬØ©
ÙħÙĦ Ø®Øµ
ĠØŃØ¶ ÙĪØ±
Ùĥ Ø£Ø³
ĠØ± ØºØ¨Ø©
ÙĪØ£ ØµØ¨ØŃ
ĠØ¨ Ø¹ÙĦ
ĠØ§ÙĦÙĥ ÙĪÙħ
Ø§Ø¦ÙĬ ÙĬÙĨ
ĠÙħØ´ ØªÙĤ
Ġ7 00
ĠÙĬØ³Øª Ø·Ø¹
ĠØ´ÙĬ ÙĪØ¹
Ġ191 5
ĠØª Ø§Ùħ
ĠØº Ø±Ùģ
ÙĪÙĬÙĦ Ø§
ĠØ§ÙĦØª ØºÙĬØ±Ø§Øª
ÙħØ± Ø§Ø¬Ø¹
ĠØ§ÙĦÙĩ Ø¬ÙħØ§Øª
ĠÙĪÙĬ Ø³ØªØ®Ø¯Ùħ
ĠØ§ÙĦØ³ÙĨ ÙĪÙĬØ©
ĠÙģ ØµÙĬÙĦØ©
Ø¯ÙĬ Ùģ
ĠØ§ÙĦÙĥÙĪÙĨ ØºØ±Ø³
7 9
ĠÙĪ Ø§ÙĤØ¹
ĠØ§ÙĦÙĥ Ø±Ø¨
ĠØ¨ÙĬ ØªÙĩ
ĠØ£ØŃ ÙħØ±
ĠØ§ÙĦØ´Ø± ÙĪØ·
ĠÙħØ³ÙĬ ØŃÙĬØ©
ĠØ§ÙĦØª ÙĤØ±ÙĬØ±
ĠØ¨Ø§ÙĦ Ø«
ĠØ¹ÙĦÙĬ ÙĥÙħ
ĠÙĪÙĨ Ø¸Ø§Ùħ
ĠØ§ÙĦÙģØª Ø§Ø©
Ð µ
ĠØµ ØºØ±
ĠÙħÙĪÙĨ Øª
ĠØ¥ ÙĬÙĤØ§Ùģ
ĠØ§ÙĦØª ÙĤØ§ÙĦÙĬØ¯
Øº Ø§ÙĦØ¨
Ø¦ ÙĪÙĨ
ĠØ¬Ø² Ø¦ÙĬ
ĠØ¨Ø§ÙĦØ¥ Ø³Ø¨Ø§ÙĨÙĬØ©
en d
ĠØ§ÙĦÙħÙĪØ¬ Ø©
ĠÙĪØ§ÙĦØ« ÙĤØ§ÙģÙĬØ©
ĠÙħØŃØ¯ ÙĪØ¯
Ùħ Ø¶
ĠÙĬØ¤ ÙħÙĨ
ĠØªØ¹ÙĬÙĬÙĨ Ùĩ
ĠØ¨ ÙĦÙĬ
Ø§ÙĤ ÙģØ©
ÙĬØª Ø³
ĠØ² Ø§Ø¯Øª
ĠØªØ¹ Ø§ÙĨÙĬ
ĠÙĨÙĪØ¹ ÙĬØ©
Ø§ÙĦØª Ø±Ùĥ
Ø¬Ø¨ Ø§Ø±
ĠÙĦÙĦ Ø¨ÙĦ
ĠÙĪØ§ÙĦØ¹ Ø±Ø¨ÙĬØ©
ĠØ¨ÙĪÙĦ Ø³
ĠØ±Ø¤ Ø³Ø§Ø¡
Ø¨ÙĬ Ùĥ
ÙĪØ² Ø§ÙĨ
ĠÙħÙĤØ¯ Ø§Ø±
ĠÙħØŃØ§ÙģØ¸ Ø§Øª
ÙĦÙħ Ùĩ
ĠØªØ¹ Ø§Ø¯ÙĦ
ĠÙĦÙĦÙħ Ø´Ø§Ø±ÙĥØ©
Ø±ÙĬ Ø¹Ø©
ÙĥØ± Ùĩ
ĠØ£Ø¹ Ø§Ø¯
ØŃÙĪ ÙĬÙĦ
ĠÙģ ÙĨØ¯ÙĤ
Ø§Ø¹ ØªØ¨Ø§Ø±
ĠÙĬÙħÙĥÙĨ ÙĩØ§
ĠÙĥ Ø¹
ĠØ§ÙĦÙĥ ÙĬØ§ÙĨ
4 2
ĠØ¨ Ø§ÙĤ
ØªØ± ÙĪÙĨ
ĠØ§ÙĦØ¨ÙĬ ÙĪØª
Ø¹ØªÙĤØ¯ Ø§Øª
ĠØ§ÙĦØºØ§Ø² Ø§Øª
ĠØ§ÙĦØ¹ Ø§Ø·
ĠÙĨ Ø§Ø¨ÙĦØ³
ĠØ¬ Ø²ÙĬ
ĠÙĪØ§ÙĦØ£ Ø±Ø¨Ø¹ÙĪÙĨ
ĠØ¥ Ø¬Ø±Ø§Ø¡Ø§Øª
ĠØ§ÙĦÙħØ± Ø§ÙģÙĤ
Ġ15 00
Ø²Ùħ Ø§Øª
ĠØ¥ÙĬØ· Ø§ÙĦÙĬ
ĠØ§ÙĦØ³ Ø§Ø¯Ø§Øª
ĠØ§ÙĦÙĬÙħ ÙĨÙĬ
Ø§ ÙĬØ²
ĠØ§ÙĦÙħ ÙģÙĩÙĪÙħ
ĠØª ÙĦØª
Ø´ ÙĪØ±
ÙĪØ³ ÙģØ§Øª
ĠØªØ¬ Ø¯ÙĬØ¯
ĠØ¥ ÙĨØª
ĠØ± Ø§ÙĬ
ĠØ¨ÙĨ Ø§Øª
ĠØ§ÙĦÙħØŃ Ø·Ø©
ĠØ§ÙĦØªÙĤ Ø³ÙĬÙħ
ĠØŃÙħ Ø§Ø³
ĠØ§ÙĦÙĨØ¨Ø§Øª ÙĬØ©
ĠÙĤØ³Ùħ ÙĬÙĨ
Ø´ Ùī
ĠØ§ÙĦØ¯ ÙĬØ±
ĠØ§ÙĦÙģ Øµ
ĠÙĪØ£ Ø³Ø±
ĠÙĪÙĬ Ø¬Ø¨
ĠØ£ØŃ ÙĥØ§Ùħ
ĠØ¨ Ø§Ø±ÙĬ
ĠØ§ÙĦÙĥØ¨ Ø±ÙĬØª
Ġ Ùĭ
ĠÙģ ÙĪØ¬
ĠÙĦ Ø²ÙĬØ§Ø¯Ø©
ĠØªÙĤ Ø§Ùħ
ĠØ§ÙĦÙĨØ² Ø§Ø¹
ĠØµØŃÙĬ ØŃØ©
ĠÙĬØ¯ Ø¹Ùħ
ĠÙĪ Ø¶Ùħ
Ø±ÙĬ ØŃØ©
ĠÙĤ ÙĪÙħ
ĠØ´ ÙħÙĦØª
ĠÙĦÙĦØŃ ÙĬØ§Ø©
Ø¤ ÙĦ
ĠØ§ÙĨ ØŃ
ĠØ±Ø¤ ÙĪØ³
ĠÙħ Ø§Ø¬
ĠØ¨Ø§ÙĦ Ø°
Ø§Øµ ÙģØ§Øª
Ø±ÙĨ Ø¬
ĠØ§ÙĦÙĦÙĩ Ø¬Ø©
ĠØ§ÙĦÙĪØ³ Ø§Ø¦ÙĦ
ĠÙĬ Ø³Ø§ÙĪÙĬ
ĠØ³ Ø¬
ĠØ´ Ø§ÙĩØ¯
ĠØ§ÙĦØ± ÙĪÙĥ
ĠØ« ÙĬ
ĠÙĪØ± ÙĤØ©
ĠÙĬØ± Øª
Ø§Ø³ØªÙħØ± Øª
ĠØ§ÙĦÙħÙĥÙĪÙĨ Ø§Øª
ĠÙħÙĨØ² ÙĦÙĩ
o x
ĠØ¬Ø¹ÙĦ ÙĩØ§
ĠÙĪØ§ÙĦØ¢ Ø®Ø±
ĠÙĬ Ø¯Ùĩ
ĠØ¹ÙĨ Ø§
ĠØ§ÙĦÙģ Ø³Ø§Ø¯
ĠÙĥØ§ÙĨ Ø§
ĠÙħØŃ Øª
ĠØ·Ø±ÙĬÙĤ Ùĩ
Ø§ÙħÙĬ Ø°
ĠÙħØ· Ø§ÙĦØ¨
ĠØ§ÙĦØ¶ÙĪ Ø¦ÙĬ
ĠØª ÙĪØ§Ø¬Ùĩ
ĠØªØ± Ø¬Ø¹
Ùĥ ØªØ§Ø¨
ĠÙĤ ÙħØ±
ĠØ§ÙĦØ¯ ÙĤÙĬÙĤ
ĠØ§ÙĦØµ ÙĬÙģÙĬØ©
ĠÙĪÙģ ØªØŃ
ÙĪØ§Ø± Ø«
ÙĥØª ÙĪØ±ÙĬØ§
ĠØ¶ÙħÙĨ ÙĩØ§
ĠÙĪØº Ø±Ø¨
ĠØ±ÙģØ¶ Øª
ĠØ§ÙĦØ£Ùĩ Ø§ÙĦÙĬ
Ø¨ ÙħØ§
ĠØ¨ Ø§ØŃØ«
ĠØ§ÙĦØ³ ÙĪ
ĠÙħØŃ Ø±
ĠÙĬØ´ ØºÙĦ
ĠØ´ÙĥÙĦ Øª
ĠØ§ÙĦÙĨØ¸ Ø±ÙĬØ§Øª
Ø´ Ø®Ø§Øµ
ĠØ§ÙĦØ¹ Ø±ÙĤÙĬØ©
ĠÙĪÙħ Ø¬ÙħÙĪØ¹Ø©
ĠØ¹Ø± ÙĪØ¶
Ġ190 8
ĠØ¨Ø§ÙĦÙģ Ø±ÙĨØ³ÙĬØ©
ĠÙħ ÙĥÙĨ
ĠÙĦ ØªØ¨
ĠØª ÙĦÙģ
ĠØ§ÙĦØª ÙĪØ²ÙĬØ¹
ĠÙĩ ÙĪØ¨
ĠØ§ÙĦØ¥ Ø¹Ø¯Ø§Ùħ
Ø§Ùĥ Ø´
ĠØ§ÙĦÙħØ¯ ÙĨÙĬÙĬÙĨ
ĠØ§Ø¬ØªÙħØ§ Ø¹ÙĬ
ĠÙĪ Ø¯Ø±Ø³
ĠÙĥÙĦ Ø§Ùħ
ĠØ§ÙĨ Ø®ÙģØ¶
ĠØ§ÙĦÙħ Ø§Ø±Ùĥ
ĠØŃ ÙĤÙĬÙĤÙĬ
ĠØ³ ÙĪÙĦ
ĠØ§ÙĦØ± Ø¦Ø©
ĠØ° ÙĥÙĪØ±
ĠØ«Ùħ Ø§ÙĨ
ĠØ§ÙĦÙħØ³Øª ÙĩÙĦÙĥ
ĠØ£Ø¹Ø· Ùī
4 1
ÙĨ Ø§ØµØ±
ÙĬÙĪ Ø·
Ø¯ ÙĪØ¯
ĠØ¨ Ø¹ÙħÙĦÙĬØ©
ĠØ§ÙĦÙħ Ø®Øª
Ø´ ÙĬØ§Øª
ĠÙħØª ÙģØ±Ø¬
ĠØ³Ø±ÙĬ Ø¹Ø©
ĠÙħ ÙĪØ·ÙĨ
ĠÙĦ Ø§Ø¨Ø¯
ÙĪØ§ÙĨ Ø©
ĠØ³Øª Ø§Ø±
ĠÙĬ Ø§Ø³ÙĬÙĨ
ĠØ¥ ÙģØ±
ĠØ§ÙĦØª Ø§Ùħ
Ø§Ùģ ÙĪØ±Ø©
ĠÙģØ± Ø¹ÙĬØ©
ĠØ¥Ø¯ Ø§Ø±ÙĬØ§
ĠÙĬØ³Øª ÙħØ±
ĠØ°ÙĥØ± ÙĩØ§
ÙĨ ØŃ
ĠÙħ Ø®ØªØ¨Ø±
ĠØ£ÙĨ Ø´Ø¦Øª
ĠÙĦØ£ ØºØ±Ø§Ø¶
ĠÙĥØªØ§Ø¨ Ø§
Ø¨ÙĬ Ø§ÙĨ
ØŃØ§Ø¯ ÙĬØ«
ĠØ§ÙĦÙħØ¨ Ø§Ø¯Ø¦
ĠÙĦÙħ ØµØ±
ÙĩØ¯ Øª
Ġc ol
ĠØ§ÙĦØ«ÙĤ ÙĬÙĦØ©
ĠØ§ÙĦÙĨØ® ÙĬÙĦ
ĠÙħÙĨ Ø§Ùģ
ĠØ§ÙĦØ¹ Ø§Ø¨
ĠØ§ÙĦÙĨ Ø§Ø²ÙĬØ©
ĠØ§Ùħ Ø§Ùħ
ĠÙĪØ· ÙĨÙĬ
ĠÙ ¾
ĠØ§ÙĦÙĪØ± Ø§Ø«ÙĬØ©
ĠØŃ Ø¨ÙĬ
ĠÙĪØ£ Ø¹ÙĦÙĨ
ĠÙģØ¹ Ø§ÙĦØ©
ĠÙħ Ø¸ÙĩØ±
ĠÙĬ ØµØ¯Ø±
ĠØ®Ø· ÙĪØ©
ØªØ£Ø³ Ø³
ĠØ§ÙĦÙħ Ø®Ø·Ø·
ĠØª ÙĪØµÙĦ
ĠÙĪØ§ÙĦ Ø¬ÙĨ
ÙĦÙĬ ÙĪØ³
ĠØ§ÙĦØ® ÙĦÙĤ
ĠÙĪØ£ Ø·ÙĦÙĤ
Ø³Ø± ÙĬØ©
ĠØªØª Ø£ÙĦÙģ
ĠÙĪØ§Ø³ØªÙħØ± Øª
Ø¨ ØªÙĩ
Ø° Ø§Ø¨
ĠØ§ÙĦÙĤ Øª
ĠØ£ÙĪ ÙĤØ§Øª
ĠÙĪØ¹ ÙĦÙĬ
ĠÙħØ¯ ÙĬØ±Ø§
ĠØ¥Ø« Ø¨Ø§Øª
ĠØ§ÙĦØ§ÙĨÙģ Ø¬Ø§Ø±
ĠØ§ÙĦÙħ Ø®ØªØ§Ø±
ĠØ§ÙĦÙĪ Ø§ÙĦÙĬ
ĠØ¨Øº Ø±Ø¶
ĠØ§ÙĦØ¯Ùĩ ÙĪÙĨ
ĠØ£ Ø¨ÙĦ
Ø´ ØºÙĦ
Ø£ Ø¨ÙĪ
Ġ19 00
ĠØ¨ÙĦ Ø§Ùĥ
ĠÙħÙĬ ÙĥØ±
r y
ĠØ§ÙĦØª ÙĪØ¬ÙĬÙĩ
ĠØ£Øº ÙĦØ¨ÙĬØ©
ĠÙħÙĥ Ø«
ĠØ¬Ø¯ ÙĪÙĦ
ĠØ§ÙĦØ¬Ø§ÙĨ Ø¨ÙĬØ©
ĠÙĬ Ø¨ØŃØ«
ĠØªÙħ Ø«Ø§ÙĦ
ĠØ¨Ø¹ Ø«Ø©
ĠØ³ØªÙĬ ÙģÙĨ
ĠØ¨ ÙĬØ³
ĠØ³ ÙĪÙĨ
ÙĬÙħ Ø§Øª
ĠÙģ Ø¶Ø§Ø¡
ĠØ§ÙĦÙħ ÙĬØ²
ĠØ§ÙĦØµ ÙĪØ§Ø±ÙĬØ®
Ø¬Ùħ ÙĪØ¹Ø§Øª
ĠØ£Ø¯ Ø±Ùĥ
Ġ9 8
ĠØ®Ø· ÙĬØ±Ø©
ĠÙĥØ§Ùħ Ø¨
ĠÙĥÙĩØ±Ø¨ Ø§Ø¦ÙĬ
Ġ $
ĠØ§ÙĦØ¹Ø¨ Ø§Ø³
ĠØ¨Ø§ÙĦÙħÙĨ Ø·ÙĤØ©
7 3
ÙĪ Ø°ÙĥØ±
ĠØ£ Ø®Øª
Ø´Ø¹ Ø§Ø¹
ĠØ§ÙĦØ§Ø³ØªØ¹Ùħ Ø§Ø±ÙĬØ©
' s
ĠØ§ÙĦÙħ ÙĤØ±Ø±
ĠØ§ÙĦØª ÙĪØŃÙĬØ¯
Ø¹Ø¯ ÙĬÙĨ
ĠÙħØª Ø³Ø§
ĠØ£ÙĪÙĦ Ùħ
ÙĬ ÙĥÙĪÙĨ
Ø§Ùħ Ùī
ĠØ¯ Ø§Ø¦ÙħØ©
ĠØ§ÙĦØ´ Ø§Ø·Ø¦
ĠØ· ÙĬØ¨Ø©
ÙĨØ´Ø£ ØªÙĩ
ĠØ§ÙĦÙĪÙĥ Ø§ÙĦØ©
ĠÙħ ØµÙģ
ĠØ§ÙĦØ§Ø³Øª Ø«ÙħØ§Ø±
ĠØ§ÙĦØ§ØŃØªÙģ Ø§ÙĦ
ĠØ§ÙĦÙĨ Ø¨ÙĦØ§Ø¡
ÙĪØ±ÙĬ Øª
ĠÙĬØ¹ Ø¨Ø±
ÙģÙĦ ÙĪÙĨ
ĠÙĬØ¬ ÙĪØ²
Ø³Ø¨ Ùĩ
ĠØ³ÙĦ Ø·
ĠØ´ ÙĬÙĪØ®
ĠÙħÙĥØ§ÙĨ Ùĩ
Ġ Ø§ÙĤØªØµØ§Ø¯ÙĬ
Ø§Ø¹ Ø¯Ø§
ÙĤ Ø§Ø¶
ĠØŃ Ø§Ø¯Ø«
ĠØ§ÙĦØ¹ Ø§Ø´Ø±Ø©
ĠØ§ÙĦØŃÙĥ ÙĪÙħÙĬ
ĠØ§ÙĦØ±ÙĬ ÙģÙĬØ©
ĠÙĨÙĪØ¹ ÙĩØ§
ĠD e
ĠØ§ÙĦÙħÙĬ ÙĥØ±
ĠØª Ø³ÙħÙĬ
ĠØ§ÙĦØµ Ø§Ø¯Ø±Ø©
ĠØ§Ø³Øª Ø¬Ø§Ø¨Ø©
ÙĪÙĥ ÙĪÙĦØ§Øª
ĠÙħØ³Øª Ø¹ÙħØ±Ø©
ĠÙĦÙĦØ³ ÙĨØ©
ĠÙĪ Ø®Ø±Ø¬
ĠØ§ÙĦØª Ø¬ÙħØ¹
ĠÙħØ´ Ø§ÙĩØ¯Ø©
ĠØ§ÙĦØ£ÙĨ Ùģ
ĠE n
ĠØ§ÙĦØµØŃ ÙģÙĬ
Øµ ÙĬØ±
ĠÙĥ Ø¥
Ø¯ÙĬ Ø¯ÙĬ
ĠØ£ÙĨ ÙħØ§Ø·
ĠØ§ÙĦÙĦ ÙģØ¸
ĠØªØ´ Ùĥ
ĠØ¨ÙħØŃ Ø§ÙģØ¸Ø©
ĠØ§ÙĦØ§Ùģ ØªØ±
Ùħ Ø¯ÙĬÙĨØ©
Øª Ø£ÙĦÙģØª
ĠØ¯ÙĪØ± Ø§ÙĨ
ĠØ§ÙĦØ¥Ùħ Ø§Ø±Ø©
ĠØ§Ø¬ ÙĦ
ĠØ¥ Ø¨Ø§ÙĨ
ĠØ§ÙĦØ³ ÙĩÙĦ
ÙĪØ¯ ÙĪ
Ø£ÙĨ ÙĩØ§
ĠØ§ÙĦØ£Ùħ ÙĪÙĬ
ĠØ§ÙĦØª ÙĤØ¯
ĠØªØŃ Ø¯ÙĬØ«
ĠØ§ÙĦÙħØ¤ Ø³
Ġ9 9
Ġp ro
ĠÙĥÙĩØ±Ø¨ Ø§Ø¦ÙĬØ©
ĠØ§ÙĦØµÙĩÙĬ ÙĪÙĨÙĬØ©
Ùĥ Ø§ÙģØŃØ©
ĠÙĦ Ø¹ÙħÙĦÙĬØ©
ĠÙĥ Ø¯
ĠØ§Ø³Øª ÙĤØ±Ø§Ø±
ĠM ar
ĠÙĬÙĩ ØªÙħ
ĠÙĪØ§ÙĦ ÙĥØ±
ĠÙĪØ§ÙĦ Ø¬Ø±
ĠÙĦÙĦ ÙĤÙĬØ§Ùħ
ĠØ´ Ø¨ÙĬ
ĠÙħØŃ ØªÙĪÙī
ĠØ§ÙĦØ³ÙĬ Ø§Ø³Ø§Øª
ÙĪ Ø§Ø¯ÙĬ
Ø§Ø³ ÙĥØ§
ĠØ²ÙħÙĨ ÙĬØ©
ĠÙĪØ£Ø® ÙĬØ±Ø§
Ø£Ùĥ ÙĬØ¯
Ùĩ ÙĪØ©
ĠØ§ÙĦÙħ Ø¦Ø©
ĠÙĬ Ø®Øµ
ĠØ§ÙĦØŃ ØµÙĨ
Ø±Ø¨ Øª
ĠØ§ÙĦØ¥ÙħØ¨Ø±Ø§Ø· ÙĪØ±ÙĬ
it h
ĠØ§ÙĦØ· Ø§Ø¨Ø¹
ĠØ¨Ùħ ÙĤØ¯Ø§Ø±
ĠØ§ÙĦØ§Ø® ØªÙĦØ§Ùģ
ĠØ§ÙĦÙħØ±Ùĥ Ø¨
ĠØ§ÙĦÙĤØ¶ Ø§Ø¦ÙĬØ©
ĠØ§ÙĦØ¨ Ø¶Ø§Ø¦Ø¹
ÙĦÙģ Ø§ØªÙĩ
ĠÙĬÙĤ Ø¨ÙĦ
ĠØµØ± ØŃ
ĠØ§ÙĦØ¨Ø® Ø§Ø±ÙĬ
Ø³ ÙĬÙĦ
ĠØ§ÙĨ ÙĤÙĦØ§Ø¨
ĠØ§ÙĦÙħÙħ ØªØ¯Ø©
Ø£ ØŃØ¯
ĠÙĪÙħ Ø¯ÙĬÙĨØ©
Ø±ÙĬØ¯ Ø¬
Ø§ÙĦÙĤ ØµØ©
ĠØ£ÙĦÙĥ Ø³ÙĨØ¯Ø±
ĠØ£ Ø¹ÙĦØ§Ùħ
ĠØª Ø±ÙĥØ²
ĠØ¯ Ø³Øª
ĠÙĪØ£ ÙĥØ¨Ø±
ĠÙĪÙĥ Ø«ÙĬØ±
ĠÙħØ³Øª ÙĪØ·
ĠØ¨Ø· Ø§ÙĤØ©
Ø±Ø¨ ÙĪÙĦ
ĠÙĪØ£ ÙĪØ±ÙĪØ¨Ø§
ĠÙĪØ± ÙģØ¶
ĠØªØ£ ÙħÙĬÙĨ
Ø³ Ø¬ÙĦ
ĠØ¥ ÙĬØ²
ĠØ£ÙĪ Ø§ÙħØ±
Ø³Ø¨ ÙĬØ±
ĠØ§ÙĦØ³Ø±ÙĬ Ø§ÙĨÙĬØ©
ĠØ§ÙĦØµÙĪÙħ Ø§ÙĦ
ĠØª Ø¹Ø¨
ĠØª Ø³Ø§ÙĪÙĬ
ĠØ§ÙĦØ± ÙħØ²
ĠØªØ³ Ø¹
ĠØ£ Ø±ÙĬ
ĠÙĬ ÙĪØ§Ø¬Ùĩ
ĠØ§ÙĦØ£ Ø¯ÙĬØ§ÙĨ
ĠØŃ ÙħØ§Ø©
ĠØ§ÙĦØ¨ Ø·ÙĦ
Ø¤ ÙĥØ¯
ĠØªØŃ ÙĬØ·
ÙĪØ§ÙĦ Ùī
ĠÙħÙĪØ³ ÙĬÙĤÙĬ
ĠØ§ÙĦØ§Ø¹ ØªÙĤØ§Ø¯
ĠØŃ ÙĬÙĪØ§ÙĨ
ĠØ³ÙĬ Ø§Ø³Ø§Øª
Ø³ Ø§Ø¹
ĠØ¥ ØºÙĦØ§ÙĤ
ĠÙĪØ£ Ø¨
Ø§ÙĦ ÙĪÙĨ
Øµ Øµ
ĠÙĪÙħ Ø¯Ø±Ø³Ø©
Ġ191 3
ĠØ§ÙĨØª Ø®Ø¨
ØŃ ÙĤÙĤ
Ø³Øª ÙĪÙī
ĠØ§ÙĦÙħØŃ ØªØ±
Øµ Ùħ
Øº Ø§ÙĦØ¨Ø§
ĠØ§ÙĦÙħÙĨ Ø·ÙĤ
ĠÙħØª Ùī
ĠØ§ÙĦØ£Ùħ Ø§ÙħÙĬØ©
Ø¨Øª Ø©
ĠØ§ÙĦÙħØ® Ø¯Ø±Ø§Øª
ĠØŃÙĦ ÙĪÙĦ
ĠÙħØ³Ø¤ÙĪÙĦ ÙĬØ©
Ø§Ø± Ø¹ÙĬÙĨ
ĠØ¥ Ø´Ø±Ø§Ùģ
ĠÙĩ Ø¬Ø±Ø©
ĠØ± ÙĬÙģ
ĠÙĪØ£ ÙĤ
ĠØ§ÙĦÙħØª Ø§ØŃØ©
ĠØ¯ÙĪØ± Ø§Øª
ĠØŃØ³ ÙĨÙĬ
ĠØ§ÙĦØª ÙĪØ¬Ùĩ
ĠØ§ÙĦØ¬ ÙĦÙĬÙĦ
ĠØº Ø°
ĠØ¨Øª ÙĩÙħØ©
ĠØ£Ø® ÙĬØ±Ø§
Øª ÙĤØ©
ĠØ¬ Ø¯Ø±Ø§ÙĨ
ĠØ´ ÙĩÙĪØ±
Ø³Øª Ùĩ
ĠØ§ÙĦØ¥ ÙģØ±
ÙĪØ¬Ø¯ Øª
ĠÙħØ² ÙĬØ¯
ĠØ® Ø§ÙĦ
ĠÙĦÙħ Ø´
ĠØªÙĤ ÙĪÙĬÙħ
ĠØ¬ÙĨ Ø±Ø§ÙĦ
ĠØ§ÙĦØ¨ÙĨØ¯ ÙĤÙĬØ©
ĠØ§ÙĦØ§ÙĨØ³ ØŃØ§Ø¨
ĠÙħØ¹ Ø§Ø¯ÙĦØ©
ĠØ£Øµ ÙĦØ§
Ø´ ÙĥØ§ÙĦ
ĠÙĪØ§ÙĦ ÙĬØ§Ø¨
ĠØ³ ÙĤØ·Øª
ĠØ§ÙĦØ¨ Ø±Ùĥ
ĠØ§ÙĦÙħØ¹ Ø§Ø±Ùģ
ĠØ§ÙĦÙħØ³ ØŃ
Ġ12 5
ĠØ´ ÙĪØ§Ø±Ø¹
ĠØ¨Ø£ÙĨ ÙĩÙħ
ĠÙħØ¹Ø¸Ùħ ÙĩÙħ
ĠØµÙĬ Ø§ØºØ©
ÙĬ Ø¡
ĠØª Ø§Ø±
ĠÙħØ¹ ÙĬÙĦØ§Øª
Ø§Ø® Ø±Ø©
ĠØ§ÙĦÙħØ³ ÙĦÙħ
ĠÙĬÙĤÙĪÙħ ÙĪÙĨ
Ø²ÙĬÙħ Ø§Øª
ĠÙħ Ø§Ø²
ĠØ§ÙĦÙħ ÙģØ§ÙĪØ¶Ø§Øª
ĠØ§ÙĦÙĨØ¨ ÙĪÙĬ
ĠØ¨Ø§ÙĦ ØªØ¯
ĠÙĪØªÙħ ÙĥÙĨ
ĠØ¬Ø§Ùħ Ø¹Ø§Øª
ĠØ§ÙĦÙħØªØ¨ ÙĤÙĬØ©
4 9
ÙĨ ØªÙĬØ¬Ø©
ĠØª Ø¬Ùħ
ĠÙĪÙĬ Ø¹Ø±Ùģ
ĠÙĪÙĥ ÙħØ§
ØºØ± Ø§Ùħ
ĠØ§ÙĦÙħÙĪ Ø§Ø¶ÙĬØ¹
ĠØ§ÙĦØ¹Ø± ÙĪØ¶
ĠØ¥ÙĦÙĬ Ø²Ø§Ø¨ÙĬØ«
ÛĮ Ø©
ĠØªÙĪÙĦ ÙĬØ¯
ĠØ¨ ÙĪØ²
ĠÙĪØŃ ÙĦ
Ġ5 8
ĠØ±ÙĬØ§Ø¶ Ø©
ĠÙĦØ¢ Ø®Ø±
ĠÙĦ Ø¶ÙħØ§ÙĨ
ĠØ§ÙĦÙĤ ØµÙĪØ±
ĠÙĪØ§ÙĦØª Ø³
Ø¨Øª ÙĪÙĨ
Ø²ÙĪØ¬ Ø©
Ø£ ÙĦÙĬÙģ
Ø±Ø¨ Ø§Øª
ĠØ§Ø³Øª Ø±
ĠØ¥ÙĨ Ø³
f t
ĠØ¨ Ø§Ø¨Ø§
Ġ190 5
ĠØª ÙĬÙĨ
ĠØ§ÙĦÙĨ ÙħØ§Ø°Ø¬
ĠÙħÙĪØ³ ÙĪØ¹Ø©
ĠØ§ÙĦÙĨØ¬ Ùģ
ĠØ§ÙĦØ£Ùħ Ø§ÙħÙĬ
ĠÙĦÙĦØŃ Ø±Ø¨
ĠØ§ÙĦØ¨Ø· ÙĪÙĦØ§Øª
ÙĪØ° ÙĬØ©
om p
ĠØ¥ ØŃÙĬØ§Ø¡
Ø´Ø± ÙĬØ©
Ø¬Ø¨ Ø§ÙĦ
ĠØ§ÙĦØ±ÙĤ ÙħÙĬ
ĠÙĬ ÙĩØ¯Ùģ
ĠØ¨ÙĤ ÙĪÙĦÙĩ
ĠØ´Ø± Ø·Ø©
ĠØ§ÙĦÙħØ® Ø§Ø·Ø±
ĠÙĪØ§ÙĦÙģ Ø±ÙĨØ³ÙĬØ©
ĠØ§ÙĦØ³Ø¨Ø¹ ÙĬÙĨÙĬØ§Øª
ĠØ¨ ÙĪØ±Øª
ĠØª Ø¹Ø¨ÙĬØ±
ĠÙĪ ÙĬØ²
ĠÙģ Ø¦Ø§Øª
ĠÙħÙĨ Ø§ÙģØ³
ĠØŃ Ø§Ø¯Ø«Ø©
ĠØ§ÙĦØ« ÙĤØ©
ĠÙĪØ£ÙĨ ÙĩØ§
ĠØ§ÙĦÙĩÙĨØ¯ Ø³ÙĬØ©
Ø§ÙĦ ÙĪØµÙģ
ĠØ§ÙĦØ± Ø§Ø¯ÙĬÙĪ
ĠØ§ÙĦØµ ÙĪØªÙĬ
ĠØ§ÙĦØ´Ø¹ ÙĪØ±
Ø¸ Ø¨ÙĬ
ĠÙĪØ£ Ø±Ø¨Ø¹ÙĪÙĨ
ØŃØ± Ø§Ø±
ĠØ¨Øª Ø·ÙĪÙĬØ±
ÙģÙĦ Øª
ĠØ§ÙĦØ±Ùĥ Ø§Ø¨
ĠØ§ÙĦØ·ÙĪØ§Ø± Ø¦
ĠÙĪ Ø§Ø«
ĠÙĬ Ø«
ĠØ§ÙĦÙĦ Ø§Ø¬Ø¦ÙĬÙĨ
ĠØ¯ÙĪØ± ÙĩØ§
4 6
ØŃ Ø³ÙĨ
ĠØ§ÙĦÙħ Ø§ÙĨ
ĠÙĩ Ø§Ø´Ùħ
Ø³Øª ÙĬ
ÙĪÙģ Ø§Øª
ĠØ§ÙĦÙħÙĨ Ø³
ĠS p
ĠØ§ÙĦØ¸ ÙĩØ±
ĠÙĨØ¬ ÙĬØ¨
ĠØ¬ÙĬØ´ Ùĩ
ĠØ§ÙĦ Ø§Ùĩ
ĠÙĪÙħ Ø§Øª
ĠÙĪØŃ ÙĥÙħ
Ø·Ø± Ùģ
ĠÙĨØ³ Ø§Ø¡
ĠÙĪØ¬ÙĪØ¯ Ùĩ
ĠÙĪØ£ØŃ ÙħØ¯
ĠÙģ ÙĪÙĦØª
ĠÙĬ ÙĩÙĪØ¯
ĠØ§ÙĦÙĬ ÙĪØ±Ø§ÙĨÙĬÙĪÙħ
ĠØ®Ø³ Ø§Ø±Ø©
ÙĨ Ø¸
ĠÙģ Ùĩ
ĠØ¨ Ø®ØµÙĪØµ
ĠØª ÙĪØ³Ø¹
ĠÙĬ Ø¹Øª
Ø¹ÙħÙĦ Ø©
ĠÙĪÙħØ¹ Ùĩ
ĠØ§ÙĦØ«Ø¯ÙĬ ÙĬØ§Øª
ĠØ§ÙĦÙħ Ø³Ùħ
Ø§Øª Ø°Ø©
ØªØ¨ Ø§Ø³
ĠÙĨÙĬ ÙĪØªÙĨ
ÙĪØ§Ùĥ Ùĩ
ĠÙĦ ÙĬÙħ
ÙĪÙĦ ÙĨØ¯Ø§
ĠØ´ ÙĤ
Ø¨Ø± ÙĬÙĨ
ĠØ§ÙĦØ´ ÙĩØ§Ø¯Ø©
ÙĩØ¯ Ø¯
ĠØ§ÙĦØ± Ø·ÙĪØ¨Ø©
ĠØªÙĨ ÙħÙĪ
ĠÙħÙĪ Ø¹Ø¯
ĠÙĬÙĪÙħ ÙĬ
or y
ĠÙĥ ÙĦÙĬØ§Øª
ĠØ§ÙĦØ¨ ÙĨÙĬ
ÙĦÙĬÙģ Ø²ÙĬ
ĠØ§ÙĦØ¨Ø§Ø± Ø²Ø©
ĠØ§ÙĦ ÙĬØ±
Ø´ÙĥÙĦ Øª
ÙħÙĬÙĨ ÙĬØ§
ĠØ§ÙĦÙħØ³ØªØ¹ÙħØ± Ø§Øª
ÙĬØª ÙĪÙĨ
ĠØ§ÙĦÙĤØ± Ø§Ø±Ø§Øª
ĠØ§ÙĦØ¥Ø± ÙĩØ§Ø¨
ĠØ¨Ø§ÙĦ Ø³ÙĦ
ĠØªØ¬ ÙĨØ¨
4 3
ĠÙģÙĬ ØªÙĨØ§Ùħ
ĠÙĬÙħ ÙĬØ²
ÙĬÙĨÙĬ Ùĩ
ĠØ§ÙĦØ¹ÙĨ ÙĪØ§ÙĨ
ĠØ´Ùħ Ø§ÙĦÙĬ
ÙĨØ¯ÙĪÙĨ ÙĬØ³ÙĬØ§
ĠØ¨ ÙĪØ³Ø·
ĠÙĦÙĦ Ø·Ø¨
ĠÙĦÙĦ ÙģØ±ÙĬÙĤ
Ø§Ùĩ Ø©
ĠØ§Øª Ø¨Ø§Ø¹
ĠÙĬÙĪÙĨ Ø³
ĠÙĪØ§ÙĦ Ø³Ø¨
ĠØ¬ Ø¯Ùĩ
ĠØ§ÙĦÙĤ ÙĪÙĤØ§Ø²
ĠÙħÙĪ Ø§ÙģÙĤØ©
ĠÙĪØªÙĤ Ø¯ÙĬÙħ
ĠÙĦ Ø´Ø±
ĠÙħÙĪ Ø§Ø·ÙĨ
ĠØ§ÙĦØ£Ø¹ ØµØ§Ø¨
ĠØ§ÙĦØ¸ Ø§ÙĩØ±
ĠØµØ¯ÙĬ ÙĤÙĩ
ĠØ¨ Ø´Ø§Ø±
Ø¶ Ø¬
ÙĪÙĩ Ø§ÙĨ
ĠØ£ØŃ Ø³ÙĨ
ĠÙĥÙĬÙħÙĬ Ø§Ø¦ÙĬ
ĠÙĨ Ø§ÙĤ
ĠØ¨ÙĦ ØºØ©
ĠØªØ¬ Ø§Ø±
ĠÙĪÙĦÙħ Ø¯Ø©
ĠØªØ£Ø³ÙĬØ³ ÙĩØ§
h er
ĠØ§ÙĦØ£ ÙĪØ¶Ø§Ø¹
ĠÙĪØ§ÙĦ Ø¨ØŃØ«
ĠØ§ÙĦØ¹ Ø·
ĠØ¨ØŃ Ø±ÙĬ
ĠØªØ± Ø´ÙĬØŃ
ĠØ´Ø¹Ø± Ùĩ
ĠØ§ÙĦØ´ Ø¯ÙĬØ¯Ø©
ÙĪØ£ ÙĬ
ĠØ§ÙĦÙħ ÙĬØ¯Ø§ÙĨ
ĠØ§ÙĦÙħØ¹ ÙĦÙħÙĬÙĨ
ĠØªØ¬ Ùĩ
ĠÙħÙĦ Ø§Ø¨Ø³
ÙĬÙħÙĬ Ø§Ø¡
ĠÙĥ ÙĪÙĬÙĨ
ĠØ§ÙĦØ£ Ø°
ĠÙħØŃ ÙĦÙĬ
ĠØ¨Ø¬ ÙĪØ§Ø±
ĠÙĪØ£Ùħ Ø±ÙĬÙĥØ§
ĠÙĨØ§Ø¬ ØŃØ©
ĠÙĬ ØªÙĦ
ĠØ§ÙĦØ¢ ÙĦØ©
ĠØ§Ø¹ ØªÙĨ
ĠÙĬØ¯ ÙĪØ±
Ø« Ø§
ĠØ§ÙĦØ´ Ø§ÙĬ
ĠØ§ÙĦÙģ Ø¯Ø±Ø§ÙĦÙĬ
ĠØ¨ Ø¬Ø±
Ø®Ø± Ø¬Ùĩ
ÙĪÙĥ ÙĪØ²
ĠÙĪØ³ ÙĪØ±ÙĬØ§
Ġ191 0
ĠÙĦÙĦØ´ Ø¨Ø§Ø¨
ĠØ§ÙĦØ®Ø± Ø·ÙĪÙħ
ĠÙĪØª Ø¹Ø±Ùģ
ĠØº ÙĨ
Ø§Ùĩ Ø±ÙĬ
ĠØ¨Ø§ÙĦÙħ ÙĤØ§Ø±ÙĨØ©
ĠÙĪØ§ÙĦØ¨ ØŃØ±
ĠÙĩÙĥØª Ø§Ø±
ÙģÙĦÙĪÙĨ Ø²Ø§
ĠØ§ÙĦØ¬ ÙĬÙĨ
ĠØ§ÙĦØ¹Ùħ ÙĪØ¯
ĠØ§ÙĦÙħØŃØ¯ ÙĪØ¯Ø©
ĠØªØ§ÙĬÙħ Ø²
Ø¶ Ø¹Øª
Ø§Ùĩ ÙħØ§
ĠØªØª ÙĪØ§Ø¬Ø¯
ĠØ§ÙĦØ¬Ø± Ø§ØŃØ©
g e
Ø· ÙĬÙģ
ĠØ§ÙĦØ¹ Ø¨Ø¯
ĠÙħØ¨ ÙĨÙĬØ©
ĠØ°Ø§Øª ÙĬØ©
ĠØµÙĨ Ø§Ø¹ÙĬØ©
ÙĨØ¨ Ø°Ø©
ĠØ§ÙĦÙħÙĬÙĥØ§ÙĨ ÙĬÙĥÙĬØ©
ĠØ´ÙĬÙĥ Ø§ØºÙĪ
ĠÙĩ Ø§Ø¬Ùħ
ĠÙĦÙħ Ø±ÙĥØ²
ĠØ§ÙĦÙħØ³ Ø£ÙĦØ©
ĠÙĬØŃ Ø¨
ĠØ¨Ø£ Ø³ÙĦÙĪØ¨
Ġ9 6
ÙĪÙĬÙĤ ÙĪÙĦ
ĠÙĨØ§Ø¨ ÙĪÙĦÙĬ
ÙĤÙĬ Ø¨Ø©
ĠØ¨Ø¥ÙĨ ØªØ§Ø¬
ĠØ§ÙĦØµÙĬ ØºØ©
ĠØ«ÙĤ Ø§ÙģÙĬØ©
ĠØ¹ ÙĬÙĪÙĨ
ĠÙĦ ÙĬÙĥ
ĠØ§ÙĦØ¨ Ø§Ùĥ
ĠØ§ÙĦØ± ÙĩØ¨
ĠØµ ÙģØ§Øª
ĠØ¨ Ø³ÙĦ
ĠØ§ÙĦØ¬ ÙĪÙĦØ©
ĠØµ Ø¹Ø¨
ĠØ§ÙĦÙĦ Ø¨
ĠØªØŃ Ø±Ùĥ
ĠØ§ÙĦØ£Ø¯ ÙĪØ§Ø±
ĠÙĩ Ø¶Ø¨Ø©
ĠÙħÙħ ØªØ§Ø²
Ø§ÙĦØ¬ ØºØ±Ø§ÙģÙĬØ§
ĠØ§ÙĦØ³Ø§Ø¨ÙĤ ÙĬÙĨ
ÙĪÙĨØ³ ÙĪ
ĠÙĬ Ø¨ÙĤ
ĠØ§ÙĦØŃ ÙĦÙĤØ§Øª
ĠÙħØ³Øª ÙħØ±Ø©
ÙĪØ§Ùģ ÙĦ
Ø¹ ØªÙĩ
Ø§Ùħ Ø¹Ø§Øª
ĠØ§ÙĦØ¥ Ø®
ĠØªØ´ Ø§Ø±Ùĥ
ĠÙĪØ§ÙĦØªÙĨ ÙħÙĬØ©
Ø¶ Ø§Ø±Ø©
ĠØ§ÙĦØª Ø§Ø¬
ĠØ¬ ÙĦØ§ÙĦ
ĠØ¨ÙĨ ÙĤÙĦ
ĠØ§ÙĦÙĨÙħØ³ Ø§ÙĪÙĬØ©
ĠØ§ÙĦØ§Ø« ÙĨÙĬÙĨ
ĠØ§ÙĦØŃØ§Ø± Ø«
ĠÙĬ Ø¯ÙģØ¹
Ø¹Ø¯ Ø§Ø¡
ĠÙģØ± Ø·
ĠØ§ÙĦØ§ÙĨ ÙĤÙĦØ§Ø¨
Ø§ ÙĬÙģ
Ùĥ ÙĪÙħ
ĠØ§ÙĦØ²ÙħÙĨ ÙĬØ©
ĠØ§ÙĦÙħØ«ÙĦ Ø«
Ø³ Ø®Ø©
ĠÙħ Ø®ØµØµØ©
Ø® ÙĬÙĦ
ĠØ¨Ø§ÙĦ ØªØ¬
ÙĩØ±Ø¨ Ø§Ø¡
ĠØ§ÙĦÙĤ Ø§ÙĦØ¨
ĠØ£Ø¨ÙĪ Ø¸Ø¨ÙĬ
ĠØ¥ØŃØµ Ø§Ø¡Ø§Øª
ĠØ§ÙĦØ£ Ø¶
Ø§ÙĤ Ø·
ĠØ§ÙĦØ± Ø®
ÙĪÙģ ÙĨØª
Ø³ÙĬ Ø¨
ĠØ§ÙĦÙħØª Ùĥ
ĠÙĬÙĤ ØªÙĦ
ĠØ§ÙĦØ³ÙĬ Ø§Ø³ÙĬÙĬÙĨ
Ø¹ ÙĪØ¨Ø©
ĠØ§ÙĦØ¨ÙĦ Ø¯ÙĬÙĨ
ĠØªØµ ÙĪØ±
ĠØŃØ¶ Ø§Ø±Ø©
ÙĦ ÙĪØ§ÙĨ
ĠØ§ÙĦØ¥ Ø¨ÙĦ
ĠÙĪÙĥ Ø§ØªØ¨
ĠØ¨Ø± ÙĪØ³ÙĬØ§
ĠÙĬØ± ØºØ¨
ĠÙĦÙĦÙħÙĨ Ø·ÙĤØ©
ĠÙĪØ§ÙĦ ÙģÙĨÙĪÙĨ
ÙĢ Ø§
ĠÙħÙĩ ÙĨØ©
ĠÙħÙĪØ¬ Ø§Øª
ÙĪ ØºØ±Ø§ÙģÙĬØ§
ĠÙħÙĨ Ø§Ø³Ø¨
ĠØ§ÙĦØ± Ø§Ùģ
ĠØ¨Ø§Ø± Ø²Ø©
ĠØ¨Ø§ÙĦØª Ø§ÙĦÙĬ
ĠØ§ÙĦÙĤØ§Ø¯ Ø³ÙĬØ©
ÙĪ Ø§ÙĨØª
Ø· ÙĬÙĨ
Ø§Ùģ ÙĬØ±
ĠÙĪØ¶Ø¹ Ùĩ
ĠØµØ¯ ÙĪØ±
Ø¹ ÙĬØ§
ĠÙħ ÙĪÙĤ
ĠØ§ÙĦØ¹ Ø°Ø±Ø§Ø¡
Ø¸ ÙĨ
ĠÙħØ³ Ø§
ĠØ¬Ø² Ø¦ÙĬØ§
ĠÙĦØªØŃ Ø±ÙĬØ±
ĠÙĦÙĦØ± Ø¦ÙĬØ³
Øª ØªÙħ
ĠÙģ Ø§ÙĨØª
ĠÙĪØ§ÙĦ Ø«ÙĦØ§Ø«
ĠØ§ÙĦØ¹ÙĤ ÙĪØ¯
ĠØ§ÙĦØ¥Ø´Ø¹ Ø§Ø¹
ÙĤ Ø·Ø©
ĠØ§ÙĦØ£ ÙĤØ§ÙĦÙĬÙħ
ÙĪØ³ Ø§Ø¦ÙĦ
Ø§ÙĨÙĬ Øª
ÙĪÙĨ ØªÙĬØ¬Ø©
ĠÙĪØ£ ÙĦÙħØ§ÙĨÙĬØ§
ĠØ§ÙĦØ¹Ø¨ Ø§Ø³ÙĬØ©
ÙĩØ§ ÙĬ
ĠØ± ØµØ¯
ĠÙĪØ£ ÙĤØ§Ùħ
ĠÙĪØ± Ø¬Ø§ÙĦ
ĠØŃÙĤ Ø¨Ø©
ĠØ§ÙĦÙĤØ· Ø¨ÙĬØ©
ĠÙĪØ§Ø¹ ØªØ¨Ø±
ĠØ³Ø§ÙĩÙħ Øª
ÙĪÙĤØ± Ø§Ø·ÙĬØ©
m a
ĠØ³ Ø¹Ø©
ĠØ§ÙĦØ¯ Ø§Ø¦Ùħ
ĠØ§ÙĦÙħØ³ Ø§Ø¨ÙĤØ©
ÙħØ³ ÙĬÙĨ
ĠÙĤØ± Øµ
ĠØ§ÙĦØµÙģ ØŃØ§Øª
ĠØ§Ø¶Ø·Ø± Ø§Ø¨Ø§Øª
ĠØ§ÙĦØ¶ÙĪ Ø¦ÙĬØ©
ĠØª ØªÙģ
ĠÙĪØ§ÙĦÙħ ÙĪØ§Ø¯
ÙģØ± Øª
Ġ ÙĩØ§Ø¯
ĠØ§ÙĦÙħ Ø¹Ø±Ø¶
ĠØª ÙĪØ¬
ÙĪØ± Ø²
ĠØ£Ùħ Ø«ÙĦØ©
ÙģØ¹ ÙĪÙĦ
ĠØ¨ØªØŃ Ø¯ÙĬØ¯
ĠØ§ÙĦÙĪÙģ Ø§Ø©
ĠØ§ÙĦ ÙĩÙħ
ĠÙģ Ø±ÙĬØ¯Ø©
ĠÙĥ ÙĢ
Ø³ÙĬ ÙĬÙĨ
ĠÙħÙĪ Ø§Ø¶ÙĬØ¹
ĠØ§ÙĦØµÙĦÙĬ Ø¨ÙĬÙĬÙĨ
ÙĨÙĬ ÙģØ§Øª
Ùģ ÙĤØ©
ĠØŃ Ø§Ø³ÙĪØ¨
Ø¬Ùħ ÙĩÙĪØ±
ĠØ§ÙĦÙħØ³ Ø¤
ĠØ¨ ØŃØ¯
Ø¬ Ø§ÙħØ¹Ø©
ĠØ§ÙĦÙħ Ø±ÙĬØ®
ĠØ¯ ÙĬÙģ
ÙĪÙħ ÙĨÙĬÙĪÙħ
ĠÙģ ÙĩÙĨØ§Ùĥ
Øµ Ø§Ø¯
ĠØ³ ÙĪØ¨Ø±
ĠÙĪØŃ ÙĪØ§ÙĦÙĬ
ĠØµØŃ ÙģÙĬ
ig n
ĠØ§ÙĦØ³ Ø§Ø¦Ø¯Ø©
ĠØªÙħ ÙĪÙĬÙĦ
Ġ3 000
ÙĪØ§Ø± Ø¨
ĠØ§Øª Ø¬Ùĩ
ĠÙĬØ¤ ÙĥØ¯
ĠØ§ÙĦØ¥Ø³ ÙĥÙĨØ¯Ø±
ĠØ§ÙĦÙħ ÙĤØ·
ĠÙĦÙĦ Ø¬Ø¯ÙĦ
Ø±ÙĨ Øª
ĠØ¯Ø± ÙĪØ³
ĠÙĪÙģÙĬ Ùĩ
ĠÙĦØŃ Ø²Ø¨
Ø«ÙĬ ÙĪØ¨ÙĬØ§
ĠØ¹Ø±ÙĤ ÙĬÙĨ
Ø¤ Ø³Ø§Ø¡
ĠÙĪÙĦ Ø¹ÙĦ
ÙĪØŃ ÙĬØ©
ĠÙĪØ± Ùħ
ĠÙĪÙĦÙĬ Ø³Øª
ĠØ§ÙĦÙħØ³Ø§ ÙĪØ§Ø©
Ø§ÙĦ Ø²
Øº Ø§Ø¯Ø±
Ø±Ùĥ Ø¨
ÙĪÙĬ Ø¨ÙĦØº
ØªØŃ ÙĪÙĦ
ØµÙĦ Ø¨
ĠÙĪØ§ÙĦØ´ Ø¹Ø±
ic h
ĠØ§ÙĦØ¯ÙĪØ± Ø§ÙĨ
ĠÙħØ®ØªÙĦØ· ÙĬÙĨ
s e
ĠØ§ÙĦÙħ Ø¹ÙĦ
ĠÙĩ ÙĥØ°Ø§
ĠØ® ÙĦÙĬØ©
ØªÙħ Ø§Ùħ
ÙĪØª Ø¹Ø¯
ĠØ§ÙĦÙħØª Ø¸Ø§ÙĩØ±
ĠØ§ÙĦØŃÙĥ ÙĬÙħ
ĠØ§Ø« ÙĨØ§ÙĨ
ĠØ§ÙĦÙĪØ± ÙĤ
ĠØ§ÙĦØ¨Ø¹ Ø«Ø©
Ø§Ø· Ø¨
ĠØ²ÙĬ Ø§Ø¯
ĠØ§ÙĦÙħØ³Ø¤ÙĪÙĦ ÙĬÙĨ
ĠØ§ÙĦÙģØ¹ ÙĦÙĬ
Ø´ ÙĬÙģ
ĠØ« Ø±
ĠÙĪØ¥ÙĨ ØªØ§Ø¬
ĠÙĪØµÙģ Ùĩ
ĠØ§ÙĦ Ø§Ø²
ĠØ¨ Ø¶Ø¹
ÙģØª Ø§ØŃ
Ġ8 8
ĠØ³ÙĦ Ø·Ø§Øª
ĠØ³Øª Ø§ÙĨ
ĠÙĪÙĬØ± Ø¬Ø¹
ĠÙģ Ø¯
ĠØ£ Ø³ÙĦØŃØ©
ĠØ£ÙĨ Ø¯
ÙĪÙģ Ø³ÙĥÙĬ
ĠØ« Ø¨Øª
ĠØ§ÙĦØªØ¹ Ø¯ÙĬÙĦ
ĠÙĦØªØŃ Ø³ÙĬÙĨ
Ø§ÙĥØª Ø¦Ø§Ø¨
ĠÙģ Ø§Ø´
ĠØ§ÙĦØª ÙĥÙĪÙĬÙĨ
ĠØ¥ÙĨ ÙĩØ§Ø¡
Ø«Ùħ Ø§Ø±Ø§Øª
ĠÙĦÙĬ ØªÙħ
ĠØ§ÙĦØ¹ÙĦ Ø§ÙħØ§Øª
ĠØ§ÙĦØ¬ÙħØ§ Ø¹ÙĬ
ĠÙħØ¹ Ø§ÙĨ
ĠØ§ÙĦØ° ÙĥØ§Ø¡
ĠØŃØµ Ø§ÙĨ
ex t
Ø® Ø§Ø¶
ĠØ§ÙĦØª ÙħÙĪ
ĠØ§ÙĦØ¥ÙĨ ÙĥÙĦÙĬØ²ÙĬØ©
ĠØ¨Ø¨ Ø³Ø§Ø·Ø©
ĠØ§ÙĦØ«ÙħØ§ÙĨ ÙĬÙĨÙĬØ§Øª
ĠÙĨØ§Ø¦ Ø¨Ø§
Ø° Ø§Ø¹Ø©
Ø¢ Ø«Ø§Ø±
ØŃÙĪ Ø§ÙĦÙĬ
ĠØ§ÙĦÙĥÙĨ Ø¯ÙĬ
ĠØ§ÙĦØ«ÙĤ Ø§ÙģØ§Øª
ĠÙĦÙĦØ§Ø³Øª Ø®Ø¯Ø§Ùħ
ĠØ§ÙĦÙĪÙģ Ø¯
ĠÙħ ÙĪÙĦØ¯
ÙĪÙĨ ÙĬÙĨ
ĠÙĪØ§ÙĦ Ø´Ø±ÙĤ
ĠÙĩ ÙĪÙĨØº
ĠØ® Ø¶Ø±
Ø§Ùĩ ÙĦ
ĠØ§ÙĦÙħØ³Øª Ø´Ø§Ø±
ĠØªØ± ØªÙģØ¹
ĠØ§ÙĦÙħÙĩ Ø§Ø¬Ùħ
ĠØ§ÙĦØµØŃÙĬ ØŃØ©
ĠÙĤØ¨Ø± Øµ
ĠÙħ ÙĪØ§Ø±Ø¯
ÙĪØ² Ø±Ø§Ø¡
ĠÙĤØ§ÙĨÙĪÙĨ ÙĬØ©
ĠÙħÙĨ Ø¯
ĠØ§ÙĦØ¥ Ø·Ø§Ø±
ÙĬØ§Øª ÙĬ
ĠØ§ÙĦØ³ÙĬ Ø§Ø¯Ø©
ĠÙĦ ÙĬØ±
ĠØª Ø±ÙĬØ¯
ĠÙĪØ§ÙĦ Ø¨ÙĨ
ĠØ³ ÙĬØ§ÙĤ
ĠØ´ ØªØ§Ø¡
ÙĪØª Ø´ÙĬ
ÙĢ Ø±
Ø§ÙĨØ¯ ÙĪ
Ø§ÙĨ Ùħ
ĠØ³ Ø§Ø¦Ø±
ĠÙħØ¹ ÙĤØ¯Ø©
ĠØ¨Ùħ Ø¯Ø±Ø³Ø©
ĠØ¹ ÙĤÙĦ
Ø§Ø¦ ÙĥØ©
ĠØ§Ø¹ ØªÙĤØ¯
ĠØ§ÙĦØ£Øµ ÙģØ±
ÙĨ Ø¸Ø§Ùħ
ĠÙĥÙĦ ÙĬÙĨ
ĠØ¨Ø± ÙĦÙħØ§ÙĨ
ĠØ§ÙĦØ±ÙĬ ØŃ
ĠÙĦØ¬ Ø§ÙħØ¹Ø©
Ø¹ ÙĪÙħØ©
ĠØ¹ Ø²ÙĬØ²
ĠÙĬ ÙģØ¶ÙĦ
ĠØ¥ ØŃØ¯Ø§Ø«
ĠÙĪØª ÙĪØ¬Ø¯
ÙĪØª Ø§Øª
ĠØ¶ ÙħØ§ÙĨ
ĠÙĪØ§ÙĦØª Ø´
ĠØ¶ÙĪ Ø¦ÙĬØ©
Ø§ ÙĬØ´
ĠÙĥ ÙĬØ¨
ĠÙĪØ« Ø§Ø¦ÙĤ
Ñ Ģ
Ø® ÙĬØ±Ø©
ĠÙĪØ§ÙĦ Ø§ØªØŃØ§Ø¯
ĠØ§ÙĦÙĦ Ø§Ø³
ÙĦØ¨ ÙĬÙĨ
ĠØ´Ø¹Ø¨ Ø§ÙĨ
ĠÙħØ¬Ø± Ùī
ĠÙĪØ²ÙĪØ¬ ØªÙĩ
ĠÙĤ Ø§Ø±Ø©
ĠØ§ÙĦØ³ Øª
ĠØ§ÙĦØ³ Ø§Ùħ
ĠØ§ÙĦØ¥ Ø´Ø§Ø±Ø§Øª
ĠÙħØ´ ÙĩØ¯
ĠØ¯ ÙĬÙĨÙĬ
ĠØ§ÙĦØµ ÙģØ§Øª
ÙħØ§ÙĦ ÙĬØ©
ĠØ§ÙĦÙħØ´ ØªØ±ÙĬ
ĠÙħÙĩ ÙĨØ¯Ø³
ĠØ§ÙĦØ³ ÙĦÙĬÙħ
ĠÙĬØ± ÙģØ¶
Ø± ÙģØª
Ø¯ ÙĤ
ĠØ¨ Ø§Ø²
ĠØ§ÙĦÙħ Ø³Ø±ØŃÙĬ
ĠØ³ ÙĬØ±Ø©
ÙĪØ± Ùħ
ĠØ§Ø³ ÙĥØªÙĦÙĨØ¯Ø§
ĠØ§ÙĦØ¨Ø¯ Ø¡
ÙĪÙĬ Ø¹Ø¯
ĠØ§ÙĦØ± Ø¯
ĠØ§ÙĦØ° Ø§Øª
Ø§ÙĦÙħ Ø¤
ÙĤØ± Ø§Ø¡
ĠÙĬÙĤ ØµØ¯
ĠØ§ÙĦØ³Ø¨ Ø¹Ø©
Ø§ÙģØ± ÙĬÙĨ
ĠØª ÙĦÙħÙĬ
ĠØ§ÙĦØª ÙģØ§Ø¹ÙĦØ§Øª
ĠØº Ø§ÙĦ
Ø³Ùħ Ø§ØŃ
ĠØªØª ØŃØ¯Ø«
ĠØªØ® Ø¶Ø¹
ÙĦÙĬ Ø·
ĠØ§ÙĦÙĥ Ø§Ø¦ÙĨ
ÙĤØ¯ Øª
ÙĬØ¹ Ø§Ø¨
ĠØ§ÙĦÙĨØ¨ ÙĪÙĬØ©
ĠØ§ÙĦØ¨ÙĪØ³ ÙĨØ©
ĠØ§ÙĦ Ø§Ø¶
ĠØ¨ Ø²ÙĬØ§Ø¯Ø©
Ø§ÙĨ Ø¶Ùħ
ĠØ§ÙĦØ³ØªÙĬÙĨ Ø§Øª
Ùħ Ø§Ø±Ø©
ĠØ¨ Ø§ÙĬØ±
Ø¶ Ø§Øª
ĠØ§ÙĦÙĥ ÙĪÙģØ©
Ø§Ø· Ùģ
ĠØ§ÙĦØ¢ ÙĦÙĬ
ĠÙĬØª ÙĪØ§Ø¬Ø¯
Ø§Øº ÙĨ
ĠÙĪØ´ Ø±ÙĥØ©
ĠØ§ÙĦØªØ³ Ø¹ÙĬÙĨÙĬØ§Øª
ĠØ§ÙĦØªÙĦÙģØ²ÙĬ ÙĪÙĨÙĬ
a h
ĠØ¹ Ø¯ÙĦ
ĠØ¶ ÙĬ
Ø´ÙĬ Ø¡
ĠØ§ÙĦØ« Ø§ÙĨÙĪÙĬ
ĠØ¨Øª Ø£Ø³ÙĬØ³
ĠÙģØ£ Ø±Ø³ÙĦ
ĠØ¨Ø§ÙĦØ¯ ÙĪØ±ÙĬ
ĠÙģ ÙĪÙĥØ³
ĠØª Ø°
Ø§Ø¹ ØªÙĩ
ĠØ§ÙĦÙħØŃ ØªÙĦØ©
ĠÙĥØ« Ø±Ø©
ÙĪØ§Ùģ Ø°
ĠØ¹ Ø¯ÙĬ
ĠØª ÙĪÙĦÙĬ
ĠÙĪØ§ÙĦØ£ Ø±
ĠØ§ÙĦÙħØ³Øª ÙĪÙĬØ§Øª
ĠØªÙĨ ÙħÙĬØ©
ĠÙĪØ¥ Ø®Ø±Ø§Ø¬
Ġ13 5
ÙħÙĦÙĪÙĥ Ø©
Ø§Ø³ ÙħØ©
ĠØ§ÙĦØ¬ ÙĨØ©
ĠÙĪØª Ø³ØªØ®Ø¯Ùħ
Ø³Ø· ØŃ
ĠÙĬØª ÙĨØ§ÙĪÙĦ
ĠØ«ÙĦ Ø«
ÙĬÙĨ Ùĩ
ĠØ§ÙĦØ« ÙĪØ±ÙĬ
ĠØ³ÙĦ Ø·ÙĨØ©
ĠØ§ÙĦØ³ØªÙĬÙĨ ÙĬØ§Øª
ĠØ£ ÙĪØ³Ø¹
ØªÙħ ØªÙĦÙĥ
ĠØ§Øª ÙĩÙħ
ĠÙĦØŃ Ø¸Ø©
ĠÙĤØ§ÙĨÙĪÙĨ ÙĬ
ĠØ´ ÙĬØ¯
Ø§ÙĨØª ÙĬ
ĠÙĪÙĥ Ø£Ø³
ĠØ§ÙĦØŃÙĥ Ø§Ùħ
ĠØ¬Ø§Ùĥ Ø³ÙĪÙĨ
Ø£ Ø¨
ĠØ³ ÙĦÙģ
ĠØ§ÙĦØŃ Ø´
ÙĪÙĤ Ø§Ùħ
ĠÙħØ³ ÙĦÙħØ©
Ï Ĥ
ĠÙħ Ø³Ùħ
ĠÙģ ÙĨÙĬ
ĠØª ØªØ±
ĠÙĤ Ø§Ø±
Ø§Ø¦ Ø±ÙĬØ©
ĠØ¨Ø± Ùħ
ĠÙĪØŃ Ø§ÙĪÙĦ
ĠØ§ÙĦØªØ¹ Ø¯ÙĬÙĦØ§Øª
ĠØ¹ÙĦ ÙĬÙĨØ§
ĠØ§ÙĦÙĦÙĬ Ø¨ÙĬ
ĠÙģÙĦØ³Ø· ÙĬÙĨÙĬ
Ø¬ ÙĪØ¡
ĠØª ÙĤÙĬ
ĠÙĤ ØµÙĪØ±
ĠØ§ÙĦØŃ Ø§Ø¯Ø«Ø©
ĠÙĪØ¹ Ø§ÙĦÙħ
ØŃÙĪ Ø§Ø°
ĠÙħØ±ÙĥØ² ÙĬØ©
ĠÙģØ¹ ÙĦØ§
ĠØªÙĨØª ÙĤÙĦ
ĠØ³Ùĥ ÙĪØª
ĠØ§ÙĦØ¨Øµ Ø±ÙĬ
ĠÙĦ ÙĪØŃØ§Øª
ĠØ§ÙĦØ£ Ø¨Ø±
ĠÙĦÙĦ ÙħÙĦ
ĠØ§ÙĦØ« ÙĨØ§Ø¦ÙĬØ©
ĠØ§ÙĦØ§ØŃØªØ± Ø§ÙģÙĬØ©
ĠÙĦ ÙĤÙĬØ§Ø³
ĠØŃ Ø§Ø¯
ĠØ§ÙĦØ¬ ÙĪÙģÙĬØ©
ĠØ§Ø³Øª Ø¯
ĠÙĪØ¨ ÙĨÙĬ
ĠÙħØ³ Ø§Ø¬Ø¯
ĠÙĪØ¹ ÙĬ
ĠØ¥Ø¯ Ø±ÙĬØ³
ĠÙĨÙģ Ø³ÙĬ
ĠØªÙĪÙģÙĬ ÙĤ
Ø± ÙĩØ§
ÙĪÙĦ ÙĬØª
ĠØªØª ØºÙĬØ±
ÙĪÙĦÙĬ Ø§ÙĨÙĬ
ĠØ§ÙĦÙĤ Ø§Ø¨ÙĦØ©
ĠÙħØ¤ÙĦÙģ Ø§ØªÙĩ
ĠØ£ Ø¶Ø§Ùģ
ĠÙħÙĤ Ø¨
Ġ7 2
ĠÙĦØŃ ÙĦ
Ø°Ø¨ ØŃØ©
ĠØ¬Ø§ÙĨ Ø¨ÙĬ
Ø§Ø³ Ø§ÙĨ
Ø¨ÙĬ Ø§Ø¡
ĠØ¶ ÙħØª
ĠØ£Ø³ ÙĪØ§ÙĤ
ĠØ¥ ÙħØ¨Ø±Ø§Ø·ÙĪØ±ÙĬØ©
ĠÙĪÙħ Ùĩ
ĠÙħØ± ØªÙģØ¹
ĠÙħØ¨ Ø§Ø±
ĠÙħØ¤ ÙĦÙģØ§Øª
ĠØ§ÙĦÙĥÙĩØ± ÙĪÙħØº
b er
ÙĦ Ø°Ø§
ÙĪ Ø§Ø´
Øª ÙĤØ¯Ùħ
ĠØŃ ÙĬÙģØ§
ĠØ§ÙĦØŃ ÙĪØ¶
ĠÙħØª Ø®ØµØµ
ĠÙĦØŃ Ø±ÙĥØ©
ĠØ§ÙĦØ£Ø± Ø²
Ø§Ø±Ø¨ ÙĬÙĨ
ĠØ§ÙĦØªØ´ ÙĥÙĬÙĦ
Ð ½
ĠØ´ Ø±ÙĬÙģ
ĠÙģÙĨ ÙĪÙĨ
ĠØ®Ø§Øµ ÙĬØ©
ĠØ¨Ø¯Ø¡ Ø§
ĠØ§ÙĦØ³ÙĪÙĬ Ø¯ÙĬØ©
ĠÙĬ Ø±Ø¯
ĠØ§ÙĦØŃ Ø¸
ÙģÙĬ ÙĤ
ĠØ§ÙĦÙģ ÙĬØ±
ÙĩØ± Ø§Øª
ĠÙħØ¶ Ø§Ø¯
ĠØ§ÙĦØª ÙĥÙĨ
ĠØ§ÙĦØ£Ø³ ÙģÙĦ
ĠØ§ÙĦÙħØ² Ø§Ø±Ø¹
ØªÙĥ Ø§Ùĥ
Ø¯Ø®ÙĦ Øª
ĠÙĥ ÙħØ±
ĠØŃ Ø±Ùĥ
ĠØ¬ Ø³Ø¯
ĠØ§ÙĦØŃ ÙħØ§Ùħ
Ø§Øº ÙĬ
ÙĥØ±ÙĬ Ø§
ĠØ§ÙĦØ§ÙĤ ØªØ±
ĠÙģØ± Ø³Ø§ÙĨ
ĠÙĥØ± Ø¦ÙĬØ³
ĠØ¥Ø³Ø¨ Ø§ÙĨÙĬ
ĠØ§ÙĦÙħØ¹ ØªÙħ
ĠØªØ´ ØªÙĩØ±
ĠØ¯Ø§Ø® ÙĦÙĬ
m an
Ùĥ ÙĪÙĦ
ĠØ£ Ø¹Ø¶
ĠÙĦÙĦ Ø³ÙĦØ§Ùħ
ĠØ£ÙĨ Ø´Ø·Ø©
ĠØ´ Ø§ÙħÙĦ
ĠØ§ÙĦÙĨ Ø§Ø±ÙĬØ©
ÙĥØ± ÙĬÙĨ
ÙĢ ÙĨ
Ø£ÙĨ Ø§
ĠØ§ÙĦØ² Ø±ÙĤØ§Ø¡
ĠØªØ² Ø§ÙĬØ¯
ĠØ§ÙĦØ§Ø± ØªØ¨Ø§Ø·
ĠÙħ ØµØ¨
ĠØª Ø³ÙĦ
ĠØ§ÙĦÙĤ Ø·Ø±
Ø´Ø± Ø·Ø©
ĠØ§Ø³Øª Ø¦
ĠÙħÙĪ Ø§Ø·
ĠØ³ ÙĬØ³
ĠØ¬ ÙĪÙĬ
Ø§ØŃ ÙĤØ§
ØªÙģ ÙĦ
ĠØ§ÙĦØ¨Ø± ÙĦÙħØ§ÙĨÙĬØ©
ĠØ§ÙĦØ§Ø® ØªÙĦØ§ÙģØ§Øª
Ø§ÙĦØ¹ Ø¯ÙĬØ¯
ĠØ§ÙĦÙħÙĨØ² ÙĦÙĬØ©
ĠØª Ø§Ø¬
Ġ6 2
Ġ0 9
ĠØ§ÙĦÙĩ ÙĨÙĪØ¯
ĠØ´Ø®Øµ ÙĬ
ĠØ¹Ø± Ø§ÙĤÙĬ
ĠØ§ÙĦØ±Ø¨ Ø§Ø·
ĠØ§ÙĦØŃØ¶ Ø§Ø±Ø§Øª
ĠØ£Ø¬ ÙħÙĦ
ĠØ§ÙĦØ´Ø±ÙĬ Ø§ÙĨ
Ġ an
ÙĪ Ø°ÙĦÙĥ
ÙĪÙĤ Ø¹Øª
ĠØ¨Øª ÙĦÙĥ
ĠØ§ÙĦØ¥ØºØ±ÙĬÙĤ ÙĬØ©
Ġ us
ĠØ¨ ÙĬÙĪ
ĠØª Ø¶Ø¹
ĠØµ Ø±Ø¨ÙĬØ§
ĠØ§ÙĦØ¸ ÙĩÙĪØ±
ĠØ§ÙĦÙħØ´Ø§Ø±Ùĥ ÙĬÙĨ
ĠØ§ÙĦÙģ ØŃØµ
ĠØ§ÙĦÙĪ Ø§Ø³Ø¹Ø©
ØªØµ Ø§Ø¨
in k
ĠÙĥØ§Ùħ ÙĦØ§
ĠÙĪÙĥ Ø°Ø§
ĠØŃÙĬØ§Øª ÙĩÙħ
Øª Ø·ÙĪØ±
Ùĥ Ø§Ø«Ø±
ĠØ¨ Ø§Øº
Ø® Ø±ÙĬ
Øª Ø¹Ø±Ø¶
ĠÙħ ÙĦÙģØ§Øª
ĠÙĪØ§ÙĦ ÙĬÙĪÙĨ
ĠØ³ ÙģÙĬØ§ÙĨ
ĠÙĪØª ÙĤØ¯Ùħ
ÙĪÙģ Ø§ÙĨ
Ø«Ùħ Ø§ÙĨÙĬØ©
Ø§ÙĥØªØ´ Ùģ
ÙĨ Ø´Ø±
ĠÙĪØ§ÙĦÙħ ØºØ±Ø¨
Ġ0 1
ĠØ¥Ø¯ Ø§Ø±ÙĬØ©
ĠØ§ÙĦØªØ®ØµØµ Ø§Øª
ÙĦÙĬ ØŃ
ÙĦÙĬ ÙĤØ§Øª
ĠÙĪÙĦ Ø§Ø¯Ø©
ĠÙĪÙĬØ¹ ØªÙĤØ¯
ĠÙĥ Ø§Ø«ÙĪÙĦ
ĠØ³ ÙĤØ·
ĠØ¬ ÙĪØ§ÙĨ
ĠØ§ÙĦØ³ ÙĪØ¨Ø±
ĠØ§ÙĦØ¯ ÙĦÙĬÙĦ
ĠØ§ÙĦØ® Ø¶
ĠØ§ÙĦØ· ÙĪØ±
ĠØ¥ÙĨ Ø¬ÙĦÙĬØ²ÙĬ
ĠÙĦ Ø§Ø±
ĠÙĦ Ø¨ÙĦ
ĠÙħÙĤ Ø§Ø¹Ø¯
ĠØªÙĦÙģØ²ÙĬ ÙĪÙĨÙĬ
ĠØ£ÙĨ Ø¬ÙĦÙĪØ³
ĠØ± ÙĬÙħ
ĠØ§ÙĦØ¯ ÙĤØ©
ØªØ¨ Ùĩ
ĠØ§ÙĦØ£Ø³ Ø§Ø·ÙĬØ±
ĠÙģØ±ÙĬÙĤ Ùĩ
ĠØ¬ÙĪÙĨ Ø²
ĠÙħØ¤Ø³ Ø³ÙĬ
ÙĪÙĬ Ø³Øª
ĠØ§ÙĦØ® ÙĦÙĬÙĦ
ĠÙĪÙħ Ø®
ĠÙģÙĦ ÙĪØ±ÙĬ
ĠØª ÙĪØµ
ĠØ§ÙĦØŃ ÙĤÙĦ
Ø§Ùģ Ø¦Ø©
ĠÙħØŃ Ø§ÙĥÙħ
ĠØ£Ø¨ Ø¹Ø¯
ĠÙĦÙĦÙĨ Ø§Ø¯ÙĬ
ÙĪÙĨÙĬ ÙĪÙħ
ĠØ¥Ø³ ÙĤØ§Ø·
ĠØºØ± ÙĬÙĨ
Ø§ÙĦÙħÙĪ Ø¦ÙĦ
Øµ Ø§Ø±Ø§Øª
ĠÙĤ Ø§Ø¹
ĠØ§ÙĦØ· ÙĬØ¨
ĠØ§ÙĦØ· ÙĬØ§Ø±
ØªØŃ ÙĤ
ĠØ§ÙĦØ² Ø¨ÙĬØ±
ĠÙĪØªÙĨ Ø¸ÙĬÙħ
ĠØ§ÙĦÙģÙĦÙĥ ÙĬØ©
ĠØ§ØŃØªÙĦ Øª
ÙĨ Ø´
Ø³ ÙĥÙĪ
ĠØ¨ Ø¹Ø±Ø¶
ĠØ§ÙĦÙħØ¯ Ø§ÙģØ¹
ĠØ§ÙĦÙħÙħ Ø§Ø±Ø³Ø©
ĠØ§ÙĦØªØ± ÙģÙĬÙĩ
ĠØ£ÙĪØ±ÙĪØ¨ ÙĬØ©
ÙĦØ² Ø§ÙĦ
ĠÙĥØ§Ø±ÙĦ ÙĪØ³
ĠÙģØ´ ÙĦØª
Ø± Ùĩ
Ùģ Ø³ÙĬ
ĠÙģ Ø³ÙĬ
ĠØ® ÙĪØ§Øµ
ĠØ¨ÙĤ Ø§Ø¡
ĠÙĪØ§Ø³Øª Ø®Ø¯Ùħ
Ùħ ÙħØ©
ĠØ§ÙĦÙģ Ø¬
ØªØ± Ø§Ùħ
ĠØªØµ ÙĨØ¹
ĠØ§Ø´ ØªÙĩØ±Øª
ĠØ§ÙĦØ¥Ø³Ø¨ Ø§ÙĨ
ĠØ£ ØªÙī
ĠØ§ÙĦØ¬ ÙĪØ§ÙĨØ¨
ĠØ§ÙĦØ° Ø±Ø§Øª
ĠÙĬÙĤ Ø¶ÙĬ
ĠØ§Ø¨ÙĨ ØªÙĩ
Ø³ÙĬÙĨ ÙħØ§
ĠÙĬØ¯ Ø¹ÙĪ
i re
Ø§Ø³ Ø·
ĠÙĪÙĬ ÙĤØ§ÙĦ
ĠØ§ÙĦØ¨ÙĬ Ø¦ÙĬ
ĠØ§ÙĦØ®Ø· ÙĪØ©
ĠÙħØ¶ Ø§Ø¹
ĠØ§ÙĦØ£Ø¨ Ø¬Ø¯ÙĬØ©
ĠØ§ÙĦ Ø§Ø·
Øµ ÙĪØ¯
ÙĥÙĦ ÙĬÙĨ
Ø³Ø· ÙĪ
ĠØ§ÙĦÙħØ´ ÙĩØ¯
ØªÙħÙĬ ÙĬØ²
Ø³Ø·ÙĨØ· ÙĬÙĨ
ĠØ¹ Ø§Ø±Ø¶
ĠØ³ Ø§Øª
ĠÙĩ Ø²ÙĬÙħ
Øº Øª
ĠØ± ÙĬÙĥ
te d
ĠÙĦÙĦØ³ÙĬ Ø§Ø±Ø§Øª
ĠÙģØ±Ø§ÙĨØ³ ÙĬØ³ÙĥÙĪ
Ġ Ø§Ø°
ĠØ§ÙĦÙħ Ø®ØªØ¨Ø±
ĠÙĤ ØµÙģ
ĠØ± ÙĬØ³
ĠØ´ Ø§Ø·Ø¦
ĠØ§ÙĦØ· ÙĤØ³
Ø³ØªØ± Ø§
ĠØ±Ùģ Ø¹Øª
ĠÙĨ Ùĥ
ĠØ´ Ø§ÙħÙĦØ©
ĠÙħØ¹ ÙĬ
ĠØ§ÙĦØ¯Ø± ÙĪØ²
ĠØ§ÙĦØ¨Ø· ÙĨ
ĠÙĪØªØ±Ùĥ ÙĬØ§
i de
ĠØŃ ØµØ©
ĠØ§ÙĦÙĤ Ø¯Ø±
ĠØ£Ø³ Ø¯
ĠØ£Ø¯ Ø¨
ĠØ§ÙĦØªÙĨ Ø§Ø³
ĠØ§ÙĦØ¬ÙĨ ÙĬÙĨ
s p
ĠØ§ÙĦØ´ ÙĬØ´
ĠØ§ÙĦØ¢ Ø±
ĠØ§ÙĦØ«ÙĦØ§Ø« ÙĬÙĨ
ĠØ§ÙĦØ£Øº Ø°ÙĬØ©
Ø±Ùĥ Ø¨Ø§Øª
Ø§Øµ ÙģØ©
ÙĪØ§ ÙĪÙĬÙĨ
ÙĪÙĥ ÙħØ§
ĠÙĦØ¬ Ø§Ø¦Ø²Ø©
ĠØŃØ§ÙĪÙĦ Øª
ĠÙĥ ÙĪÙħÙĬØ¯ÙĬ
ĠÙĤ ÙĦÙĤ
ÙģÙĦ Ø§Ø·
ĠØ¨Ø£ Ø³ÙħØ§Ø¡
ĠØ¨Ùĥ ØªØ§Ø¨Ø©
ĠØ§ÙĦØ¹Ùħ ÙĪÙħÙĬØ©
ĠØ§ÙĦÙħÙģ ØªØ±Ø¶
Ø§ÙĦ Ø§ÙĤØªØµØ§Ø¯
ÙĩØ§ Ø¨ÙĬØ©
ĠØ¬ Ø°Ø¨
Ø¨Ø± Ø¬
ĠØ§ÙĦØ£Ùħ Ø¹Ø§Ø¡
ÙĪØ£ ÙħØ§
ÙĬÙĪÙĨ Ø§Øª
ĠØ¶Ø¹ ÙĬÙģØ©
ĠØ° Ø±Ø©
ĠÙħØ± Ø´ØŃ
Ø¹Ø· Ùī
Ø¨ Ø¨
ĠØ§ÙĦØ· Ø§Ø¦ÙģØ©
ĠØ£ÙĬ ÙĪØ¨
ĠØ¢ ÙħÙĨ
ĠØªØ³Øª ÙħØ±
ĠÙħØ® ØªØµ
ĠØ§ÙĦØµØ§Ø± ÙĪØ®
Ø§ÙĦ Ø§ÙĨØª
ĠØ§ÙĦØª ÙĥÙĦÙģØ©
ÙĨØ¯ Ø§Øª
ĠÙĦØ¹ Ø§Ø¦ÙĦØ©
ĠÙĨØ´Ø± ÙĩØ§
ĠÙĦ ÙĪØ¶Ø¹
ĠÙĥ ÙĪÙĬØªÙĬ
ĠØ§ÙĦØ¨ Ø°ÙĪØ±
ÙĬØ³ Ø§
ĠÙĪØ¹ Ø§Ø´
ĠÙħØ¨ Ø§ÙĨÙĬ
ĠØ§ÙĦÙĤØ± Ùħ
ĠØª Ø´Ø±
ĠÙĨ ØªØ¬
ĠØ¯ ÙĬÙĪ
ÙĬØ¹ ØªÙħØ¯
ĠØ¶ Ø¨Ø·
Ø¹Ùħ Ø§Ø±Ø©
ĠØ£ÙĪÙĦ ÙĬ
ØªØ¯ ÙĪØ±
ĠØ§ÙĦØŃÙĥ ÙħØ©
ĠØ¹Ø¨ Ø§Ø¯Ø©
ĠÙĪØµ ÙĬ
ĠØ§ÙĦØµØŃ ÙĬÙģØ©
ĠØ§ÙĦÙģ ÙĬÙĨ
ĠÙĬÙĩ ÙĪØ¯ÙĬØ©
ĠÙĪØ§Ø± ØªÙģØ§Ø¹
ĠØ§ÙĦØ¨ÙĪØª Ø§Ø³ÙĬÙĪÙħ
ĠØ£ Ø¬Ø¯
Ø§Ùħ ÙĬÙħ
ĠØ§ÙĦÙĤ ÙħØ©
ÙĬØª Ø§Ø±
ĠØ¢ Ø±Ø§Ø¡
ĠØ¹ÙĦ ÙħØ§
ĠØ¹ÙĦ Ø§ÙĤ
ĠØ¬ÙĪÙĨ Ø³ÙĪÙĨ
ĠØ§ÙĦØ¥Ø¹ÙĦ Ø§ÙħÙĬØ©
ĠÙĦÙĨÙģØ³ Ùĩ
ĠØ§ÙĦØµ ÙĪÙģÙĬØ©
ĠØ§ÙĦØº Ø´Ø§Ø¡
ĠÙĬÙĤÙĦ ÙĦ
ĠØ§ÙĦ ÙĦØ§Ùĩ
ĠØ§ÙĦÙĪ Ø§Ø¬
ĠÙĪØ§ÙĦÙħ ÙħÙĦÙĥØ©
ĠÙĪØ§ÙĦØ¹ ÙĦÙħ
ĠØ§ÙĦØ£Ø´ ÙĩØ±
ĠL e
Ġ190 6
ĠØ§ÙĦØ´ ÙĩØ¯Ø§Ø¡
ĠØ§Ø³Øª ÙĪÙĦÙī
ĠÙħØ´ ÙĩÙĪØ±Ø©
ĠØªØ§Ø±ÙĬØ® ÙĬØ§
ĠØµÙĨ Ùģ
ĠØ§ÙĦÙģÙĤØ± Ø§Ø¡
ĠÙħ ÙģÙĬØ¯Ø©
ØµÙĦ Øª
ĠÙħØŃ Ø³ÙĨ
ĠØ§ÙĦØ§Ø³Øª ÙģØ§Ø¯Ø©
Ġ0 8
ĠØ¬ÙĨÙĪØ¨ ÙĬ
ĠØ§ÙĦÙĤÙĬ ØµØ±
Ø§ÙĦ ÙĬÙĦ
ĠØ± Ø§Ø¦Ø¯
ĠÙĩØ° ÙĬÙĨ
ĠØ£Ø¨ ÙĪÙĩ
ÙĪÙĦÙĬÙĪ ÙĪØ¯
ĠÙħÙĬÙĦ Ø§
ĠØ§ÙĦØ£Ø±Ø¨Ø¹ Ø§Ø¡
ĠØ§ÙĦÙĨØ± ÙĪÙĬØ¬
u g
ĠØ§ÙĦØŃ Ø§Ø¯
ĠØ§Ø³Øª ÙĤØ¨Ø§ÙĦ
ĠÙħÙĤ Ø§ØªÙĦ
ĠØ§ÙĦÙħØŃÙħ ÙĪÙĦØ©
ØŃ Ø¶
ĠÙĥ ÙĬÙħ
Ø£ ÙĥØ«Ø±
Øº Ùī
ĠØ§ÙĦØ´ Ø§Ø¦Ø¹
ĠØµ Ùħ
Ø¹Ø¨ ÙĬØ©
ĠØ§Ø® ØªØµØ§Øµ
ĠÙĦÙĦØ¹ Ø§ÙĦÙħ
ĠØ£ ÙĬØ¯
ĠÙĦ ØµÙĨØ§Ø¹Ø©
ØªÙĦ Ø·Ø©
or e
Ø¹ ÙĪÙħ
ÙĪÙĤ Ø§Ùģ
ĠÙĪØ£ Øµ
ĠØ§ÙĦÙħØ³Øª Ø´ÙģÙĬØ§Øª
ĠØ£Ø³Ø³ ÙĩØ§
ĠØ§ÙĦØ²ÙĬ Ø§Ø¯Ø©
ĠØªÙħÙĨ Ø¹
ĠÙĦ ÙĤÙĬ
ĠÙĪØ§ÙĦ ÙģØ¶
Ø§Ø· Ø¦Ø©
ĠÙĬØŃ ÙĪÙĬ
Ø¹Ø§Ø¯ Øª
Ġ en
ĠÙĬØª Ø³Ø¨Ø¨
ĠØ§ÙĦØ¹ÙħÙĦ Ø§Ø¡
ĠÙģÙĤØ¯ Øª
Ø¨Ø¹Ø¯ ÙĩØ§
ĠÙĦØªØ´ ÙĥÙĬÙĦ
ĠØ£ Ø³ÙĬ
ĠÙĩ ÙĦØ§ÙĦ
ĠØ¬ Ø§Ùĩ
ĠÙĦÙĦ Ø¹ÙĦØ§Ø¬
ĠØ± ÙĪÙĦ
ĠÙĬÙĨ Ø§ÙĩØ²
ÙĪØ§Ø± ÙĩØ§
ĠØ§ÙĦØ³ÙĦ Ø·ÙĨØ©
ĠØ§ÙĦØ§Ø³Øª ÙĪØ§Ø¦ÙĬØ©
ĠØ¨ÙĪ ØªØ±
ĠØ§ÙĦÙĦ ÙĪØŃØ©
ĠØ§ÙĦØ§Ø³Øª Ø´
ÙĪØº ÙĪØ§ÙĬ
ĠØ¥Ùħ ÙĥØ§ÙĨ
ĠØ£Ø±Ø¶ ÙĬØ©
ĠØªØªÙħ Ø«ÙĦ
ĠØ´Ø£ÙĨ Ùĩ
ĠØ¹ Ø²Ùħ
ĠÙĥ ÙħØ¯
ĠØ§ÙĦØ¬ Ø¯ÙĦ
ØªÙģ Øª
in d
ĠØ§Ø® Ø±Ùī
ĠØ§ÙĦØ¨ÙĬ Ø§ÙĨ
ĠØ§ÙĦÙħØŃØ§ÙģØ¸ Ø§Øª
ĠØ§ÙĦØªÙħØ± Ø¯
Ùħ Ø±ÙĥØ²
ĠÙħ Ø¬ÙĦ
ĠØ£ ØµØ¯ÙĤ
ĠÙĥ ÙĪØ¨Ø§
ĠØ´ Ø¬
ØªÙĦ Øª
Ġ5 9
ÙĪØ§Øµ ÙĦØ©
ĠØ£Ø±Ø¨Ø¹ ÙĬÙĨ
ĠØ£Ø³Ø· ÙĪÙĦ
ĠÙģÙĬØª Ø§ÙħÙĬÙĨ
Ø³ Ùģ
ĠØ§ÙĦÙħ ÙĦØ§
ĠÙĥ Ø§Ø±ÙĬ
ĠØ§ÙĦØ³ ÙĬØ±Ø©
ĠØ§ÙĦØ´ Ø¬Ø±Ø©
ĠØµ Ø¹ÙĪØ¯
ĠØ¶ ÙģØ§Ùģ
ĠÙĪÙĤ Ø³Ùħ
ĠØ¨Ø§ÙĦÙħ Ø§Ø¡
ĠØ§ÙĦÙħØ³ÙĬØŃÙĬ ÙĪÙĨ
ĠØ§ÙĦØ±Ùħ ÙĪØ²
ĠÙĪ Ø§ØµÙĦ
ĠØ§ÙĦÙħ Ø·ÙĦÙĤ
ĠØ¨ÙĨ Ø¯
ĠØªØ¹ Ø¨Ø±
Ø°Ø§Ùĥ Ø±
Ø³ ÙĪÙĤ
ĠØ§ÙĦØ£ Ø®ÙĦØ§ÙĤ
ĠØ§ÙĦØ£ Ø®Ø·Ø§Ø¡
ĠØ§ÙĦÙħØ± Ø§Ø¯
ĠÙĬØŃ Ø¶Ø±
ĠØ£Ø«Ø± ÙĬØ©
ĠÙħ Ø³ÙĦ
Ø§Øµ ÙĪØ±Ø§Øª
ĠÙĬØª Ø¹
ĠØ§ÙĨØª Ø®
ĠÙĪØªÙĤ ÙĪÙħ
ĠØ¹ Ø¯ÙĬØ¯
ĠØ³ Ø§Ø¦ÙĦ
ĠÙĦ Ø«
Ø¬ ÙĩØ§Ø¯
Øº Ø¯Ø§Ø¯
ĠØ§ÙĦØµ ØºØ§Ø±
ĠØ§ÙĦØ³Ø¨ Ø§ÙĤ
ĠØ§ÙĦØ£ ÙĪØ§ÙħØ±
ĠØ§ÙĦØ³ ÙĦÙģ
ÙĪÙģÙĬ Ø§
ĠÙħØ± Ø§ÙģÙĤ
ĠÙĬØª Ø£ÙĦÙģ
ĠØ¨Ø±ÙĬØ· Ø§ÙĨÙĬ
ĠØª ÙĪØª
Ø® ÙĨ
ĠØ§ÙĦØ£ ÙĤÙħØ§Ø±
ĠÙĦÙħ Ø¹Ø±ÙģØ©
ĠØ§ÙĦØ¥ÙĨ Ø¬ÙĬÙĦ
Ø¨ Ø§Ø±Ø§Ø©
Ø¹Øª ÙĬÙĨ
ĠØ§ÙĦØ¢ ÙĬØ©
Ġ8 6
ÙħØ¤ ÙĦÙģØ§ØªÙĩ
ĠÙħ ØºØ·
ĠÙĥ Ø§ÙĬ
ĠØ§ÙĦØ® ÙģÙĬÙģØ©
ÙĪØ² Ø§
ĠÙĪØ§ÙĦØª Ø¬Ø§Ø±Ø©
ĠÙĦØ£ÙĨ ÙĩÙħ
ĠØ´ÙĤÙĬÙĤ Ùĩ
Ùħ ÙĩØ§
ĠØ§ÙĦ Ø§Ø¦
Ø° ÙĬØ±
ĠÙĨ Ø§Ø³Ø§
ĠØ¢ ÙĦØ§Øª
ĠÙĪÙĥ ÙĬÙģ
ĠØªØ¯ Ø±ÙĬØ³
ĠØ§ÙĦØ£Ø±Ø¶ ÙĬ
ĠØ§ÙĦØªØµ ÙĨÙĬØ¹
ĠÙĪØ§Ø³Øª ÙĤØ±
ĠØ´Ø¹ ÙĪØ¨
ĠÙĦ Ø«ÙĦØ§Ø«
ĠØ§ÙĦØŃ Ø§Ø³Ø¨
ÙģØª ÙĤØ±
ĠÙħÙĨÙĩ Ø¬
Ø£ Ø¹ÙĦÙĨ
ÙĪÙĤ ÙĪØ¯
ĠØ¹ÙĦÙĬ Ùĥ
ĠØ§ÙĦØ¨Ø± Ùħ
ĠÙĦÙĦØ¥ ØŃØµØ§Ø¡
ĠØ£Ø´ÙĩØ± ÙĩØ§
ĠÙĨÙĩ Ø¬
ĠØ¯ÙĪ Ø§Ø¦Ø±
ØŃ ÙħØ©
ĠØ¹ Ø¸ÙĬÙħØ©
ĠØ§ÙĦÙħ ÙĩØ±Ø¬Ø§ÙĨ
ØªÙħ Ø§ÙĨ
ĠØº Ø§ÙħØ§
ĠØ§ÙĦÙħÙĨ Ø§ØµØ¨
ĠØ®ÙĦÙģ Ùĩ
em pla
ĠØ¬ÙĪ ÙĩØ±
ĠØ§ÙĨÙģ Ø¬Ø§Ø±
ĠÙģØ±ÙĬØ¯ Ø±ÙĬÙĥ
ĠÙħ ÙĬØ²Ø©
ĠØ¨ ØªÙģ
Ø§Ø¯ ØªÙĩØ§
ĠØ¨Ø£ ÙĥØ«Ø±
ÙĬØ¬ Ø§Ø¯
ĠØ²Ø± Ø§Ø¹ÙĬØ©
Ø§ÙĦÙĦ ØºØ©
Ġ i
ĠØ¨ Ø±ÙĤ
ĠÙĪØ§ÙĦ Ø¨Ø·
ÙĪÙĥ ÙĬØ§
ĠØ§ÙĦØ¢ ÙĦÙĬØ©
ĠØ§ÙĦØ¨ÙĦ Ø¬
ĠØ§ÙĦÙĨÙģ ÙĪØ°
ĠØ³ÙĪØ¯ Ø§Ø¡
ÙĬ Ø°ÙĥØ±
Ø±ÙĬ ÙĪÙĨ
ĠØ§ÙĦØ´ ØŃÙĨØ©
ĠØ§ÙĦØµ ÙĨØ¯ÙĪÙĤ
Ø§ÙĦÙħ ØŃ
ĠÙħØ± Ø³ÙĪÙħ
Ġ6 6
ĠØ°ÙĥØ± Ùī
ĠØªØ« Ø¨ÙĬØª
ÙĨ ØµØ±
ĠØª Ø¹Ø±
ĠØ§ÙĦØ¯ ÙĨØ§
ĠØ§ÙĦØ£ÙĪØ±ÙĪØ¨ ÙĬÙĬÙĨ
Ø³ Ø§Ø¹Ø¯
ĠØ§ÙĦÙĨ ÙģØ§ÙĬØ§Øª
ĠØ¨Ø§ÙĦ Ø§Øª
ĠØŃÙĥÙħ Øª
ĠØ³ ÙĬÙĨØ§
ĠØ§ÙĦØŃ ÙĪØ§Ø³
ĠØµ ÙħÙħ
ĠØ¨Ø± ØµÙĬØ¯
ĠØ¬Ùħ ÙĩÙĪØ±
ĠØ¨Ø¥ Ø·ÙĦØ§ÙĤ
ĠÙĨØ¸ Ø±ÙĬØ§Øª
ĠØ§ÙĦØ±ØŃ ÙĦØ§Øª
ĠØ£Ø³Ø± ØªÙĩ
ĠÙģ ÙĤÙĩ
ĠØ§ÙĦÙħ Ø¨ÙĬØ¹Ø§Øª
ĠØ£ÙĨ ÙĪØ±
ĠØ§ÙĦÙĤ Ø§Ø¯Ùħ
Ø§Ùģ Øª
ĠØ§ÙĦÙĥ ÙĪØ±ÙĬØ©
ĠØ§ÙĦÙĥ ÙĦÙĬØ§Øª
ÙĦÙĬÙħ ÙĪØ³
Ø¯ÙĩØ± Øª
ĠØ§ÙĦÙħØŃ Ø±ÙĥØ§Øª
ØŃØ± Ø§Ùģ
Ġ9 7
ĠØŃÙħ Ø²Ø©
Ġ190 9
ĠØ¬ÙħØ§ Ø¹Ø§Øª
ĠØ§ÙĦØ£ Ø¨Ø·Ø§ÙĦ
ĠÙĦÙĦ ØªÙĪ
ĠØº ÙĨÙĬØ©
ĠÙĪÙĤ Ø¨
ĠØ§ÙĦØ§ÙĨ Ø¶ÙħØ§Ùħ
ĠØ§ÙĦÙħÙĩ ÙĨÙĬ
ĠÙģ Ø§Ø¬
ĠÙģÙĬ Ø²ÙĬ
ĠÙĪØ§ÙĦ Ø¯Ø±Ø§Ø³Ø§Øª
ĠØ§ÙĦÙĬ ÙĪÙĦÙĬØ§ÙĨÙĬ
ĠØ§ÙĦÙħØ¹ ÙĦÙħ
ĠØ§ÙĦÙĤØµ ÙĬØ±
ĠØªÙħÙĥÙĨ Øª
ĠØ§ÙĦÙĦØº ÙĪÙĬØ©
ĠØ§ÙĦØ¬ÙħØ¹ ÙĬØ§Øª
ĠØ§ÙĦØ«Ø§Ø¨Øª Ø©
ÙĦ ØºØ§Ø¡
Ø³ ÙĬØ³
ĠØ§ÙĦØ£ Ø¬Ø±
ĠÙĪØ§ÙĦ Ø³ØªÙĬÙĨ
ĠÙħØª Ø²Ø§ÙĬØ¯
Ġ6 7
ĠØ¥ÙĨØªØ§Ø¬ ÙĩØ§
ĠÙĪØ§ÙĦÙĥ ØªØ§Ø¨Ø©
ĠØª ØŃØ¯
ØµÙĦ ØŃ
od ice
ĠØªØ³Ùħ ÙĬØªÙĩØ§
ĠØ¨ ÙĪØ¶ÙĪØŃ
ĠØ¥ ÙĬÙħ
ĠØ· ÙĪ
ÙĪØ³Øª Ø³
ĠØ§ÙĦØ®ÙĬ Ø§ÙĦ
ĠØ£ Ø¹ÙħØ§Ø±
ĠÙĪØ§ÙĦ Ø¨ØŃ
Ø§Ùĩ Ø¶Ø©
ĠØ² ÙħØ§ÙĨ
ĠØ§ÙĦØ² ÙĨ
Ø² Ø§ÙĬØ¯Ø©
ĠØ± ÙĬØ´
ĠØµ ÙĦØ¨
Ø«Ø± ÙĪØ¨
Ġ17 5
ĠÙĤÙĪØ§Øª Ùĩ
ĠØ£ Ø±ÙĥØ§ÙĨ
Ø¨ÙĬ Ø¯Ø©
ĠÙĪØª ØŃØª
ĠÙħØª Ø§ØŃØ©
ĠØ§ÙĦÙħÙĥØªØ¨ Ø§Øª
Ø±ÙĬØ§Ø¶ ÙĬØ§Øª
ĠÙĬ Ø¯ÙĬÙĩ
ĠØ§ÙĦØ³ ÙĦØ§ÙĦØ©
ĠÙĪØ£ Ø¬
ĠØ§ÙĦÙħØª ØŃØ¯Ø«
ĠØ§ÙĦØ¨ÙĨ ÙģØ³
ĠØ§ÙĦÙģÙĦÙĥ ÙĬ
Ø§ÙĦ Ø³ÙĦØ§Ùħ
Ø§ÙĦ Ø§Ø³ØªØ®Ø¯Ø§Ùħ
ĠØ§ÙĦÙĤ ÙĦÙĤ
ĠØ§ÙĦÙĦ ÙĪØ±Ø¯
ØµÙĦ Ø§Øª
ĠØ£Ø³ ÙĤÙģ
ĠØ§ÙĦØ¯ÙĬÙĨ Ø§Ùħ
ĠØ§ÙĦÙĬÙħ ÙĨÙī
ĠØ§ÙĦØ¨Ø§ÙĦØº ÙĬÙĨ
m e
Ùĥ ÙĬÙĥ
Ø§Ø¯ Ø³
ĠØ¬ ÙĪÙĦØ©
ĠØ§ÙĦÙĤ Ø´Ø±Ø©
ĠÙĦØª ÙĪÙģÙĬØ±
ĠÙĦÙĦØŃ ÙĥÙħ
ĠÙĪØ¯ ÙĪÙĦ
ĠØ£Ø±Ø¬ Ø§Ø¡
ĠÙħÙĬÙĪÙĨ Ø®
Ùģ Øµ
ĠØ§ÙĦØ® Ø¨Ø±Ø©
ĠØªÙĨ Ø´Ø£
ĠØ§ÙĦØ¯Ø± Ø§Ø³ÙĬ
ĠØ§ÙĦØ³Ùħ Ùĥ
ĠÙĦÙĦØ¥ÙĨ Ø³Ø§ÙĨ
ĠÙĪØªØŃØ¯ÙĬØ¯ Ø§
Ø§ÙĦ ÙĦÙĩ
ĠØ¯ Ø§Ø¡
ĠØ§ÙĦÙħØ± Ø¡
ĠØ§ÙĦØŃÙĬÙĪ Ø§ÙĨÙĬØ©
ĠØ¨Ùģ ÙĪØ²
ĠØ§ÙĦÙħØ¹Ø¯ Ø§Øª
ĠØ§ÙĦÙĤ Ø±ÙĬØ¨
ĠØ® ÙĪØ§ÙĨ
ØªØ¨ Ø³
ÙĬÙĤ Ø§Ø¹
ĠØ£Ø® Ø¨Ø±
ĠØ®Ø±Ø¬ Øª
ĠØ§Ø®ØªØµ Ø§Ø±
i al
Ġ Ø§ÙĪÙĦ
ĠÙĪ Ø·Ø¨
ĠØ¹ Ø§Ø¦ÙĦØ§Øª
ĠØ° Ø±Ø§Ø¹
ĠÙĦÙħ Ø³Ø§Ø¹Ø¯Ø©
ĠØªØ´ ÙĩØ¯
ĠØ¬Ø± Ø§Ø¦Ùħ
ĠØ¥ÙĨ Ø¬ÙĬÙĦ
Ø§ÙħÙĦ Ø§Øª
Ġ le
ĠÙģ Ø§Ø¦Ø¯Ø©
ĠÙĦ Ø®Ø¯ÙħØ©
ĠÙĩ Ø§Ø¬
ĠØ§ÙĦØ¨ ØµØ±ÙĬØ©
Ø±Ø¨ Ùĩ
ĠÙĬÙĨ Øµ
ĠØŃØ± ÙĪÙģ
ĠØ§ÙĦÙħØ³ØªÙĤØ¨ÙĦ ÙĬØ©
ĠØ¨ Ø³Øª
ÙĪÙĦ Ø°ÙĦÙĥ
ĠØ§ÙĦØª Ø³Ùħ
ĠØ¬ ÙĦØ³
ĠØ¨Ø§ÙĦ Ø§Ø¹
ĠØ£Ø¹ÙħØ§ÙĦ ÙĩØ§
Ø§ÙĦ Ø¹ÙĦØ§Ø¬
Øª Ø®ØªÙĦÙģ
ĠØ± Ø§Ø¦Ø¹Ø©
ĠÙħØ³ Ø¬
ĠÙħØ¨ ÙĥØ±Ø©
ĠØ¨Øª ÙĪÙĨØ³
ĠÙĤØ± Ø§Ø±Ø§Øª
ØªØ² Ø§Ø²
as e
u e
Ùĥ ÙĪØ¨
ĠÙĦ ÙĪØ±
Ø¨Ø± Ø³
ĠØ¨Øº Ø¶
ĠØ¨Ø±ÙĬØ· Ø§ÙĨÙĬØ©
ĠØµØ§Ø± ÙĪØ®
ĠØ§ÙĦØ£ÙĪØ³ ÙĥØ§Ø±
ĠÙĦ ØŃØ¯
ĠØª Ø·ÙĦ
ĠØŃ ÙĪ
Øº Ø´
ÙħØ§ ÙĤ
ĠØ§ÙĦØ® ÙĪÙģ
ÙĪØ§ ÙĩØ§
ÙĥØª Ø§Øª
ĠØ§ÙĦØ³ÙĬÙĨ ÙħØ§Ø¦ÙĬØ©
ÙħØµ Ø§Ø¯Ø±
ĠØ§ÙĦØ®Ø¨Ø± Ø§Ø¡
ĠØ§ÙĦØ¯Ø³Øª ÙĪØ±ÙĬ
Ø¹ Ø«
ĠÙħ ÙĬØ®
ĠØ§ÙĦØ¨ Ø§Ø·
ĠÙħØ«ÙĦ ÙħØ§
ĠØ§ÙĦØ¨ÙĦ Ø§Ø·
Ø§Øº Ø§
ĠØ§ÙĦØ¥Ø¹ÙĦ Ø§ÙħÙĬ
Ġ Ø§ÙĬØ±
ĠÙģ ØªØ±
ĠÙĬ ÙĤØ·
ĠØ§ÙĦØ¢ Ø±Ø§Ø¡
Ø¢ Ø®Ø±
ĠØ§Ø´ ØªØ±Ø§Ùĥ
ĠØ§ÙĦÙħ Ø§Ø´ÙĬØ©
Ø´ Ùħ
ÙĪÙĨ ÙĬÙĪ
ĠØ± Ø§Ø¨
ÙĪØ¬ Ø§Ø¡
ĠØ§ÙĦØ£Ùħ Ø§Ùħ
Ø§ÙĦÙģ Ø¹ÙĦ
Øª Ø®Ø±Ø¬
ĠÙģ ØªÙħ
ĠØ³ Ø§ÙħÙĬ
ĠØ§ÙĦØ¹ ØªÙĬ
ĠØ´ ÙħÙĦ
ĠÙħØŃ Ø§ÙĪÙĦ
ÙĤØ· Ø§Ø±
ĠÙĪØ¥ ÙĬØ·Ø§ÙĦÙĬØ§
ĠØ§ÙĦØ®ÙĦ ÙĪÙĬ
Ø¢ ÙĥÙĦ
ĠÙĤØªÙĦ Ùĩ
ĠÙĥÙĬÙĦÙĪÙħ ØªØ±Ø§Øª
Ùģ Ø·
ĠØ§ÙĦÙĤ ÙĪØ·
ĠØ§ÙĦØ± Ø£Ø³Ùħ
ĠS h
ĠØ§ÙĦÙĥØ± ÙĪÙħ
ĠØ§ÙĦÙħÙģ Ø§ÙĩÙĬÙħ
ĠØ®ÙħØ³ ÙĬÙĨ
ĠØ£ ØªÙħ
ÙĤÙĦ ÙĤ
ÙĪØ§Øª Ùĩ
ĠØ§ÙĦÙħØ± Ø§ÙĤØ¨Ø©
Ġb e
ØªÙĦÙĥ Ø§Øª
ĠØ§ÙĦØªØ·Ø¨ÙĬ ÙĤ
ĠØ§ÙĦØª ØºÙĬØ±
ĠØ¬ Ø±ÙĬÙħØ©
ĠÙĪØŃ ÙĤÙĤ
ĠØ§ÙĦÙħØ± Ø§Ùĩ
ĠØ§ÙĦØ³Ø§ØŃ ÙĦÙĬ
ĠØ¨ ÙĤØ±
ĠØ£ ÙģØ±
Ø§Ø¬ ÙĤØ©
ĠØº Ø¶Ø¨
Ø§ÙĦÙĬ ÙĪÙħ
ĠØ§ÙĦØ§ÙĨØª Ø¨Ø§Ùĩ
ĠØ§ÙĦØ£Ø±Ø¬ ØŃ
Ø£ ØŃÙħØ¯
ĠØ§ÙĦÙĪ ØµÙģ
ĠÙħØª ÙĪ
Ġ190 4
ĠÙħ Ø³ÙħÙī
Øµ Ø§Ùģ
ĠØ¯ ÙĬØ¨
ĠØ´ ØªÙī
ÙĪØ¨ Ø³Ø¨Ø¨
ÙĪØ¬ ÙĬ
ĠÙĦÙħ ÙĪØ§Ø¬ÙĩØ©
ĠÙħØª Ø·ÙĦØ¨Ø§Øª
Ġc enter
ĠØ§ÙĦÙģÙĬØ²ÙĬ Ø§Ø¦ÙĬ
ĠØ£Ø° Ø±Ø¨ÙĬØ¬Ø§ÙĨ
ĠØ§ÙĦØ¨Ø§ÙĦ ØºØ©
ĠÙĦØ¯ÙĬÙĨ Ø§
Ï Ħ
Ø¹ ÙĥØ³
ĠÙĪØ§ÙĦ ÙĬÙĩ
ĠØ§ÙĦØŃ Ø¯ÙĬÙĤØ©
ØªÙĬ Ø§ØŃ
ØªØµ Ø§Ø±
Ġs h
ĠØ§ÙĦØ¨ØªØ± ÙĪÙĦ
ĠØ§ÙĦØ·Ùģ ÙĪÙĦØ©
ĠÙĪÙĦØ¨ ÙĨØ§ÙĨ
ØŃØµÙĦ Øª
ĠÙĬØªØŃ ÙĪÙĦ
Ø± ÙĪÙĨ
ĠÙĪØ§ÙĦ Ø§Ø®
ĠÙĦÙĦ Ø¯Ø±Ø§Ø³Ø§Øª
ĠØ§ÙĦØ± ÙĤØµ
ÙĥØ± Ø§Ø¯
Ø±ÙĨ Ø§Ø·Ø©
ĠØ§ÙĦÙħØŃ ØªÙħÙĦØ©
ĠØªØ³ Ø¹Ùī
ĠØ§ÙĬ Ø¶Ø§
Ùĩ Ø§Ø±Ø©
ĠØº ÙĦØ§Ùģ
ĠØ¥ÙĨ Ø§Ø«
ĠØ§ÙĦÙħØ± Ø§Ø¨Ø·
ĠØ§ÙĦØ¸ ÙĦØ§Ùħ
Ø·ÙĬ ÙĪØ±
ĠØ§ÙĦØ¹ Ø¸ÙĬÙħØ©
Ø§Ø¦ Ø¯Ùĩ
ĠØ§ÙĦØ¯ Ø±ÙĤÙĬØ©
Ø§Ùĥ ÙĨØ©
ĠÙĬÙĤ ÙĬÙħ
ĠØ¨Ø§ÙĦÙħ ØŃ
ĠØ´Ø± Ø·
ĠØ¥Ø³ÙĦØ§Ùħ ÙĬ
ĠØ§Ø¹ØªÙħØ§Ø¯ Ø§
ĠÙħÙĪØ¸ Ùģ
Ùħ ÙĪØŃ
ĠØµ ØŃØ±Ø§Ø¡
ĠØ§ÙĦØ² ÙĪØ§Ø±
Ø®Ø¨ Ø§Ø±ÙĬØ©
ĠØ§ÙĦØ³ÙĪÙģÙĬ ÙĬØª
ĠØ§ÙĦÙħÙĨØª Ø¬Ø©
ĠØ¥ÙĦÙĥØªØ± ÙĪÙĨ
ÙĨ ÙĬØ¯
ÙĬÙĨ Ø¬
ĠØ§ÙĦÙģ Ø§Ø¦Ø²
ĠØ§ÙĦÙħÙĨ ØªØ´Ø±Ø©
ĠØ³ÙĨ Ùĩ
ĠÙĪØ§ÙĦØŃ Ø¯ÙĬØ«
ĠÙħØ³Ø§ØŃ Ø§Øª
Ø¨ Ø¹Ø©
ĠÙģ ÙĪØ±Ø¯
ØªÙģ Ø¹Øª
ØªØ´ ÙĬ
ÙĪØ§ØŃ Ø¯
ĠØ§ÙĦØ¹Ø«ÙħØ§ÙĨÙĬ ÙĪÙĨ
Ø¤ÙĦ Ø¤
ĠØª ÙĦÙħ
ĠÙĪØŃ Ø³Ø¨
ØªÙĨ ÙĤØ³Ùħ
ĠÙĪØ¬ÙĪØ¯ ÙĩØ§
ĠØ§ÙĦØ³Ùģ ÙĦÙī
ĠØ§ÙĦÙĪØ¸ ÙĬÙģØ©
Ø§ÙĦ ØªØ±
Ø¨ÙĤ ÙĬØ©
ĠÙĦÙĦÙĩ Ø¬Ø±Ø©
Ø³Øª ÙĩØ§
ĠØ¨Ø§Ø³Øª Ø¹ÙħØ§ÙĦ
ĠØ£ÙĦÙħ Ø§ÙĨÙĬØ©
ĠØ§ÙĦÙĥØ±Ø¯ ÙĬØ©
ĠØ§ÙĦØ¹ Ø±ÙĤ
ĠØ¬ ÙĨÙĬ
ĠØ± Ø¨ÙĬØ¹Ø©
ĠØ· Ø§ÙĤÙħ
ÙĪÙĤ ÙĬØ¹
ĠØªØŃ Ø§ÙĪÙĦ
ĠØ³Ùħ Ùĥ
ĠØ§ÙĦØ¸ ÙĪØ§ÙĩØ±
ĠÙħØ¹Ø¯ ÙĨÙĬØ©
ĠÙĪØ§ÙĦÙĩ ÙĨØ¯Ø³Ø©
ĠØ§ÙĦÙĦØº ÙĪÙĬ
ĠÙĥ ÙĥÙĦ
ĠØ¯ Ø§Ø¹
ĠØ§ÙĦÙĨ Ø¯
ĠÙħØ¹ Ø±Ùģ
ĠØ· ÙĦØ§ÙĦ
ĠØªØŃ ØªÙĦ
ĠØ§ÙĦØ§Ø® ØªÙĬØ§Ø±
ec t
ĠØ§ØŃØªÙĬ Ø§Ø¬Ø§Øª
ĠØ¨ ÙĪÙĦÙĬ
ĠØŃ Ø§Ø¦ÙĦ
ĠÙĤ Ø§ÙĦØ¨
ÙĪÙĩ Ø©
Ø§ ÙĪØ©
ĠØ¹ Ø¬
ĠØ§ÙĦØ£ ÙĦÙģÙĬØ©
ÙĪØ± Ø«
ĠØ§ÙĦÙģ Ø§ØªÙĬ
ĠØ§ÙĦÙĦ ÙĤØ§Ø¡
ØŃ ÙĬØ§ØªÙĩØ§
ĠÙĪÙģ Ø¯
Ġ6 3
on d
20 10
ĠØª ÙĪØ¶Ø¹
ĠØ³ Ø£
ĠØ´ Øº
ĠÙħØ¬ Ùĩ
ĠØ§ÙĦÙħØ¬ Ø§ÙĩØ¯ÙĬÙĨ
ØµØ¯ ÙĬØ±
Ġ0 7
ĠÙĥ ÙĪØ±ÙĬ
ĠØ± ÙĬØ¨
ĠØ§ÙĦØ® ÙĦÙģØ§Ø¡
ĠØ§ÙĦØ¨ÙĦ ÙĤØ§ÙĨ
ĠØ§ÙĦØ§ØŃØªÙģ Ø§Ø¸
ĠØ§ÙĦÙħ Ø§Ø¯ÙĬ
ĠÙĪØ§ÙĦ Ø¯Ø±
ĠØµ Ø¹Ø¨Ø©
ĠØ§Ø³Øª Ø«
ĠØ§ÙĦÙħØ± ØªÙģØ¹Ø©
Ø§ÙĦÙĨ Ø³Ø¨Ø©
ĠØ§ÙĦÙħ Ø§Ø¦ÙĬ
ÙĬÙĨ Ø³
ĠØ§ÙĦÙĤ Ø¶Ø§Ø©
ĠÙĬÙĨ ØªÙĩÙĬ
ØŃØ¯Ø« Øª
Ġ190 7
ĠØ§ÙĦØ¶Ø± ÙĪØ±ÙĬ
ĠØ§ÙĦÙĦØŃ Ø¸Ø©
ĠØ§ÙĦØ¯Ø¨ Ø§Ø¨Ø§Øª
ØªÙħ ÙĪÙĨ
Ø¨ÙĦ ÙĬØ©
ĠØ´Ø¹Ø± Ø§Ø¡
ĠØ§ÙĦÙħØ·ÙĦ ÙĤØ©
ĠÙĤØ±ÙĬØ¨ Ø§
ĠÙĦÙĬÙģ Ø±Ø¨ÙĪÙĦ
ĠØ§ÙĦØ¨ Ø¯ÙĬ
ÙħÙĦ Ø§Øª
ĠØº Ø§Ø±
ĠÙĪØ§ÙĦÙħ Ø®
ĠØ³Ø±ÙĬ Ø¹Ø§
ĠØ§ÙĦØ¨Ø±ØªØº Ø§ÙĦÙĬ
Ø§ÙĦ ÙĪ
Øª ÙĪÙĬØ©
ĠÙĦ ÙĬÙĦØ§
Ø§Ø¯ Ùģ
ĠØ§ÙĦØ³ ÙĬÙĨÙĬØ©
ĠØ§ÙĦÙĥ Ø£Ø³
ĠØ§ÙĦØªØ¬ Ø±ÙĬØ¨ÙĬØ©
ĠØ§ÙĦÙģÙĨØ§ÙĨ Ø©
ĠÙģ Ø§ÙĦÙħ
Ø® ÙĦÙģ
ĠØ´ Ø¹Ø¨Ø©
Ø®Ø± ÙģØ©
ĠØ£Ùĥ ÙħÙĦ
ĠØ§ÙĦØ² ÙĦ
ĠØ§ÙĦØ£Ø³ Ø§ÙĦÙĬØ¨
ĠØ³ÙĨ Øº
ĠØ¨ÙĪ ØµØ©
ĠØ§ÙĦØ®Ø· ÙĬØ¨
ĠÙĩØ¯Ùģ Ùĩ
ĠØ§ÙĦÙģØ±ÙĨØ³ÙĬ ÙĪÙĨ
Ø§ÙĦØªØŃ ÙĤ
ÙĬÙĥÙĪØ³ ÙĦ
ÙĪ Ø¥ÙĨ
ĠÙĪØ§ÙĦ ÙĩØ±
ĠÙĤ Ø¨Ø©
ĠØ´ Ø§Ùħ
ØªØ± ÙĪÙĨØ§Øª
ĠØ° Ø±Ø§Øª
ÙĨØª ÙĬÙĨÙĬ
ĠØ«Ùħ Ø§ÙĨÙĬ
ĠÙĬØª ØºÙĬØ±
ĠÙĪÙħÙĨ Ø¹
ĠØ§ÙĦÙħØ³Ø¤ ÙĪÙĦØ©
ÙĬØ¯ Ø²
ĠØ³ÙĬ Ø§Ø³ÙĬØ§
ĠÙĥÙĬÙħÙĬ Ø§Ø¦ÙĬØ©
ĠÙĥ Ø¹Ø¨
ĠÙĥ ÙĪØ¨Ø±
ĠÙĪØ§ÙĦ Ø®Ø·
Ø³Ùħ ÙĬØª
ĠØ¶ ÙĬÙĤ
ĠØªÙĤ Ø±
ĠØ§ÙĦØ² Ø¨
ĠÙħÙĪ Ø§ÙĤÙģ
ĠØ¹Ø±Ø¶ Øª
ÙĪÙģÙĨØª ÙĪØ³
ĠÙħ Ø®ØµØµ
ĠØ£ Ø®Ø±Ø¬
ĠØ§ÙĦÙħ ØªÙħØ±
ÙĪØª ÙĪØ¬Ø¯
Ø§Ø« ÙĦØ©
ĠØ§ÙĦØº Ø¯Ø¯
ĠØªØ± ÙħÙĬÙħ
ØªØ¹ Ø±ÙĬÙģ
as s
ĠÙĪÙĪ Ø§Ø¯ÙĬ
ĠØ§ÙĦÙħÙħØ«ÙĦ ÙĬÙĨ
ĠØ¥ Ø³ØªØ±
ĠØ§ÙĦÙĩ Ø²ÙĬÙħØ©
ĠÙħØµ Ø§ÙĨØ¹
ĠÙĥÙĦØ§ ÙĩÙħØ§
ĠÙħ Ø±Ø¨
Ø£ Ø¯Øª
ĠØ§ÙĦÙĥ ÙħÙĬØ©
ĠØ§ÙĦØ± ÙĪØ§Ø¨Ø·
ĠØ¢ ÙĬØ©
ĠØ§ÙĦÙĩ Ø¨ÙĪØ·
ĠÙħØ¨ ÙĨÙĬ
ĠÙĦÙĦØŃ Ø±ÙĥØ©
ĠØªÙĥ Ø§ÙĦÙĬÙģ
ĠØ§ÙĦÙĨÙħØ³ Ø§ÙĪÙĬ
ĠÙĦÙĦ Ø§Ø¹
ĠØ§ÙĦØ³ ÙĨÙĬØ©
ĠÙĪØª ÙĪØ²ÙĬØ¹
ÙĤÙĬ ØŃ
ĠØ§ÙĦØ² ÙĩØ±Ø©
ĠÙĪÙĨ ØªÙĬØ¬Ø©
Ġ0 5
Ùħ Ø§Ø¦Ø©
Ø° ÙĦ
ÙĪØ³ Ø¨Ø©
ĠØªØª Ø¹Ø±Ø¶
ĠØŃÙħÙĦ Ø§Øª
ĠØª ØºØ·ÙĬØ©
ĠØ§ÙĦØ· Ø§Ø¨ÙĤ
ĠØ¨Ùĥ Ø§ÙĦ
ĠØ§ÙĦÙĦÙĬ ÙĦØ©
ĠÙĪØµÙģ ÙĩØ§
ĠØ§ÙĦÙĪØ± Ùħ
ÙĪ ÙĪÙģÙĤØ§
ĠÙĩ Ø²
ĠÙĦÙĦ Ø¬ÙħÙĬØ¹
ĠØ§ÙĦØ® ÙĬÙĦ
Ø§Ø³ÙĬ ÙħØ§
Ġc h
ĠØ§ÙĦØ±ØŃ ÙĬÙħ
as t
Ø£Ø® Ø±Ø©
ĠÙģÙĬ ÙĤÙĪÙĦ
ĠØ± ØºØ¨
ĠØ§ÙĦÙĨ Ø§ÙħÙĬØ©
ĠØ¨Ø§ÙĦ ÙĪÙĦØ§ÙĬØ§Øª
Ø·Ø¨ Ø§ÙĤ
Ø´Ø£ Øª
ĠÙħØ§ÙĦÙĬ Ø²ÙĬØ§
ĠÙģÙĦØ³Ø· ÙĬÙĨÙĬØ©
ĠØ§ÙĦØªÙĪÙĤ ÙĬØ¹
ĠØ£ ØªÙĦ
Øº Ø§Ø²ÙĬ
Ø§Ø¹ Ùĩ
ĠØ¨Ø§ÙĦ ØŃØ±
ĠØ¨Ø§ÙĦ Ø¶Ø±ÙĪØ±Ø©
ĠØ· ÙĩØ±Ø§ÙĨ
ĠÙĪÙħ ÙĤ
ĠÙĪØ¬ Ø§Ø¦Ø²Ø©
ĠØ§ÙĨØª Ø´Ø±
ĠØ§ÙĦØ¨Ø± Ø§Ø²ÙĬÙĦÙĬ
ĠÙĪØ¥ Ø¯
ØªÙĨ Ø¹
ĠÙĩØ± ÙħÙĪÙĨ
ĠÙĦ ÙģØ±ÙĬÙĤ
ĠØª Ø³ÙĦØ³ÙĦ
Ø§Ø± Ùī
ĠÙĩ Ø¯Ùħ
ĠÙĩ Ø¬Ø±
ÙĬØ´ ÙĬØ±
ĠÙĪÙĦÙĥÙĨ ÙĩÙħ
ÙħÙĬ Øµ
Ø¨ Ø´ÙĥÙĦ
ĠØ± Ø¶
Ø¤ ÙħÙĨ
ĠÙħØŃ Ø±Ø±
ØªØ¯ Øª
ÙĪØ« Ø©
ĠØ§ÙĦØ£ØŃ ÙħØ§Ø¶
ĠØªÙħØ± Ø¯
ĠÙĪ Ø¹Ø¨
ĠÙĪØ£ Ø³Ø³
ØªØ¨ Ø¯Ø£
ĠØ¨Ø± Ø²
ĠØ³ÙĬ Ø§Ø¯Ø©
ĠØ§ÙĦÙħØ¤ ÙĦÙģØ§Øª
ĠØ§ÙĦØ³ÙĪÙĬ Ø¯ÙĬ
ĠØ¨ØµÙģ ØªÙĩ
ĠÙħ Ø³Ø±ØŃÙĬ
Ø² ÙĪÙĦ
ĠØ§ÙĦØ£ Ø±Ø¨
ĠÙĤ Ø§ØªÙĦ
ĠØ§ÙĦÙħØ¹ Ø§ÙĩØ¯
ĠÙĦÙĦÙħ ÙĬÙĦØ§Ø¯
ĠÙĪØ± Ø³
ĠÙĦÙĥÙĨ ÙĩÙħ
ĠØ§ÙĦØ«ÙĦØ§Ø« Ø§Ø¡
ĠØ£Ø³Ø· ÙĪØ±Ø©
ĠØ§ÙĦØ¨ÙĪ Ø§Ø¨Ø©
ĠØ¥ Ø´Ø§Ø±Ø§Øª
ĠØ¨Ø§ÙĦ ØºØ©
ĠØ§ÙĦÙĥ ÙĬÙĦ
ĠØ¶ Ø®
ÙĪØ§ÙĦ Øª
ĠØ°Ø§Øª ÙĬ
Ø²Ø§ ÙĪØ¬
ĠÙĪØ§ÙĦØµ ÙĬÙĨ
ĠÙĦÙĦØ³ÙĬ Ø·Ø±Ø©
ĠØ± ÙĬÙĪ
ĠØ§ÙĦÙĨ Ø§ÙĨÙĪÙĬØ©
ĠØ£Ø¨ Ø¹Ø§Ø¯
ĠØ§ÙĦØªÙĪØ± Ø§Ø©
ĠØ£ Ø¹ÙħØ¯Ø©
ĠØ§ÙĦÙĤ Ø§Ø±Ø§Øª
ĠØ§ÙĦØ³ÙĬ Ø§ØŃ
ĠØ§ÙĦØ£Ø¹ ÙĪØ§Ùħ
ĠØ§ÙĦÙģØ§ØªÙĬ ÙĥØ§ÙĨ
ĠØµ ÙĪØ§Ø±ÙĬØ®
Ø§Ø¶ Ø¹Ø©
ĠØªÙĨ ÙĪØ¹
Ø§Øº ÙĪÙĨ
ĠÙĤØµ Ø§Ø¦Ø¯
ØªØª Ø¶ÙħÙĨ
ĠØ³ÙĪ Ø§ØŃÙĦ
ĠÙħØ¹ ØªÙĤØ¯
ĠØ§ÙĦØ£Ø³ ÙĩÙħ
ĠÙĪØªØŃ Ø³ÙĬÙĨ
ĠÙħØ² Ø§Ø±Ø¹
ÙĤ ÙĦÙĬ
ĠÙĦ ÙĪØ²Ø§Ø±Ø©
ĠØª ÙĥØªØ¨
Ø§Ø³ ÙĪ
ÙĬÙħ ÙĪ
Ø§Øµ Ø¯
ĠØ¨Ø± ÙħØ¬Ø©
ĠÙĪØ§ÙĦØª ÙĥÙĨÙĪÙĦÙĪØ¬ÙĬØ§
ĠØ§Ø± ØªØ¨Ø·
ĠÙĦÙħÙĨ Ø¸ÙħØ©
ÙĪØ¨Ø§ÙĦ Ø¥Ø¶Ø§ÙģØ©
Ø· Ø§Ùģ
ÙĬØ± Ùī
ĠØ® ØµÙĬ
Ø¹ÙĬ Ø§Ø¯
ØªØ¹ ÙĪØ¯
ĠÙĪØ¥ÙĨ Ø´Ø§Ø¡
c c
Ø§ÙĦ Ø£Ø³
ĠØ§ÙĦÙĦ Ø§Ø²Ùħ
ĠØ§ÙĦØ§ÙĨØª ÙģØ§Ø¶Ø©
ĠØ§ÙĦÙģÙĦ Ø§ØŃÙĬÙĨ
ĠÙħØªØ± ÙĪ
ĠØ§ÙĦÙħØªÙĨ ÙĪØ¹Ø©
ĠØ§ÙĦØ¯Ø¨ÙĦÙĪÙħ Ø§Ø³ÙĬØ©
ĠØ¨ Ø³Ùħ
ĠØ³ Ø§Ùģ
ĠÙĪØª Ùĥ
ĠÙħØª Ø§Ø¨Ø¹Ø©
ĠØ§ÙĨ Ø´
ĠÙħØ¤ Ø±Ø®
ĠØ¹Ùħ ÙĪØ¯
ĠØŃÙĥ ÙĪÙħ
ĠÙĪØ¨ Ùħ
ØµÙģ ØŃ
ĠØªØ´ Ø¬ÙĬØ¹
ĠØªØ¨Ø¹ Ø§
ĠØ³ÙĨØª ÙĬÙħ
ĠØ§ÙĦÙħ ÙħØ§ÙĦÙĥ
ĠØ§ÙĦÙĥ ÙĦÙī
ĠØ§ÙĦÙĥ Ø§ÙģÙĬ
ĠØ§Ø³Øª Ø®Ø±Ø§Ø¬
ÙĪØ§Øª ÙĬØ§
ĠÙħÙĥ Ø§ØªØ¨
ĠÙħØµÙĨ ÙĪØ¹Ø©
ĠØ±ØŃÙĦ ØªÙĩ
ĠØ§ÙĦØ§ØŃØªØ¬ Ø§Ø¬Ø§Øª
Ø´ ÙĬØ§
ĠØ¬ Ø§ÙĬ
ÙĩØ± Ø§Ùħ
ĠØ§ÙĦØ¢ Ø®Ø±Ø©
ĠØ§ÙĦØ³ÙĦ Ø·
ĠÙħÙģØª Ø§ØŃ
ĠØ´Ø£ÙĨ ÙĩØ§
ĠØ§ÙĦÙħØŃØ¯ Ø¯Ø©
ĠÙĨÙĬØ¬ ÙĬØ±ÙĬØ§
Ø£ Ø¹ÙħØ§ÙĦÙĩ
ÙĬØ± ØªÙĩØ§
ĠØ± Øº
ĠÙĪØª ÙĪÙĦÙī
ĠØ§ÙĦÙĦ ØŃÙħ
Ø§ÙĦØª Ø´
ĠØ¨ØŃ ÙĪØ«
ĠØ§ÙĦØ¨ÙĦ Ø§Ø³Øª
ĠØ£Øµ ØŃ
ĠÙĬØ± ÙħØ²
ÙĨØ§ÙĨ Ø©
ĠÙĪØµ ÙĪÙĦØ§
ĠØ§ÙĥØªØ´ ÙģØª
ÙĢÙĢÙĢÙĢ ÙĢÙĢÙĢÙĢ
ĠØ§ÙĦØ¨Ø±ÙĪØªØ³ØªØ§ÙĨØª ÙĬØ©
ĠØ¨Ø£ Ø¹ÙħØ§ÙĦ
ĠØ§Ø¹ ØªØ±Ø§Ùģ
ĠØ§Øª ØµØ§ÙĦØ§Øª
ĠÙħØ® Ø§Ø·Ø±
ÙĪØ§Ø±Ø²Ùħ ÙĬØ©
ÙĬ ÙĬØ¯
Ø¯ Ø§ÙħØ©
ĠÙģ ÙĩØ°Ø§
ĠØŃ Ø²Ùħ
ĠØ§ÙĦÙĥ ÙĨØ¯ÙĬØ©
ÙĤØ¯ Ø³
ĠØ¨Ø¥ Ø¬Ø±Ø§Ø¡
ĠØ§Ø´ ØªØ±Ùĥ
ĠØ±Ø£Ø³ ÙĩØ§
ĠÙĪØ§ÙĦÙħØ¤ Ø³Ø³Ø§Øª
ĠÙĪÙĥÙĨ Ø¯Ø§
ĠÙĨ Ø¹Ùħ
Ø§Ø¹ Ø§
ĠØ§ÙĦÙĨ Ø§Ø¯Ø±Ø©
ĠØ§ÙĦØµ Ùħ
ĠØ§ÙĦÙħÙĨ Ø®ÙģØ¶
ĠØªØª ÙĪÙģØ±
ÙĪØ´ Ø©
ÙĤ Ø§Ùģ
ĠØ£ÙĨ ÙĨØ§
Ø§ÙĦØŃ Ø±Ø¨
ĠØ£ÙħØ± Ø§
ter n
ÙĪØ¨ Ø¯
ĠÙĪØª Ùĩ
ĠØªÙĤ Ø¨ÙĦ
ĠØ¥ÙĨ ÙĤØ§Ø°
ĠÙĪØµ ØŃ
ĠØ§ÙĦØ¬Ø§ÙĨØ¨ ÙĬÙĨ
ĠÚ ©
ĠØ§ÙĨØ¯ÙĦ Ø¹Øª
ĠØŃ Ø§ØµÙĦ
ĠØ§ÙĦØ¹ Ø´Ø±Ø©
Ø±Ø¶ Øª
ĠÙĪØ¬ ÙĩØ§Øª
ĠØ£Ùħ ÙĬ
ĠÙĬÙħ ÙĬÙĦ
Øº ÙĪÙĨ
ĠØ§ÙĦØ¯ Ø§Ø¦ÙħØ©
ÙĪÙĬ Ø¹ØªÙĤØ¯
ÙĬØ¹ ÙĬØ©
Ø³Ø§ÙĨ Ø©
ĠØ¯ÙĬÙĨ Ø§Ùħ
ĠØ§Ø³ØªØ·Ø§Ø¹ Øª
ĠÙģØ§Ø± ÙĪÙĤ
ĠÙħ ÙĪØ¶
ĠÙĪ ÙĪØ¯
ĠØ§ÙĦØª ÙĪØµÙĦ
ĠÙĤ Ø·Ø¨
ĠÙĨ ÙĬÙĨ
ĠØ§ÙĦØ³ Ø§ÙħÙĬØ©
ĠÙĩØ° Ø©
ĠØ§ÙĦÙħØ³ Ø§ÙĩÙħ
ĠÙĨØ¸ Ø±Ø©
ĠÙħØº Ø§Ø¯Ø±Ø©
ĠÙħÙĤØ± Ø§
ĠØ£ÙĨØ´Ø£ Øª
ĠØ§ÙĦÙĦÙĬØ¨Ø± Ø§ÙĦÙĬØ©
ĠØª ÙĪØµÙĬÙĦ
Ø· ÙĪ
ĠØŃ ÙħØ±Ø§Ø¡
ĠØ§ÙĦØ« ÙĪØ±ÙĬØ©
ĠØ£ÙħØ± Ø§Ø¡
ĠÙĦØ¨ Ø«
ĠÙĦÙĦØ« ÙĪØ±Ø©
ĠØ§ÙĦØŃ Ø§Ø±Ø©
ĠØ± Ø§Ø¨Ø¹
ØªØ± Ø·
ĠØ§ÙĦØ¬Ùħ ÙĬÙĦ
en ti
ĠÙĬØ® Ø¶Ø¹
Ø± Ø¦ÙĬØ³
Ø§Ùħ Ø±Ø§Øª
ĠÙĦÙĦ Ø¬ÙĨ
ÙĪØ¬ ÙĪ
ĠØ§ÙĦÙħØµ Ø§ÙĨØ¹
ĠØ¨Ø· Ø±ÙĬÙĤ
ĠØ¨Ø¥ Ø¶Ø§ÙģØ©
ĠÙħØ±ÙĥØ² ÙĩØ§
ĠÙħØ¶ ÙĬÙĤ
ĠØ§Ø±ØªÙģØ§Ø¹ ÙĩØ§
Ġ Ø§Ø¬Øª
ĠÙģÙĬ ÙĥÙĪÙĨ
ĠØ§ÙĦØª Ø²Ø§Ùħ
ĠØ£ÙĨÙĩ Ùī
ĠØ¨Øª Ø¹ÙĬÙĬÙĨ
ĠØ§ÙĦØ§Ø³Øª Ø¬Ø§Ø¨Ø©
ĠØ§ÙĦÙħÙĪ Ø§Ø·ÙĨ
ĠØªØŃØ¯ÙĬØ¯ Ø§
ĠÙĪØ§ÙĦØº Ø±Ø¨
ĠØ§ÙĦØ¨Ø·Ø± ÙĬØ±Ùĥ
Ø· Ø±ÙĨØ¬
ĠÙĪØ§ÙĦ Ø¯ÙĬ
ÙĪØª ÙĤØ¹
ĠØ§ÙĦØŃØ± Ø§Ùħ
ĠØ¨Ùĥ Ø£Ø³
ÙĪØ§ØŃ Ø¯Ø©
ĠÙĨØ´Ø§Ø· Ùĩ
ĠÙħ Ø¸Ø§ÙĩØ±
ĠØ§ÙĦØ¬ ÙħÙĦØ©
ĠØ· Ø§ÙĦØ¨Ø§
ĠØªØŃ Ø¶ÙĬØ±
ĠØ§Ø³Øª Ø±Ø§ØªÙĬØ¬ÙĬØ©
ĠÙħØº Ø±Ø¨ÙĬ
ac e
ĠØªØ´ÙĥÙĦ Øª
ĠØªØº ÙĦØ¨
ĠØ§ÙĦÙħ ØµÙģ
Ø§ÙĤ ÙĬØ±
ØªÙħ Ø§Ø¡
ÙĥÙĦ ØªØ±Ø§
ÙĪØª Ø¹
ĠØ§ÙĦÙħÙĨ ÙĪÙģÙĬØ©
ØµØ± ØŃ
Ġ6 8
Ġ8 3
ØªØ¹ ØªÙħØ¯
ĠØªØ£Ø«ÙĬØ± Ø§Øª
ĠÙĨÙĩ Ø§Ø¦ÙĬØ§
ØªØ¨Ø§Ùĥ Ø§Øª
ĠÙĬØ§Ø¨ Ø§ÙĨÙĬ
l es
Ñ ģ
ĠÙħÙĨ Ø¸ÙħØ§Øª
ĠÙĤ ØµØ¯
ĠØ§ÙĦÙĦ Ø·ÙĬÙģ
ĠØ§ÙĦØ¶ ÙĬ
ĠÙĤØ§Ø¦ Ø¯Ø§
ĠÙĬØŃÙĬ Ø·
ĠØ§ÙĦØ£Ø« Ø±ÙĬ
ĠØ¨Ø£ÙĥÙħÙĦ ÙĩØ§
ĠØª Ø§Ø¨
ĠØµ Ø¹ÙĬØ¯
Ø«Ø± ÙĬØ©
ĠÙĪØŃ ÙĬÙĨ
ĠÙĨÙĪØ¹ ÙĬÙĨ
ĠØ¥ÙĬØ¬ Ø§Ø¨ÙĬØ©
B C
Ø§ ÙĬÙĥ
ÙĨ Ø§Ùħ
Ùģ Ø¥Ø°Ø§
ĠØ¹ ÙĪØ¶
ĠØ¬ Ø¨Ø±
ĠØ® ÙĦØ¯
ĠØ§ÙĦØªÙĨ ÙĪØ¹
ĠØ¨Ø§ÙĦØ³ Ø¬ÙĨ
os t
Ø§ÙĦ Ø§ÙĨ
Ùģ Ø§ÙĨÙĬØ§
ĠÙħ Ø¬ÙĦØ¯
ÙĦÙĬ ÙĥÙĪÙĨ
ÙĬØ² Ø§
ĠÙĬØª ÙĪÙĦÙī
Ġ5 000
ĠØªÙĨ ÙĤØ³Ùħ
ĠÙĦØ£ Ø¬ÙĦ
ĠÙĪØ± ÙĪØ³ÙĬØ§
ØŃØª ÙĪÙī
ÙĪØ£ÙĬ Ø¶Ø§
Øµ Ø±Ø©
ĠØ§ÙĦØª Ø¹Ø¨
ĠØ§Ø³ Ø·
Ġt empla
ĠÙĪØ§ÙĦÙĤ Ø§ÙĨÙĪÙĨ
Ø§ÙĦØªØŃ Ø§ÙĤ
× Ļ
Ùħ ÙĪÙĦ
ĠØª Ø³ÙĬ
ĠÙĪØ§ÙĦ Ø¹Ø¨
ĠØ® ÙĬØ§Ø±
ÙĪØ§ÙĨ Ø§Øª
ĠØµÙģ ÙĤØ©
ĠÙĪØ§ÙĦ ÙĥÙĦ
ĠØ§ÙĦØ¹ Ø´Ø±
ĠØ® ÙģÙĬÙģØ©
ĠÙĪÙĩ Ùī
ĠØªÙĨ Øµ
ĠØ§ÙĦÙħÙĥØª ÙĪØ¨Ø©
Ġ Ø§ØªÙĩ
ĠØ§ÙĦ Ø§ÙĬ
ĠÙĪ Ø¬ÙĦ
ĠØ¨ ÙģØªØ±Ø©
ĠÙĪØ§ÙĦ ÙĤØ·
ĠØ¬ ÙĨØ¯
ĠØ§ÙĦØ´ ÙĪ
ØªÙĬ Ø§ÙĨ
ĠØªÙĬÙħ ÙĪØ±
ÙĬ ÙĤØ§
ĠÙħ Ø¦Ø©
ĠØª ÙĪØ¨
ĠØ§ÙĦÙĤ ØµÙĬØ¯Ø©
ĠØ¨Ø¹Ø¶ ÙĩÙħØ§
Ø¹Ø§Ø¯ ÙĨ
ĠØ¹Ø§Ø¦ Ø´Ø©
ÙĤ ÙĩØ§
ĠÙģ Ø¹ÙĦÙī
Ø· Ø¯Ùħ
Ø® Ø§ØµØ©
Øº Ø±Ø©
ĠØ§ÙĦÙĩ ÙĪØ§ØªÙģ
ĠØ³ÙĬ Ø¯Ø©
ĠØ¨Ø§ÙĦÙħ ØºØ±Ø¨
Ġ9 00
ĠÙĥØ± ÙĪÙħ
ĠÙħØ¶ Ø§Ø¯Ø§Øª
ĠØ¨Ø§ÙĦÙĦ ÙĪÙĨ
ØªÙĥ Ø²
ĠØ§ÙĦØŃØ¬ Ø§Ø±Ø©
i es
Ø§Ø¦ Ø¶
ĠØ§ÙĦØ¨ ÙĬØ¹
ÙģØ± Ø¯ÙĬ
ĠÙģÙĦ ÙĪØ±ÙĨ
ĠØ¨Ø§ÙĦÙĥ Ø£Ø³
ĠØ§ÙĦØŃÙħÙĦ Ø§Øª
ĠÙħÙĥØª ÙĪØ¨Ø©
ĠÙĪØ§ÙĦÙĬØ§Ø¨ Ø§ÙĨ
ĠØ§ÙĦ Ø§ÙĦ
Ùģ Ø§Ø¡Ø©
ĠÙĦ Ø§Øº
ĠÙĦÙĦ ØªØ´
ØªÙĬ Øª
ĠÙĪØ§ÙĦØ¬ ÙħØ§Ø¹Ø©
ĠÙħ ØµÙĦØŃØ©
ĠØ£ Ø·Ø±
ĠÙģÙĬ ÙħÙĥÙĨ
ĠØ§ÙĦÙħ Ø®Ø·
ĠØŃ ÙĪØ§Ø±
ĠØ§ÙĦØª Ø¨Ø±
ĠÙĩ ÙĪÙĨ
ĠØ§ÙĦØ³ ÙĪØ§Ø¦ÙĦ
ÙĪØ¯ Ø¹
ĠØº Ø§Ø¨
ĠØ§ÙĨ ÙĤ
ĠÙĦÙĦÙħ Ø¬ØªÙħØ¹
ĠØªØµ ÙģÙĬØ§Øª
ĠÙĬÙĪÙħ ÙĬÙĨ
ĠÙĪØ§ÙĦØ¯ ØªÙĩØ§
ĠØ§ÙĦØ£ÙħÙĬØ± ÙĥÙĬ
ÙĪØ§Ø² ÙĬØ©
ĠØ§ÙĦÙģØ¹ÙĦ ÙĬØ©
ĠØªÙĥØ± Ø§Ø±
ĠØ§ÙĦÙħ Ø²Ø±
ÙĬÙĨ ÙĬÙĨ
ĠØ¨Ø§ÙĦ ÙħØ¯
ĠØ§ÙĦÙĥ Ø³
ĠØ§ÙĦØ± Ø´
ÙĤÙĦ ÙĬÙĨ
ØªÙĩØ§ Ø¨
ÙģØ¶ ÙĦØ©
ĠØ¹ ÙħØ¯
ÙĪØ¹ ÙĬÙĬÙĨ
ĠØ§ÙĦÙĪ Ø¶
ĠØ®Ø· ÙĪØ±Ø©
ĠÙģÙĬ ÙĥØªÙĪØ±ÙĬØ§
ĠØ§ÙĦØ´ Ø§ÙħÙĦ
ĠØ« ÙĤØ©
ĠØ§ÙĦØ¹Ø¶ ÙĦØ©
ĠØ¥Ø« Ø§Ø±Ø©
ĠØ¨ Ø¬ÙħÙĬØ¹
ĠØ¹ Ø§Ø¯ÙĬ
ÙĪÙħ ÙĪ
ĠØ§ÙĦØ´ Ø¹Ø§Ø±
ĠØ¶ Ø±ÙĬØ¨Ø©
ĠØ§ÙĦØº ÙĦ
ĠØ§ÙĦØ£ØŃ Ø³Ø§Ø¡
ĠØ¨ Ø§ÙĨÙĬ
ĠØ§ÙĦÙħ Ø¯Ø©
ĠØª ÙĪÙĤØ¹
ĠÙĪØ§ÙĦ ØªØ¨
Ø° Ø±Ø©
Ø§Ø² ÙĪÙĨ
Ø§Ø±ÙĬ Ùģ
ĠØ§ÙĦØ±Ø¦ ÙĪÙĬ
ĠØ§ÙĦÙĨØ§Ø´ Ø¦Ø©
ĠØ§ÙĦØ¹ Ø¯ÙĬØ¯Ø©
ĠØ§ÙĦØŃ Ø¬Ø©
Ø§Ùģ ÙĦØ§Øª
Ø§ÙĨØª Ùĩ
ÙĦÙģ Ø¸
ĠØ§ÙĦÙĪ Ø§Ø¬ÙĩØ©
ĠØ§ÙĦØ² ÙĪØ±
ĠØ®ÙĦÙĬ Ø·
Ø¨ ÙĬÙĦ
ĠØ¨ Ø·ÙĦØ¨
ĠØ§ÙĦÙħ Ø®Ø·ÙĪØ·Ø§Øª
ĠØª Ø·ÙĦÙĤ
ĠØ§ÙĦØ£ Ø«ÙĨØ§Ø¡
ĠØ§ÙĦØ£ ØŃØ±Ø§Ø±
ĠØ§ÙĦØ¬ ÙħÙĦ
Ø§Ø² Ø¹
ĠØ³ÙĬ Ø¦Ø©
Ġt ext
ĠØ§ÙĤ Øª
ĠÙĦÙĦØ¥ÙĨ Ø§Ø«
ÙĥØªÙĦ ÙĨØ¯ÙĬ
ĠØ§ÙĨØ³ ØŃØ§Ø¨
ĠÙĪ ØŃÙĬ
ĠØ· Ø¹Ø§Ùħ
ĠØªØ´ Ø±ÙĬ
ĠØ§ÙĦØ¥ÙĤÙĦÙĬÙħ ÙĬ
ĠÙĦØªÙĨ ÙģÙĬØ°
Ø·ÙĪØ¹ ÙĬÙĨ
ĠØ§ÙĦÙħ ØŃØ¯Ø¯
ĠÙĨ Ø¨ÙĬ
ĠØ§ÙĦÙħÙĨ ÙĩØ¬
Ø«Ø± Ø§Øª
ĠØ§ÙĦØ£Ùħ Ø§ÙĨ
ĠØ§ÙĦÙħØ¹ ÙĤØ¯Ø©
Ø²Ø§ ÙĪÙĬØ©
ĠØ§ÙĦÙħÙĥ Ø«
ĠØ²Ø¹Ùħ Ø§Ø¡
ÙĦ ÙĤØ©
ÙĬ ØªÙħÙĬØ²
ĠÙĪØ§ÙĦÙħ ÙĤ
ĠÙĬÙĨ ÙĤÙĦ
ĠØªØª Ø®Ø°
ĠØŃÙĤ ÙĪÙĦ
ĠØ°Ùĩ Ø¨ÙĬØ©
ØŃ ÙĥØ§Ùħ
ĠØ§ÙĦØ¹ Ø§Ø¬
ĠØ§ÙĦØ¨ ÙĥØª
Ø§Ø· Ø§
ÙĪØ§ ÙĩØ¨
ĠÙĦÙĦÙħ Ø³Ø§Ø¹Ø¯Ø©
ĠØ§ÙĦÙħØ¬ ÙĬØ¯
ĠÙĤØ± Ø·Ø¨Ø©
ĠØ§ÙĤ ØªØŃ
ĠØ§ÙĦÙĥÙĪÙĨ ØºÙĪ
ĠÙĬØ¹ØªÙĤØ¯ ÙĪÙĨ
ĠÙĪØ£ ÙĩÙĦ
ĠØ« ÙĪØ±
Ġ3 50
ĠÙĤØ± Ø·Ø§Ø¬
ĠÙĪØ§ÙĦØ¯ ÙĥØªÙĪØ±
ĠÙĪØ§ÙĨØª ÙĩÙī
ĠØ§ÙĦØ§Ùħ Ø±
ÙĪÙĦ ÙĪÙĨ
Ø¹ÙĦ Ø§ÙħØ§Øª
Ø§ÙĦØª Ø¹
ĠÙĦÙĦØ£ Ø±Ø¶
ĠT h
ĠØ§ÙĦÙĤØ· ÙĬÙģ
Ø¨ ÙĬØ§
Ø¹ ÙĪØ¯ÙĬØ©
ĠÙħÙĨ Ø§
ĠØ§ÙĦØ¥ ÙĤØ§ÙħØ©
Ø§Ø· ÙĤØ©
ĠÚ ¤
ĠÙħ Ø³Ø±
ĠÙĦÙĦ ØŃØ¯
ĠÙħØ¹ ÙħØ±
ĠÙħØ¯ ÙĨÙĬ
ĠØ§ÙĦØªØ£Ø«ÙĬØ± Ø§Øª
Ùĥ Ø§Ø¯ÙĬÙħÙĬØ©
ĠÙĦ ÙħÙĦ
ĠØª ÙĪØ§ÙģÙĤ
ĠÙĦÙĦ Ø¬ÙħÙĩÙĪØ±ÙĬØ©
ĠØ® Ø§Ø¯Ùħ
ĠØ§ÙĦÙĥ ÙĪÙĥ
ĠÙĪØ£ ÙĨØ§
ĠÙĦÙĦÙĨ Ø³Ø§Ø¡
ĠÙģÙĦÙĪØ±ÙĬ Ø¯Ø§
r ic
ÙĦ Ø§ÙĤ
ØµØ§Ø± Ùī
ĠØ§ÙĦÙĥÙĦØ§Ø³ ÙĬÙĥÙĬ
ĠØ¹ Ø§Ø¦Ø¯
ĠÙĦ ÙĪØ¯
ĠØ§ÙĦÙħ ÙĦÙĬ
ĠØ§ÙĦÙħÙĨ Ø§Ø¹ÙĬ
ĠÙĦØª ÙĥÙĪÙĬÙĨ
ÙĮ Ùĳ
ĠÙħØ±Ø¶ Ùī
ĠØ§ÙĦÙĬØ³ Ø±Ùī
ĠÙĪ ÙĥÙĪÙĨ
Ø§Ø¬ ÙĬÙĨ
ĠØ§ÙĦØ³ÙĦ Ø§ÙħØ©
ĠØ§ÙĦØ§Ø³Øª Ø±Ø§ØªÙĬØ¬ÙĬØ©
ÙĪØ¯ÙĬ Ø§
ĠÙĨØ¬ ØŃØª
ĠÙħØªØŃ Ø±ÙĥØ©
ĠØªÙĦÙģØ²ÙĬ ÙĪÙĨÙĬØ©
ĠØ£ ÙĥÙĦ
Ø³Øª ÙĤØ¨ÙĦ
ĠØ§ÙĦØ® ÙĦÙģ
ĠØ¨Ø¥ Ø³Ùħ
ĠØ§ÙĦØ§ÙĨ Ø¯ÙħØ§Ø¬
ĠÙĪØ¬Ùĩ Ùĩ
ĠØ§ÙĦØ£ÙĪØ± Ø§Ùħ
ĠØ§ÙĦÙĪØ¸ ÙĬÙģÙĬ
ĠØªØªØŃ Ø±Ùĥ
ĠØ§ÙĦ Ø§Ùĥ
ĠØ£ Ø¯ÙĬ
ĠØ§ÙĦÙħ ÙĤØ§
ĠØª Ø¹Ø¯Ø¯
Ø· Ø§Ø±Ø§Øª
ĠØ§ÙĦÙĨ Ø§Ø®
Ø§Øµ ÙĦØ§Øª
ĠÙĤØ± Ø£
Ø³Ø§Øª ÙĬÙĨ
X X
a z
Ø± ÙģØ¶
ÙĬØ± Øº
ĠØ§ÙĦÙģ Ø¦Ø§Øª
ĠØ£ÙĨÙĩ ÙħØ§
ĠØªØ£ ÙĥÙĬØ¯
ĠØŃ Ø²Ø§Ùħ
ĠÙĨ Ø°ÙĥØ±
ÙĪÙģ ÙĪÙĨ
Ø§ÙĦÙĬ Ùĩ
ĠÙĪÙĬ Ø®
ĠØ§ÙĦÙģÙĦ Ø§Ø³ÙģØ©
ĠØ®Ø§Ø±Ø¬ ÙĬ
ĠÙĦ ÙĬÙĤ
ĠØ§ÙĦØ£ Ø°ÙĨ
ĠÙĦÙĦ Ø¯Ø±Ø§Ø³Ø©
ÙĪØ¨ Ø§ÙĦØ±ØºÙħ
ÙĪØ¯ ÙĩØ§
ĠØ§ÙĦØ§Ø³Øª ÙĩÙĦØ§Ùĥ
ĠØ§ÙĦÙħØ¬ Ø±ÙĬØ©
ĠØ£ØŃ Ø¨
ĠØ§ÙĦØ¯Ø± Ø§ÙħØ§
ĠØªØ® ÙģÙĬØ¶
ĠÙģ Ø¬Ø±
ĠÙħÙĨ ØµØ©
ĠØ§ÙĦØ¹ ÙħÙĬ
ĠØ§ÙĦØ± Ø§ØŃØ©
ĠÙħØª ÙĤ
ĠØ§ÙĦØ£Ùĥ Ø§Ø¯ÙĬÙħÙĬ
ĠÙĦÙĦÙĥ ØªØ§Ø¨
Ø· Ø±ÙĤ
ĠØ¥ Øº
ÙĪØ±ÙĬ ÙĪÙĨ
ĠØ§ÙĦÙħØ± Ø§Ø¬Ø¹
ĠØ§ØŃ ÙħØ¯
us t
ĠØ§ÙĦØ£ÙĤ Ø³Ø§Ùħ
Ø¹ ÙĦÙĬ
ĠÙĪ Ø®ÙĦ
ĠØ§ÙĦØ± ØºØ¨Ø©
ĠØ§ÙĦØº ÙĨÙĬØ©
ĠÙĪÙħÙĨ Ùĩ
ĠØ§ÙĨØª ÙĩØ§
Ø¶Ø± Ø§Ø¨
ĠÙħÙĨØª Ø¸ÙħØ©
ĠÙĦÙĦØ« ÙĤØ§ÙģØ©
ØªÙħ ÙĬÙĨ
Ø³Ùħ Øª
ĠØ§ÙĦØ¹ÙĦ ÙĪÙĬØ©
u la
Ø³ ÙĥÙĨØ¯Ø±ÙĬØ©
ĠØ£ Ø±ÙĤØ§Ùħ
ĠØ§ÙĦÙħ ÙħÙĦ
ĠØ§ÙĦÙħ Ø®ØµØµØ©
ĠÙĥ ÙĪØ³Øª
ĠÙħØ¹ Øª
ĠÙħØ´ Ø§Ø©
Ġ0 6
ĠØ§ÙĦÙĤØ· ÙĨ
ĠØ§ÙĦÙģÙĦØ³ ÙģÙĬØ©
c o
Ùħ ÙĬØª
Ø® Ø§Øª
ĠØŃ Ø§Ø¯Ø©
ØªÙĦ Ø§Ø²ÙħØ©
ĠØŃÙħ ÙĬØ¯
ĠØ§ÙĦØªÙĤÙĦÙĬ Ø¯
ĠØ£Ø¬ Ø¨Ø±
Ø¯ Ø§Ø«
Ø« Ø¨ÙĬØª
ĠØ¨Ø· Ø±ÙĤ
ĠØ§ÙĦÙħØ¨ Ø§Ø±Ùĥ
ĠÙĬØ³ Ø¹Ùī
ĠÙĦÙĬÙĨ ÙĥØ³
ĠØ§ÙĦØ§Ø¨ØªØ¯ Ø§Ø¦ÙĬ
Ġ on
ĠÙĬ Ø«Ø¨Øª
ĠÙĥ Ø±Ùĥ
ĠØ§ÙĦÙĨ Ùĥ
ĠØ§ÙĦÙģ ÙĪØ¶Ùī
ĠØ£ÙĪ ÙĥØ³
ÙĪØ¹ Ùĩ
ĠÙĦÙħ Ø§Ø°Ø§
ĠØ§ÙĦÙħØ± ØªÙģØ¹Ø§Øª
ĠÙĬØ± Ø£Ø³
ĠØ¥ ØµØ§Ø¨
ĠØ± ÙĪØª
ĠØ® Ø¨Ø±Ø©
ĠØ§ÙĦØ¯ Ø§ÙĦØ©
ĠØ§ÙĦÙħÙĨ Ø§Ø³Ø¨Ø§Øª
ĠÙĩÙĪ ÙĬØ©
ĠØªØŃ ÙħÙĬÙĦ
ÙĦØ§Øª ÙĬÙĨÙĬØ©
Ø³ÙĨ Ø·
ĠØ§ÙĦÙĥØªØ§Ø¨ Ø§Øª
ĠØ§ÙĦØ«ÙĦ Ø¬
1 00
ĠØ§ÙĦØ³ ÙĦØ¨ÙĬØ©
ĠØ§ÙĦÙĥ ÙĪ
ÙĥØ± Ø§Ø±
ĠØ§ÙĦÙħØµ Ø§Ø¨
ĠØ§ÙĦØ§ ÙĪÙĦÙī
ĠØ§ÙĦØ£Ø¬ÙĨ Ø¨ÙĬ
e ar
ĠØ¬ ÙĪÙĬØ©
ĠØ£ÙĪ Ùĥ
ĠØº Ø±ÙĬØ¨Ø©
ĠØªØ¹ ÙĦÙĬÙĤ
Ø±ÙĬÙĥ ÙĬ
Ġs eg
ĠÙħÙĬÙĦ Ø§Ø¯
ĠØ·Ùģ ÙĪÙĦØªÙĩ
Î »
ĠÙģ ÙĪ
ĠÙģ ØµÙĪÙĦ
ĠØ§ÙĦÙħ Ø¨Ø¯Ø£
ĠØ¬ ÙĨÙĬÙģ
ĠØ§ÙĦØŃ ÙĪØ§Ø¯Ø«
ĠØ§ÙĦØ¬ Ø³Ø¯
ĠØµ Ø§Ø±Øª
ĠØ§ÙĦÙħØ³ ÙħØ§Ø©
Ġ8 2
ĠØ§ÙĦØ« Ø±ÙĪØ©
ÙģÙĦ Ø³ÙģØ©
ĠØ§ÙĦÙħÙĪ Ø§ÙĤÙģ
ÙģØ±Ø¯ Ø§Øª
ĠØ§ÙĦØªØ·Ø¨ÙĬ ÙĤÙĬØ©
ĠØ§ÙĨØ¶Ùħ Øª
ĠÙĪ Ø¹ÙĦÙĪÙħ
ĠÙģÙĬ ÙĨÙĬ
ĠÙĥ ÙĪØ¯
ÙĬØ± ÙĥÙĬØ©
ĠØ§ÙĦØ¬ Ø¯Ø±Ø§ÙĨ
ĠØ· Ùĩ
ĠØ§ÙĦÙħÙĪØ¬ ÙĩØ©
ĠÙĦØ§Ø¹Ø¨ ÙĬÙĨ
ĠØ§ÙĦØªÙĩ Ø¯ÙĬØ¯
ĠÙĪÙħ Ø¬ÙĦØ³
ÙĢ ÙĦ
ĠØ¹ÙĦÙĬ Ø§
ĠÙĨÙĬÙĪ Ø²ÙĬÙĦ
Ùĥ Ø§ØªØ¨
ĠÙĪØ§ÙĦ ÙĤØ¨
ĠØº Ø§Ø²ÙĬ
ØµÙĦ ÙĬØ©
ĠØªÙħ ÙĬÙĦ
ĠØ§ÙĦÙħØ² ÙħÙĨ
ĠØ§ÙĦÙģÙĨ ÙĦÙĨØ¯ÙĬØ©
ĠÙĪØ¸ ÙĬÙģ
ĠØ§ÙĦÙħØ¹Ø¯ ÙĦ
ÙĨÙĩØ§ ÙĬØª
ĠØ§ÙĦÙĦ Ø§Ø°
ĠØ¨Ø± Ø³
ĠØ§ÙĦÙħÙħ Ø§Ø±Ø³Ø§Øª
Ġ0 4
ĠØ¬Ø¨ÙĦ ÙĬØ©
ĠØ¨Ø«ÙĦØ§Ø« Ø©
ĠØª ÙĪØ¶ÙĬØŃ
ĠÙĪØ³ Ø§ÙĩÙħ
ĠØ§Ø® ØªØ¨Ø§Ø±Ø§Øª
ĠØ¶Ø¹ ÙĬÙģ
ĠÙĪØ¨Ø¯ Ø§ÙĬØ©
ĠØ§ÙĦÙĤ Ø¨Ø©
ĠÙħØ¯ Ùģ
ĠÙħØ´ Ø§Ø¹Ø±
ØªØ´ ØªÙĩØ±
ĠØ§ÙĦÙĥØ§Ø±ÙĬ Ø¨ÙĬ
ĠØº Ø±ÙĨØ§Ø·Ø©
Ġ190 2
ĠØ§Ø±ØªÙģØ§Ø¹ Ùĩ
ĠÙĪØ¨Ø· ÙĪÙĦØ©
ĠØ¹ Ø¸Ø§Ùħ
ĠØ§ÙĦØ´ Ùĥ
Ø®Ø± ÙĪØ·
ĠØ³ÙĬ Ø§ØŃÙĬØ©
ÙģØ¹ ÙĦÙī
ĠÙħÙĬÙĦ Ø§ÙĨÙĪ
ĠØªÙĪÙĨ Ø³ÙĬ
ĠØ§ÙĦØ³ Ùĥ
ĠØ¯ ÙĪÙħØ§
ĠØ§ÙĦØ· Ø§Ø¦Ø±
ĠÙĨÙĤ Ø§Ø¨Ø©
Ø§Ø³Ø§Øª Ø´
ĠÙĪÙĬØª ÙĥÙĪÙĨ
ĠØ§ÙĦØ£Ø³ØªØ± Ø§ÙĦÙĬØ©
ĠØª Ø³Ø§ÙĩÙħ
ĠÙĥ ØªÙĬØ¨Ø©
ĠØ§ÙĦØª Ø¬Ùħ
ĠØ§ÙĦÙģ ØªÙĬØ§Øª
ĠØ§ÙĦØ® Ø¯ÙĬ
ĠØ£Ø± ÙħÙĬÙĨÙĬØ§
ĠØ§ÙĦÙħÙĤ Ø§Ø¨ÙĦØ©
ĠÙĪØµ Ø§Ø±
ĠØ§ÙĦØ·Ø¨ Ø¹Ø©
Ø«ÙĬ ÙĤØ©
ĠÙĦÙĦÙħØ³ ÙĦÙħÙĬÙĨ
ĠØ§ÙĦÙħÙĤØ¨ Ø±Ø©
ĠØ§ÙĦÙħØ¤ÙĤØª Ø©
p er
ĠÙĦ Ø³Øª
ĠØª Ø§Ùĥ
ĠØ¥ Øª
ĠÙĤ Ø³Ø·ÙĨØ·ÙĬÙĨ
Ø§ÙĦØª ÙĨ
ĠØ§ÙĦØ·Ø¨ Ø§Ø¹Ø©
ĠØ§ÙĦÙĤØª ÙĦÙī
ØŃ Ùĥ
ĠØ¥ ÙĬÙħØ§ÙĨ
ĠØ³ ÙĪÙĨÙĬ
ĠÙħØ³ Ø¦
ĠØ¨Ø´ ÙĬØ±
ĠØŃØ² ÙħØ©
Øª Ø¹ÙħÙĦ
ĠÙĪ Ø§Ø¬ØªÙħØ§
ĠØ· Ø§ÙĩØ±
ÙĥÙĪÙĨ Ø§Øª
ĠÙħØ± Ø§Ø³
ĠØ§ÙĦØ§Ø³Øª Ø®Ø¨Ø§Ø±Ø§Øª
ĠÙĦØ¬ Ø¹ÙĦ
ĠÙĪÙĬÙĦ Ø³ÙĪÙĨ
ĠØ³Ø§ÙĨØª Ø§
ĠØ§ÙĦØŃØ³ ÙĬÙĨÙĬ
ĠØ§ÙĦÙħ Ø±ÙĬ
ĠØ¥ ÙĨÙĬ
ĠÙĤ ÙĪØ§Ø¦Ùħ
ØªØ± Ø¹
Ø§ÙĨÙĬ Ø§Øª
ĠØ§ÙĦÙģÙĬ Ø¯Ø±Ø§ÙĦÙĬØ©
ĠØ¨Ø¥ Ø±Ø³Ø§ÙĦ
ĠØ¹Ø¨ ÙĪØ±
ĠÙĪØ«ÙĦØ§Ø« Ø©
ĠØ§ÙĦÙģ Ø¶Ø©
ÙĬÙģ Ø§ÙĨ
ĠØ§ÙĦØ¨ÙĬ ÙĪÙĦÙĪØ¬ÙĬØ©
ĠØ¹Ø±Ø¶ ÙĩØ§
ĠØ§ÙĦØŃÙĤ Ø§Ø¦ÙĤ
ĠÙĪ Ø§Ùĥ
ĠÙĦ Ø§Ùĩ
ĠØ§ÙĦÙħ Ø¦
ĠØªØ² Ø¯Ø§Ø¯
ĠÙĬÙģ ØµÙĦ
ĠØ¥ØŃØµ Ø§Ø¦ÙĬØ§Øª
Ø³ÙĬØŃÙĬ ÙĬÙĨ
ĠØª ØºÙĬÙĬØ±Ø§Øª
Ø· Ø¯Ø§Ùħ
ĠÙĬ Ø®ØªØ§Ø±
ĠØ¥ ØŃØ¯
Ø« Ø«
ĠØ§ÙĦØ³ ÙĬØ§ÙĤ
ĠØ§ÙĦÙģÙĬ ÙĦØ³ÙĪÙģ
ĠÙĨØ¨Ø§Øª Ø§Øª
Ø§ÙĦØªØ±Ùĥ ÙĬØ¨Ø©
ĠÙĪØ§ÙĦ Ø±ÙĤ
Ø³Øª ÙĬØ©
ĠÙĪØ§ÙĦÙħ Ø¬
ÙĤ ÙĪØ§
ĠÙĥ Ø§Ø´
ĠØ¨Ø§ÙĦ ØªÙĪ
ĠØŃØ± Ùħ
ĠØ§ÙĦØªÙģ Ø§ØµÙĬÙĦ
ĠØ§Ø¬ ØªÙħØ¹
Ø¯ Ø³
ĠØ¨ ØªÙħ
Ø· ÙĬØ§Øª
ÙĪØ¨ Ùĩ
ĠÙĪØ± ÙģØ¹
te m
ĠØ£Ø³Ø§Ø³ ÙĬØ§
ĠØ§ÙĦØ³ÙĪØ¯ Ø§ÙĨÙĬØ©
ĠØŃØ¬Ùħ ÙĩØ§
ĠØ§Ø®ØªÙĬØ§Ø± Ùĩ
ĠØ§ÙĦØ®ÙĬ ÙĪÙĦ
ĠÙĪØ§ÙĦÙģÙĦ Ø³ÙģØ©
Ø¬ ÙĬØ±Ø§Øª
ĠØŃ Ø±ÙĤ
ĠØ¬ ÙĬÙģ
ĠØ§ÙĦÙĨ Ø§Ø²
ĠØ§ÙĦÙģ ÙĥØ±ÙĬ
ĠØ§ÙĦØ± Ø¶
ÙĪØ¶ Ø¹Øª
ĠØ§ÙĦØŃØ¯ Ø§Ø¦ÙĤ
ĠÙĬØµ ÙĬØ¨
ĠØ§ÙĦÙĥÙģ Ø§Ø¡Ø©
ĠØ¹ ØµØ¨
ĠØ¥ Ø´
ÙĬØ± Ø§Ø¯
ĠØ¬ Ø§Ø±
ĠÙħØ¹ ÙĦÙħ
ĠØ§ÙĦØµ ÙĦÙĬØ¨
ÙĪØ¹ Ø§Ø¯Ø©
ĠØ¶ Ø±Ø¨Ø©
Ø«Ùħ Ø±Ø©
ĠØ§ØŃØªØ± Ø§Ùħ
Ø¯ Ø§Ø®ÙĦ
ĠÙĪ ØºØ±
ĠØ§ÙĦÙħ Ø´ÙĥÙĦØ§Øª
ĠØ£ÙĪ Ø¬
Ġ9 3
ĠÙĪØªÙħ Øª
C C
Ùĥ Ø§Ø©
ĠØ§ÙĦØ£ Ø®ÙĦØ§ÙĤÙĬØ©
ĠÙĦÙĥ Ø£Ø³
ÙĪØ§Ùģ Ø¯
ĠØ§ÙĦØ§Ùħ Ø¨Ø±Ø§Ø·ÙĪØ±ÙĬØ©
ĠØ¨Ø±ÙĪØª ÙĬÙĨ
ĠØ§ÙĦÙħØµØ·ÙĦØŃ Ø§Øª
ĠÙĩØ¬ Ø±ÙĬØ©
s h
ĠØŃ Ø§Ùĥ
ĠØ§ÙĦØ¹ Ø°Ø¨Ø©
ĠØ§ÙĦØµ Ø¯ÙĬÙĤ
ĠØº ÙĪÙĦØ¯
ĠØ§ÙĦÙħØ¤ ØªÙħØ±Ø§Øª
or m
ÙĥØ§ ÙĬØ§Øª
ĠØ§ÙĦØªØ¨ Ø±ÙĬØ¯
ĠÙĦØ§Ø¹ Ø¨ÙĬ
ĠØ§Ø®ØªØµ Ø§Ø±Ø§
ĠÙĪØ§ÙĦ Ø¹Ø¯
ÙĪÙĤ Ø§ÙĬØ©
ĠÙĪÙħ Ø«ÙĦ
ĠØ§ÙĦÙĪ ÙģÙĬØ§Øª
ØŃÙĪ Ø§Ø¶
ĠØ§ÙĦØŃØ± ÙĬØ±
ĠÙĪØ§ÙĦØ® Ø§Ø±Ø¬
ĠÙĤÙĬÙħ ØªÙĩØ§
ÙĦ Ø®
Ø£ Ø±Ø¬
ĠØ§ÙĦØ« ÙħØ§ÙĨÙĬØ©
ĠÙĬÙĤ Ùģ
ÙĥØª Ø³Ø¨
ĠØ§ÙĦÙħØ¬Ø± Ø§Øª
ĠØ£Ø³ØªØ§Ø° Ø§
ĠØ¹ ÙĥØ§
ĠØ± ØŃÙħ
Ø¬Ùĩ ÙĬØ²
ĠÙĪØµ Ø¯Ø±
ĠØ¹Ø´ ÙĬØ±Ø©
ĠØ¨ÙĦØº Ø§Ø±ÙĬØ§
ĠØ¹ Ùĥ
ĠÙĪØ§ÙĦ Ø²Ø±Ø§Ø¹Ø©
ĠÙĥØ£ ÙģØ¶ÙĦ
Ø¨ ÙĨÙĬ
ĠØ§ÙĦØ® Ø¨Ø²
ĠÙĦÙħ ÙĪÙĤØ¹
ĠÙĪÙĬ ÙĥÙĬ
ØªÙģ Ùī
ĠØ§ÙĦØ¹ÙħÙĦ Ø§Øª
ĠÙĦØ¨ÙĨ Ø§ÙĨÙĬØ©
ĠÎ ±
ĠØ§ÙĦØ¥ØµÙĦØ§ØŃ Ø§Øª
ĠØªØ¶ÙħÙĨ Øª
ĠØ§ÙĦØ³Ø· ØŃÙĬØ©
ĠØ§ÙĨØªØ® Ø§Ø¨Ùĩ
ĠØ¥ ÙĬÙĦ
ĠÙĦÙĦ Ø²Ø±Ø§Ø¹Ø©
ĠØ§ÙĦØ¥ Ø¬ÙħØ§ÙĦÙĬØ©
ĠÙĪØ¨ ØŃ
ĠØ¨ÙĦ ÙĪØº
ĠØ§ÙĦØ£ÙĨ Ø«Ùī
ĠØ§ÙĦØ³Ø¹ ÙĬØ¯
ĠÙĦ ØªÙĦ
ĠØ§ÙĦÙħ Ø¬ÙĦØ§Øª
ĠØ§ÙĦØ£ ÙĪÙĤØ§Øª
ĠØ¨Ø§ÙĦ ÙĬØ§Ø¨
ÙĪØ³ ÙĬÙĩ
ĠØ§ÙĦØ± ÙħØ§ÙĦ
Ġ15 5
Ġ0 2
Ø§ÙĦØ¯ ÙĪ
ĠÙħØ¶ Ø§Ø¯Ø©
ĠØ¨Ùģ ØªØŃ
ĠØ¨ÙħÙĨ Ø§Ø³Ø¨Ø©
ĠØ§ÙĦØ£ Ø·Ø¹ÙħØ©
ĠØ³ Ø±ÙĤ
ĠÙĨ Ø¹Ø±Ùģ
ĠØ¯ Ø§ÙĬ
ØªØ¨ Ø¹Ø¯
Ø·ÙĦ Ø¨Ø©
ĠØ£Ø³ Ø³Øª
ĠØªØ´ ÙĬÙĦÙĬ
ĠØ§ÙĦ ÙĪØ¯
ĠØ§ÙĦØ¹ ÙĨØ§ÙĬØ©
ĠØ¶ ÙĪØ§ØŃÙĬ
ĠÙĦØª Ø¹ÙĦÙĬÙħ
ĠØ§ÙĦØ¢ ÙĪÙĨØ©
ÙģØ§ÙĤ Ùĩ
ĠØ£Ø® ÙĪÙĩ
ĠÙģØ£ Ø®Ø°
ĠØ®Ø§Øµ Ø§
ac h
ĠÙĥ ÙĦÙĬØ§
ĠØ³ ÙĪÙħ
ĠØªØ² ÙĪÙĬØ¯
ĠØ¨Ø§ÙĦØ£ ÙĦÙħØ§ÙĨÙĬØ©
ĠØ¨ÙĥØ§ÙĦ ÙĪØ±ÙĬÙĪØ³
ÙĤ ÙĬÙĦ
ĠÙĪ Ø¹Ø±Ùģ
ĠÙħÙĨ Ø§ÙģØ³Ø©
ĠÙĬ ÙĦØ¨
ÙĪÙĨ Ø¸Ø±Ø§
ĠÙĤ Ø±ÙĬ
ĠÙĨ ÙħÙĪØ°
ĠØ¨Ùħ Ø¬Ø±Ø¯
ĠØ¬Ùħ Ø¹Ø©
Ø¨Ø§ ÙĬÙĨ
Ùģ ÙĪØ±Øª
ĠÙĪ Ø·Ø±
ĠØ§ÙĦØ³ Ø¤Ø§ÙĦ
ÙĪØ³ Ø¬ÙĦ
ĠØ¶ Ø±ÙĬØŃ
ĠÙĪØ¨ ÙĩØ°Ø§
Ġ6 1
ĠØ¹ÙĦ Ø§Ø¡
ro und
ĠÙĪØ£Ø´ ÙĩØ±
ĠÙĥ ÙĬÙĨØº
Ġ12 00
ĠØ´ÙĩØ± ÙĬÙĨ
ĠØ§ÙĦØ³ÙĪØ¯ Ø§ÙĨÙĬ
ĠØ§ÙĦÙħØ¶ Ø§Ø¯
ĠÙĪØ§Ø³Ùħ Ùĩ
l d
Ġ Ø§Ø¬Ø±
Ùħ Ø¯Ø©
ĠØŃ Ø°
ĠØ§ÙĦØŃ Ø²
Ø¯ÙĬÙħ ÙĤØ±Ø§Ø·ÙĬØ©
ĠØ£ØŃ ÙĪØ§ÙĦ
ĠØ£Ø± Ø§Ø¶
Ġ190 1
ĠØªÙħÙĨ ØŃ
ĠÙħØ³Ø¤ ÙĪÙĦØ©
Øª Ø¹Ø±Ùģ
ĠÙĪØ§ÙĦ Ø§ÙĤØªØµØ§Ø¯
ĠØ§Ø³Øª Ø´
ÙħØ³ Ø§
ĠÙĦØªÙĨ Ø¸ÙĬÙħ
ĠØ§ÙĦØµÙģØ± Ø§Ø¡
ĠØª Ø¹ÙĦ
ĠÙĥ ÙĪØ±ÙĨ
ÙĪØ¨ Ø°ÙĦÙĥ
Ø§ÙĦÙħ ØµØ§Ø¯Ø±
Ø¹Ø± ÙĤ
ĠÙĬØª ÙĪÙĤÙģ
ĠØ´ÙĥÙĦ ÙĩØ§
ĠØ§ÙĦÙħØ³Ø¤ÙĪÙĦ ÙĬØ©
i er
Øª Ø¸ÙĩØ±
Øª ØŃØ¯Ø«
Ø¹ ÙĦØ§ÙĪØ©
ĠØª ÙģØ±
ĠØ³ ÙĪÙģÙĬ
ĠÙĦÙĦ ÙģÙĬ
ĠÙĪØ£ Ø«ÙĨØ§Ø¡
ĠÙĪØ¹ Ø§Ùħ
ĠÙħÙĦÙĬ Ø§Ø±Ø§Øª
ĠÙĤØ¯Ø± Ø§Øª
ĠØ§ÙĦØ¹ÙĤ ÙĬØ¯
ĠØ±ÙĪÙħ Ø§ÙĨ
ĠÙģÙĩØ± ÙĨÙĩØ§ÙĬØª
Ø¯ ÙĦØ©
ĠÙĦ Ø§ÙĤ
ĠÙĪÙĤ Ø·Ø¹
Ø¹ÙħÙĦ Øª
Ø¨ÙĬØ± ÙĬØ§
ĠØ§ÙĦØ£Ø¨ ÙĪØ§Ø¨
ĠØ§ÙĦØ¹Ø¶ ÙĪ
ĠØ¨ ÙĪØ¹
ØŃ ÙĪÙħ
ĠÙĬ ÙĤØ±Ø£
ĠØ§ÙĦÙĨ Ø§Ø¦Ø¨
ĠØ§ÙĦÙģ Ùĥ
ĠØ¨Ø· ÙĦÙĬÙħÙĪØ³
Ø¹Ø§Ø¯ ÙĦØ©
ĠÙĪØ§Ø¶ ØŃØ§
Ð º
ĠÙĬ ØŃØ±
ĠØ® Ø±ÙĬØ·Ø©
ÙĪØ¨ ØŃÙĦÙĪÙĦ
ĠØ§ÙĦÙĦ Ø¬ÙĪØ¡
ÙĪØ¹ ÙĩØ§
Ø¯Ø¯ Øª
ĠØ§ÙĦØ§Ø® ØªØ¨Ø§Ø±Ø§Øª
ĠØ§ÙĦÙħÙģ Ø§ØµÙĦ
ĠØ§ÙĦØ£Ø³Ø· ÙĪØ±Ø©
ĠØªØªØŃ ÙĪÙĦ
ĠØ§ÙĦØ®ÙĦØ§Ùģ Ø§Øª
ĠØ§ÙĦÙħØ±Ø¬ Ø§ÙĨÙĬØ©
Ġ or
ĠØ£ÙĨ Ø³
ĠØº ÙĪØ±
ĠØ§Ø³Øª Ø¶Ø§Ùģ
Ø¬ ÙĬÙħ
ĠØ§ÙĦØ£ ÙĬØ±
ĠÙĨ ÙĪØ±ÙĬ
ĠØ§ÙĦØ¨ ØºØ¯
ĠØ¨Ø§ÙĦ ÙĤØ±
ÙĨØ§ ÙĪÙĬÙĨ
ĠÙĪØ§ÙĦÙħ Øµ
Ø¢ Ø©
ÙĥØ±ÙĬ Ø§Øª
ĠØ§ÙĦØ¨ Ø§ÙĤÙĬØ©
Ø³Øª Ø±Ø¯
ÙħØ¯ Ø§Ø¯
ĠØªØ¹ Ø§ÙħÙĦ
ĠÙħØ± Ø³ÙĬ
ĠØ§ÙĦÙħØº ÙĨØ§Ø·ÙĬØ³ÙĬØ©
ĠØ¨Ø¹ Ø§Ùħ
ĠC O
ĠÙĦÙĥ ØªØ§Ø¨
ĠÙĦÙĦØ´ ÙĬØ®
ĠØ§ÙĦØ¨ÙĪÙĦ ÙĨØ¯ÙĬ
ĠÙĨÙĬÙĥ ÙĪÙĦ
iz e
ĠØ§ÙĦØ£ ØŃØ§Ø¯ÙĬØ«
ĠØ³ ÙĦØ¨
Øº ÙĪØ¨
ĠÙĪØª ØŃØªÙĪÙĬ
ĠØªØ´ ÙĬÙĦ
ĠØ§ÙĦØ¶ ØŃØ§ÙĬØ§
ĠØ£Ø´ ÙĬØ§Ø¡
ĠØ§ÙĦØªÙĨ Ø¨Ø¤
ĠÙĦØ¹ ÙĦÙħ
ĠÙħÙĬØ® Ø§Ø¦ÙĬÙĦ
Ġ _
ĠØ§ÙĦ Ø§Ø¶Ø·Ø±Ø§Ø¨
Øº ÙĦØ¨ÙĬØ©
ĠØªÙĪÙĤ ÙģØª
ĠÙĪØ§ÙĦ Ø¯Ø©
ĠØ§ÙĦØ´ Ø±ÙĬØ·
ÙĪÙĬ Ø¨
ĠØµ Ø§ÙĦØŃØ©
ĠØ§ÙĦØ® Ø§Ø¯Ùħ
ĠØ« ÙĤØ§ÙģÙĬ
ĠØ§ÙĦØ· Ø§Ø¦Ùģ
ĠØ§ÙĦÙĪ Ø§Ø±Ø¯Ø©
ĠÙħØª Ø²ÙĪØ¬
ĠÙĪÙħÙĨ Ø§Ø·ÙĤ
ÙĬÙĨÙĬ ÙĪÙĨ
Ġ7 6
or k
Ø·Ùģ Ø§Ø¡
ĠØ§ÙĦØªÙĦ ÙĪØ«
ĠÚ ¯
ĠØ§ÙĦÙĦØŃ ÙĪÙħ
ÙĤ ÙģÙĬÙĨ
ĠØ§ÙĦØ¨ ÙĪØ°ÙĬØ©
ÙĬÙĦ Ø§ÙĨØ¯
Ø§ÙĦÙħ Ø´
ĠØ³Ø¨ Ø¨Ø§
ĠØ§ÙĦØµÙĦÙĬ Ø¨ÙĬ
ÙĦ Ø¯Ùī
Ø¶ Ø¯
ĠØ§Ø¨ Ø±ÙĬÙĦ
ĠØ¹Ùħ Ø§Ø¯
ĠØ§ÙĦØ§ÙĨ ÙĤØ³Ø§Ùħ
ĠÙħ ØºÙĦ
ĠÙĪ Ø´ÙĥÙĦ
ĠÙĪ Ø¯Ø±Ø¬Ø©
Ø§Ø¦ ÙĤÙĬ
ĠØ§ÙĦÙĤ Ø§Ø¨
ĠÙħØª ØµÙĦØ©
Ġ9 2
ĠÙĪØ§ÙĦØµ ØŃ
ĠÙħÙĥØª ÙĪØ¨
ĠØ¹ Ø§Ø¯ÙĬØ©
ĠÙĦÙĬ ÙĦÙī
ĠÙĥØªØ§Ø¨ Ø§ØªÙĩ
ĠÙĦÙĦÙĤ Ø¶Ø§Ø¡
Ø¨Ø§Ø± ÙĬØ§Øª
ĠØ£Ø±Ø¨ Ø§ØŃ
ĠØ§ÙĦØŃ Ø±Ø¨ÙĬ
ĠØ§ÙĦÙħØª ÙĦ
ĠC on
ĠØ§ÙĦÙħÙĩ ÙĨØ¯Ø³ÙĬÙĨ
ĠÙĪØ¶ ÙĪØŃ
ĠÙħÙħØ§Ø« ÙĦ
ĠÙĪØ§ÙĦÙĤØ± Ùī
ĠÙħ Ø£Ø®ÙĪØ°
Ø® Ø§Ø±Ùģ
ĠØ§ÙĦÙĤ ÙĦØ¨ÙĬØ©
Ġ10 5
ĠÙĤÙĬ Ø§Ø³ÙĬ
ĠØ§ÙĦØ¨Ø³ÙĬ Ø·
ĠØ§ÙĦØ³ Ø§Ø³
ĠØªÙħ ÙĬÙħ
ĠØªØ± Ø§Ø«
ĠØ§ÙĦØªØ® ÙĦÙĬ
ĠØ§ÙĦØ¬Ø²ÙĬ Ø¦ÙĬØ©
Øµ ÙģØ©
ĠÙĦÙĦ Ø±Ø¬Ø§ÙĦ
ĠØ± Øµ
ĠØ§ÙĦØ±ÙĤ Ø§Ø¨Ø©
ĠØ±ÙĪØ§ ÙĬØªÙĩ
ĠØ§ÙĦØŃ ÙħØ¯
ĠÙĩØ± Ùħ
ĠØ§ÙĦØªÙħÙĪ ÙĬÙĦ
Ø§ÙĦ ÙĬØ¯
ĠØ¹ Ø¬ÙĦ
ØªÙĬ Ø§Ø²Ø§Øª
ØµØ± Ø§Ø¹
ĠÙĪØ§ÙĦÙħ ÙĪØ³ÙĬÙĤÙī
Ø¬Ùĩ ÙĪØ¯
ĠØ¨Ø§Ø± ØªÙģØ§Ø¹
ĠÙĦÙĦÙħØ¹ ÙĩØ¯
ØŃ Ø§Ùħ
ØŃ Ø¶Ø±
ĠØ§ÙĦÙħ ÙĪÙĦØ¯
Ø· Ø§ØŃØ©
ĠØ¥ ÙĬØ¯
ÙĬØ± Ø¬Ø¹
ĠÙĩ ÙĪÙĬ
ĠÙĨ ÙĪØ§Ø¨
ĠØ± Ø®ØµØ©
ĠØ§ÙĦØ´ Ø§Ø°
ĠØ¥ÙĨ ØªØ±ÙĨØª
ĠØ¨Øª Ø±Ùĥ
Ġ7 3
ti t
ĠØ§ÙĦØ¨Ø¯ ÙĪ
Ð »
Ġ Ï
Ùħ Ø«ÙĦØ©
ĠØ¨ ØªØµÙħÙĬÙħ
ĠØ§ÙĦÙĤ Ø§Ø¹
ĠØ§ÙĦØ¬ ÙĬØ¯Ø©
ĠÙĦÙĦÙħ Ø¬ÙĦØ³
ĠÙĪØŃ Ø³ÙĨ
ĠØ§ÙĦØ¨ÙĨ ÙĪÙĥ
ĠÙĥØ§Øª Ø¯Ø±Ø§Ø¦ÙĬØ©
ĠØ§ÙĦØºØ§Ø² ÙĬØ©
ÙĤ ÙĦØ§
ĠØ§ÙĦÙħ ÙĪØ¶
ĠÙĩ ÙĪØ±
ĠØ§ÙĦØ¬ ÙĬÙĨÙĬ
ĠØ® ÙĦÙĦ
Ø¤ Ø«Ø±
Ø¯Ø± Ø§
ĠÙħØª Ùģ
ĠÙħØ³ Ø§Ø¦ÙĦ
ĠØ§ÙĦØ¨ÙĦ Ø·
ĠØ§ÙĦØ£Ø³ Ø¦ÙĦØ©
ÙĦÙĩ Ø°Ø§
ĠØ§ÙĦØ¯Ùħ Ø§Ø¡
ĠÙĤÙĬ ØµØ±
ĠØ§ÙĦØ¨Ø±ØªØº Ø§ÙĦÙĬØ©
ĠØ¨ Ø¯ÙĬÙĦ
ĠÙĦ Ø¹ÙĦ
ĠØ³ ÙĦÙĥ
ĠØ§ÙĦÙĤ Ø¨Ø±
ĠÙħØª Ø¬Ø±
ĠØ§ÙĦÙħØ¯ ÙģØ¹ÙĬØ©
Ġ8 7
Ġ8 9
ĠØ®Ø· ÙĪØ§Øª
ĠÙģÙĨ Ø²
ĠØ§ÙĦÙħÙģ ÙĪØ¶
ĠØ¶Ø±Ø¨ Ø§Øª
p edia
ĠØ¨ ÙĬØ±ÙĬ
ĠØª ÙĪÙĥ
ĠØ¯ Ø§Ùģ
ĠÙĪØ£ ÙģØ¶ÙĦ
Ø«Ø± Øª
ĠÙĦØ¥ Ø¬Ø±Ø§Ø¡
ĠØ´Ø¨ Ø§Ùĥ
ÙĪ Ù¾
ĠÙĪ Ø´Ø±ÙĤ
ĠÙĬ Ø®Ø¯Ùħ
ĠÙĦÙĦ ØªÙģ
ĠÙħØŃ ÙĦÙĬØ§
ÙĬÙĥ Ø©
ĠØ¸ Ø§ÙĩØ±
Ø§ØµÙħ ØªÙĩØ§
ĠØ§Ø³ØªÙĤØ§ÙĦ ØªÙĩ
ĠØŃÙĬÙĪ ÙĬØ©
ĠÙħ Ø§Ø³Ø§ØªØ´
Ø£ ÙĤ
ĠØŃ ÙħØ§Ùħ
ĠØ£ÙĨ Ø§Ø¨ÙĬØ¨
ĠØ§ÙĦÙĪ Ø«ÙĬÙĤØ©
ĠØªØ¹ Ø¯ÙĬÙĦØ§Øª
ĠØ¬Ùħ Ø§Ø¯Ùī
Ġ7 7
ĠØ´Ø± Ø¹ÙĬØ©
ĠØ£Ø¬ Ø³Ø§Ùħ
ĠÙĬØµ Ø¹Ø¨
ĠØ§ÙĦÙħØ¹ØªÙħ Ø¯Ø©
S A
ĠÙģ Ø·
ĠØ§ÙĦØ¨ ÙĪÙħ
ĠØªØ¯ Ø±ÙĬØ¬ÙĬ
ĠÙħØ³Ø§ ÙĩÙħØ©
ĠØ§ÙĦØ¹ ÙĬÙĨØ©
Øº Ø°Ùī
ĠØ¬ Ø±ÙĬ
ÙĪØ¯ Ø±
ĠÙĪÙĬ Ø¨Ø¯ÙĪ
ĠØªÙĦ ÙĤÙĬ
ĠÙĪØ¢ Ø³ÙĬØ§
ac t
Øµ Ø§Ø±ÙĬ
ĠØ¥ Ø´Ø¨
ĠØ§ÙĦØ´ Ø§ÙħÙĦØ©
Ø®ÙĦ Ø§ÙĤÙĬ
ĠÙĪØ± Ø«
ĠØªØ¨ ÙĨÙĬ
ĠØ§ÙĦØ³Ø± ÙĬØ±ÙĬØ©
Ø§ÙĦØ´ ÙĬØ®
a la
ĠØ§ÙĦÙĨ Ø§ÙĤ
Ø§Ø² ÙĬØ§
ĠØ¨Ø£ ÙĪÙĦ
ĠØ§ÙĦØ¨ØŃ ÙĬØ±Ø§Øª
ĠÙĪØ§ÙĦÙħØ¹Ø± ÙĪÙģØ©
Ø§ÙĦ Ø³ÙĦ
Ùĥ ÙĦØ§
ĠÙħ Ø±ÙĤ
ĠØ§ÙĦØ³ ÙĩÙĪÙĦ
ĠØ§ÙĦØ¬ Ùĩ
Ø¯Ùħ Ø±Ø©
Ø¯ÙĬÙĨ Ø§ÙĨØ¯
ĠÙĦØ§ ÙĬ
ĠØ£ØŃØ¯ ÙĩÙħ
ĠØ£ÙĤ ÙĪØ§ÙĦ
ĠÙĦØ§ØŃ ÙĤØ©
ĠÙģØ±Ø§ÙĨØ³ ÙĬØ³
Ø§ ÙĪÙħ
ĠØ§ÙĦØ£ Ø·
ĠØ³ ÙĦØ¨ÙĬØ©
ĠØ§ÙĦØ³ Ø§Ø¹Ø§Øª
ĠØ± Ø§ÙĬØª
ĠØ§ÙĦÙģ ÙĤÙĬÙĩ
ĠÙĪØª Ø²
ĠØ§Ø³ØªÙĤÙĦØ§ÙĦ ÙĩØ§
ĠØ§ÙĦÙģØ§Øª ØŃ
ÙĦ Ø£ÙĨ
Ø¯ÙĬ ÙĪÙĨ
ĠØ± Ø§Ø¯ÙĬÙĪ
ĠØ¹ÙĨ ÙĬÙģØ©
ĠØ§ÙĦÙħØµ Ø§ÙĦØŃ
ĠØ§ÙĦØªØŃ ÙĥÙĬÙħ
ĠØ§ÙĦØªØ¯ Ø®ÙĬÙĨ
ĠÙģØªØŃ Ø©
ĠØ¯Ø¨ Ø§Ø¨Ø©
ĠØ¹Ø§Ø´ Øª
ĠÙĥÙĦÙĬÙĨ ØªÙĪÙĨ
ĠÙģ ÙħØ«ÙĦØ§
ĠÙĨØ§Øª Ø¬
ĠØªØ®Øµ ÙĬØµ
ĠØ§ÙĦÙĤ Ø·Ø§Ø±
ÙĪÙĤ ÙĬØª
ĠØ§ÙĦÙħÙħ ÙĬØ²
ĠØ§ÙĦØªØ¹ÙĦÙĬÙħ ÙĬ
ĠÙĬ Ø³ÙĬØ·Ø±
ĠÙĥ Ø³Ø¨
ĠÙĪØª ØªØ¨Ø¹
ÙģØ³ ÙĬØ±Ø§Øª
ĠÙĬØª Ø®Ø°
Ø¬Ø¯ ÙĬØ±
ĠØ§ÙĦØ¥Ùħ ÙĥØ§ÙĨ
ĠÙĦÙĦÙħØ± Ø£Ø©
ĠÙĪ ÙĪØ²ÙĬØ±
ĠÙĦÙĦ ÙĥÙĨÙĬØ³Ø©
ĠÙħØ¹ Ø¬Ùħ
ĠØ¨ÙĨ ØºØ§Ø²ÙĬ
ØªÙĬ ÙĥØ§
ĠÙĪØ¨ Ø±ÙĬØ·Ø§ÙĨÙĬØ§
ĠØ§ÙĦÙħØŃ ÙħÙĬØ©
ĠØ¨ØŃ Ø¬Ùħ
Ġ7 8
ĠØªØ¬ Ø§Ø±ÙĬØ§
ĠÙĪØ§ÙĦÙĨ Ø³Ø§Ø¡
ĠÙĥØ± ÙĪØ²
ĠÙħØªÙħÙĬØ² Ø©
ĠÙĦ Ø§Ùĥ
ĠÙħÙĨ ØªØ´Ø±Ø©
Ø² Ø§Ø±
Ø§Ø³ ÙĬØ³
ĠÙĨ Ø±
Ø¹Ø¯ Ø§Ø¯ÙĬØ©
ĠÙħØŃ Ø¨
ĠÙħØŃ Ø§ÙĥÙħØ©
ĠÙħØª Ø¬
ĠØ§ÙĦÙħØ¹ Ø§Ø¨Ø¯
ĠÙĦÙĦÙħ ÙĪØ³ÙĬÙĤÙī
ĠØ§ÙĦÙħØ³ÙĦØ³ÙĦ Ø§Øª
ĠØªÙĤÙĦÙĬ Ø¯ÙĬØ©
ÙĤ ÙĪÙĨ
ĠØ¹ Ø¬Ø²
ĠÙħØ¹ ÙĬØ§Ø±
ÙĪØ³ Ø±
ĠØ§Ùħ ØªÙĦØ§Ùĥ
ĠØ¯ÙĪÙĨ Ùħ
Ø·Ø¹ Ø§Ùħ
ĠÙĪØ¨Ø¹Ø¶ ÙĩØ§
ĠØ§ØŃØªÙħ Ø§ÙĦÙĬØ©
ĠØ¨ Ø¬ÙħÙĩÙĪØ±ÙĬØ©
ĠØ§ÙĦÙĨ Ø¹ÙħØ§ÙĨ
ĠØ§ÙĦØ´ ÙĪØ±Ùī
ĠÙĪØ§ÙĦØª ÙĦÙģØ²ÙĬÙĪÙĨ
ĠØ¹Ùħ Ø§Ø±Ø©
ĠØ§ÙĦØªØ¹ÙĦÙĬÙħ Ø§Øª
ĠØªØºÙĬØ± Ø§Øª
ĠÙĥÙĪÙĥ Ø¨Ø©
ĠÙħØªØ³Ø§ ÙĪÙĬØ©
Ùĩ Ø§Ø¬ÙħØ©
ĠÙĦ Ø¨ÙĬ
Øµ ÙĦÙĬ
Ø£ Ø¹ÙĦÙĨØª
ĠØŃ ØµØ±
Ø§Øµ ÙĬ
ĠØ§ÙĦØ¶Ø¹ Ùģ
Ġ ç
ĠØ± Ø§
ÙĪØ³ ÙĦØ§ÙģÙĬØ§
ĠØº Ø§Ø¨Ø§Øª
ÙĪÙĥ Ø§ÙĦØ©
ĠÙĥÙĦ ÙĪØ±ÙĬØ¯
ĠÙĨÙĤÙĦ Ùĩ
ĠØªØ²ÙĪØ¬ Øª
ÙĬØ± ÙĬÙĨ
ĠØ§ÙĦÙģ Ø±Ø¶
ĠÂ ·
ĠÙĦÙĬ Ø¨Ø±
ĠØ³Ùħ ÙĬØ±
ĠÙĤØ§ÙĦ ÙĪØ§
ĠØ§ÙĦÙħØŃØ§ÙģØ¸ ÙĬÙĨ
ĠØ§ÙĦÙħØªØ¸Ø§ÙĩØ± ÙĬÙĨ
Ø¨ Ùħ
Ø¶ ÙĨ
Ø§Ø¯ ÙĤØ©
ĠÙĪÙĩ Ø±Ø§ÙĨ
ĠØ¬ÙĨ ÙĬÙĨ
ĠÙĦÙĦØ¬ ÙĨØ©
ĠØ®ÙĦÙģ Ø§
ĠÙħ Ø²Ø±Ø¹Ø©
ĠØ³ Ø¨ÙĬ
ĠØ§ÙĦØ¨ Ø§Ø±Ø¯
ĠØ± Ø¬Ø¹
ĠÙĪØ§ÙĦÙħ Ùģ
ØºÙĬØ± ÙĩØ§
ĠØ·Ø±ÙĬÙĤ ÙĩØ§
Ġ0 3
ĠØªØ¬Ùĩ ÙĬØ²
ĠØ§ÙĦØ« ÙħÙĨ
ĠØ§ÙĦØº Ø§Ùħ
ĠÙħÙĤ Ø§Ø·Ø¹
ÙĤØ± Ø§Øµ
ĠØ§ÙĦØ¹Ø±Ø§ÙĤ ÙĬÙĬÙĨ
ÙĥØ±ÙĬ Ùħ
ĠØ§ÙĨÙģ ØµØ§ÙĦ
ĠØ§ÙĦØ£ÙĪ ÙĥØ±
y n
ĠÙĦÙĦ Ø¹Ø±Ø§ÙĤ
ĠØ§ÙĦØ´ ÙĩØ±Ø©
ĠØ§ÙĦÙħØµ ÙĨØ¹
ĠÙģØ± Ø§Øº
ĠØ§ÙĦØ¨Ø±ÙĬØ·Ø§ÙĨÙĬ ÙĪÙĨ
ĠØ´Ø¹Ø± ÙĬØ©
i le
ĠØª Ø§Ø±Ùĥ
ĠØ¨Ø§ÙĦ ØªÙģ
ĠØ§ÙĦØ¨ÙĦ Ø¯ÙĬ
ĠØ§Ø¨ÙĨ ÙĩØ§
ĠÙĬØ² Ø¯Ø§Ø¯
Ġ187 1
ĠØ·ÙĨ Ø¬Ø©
ĠÙĦØªØ¹ Ø²ÙĬØ²
ĠØ£ Ø´Ø±Ùģ
ĠÙģÙĬ ÙĦÙĩ
ĠØ¥ Ø¶Ø§ÙģÙĬ
Ø§Ø¨ ÙĪ
ĠØ§ÙĦØ¬ ÙģØ§Ùģ
Ø§Ø² ÙĬØ±
ĠÙĪÙĬ Ø¶Ùħ
ĠØ¨ÙĤ ÙĦÙĬÙĦ
ĠÙĨØ² Ø§Ø¹
ĠÙħÙĪØ¸ ÙģÙĬ
ĠØ²ÙħÙĦ Ø§Ø¦Ùĩ
ĠØ§ÙĦØª ÙĦØ§ÙĦ
ĠØ§ÙĦÙħØ± Ø¦ÙĬ
ÙĪØ±Ø¯ ÙĪ
Ġp ar
ĠØªÙĩ ØªÙħ
ĠÙĨØ´Ø£ Ø©
ĠØªÙĪÙĬ ÙĪØªØ§
ĠØ± Ø§Ø¬
ÙĩÙħ Ø§ÙĦ
ĠØ§ÙĦØ® Ø§ÙĦ
ØªØŃ Ø§ÙĨ
ĠÙħØ± Ø§ÙĥØ´
ĠØ¨Ø± ÙĪØ³
ĠØ§ÙĦØ¥ÙĨ Ø´Ø§Ø¡
Ġ7 4
ĠC o
ol og
ĠØ§Ø² Ø¯ÙĬØ§Ø¯
ation al
ĠØ§ÙĦØ®ÙħØ³ ÙĬÙĨØ§Øª
a ti
Ùħ ÙĪØ·ÙĨÙĩ
ĠÙĪØ§ÙĦ Ø³ÙĦØ§Ùħ
Ø³Ùħ Ùĩ
ÙĪÙĥ Ø³ÙĬ
ÙĤØ¯Ùħ Øª
ĠÙħÙĩ Ø§Ø±Ø§Øª
ĠÙħØ¬Ø§ÙĦ Ø³
ĠÙħØº ÙĨÙĬ
ĠØ§ÙĦØ¹Ø³ÙĥØ±ÙĬ ÙĬÙĨ
ĠØªØ³ÙħÙĬ ØªÙĩ
ĠÙģÙĦÙĪØ±ÙĨ Ø³Ø§
Ø³ Ø§Ø±
ĠØ¨ ÙħÙĦ
ĠÙĥ ÙĬØ³
ĠØ§ÙĦØŃ Ø§ÙģØ¸
ĠØ§ÙĦÙģ ØµØŃ
Ø³ÙĬ ÙĪÙħ
ĠØªØ¹ ÙĪÙĬØ¶
ĠØ§ÙĦÙħØª Ø³
ĠØ§ÙĦÙħØª ÙĤØ¯Ùħ
ĠØ£ÙħØ± Ùĩ
ro m
ĠØ§ÙĦÙĤØµ ÙĪÙī
Ø°Ø§Ùĥ Ø±Ø©
ÙĪ Ø¶Ø§
ÙĤ Ø°
ĠØ§ÙĦØ£ Ø³Øª
ÙĬØ´ Ø©
Ø«Ùħ Ø§ÙĨÙĬÙĬÙĨ
Ø§Ø° ÙĬØ©
ĠÙħØ¤ Ùĥ
ĠØ±Ø¦ÙĬØ³ Ø©
ĠÙĪØ§ÙĦØ³ÙĬ Ø§Ø³Ø©
ĠØ¨ÙħØ± ÙĪØ±
ĠØ§ÙĦØ®ÙħØ³ ÙĬÙĨÙĬØ§Øª
ĠÙĦÙĦØ¶ ÙĪØ¡
ÙĬ Ø¶
ĠÙĦ ÙĪÙĦØ§
ĠØ¥ ÙĤÙĨØ§Ø¹
Ø§Ùĥ Ø³Ø©
ĠÙĪÙĬ Ø¸ÙĩØ±
ÙĬØ· Ø§ÙĦÙĬØ©
Ġ8 1
ĠÙħØ¬ÙħÙĪØ¹ Ùĩ
Ð ²
Ø¯ Ø±Ø¨
ĠÙĪ Ø¸ÙĩØ±
ĠØ§ÙĦØª Ø²
ÙĦÙħ Øª
ĠÙĪØ¬ ÙĪÙĨ
ĠÙĬÙħÙĥÙĨ ÙĨØ§
ÙĪØµ ÙĪØ±
ĠØ§ÙĦØ£ÙĬ ÙĪØ¨ÙĬ
ĠØ§ÙĦØµÙĦ ØŃ
ĠØ§ÙĦÙħÙĨØ´ Ø¢Øª
ĠØ¬ Ø§ÙĦ
ĠØ§ÙĦÙĤ ØµÙģ
ĠØ§ÙĦÙĥ Ø¹Ø¨Ø©
ĠÙĪÙĥ ÙĦØ§
ĠÙĪØ² Ø±
ĠØ´Ø§Ùĩ ÙĬÙĨ
ĠØ§ÙĦÙĨØ® Ø¨Ø©
ĠØ¥ÙĬÙģ Ø§ÙĨ
ĠÙħ ÙģØ§ÙĪØ¶Ø§Øª
ĠØ¥ ØµØ¯Ø§Ø±Ø§Øª
Ø§Ø³Øª Ø·Ø§Ø¹
ĠÙĪÙĬ ØŃØªÙĪÙĬ
ÙĬ Ø¶Ùħ
ĠØ£ Ø¶Ø¹Ø§Ùģ
ĠØ¬ ÙĪØ§Ø²
ÙħÙĨ Ø·ÙĤØ©
ĠØ« ÙħÙĨ
ĠØ§ÙĦÙħØ¹ ÙĨÙĬØ©
ĠØ£Ø³ Ø§ÙħØ©
ĠÙħØ¬ ØªÙħØ¹Ø§Øª
ĠØªØ¤ ÙĥØ¯
ĠØ§ÙĦØŃØ¬ Ø±ÙĬØ©
ĠØ§ÙĦÙģØ§Ø· ÙħÙĬ
Ø§ÙĦ Ø§Ø³Ùħ
ĠØ¹ Ø§Ø·
ĠÙĬ Ø¨Ø¹Ø¯
ĠÙĥ Ø§ÙĦØ£
ĠØºÙĬØ± ÙĩÙħ
ĠØªØ¹ÙĦÙĬÙħ ÙĬØ©
Ø³ØªØ±Ø¯ Ø§Ùħ
Ø¯ ÙĩØ§
ØŃ Ø§ÙĦØ©
ĠÙĦ Ø³ÙĨÙĪØ§Øª
ĠØ§ÙĦØ° ÙĥÙĬØ©
ĠÙħØ´ ØªÙĤØ©
Ø¬Ø¨ ÙĩØ©
ĠÙĥØ§Ø± ÙĪÙĦ
Ġ ÛĮ
ĠØ§ÙĦÙģ Ø§Ø¦Ø¯Ø©
ĠØ§ÙĦÙģ Ø§ÙĥÙĩØ©
Ø¹Ø§Ø± Ùģ
ĠØ³ØªÙĬ Ø´ÙĨ
ĠÙĦÙĦØªÙĨ ÙħÙĬØ©
Ø§ÙĦ ØªÙĬ
ĠÙĪØ§ÙĦ ØŃØ¯
ĠÙĤ ÙĦØª
ĠØ§ÙĦÙħØª Ø®ØµØµ
ÙħØ³ ÙĬØ³
ĠØ§ÙĦØ¯ÙĬ Ø§ÙĨØ§Øª
ĠØ§ÙĦÙħÙģØª ÙĪØŃ
ĠÙħØ¯ÙĬÙĨ ØªÙĬ
ĠØ¨ Ø¹Ø¨
Ø¸ Ø§Øª
ØªÙħ ÙĬØ©
ÙĪØ§Ø¦ ØŃ
ĠØ¢Ø± Ø«Ø±
p p
× ķ
ĠØ§ÙĦØ³ ÙĬÙģ
ĠØ§ÙĦÙģ Ø³ÙĬ
ĠØ§ÙĨ Ø·ÙĦÙĤØª
ĠØ§ÙĦÙĥØ« ÙĬØ±Ø©
Øª Ø®
ĠØ¥ Ø«ÙĬÙĪØ¨ÙĬØ§
ĠØ¬ Ø§Ø²
ĠØ§ÙĦØ´ ÙĤ
ĠØ§ÙĦÙħÙĨ Ùĩ
ĠÙĦÙĦÙħ ÙĬØ§Ùĩ
ĠØ§ÙĦÙħØ³Øª ÙħØ±Ø©
ĠÙĦØ£ Ùħ
ĠâĢ Ļ
ĠÙħØ¬ ÙħÙĦ
ĠÙĪØ® Ø³Ø±
ĠØ§ÙĦØªØ£ ÙĦÙĬÙģ
ĠÙĬØªØŃ Ø±Ùĥ
ĠØ§ÙĦÙħØ³Ø§ ÙĩÙħØ©
o in
Ø· Øª
Ø« ÙĬØ©
ĠÙĤ ÙĪØ³
ĠØ¬ ÙĪÙĨÙĬ
ĠÙĬÙħÙĥÙĨ Ùĥ
ĠØ§ÙĦÙħØº Ø§Ø±Ø¨Ø©
am p
ĠØ§ÙĦÙħØ·Ø¨ Ø®
Ø³ ÙĬØ±ØªÙĩ
ĠÙĦ ÙĪØ¨
ĠØª ÙĪØ§Ø²ÙĨ
ĠØª Ø³ÙĬØ·Ø±
ĠÙĤ Ø§Ø¶ÙĬ
Ø§Ùĥ Ø³ØªØ§ÙĨ
ĠØ§ÙĦØº Ø§Ø¨Ø©
ĠØ§ÙĦÙħØ¹ ØªÙħØ¯
ĠÙĦØŃ ÙĥÙħ
ĠØ¥Ø° ÙĨ
ĠÙħÙĦÙĥ ÙĬ
Ġ189 8
ĠØŃØ¬ ÙħØ§
ĠÙĪØ§ÙģÙĤ Øª
ĠÙĪ Ø¬Ùħ
ĠØ¨ Ø³Ø±
ĠÙħÙĨ Ø§ÙĤØ´Ø©
ĠØ§ÙĦØ£ ÙĪØ²
ĠØ§ÙĦØ³ ÙĪÙħ
ÙĬÙĦ Ø±
ÙĪØª Ø§Ø±
ĠØ² ÙĥØ±ÙĬØ§
ĠØªØ¹ Ø§ÙĦÙĬÙħ
ĠÙĬØ± Ø³ÙĦ
ĠØ£ÙĦ Ø¨Ø±Øª
ĠØ§ÙĦÙĤØµ ÙĬÙħ
ĠØ§ÙĦÙĪØ± Ø§Ø«Ø©
ĠØ£Ø¬ÙĨ Ø¨ÙĬØ©
ĠØ¥ Ø¨Ø±
ĠØ§ÙĦØª Ø£Ø³
ĠØ§ÙĦØ¬ ÙĨØ¯
ÙĤØ¯ Ø§ÙĨ
ĠØ§ÙĦØ´Ø± Ø§ÙĬÙĬÙĨ
ĠØ¨Ø§Ø± Ø¯
ĠØ§ÙĨØªØ´Ø§Ø± Ø§
ĠØ¶Ø± ÙĪØ±ÙĬ
ĠØ§ØªØ®Ø° Øª
o ut
Ùģ Ø¥ÙĨ
ĠÙħ Ø°Ùĩ
ØŃ Ø§Ø¯ÙĬ
ĠØ§ÙĦÙģ Ø´ÙĦ
ĠØ§Ùģ ØªØ±
ĠÙħØ³Ø¨ ÙĤØ§
ĠÙĪØ§ÙĦÙħØ¹Ø± ÙĪÙģ
o us
ĠØ§ÙĦØ£ ÙħØ¯
ĠØ§ÙĦØ£ Ø¹ÙħØ¯Ø©
00 00
ĠØ² Ø§ÙĬØ¯
ĠØ³ÙĦ Ø§Ø³ÙĦ
ĠØ§ÙĦÙĨÙĤ ÙĪØ´
Ø¹Ø§Ø± Ø¶Ø©
ĠØ®ÙĦØ¯ ÙĪÙĨ
Ø£ Ø¹
ĠØ§ÙĦØ¨ ÙĪÙĦÙĬ
ÙĪÙģ ÙĨ
ĠÙħØŃ ÙĦÙĪÙĦ
ĠØªÙħ Ø§Ø±Ø³
ÙĪÙĥ Ø©
ĠÙĦØ£ Ø¨
ĠØ¨Ø£ Ø¯Ø§Ø¡
ĠÙħÙĪ ØªÙĩ
ĠØ£Ø± Ø³Ø·ÙĪ
Ø§Ø¨Øª ÙĥØ§Ø±
ĠØ§ÙĦØ¯ÙĬ ÙĪØ§ÙĨ
Ø¹ÙħØ± Ø§Øª
ĠØ§ÙĦÙħØµÙĨ Ø¹Ø©
ĠØ¨ ØµØ±
ĠØ§ÙĦÙħ ÙĤØ¯Ùħ
ÙĦÙĬ ÙĥØ³
ĠÙĦØª Ø¬ÙĨØ¨
ĠØ§ÙĦØ¥ÙĨ ÙĥÙĦÙĬ
Ø¨ÙĦØº Øª
ĠØ¨Ùĥ ØªØ§Ø¨
ĠØ¨Ø§ÙĦÙĤ ÙĪØ©
ĠÙĦÙħØ¹ Ø§ÙĦØ¬Ø©
ĠØ§ÙĦØ£ÙĪÙĦÙħ Ø¨ÙĬ
ĠØ¨Ø§Ø® ØªÙĦØ§Ùģ
ĠØ§ÙĦØ¢Ø³ÙĬ ÙĪÙĬ
Ġe x
ĠØ¨ Ø²ÙĬØ§Ø±Ø©
Ø§Ø¹ ÙħØ©
ĠØ¯ Ø¬ÙĦØ©
ĠØ§ÙĦØ¬ Ø§ÙģØ©
ĠÙĪÙĩ ÙĨ
ĠØ§ÙĦØ² ÙĩØ±
ÙĦÙĬÙħ Ø§ÙĨ
ĠØ§ÙĦÙħØ¬ Ø¯
ĠÙĪØ§ÙĦØŃ ÙĬØ§Ø©
ĠÙĨÙĪØ¹ Ø§ÙĨ
ĠØ¨Ø¬ ÙĬØ´
ÙĢÙĢ ÙĢ
ĠØ§ÙĦØ³Ùģ ÙĬØ±
ĠØ§ÙĦÙħ Ø³ÙĦ
Ø§Ø¨ ÙĪØ±
ĠØ§ÙĦÙĦ ÙĪØŃØ§Øª
ĠØªØ¹ ÙĥØ³
ĠØªØ± Ø£Ø³
ĠÙĦÙĦØ· ÙĬØ±Ø§ÙĨ
O S
ĠØ¥ Ø¸ÙĩØ§Ø±
ĠØŃ ÙĨÙĬÙģØ©
Ø§Ø¯ÙĬ ÙĤ
ĠØ§ÙĦÙĩ Ø§Ùħ
ØªØ¬ Ø§Ùĩ
ĠØ³ÙĬÙĨ ÙħØ§Ø¦ÙĬ
ĠØ§ÙĦÙĪØ³ Ø§Ø¦Ø·
ĠÙĪØ¢Ø®Ø± ÙĪÙĨ
ĠØ¹ÙĨØ§ ÙĪÙĬÙĨ
ÙĤ Ø§Ø±
ĠØ£ ÙĬØ§
ĠØ¥ Ø¯Ø±Ø§Ùĥ
ĠÙĤ Ø§Ø¦ÙĦ
ĠØ§ÙĦØµ Ø®Ø±ÙĬØ©
ĠØªÙĤ Ø±Ø±
ĠØ§ÙĨØª Ø¨Ø§Ùĩ
ĠØ§ÙĦØ¹Ø¨ Ø§Ø¯Ø©
ĠÙħØ¶ Ùī
ĠÙħØ¹Ø±ÙĪÙģ Ø§
Ġ186 0
ĠØ§Ø®ØªØ± Ø§ÙĤ
ĠØŃØ§Ùħ Ø¯
ĠØ§ÙĦØªÙĤØ¯ ÙĬØ±Ø§Øª
ÙĦ ÙĪØ±
ĠØ¨ Ø§Ùĩ
ĠØ¥ ÙĤØ§Ùħ
ÙĪØ± Ùģ
ĠØ¬ ÙĩØ§Øª
ĠØ§ÙĨ Ø§
ĠØ¨Ø´Ø± ÙĬØ©
Ø³ÙĨØ· ÙĬÙĨØ©
ĠÙĬ Ø³Ø§ÙĩÙħ
ĠØ¥ ÙĨØ¯ÙĪÙĨÙĬØ³ÙĬØ§
ĠÙĪÙĩ ÙĨØ§
ĠÙħØª ÙĪÙģØ±Ø©
ĠÙĦØª Ùģ
ĠØºØ± Ø§Ùħ
ĠØµÙĦ Ø¨Ø©
ÙĪÙĥØ³ ÙĬØ¯
ĠØ£ÙĨØ· Ø§ÙĥÙĬØ©
Ø³ ÙĥØ§ÙĨ
ĠØ§ÙĦØ¹ Ø³
ĠØ¬ Ø³ÙĬÙħØ§Øª
ĠØ¨Ø§ÙĦ Ø´ÙĥÙĦ
ĠØ§Ø¹ ØªÙĤÙĦ
ĠØ§ÙĦÙĤÙĬ Ø§ÙħØ©
ÙĪØ§Øµ Ùģ
a e
ĠØ¥ Ø³Ø±Ø§Ø¦ÙĬ
ĠØ§ÙĦÙħÙĨ Ø¯
ĠØ§ÙĦØªØµ ÙģÙĬØ§Øª
ĠØ§ÙĦØ¹Ùħ ÙĦÙĬ
ĠØ§ÙĦÙĤÙĬ ÙĪØ¯
ĠÙĪØªØŃ ÙĤÙĬÙĤ
ĠÙĦÙĦÙħÙĨ ØªØ®Ø¨
ĠØ§ÙĦÙħØ¸ Ø§ÙĩØ±Ø§Øª
ĠØ§ÙĦØ§ÙĦØª Ø²Ø§Ùħ
ĠØ§ÙĦÙģØ§Ø¹ ÙĦ
ÙĪØ± ØªÙĬ
ÙĦØ§ ÙĬ
ĠØ¶ ØŃØ§ÙĬØ§
ĠØ§ÙĦÙħØª Ùģ
ĠØ§ÙĦØ§Ø³Øª Ø¹ÙħØ§ÙĦ
ĠÙħØ§Ø³Ø§ØªØ´ ÙĪØ³ØªØ³
ĠØ¨ Ø¯ÙħØ´ÙĤ
ĠØ£ ÙĪÙħ
Øµ Ø§ÙĨ
ĠØ³ ÙĤÙģ
ĠØ§ÙĦØŃ Ø¯ÙĬØ¯ÙĬ
ĠØ§ÙĦØ¨ Ø¹Ø¯
ĠØ± ÙĪØ§Ø¨Ø·
ĠØ§Ø³Øª Ø¨Ø¯
ĠÙĪØ§ÙĦØ£ ÙħÙĨ
ĠÙĬÙĤ ØªØµØ±
ĠØ¹ÙħØ± Ø§ÙĨ
ĠÙĦÙĦÙĨ Ø§Ø³
ĠÙĪØ§ÙĦØ³ ÙĨØ©
Ġcol or
ĠÙģ Ø®Ø±Ø¬
ĠØ¨ Ø±ÙĬØ¯
ØŃ Ø§ÙĦ
ĠÙĬ ÙĪØ§ÙģÙĤ
ÙĬØ± ÙĪØ§ÙĨ
ĠÙĤ Ø²
ĠØ¨Ø§ÙĦÙħ Ø¯Ø±Ø³Ø©
ĠØªØ£ ÙĩÙĦ
ĠÙģÙĦ Ø³
ĠA m
ĠØ§Ø± ØªÙģØ¹
ĠØ§ÙĦÙģØ¶ Ø§Ø¦ÙĬ
ĠØ§ÙĦÙĤØ·Ø§Ø¹ Ø§Øª
Ùħ Ø§Ø±Ø§Øª
ĠÙħ Ø¨Ø¯
ĠÙħÙĨ Ø¸Ùħ
ĠØŃ ÙĬØ²
Øº ÙĬØª
ĠØ§ÙĦÙĨ Ø§Ø·ÙĤ
ĠØ§ÙĦØ¢ Ø¨Ø§Ø¡
Ø±Ø¯ Ø§Ø¯
ĠØ§ÙĦØ£Ø³ Ø¹Ø§Ø±
ĠÙĪØ¥ Ø³Ø¨Ø§ÙĨÙĬØ§
Ġ9 4
ĠØ§ÙĦÙģØ± ÙĪØ¹
ĠÙĥÙĪÙĨ Øª
ĠØ§ÙĦØ¹Ø¨ ÙĪØ¯ÙĬØ©
ÙĪØµÙĦ Øª
ĠØ¨Ø¥ ØµØ¯Ø§Ø±
ĠÙĦØŃ Ø³Ø§Ø¨
ĠØ§ÙĦÙĤØµ Ø§Ø¦Ø¯
Î µ
ĠÙĤ ÙĪØ§Ùħ
Ø¯ÙĬ Ø²
ĠØ§ÙĦÙĪ Ø§Ø³Ø¹
ĠÙħØ¨ Ø§Ø¯Ø±Ø©
ĠØ£Ø¯ Ø¨ÙĬØ©
Ø¬Ùĩ Ø§Ø¶
ĠÙĪØ§ÙĦØ¯ ÙĪÙĦ
Ø§Ø¨ÙĬ ØŃ
ĠÙħÙĤØ¯ ÙĪÙĨÙĬØ§
ĠØ§ÙĦÙĨØ´Ø§Ø· Ø§Øª
Ø§ÙĦ Ø¯ÙĬÙħ
Ùĥ Ùī
ĠØ£ ØµØ¯ÙĤØ§Ø¡
ØŃ ÙĦØ§Øª
Ø§Ø´ ØªÙĩØ±
ĠÙĪÙĤ ÙĪØ©
ĠÙģØ¬ Ø£Ø©
Ġ ÙĩØ§Ø¨
ĠØ§ÙĦ ÙĪØ¨
Øª Ø§Ùħ
ĠÙħ Ø§Ø°Ø§
ĠØ§ÙĦÙħ Ø§Ø³
Ø· Ùĩ
Øµ ÙĬØ©
ĠÙĬ ØªÙĬØŃ
ÙħØ§ Ø¹ÙĬ
ĠØ§ÙĦØŃ ÙģØ±
ĠØ§ÙĦØŃ ÙĪØ«
ĠØ¨Ø§ÙĦ ÙĬÙĪÙĨ
ĠØ§ÙĦØ± Ø¹Ø¯
ĠØº Ø·Ø§Ø¡
ĠÙĪØ§ÙĦÙģ ÙĤÙĩ
ĠÙĬ ØµÙĨØ¹
ĠØ§ÙĦØ¹ Ø§Ø¦ÙĦ
ĠØ® ÙĪÙģ
ĠØ§ÙĦØ¯ Ø±Ø¬
ĠÙĥÙĦ Ø§Ø³
ĠØ¨Ùĩ ÙħØ§
ĠØªØ± Ø®ÙĬØµ
ĠØªØµ ÙĬØ¨
ĠØ§ÙĦÙħÙĤ ØµÙĪØ¯
Ġ11 5
ĠÙĪØ· Ø§ÙĦØ¨
ĠØ§ÙĦØ¥Ùģ Ø±ÙĬÙĤÙĬ
Ø§Ø¯ Ø§Ø±
ĠØ± ÙĪØ³ÙĬ
ĠÙĤØ¨ÙĦ Ùĩ
ĠØ§Ø¹ ØªØ±Ùģ
ĠØ§ÙĦØ¬Ø± Ø§Ø¦Ùħ
Ø£Ùħ Ø«ÙĦØ©
ĠØ¨ØªÙĨ ÙģÙĬØ°
ĠØ§ÙĦØ¨ÙĬØ²ÙĨØ· ÙĬÙĬÙĨ
ĠÙĬ ÙĪØ¶ØŃ
Ø¸ Ø§ÙĩØ±Ø§Øª
ĠÙĪÙĬ ØµÙĦ
ĠØ£ÙĪÙĦ ÙĬØ©
ĠÙĬØ³ ÙĬØ±
ÙĪØ¸ Ø§Ø¦Ùģ
ĠØ§ÙĦØºØ§ÙĦØ¨ ÙĬØ©
ĠØ§ÙĦØªØŃÙĤÙĬÙĤ Ø§Øª
o h
ĠÙĪ Ø°ÙĩØ¨
ĠÙģ Ø®Ø±
Ø² Ø§Ø¹
ĠÙĦÙĦ Ø¹Ø¯
ØŃØ¯ Ø§Ø±
ĠØ§ÙĦØ· ÙĬÙĨ
ĠØ§ÙĨØª ØµØ±
Ø±ÙĬØº ÙĪØ±ÙĬ
ĠØ¹ ØµÙĪØ±
ĠÙĬ Ø³Ø¨ÙĤ
Ø£ Ø·ÙĦÙĤ
ĠØ§ÙĦØ£ Ø³Ø¨ÙĤ
ĠØ§ÙĦØ¹ ÙĬØ¯
ĠØ´ ØŃ
ĠØ§ÙĦÙħØŃ Ø±Ø±
Ġ190 3
ĠØ§ÙĦÙħØ¹Ø¯ ÙĨ
ĠØ§ÙĦØªØ¨ Øº
ĠÙĪØ³Ùħ ÙĬØª
ĠÙĦÙĦÙħØ³ØªØ®Ø¯Ùħ ÙĬÙĨ
Ã ¼
ĠÙĪ Ø§
ĠØ§ÙĦØ³ ØŃØ¨
Ø³Øª ÙħØ±
ĠØ§ÙĦØ´ Ø±Ø¨
ĠØ¢ ÙĨØ¯
ĠÙħÙĤ Ø·Ø¹
ĠÙĪØŃ ÙģØ¸
ĠÙĪØ§ÙĦØ£ Ø±Ø¯ÙĨ
ĠÙĬØ¯ Ø±Ùĥ
ĠI I
ĠØ§ÙĦØªØ® Ø²ÙĬÙĨ
ĠØ§ÙĦØ³ÙħØ§ ÙĪÙĬØ©
ÙĨ ÙĤÙĦ
Øµ ÙĬÙĨ
Ø´ Ø¬Ø§Ø±
ĠØ¨Ø¯ Ø§Ø®ÙĦ
ĠØ£Ùħ Ùħ
ĠÙĦÙĦÙħ ÙħÙĦÙĥØ©
ĠØµØºÙĬØ± Ø§
Ø§ÙĥØªØ´ Ø§ÙģØ§Øª
ĠÙĤØ·Ø§Ø¹ Ø§Øª
ĠØ§ÙĦØ®Ø³ Ø§Ø¦Ø±
ĠÙĥ Ø§Ø¦ÙĨ
ĠØ´ Ø±Ø¨
ØªÙĬ Ùĩ
ĠÙħØ´ ÙĪØ§Ø±Ùĩ
ĠØ§ÙĦØ¹ÙħÙĦ Ø§ÙĤØ©
ĠØ±Ø¦ÙĬØ³ ÙĬØ§
ĠØªØ£Ø«ÙĬØ± Ø§
ã ģ
ĠÙģ Ø§ÙĦÙĨ
ĠÙĪØ§ÙĦÙħ Ø¬ØªÙħØ¹
ĠÙĪØ¬ Ø¨ÙĦ
ĠØ§ÙĦÙĥÙĦ ÙĪØ±
ht m
ĠÙĬØ¬Ø¹ÙĦ Ùĩ
ĠØ¨ØªÙĨ Ø¸ÙĬÙħ
ØŃ Ø³Ø§ÙĨ
Ø· Ø§ÙĤØ§Øª
ĠÙĪØ§ÙĦ Ø±ÙĬ
ĠØ§ÙĦØ³ Ø§ÙĦÙħ
Ø§Ø· Ø§Øª
Ø§Ùĩ Ø§Ùħ
ÙģØ³ Ø§Ø¯
ĠØ§ÙĦØ¨ÙĦ Ø§Ø²ÙħØ§
ĠØ§ÙĦØ¹ÙĨ Ø¨
ĠØ³Ø¬ÙĦ Ø§Øª
ĠØ§ÙĦÙĬØ¯ ÙĪÙĬØ©
ĠØ¨ÙĪØµÙģ ÙĩØ§
ĠÙħ ÙĪØ¯
ĠØ§ÙĦÙħ ÙģØ¶ÙĦ
ĠØ³ Ø±Ø¯
ĠØ§ÙĦØŃ ÙģÙĦØ§Øª
ĠØ§ÙĦØ³ ÙĨØ¯
ĠØ± Ø§Ø¦Ø¹
ĠØ§ÙĦØ± Ø§Ø¦Ø¯Ø©
ĠØ· ÙĬÙĪØ±
Ø§ÙĦØª ÙĬÙĨ
ĠØ£Øµ Ø§Ø¨
re e
ĠÙĪØªØ¹ ÙĦÙĬÙħ
ĠÙħØ³Ø§ØŃ ØªÙĩ
ĠØ³ÙĥÙĨ ÙĬØ©
Ø¹ Ø²
ĠØ§ÙĦÙħ ÙĪØ²
ĠØ§ÙĦÙĩ Ø±Ø¨
ĠØ¹ÙĨØ¯ ÙĩÙħ
ĠØ¨Ùħ Ø¨ÙĦØº
ĠØ§ÙĦÙħØ¤ Ø³Ø³
ĠØµÙĨ Ø§Ø¹ÙĬ
ĠØ¨ØªØ´ ÙĥÙĬÙĦ
ĠØ´Ø¨ÙĬ ÙĩØ©
ĠØ¨ Ø§Ø´
ÙħØ§ Ø¹Ø§Øª
ĠØ§ÙĦØº ÙĨÙĬ
ĠÙħØ³Øª ÙĤØ±Ø©
ĠÙħÙĥ Ø³ÙĬ
ĠØ§ÙĦØ£ÙĦ ÙĪÙħÙĨÙĬÙĪÙħ
ĠØ§ÙĦÙĤØ· Ø·
ĠØ§ÙĦÙĤØ· Ø±ÙĬ
Ġ188 2
ĠØ§ÙĦÙħØ° Ø§ÙĩØ¨
ĠÙĪØ° Ø§Øª
ĠÙĨÙĬÙĪØ²ÙĬÙĦ ÙĨØ¯Ø§
p t
Ġ he
ĠÙĥØ¨ Ø±ÙĬØª
ÙĥÙĬ ÙĬÙģ
ĠÙĦÙĨ Ø´Ø±
iv e
ĠØ§ÙĦÙħØŃÙħ ÙĪÙĦ
ĠÙĪ ØµÙĨØ§Ø¹Ø©
ĠØ¨ Ø±ÙĬØª
ĠÙĪØ§ÙĦ ÙĨÙĬ
ĠØ§ÙĦØ¯ Ùģ
Ġ189 6
Ġ189 9
ĠÙĪÙĥÙĦ ÙĬØ©
ĠØŃØ¶Ø± ÙħÙĪØª
ĠØ·Ø§ÙĦ ÙħØ§
ĠØ¨ Ø¬ÙħØ¹
ĠØª ÙģÙĬØ¯
ĠØ¬ ÙĪØ¯
ĠØ§ÙĦÙĨ Ø§Ø¨
ĠØ§ÙĦÙĨ Ø´Ø·
ĠØ¶ Ø¯Ùĩ
ĠØ§ÙĦÙħØ³ ÙĦÙħØ©
ĠÙĤØ¯Ùħ Ùĩ
ĠØ·ÙĦ Ø¨Ø©
Øµ ÙĪÙĨ
ĠØ§ÙĦØ£ Ø®Ø±
ĠÙĩ Ø¨ÙĪØ·
ĠÙĦÙĦ Ø§Ø¹Ø¨
Ø§ØŃ Ø¨Ùĩ
ĠØ§ÙĦÙĨ Ø§Ø²ÙĬ
ĠÙĪØ£ Ø³ØªØ±Ø§ÙĦÙĬØ§
ĠØ² Ø¬Ø§Ø¬
ĠÙĪØ¬ Ø²Ø±
ØŃÙĪ Ø°Øª
ĠØ§ÙĦÙħ ÙĦÙĤØ¨
ĠÙĦÙĦ Ø¯Ùħ
ĠÙĪØª ÙĪÙģÙĬØ±
ĠØ§ÙĦÙĦ Ø§Ùħ
ĠØ§ÙĦØ£Ùħ Ø§Ø²ÙĬØºÙĬØ©
ÙĬØ´ ÙĬ
ĠÙĦÙĦÙħ Ø®Ø±Ø¬
ĠØªÙĨ Ø´Ø±
ĠØ§ÙĦØ®Ø± Ø§Ø¦Ø·
ĠÙĪ Ø¨ÙĦØ§Ø¯
ĠØª Ø¯Ø±Ø³
ĠÙĬ Ø§Ø³Ø±
Ø¶ Ø§ÙģØ§Øª
ĠØ§ÙĦØ´ ÙĬØ·Ø§ÙĨ
ĠÙĦÙĦØ¥ ØµØ§Ø¨Ø©
ĠØ¬Ø± Ø§ØŃØ©
ĠØ§ÙĦØ¨Ø· Ø§ÙĦØ©
ĠÙĨØ¬ ÙħØ©
ĠÙĥÙĨ Ø§Ø¦Ø³
ĠØ³ØªÙĬ Ùģ
ĠÙħÙĪØ±ÙĬ Øª
ĠÙĬÙĨØª Ø´Ø±
ĠØ§ÙĦÙĪØ§ÙĤ Ø¹ÙĬØ©
l i
ĠØ¹ ÙĪÙģ
ĠØ§ÙĦØ¨ Ø¹ÙĬØ¯Ø©
ĠØ£Ø¨ ÙĪÙĦÙĪ
ĠØ¬Ùħ Ø¹Øª
ĠØ¹ÙĤØ¯ Øª
ĠÙħÙģ Ø§ÙĩÙĬÙħ
ĠØ¨Ø§ ÙĬØ²ÙĬØ¯
ĠØ¨ÙĪØ³Ø· ÙĨ
ĠØ³ÙĨØº Ø§ÙģÙĪØ±Ø©
ĠØ§ÙĦÙħ Ø¹ØªÙĤØ¯Ø§Øª
ĠØª Ø¯ÙģØ¹
ÙĬØ§ ÙĩØ§
ĠÙħØ¹ ÙĨ
ÙĪÙĬ Ø¨Ø¯ÙĪ
ĠØ£ÙĪ ØªÙĪ
ĠÙĪØª Ø£Ø«ÙĬØ±
Ø³Ø§Ùħ ØŃ
ĠÙĪØº Ø§ÙĦØ¨
ĠØª Ø§ÙĪÙĨ
ĠØ§ÙĦØ£ Ø±ÙĥØ§ÙĨ
ĠÙĨ Ø±Ùī
ĠØ§ÙĦØ³ ØŃØ±
ĠØ¨Ø§ÙĦ Ø§Ø´ØªØ±Ø§Ùĥ
ĠÙĪØª ØªÙħÙĬØ²
ĠØ³ÙĬ Ø¨
ĠØªØ± Ø§Ø¬
ĠÙĪØ§ÙĦØ¥ Ø¯
ÙĦÙĥØªØ± ÙĪÙĨ
ĠØ§ÙĦØ¬Ø§Ùĩ ÙĦÙĬØ©
ĠÙģ ÙĥÙĦ
ĠØŃ ÙĬØ©
ĠÙĨ ÙĪØŃ
ĠØ£ÙĨ ÙĬ
ĠØ§ÙĨ ÙĤØ·Ø§Ø¹
ÙģØ³ Ø§Ø¡
ĠÙĦØ¨ÙĨ Ø§ÙĨÙĬ
ĠØ¨Ø§ÙĦØ¬ Ø§ÙħØ¹Ø©
Ø¦Ø± Ø§ÙĨ
ĠÙĪ ÙĪØ§ÙĦØ¯
Ø¬ Ø§ÙĨØ¨
ĠÙĥ Ø±Ø§Øª
ĠÙĦÙĦ ØµØŃ
ĠÙħØ¹ Ø§ÙħÙĦØ©
ĠÙĪØª Ø¹ÙħÙĦ
ĠÙĪØ¨ Ø®Ø§ØµØ©
ĠÙĪÙĤ Ø±Ø±
ĠÙĪØŃ ÙħØ§ÙĬØ©
ĠØ§ÙĦÙħØ³ Ø¦
ĠØ§ÙĦØ¶ Ø±Ø±
Ø´Ø§Ø±Ùĥ Øª
Ġ187 0
ĠØ§ÙĦØªØ¨ Ø§Ø¯ÙĦ
ĠÙĨÙĬÙĪ Ø²
ĠÙĪØªØª ÙĥÙĪÙĨ
ĠÙģÙĤ ØªÙĦ
ĠÙĪØµÙĪÙĦ Ùĩ
ĠÙħÙĪØ² Ø¹Ø©
ĠØ§ÙĦØµØŃØ± Ø§ÙĪÙĬØ©
ĠÙħ Ø§Ø¬Ø¯
Ø² Ø±Ø©
Ø£ ÙħØ±
ĠØ£ÙĪ Ø²
ĠÙĪØª Ø²ÙĪØ¬
Ø§Ø² Ø±
ĠØ§ÙĦØº Ø·Ø§Ø¡
ĠØ£ØŃ Ø§Ø¯
ar e
ĠØ§ÙĦÙħØ³Ø§Ø¹Ø¯ Ø§Øª
Ùĥ ÙĦÙħØ©
Øµ ÙĦØ§
Ø¹Ø± ÙĪÙģ
ĠÙĦÙĦÙħ Ø§Ø¡
ĠØªØ± ÙĪÙĬ
ĠÙħÙĬ Øº
ÙĪØ§Ùģ Ø¹
at h
ĠÙĪØ§ÙĦØ§Øª ØµØ§ÙĦØ§Øª
Ùĩ ÙĨØ©
ĠÙĦ ÙĪÙħ
ĠÙĦ Ø¬ÙħØ¹
ĠÙĬ ÙĪÙģÙĨØªÙĪØ³
ĠØ³ ÙĨØ§
ĠØ§ÙĦÙĤ Ø¨Ø·ÙĬØ©
Ø¨Ø± Ø¯
Ø¹Ùħ Ø§Ø¡
ĠØ¨Øª Ø¬
ĠØ¨ÙĬ Ø¨Ø±Ø³
ĠØ¹Ùħ Ø§Ø±
ĠØ¹Ùħ ÙĬÙĤ
ÙģØ¹ ÙĬÙĦ
ar y
ĠØ£ÙĤÙĦ ÙĬØ©
ĠØ§ÙĦÙĬÙĪÙĨ Ø³ÙĥÙĪ
ĠÙģÙĪØ² Ùĩ
ÙĪ ÙĪÙĨ
Ø¹ Ø§ÙĨØ©
ĠØ£ Ùī
ĠØ£ Ø±ÙĨ
ĠÙĦ ÙĪÙģ
ÙĦÙĬ Ø²
Ø§Ø« ÙĬÙħ
ØªÙĪ Ø§Ø¬Ø¯
ĠÙĪØ§ÙĦÙĨ Ø´Ø±
Ø§ÙħÙĬ Ø°Ùĩ
ĠØŃØ§Ùĥ ÙħØ§
T he
ĠØ§ÙĦ Ø§ÙĦØªÙĩØ§Ø¨
ĠØ§ÙĦØŃ ÙĦÙĬÙħ
ĠØ¨Ø§ÙĦ ØªØµ
ĠØ³ Ø§Ø®
ĠØ¯ ÙħØ±
ĠØ§ÙĦÙĨ Ø¹
ĠØ§ÙĦÙħÙĨ Ø¹
ÙĨØª Ø§ÙĨ
Ø§ÙĦ ÙģØ§Øª
ĠØ§ÙĦØ¹ Ø³ÙĦ
ĠÙĨ ÙĤØ·
ĠØ§ÙĦÙģ Ø¬Ø±
ĠÙĪØ£ Ø¬ÙĩØ²Ø©
ĠÙħØŃ Ø±Ùħ
ĠÙĪÙĦ ÙĨ
ĠÙĪÙĦ Ø°Ø§
ĠØ§Øª ÙģÙĤ
ĠØªØ¯ Ø±ÙĬ
Ø³Ø§Ø¡ Ø©
ĠÙħÙĥØ§ÙĨ ÙĩØ§
ĠÙģ Ø¨
ĠÙĥ Ø£ÙĨ
ĠØ§ÙĦØ£ Ø·Ø±
ÙĦÙĬ ÙĦØ§
Ø¨Ø± Ø§Øª
ĠØ§ÙĦÙħØ± Ø¬ØŃ
ĠØ§ÙĦÙĦÙĩ Ø¬Ø§Øª
ĠÙĪØ´ Ùĥ
ÙĪØ§Ø¬ Ø¯Ø©
Ø§Ø¯ÙĬÙħ ÙĬØ±
ĠÙħÙĨØª Ø¸Ùħ
ĠØºØ² ÙĪØ©
ĠØ§ÙĦØ§ÙĨØªÙĤ Ø§ÙĦÙĬØ©
ĠØ§ÙĦØ³ÙĪ Ø§ØŃÙĦ
Ùĥ Ø«ÙĬØ±
ĠÙĩ ÙĪÙĦÙĬÙĪÙĪØ¯
ĠØ§ÙĦØ³ Ø¹Ø±
ĠØ´ Ø¯
ĠØ§ÙĦØ± Øµ
ÙĥØ³ Ø¬ÙĬÙĨ
ĠÙĦÙĦØ¹ ÙĬØ´
ØªØº Ø§ÙĦ
ĠÙĦØº Ø±Ø¶
ĠØµÙĦØ§ØŃ ÙĬØ§Øª
ĠÙĪ Ø¸ÙĩØ±Øª
Ø§Øª ÙĦÙĬÙĨ
Ø´ Ø±ÙĥØ©
Ø±ÙĬ ØŃØ§Øª
ĠÙĪØ§ÙĦÙħ Ø§Ø¡
ĠØ§ÙĦÙħØ´ Ø§Ø¹Ø±
ĠØ¨Ø§ÙĦÙħ ÙħÙĦÙĥØ©
Ġ9 1
Ġ184 8
ĠÙĥØ´ ÙģØª
ĠÙħØ³ØªÙĪØ· ÙĨØ©
ĠØ§ÙĦØ¬ Ø°ÙĪØ±
ĠÙĪÙĤ Ø§ÙĦØª
ÙĪØ§Ø± Øª
ÙĥØª ÙĦØ©
ĠÙĪØ§ÙĦØ¨ Ø¹Ø¶
ĠØ¥ÙĬØ· Ø§ÙĦÙĬØ©
ĠØªØªÙħ ÙĥÙĨ
ĠÙħØ¹Ø¯ ÙĨ
ĠÙĥØ±Ø¯ Ø³ØªØ§ÙĨ
ĠØ§ÙĦØª Ø³ÙĦ
ĠØ§ÙĦØŃ Ø§Ø¯Ø©
ĠØ£ÙĪ Ø¬Ùĩ
ĠØ§ÙĦÙĦ Ø°Ø§ÙĨ
ĠØ£Ø³ ÙĨØ§ÙĨ
ĠÙĬÙĨ Ø¬ØŃ
ÙĪØ· ÙĨÙĩØ§
ĠØ§ÙĦØ£ÙĪØ³ Ø§Ø·
ĠØ£Ø«Ø¨Øª Øª
Ø¨Ø¹Ø§Ø« Ø§Øª
l ic
Ùģ ÙĩØ§
ĠØ£ Ø±Ùĥ
ĠØŃ ÙĪØ§Ø¯Ø«
ĠØ£ØŃ Ø§Ø¯ÙĬ
ÙĦÙĬÙĨ ØªÙĤÙĦ
ĠÙĦÙĦÙĥ Ø§ØªØ¨
ĠØ®ÙĦ Ø§ÙģØ©
ĠÙĪØŃØµÙĦ Øª
iki pedia
ĠÙħØ¹ØªØ¯ ÙĦ
P A
ĠØ¹ Ø§Ø±Ùģ
ĠØ£ÙĪ Ø¶Ø§Ø¹
ĠØ¨Ùħ Ø®ØªÙĦÙģ
Ġ6 9
ĠØ§ÙĦØ¨ÙĬ Ø§ÙĨÙĪ
ĠÙĨÙĩ Ø§Ø¦ÙĬØ§Øª
ĠØ±Ø¨ Ø§Ø¹ÙĬ
ĠØ§ÙĦØŃØ¶ ÙĪØ±
Ø§ÙĤØ´ Ø§Øª
ÙĪ Ø´ÙĬ
ĠÙĬ ÙĪÙĦÙĬ
ĠÙĥ Ø¨Ø±
ÙĪÙĨ Ø¬
Ø³Øª Ø§ÙĨÙĬØ©
Ø¹Ø¯ Ùī
ĠØ§ÙĦÙĤØ± Ø¢
ĠÙĦØ¥ ÙĤØ§ÙħØ©
ar k
ĠØ§ÙĦØŃØ³ Ø§Ø¨Ø§Øª
ĠØ§ÙĦØ¨ÙĪÙĦ ÙĨØ¯ÙĬØ©
ĠØ§Ø¹ØªØ¨Ø± Øª
Ġâ Ī
Ø§ÙĦÙħØ± Ø§Ø¬Ø¹
Ø§ÙĦ Ø£ÙĨ
Ø¹ Ø§Ùģ
Ø¶ Ø§Ø¨
ĠÙĨ Ø§Ùħ
ĠÙħØª ÙĤØ¯ÙħØ©
ĠÙħØ³Øª ÙĤØ±
ĠØ¯ÙĬ Ø§Ø±
ĠØ§ÙĦØ§Ø¹ ØªÙĤØ§ÙĦ
ĠØªØ« Ø¨Øª
ĠØ£ÙĨØªØ¬ Øª
Ø³ ÙĩØ§
ĠØ¥ ÙĬØ¨
ĠØ¥ ÙħØ¨Ø±Ø§Ø·ÙĪØ±
ÙĪÙĦ Ø«
ĠÙĩ ÙĪÙħ
ĠÙĪÙħ Ø²
ĠÙĪÙĬ Ø·ÙĦÙĤ
ĠÙĪØ¬ ÙĪÙĩ
ĠØ§ÙĦØ¹Ùħ ÙĬÙĦ
ĠØ§ÙĦØ±ÙĪØŃ ÙĬØ©
ĠØ§ÙĦÙĨØ§Ø¬ ØŃØ©
ĠØ§ÙĦØ¨ÙĨÙģØ³ Ø¬ÙĬØ©
Ø£ Ø³Ø¨Ø§Ø¨
ĠØ§ÙĦØ³ ÙħØ¹
ĠØ§ÙĦØ± Ø²
Ø§Ø² ÙĬÙĨ
ĠØ¨Ø± Ø§Ø¡Ø©
ĠØ§ÙĦØ¯ÙĬÙĨ Ø§ØµÙĪØ±Ø§Øª
ĠÙĪØ¯ ÙĪØ±
Ġ189 0
ĠØ±Ø£ ÙĬÙĩ
ĠØ§ÙĦØªÙĥ Ø§ÙĦÙĬÙģ
ĠØªÙĤÙĦÙĬ Ø¯ÙĬ
ĠÙĦÙĦØ³ÙĦ Ø·Ø©
E R
ĠÙĪ Ø±Ø¨
ĠØ§ÙĦÙħ ÙĪØ¶ÙĪØ¹Ø§Øª
ĠØ§ÙĦØ£ Ø¹Ø¯Ø§Ø¡
ĠØ¬ ÙĪÙĦÙĬ
Ø§Ø² ÙĬÙĦ
ĠÙĪØ§ÙĦÙħ Ø¹ÙĦÙĪÙħØ§Øª
ĠØªÙĤ ÙĦÙĬØ¯
ÙĤØ¨ Ø¶
ĠÙĪØ§ÙĦØŃ ÙĬÙĪØ§ÙĨØ§Øª
ĠØ¨ÙĪØ± ØµØ©
ĠØ§ÙĦØªØ·ÙĪØ± Ø§Øª
ĠØ§ÙĦØª Ø¬ÙħØ¹Ø§Øª
ĠØ² ÙĩØ±Ø©
ĠÙĪØ¹ Ø¯Ø©
ĠC D
ĠØ§ÙĦÙĥÙĦ Ø§Ø¨
ĠØ§ÙĦØ£Ø¨ ÙĨØ§Ø¡
ĠØ£ Ø¯ÙĬØ¨
ĠÙħÙĨ ÙĬ
ĠØ§ÙĦØª Ø¹Ø¯Ø§Ø¯
ĠØ¯ ÙĪØ±ÙĬØ©
ĠØµ Ø±Ùģ
Ø³Ø± Ø¹
ĠØªÙĨ Ø³ÙĬÙĤ
ĠØ¹ÙħÙĦ Ø©
Ø®Ø¨ ÙĬÙĦ
Ø®Ø· Ø§Ø±
ĠÙĦÙĦØ¥ Ø³ÙĦØ§Ùħ
ĠÙĪØ§Øª Ø®Ø°
ĠØ§ÙĦØ³ÙĪÙĬØ³ Ø±ÙĬ
ĠØ¨ÙĥÙħ ÙĬØ§Øª
Ø¯ Ø¹ÙĬ
ĠÙģ ÙĪØ§Ø¦Ø¯
Ø§Ø¨ ØŃ
ĠÙĦÙĦÙħ ÙĪ
ĠÙĪØŃ ÙħÙĦ
ØŃÙħ ÙĪØ¯
ĠÙĪØ§Ø¨ ÙĨÙĩ
ĠÙĨØ§Ø¯ Ø§ÙĦ
a u
Ø³ Ø¹ÙĬØ¯
ĠÙģ Ø§Ø¦ÙĤØ©
ØŃ Ø·
ØŃ Ø¨Øª
ĠØ¥ Ø²
Ø±Ø¨ ÙĩØ§
ĠØ£ÙĪ Ø§Ø³Ø·
ĠØµ Ø§Ø¯ÙĤ
ĠÙĦÙĩ Ø¬Ø©
ĠØ¯Ø± Ø§Ø³ØªÙĩØ§
ĠÙĦØŃ ÙģØ¸
Ġ16 5
ĠÙĦÙĦØ´ Ø¹Ø¨
ĠÙĦ Ø°
ĠÙĦ Ø§ÙĨÙĩ
ĠØ§ÙĦÙħ ÙĦÙĬÙĪÙĨ
ĠØ§ÙĦÙħ ÙģØ¶ÙĦØ©
ĠØ§ÙĦØª Ø³ÙĦØ³ÙĦ
ĠÙĪÙĦ Ø¯ÙĬÙĩ
Ø®Øª ÙģÙĬ
ĠØ§ÙĦØªØŃ ÙĤÙĤ
ĠØ¹Ø¶ ÙĦØ§Øª
ĠØ´ÙĩØ± Ø§
ĠØ§Ø« Ø±
ĠÙħÙĨØ¸ ÙĪØ±
ĠØª ØµØ±Ùģ
ĠÙĬ ÙĪØ±Ùĥ
ĠÙĩ ÙĬÙħ
ĠÙħØ¹ Ø²
ÙĬØ² Ø±
ĠØ³Ùģ ÙĬØ±
ĠÙģØ¹ÙĦ Ùĩ
ĠØ³ ÙĥØ©
ĠØ§ÙĦÙħÙĤ ØªØ±
ĠÙĪÙĦÙĬ ÙĪÙĨ
ĠØ¨Øµ ÙĬ
ĠÙĪØ¢ ÙĦ
ĠÙĪØ§ÙĦØº Ø§Ø²
Ġ z
ĠØª ØªØ¨
ĠØ§ÙĦØ¨ ÙĦÙĬ
ĠØ´ ÙĩØ±ÙĬ
ĠÙħØµ ÙħÙħ
ĠØ§ÙĦÙħØ¯ Ùģ
ĠØ§ÙĦØªØŃ ÙĦÙĬ
ĠØµÙĨ Ø§Ø¹
Ø¬ÙĬÙĨ ÙĬØ§
Ø· Ø§Ø¨ÙĤ
ĠØ§ÙĦØ¬ ÙĬØ¯
ĠØ£Ùħ ÙĬØ©
ĠÙĪÙĥ ÙĬÙĦ
ĠØ§ØŃ Ø¯Ùī
ĠØ§ÙĦØ§ÙĨØª ØµØ§Ø±
ĠØ§ÙĦØ£Ø¹ Ø´Ø§Ø¨
ĠØ±ÙĪÙħ Ø§ÙĨÙĬ
ĠÙĤØ§Ø¨ ÙĦÙĬØ©
ĠØ§ÙĦÙħØ£ ÙħÙĪÙĨ
ĠØ¯Ø§ÙĨÙĬ Ø§ÙĦ
Ø´ Ø§Ø¨Ùĩ
Ø« ÙĪÙħ
ĠØ§ÙĦØ· Ø§Ø¦
ÙĤÙĬ ÙĬÙĨ
ĠØ¨Ø¹Ø¶ Ø§
ÙĪØ¶ ÙĬ
ĠØ§ÙĦÙħØ¬ Ø±Ø©
ĠØ§ÙĦØ«ÙĤ ÙĬÙĦ
ĠØ§ÙĦÙĩØ§Ø´ ÙħÙĬ
Ùĥ ÙĪÙģ
ØŃ ÙĪÙĨ
ĠØª Ø§ÙĬ
ÙħØ§ ÙĩØ§
ĠØ§ÙĦØŃ Ø§Ø¯ÙĬØ©
ĠØ° Ø±ÙĪØ©
ĠØ§ÙĦÙħÙĨ Ùģ
Ġ18 00
Ø§Øº ÙĬØ©
ĠØ§ÙĦØ£ÙĨ Ø§Ø¨ÙĬØ¨
ÙģØ§Ø¹ ÙĬ
ĠÙĦÙĦØ¹ Ø§Ùħ
ĠØ¯Ø§Ø± ÙĪÙĬÙĨ
ĠØªÙĪÙģÙĬ Øª
ĠØ§ÙĦØŃØ§Ø¬ Ø²
ĠÙĦÙĦÙĬ ÙĩÙĪØ¯
ĠÙĪØ¨ÙĤÙĬ Øª
ĠØ¨ Ø°ÙĪØ±
Øµ ÙĩØ§Ø±
ĠØ§ÙĦØŃ Ø¨ÙĬØ¨
Ø§Ø¹ Ø±Ø©
ÙĬÙħ ÙĬØ§
Ø±ÙĤ Øª
Ø±Øª Ø²
ĠÙħØº ÙĨÙĬØ©
ĠÙĨÙĤÙĦ Øª
ĠÙĥØ±Ø¨ ÙĦØ§Ø¡
ÙĬÙĥÙĪØ³ÙĦ ÙĪÙģØ§ÙĥÙĬØ§
ÙĦÙħ Ø°
ĠØ§ÙĦÙĥ Ø±ÙĬ
ĠØ§ÙĦØ° ÙĬÙĦ
ĠÙħØª Ø§ØŃ
ĠØ¨Øª ØºÙĬÙĬØ±
ĠØ£Ø¯ ÙĨØ§Ùĩ
ĠÙģØ£ ÙħØ±
ĠÙħÙĬ ÙĦÙĬ
ĠØ¶Ø± ÙĪØ±ÙĬØ©
ĠØ§ÙĦØ¹ÙħÙĬ ÙĤØ©
Ø± Ø´
ĠØ¨ ÙĤØ±Ø§Ø±
ĠÙħÙĨ ØŃØª
Ø« Ø§Ø±Ø©
ĠÙĩ Ø§Ø¦ÙĦ
Ġ3 60
ĠØ§ÙĦÙĤØ± Ø§Ø¡
ĠØ§ÙĦØ£ÙĨ ØµØ§Ø±ÙĬ
ĠØ¬Ø± Ø§Ùħ
ĠØ§ÙĦØ§Ø¹ ÙĦØ§Ùħ
ĠÙĪØµÙĦ ÙĪØ§
ĠØ¹ÙĤ Ø¨Ø©
ĠÙĩØ¯ Ø§Ùģ
ĠØªØ§ÙĬÙĦ Ø§ÙĨØ¯
ĠØ§ÙĦÙĨØ± ÙĪÙĬ
ĠÙģ Ø§ÙĬÙĨ
ĠØ§ÙĦØº Ø¶Ø¨
Ø§Ø¦ÙĦ ØªÙĩ
ØªÙģ Ø§ÙĦ
er t
Ġ7 1
ĠØ§ÙĦÙħÙĬØ¯ Ø§ÙĦÙĬØ©
Ø¹ ÙĪØ¨Ø§Øª
ĠØª ØµØ±
ĠÙĥ Ø§Ø¯
ÙĪÙĤ Ø¨ÙĦ
ĠØ§ÙĦØ« ÙĪØ±Ø§Øª
ĠØ§ÙĦØ¢ ØªÙĬØ©
ĠØªØ±Ùĥ Øª
ĠØ¨ØªØ³ Ø¬ÙĬÙĦ
x x
Ùĥ ÙĪØ³
ĠÙĦ Ø³Ø¨
ĠØŃ Ø±ÙĬ
ĠÙĩ Ø§Ø±Ùģ
ĠØ¨Ø§ÙĦ ØªÙĤ
ĠØ« Ø§ÙĨ
ĠÙĦÙħ ÙĥØ§ÙģØŃØ©
ĠØ¨Ùħ Ø¬ÙħÙĪØ¹Ø©
ĠÙĬÙħ ÙĬÙĨ
ĠØ§ÙĦÙħÙĦ Ø§ØŃØ©
ĠÙĨÙĤÙĦ ÙĩØ§
ĠØ§ÙĦØ³ÙĪØ±ÙĬ ÙĬÙĨ
Ø§ÙĦØªØŃ Ø¯ÙĬØ¯
M L
Ùĥ Ùĩ
ĠØ£ ÙĦÙĤØ§Ø¨
Ø« Ø¨Ø§Øª
ĠØ¯ ÙĦØªØ§
ĠØ§ÙĦØ¬ ÙĪÙĦØ§ÙĨ
ĠØ§ÙĦÙĨ Ø§Ø¬ÙħØ©
Ø¦ Øª
ÙĦØ§ ÙģÙĬ
ÙħØ§ÙĦ Ø©
ĠØ§ÙĦÙħÙģ ØªØ±
ĠØªØ£Ø³ÙĬØ³ Ùĩ
ĠØ¨Ø§ÙĦØ³ ÙĥØ§ÙĨ
ĠØŃØ³ Ø§Ø¨Ø§Øª
ĠØ§Ø¹ØªÙħØ¯ Øª
ĠÙĪÙģÙĦ Ø³Ø·ÙĬÙĨ
ĠÙĪ ØŃÙĬØ¯Ø©
ĠØ§ÙĦØŃ ÙħØ±
ĠØ§ÙĦØ¨ Ø§ÙĤÙĬ
ĠØ´ ÙĦ
ĠØ§ÙĦØ¥ Ø¨Ø¯
ĠØ« Ø±ÙĪØ©
Ø§Ø±ÙĬ Øª
ÙĥØ± Øª
ĠØ§ÙĦØ¬Ø± Ø§ØŃ
ĠØ¹ÙĬÙĨ Ùĩ
ĠØ§ÙĦØ£ÙĤ ÙĦÙĬØ§Øª
ĠØ§ÙĦØ®Øµ Ùħ
ĠØ³Ø§Ø¹Ø¯ Øª
Ø¹ Ø§Ø¡Ø§Øª
ĠÙħ Ø¶Ùħ
ĠÙĬ ØºØ·ÙĬ
ĠØ§ÙĦØ¥ Ø±Ø³Ø§ÙĦ
ĠÙĦÙĦØ£ ÙĨØ¯ÙĬØ©
is s
ÙĪØ§ØŃ Ùģ
ĠÙĬ Ø®ÙĦ
Ø³Øª Ùħ
ĠØ¨Ø§ÙĦ Ø¢
Ø³ÙĬ ÙĪ
ĠÙĪØ§ÙĦØª Ø·ÙĪÙĬØ±
ĠØ§ÙĦÙħØµ ÙĪØ±Ø©
ĠØ§ÙĦØªØ¹ Ø§Ø¯ÙĦ
ĠØ¬ÙĨ Ø³ÙĬ
ÙĪØ±Ùĥ Ø³ØªØ±Ø§
ĠØ¹Ø¯ ÙĨØ§ÙĨ
ĠÙĥØ£ ÙĪÙĦ
ĠÙħØ³ØªÙĤØ¨ÙĦ Ø§Øª
ÙĬ ØŃØ¯Ø«
ĠØ§ÙĦ Ø§ÙĥØªØ¦Ø§Ø¨
ĠØ§ÙĦÙĤ ØªØ§ÙĦÙĬØ©
ĠØ§ÙĦØ· ÙĬÙģ
ĠØ§ÙĦÙĩ ÙĬØ§ÙĥÙĦ
ĠÙħØ± Ø´
ĠÙĬÙħ ÙĪØª
Ø§Ø±Ø§Øª ÙĬÙĨ
ĠØ§ÙĦØ¹ÙĤ Ø¨Ø©
ĠØ§ÙĦØ¥Ø« ÙĨÙĬÙĨ
ÙĪ Ø¥
ĠÙĤØ¶ Ø§Ø¦ÙĬØ©
ĠÙĦÙĦØªØ¬ Ø§Ø±Ø©
ĠÙĦ ÙĤØ±
ĠØ£ÙĨ Ø´Ø¦
ĠØªØµ Ø±ÙĬØŃ
ÙħØ¹ Ø±ÙĥØ©
ĠØ¹Ø¶ ÙĪÙĬ
ĠØªÙģ Ø¹ÙĦ
ĠÙħÙĬØ« Ø§ÙĤ
ĠØ§ÙĦØ¨ÙĦØ· ÙĬÙĤ
ĠØ¹ Ø§ÙĨÙī
Ø¬ Ø§Ø¯
ĠØ§ÙĦØ£ Ø³ÙĬ
ĠØ³ Ùĩ
ĠÙĨ Ø³ÙĬØ¬
ÙĥÙĪÙĨ ÙĬ
ĠØ¨ÙĬ ÙĬØ±
ĠØ¹Ø¶ ÙĦØ©
ĠØ¹Ø± Ø§ÙĤÙĬØ©
ĠØ§ÙĦÙħØ¶ ÙĬÙģ
ĠØ§ÙĦØ¨Ø¯ Ø§Ø¦ÙĬØ©
ĠØ¬ÙĦ Ø³Ø©
ĠØ¥Ø³ØªØ± ÙĦÙĬÙĨÙĬ
i i
ĠØ§ÙĦØª Ø°Ùĥ
ĠÙĨ ÙĬØ±
ÙĪØª ØŃ
ÙĢ Ùħ
ĠÙĦØª Ø³ÙħÙĬØ©
ĠÙĪØ«ÙĦØ§Ø« ÙĬÙĨ
ĠØ§ÙĦ Ø§Ø³ØªÙħØ±Ø§Ø±
ĠÙħ ÙĪØŃØ¯Ø©
ĠÙģÙĬ ÙĦØ§
ĠÙĤ ÙĦØ¨ÙĬØ©
ĠÙĨ ÙģÙĬ
ĠØ£Ø³ ÙĪØ£
en ce
ĠL a
ĠÙĩØ§ ÙĬØ¯
Ġn ame
Ġ189 7
ĠØ£Ø«Ø± Øª
ĠØªØ¹ÙĦÙĬÙħ Ø§Øª
ĠÙĦØªØ´ ÙħÙĦ
ĠØ§ÙĦØ§ØªØ¬Ø§Ùĩ Ø§Øª
Ø§ÙĦØ¯ÙĬÙħ ÙĪØºØ±Ø§ÙģÙĬØ§
ĠØŃ ÙĦÙĤ
ĠØ§ÙĦÙĨ ØŃÙĦ
ĠÙħØ¹ Ø§ÙĩØ¯
ĠØ§ÙĦØ± ÙħÙĦÙĬØ©
Ø¯Ùħ Ø¬Ø©
ĠØ¨Ø± ÙģÙĤØ©
ĠÙĬØ¹ ÙĥØ³
ĠØ£Øµ ÙĨØ§Ùģ
Ġb ack
ĠØ§Ø¹ØªØ¨Ø§Ø± Ø§
ĠØ§ÙĦÙģÙĤ Ø±ÙĬ
ĠÙĤØ§Ø¯Ø± Ø§
ĠØªØ´Ø± Ø´ÙĦ
Ñ Ĥ
ÙĬ ÙĥÙĦ
ÙĬ Ø¨Ø¯Ø£
ĠÙĪØ§ÙĦ Ø§Ø³
ĠØŃ ÙĦÙħ
ĠØŃ ÙĤÙĬÙĤ
ĠØ£Øº ÙĨÙĬ
ĠØ§ÙĦØ¹Ø¨ Ø§Ø±Ø©
ĠØ§ÙĦØ³Ùģ Ø§Ø±Ø©
Ġ188 1
ĠÙħØ±Ùĥ Ø²ÙĬ
ĠØ§ÙĦØ¶Ø± ÙĪØ±ÙĬØ©
ĠØ§ÙĩØªÙħ Ø§ÙħØ§
ĠÙĬ Ø±Ø¬
ĠØ§ÙĦØ´ ØŃ
ĠØ§ÙĦØ´ ØŃÙĨ
ĠØ§ÙĦÙĥ Ø±Ùĥ
ĠØ§ÙĦÙħØª ÙĥØ±Ø±Ø©
ĠÙĦÙĦÙħ ÙĪØ§Ø¯
ĠÙĪØ· Ø±ÙĤ
ĠØ§ÙĦÙĬÙĪÙĨ Ø§ÙĨÙĬÙĬÙĨ
ĠØ§ÙĦØ¬Ø± Ø§ØŃÙĬØ©
ĠØ§ÙĦÙĨÙĬ ØªØ±ÙĪØ¬ÙĬÙĨ
ĠØ¨ ØŃÙĬ
ĠØª ÙĪÙģ
ĠÙĬ ÙĪÙĦØ¯
Ø£ ÙħÙĦ
ÙĪØ¨ ÙĪÙĦ
ĠØ· ÙĬØ§Ø±
Ø§Ø¯ÙĬ Ø´
ØºØ± Ø§Ùģ
ĠÙĪØªÙħ ØªØ¯
ĠÙħØ« ÙĬØ±Ø©
ĠÙħ ÙĥØ±
ĠÙĩ ÙĬÙĨ
ĠØ± ÙĪÙī
ĠØ§ÙĦÙģ ÙĦØ¨ÙĬÙĨ
ĠØ§ÙĦØ£Ùħ ÙĪÙĬØ©
ĠÙĪØ¥ Ø³
ĠØ§ÙĦØ£Ø¯ Ø¨Ø§Ø¡
ĠÙĪØ§ÙĦØ± Ø¦ÙĬØ³
ĠÙĪØ§ÙĦÙĥ Ø«ÙĬØ±
ĠÙĬÙģ ÙĪØ²
ĠÙĬØ³ÙĥÙĨ ÙĩØ§
ÙĬ ÙĪØ³
ĠÙħÙĨ ÙģØ±Ø¯Ø©
Ø§Ùħ ÙĬØ±
ĠÙĤ Ø·Ø§Ø±
ĠÙĦÙĦ ÙģÙĬÙĦÙħ
Ø¸ Ø§ÙĩØ±Ø©
ĠØ´ Ø§ÙĥØ±
ĠØ§ÙĦØ´ Ø§Ø±ÙĤØ©
ÙĬØ¨ ÙĤÙī
Ġ7 9
ĠÙĥØ± ÙĪØ§ØªÙĬØ§
ĠØ§ÙĦÙĦÙĬ Ø«ÙĬ
ÙĪØ¸ ÙĬÙģØ©
ĠØ³ÙĬÙĨ Ø§Ø±ÙĬÙĪ
ĠØ±ÙĪÙħ Ø§ÙĨÙĬØ©
ĠØ§ÙĦØ¨Ø§Ø¨ ÙĪÙĬØ©
ĠØŃÙģÙĦ Ø§Øª
ĠØ§ÙĦØŃÙĪØ§Ø³ ÙĬØ¨
Ø¹ Ø§Ø©
ĠÙĪ ÙĤÙĦ
ĠØ¥ ÙĦÙĬÙĨ
ĠØ§ÙĦØ¹ Ø§Ø¯Ø§Øª
Ø§Øµ ÙĨØ©
ĠØ¨Ø± ÙĪØ¯
ÙĤØ· Ø¹Ø©
ĠÙĦÙĦÙĤ Ø§ÙĨÙĪÙĨ
ĠØ§ÙĦØ³Ùħ Ø§Øª
ĠØ£ÙĥØ³ ÙģÙĪØ±Ø¯
ĠØ±Ø¯ ÙĪØ¯
Øª ÙĪÙĦ
Øª Ø´ÙĥÙĦ
Ø§Ø £
ĠØª Ø®Ø±Ø¬Ùĩ
ĠØŃ Ø§ÙģØ©
Ø§Ø´ Ùī
ĠÙĦØª ØµÙĦ
ĠØ§ÙĦÙħØ± Ø³ÙĪÙħ
ĠØªØ´ Ø§Ø¨Ùĩ
ĠØ¨Ø£ Ø¯
ĠØ¨Ø· Ø§ÙĤØ§Øª
ĠØ§ÙĦØµØŃ ÙģÙĬÙĬÙĨ
ĠÙĪØ« Ø§ÙĨÙĬ
ĠØ§ÙĦØ±ÙĪÙħØ§ÙĨ Ø³ÙĬØ©
ĠÙĥØª Ø§Ø¦Ø¨
ĠÙħÙħØ« ÙĦØ§
A T
ĠØ§ÙĦØ£ Ø¬ÙĬØ§ÙĦ
Ø¬Ø± Ø§ÙĨ
ĠÙĦÙĦØª Ø¹Ø¨ÙĬØ±
ĠØ§ÙĦØ±Ø¨ Ø·
ĠÙĥÙĪØ³ ÙĬÙĦØ©
ĠØ¨Ø¨Ø· Ø¡
ĠÙĥ Ø±ÙĬØ³
ĠØ§ÙĦØ¥ ØµØ¯Ø§Ø±Ø§Øª
ÙĬØ¯ ÙĪÙĨ
ÙĪØª Ø³ØªØ®Ø¯Ùħ
ĠÙĪÙĬ Ø°ÙĥØ±
Ø³ÙĨ Ø§ÙĦ
ĠØ¨Ø§ÙĦÙħ Ø§Ø¦Ø©
ĠØ¨Ø¹ ÙħØ±
ĠÙĦØ¥ Ø·ÙĦØ§ÙĤ
ĠB e
ĠÙĬÙĦ Ø²Ùħ
ĠØ§ÙĦÙĥØ§Ø«ÙĪÙĦ ÙĬÙĥÙĬ
ĠÙĩØ§Ø± ÙĪÙĨ
ĠØ§ÙĦØª Ø°Ø§ÙĥØ±
ÙĦÙĬ ÙģÙĩ
Ø§Ø¶ Ø©
ĠÙĪØ¨ Ø§ÙĦØ±ØºÙħ
ÙħØ¯ Ø§ÙĨ
ĠØ§ÙĨ Ø¯ÙħØ§Ø¬
ĠØ£Ùħ ÙĥÙĨ
ĠÙħØ¬ Ø±Ø©
ĠÙĬØŃ ÙĦ
ĠØªØµ ØŃÙĬØŃ
ĠØ§ÙĤ ÙĦ
ĠØ§Ùģ ØªØ±Ø§Ø¶
ĠØ§Ø®Øª ÙĦÙģ
ĠÙĪØ§ÙĦØ§Ø¬ØªÙħØ§ Ø¹ÙĬ
l and
ĠØ£ Ø¶ÙĬÙģ
ĠØ¹ Ø§Ø¬
ĠÙĤ ÙħØ¹
ĠØ§ÙĦØ· ÙĪØ¨
ÙģØ± Ø§ÙĨ
ØªÙĩØ§ Ø¯
ĠØ§ÙĦØªÙĨ ÙĤÙĬØ¨
ĠÙĬÙĪÙĨ Øº
ĠÙĪØ§ÙĦÙĤ ÙĪØ§Øª
ĠØŃÙħÙĦ Øª
ĠØ¥ÙĦÙĥØªØ± ÙĪÙĨÙĬØ©
ĠØ¹ ÙĤÙĬØ¯Ø©
ĠÙģÙĬ Ø³
ĠØ§ÙĦÙħ Ø¨ÙĦØº
Ø° ØªÙĩ
ĠØ® Ø§Ùħ
ĠØ§ÙĦÙģ ÙĩÙħ
ĠØ§ÙĦØ· ÙģÙĬ
ĠØ§ÙĦØªØŃ Ø¯ÙĬØ¯
ĠØªØ³ ÙĬØ±
ĠÙĦÙĦØ¥ ÙħØ¨Ø±Ø§Ø·ÙĪØ±ÙĬØ©
ĠØ§ÙĦÙĤØ¨ ÙĪÙĦ
ĠØ±ÙĪØ¨ ÙĨ
ĠØ°Ø± ÙĪØªÙĩØ§
ĠØ¨ Ø³Ø¨
ĠØ£ÙĨ Ø¯Ø±ÙĬ
Ø§Ø¹ ØªØ¨Ø±
ĠØ§ÙĦØ´ ÙĪÙĥÙĬ
ĠØ§ÙĦØ´ ÙĬØ¹ÙĬ
ÙĪÙĬ Ø°ÙĥØ±
ÙĪØ¹ ÙĨ
ĠØ¯Ø± Ø§Ø³ÙĬØ©
ĠÙħÙĬÙĦ Ø§Ø¯ÙĬØ©
ĠØ§ÙĦÙħØŃÙĬ Ø·Ø§Øª
Ø²Ø§Ùħ ÙĨ
ĠØ§ÙĦÙĦØ§Ø° ÙĤÙĬØ©
ĠÙĬ ÙĤØ±Ø±
ĠØ§ÙĦØ£ ÙĪÙĤØ§Ùģ
Ø§Ùģ Ø¹Ø©
Ø§ÙĤ ØµØ©
ĠØ§ÙĦØ´ Ø£ÙĨ
Ø¦ Ùĩ
ĠØ§ÙĦØ® Ø±ÙĬÙģ
ÙĦÙģ ÙĦ
ĠÙĬÙĨ ØªÙħÙĪÙĨ
ĠC H
Ø·Ø§Ø± Ø¯
ĠÙĤØ¯Ø± ØªÙĩ
ĠØŃØ³ Ø§Ø³ÙĬØ©
ĠÙħÙĪØ±ÙĬ Ø³
Ùħ Ø§Ø³
ĠØ§ÙĦ Ø§ÙĦÙĥ
ĠØ§ÙĦÙĦ Ø³Ø§ÙĨ
ĠØ§ÙĦÙģÙĬ ÙģØ§
ĠÙĪØ« ÙĬÙĤ
ĠÙĩØ§Øª ÙĬÙĨ
Ø¹ Ø¸Ùħ
ĠØª ÙĩÙħ
ĠÙĬ ÙĪØ¶Ø¹
Ø§Ø¨ Ø±Ø©
ĠÙĤ ÙĪÙħÙĬØ©
ÙĦÙħ Ø§ÙĨÙĬ
ĠØ§ÙĦØ± ÙĪØŃÙĬ
ĠÙĪØ¨ ØŃÙĦÙĪÙĦ
Ø§Ø¯ÙĬ Ùĥ
ĠÙĬÙĨ Ø´Ø£
ĠÙĦÙĦØ£ Ùħ
ĠØ³Ùħ Ø§Øª
ĠÙĬØ³ ÙĩÙĦ
ÙĤ Ø§ÙĦØª
ĠØ¨ Ø§Ø·
ĠÙĥ ÙħØ³
ĠØ³ Ø¹Ùī
ĠÙĨ ÙĬÙģ
ĠØ§ÙĦØ¥ Ø´Ø±Ø§Ùģ
ĠÙĪØª Ø´ÙĥÙĦ
Ø§ÙĦÙħ Ø«ÙĦ
ĠØ¨Ø£ Ùħ
ĠØ£ØŃ Ø§Ø¯ÙĬØ©
ĠÙĪØ§ÙĦØ¯ ÙĪÙĦØ©
ĠØ§ÙĦÙĥØ«ÙĬØ± ÙĪÙĨ
ĠØ§ÙĦØŃØ¯ Ø§Ø«Ø©
ĠH e
ĠÙĬÙģ ÙĪÙĤ
ĠØ·ÙĦØ¨ Øª
Ø´Ø§Ø¨ ÙĩØ©
Ġ Ø§Ø¦
ĠØ¨ Ø±ÙĥØ©
ĠÙĬ ØŃØ¯
ĠØ§ÙĦÙĨ ÙĬØ±Ø§ÙĨ
ĠØ§ÙĦÙĨ ÙĪØ¨Ø©
ÙĦØ§ ÙĪÙĬ
ĠÙĪÙĤ ÙĪØ¯
ĠØ§ÙĦÙħÙĪ Ø§Ø´ÙĬ
ĠØªØµ Ø¯ÙĬØ±
ÙĥØª Ø©
ĠØ§ÙĦØ¥Ø´Ø¹ Ø§Ø¹ÙĬ
Ùĩ ÙĨØ§
ĠØ§ÙĦØ¯ ÙĪØ±Ø§Øª
ĠÙĪÙĤ ØªÙĩ
ĠØ¨Ùħ Ø´
ĠÙħØ¯ ÙĨÙĬØ©
ĠØªÙĨ Ø¸Ùħ
ĠØŃØ¯ Ø§Ø¦ÙĤ
ĠØ§ØŃ ØªÙģØ¸
ĠØ§ÙĦØªÙĨ Ø³ÙĬÙĤ
ĠØ¬ÙĨ ÙĪ
ĠØ§ÙĦÙħÙĩ Ø§Ø±Ø§Øª
ĠÙĬØ¹Ø±Ùģ ÙĪÙĨ
ĠØµØ¨Ø§ØŃ Ø§
ĠØª ÙĥÙĪ
ĠÙĩ ÙĪØ¯
ĠÙĤ ÙĪÙĬØ§
ĠØ§ÙĦØ± Ø§Ø¦Ø¯
ĠÙĪØª Ø±Ø¨ÙĬØ©
ĠÙĪÙħ Ùģ
ĠØ§ÙĦØº ÙĨØ§Ø¦ÙĬØ©
ĠØ§ÙĦØ³ÙĬ Ø§ØŃÙĬ
ĠØ§ÙĦÙħØµ Ø§Ø¨Ø©
Ġs ize
ĠÙĤØ¯Ùħ ÙĩØ§
Ø¶ÙħÙĨ Øª
ĠØ¨ÙĪØµÙģ Ùĩ
ĠØ£ØµØŃ Ø§Ø¨Ùĩ
Ùģ ÙĩÙĪ
Ùģ ÙħØ«ÙĦØ§
Øµ Ø§ÙĩØ§
ĠÙĥ ÙĨØ§
Ø§Ø¨ Ø§ÙħØ§
ĠØ§ÙĦØ³ Ø¬ÙĦØ§Øª
ĠÙĪØ£ Øº
ĠØªØŃ Ø±ÙĬÙĥ
ĠÙħÙĤ Ø³ÙħØ©
ĠØ§ÙĦØ±Ø¦ÙĬØ³ Ø©
ĠØ´Ø®Øµ ÙĬØ§
ĠÙĦØ¨Ø± ÙĨØ§ÙħØ¬
ĠÙĨØ§Ø¯Ø± Ø§
ĠÙĪØ³Ø± Ø¹Ø§ÙĨ
ĠØ§ÙĦÙħØªÙħØ± Ø¯ÙĬÙĨ
Øª ÙĪØ³
ÙĤ ÙĪØ¯Ø©
ĠØ§ÙĦÙħ ÙģØ§ØªÙĬØŃ
ĠØª ØªÙĦ
Ø´ ÙĪÙģ
ĠÙĪØ£ Ø¹ÙħØ§ÙĦ
ĠØªØª Ø£Ø«Ø±
ØºÙĦ Ø§Ø³
ĠÙħÙĩ Ø¯ÙĬ
ĠÙĪØªØ¹ Ø²ÙĬØ²
ÙħØ§Ø¹ÙĬÙĦ ÙĬØ©
ĠÙĩØ§Ø±Ùģ Ø§Ø±Ø¯
ĠÙĬ Ø¯ÙĬ
Ø£ Ø´Ø§Ø±
ĠØ¬ Ø§ÙģØ§
ĠÙħØª ØºÙĬØ±
ĠØ§ÙĦØ² ÙħØ§ÙĦÙĥ
ĠØ¨ÙĬ Ø¶
ĠÙħÙħ ÙĦÙĥ
ĠØªØ³ ÙĥÙĨ
Ġ188 9
ĠÙħØ¨Ø§Ø± ÙĬØ§ØªÙĩ
Ø§Ø¹ ÙĪÙĨ
ĠØ§ÙĦÙĤ Ø§Ø±Ø¦
ĠØ´ Øª
ĠØ® ÙĪÙģØ§
ĠÙĪØ£ Ø¶Ø§Ùģ
ÙĨØª ÙĪ
ĠØ§ÙĦØ¢ ØªÙĬ
ĠØ§ÙĦÙĬÙĪÙħ ÙĬ
ĠÙĪØ· ÙĨ
ĠÙħÙĪØ¬ ÙĩØ©
ĠÙĦÙĬÙĨ ÙĬÙĨ
ĠÙĦÙĦØ¥ÙĨ ØªØ§Ø¬
ĠØ§ÙĦØªØ´Ø±ÙĬ Ø¹ÙĬ
g round
ØŃ ÙĪØ±
ĠØ¥ Ø¬Ø§Ø²Ø©
ĠÙĥ Ø§ÙĦÙĬ
Ø§ØŃ ØªÙĩØ§
ĠØ§ÙĦÙģ Ø§Ø¦ÙĤØ©
ĠÙħØŃ ØªØ±
ÙĨØ§ ÙĪØ¨
ĠØ¨ØŃ Ø¬Ø©
ĠØ§ÙĦÙħÙĪ Ø§Ø¬ÙĩØ©
ĠØ§ÙĦØªÙĤ ÙĨÙĬ
ĠS c
ØªØ² Ùĩ
ĠØ§ÙĦØ¥Ø¹ÙĦ Ø§ÙĨØ§Øª
ĠØ§ÙĦÙħØ§ÙĦ ÙĥÙĬ
ĠØ§ÙĦØ¥ÙĨØªØ§Ø¬ ÙĬØ©
ĠØ³Ø±Ø§ØŃ Ùĩ
ĠØ£Ø¹ÙħØ§Ø± ÙĩÙħ
ĠÙģ ÙĦÙĬ
ĠØ§ÙĦÙħ ÙĪØ§ÙĨØ¦
Ø´ ÙĩØ±
ĠØ§ÙĦØ£ Ø²ÙĬØ§Ø¡
ĠØ¬ ÙĦØ¯
ÙĪØ§Ø¬ Ø²
ĠÙĥØ± Ùħ
ĠØ§ÙĦÙģÙĤÙĩ Ø§Ø¡
ĠÙĦ Ø¹Ø±Ø¶
ĠÙĩ Ø·ÙĪÙĦ
ĠØ§ÙĦØ¨ Ø±Ø¯
ØªÙĬ Ø§ÙĦÙĩ
Ø¹ÙĦ Ø§ÙħØ©
Ø§Ø³Ùħ Ùĩ
ĠØªØ± Ø§ÙĥÙħ
ĠÙĪØ§ÙĦØŃ Ø±Ø¨
ĠØ§Ø´ ØªÙĤ
ĠÙĪÙħØ± Ø§ÙĥØ²
ĠØ§ÙĦÙĨØ² Ø§Ø¹Ø§Øª
ĠØ¥ÙģØ± Ø§Ø²
Ø³ ÙĬØ±
Ø³ Ø·Ø©
ĠÙħ Ø«ÙĬØ±
ĠÙħ ÙģÙĬØ¯
ĠØ¨ ØºÙĬØ±
ĠØª ÙģØ§Ø¹ÙĦØ§Øª
ĠØ¥ ÙĦÙĤØ§Ø¡
ĠØ§ÙĦØ£ ÙģØ¹Ø§ÙĦ
Ø±ÙĬ ÙĥØ§ÙĨ
ĠØ§ÙĦØª ÙĤÙĬÙĬÙħ
ĠØ§ÙĦÙĤ ÙĩÙĪØ©
ĠÙħØ¹Ø¯ Ø§Øª
ĠØ¥ÙĦÙĥØªØ± ÙĪÙĨÙĬ
Ø§Ùħ ÙĬÙĥ
ĠÙĥ ÙĦÙĬØ¨
ĠÙĩ ÙĬØ§ÙĥÙĦ
Ø§Ùģ Ø¤
ĠØ§ÙĦØ¥ Ø¶Ø§ÙģÙĬØ©
Ø§ÙĨØª Ø§
ĠØ§ÙĦØ· ÙĤÙĪØ³
ĠØ² ÙĥÙĬ
ĠØ§ÙĦØ³ÙĦ Ø§Ø¬ÙĤØ©
Ø¬Ø² Ø¦Ø©
ĠØ§ÙĦØ£Ø± Ø¬ÙĦ
ĠÙħØº Ø±Ø¨ÙĬØ©
ĠØ¨ØªØŃ ÙĪÙĬÙĦ
ĠÙħÙĪØª ÙĪØ±Ø²
ĠØªÙĪÙĦ ÙĬÙĩ
ĠÙĪØ§ÙĦÙħØ¯ ÙĨ
ĠÙĦÙĪØŃ Ø¸
ĠÙħØªÙĥ Ø§ÙħÙĦØ©
ĠÙĪØ¬Ø² Ø¡
ĠØ§ÙĦØ¨Ø±ÙĪÙĨ Ø²ÙĬ
r ess
Ùħ Ø¨
ĠÙħ Ø±ÙĬ
ĠÙħ ÙĥØ§ÙĨØª
ĠÙģ Ø§ÙĬ
ĠÙĦ Ø¨ÙĬØ¹
ĠØ§ÙĦÙħ ÙĪØŃØ¯Ø©
ĠØª Ø®Ø¯Ùħ
ĠØª Ø¯ÙĩÙĪØ±
Ø£ Ø¸ÙĩØ±Øª
ÙĪÙĦ ÙĩØ°Ø§
ĠÙħØŃ ÙĬ
ÙĪÙģÙĬ Ø³ÙĪØ±
ĠØ¨Ø¹ ÙĦÙħ
ĠØ§ÙĦØ«ÙĦØ§Ø« ÙĬØ©
ĠØ§ÙĦØ£Ø³ØªØ± Ø§ÙĦÙĬ
Ø£ ÙĤÙĬÙħØª
ĠØ§ÙĦØ¹ Ø±Ùģ
ĠØ§ÙĦÙĨ Ø§ØµØ±Ø©
ÙĪØ¨ ÙħØ§
ĠÙħØª Ø¹ÙĦÙĤØ©
ĠØ§ÙĦÙħØª ÙĪÙģØ±Ø©
ĠØ§ÙĨØª ÙģØ§Ø¶Ø©
ĠØ§ÙĦÙĪÙĤ Ø§ÙĬØ©
ØªØ¹ Ø§Ø¯
ĠÙĤØµ Ø§Ø¦Ø¯Ùĩ
ĠØ§ÙĦØ³Ø± Ø·
ĠÙĪØ§ÙĦØ¥ÙĨ Ø¬ÙĦÙĬØ²ÙĬØ©
ĠØ§ÙĦØ§ÙĨÙģ ØµØ§ÙĦ
ĠØ§ÙĦØ¥ØŃØµ Ø§Ø¡Ø§Øª
ĠÙĪ Ø¯ÙĬÙĨ
ĠÙĪ Ø¹Ø±
ĠÙģ Ø¯Ø§ÙĨ
ĠØ£ ÙĤØ¯Ø§Ùħ
ĠÙģÙĬ ÙĥØªÙĪØ±
Ø£ ØŃØ¯Ø§Ø«
ĠØ§ÙĦØ£ Ø¹Ø±
ĠÙĦÙĦ Ø§Ø®
Ø®ÙĦ Ø§ÙģØ©
ĠØ£Ø´ Ø¹Ø§Ø±
ĠØ§ÙĦØ§Ø® ØªØµØ§Øµ
ĠØ§Ø³ØªÙĨ Ø§Ø¯Ø§
I S
Ġ á
ĠÙģ ÙĪØ±Ø§
ĠØ¹ ÙĬÙĨØ©
ĠØ¨Ø§ÙĦ ÙħÙĦ
ĠØ¨Ø§ÙĦ Ø®Ø·
Ø§ÙĤ ÙĬÙĨ
ĠØ§ÙĦØ® ÙĪØ§Ø±
Ø¬ÙĦ ÙĪ
ĠÙħØª Ø³
ĠÙħØ³ Ø¬ÙĦ
ØµÙģ ØŃØ©
ĠÙĪØ§ÙĦØ£ Ø¹ÙħØ§ÙĦ
ĠØ¹ÙħÙĦ Ø§
ĠØ§Ø¹ ØªÙĤØ§Ø¯
ĠØ§ÙĦÙħÙĤ Ø§Ø¨Ø±
ĠØ§ÙĦØ®Ø· Ø·
ÙĤØ§Øª ÙĦ
Ø§ÙĨØ³ ØŃØ§Ø¨
ĠØ§ÙĦØŃÙģ Ø±ÙĬØ§Øª
Ùħ Ø³Øª
Ø§Ø¡ Ùĩ
ØµÙĨ Ø§Ùģ
ĠØ§ÙĦÙĩÙĬ Ø¦Ø§Øª
ĠØ®Ø¶Ø± Ø§Ø¡
l l
Ø§ÙĦ ÙħÙĦ
ĠÙħ ÙĬÙĥ
ĠØ£ ÙĦÙĬØ§Ùģ
ĠØ§ÙĦØ¹ ÙĪØ¯
ĠØ¬ Ø±Ø¬
Ø§Ø¬ Ø±Ø©
ĠØµ ÙĬÙģØ§
Ø³Ùħ Ø¹
ĠØ¶ Ø±Ø±
ĠÙĬÙĨ Ø¸Ùħ
ĠÙĪÙģ ÙĨ
ĠÙĦØ£ Ø¯Ø§Ø¡
ÙĪØ· ÙĬÙĨ
ĠØ£ÙĦÙģ ÙĪÙĨØ³ÙĪ
ĠØ£Ùĩ ÙĦÙĬØ©
ĠØ¨Ø£ÙĥÙħÙĦ Ùĩ
ÙĤ ÙĬÙħØ©
ĠØ¥ Ø±Ø¨
ĠØ£ÙĪ Ø¶ØŃ
ĠØ¬ÙĨ Ø³ÙĬØ©
ol d
ĠØ®Ø± Ø§Ø³Ø§ÙĨ
ĠÙĦÙĥÙĪÙĨ Ùĩ
ĠØ§ÙĦÙĨØ§Øµ Ø±ÙĬ
Ø§ÙĦ ÙģÙĬÙĦÙħ
ÙĨ ÙĪØ§Øª
ĠØ§ÙĦÙħ Ø§ÙĦÙĥ
ĠØ§ÙĦØ£ ÙĤØ¯Ùħ
ĠØ¬ Ø¯Ø¯
ÙģÙĬ ØŃØ©
ĠØ± ÙħØ³ÙĬØ³
ĠØ´ Ø¨ÙĬÙĩ
ĠØ§ÙĦØ£ÙĨ ØµØ§Ø±
ÛĮ ÙĨ
ĠØ§ÙĦØ¨Ø§Ø± Ø²ÙĬÙĨ
ĠÙĨÙĪ ÙĪÙĬØ©
ÙĪ Ø®Ø©
ĠØ¹ ÙĬÙĨØ§Øª
ĠØŃ Ø±Ø¨ÙĬØ©
ĠØ§ÙĦØŃ ÙĦÙĪÙĦ
Ø§ÙĦÙħ Ø¬ÙħÙĪØ¹Ø©
ĠÙħØ± Ùĩ
ĠØ§ÙĨØª ÙĤØ¯
ĠØ§Ø¹ ØªØ±Ø§Ø¶
ĠØ£ÙĤ ØµØ±
Ø§ÙĦØ³ ÙĬØ±Ø©
Ġ188 0
ĠØ§ÙĦÙħØ³Ø±ØŃ ÙĬØ§Øª
ĠØ¨ØŃØ« Ø§
ĠØ§ÙĦØ¬Ø³ Ø¯ÙĬØ©
ĠÙĪ ÙĪØ¬Ø¯
ĠØ¥ Ø¯Ø±Ø§Ø¬
ĠØ§ÙĦØ£ ÙĪØ¨Ø±Ø§
ĠØ§ÙĦØ¨ ÙĨØ§
ĠØ´ ØŃÙĨ
ÙĪÙĬ Ø³ØªØ®Ø¯Ùħ
ĠØ§ÙĦØº Ø²ÙĦ
ĠÙħØ«ÙĦ Ø«
ĠØ§ÙĦØ¬ÙĨ Ø³ÙĬÙĨ
ĠÙĬ Ø§ÙĨ
ĠØ¯ Ø¨ÙĦ
ĠØ§ÙĦÙħØ¨ Ø§Ø¯Ø±Ø©
ÙĪÙħÙĨ ÙĪÙĦØ«
ĠÙĬÙĦ Ø§ØŃØ¸
Ø±Ø§ØªÙĬØ¬ ÙĬØ§Øª
ĠØ¨ ÙĪØ¬
ĠØ´ ÙĬØ¨
ĠØ® Ø§ÙĦÙĬØ©
ĠØ§ÙĦØµ Ø§Ø¯ÙĤ
ĠÙĪØ¹ ÙĦÙĬÙĩ
ĠÙħØ® ÙĬÙħ
ĠØ§ÙĦØªØ£ ÙĥØ¯
ĠÙħÙĪÙĨ ØªÙĬ
ĠØªÙĤØ¯ ÙĬØ±Ø§Øª
ĠØ£ ÙĤØ§ÙĦÙĬÙħ
ĠÙĥ ÙĬÙĪ
ĠØ¬ Ø¯ÙĦ
ÙĨÙĬ ÙĩØ§
ÙĢ Ø¯
ĠØ¹Ø¨Ø¯ Ùĩ
on s
ĠØ§ÙĦØ®Ø· ÙĪØ§Øª
ĠØªØ¨ Ø«
Ø§Ø¯Ø« Ø§Øª
ĠØ§ÙĦÙħÙħØªØ§Ø² Ø©
ĠØ§ÙĦÙĩØ¶Ùħ ÙĬ
ĠÙĦØ´Ø± Ø§Ø¡
ÙĬ Ø¹Ø±Ùģ
Ø¹ Ø§Ø±Ø©
ĠÙħØ¹ Ø±
ĠØ® ÙĨ
ÙĦÙħ Ø³
ĠØ§ÙĦØ¯ ÙĪØŃØ©
ĠØº Ø²Ø§
Ġ18 30
ĠÙģØ± Ø³
ØªØ¹ Ø§ÙĦ
ĠÙħÙĥØ§ÙĨ Ø§
ĠØ§ÙĦØªØ³ ÙĪÙĬÙĤ
ĠÙĬØ³ØªØ®Ø¯Ùħ ÙĪÙĨ
ĠÙĬÙĥ ØªØ´Ùģ
ÙĬØ±ÙĪØ³ Ø§Øª
ĠØ§ÙĦÙĪØ¸ ÙĬÙģÙĬØ©
Ø² Ø¹Ùħ
ĠØ§ÙĦØ¬ Ø±ÙĬØ¯Ø©
Ø§Ø³Øª Ø±
ØªØ± Ø§ÙĤ
ĠØ§ÙĦØµ Ø¹Ø¨Ø©
ĠØ§ÙĦÙĩ ÙĦ
ĠØ§ÙĦÙħØŃ ÙĤÙĤ
ĠØ£Ø¯ ÙĪÙĬØ©
Ø³ÙĦØ³ÙĦ Ø§Øª
ĠÙģØ¹ ÙĦÙĬ
ĠØ§ÙĦÙħØ« Ø§ÙĦÙĬØ©
ĠÙĬØ´ÙĥÙĦ ÙĪÙĨ
ĠØ§ÙĩØªÙħØ§Ùħ Ùĩ
ĠØ´ÙĪ Ø§Ø·Ø¦
ĠÙħØ¤ÙĤØª Ø©
ĠØªÙĥØ±ÙĬ Ùħ
ĠÙĦÙĦØ§Øª ØµØ§ÙĦØ§Øª
ĠØ§ÙĦØ®Ø¯ÙĬ ÙĪÙĬ
ĠÙħ Ø§Ø¦ÙĬØ©
ĠØª Ø·ÙĦØ¨
ĠØ§ÙĦÙĨ ÙħØ±
ĠØ§ÙĦÙĥ ÙĬ
ĠØ¶ Ø¦
ĠØ§ÙĦÙħØŃ Ø·Ø§Øª
Ø¶Ø§ ÙĩØ§
ĠÙĨÙĪØ¹ Ùĩ
ÙĪØ¡ Ø©
ĠØ§ÙĦÙĨÙĤ ÙĪØ¯
ic al
ĠÙĦÙĦØ¯ ÙĦØ§ÙĦØ©
ĠØ§ÙĦÙĨÙĩØ± ÙĬÙĨ
ĠØ¹ Ø§Øª
ĠØ³ ÙħØ§Ø¹
ĠÙĪØŃ ÙĤ
ĠØ§ÙĦØ¬Ùħ Ø¬ÙħØ©
ĠØ§ÙĥØª Ø³Ø¨
ĠØ£ ÙģØª
Ø£ ØµØ¯Ø±
ĠØ§ÙĦØ£ Ø¦ÙħØ©
ĠÙĪØ§ÙĦ Ø¹ÙĦØ§Ø¬
Ø§Ø¦ Ø¨Ø©
ĠØ§ÙĦØ¬ ÙĪØ±
ĠÙħØ¹ ÙĤØ¯
ĠÙĪØª ÙĦÙĥ
ĠØº ÙĬÙĨÙĬØ§
ĠØ¨ÙĦ Ø§Ø·
ĠØ¹ÙĦÙĬÙĩ ÙħØ§
ĠÙĦÙĨ ÙĩØ±
ĠØ¨Ø§ÙĦÙĦ Ø¹Ø¨
ĠØ¥Ø¨ Ø±ÙĬÙĦ
ĠØªØ´ÙĬÙĦ Ø³ÙĬ
M A
ĠÙĨ ÙĬØ³
ĠÙĪÙĬ ØµØ¨ØŃ
ĠØ£Ø´ Ø§Ø±Øª
ĠÙĪØ´ ÙĤÙĬÙĤ
ĠÙħÙĪÙĤØ¹ Ùĩ
ĠI S
ĠØ§ÙĦØ®Ø´ Ø¨ÙĬØ©
ĠØ§ÙĦÙĨÙĤÙĬ Ø¶
ĠØ§ÙĦØ¨ØºØ¯ Ø§Ø¯ÙĬ
Ø¨ ÙĪØ±ÙĨ
ĠØ¬ ÙĪØ§Ø¯
ĠØ§ÙĦØµ Ø§ÙĦØŃØ©
ĠØ§ÙĦÙħÙĨ ÙģÙī
ĠÙĪØ¨ Ø§ÙĦØªØŃØ¯ÙĬØ¯
ĠÙħØ± ÙĪØ±Ø§
ĠØ§ÙĨØª Ùĩ
ĠØ§ÙĦÙħØµ Ø§Ø±Ø¹Ø©
ÙĬÙĨÙĬ ÙĪÙħ
ĠÙĪØªØ¹ ÙĦÙħ
ĠÙĥÙĬ Ø§ÙĨ
Ø§ ÙĪØ§Øª
Ø± ÙĪØ§
ĠÙħ Ø§ÙĩØ±
Ø´ ÙĪÙĨ
ĠÙĪØ§ÙĦ ØµÙĨ
ĠØ³ Ø¤Ø§ÙĦ
ĠÙĦÙĦ Ø·ÙĦØ§Ø¨
ĠØ§ÙĦØ¥ ÙĬØ«
ĠØ§ÙĦØ® Ø¨ÙĬ
ĠÙħØŃ Ø·
ĠÙĦÙħ Ø³Øª
ĠÙħØª Ø£
ĠÙĪØ¥ ÙĬØ±Ø§ÙĨ
ĠØ§Ø¹ ÙħØ§ÙĦ
ĠÙĪØ¯ Ø¹Ø§
ĠÙĪÙĦÙĬ Ø¯
ĠÙĪØ§ÙĨØª Ø´Ø§Ø±
Ġ189 5
ĠÙħØ¯Ø± Ø³Ø§
ĠØ£ÙħÙĦ Ø§Ùĥ
ĠØ§ÙĦØŃ ÙĪ
ØµÙĦ Ø§ØŃÙĬØ©
ĠÙĦØª Ø¬
ĠÙĪØ§ÙĦØ£ Ø®
ĠÙģØ± Ø¯ÙĬÙĨØ§ÙĨØ¯
ĠØŃÙĥ Ø§ÙĬØ©
ĠÙĦÙĦØ¯ ÙĪÙĦ
ĠÙĤÙĦ ÙĪØ¨
ĠØ§Ø¨ØªØ¯ Ø§Ø¦ÙĬØ©
Ùģ Ø¹ÙĦ
ĠØ¨ ÙĬØ¨
ĠØ§ÙĦÙħ Ø¨Ø¯
Ø§Ùħ ÙĩØ§
ĠÙĬ ÙĪØ±
ĠØ¹ÙĨ ÙĤ
ĠÙĦÙĦÙħ Ø§Ø¯Ø©
ĠØ£ØŃ Ø²Ø§Ø¨
ĠØ§ÙĦÙħÙħÙĦ ÙĪÙĥÙĬ
ĠØŃ Ø§Ø±Ø©
ĠØ¬ ÙĦÙĬ
Ø¦ Ø¨ÙĤ
ĠÙĪØ¨ Ùĩ
ĠÙĪØŃ ÙĤÙĪÙĤ
ĠÙĬØª ÙĪÙĤØ¹
ĠØ³Ø¨ Ø£
ĠØ¨ØŃ Ø¶ÙĪØ±
ĠØ§ÙĦØ³ÙĦ Ø¨ÙĬ
ĠÙĨÙģØ³ ÙĬØ©
ĠÙĬØŃ ÙĤ
ĠØ§ÙĦØ£ØŃ Ø¬Ø§Ø±
ĠÙħÙĬØ² ÙĪØ±ÙĬ
ĠØ¨Ø§ÙĨØª Ø¸Ø§Ùħ
ĠØ· Ø§Ø¨ÙĤ
ÙĪØ« Ø§Ø¦ÙĤ
ĠØ§ÙĦØ¹Ùħ ÙĬÙĤ
Ø§ÙĦÙĨ Ø´Ø£Ø©
ĠÙĬÙģ ÙĤØ¯
ĠØ§ÙĦØ¨ØŃØ« ÙĬØ©
l an
ÙĪÙĦ ÙĪØ§
ĠØ§ÙĦØª ÙĪØ³
ĠÙħØ¹ ÙĨØ§Ùĩ
ĠØ§ÙĦÙģ ÙĨØ¯ÙĤ
ÙĨØ¯ ÙĪ
ÙĪÙĥ Ùĩ
ĠØ§ÙĦÙħØª ØºÙĬØ±Ø§Øª
ĠÙĪØ¥ Ø³Ø±Ø§Ø¦ÙĬÙĦ
ĠØ´Ø®Øµ ÙĬØªÙĩ
ĠØ§ÙĦØ§ÙĨØª Ø±ÙĨØª
Ø·Ø§ÙĦ Ø¨Ø©
ĠÙĦÙħØ¹ Ø¸Ùħ
ĠØªØ´ÙĬ ÙĬØ¯
Ø§Ùħ ÙĪØ³
ĠØ® Ø±ÙĬÙģ
ĠØ§ÙĦÙģ Ø®
ĠØ¹Ø§Ùħ ÙĦØ§
ĠÙĪØª Ø¹Ø±Ø¶
ĠÙĪØ¨ ÙħØ§
ĠÙĪØ¨ Ø§ÙĦØ£
ĠÙĥØ± Ø³ÙĬ
ĠÙĨÙĪ ÙĪÙĬ
e e
Ġ as
ĠØ§ÙĦÙħ Ø³ÙĦØŃ
ĠØ³ ÙĬÙĥ
ĠØ¬ ÙĪØ±
ĠØ¬ ÙĬØ¬
ĠØ¯ Ø§ÙĦ
ĠØ§ÙĦÙģ ØªØ±Ø§Øª
Ø¨ÙĬ Ø·
ĠÙĥØ¨ Ø¯ÙĬÙĦ
ĠØ¹Ùħ ÙĬÙĤØ©
ĠØ§ÙĦÙħØ§ÙĦ ÙĥØ©
ĠØ£Ø±Ø³ÙĦ Øª
ĠØ§ÙĦØ§ØŃØªÙĬ Ø§Ø¬Ø§Øª
ĠØ³Ø· ÙĬÙģ
ĠÙģ ÛĮ
ĠØ§ÙĦÙħ ÙģØ¹ÙĪÙĦ
ĠØ§ÙĦØª Ø¯ÙģÙĤ
ĠØ¯ Ø§ÙģØ¹
ĠØ§ÙĦØ¬ Ø§Ùģ
ĠØ§ÙĦØ¹ÙĨ ÙĤ
ĠØ£ÙĩÙĦ Ùĩ
ĠÙĪØ§ÙĦÙħÙĨ Ø·ÙĤØ©
ĠØ§ÙĦØ°ÙĥØ± Ùī
ĠØ¥Ø´Ø¨ ÙĬÙĦÙĬØ©
s k
Ø§ÙĦ Ø¹ÙħÙĦ
ĠØ³ ÙħØ±
ĠØ§ÙĦØ¨ Ø±ÙĤ
ĠØ± Ø¶ÙĬ
ØªÙĬ Ø¨Ø§Øª
ĠØ² Ø§Ø¦Ø±
ÙĪØ§ÙĨ Ø§
ÙĪØ£ Ø®
ĠØ¨Ùĥ ÙĬÙĨ
ĠØ¨Ùĥ Ø§ÙħÙĦ
ĠØ§ÙĦÙģÙĨ ÙĦÙĨØ¯ÙĬ
ĠÙĦÙĦØ³ ÙĬØ¯Ø§Øª
ĠÙĪØ§ÙĦØªÙĤ ÙĨÙĬØ©
ÙĨ Ø¯Ø©
Øª Ø¹ÙĦ
ĠØ¨ Ø¨ÙĦ
ĠØ¨Ùħ Ø´Ø§Ø±ÙĥØ©
ÙĪØ§ÙĨ ÙĬØ§
ĠÙĨØ´Ø± Ùĩ
ĠØ§ÙĦØŃÙĤ ÙĪÙĦ
ĠÙĩØ§Ùħ Ø¨ÙĪØ±Øº
ĠÙħ Ø³ÙĦØŃØ©
ĠØ§ÙĦÙħ ÙĬØ±
ĠÙĪØ§ÙĦ Ø¹Ø±
ĠØ· ÙĬÙģ
Ø«Ø± ÙĪØ©
ĠØ§ÙĦÙħØŃ Ø§ÙĪÙĦØ§Øª
ĠØªØª ÙĨØ§ÙĪÙĦ
ĠØ¨Ø£ÙĨ ÙĪØ§Ø¹
ĠÙĪØ§ÙĦØŃ ÙĥÙĪÙħØ©
ÙĪØ³Ùģ ÙĪØ±
ĠØ§ÙĦÙĨØ¬Ùħ ÙĬØ©
ĠÙĥØ±ÙĬØ³Øª ÙĬØ§ÙĨ
ÙģÙĦØ§Ø· ÙĪÙĨ
ĠÙģÙĬ Ø¯Ø±
ĠØ¥ ÙĤØ±Ø§Ø±
ĠÙĥ ÙĪØª
ĠÙĪØª ØªÙħ
Ø£Ø³ Ø³Øª
ĠØ§ÙĦÙħØª Ø£Ø®Ø±
ÙĪØŃ ØªÙī
ĠÙħØ¬ ØªÙħ
er n
ÙĪÙĨÙĬ ÙĪÙĨ
ÙĪØ³Øª Ø§Ùģ
ĠÙĨØ´Ø§Ø· Ø§Øª
ÙĬÙĨØª Ø´Ø±
ÙĨØ² ÙĬØ±
ĠÙģ Ø§ÙĦØ£
ĠØª ÙĪØ¶ØŃ
ĠØ³ ÙĬÙħÙĪÙĨ
Ø§Ø¯ ÙĬØ§
ĠØ§ÙĦØ¹ ÙĦÙĬ
ĠØ§ÙĦØ¨ Ø®Ø§Ø±
Ø¯ÙĬØ¯ Ø§ÙĨ
ĠÙĪÙĤ ÙĪØ§Øª
ĠØ§ÙĦÙħØ± Ø§Ø³
ĠØ§ÙĦÙħØ¯ Ø§Ø±ÙĬØ©
ĠØ§Ø³ Ø¨
ĠØ£ÙĦ Ø§Ø¨Ø§ÙħØ§
ĠØµÙĬ Øº
Ã ¤
ÙĪ ÙĥØ±
ĠØ£ÙĨ ÙĪ
ĠØ§ÙĦØŃ Ø±ÙĬÙĤ
ĠØµ ÙĬØ¯Ø§
ĠP h
ĠÙĦÙĦØ¹ ÙĦÙħ
ĠÙĨØ¸ ÙĬØ±
ĠØ§ÙĦØ¹ÙħØ± Ø§ÙĨÙĬ
ĠØ§ÙĦØ¬Ø²ÙĬ Ø¦ÙĬ
t a
ĠØ¨ Ø®ÙĦØ§Ùģ
Ø§Ùħ ÙĬØ§
ÙĬØ± Ø²
ĠØ§ÙĦØª ÙģØ§Ø¶
ĠÙħØ¹ Ø§ÙĨÙĬ
ØªØ± ÙĪÙĨÙĬØ©
ĠØªÙĨ Ø³
ĠØ§ÙĦØ£ÙĨ Ø¨Ø§Ø¡
ĠØ¨ÙĤ Ø±ÙĬØ©
ĠÙĤÙĬ ÙĪØ¯
ĠÙħÙĬØ² Ø§ÙĨÙĬØ©
Ùħ Ø¬ÙħÙĪØ¹Ø©
ĠÙĪ ÙĪØ²
ĠÙĪØ§ÙĦ ÙĩÙĬ
ĠØ¯ Ø§ÙħØª
ĠØ§ÙĦØ¨ Ø´Ø±Ø©
ĠØ§ÙĦØ± Ø¶Ø§
ØªØ± ÙĬØ©
ĠÙĤØ¯ ÙħØ§
ÙĤØ§ ÙĩØ§
ĠØ§ÙĦÙģØ± Ø¯ÙĬ
ĠØ§ÙĦØ¯Ùħ Ø´
ĠØ§ÙĦÙģØ±ÙĬÙĤ ÙĬÙĨ
ĠÙĪØµÙģ Øª
ĠÙĪØ§ÙĦ Ø§Ø±
ĠØ® Ø¯
ĠØ§ÙĦØ¥ Ø´
ÙĪØ¨ Ø¯Ø£
ĠÙĪØ£ Ø±Ø¨Ø¹ÙĬÙĨ
ĠØ§Ø³Øª ÙģØªØ§Ø¡
Ø¬Ø¯ ÙĪÙĦ
Ġc odice
ĠÙĪØ§ÙĦÙĥ ØªØ§Ø¨
ĠØ§ÙĦØ¹Ø¶ ÙĦÙĬ
ĠÙĬÙĤÙĪÙĦ ÙĪÙĨ
ĠØ§ÙĦØ¨Ø¯ ÙĨÙĬØ©
ĠÙĥØ£ ØŃØ¯
ĠØ¨ÙĦØ§ ÙĬ
ĠÙĬÙħÙĨ ØŃ
ĠØŃØµÙĪÙĦ Ùĩ
ĠÙĬÙĨØª Ø¸Ø±
Â «
ĠØ£ Ø¹Ø±Ùģ
ĠÙĦ Ø¹ÙħÙĦÙĬØ§Øª
ĠØ§ÙĦÙħ ÙĤØ·Ø¹
ĠØª Ø±ÙĤ
ĠÙĬ ÙĪÙĩØ§ÙĨ
ĠØ§ÙĦÙĤ ÙĪØ³
ĠØ´ ØŃÙĨØ©
Ø§Ø¬ ÙĬÙĦ
ØªØ± ÙģØª
ĠÙħØµ ÙĬØ±
ĠÙĪØ³ Ø§Ø¹Ø¯
ĠØ§ÙĦØ£ØŃ ÙħØ¯
ĠÙħÙģ Ø§Ø¬
ĠÙĪÙħØ³ Ø¬Ø¯
ĠØ¹Ø³ÙĥØ±ÙĬ Ø§
ĠØ¯ÙĬÙħ ÙĤØ±Ø§Ø·ÙĬØ©
ÙĬ Ø¨Ø¯ÙĪ
ĠÙĩ ÙĪØª
ĠØ§ÙĦÙĪ Ø±ÙĬ
ĠØªÙĥÙĪÙĨ Øª
ÙħØ¹ ÙĨÙī
ĠÙĦÙĦØª Ø®
ĠØ¹ÙĤ ÙĪØ¨Ø©
ĠØ§ÙĦØ¬Ø²Ø§Ø¦Ø±ÙĬ ÙĬÙĨ
ĠØ£ Ø¹ØªÙĤØ¯
Ø´ Ø§ÙĨ
ĠØ³ Ø§Ø±Ø©
ĠØ³ ÙĩÙĦØ©
Ø±Ø¬ Ø§Ø¡
or ld
ĠØ£Ø« Ø±ÙĬ
ĠØ§ÙĦØµØŃ ÙģÙĬØ©
ĠØ§ÙĦÙĤØ· Ø±ÙĬØ©
ĠØ¨Ø±ÙĬ Ø³Øª
Ø£Ùĥ Ø¨Ø±
ĠØ®Ø¨Ø± Ø§Ø¡
ĠÙĪØ§ÙĦÙĩØ± Ø³Ùĥ
ĠØ§ÙĦØ¨ Ø¹ÙĬØ¯
Ø·ÙĦ Ø§ØŃ
ĠØ§ÙĦÙħØ³ Ø¬ÙĦ
ĠØ£Ø³ ÙħØ§Ùĥ
ĠØ§ÙĦØªØ¬ Ø±ÙĬØ¨ÙĬ
ĠØ§ÙĦØ¬ÙĨ Ø§Ø¦ÙĬØ©
ĠØ§ÙĦØ§Ø® ØªØ±Ø§Ø¹
ĠÙħÙĬ Ø¯ÙĬ
ÙĪØ±Øº Ø§ÙĨ
ĠÙĪØ£ÙĬ Ø¶
ĠØ£Ø³Ø¨ÙĪØ¹ ÙĬÙĨ
ĠØ§ÙĦÙģÙĪÙĦ Ø§Ø°
ĠÙĨØ® Ø¨Ø©
ØŃ Ø§Ø²
ĠØ± Ø§Ø¦ØŃØ©
ĠØ§ÙĦÙĪ Ø±ÙĬØ¯
ĠØ¬Ùħ ÙĩÙĪØ±ÙĬ
ĠÙĪÙģ Ø¹
ÙħØ³ Ø§Ùĥ
ĠØ§ÙĦØ§ÙĨØª ØŃØ§Ø±
ĠØ¨ÙĬØ± ÙĪ
ĠÙĪØ§ÙĦØ± ÙĪÙħ
ÙĪØ§Øµ ÙĦØ§Øª
ĠØ¬Ø§Ùħ Ø¹ÙĬ
ĠÙħØµØ¯Ø± Ø§
ĠØ´Ùĥ ÙĦØ§
Ï ĥ
Ø§ÙĦ Ø°ÙĬ
ĠØ£ Ø·Ø¨Ø§Ø¡
ĠÙĦ ÙģØª
ĠØª Ø§ÙĨ
ĠØª ÙĦÙĬÙĩØ§
ĠØª ÙĪØ«ÙĬÙĤ
ĠÙĪØ§ÙĦ Ø®Ø±
ĠØ§ÙĦØ¹ Ø²
ĠØ§ÙĦØŃ Ø±ÙĥÙĬØ©
ĠØµ Ø§Ùħ
ĠÙĪØ£ Ø¨ÙĬ
ĠØ§ÙĦÙģÙĬ Ø¯Ø±Ø§ÙĦÙĬ
ĠØªØ® ÙģÙĬÙģ
ĠØ¹ÙĤ Ø¯Ø©
ĠØ§ÙĦØ±Ø¨ Ø§Ø¹ÙĬ
ĠØ£Ø¨Ø± Ø§Ø¬
ĠØ¯ÙĥØªÙĪØ± Ø§Ùĩ
ĠØ§ÙĦÙħ ØŃØ¯Ø«
ĠØ§ÙĦØ£ Ø¬ÙĦ
ĠØ¯ ÙĨ
ĠØ§ÙĦØ´ Ø¨ÙĬ
ĠØ§ÙĦÙħØ¹ ÙĬ
ĠØªÙĨ Ø´ÙĬØ·
ĠØ§Ø¹ Ø§Ø¯Ø©
ĠÙĪØ§ÙĦØ¹ ÙĤ
ÙģØ§ÙĤ ÙĬØ©
ĠÙĦÙĦØª ÙĥÙĨÙĪÙĦÙĪØ¬ÙĬØ§
ĠÙĪØ¨Ø± Ø§ÙħØ¬
ĠØ¨Ø® Ø§Ø±
ĠØ§ÙĦÙĦØ§Ùĩ ÙĪØª
ĠÙĪ ØµÙĨ
ĠØ§ÙĦÙħ ØµÙĦ
ĠÙĤ ÙĪ
ĠØ´ Ø§ÙĨ
ÙħÙĨ ÙĬ
ĠÙĪØ£ ÙĪØ§Ø¦ÙĦ
ĠØ£Ùħ Ø³ØªØ±Ø¯Ø§Ùħ
ĠØ§ÙĦÙħØ¹ Ø³ÙĥØ±
ĠØ§ÙĦÙħØ± ØªÙģØ¹
ĠÙĬØŃ ØªÙĦ
ĠØ§ÙĦÙģÙĬ ÙĦ
ĠØ¨Ø§ÙĦØ¥ Ø¹Ø¯Ø§Ùħ
ĠØ¬Ø± ÙĬÙĨ
ĠØ§ÙĦØ±ØŃ Ø§ÙĦØ©
ĠØ´Ø¯ÙĬØ¯ Ø§
ĠÙģØ±Ø§ÙĨÙĥ ÙģÙĪØ±Øª
Ùħ ÙĪØ§
Ùħ ÙĥØ§ÙĨÙĬØ©
ĠØ£ Ø±ÙĬØ¯
ĠÙĪØ£ Ø¨Ø±Ø²
ÙĤÙĬ Ùģ
ÙĪØ±ÙĬ Ùĥ
ĠÙĬØª ØµÙĦ
ĠÙĪØ§ÙĦØ£ Ø®Ø±Ùī
ĠØ§ÙĦÙģÙĬ ÙĦÙĤ
ÙĪØµ ÙĦØ©
ĠØ§ÙĦÙĥÙĩ ÙĨØ©
ĠØ§ÙĦØ§ØµØ·ÙĨ Ø§Ø¹ÙĬ
Â ·
Ùħ ÙĪÙĥ
ĠÙĪ Ø§ÙĬØª
ĠØ§ÙĦØ£ ØµØ¯ÙĤØ§Ø¡
ĠÙĪØ§ÙĦ ØµÙĨØ§Ø¹Ø©
ĠØ§ÙĦØ¥ Ø¬Ø±Ø§Ø¡
ÙĬÙħ Ø³
ÙĨÙĬ Ø®
ĠÙħØ³Øª ÙĪÙĬ
ĠØ¯Ø± Ø¬
Ø§Øº Ø±
ĠâĢ ¦
ĠÙĪØ§ÙĦØ¬ ÙĬØ´
ĠØ§ÙĦØ®ÙĦ ÙĪÙĬØ©
ĠÙĬØ£ ÙĥÙĦ
ĠØ²Ø± Ø¹
ran s
Ø«ÙħØ± ÙĬÙĨ
ĠØ§ÙĦÙħ Ø·ÙĦØ¨
Ø§Ø¨ Ø§ÙĨ
ĠÙĨ ÙĤÙĬ
Ø±Ø¨ Ø§
ĠÙĪØ§ÙĦØ£ Ø·ÙģØ§ÙĦ
ĠØ£Ø¨ÙĬ Ø¨
ÙĤØ§Ø· Ø¹
Ùģ ÙĥØ§ÙĨ
ĠÙĪ Ø¹Ø¶
ĠÙĪ Ø¨ÙĬØ¹
ĠØ£ ÙħØ©
ĠØ¹ Ø¨ÙĬØ¯Ø©
ĠÙĬ Ø¶ÙħÙĨ
ĠØ§ÙĦØ¥ ØªØŃØ§Ø¯
ÙĪÙĬ ÙĥÙĪÙĨ
ĠØ§ÙĦØ± Ø¹Ø¨
ĠØº ÙĪ
Ġ4 50
Ø²Ùħ Øª
ĠØ§ÙĦÙħÙĥ ØªØ´
ĠØ§ÙĦØ¥Ø³ ÙĥÙĨ
ĠØ§ÙĦØ£Ø³Ø¨ Ø§ÙĨÙĬ
Ø¹ Ø¬
ĠÙħ Ø·ÙĦÙĤ
ĠÙģ Ø¥
ĠØ§ÙĦØ¥ Ø¯Ø±Ø§Ùĥ
ĠÙĪØ£ ÙĤÙĦ
ÙĪØª Ø¶Ùħ
ĠÙħÙĤ Ø±Ø¨Ø©
ĠØ£Ø¹ ÙĦÙħ
ĠØ§ÙĦØ§Ø³Øª ÙĪØ§Ø¡
ĠÙĬÙĪÙħ ÙĬØ©
ĠÙħÙĦ Ø§ØŃØ¸
ĠØ§ÙĦÙĨÙĪØ¹ ÙĬØ©
ĠÙģÙĬÙĦÙĩ ÙĦÙħ
ĠØ³ ÙĪØ³
ĠØ§ÙĦØ¹ Ø§Ø¯ÙĦ
ĠÙĪÙħ Ø¬
ĠØ¨Ø± ÙĬÙĨ
ĠÙĪØ§ÙĦØŃ ÙģØ§Ø¸
ĠÙĬØ± ÙĪÙĨ
ĠØ§ÙĦØ¸ Ø§ÙĩØ±ÙĬ
ĠÙĦÙĦÙĨ ÙĤÙĦ
ĠØªÙģ ØµÙĦ
ÙĪØº Ø§
ĠÙĬÙģ Ø³Ø±
Ùħ ÙĤ
ĠØ¨ ØªÙĦ
ĠØµ Ø®ÙĪØ±
ĠØ§ÙĦØº ÙĨ
ĠØ§ÙĦØ§Ø« ÙĨØ§ÙĨ
Ġ lo
ÙĤ Ø§Ø¯Ø§Øª
ØŃ ÙĬÙħ
ØŃ Ø¨Ø§
ĠÙĬ ØŃØ¯ÙĩØ§
ĠÙĪØ§ÙĦ Ø¬Ø²Ø±
ĠØ¨Ø§ÙĦ Ø¬Ø²Ø§Ø¦Ø±
ĠØº ÙĨÙĬ
ĠØ§ÙĦÙħØ¹ Ø²
ĠÙĪÙĥ Ø«Ø§ÙģØ©
ĠÙĪØ´ Ø¨Ùĩ
ĠØ§ÙĦØ¬ÙĨ Ø¯ÙĬ
ĠØ§ÙĦÙħØ¹Ø± ÙģÙĬ
ĠÙĦÙģ ØªØ±Ø§Øª
ĠØ§ÙĦØª ØŃÙĪÙĬÙĦ
ĠØ§ÙĦØ¨ ÙĤØ±
ĠØ§ÙĦØªÙĬ Ø§Ø±Ø§Øª
ĠØ§ÙĦØ® ÙĪØ§Øµ
Ø§Ø® ØªØ§Ø±
Ġ4 000
ĠÙħØµ ÙħÙħØ©
on g
ĠØ§ÙĦÙħØ¹Øª Ø§Ø¯
ÙĨ Øµ
ĠØ¹ Ø±ÙĤÙĬØ©
ĠÙĦ Ø¨Ø·ÙĪÙĦØ©
ĠÙĦ Ø¬ÙħÙĩÙĪØ±ÙĬØ©
ØªÙĩ Ø¯
ĠØ§ÙĦÙħØ¹ Ø§Ø¯ÙĬØ©
ĠÙĬØª ÙģÙĤ
Ġ187 8
ĠÙĦÙĦÙħØ± Ø¶
ĠØ®ÙĬ Ø§ÙĦÙĬØ©
ĠØ§ÙĦØ§ÙĤ ØªØ±Ø§Ø¹
ĠÙģØ±Ø¯ ÙĬØ©
ĠØ£ØŃØ§Ø¯ ÙĬØ«
ĠØŃ ÙĤØ§
ĠØ§ÙĦÙĤ Ø¨ÙĦÙĬØ©
Ø±Ùĥ Øª
ĠØ§ÙĦØ± Ø§Ø¦Ø¹Ø©
ĠØº ÙĪÙĨ
ÙĥØ³ Ø§Ø±
ÙĤØ±Ø§Ø· ÙĬ
Ø§Ø³ÙĦ Ø·
ĠØ§ÙĦÙĪØ³ ÙĬØ·
ĠØ§ÙĦÙĤ ÙĪ
ĠØ§ÙĦØ¨ ÙĨØ§Øª
ĠØ´ ÙĪÙĨ
Ø®Ø± Ø·
ĠØªØŃ Ø³ÙĨ
ĠÙĤØ¯ ÙĪÙħ
ĠÙħØµ ØŃ
ĠØ´Ø± Ø¹
ĠØ§ÙĦØ£Ø± ÙĪØ§ØŃ
E E
ĠÙĤ ØªÙĬÙĦ
ĠØ§ÙĦØŃ Ø¨ÙĬ
Ø§Ø¬ ÙĩØ§Øª
ĠØ§ÙĦØµ Ø¹ÙĪØ¯
ĠØ§ÙĦØ² Ø§Ø¦Ø¯Ø©
ĠÙħÙĪ ØŃØ¯
ĠÙĬÙģ ØªØ±Ø¶
ĠØ§ÙĦÙģØ¹ Ø§ÙĦØ©
ĠØ§ÙĦØŃØµ Ø§ÙĨ
ĠÙħÙħÙĥÙĨ Ø©
c tion
Ġ ãĥ
ĠÙĬ Ø§ÙģØ§
ĠÙĥ ÙĩØ±
ĠØµ Ø¨ÙĬ
ĠÙĪØ£ Ø¹Ø§Ø¯
ĠÙĬØ¹ ØªØ±Ùģ
ĠØ§ÙĦÙģØ± Ø§Ø±
ĠØ³Ùħ Ø¹Ø©
Ø±Øª ÙĪÙĨ
Ġc o
ĠØ¥ÙĦ Ø§Ø¯Ø§
ĠØ§ÙĦØ¹Øµ Ø§Ø¨Ø§Øª
ĠØ¨Ø¯ÙĬ ÙĦØ§
ĠÙĦÙĥÙĪÙĨ ÙĩØ§
ĠØ§ÙĦØ³Ø¬ ÙĨØ§Ø¡
ĠÙħ ÙĪØ¶ÙĪØ¹Ø§Øª
ØŃ Ø§ÙĨÙĩ
Øµ Ø§ÙĦØŃ
ÙĪÙĦ Ø¹ÙĦ
ĠÙĦÙĦ ÙĪØ²Ø±Ø§Ø¡
ĠØ¯ Ø§Ø±Øª
Ø§Ùģ ÙĨ
ÙħÙĨ ØŃ
ĠØ« Ø¨Ø§Øª
ĠØ« ÙĤØ¨
Ø³ÙĬ Ø·
ĠØªØŃ ÙĦ
ĠÙĪØ¬ ÙĨ
ĠØ§ÙĦÙħØª ÙĪÙģÙī
ĠÙĪÙĥ Ø§Øª
ĠØ§ÙĦÙħØ± ØªØ¨Ø·
ĠØªØ¬ Ø±Ø¨
Ø¨Ø· ÙĬ
ĠØ§ÙĦÙħÙĦ Ø§Ø¹Ø¨
ĠÙĬØ´ ÙĩØ¯
ĠT e
Ġ189 4
ĠØ´Ø±ÙĬÙĥ Ø©
ĠØŃØ§Ø¬ Ø²
ÙĦ ÙħØ§
Øª Ø§Ø±ÙĬÙĪ
Ø¨ ÙĥØ§Øª
ĠÙģ Ø§Ø¯
ĠÙĦ Ø§Ø²
Ø® ÙĬÙħ
ĠÙĨ ÙĪØ§ØŃÙĬ
ĠØ§ÙĦÙĩÙĨØ¯ ÙĪØ³ÙĬØ©
ĠØ§ÙĦÙħØµØ±ÙĬ ÙĪÙĨ
ĠØ´Ø¹ ÙĪØ±
ĠØ§ÙĦÙĦØ§Øª ÙĬÙĨÙĬ
Ø¨Ø±Ùĩ ÙĨØ©
ĠØ§ÙĦØ¢Ø´ ÙĪØ±ÙĬØ©
ĠÙĬÙĪØº ÙĪØ³ÙĦØ§ÙģÙĬØ§
ĠÙħ ÙĥØ³
ĠÙģÙĬ Ø±Ø¬
ĠÙĤ ÙħØª
ĠØ§ÙĦØ¨ ÙĬØ·
ĠØ§ÙĦØ± ÙħÙĦ
ÙĨÙĬ Ø³Øª
ĠØ§ÙĨ Ø¯
ĠØ§ÙĨ ÙĩÙħ
Ø¹ÙĬ ÙĪÙĨ
ĠÙĪÙĨ Ø§ÙĦ
ĠØ§ÙĦØ£ÙĨ ÙħØ§Ø·
ĠÙĩØ§ ÙĬ
ĠÙģØ¶ Ø§Ø¦ÙĬØ©
ĠÙĬ Ø±ÙĥØ²
ĠØŃ ÙĬØ¯Ø±
ĠØº ÙĪÙĦ
Ø¹ÙĦ Ø¨
ÙĤØ· Ø¨
ĠØ§ÙĦØ³Ø¨ Ø§ØŃØ©
ĠÙĨØ´ ÙĪØ¡
ĠØ¥ Ø±ÙĬÙĥ
Ø§ÙĤ ØªØ±ØŃ
ĠØ§ÙĦØ¯ ÙĪØ§Ø±
ÙĪØ¹ Ø¨
Ø±ÙĤ Ùħ
ĠÙħØ¯ Ø§ÙģØ¹
ĠØ£Ø´ Ø¨Ùĩ
ĠØªØ£ ÙĬÙĬØ¯
ĠÙĪØ§ÙĦØ· Ø§ÙĤØ©
ĠØ¨Ø´Ø± Ø·
ĠØ£ÙħÙĨ ÙĬØ©
ĠÙĪ ØµÙĪØ±
ĠØ£ ØŃØ±Ø²
ĠÙĦ Ø§Ø¦ØŃØ©
ĠØ¥ ØŃØ±
Ø² Ø§Ø¯
ĠØŃ Ø¬Ø©
ĠØ§ÙĦØŃ ÙĬØªØ§ÙĨ
Ø§Ùģ ØªØªØŃ
ĠØ¨Ø§ÙĦ Ø£ÙĨ
ÙĪÙĤ ÙĬÙĦ
Ø¯Ø± ÙĪ
ÙĪØª ÙĩÙħ
ÙĢ Ùĩ
ĠÙĪØ§ÙĦØ¹ Ø±Ø¨
ĠÙħØ³Ø¤ ÙĪÙĦØ§
ĠÙħØ²Ø¯ ÙĪØ¬
ĠØ§ÙĦÙħØ³ØªÙĪØ· ÙĨØ§Øª
ĠØ§ÙĦØª Øº
ĠØ£ÙĨ Ø³Ø¬Ø©
ĠØ§ÙĦØ¨ Ø¯ÙĬÙĦ
ĠØ± ÙĪØ¬
ĠØ´ ÙĩØ§Ø¨
ĠØ§Ø³Øª ÙĤØ¨ÙĦ
ÙĪÙģÙĬ Ø§Øª
ĠÙĪÙĥ ÙĬÙģÙĬØ©
ĠØ§ÙĦØ¢ Ø¨Ø§Ø±
ĠØ³ÙĨ ÙĪÙĬØ©
ĠÙĦÙĬ ØŃ
ĠØ§ÙĦØŃØ± ÙĬØ±ÙĬ
ĠØ§ÙĦÙħÙĤ Ø§Ø¹Ø¯
Ø´Ùģ ÙĬØ±
Ġ188 5
ĠØ¨Ø§ÙĦÙĬÙĪÙĨ Ø§ÙĨÙĬØ©
Ø§ÙĦ Ø¬Ø²Ø¡
ĠÙħ Ø¯Ø±Ø³
ĠØ§ÙĦØ· ØŃ
ĠÙĬÙĨ ØŃØ¯Ø±
ĠÙĪÙħÙĨ Ø¸ÙħØ©
ĠÙĪØ§ÙĦØ£ Ø²
Ø¢ Ø«Ø±
ĠÙĬØ¬ ØªÙħØ¹
ĠØªØ·ÙĪÙĬØ± ÙĩØ§
ĠÙĦÙĦØ¬ Ø³Ùħ
ĠÙĬÙĥ Ø´Ùģ
ĠØªÙĦÙĤ Øª
ĠØ§ÙĦØ§ØŃØªÙģ Ø§ÙĦØ§Øª
ĠØ¨ ÙĪØ¬Ùĩ
Øº ÙĪÙĦØ§
ĠÙĦÙĦ Ø¬ÙĩØ§Ø²
ĠØ± Ø§ÙģÙĤ
ĠØ§ÙĦÙĥ ØªÙĦ
ĠÙĬØª Ø¶ØŃ
ĠØ§ÙĦØ¬Ø² ÙĬØ©
ĠØ³Ø± Ø§
Ø´ÙĤ Ø§ÙĤ
ĠÙħÙĬØ´ ÙĬÙĦ
ÙĦ ÙĪØ§
ĠØª ÙģØ¶
ĠØ¯ ÙĪØ§Ø±
Ø¸ ÙĬÙħØ§
ĠØ§ÙĦØ¬ ÙĬÙĨÙĬØ©
ĠØ§ÙĦÙĥ ÙĪØ±ÙĬ
ÙĪØ¨ ÙĩØ§
Ø§ÙĨØª ÙĪ
ÙĦØ§ ÙĩØ§
ĠÙĪØ£ Ø¯Ùī
ĠÙĪØ§ÙĦÙħ Øº
ĠØ¨Ùħ ÙĥØ©
ĠÙħØ¯ ÙģØ¹
ĠÙĦØ³ ÙĥØ§ÙĨ
ĠØ§ÙĦØ³ÙĬÙĨ Ø§Ø±ÙĬÙĪ
ĠØ±Ùģ ÙĤØ©
ĠØ¨Ø§ÙĪÙĦ ÙĪ
ĠØ£ØµØ¯ÙĤ Ø§Ø¦Ùĩ
ĠÙħÙĪØ±ÙĬØª Ø§ÙĨÙĬØ§
ĠØª Ø§Ø¬Ø±
ĠÙĪØ§ÙĦ Ø¯ÙģØ§Ø¹
ĠØ§ÙĦØª ÙĪØ§ÙģÙĤ
ĠØ§ÙĦØ¹ ÙģÙĪ
ĠØ¬ ÙĪÙĩ
ĠØ§ÙĦÙģ Ø§ØµÙĦØ©
ØªØ± Ùī
ÙĤÙĬ Øª
Ø³ÙĨ ÙĥÙĬ
ĠØ§ÙĦØªÙĤ Ø§Ø·
ĠØ§ÙĦÙĥØ«ÙĬØ± ÙĬÙĨ
ĠØ§ÙĦØ¯ÙĬ ÙĪÙĨ
Ġ189 2
ĠØŃØ¯ÙĪØ¯ ÙĩØ§
Ø§ ÙĬÙĨØ©
ĠØ§ÙĦ ÙĬÙĨ
ĠÙħ Ø§Ø¦ÙĬ
ĠÙĪØ§ÙĦ Ø®ÙĬ
ĠØŃ Ø¬Ø±Ø©
ĠØ³ ÙĩÙĪÙĦØ©
ĠÙĩ Ø§ÙĦ
ĠØ¬ ÙĪÙģ
ĠØ§ÙĦØ° Ø±ÙĬ
ÙĪÙĤ ÙģØª
ĠÙħØª ÙĪÙĤØ¹
ĠØªØ· ÙĪØ±Ø§
ĠØ³Ùħ ØŃØª
ĠÙħÙĪÙĤØ¹ Ø§
ĠØ§ÙĦÙĦÙĬ Ø²Ø±
ØµÙĬ Ø§ÙĨ
ĠØªØ§ ÙĬÙĪØ§ÙĨ
i x
ĠØ§ÙĦØ³ Ø¬ÙĪÙĨ
ĠØ¯ ÙĪØ§Ø¡
ĠØ§ÙĦÙĥ Ø±ÙĬÙħØ©
ĠØ¨ÙĨ Ø§Ø¦Ùĩ
ĠØ¨ÙĦ Ø§ÙĨÙĥ
ĠØ§ÙĦÙħØª Ø£
ĠÙĪÙĤØ¯ Ø±
ĠØ¬Ø² Ø§Ø¦Ø±ÙĬ
ĠØ§ÙĦØªÙĨ ÙģØ³ÙĬ
ÙģØ§ ÙĩÙħ
ĠÙħÙĩ ÙĨØ¯
ĠØ§ÙĦÙĨØ³ Ø§Ø¦ÙĬØ©
ĠÙħÙĨØ¸ ÙĪÙħØ©
ĠØ§ÙĦØŃ Ø°Ùģ
ØªÙħ Ø©
ĠÙĪØª Ø¯ÙħÙĬØ±
ÙĪØ§Øª ÙĬØ©
ĠØ§ÙĦØ§Ø³Øª Ø¦
ĠØ¹Ùħ ÙĬØ¯
ØµÙĬ ØŃØ©
ĠÙĩØ§ ÙĪØ³
ĠØ¹Øµ Ø¨Ø©
Ġâ Ĩ
ĠÙĨ Ø¶
ĠÙĦÙĦ Ø¯Ø±
ĠØ§ÙĦØ¥ ØµØ§Ø¨Ø§Øª
ÙĥÙĨ Ø²
ĠØ¨Ø± ØªØ¨Ø©
ĠØ¯ÙĪÙĦ ÙĬØ§
ĠØ§ÙĦÙĨÙĩ Ø¬
ĠÙĦÙĥ ÙĦÙħØ©
ĠÙĬÙģ ÙĩÙħ
ĠÙĪØªÙĨ ÙģÙĬØ°
ĠÙĦÙĦØ· Ø§Ø¦Ø±Ø§Øª
ÙĨÙĤ Ø¹Ø§Øª
ĠÙħØ¸ Ø§ÙĩØ±Ø§Øª
ĠØ¨Ø§ÙĦØ¶ Ø¨Ø·
Ġ é
ĠØ§ÙĦÙħØ³ Ø§ÙģØ±ÙĬÙĨ
ĠÙĪØ£ÙĨ ÙĪØ§Ø¹
ĠØ¬Ø¯ ÙĪÙī
ĠØ§ÙĦØ£Ø² ÙĩØ§Ø±
Ø§ØŃØ« ÙĬÙĨ
Ġback ground
ĠÙĦ ÙģØ±
ĠØª Ø®Ø·
Ø² ÙĦÙĬ
Ø£ ÙĪÙĦØ§
Ø§ØŃ ÙĨØ©
ĠØ§ÙĦÙĥ ÙĪÙħÙĬØ¯ÙĬ
ĠØªÙĤ ØªØµØ±
ĠÙĪÙħÙĨ ØŃ
ĠÙĪÙĨ Ø¸Ùħ
ĠØ§ÙĦØ³ÙĬ Ø¦Ø©
ĠÙħØ®ØªÙĦÙģ ÙĬÙĨ
ĠØ¬Ø± Ø§ØŃ
ĠØ£ÙĨÙĪØ§Ø¹ ÙĩØ§
ĠÙĬÙħØ«ÙĦ ÙĩØ§
ĠØ§ÙĦØ¥ØŃ Ø³Ø§Ø³
ĠØªÙĦÙħ Ø³Ø§ÙĨ
C A
o y
ĠØ¹ ÙĦØ§ÙĪØ©
ĠÙĦÙĦ Ø¬ÙħØ¹ÙĬØ©
ĠØ£ÙĨ Ùĥ
ĠØ± Ø§Ø¦
ĠÙĪÙħ Ø¯ÙĬØ±
ĠØªÙĤ Ø§ÙĦÙĬØ¯
ĠÙĪØ³ ÙĪÙģ
ĠØ²ÙĬ Ø§Ø±ØªÙĩ
ĠØ±Ùħ Ø²Ø§
ĠØ§ÙĦØ£ÙĬ Ø¯ÙĬ
ĠÙĪØ§ÙĦØªØŃ ÙĤ
ĠØªÙĬÙħ ÙĬØ©
Ø§ÙĦØ³ÙĬ Ø§ØŃØ©
ĠØ§ÙĦØ¯Ùĩ ÙĨÙĬØ©
ĠØ®ØµÙĬ ØµØ§
ĠÙĦÙĦ ØªÙħ
ĠØ§ÙĦØ° Ø±Ø§Ø¹
ĠØ±Ø£ ÙĬØª
ĠØ§ÙĦÙħØ¹Ø§ØµØ± ÙĬÙĨ
ĠØªØ§ÙĬÙĦ ÙĪØ±
ĠØ§ÙĦÙħ Ø¦Ø§Øª
ĠØ§ÙĦØ£ ØºØ±Ø§Ø¶
Ø¦ Ø¨
ĠØº Ø´Ø§Ø¡
ĠØ£Ø³ ÙĪØ§Ø±
ĠØªØ£ Ø®Ø±
ĠØ¹ÙĦ Ø§ÙĤØªÙĩ
ØªÙĤ Ø§ÙĨ
ØªØ¹ ÙĦÙħ
ĠØ§ÙĦÙĤØ¯ Ø§ÙħÙī
ĠØªÙĦÙĤ Ø§Ø¦ÙĬØ§
ĠØ§ÙĦÙĤÙĪÙĦ ÙĪÙĨ
ĠØ§ÙĦØ§ØŃØªØ± Ø§ÙĤ
ĠØ§ÙģØªØªØŃ Øª
ĠÙħ Ø¨ÙĬ
ĠØ§ÙĦØ£ ÙĥØ±Ø§Ø¯
ĠØ§ÙĦØ± Ø§ÙĬÙĨ
ĠÙĦØ§ ÙĬÙģ
ĠØªØ± ÙħÙĬØ²
ĠØªÙģ Ø¬ÙĬØ±
ĠØ§ÙĦÙħØ±Ø¶ ÙĬØ©
ĠØ§ÙĦØµÙģ ÙĤØ©
ĠØªØ³Ø¨Ø¨ Øª
ĠÙĪ ÙĪØ¬ÙĪØ¯
ĠØ¹ Ø±Ø¨Ø©
ĠÙĬ ØºÙĬØ±
ĠÙĥ ÙĬÙĨÙĬ
ĠØ§ÙĦØŃ Ø§Ùħ
ÙģÙĬ ÙĪÙĨ
ĠÙħØ³ ÙĥÙĨ
ĠØ§ÙĦÙħØ³Øª Ø¹ÙħÙĦØ©
ĠØªØª Ø±Ùĥ
ĠØªØ± Ø´ÙĬ
ĠØ§ÙĦÙħØº ÙĪÙĦÙĬ
ĠÙĦÙĦØ¬ Ø§ÙħØ¹Ø©
ra d
ĠØ§ÙĦØ¹Ø´ Ø§Ø¦Ø±
r is
ĠÙĦ Ø§ÙĨØ¯
Ø§Øª Ø©
ĠØ£ÙĨ ÙĨÙĬ
ĠÙĪØ§ÙĦÙħ Ø¯ÙĬÙĨØ©
an n
Ø§ÙĦØ« ÙĤØ§ÙģØ©
ĠØªØ³ ÙĦÙħ
ĠØŃØ± Ø§Ø±ÙĬØ©
ĠØ§ÙĦÙħÙĨØ´ ÙĪØ±Ø©
ĠÙģÙĨØ² ÙĪÙĬÙĦØ§
ĠØ³ ØªÙĪ
Ø§Ø¨ ÙĦØ§Øª
ĠØ§ÙĦÙģ ØµÙĪÙĦ
ĠÙĦÙĦØ£ Ø¨ØŃØ§Ø«
ĠÙħØ« ÙĬÙĦ
ĠÙĪØ¸ ÙĦØª
Ø§ÙĦÙħ ØµØ¯Ø±
ĠØ§ÙĦÙħØª Ø¹Ø¯Ø¯
ĠØ§ÙĦÙħØª Ø²Ø§ÙĬØ¯
ÙĪØ§Ø± ÙĨØ©
ĠC om
ĠÙĦÙĦÙĨ Ø´Ø±
ĠÙĪØ· Ø±ÙĬÙĤØ©
Ġw ith
ĠØ¬ÙħØ§ Ø¹ÙĬØ©
ĠØ§ÙĦØªÙĨØ¸ÙĬÙħ ÙĬØ©
ÙĨØ¸Ø± Ø§
ÙĦÙĬÙģØ²ÙĬ ÙĪÙĨ
ÙĨ ÙĪØ§
Øª Ø§Ø¯
ĠÙĪ Ø¯ÙģØ¹
ĠÙģ ÙĦÙĥ
ĠØ£ ÙĦÙĤÙī
ĠÙĬ Ø¶Ø§Ùģ
ĠØ¥ ÙĬÙĨ
Ø£ Ø±Ø³ÙĦ
ĠØ§ÙĦØŃ ÙĦÙĤ
ÙĪØ³ ÙĪÙĨ
ĠÙĤØ¨ Ø§ÙĦØ©
ĠØ§ÙĦØµÙĨ Ø¹
ĠÙĪØªØŃ ÙĦÙĬÙĦ
ĠØ²ÙħÙĬÙĦ Ùĩ
ĠØ§ÙĦØ±Ø£Ø³Ùħ Ø§ÙĦÙĬØ©
Ùģ ÙħÙĨ
ĠÙħ Ø±ÙĬØ¶
ĠØ£ Ø®Ø·Ø§Ø¡
ĠÙĨ ØªØ§Ø¬
ĠØ§ÙĦØ³ ÙĦØ§ÙĦØ§Øª
ĠØ§ÙĦÙĤ Ø§Ø±ÙĬ
Ø¤ Ùħ
ĠÙħØŃ Ø§Ø·Ø©
ĠÙĦÙħ Ø¯
ÙĬØª Ø§Ùħ
ĠØ§ÙĦØ¹Ø§Ùħ ÙĬÙĨ
ĠÙĪÙĨ Ø¬ØŃ
ĠÙĪØ§ÙĦØª ÙĤØ§ÙĦÙĬØ¯
ĠÙħØ¬ Ø¯
ĠØ¨Ø£ ØŃØ¯
ĠÙĪØ¯ ÙĪÙĨ
ÙĦÙĬÙĨ Øº
ĠÙĨØ¸ Ø±ÙĬ
ÙĨØ´Ø£ Øª
Ùĥ Ø§ÙħÙĦ
ĠÙĪ Ø§Øº
ĠÙĪ Ø®Ø¯ÙħØ§Øª
ĠØ¨ Ø³Ø·
ĠØ¹ Ø§ÙĨØª
ĠØŃ ÙĦØª
Ø§Ø¹ Ø§Ø©
ĠØ® ÙĪØ±
ĠØ¨Ø± Ø§Ø¯
ÙĪØ§Ø± ÙĤ
ul t
ĠØ£Ø¬Ø± Ùī
ĠØ´Ø¨Ø§Ø¨ Ùĩ
ĠØ£ÙĪÙĨ ØªØ§Ø±ÙĬÙĪ
×Ļ ×
Ø³ ÙĥØ§
ĠØ¥ ÙģØ±ÙĬÙĤÙĬØ©
ĠØŃ Ø³Ø§ÙĨ
ĠØ§ÙĦØ³ ÙĨÙĬ
ĠØ± ÙĪØ¬Ø±
ĠØ£ÙĬ ÙĪÙĨØ§Øª
ĠÙĪÙħ Ø¨
ĠÙħØª ÙģØ§
ĠÙĪØ§ÙĦØ£ Ø±Ø¶
ĠØ¨ÙĬ ÙĦÙĬ
ÙĤØ¨ Ø±Ø©
ĠØ§Ø® ØªÙĦØ§ÙģØ§Øª
ĠØ§ÙĬ Ø§Ùħ
ĠØŃ ØµØ¯
Ø³Øª Ø¹ÙħÙĦ
ÙĥÙĨ Ø§Ø¦Ø³
ĠÙĥÙĦ Ø«ÙĪÙħ
ĠØªÙĤ Ø§Ø±Ø¨
ĠØ§ÙĦÙħØ³ Ø§Ø¡
ÙĪØŃ ÙĬÙĨ
Ø¢ ÙħØ±
ĠØªØª Ø·ÙĪØ±
ÙħÙĪ ÙĤØ©
ÙģÙĨ Ø¯ÙĬ
ĠØ§Ø¬ØªÙħØ§ Ø¹Ø§Øª
ĠØ¹Ø±Ùģ Ø§Øª
ĠØ¯Ø§Ø¦ Ø±ÙĬØ©
ĠØ§ÙĦÙħØµÙĨ ÙĪØ¹Ø©
ĠØ§ÙĦØ«ÙĦ ÙĪØ¬
ĠØ§ÙĦØµÙĩÙĬ ÙĪÙĨÙĬ
Ġ im
ĠÙĦ ÙĪÙĦ
ĠÙĥ ÙĪÙĨÙĬ
ÙĪØ³ ÙĪØ¹Ø©
ĠÙĪØ£ ÙģØ±ÙĬÙĤÙĬØ§
ĠØ§ÙĦÙħØ³ Ø§Ø¨ÙĤØ§Øª
ĠØ§Øª Ø³Ø§Ø¹
ÙħÙĪ Ø¯ÙĬ
ĠØ¨Ø¥ Ø¯Ø§Ø±Ø©
ĠØ§ÙĦØªØ´ Ø§Ø¨Ùĩ
ĠÙĪØ§ÙĨ Ø®ÙģØ§Ø¶
ĠÙħØ´Ø§Ø±Ùĥ ØªÙĩ
ĠØ§ÙĦØ±Ø¬ ÙĪØ¹
ĠØ§ÙĦØ¬ÙĦÙĬ Ø¯ÙĬØ©
ĠØ§ÙĦ Ø§ØªÙĩ
ĠØ¨ ÙĪØ²Ø§Ø±Ø©
ĠØ³ ÙĨØ¯
ĠÙĨ ÙħØª
ĠØ§ÙĦØ¬ ÙĬØ¨
ĠØ§ÙĨ ÙĤØ³Ø§Ùħ
ĠÙħØ¬ ÙĩÙĪÙĦ
Ø¨Ø§ÙĦ Øº
ĠØ§ÙĦÙħÙĪØ³ ÙħÙĬØ©
ĠØ§ÙĦØ¬Ø¯ ÙĬØ±
ĠØ¨ Ø²Ø±Ø§Ø¹Ø©
ĠØ¥ ÙħØ¨Ø±Ø§Ø·
ĠØ§ÙĦØ¹ Ø²Ùģ
Ø§Ø¨ ÙĬØ§
ĠØ§ÙĦØ¨ ÙĥØ±
ÙĪØ¨ ÙĪÙĨ
ÙĬØ¯ Ø±Ø§Øª
Ø³ÙĦ ÙģØ§ÙĨÙĬØ§
ĠØªØª Ø³Ø¨Ø¨
ĠØªØ³ ÙĪÙĬØ©
ÙĪÙĬÙĤ Ø¹
Ø¹ ÙĪØ«
ĠØ§ÙĦÙħ Ø¯ÙĬÙĨ
ĠØ¥ Ø¹Ø¯Ø§Ùħ
ÙĩØ§ ÙĬÙĪ
Ø° Ø§Øª
ĠØ§ÙĦØ¬ Ø¨Ø±
ĠØ§ÙĦØ¬ ÙĬØ²Ø©
ĠØµ ÙĪÙģÙĬØ§
ĠØªÙħ ØªØ§Ø²
ĠØ¢ Ø´
Ġ7 50
Ø§ÙĦØ¬ ÙĪØ§Ø¦Ø²
ĠØ§ÙĦØ¹Ø¯ ÙĪØ§ÙĨ
ĠØ³ØªÙĬ ÙĪØ§Ø±Øª
ĠØ§ÙĦØ£ÙĨØ¯ÙĦ Ø³ÙĬ
Ùħ ÙĬÙĬÙĨ
Ùģ ÙĪØ°
ĠÙħ Ø§Ø¦
ĠØ¨ ÙģØ±
ĠÙĦÙĦ ÙģØ±Ø¯
ĠØ§ÙĦØ¥ ÙģØ±ÙĬÙĤÙĬØ©
ĠØ§Ø³Øª ÙĥØ´Ø§Ùģ
ĠØ¨ÙĦ Ø¯ÙĬ
ĠØ§ÙĦÙħØª ÙĩÙħ
ĠØ§ÙĦÙģÙĨ Ø§Ø¯ÙĤ
ĠØ§ÙĦØ¹ÙĦØ§Ø¬ ÙĬØ©
ĠÙĪØ§ÙĦØ³ÙĬ Ø§Ø³ÙĬ
ĠØ§ÙĦØªÙĥ Ø§Ø«Ø±
ĠØ§ÙĦØ¨Ø±Ø¨ Ø±
ĠØ§ÙĦÙħØ±Ø´ØŃ ÙĬÙĨ
ĠÙĪ ÙĤÙĬ
ĠÙĨ Ø§Ø³
ØªØ¨ Ø§Ø¯ÙĦ
ĠÙĥÙĦ Ø§Ø±Ùĥ
ĠÙĬØª ÙĥÙĦÙħ
ÙģØ§ ÙĪÙĬØ©
ĠØ§Øµ Ø·ÙĨ
ĠØ£Ø¨ÙĨ Ø§Ø¦Ùĩ
ĠÙħ ÙģØ§ØªÙĬØŃ
ĠØ¨ ÙĤØ¨
Ø¬ ÙĪØ±
ĠÙĬ Ø¸ÙĦ
ĠØ¬ ØºØ±Ø§ÙģÙĬØ©
Ġ2 20
ĠØ§ÙĦÙĥ ÙĦØ¨
ÙĪÙĥ ØªØ¨
ĠÙħÙĤ ØªØ±
Ø²ÙĬ ÙĬÙĨ
ĠØ§ÙĦØ£ÙĨ Ø¨ÙĬØ§Ø¡
ĠØ§ÙĦØªØ£ ÙĥÙĬØ¯
ĠØ§ÙĦØ£Øº ÙĦØ¨
ĠØ£Ùģ Ø±ÙĬÙĤÙĬ
ĠÙĤØ§Ø¦ ÙħØ§
ĠÙĪØ¬Ø² ÙĬØ±Ø©
ĠÙĬÙĦØª ÙĤÙĬ
Ø³ Ø§Ø±Ø©
Ùĥ Ø³Ø±
ĠÙĦÙĦ Ø¬ÙħÙĩÙĪØ±
ĠØ± Ø§ØŃ
ĠØ§ÙĦØ± Ø§Ø´
Ø¦ ØªÙĩ
ĠØ¢ ÙĦÙĬØ§Øª
ÙĪÙģÙĬ ÙħØ§
ÙĤØ¨ Ø§Ø·
ĠÙĤØ± Ø§Ø¡
ØªÙĨ Ø§Ø¹
ĠÙĦØ´ Ø®Øµ
ĠØ§ÙĦØªÙĥ Ø§ÙħÙĦ
ab le
ÙĬ ØºÙĪ
Ø§ÙĦ Ø§Ø®
Ø³ Ø§ÙĨÙĬØ©
ĠÙĦ Ø®Ø·
Ø· Ø§Ùħ
ĠØ§ÙĦØ³ Ø¹Ø§Ø¯Ø©
ĠØ§ÙĦÙĤ Ø¯Ø±Ø§Øª
ĠØ¯ Ø§Ùĥ
Ø³ÙĬ Ø§ÙĨ
ĠØ£Ø³ ÙĦÙħ
ĠØ§ÙĦØµØ± Ø§Ø¹Ø§Øª
ĠØ§ÙĦÙĩØ§Ø´ ÙħÙĬØ©
Ùģ ÙĩÙħ
ĠØ§ÙĨØª Ø¸Ø§Ø±
ÙģÙĦ ÙħØ§
ĠÙĪØ¥ ÙĦØ§
ĠA d
Ø²ÙĦ Ø¬
ĠØŃÙĥ ÙĪÙħØ§Øª
ĠÙĪØ§ÙĦØµ ØŃØ©
ĠØ£Ø±Ø¶ Ùĩ
ĠØªØ´Ùĥ ÙĬÙĦØ©
ÙĬ ÙĥØ§ÙĨ
ĠÙħ ÙĪØ¨
ĠÙģ ØªÙĨ
ØŃ ÙĦØ§ÙĦ
ĠÙĤ Ø³ÙĨØ·ÙĬÙĨØ©
ĠØ± ÙĥÙĨ
ĠØ² Ùħ
ĠÙĪØ§ÙĦÙħ Ø³Ø§
ĠÙĪØŃ Ø±ÙĥØ©
ĠØ§ÙĦØ¨ÙĦ Ø¯ÙĬØ§Øª
ÙģØª ÙĬÙĨ
ØªÙĤ ÙĪÙĦ
ĠØ§ÙĦÙħÙĤ ÙĬÙħÙĬÙĨ
ĠÙĨÙĬ Ø§Ø¨Ø©
ĠØ·ÙĦØ¨ Ùĩ
ĠØªÙħÙĬØ² Øª
ys tem
o la
Ø¯ Ø®Ø§ÙĦ
ĠØ¨ Ø¹ÙħÙĦÙĬØ§Øª
ØŃ ÙĪØ§
ĠÙĤ ÙĨØ¨ÙĦØ©
ĠØ§ÙĦÙĤ Ø´
ĠÙħØª ÙĥØ±Ø±
ĠØ§ÙĦØ² Ø¹
ĠØ¨Ø± Ø¹Ø§ÙĬØ©
ĠØªØª ÙĪÙĤÙģ
ĠØ§ÙĦÙħØ´ Ø§Ø±
ĠÙĪØ§ÙĦÙĨ ÙĤ
ĠØ±ÙĬ Ø§ØŃ
ĠÙĪØ§ÙĦÙģ ÙĥØ±
ĠÙĨÙģ Ø·
ĠÙĥÙĬ ÙĬÙģ
ĠØ¯Ø¹ ÙĪÙī
ĠØ³ÙĬØ¯ Ø§Øª
ĠÙĪØ£ÙĥØ«Ø± ÙĩØ§
ĠØ£ÙĪØ³ ÙĥØ§Ø±
ĠÙĦØªØ³ ÙĩÙĬÙĦ
E T
ĠØª Ø±Ø¨Ø©
ĠØŃ Ø¯Ø§
ĠØ´ Ø§Ø¡
Ø§ØŃ ÙĨØ§Øª
ĠØµ Ø§ÙĦØ©
ĠØ§ÙĨ Ø·ÙĦÙĤ
ĠÙĪØ¬ Ø¨Ø§ÙĦ
ĠØ§ÙĦØ§Øª ØŃØ§Ø¯ÙĬ
ĠÙĪØ´ Ø¹Ø±
ĠØ£ÙħØ§Ùħ Ùĩ
ĠÙĪÙĤØ§Ùħ ÙĪØ§
ĠØ§ÙĦÙĨÙģØ· ÙĬØ©
ĠØ§ÙĦÙĩØ± ÙĪØ¨
ĠØ§ÙĦØ£Ø±Ø¨Ø¹ ÙĬÙĨ
ĠØ§ÙĦÙħÙĨØ· ÙĤÙĬØ©
Ø³ ÙĪØ³
ĠØ§ÙĦÙĤ ØµØ¨
ĠØ§ÙĦØ¯ ÙĦ
ĠØ§ÙĦØ± ÙģÙĬ
ĠÙħØ³Øª ÙĪØŃ
ĠÙĪÙģÙĬ ÙĦÙħ
ØªÙĤ Ø§Ø¡
Ø¨ØŃ Ø³Ø¨
ĠØ§ÙĦØµÙĨ ÙĪØ¨Ø±
ĠØ¹Ø¯ ÙĪÙī
ĠØ¨Ø§ÙĦØ¬ ÙĬØ´
ĠÙĬØ§Ø¨ Ø§ÙĨÙĬØ©
Ø£Ø´ ÙĩØ±
ĠÙĥ Ø¬Ùħ
ĠØ§ÙĦØ£ ÙĩÙħ
ĠØ§ÙĦØ£ Ø¨Ø¯
ÙĪØ± Ø§Ùħ
ĠØ£ÙĪ ÙĩØ§ÙĬÙĪ
ĠØ§ÙĦØ® Ø§ÙĦÙĤ
ĠÙĪØª Ø¸ÙĩØ±
ĠÙĪØ£ Ø¹ÙĬØ¯
ĠØ§ÙĦØ· Ø§ÙĩØ±
Ø¥ÙĨ Ùĩ
ĠØ§ÙĦÙħØŃ ÙĦ
ÙĪØŃ Ø³Ø¨
ĠÙħÙĦ Ø§ÙħØŃ
Ø§Ø¸ Ø±Ø©
ĠØ¨ÙĬØ± ÙĨ
ÙĪØ§Øµ Ø§Øª
ĠØ§ÙĦØºØ±Ø¨ ÙĬÙĬÙĨ
qu e
ĠØ§ØŃØªÙģ Ø§ÙĦ
Ø´ Ø§Ùĩ
ĠØ§ÙĦØª ÙĪØµÙĬÙĦ
ĠØ² ØŃÙĦ
Ġ14 5
ĠØ¨Ø¬ ÙĨÙĪØ¨
ĠØªÙģ ÙĤØ¯
ĠE x
ĠØ²ÙĬÙĨ Ø¨
ĠØª Ø¯Ø§ÙĪÙĦ
Ø´ ÙģÙĬ
ĠØ¥ ÙħÙĬ
Ø¥ Ø³
ĠØµ Ø§Øº
ĠØªØŃ ØªÙģØ¸
ĠÙĪØ¬ ÙĪØ±Ø¬
ĠØ¨ØŃ Ø±ÙĥØ©
ĠÙĬØ± ØªÙģØ¹
ĠÙĪØ§ÙĦÙħØ¯ Ø§Ø±Ø³
ĠØ§ÙĦÙĥØ§Ùħ ÙĬØ±Ø§
ĠØ¬Ø²ÙĬ Ø¡
ĠØ§ÙĦÙĥÙĩØ±ÙĪÙħØº ÙĨØ§Ø·ÙĬØ³ÙĬØ©
E C
Ø§ ÙĪØ³
ĠÙĪ Ø§Ø¦ÙĦ
ĠÙĪ Ø¯ÙĬØ©
ĠØ§ÙĦÙħ Ø¨ÙĬØ¶
ĠØ§ÙĦØ£ Ø³ÙĦ
ĠÙĨ Ø¬ÙĦ
ĠØ¨Ø§ÙĦ ØªØ±Ùĥ
ĠØ® ÙĪØ³ÙĬÙĩ
ĠØ§ÙĦØ± ÙĪØ¨
ĠÙħØŃ Ø§Ø¶Ø±
ÙĬÙĪ Ø²
ĠØ£Ø³ Ø¹Ø¯
ĠÙħØ® Ø§ÙĪÙģ
ĠØ§ÙĦØ§Ø¹ ØªØ¯Ø§Ø¡
ĠØ§ÙĦØªØ£ ÙĩÙĦ
ĠØ§ÙĦØ¹ÙĬÙĨ ÙĬÙĨ
ĠØ§ÙĦØŃ ÙģÙĦ
ĠØ¯ Ø§ÙģÙĬ
ĠØ§ÙĦØµ Ø®Ø±
ĠÙĪØª ØµÙĦ
Ø¬Ùħ Ø§ÙĨ
ĠØ§Ø³Øª Ø«ÙĨØ§Ø¡
ĠØ¨ÙĦ Ø¯Ùĩ
ĠØ£Ùħ Ø§ÙĨ
Ø®Øª ØµØ±
ĠÙĤØ·Ø± ÙĩØ§
ĠØ³Ø¹ ÙĪØ¯ÙĬØ©
ĠØ§ÙĤØªØµØ§Ø¯ ÙĬØ§
ĠØ£ØªØ¨Ø§Ø¹ Ùĩ
ĠØ§ÙĦ Ø§ÙĥØªØ´Ø§Ùģ
Ø¨ ÙĦÙĬ
Ø¹ ÙĤ
ĠÙĥ ÙĨØ§ÙĨØ©
Ø£ Ùĩ
Ø±ÙĬ Ø³ÙĬ
Ø¸ ÙĬÙħÙĬ
ĠØ± Ø¢
ĠØ§ÙĦÙĨ Ø§Ø·ÙĤØ©
ĠØªØ´ ØºÙĦ
ĠØ§ÙĦÙħØ¬ Ø§ÙĩØ¯
ÙĪÙĬØ± Ùī
ĠØ§ÙĦÙħØ¨ ÙĨÙĬØ©
ĠÙĪØ§ÙĦÙĤ Ø¶Ø§Ø¡
ĠØ§ÙĦÙħØ¶ Ø§Ø¯Ø§Øª
ĠÙĩØ± ÙĤÙĦ
ĠØ§ÙĦÙħÙĪØª Ùī
ĠØ§ÙĦÙĩØ¯ ÙĨØ©
ĠÙħÙħØ« ÙĦÙĬ
ĠØ§ÙĦØ±Ø§Ùģ Ø¯ÙĬÙĨ
ĠØ§ÙĦÙħ ØµØ¨
ĠÙĬ ØªØµ
Ø§Ø³ Ø§ØªÙĩ
ĠØ¯ ÙħÙĬ
ĠØ§ÙĦØ¬ Ø¨Ø§Ø±
ĠØ§ÙĦØ¥ Ø®Ø±Ø§Ø¬
ĠØ§ÙĦØ® ÙĬØ§Ø±
ĠØ§ÙĦÙħØ³Øª ÙĤØ¨
ØªØ¯ Ø§ÙĦ
ĠÙħÙĪ Ø§ØµÙĦØ©
ĠÙĪØ§ÙĦØ¹ ÙĦÙħØ§Ø¡
ÙĨØ¨ Ø¹ÙĦ
ĠØ§ÙĦÙĤÙĦ Ø§Ø¹
ĠÙħÙĨØŃ Ùĩ
ĠØ§Ø®Øª ÙĬØ±
ĠØ§ÙĦÙħØŃØªØ± ÙģÙĬÙĨ
ĠÙĪØ§ÙĦÙĬÙĩ ÙĪØ¯
ĠÙħ ÙĪÙĦØ§ÙĬ
ØŃ Ø§ÙĦÙĬØ§
ĠØ§ÙĦÙħ Ø·Ø§Ø¹Ùħ
Ø§Ø³ ÙĨ
ĠÙĪØ£ Ø±Ø¨Ø¹Ø©
ĠØ¢ ÙħÙĨØ©
ĠØªØ¹ Ø²
ĠÙħØ± ØªÙģØ¹Ø§Øª
ĠÙĦØª Ø±Ùĥ
ĠÙĦØª Ø£Ø³ÙĬØ³
ØªÙĪ Ø§Ø¡
ÙĦÙĩ ÙĬ
ĠØ£ÙĩÙħ ÙĬØªÙĩØ§
ĠÙĨÙģ Ø°
ĠØ§ÙĦÙģØª Ø§ØŃ
ÙħØ§Ø· Ùħ
ĠØ§ÙĦØ§ÙĨØªÙĤ Ø§Ø¯Ø§Øª
ÙĬ Ø®ØªÙĦÙģ
Ø§ÙĨ ÙĥØ§
ĠØŃ Ø´
ĠØ§ÙĦØª ØºÙĦØ¨
ĠÙĨ Ø´Ø·Ø©
ĠØ¯ Ø§ÙĪ
ĠØ§ÙĨ Ø·
ĠØ³Ø¨ ÙĤØª
ĠØªØ´ ÙĬÙĥÙĪØ³ÙĦÙĪÙģØ§ÙĥÙĬØ§
ĠØ§ÙĦØ¨ÙĦ Øº
ĠÙĦÙĥ ØªØ§Ø¨Ø©
ĠÙĪØ§Ø¬ ÙĩØª
Ã ¡
ĠØª Ø¶Ø±
Ø² Ø¦Ø©
ĠØ§ÙĦÙĥ ÙĪÙħÙĬØ¯ÙĬØ§
ĠØ§ÙĦÙģ ÙĪØ³ÙģØ§Øª
ĠØ· ÙĬ
ĠØ¨ÙĨ Ø§Ø¤Ùĩ
ĠÙĪØ§ÙĦÙħ Ø³Ø±ØŃ
ĠØ§ÙĦÙħØŃ Ø³ÙĨ
ĠØ³ÙĦ Ø¨ÙĬ
ĠØ§ÙĦÙĨØ¸Ø§Ùħ ÙĬØ©
ĠØªÙģ Ø±Ø¶
ĠØªÙĦ ÙĪØ«
Ø§ÙĩØ¯ Ø§Ùģ
ĠØ¥ØµÙĦØ§ØŃ Ø§Øª
ĠØ§ÙĦØªÙĦÙģ Ø§Ø²
ĠÙĦ ØºÙĬØ±
ĠØ§ÙĦÙĨ Ø§ÙĨÙĪ
ĠØµ Ø§ÙĨØ¹
ĠÙĪÙħ Ø¶
ÙĬØ¨ Ø§Øª
ĠØ³Ø¨ Ø§ÙĤØ§Øª
ĠÙĪØ§Ø³ Ø¹Ø§
ĠÙĤØ¯Ø± ØªÙĩØ§
ĠÙĬØ³ØªØ®Ø¯Ùħ ÙĩØ§
ĠÙĨØ³Ø¨ Ùĩ
ĠØ§ÙĦÙĨØ³Ø¨ ÙĬ
ĠØºÙĦ ÙĪØ¨
Ø«Ø±ÙĪØ¨ ÙĪÙĦÙĪØ¬ÙĬØ§
Ø® Ø°Ùĩ
ĠÙĪØ§ÙĦ Ø³Ùħ
ĠØ¨ÙĨ Ø´Ø§Ø·
ØªÙĬ ÙĥÙĪ
ĠØ§ÙĦÙħØª Ø·ÙĪØ¹ÙĬÙĨ
ĠÙĬÙĨ Ø·Ø¨ÙĤ
Ø·ÙĬ Ø§Ùģ
ÙĪØ§ÙĤ Ø¨
ĠÙģØ±Ø§ÙĨ ÙĥÙĪ
ĠÙĨØ§Ø¬ ØŃ
ĠÙħÙĬÙĥØ§ÙĨ ÙĬÙĥØ§
n et
ĠÙĬ Ø§ÙĤ
Ø§Ø¹ ØªÙħØ¯
ĠØº Ø§Ø¨Ø©
ĠØ§Ø³Øª Ø·ÙĦØ§Ø¹
ÙĪÙĩ ÙĨØ§
ĠØ§ÙĦØªÙĨ ÙĤÙĦ
ĠØ§ÙĦØ¹ÙĤ ÙĪØ¨Ø§Øª
ĠØ´Ø¹ Ø§Ø¹
ĠÙĪÙĬÙĦ Ø¹Ø¨
ĠØ§ÙĦØŃØ³ Ø§Ø³ÙĬØ©
ĠÙĤÙĬÙħ ØªÙĩ
ĠÙĨÙĤØ¯ ÙĬØ©
ĠØ§ÙĦÙħÙĬØ² Ø§ÙĨÙĬØ©
Ġ ac
Ùħ Ø§Ø±Ø³
ĠÙħ Ø³Ø¨ÙĤ
ĠØ· ÙĤÙĪØ³
ÙĤÙĬ Ø¹
ĠØ§Ø³Øª ØºØ±ÙĤ
ĠØ§ÙĦØ·ÙĦ Ø§ÙĤ
ĠØ§ÙĦØ¥Ø³Ø±Ø§Ø¦ÙĬ ÙĦÙĬÙĬÙĨ
ĠØªÙĤÙĦ ÙĦ
ĠÙĥ Ø§ÙģÙĬ
ĠØ´ ÙĪÙĤÙĬ
ĠÙħØ¹ Ø§ØµØ±
Ø¨Ø¯ ÙĦØ§
ĠÙħØª Ø·ÙĪØ±Ø©
ĠÙĪØ§ÙĦØ£ ÙĥØ«Ø±
ĠØ¹Ø¨ Ø§Ø¯
ĠÙĪØ§ÙĦØ¥ Ø¯Ø§Ø±Ø©
Ġa d
ĠØ³ÙĬØ·Ø± Øª
ĠØ§ÙĦÙħ ÙĪÙĨ
ĠØ§ÙĦØ£ ØŃØ±Ùģ
ĠØ§ÙĦØ³ Ø§Ø¦ÙĤ
ĠÙĪÙħ ÙĥØ§ÙĨ
ĠØ¨Ùħ ÙĤ
ĠØ¨Ø± Ø£Ø³
ĠØ¨Ø± ÙħØ¬ÙĬØ§Øª
Ø®Ø¯ ÙĬØ±
ĠØ§ÙĦØ¨Ø± ÙĪØ³Øª
ĠØ§ÙĦÙħØ¯ Ø§Ø±
ĠÙħÙĦ Ø§Ø¦ÙħØ©
ĠØŃÙĬ ÙĪÙĬ
ĠÙĦÙĦÙģ ÙĪØ²
ĠØ¯Ùģ Ø¹Øª
ĠÙĪØ®Ø§Ø±Ø¬ ÙĩØ§
A R
ÙĦ ØºØ©
Ø§ÙĦ Ø¨Ø§Øª
Ø¬ Ø§Ø¨Ø§Øª
ĠØ¥ Ø¬Ø±
ĠØ§ÙĦØ¹ ÙĬÙĨØ§Øª
ĠØ¬ Ø§Ø³Ùħ
ĠØ« Ø§ÙĨÙĪÙĬ
ÙĦÙģ ÙĬÙĨ
Ø§Ø® Ø³ØªØ§ÙĨ
ĠÙħÙĤ Ø§Ø¨Ø±
ĠÙħØ³ Ø§Ø±Ø§Øª
ĠØ§ÙĦÙħØ± ÙħÙī
ĠÙĪÙĨ ÙĩØ±
ÙĪÙĨÙĬ ÙĪØ³
ĠÙĪØ§ÙĦÙĨ Ø¸Ø§Ùħ
ĠÙĬÙģ ØªØŃ
ĠØŃØ¨ ÙĪØ¨
ĠØ§ÙĦØ±Ùħ Ø§Ø¯ÙĬ
ĠÙħØ§Ø±Ùĥ Ø³
ĠØ§ÙĨØ³ ØŃØ¨
ĠØ£Ø¹Ø¯ Ø§Ø¡
Ġ ~
Ø¨ Ø§Ø¨Ø§Øª
Ùĩ Ø§Ø¬Ùħ
ĠØ¨ ÙĪÙĩ
ĠØ§ÙĦØ¥ ÙĬØ¯Ø²
ĠÙĪØ§ÙĦÙħ Ø¬ÙĦØ§Øª
Ġ18 13
ĠØ§ÙĦØ±ÙĪÙħ ÙĬ
Ġb y
ĠØ¨ÙĦØ§Ø¯ ÙĩÙħ
ĠØ§ÙĦØ£Ø³Ø± Ùī
ĠØ³ÙĬØ¯ ÙĨÙĬ
ĠÙħØ° ÙĥØ±Ø©
ĠØ§ÙĦÙĨØ§Ø® Ø¨ÙĬÙĨ
i um
ÙĦ Ø£
ĠÙĦ ÙģÙĬ
ĠØ§ÙĦØ± Ø³ÙĦ
ÙĬØ³ ÙħÙī
ĠØº Ø§ÙĦÙĬ
ÙĨÙĬ Ø·Ø±Ø©
Ø±ÙĨ Ø³Øª
ØŃÙĪ ØµØ§Øª
ĠØªØµ ÙĨÙģ
ĠØ§ÙĦÙħÙĤ Ø§Ø±ÙĨØ©
ĠØ´Ø± Ø¹ÙĬ
ĠØ·Ø¨ÙĬ Ø¹ÙĬØ§
ĠÙĪØ§ÙĦØ¯ÙĬÙĨ ÙĬØ©
ĠØ§ÙĦØª ØµØ±Ùģ
ĠØ± Ø§Ùĥ
ĠØ± ØªØ¨
ÙĬØ³ ÙĬÙĨ
ĠÙĪØ£ Ø¬Ø²Ø§Ø¡
ĠÙĪØ§ÙĦÙħ ÙĬØ§Ùĩ
ĠØ§ÙĦÙħØ¹ ÙĨ
ĠØ§ÙĦØ¶ Ø®Ùħ
ĠØ§ÙĦØªØ± Ø§Ø¨
ĠØ±Ø³ Ø§ÙĦØªÙĩ
ĠÙĨØ¨ ÙĬÙĦ
ĠØ£ÙģÙĥØ§Ø± Ùĩ
ÙĨ Ø´Ø§Ø·
ĠØ¹ Ø±ÙĬØ¶Ø©
ĠØ§ÙĦØ£ ÙĥÙĦ
ĠØ§ÙĦØŃ Ø§Ø±Ø³
ĠØ£ÙĪ Ø¨Ø±Ø§
ÙĪÙĤ ÙĪÙģ
ĠØ§ÙĦÙħØ¹ Ø§ÙĨÙĬ
ĠÙĬÙĨ ÙħÙĪ
ĠÙħØµ Ø§Ø¨
ÙģØ§Ø¹ ÙĦÙĬØ©
Ø³ØªØ± ÙĪÙĦ
ĠÙħÙĪØ¬ ÙĪØ¯Ø§
ĠØ·Ø¨ Ø¹Ø©
ĠØµÙĪØª ÙĬØ©
ĠÙĦÙĦÙĩ Ø¬ÙĪÙħ
ĠØ§ÙĦØªÙĪÙĤ ÙĬØª
ĠÙĪ Ø¬ÙħÙĩÙĪØ±ÙĬØ©
Ø§Ø± ØªÙĬÙĨ
Ø§Ø¯ ÙĩÙħ
ĠÙĤ ÙĪÙħÙĩ
ĠØ± Ø¨ØŃ
ĠØº ÙĨÙī
ĠÙĪÙħ ØªÙĨ
ĠØ§ÙĦØº Ø±ÙĬØ¨Ø©
ĠÙĬØŃ ØªÙģØ¸
ĠØ¥ÙĦÙĬ Ø§Ø³
ĠØ¨ÙĪ ÙĬÙĨØº
ĠÙĦØªØŃ ÙĪÙĬÙĦ
ĠØ§ÙĦØ¯ÙģØ§Ø¹ ÙĬØ©
ĠØ§ÙĦÙĤÙĨ Ø§Ø¨ÙĦ
ĠØ§ÙĦÙĥÙĩ Ø±Ø¨ÙĬØ©
ĠÙģ ÙĪØ±ÙĬ
ĠØ§ÙĦØª ÙĪÙĤÙģ
Ø§Ø¯ ÙĬØ±
ĠÙĤ Ø§Ø·
ĠØ§ÙĦÙĤ ÙĬØ±ÙĪØ§ÙĨ
ĠØ¯ ÙĦØ§ÙĦØ©
ÙĪÙĬ ÙĪÙĨ
ĠÙĥÙĦ Ø§Ø¨
ĠØªØ¹ ÙĤ
ĠÙħØ«ÙĦ Ùĩ
ĠØªØª Ø´ÙĥÙĦ
ĠØ´ÙĥÙĦ Ùĩ
ĠØ¥Ùħ Ø§Ø±Ø§Øª
ĠØ¥Ø³Ø±Ø§Ø¦ÙĬÙĦ ÙĬØ©
Ġ186 7
ÙĤØ³Ùħ Øª
ĠØ¬Ø§ÙĨ Ø¨ÙĬØ©
ĠØ§ÙĦØ§ÙģØªØ± Ø§Ø¶ÙĬØ©
Ġ it
ÙĦ Ø²Ùħ
Øª ØºÙĬØ±
ĠÙĦ Ø·ÙĦØ¨
ĠÙĥ ÙĪØ±Øª
ĠØŃ Ø§ØªÙħ
ĠØ³ ÙĦÙĬ
ĠÙĤ Ø§Ø³ÙĬØ©
ĠØ§ÙĦØ¯ Ø¹Ø§ÙĬØ©
ĠÙħØª ØµÙĦ
ĠÙħØ³ Ø§ÙĥÙĨ
ĠØ§ÙĦÙħÙĪ Ø§ÙĦÙĬØ©
ĠØ§ÙĦØªØ¹ Ø°ÙĬØ¨
al e
ĠØªØ¹Ø¯ Ø§Ø¯ÙĬ
ĠÙĨÙĪØ± Ø«
ĠÙĪÙĬÙħ Ø«ÙĦ
ĠÙħØ¤ÙĤØª Ø§
ĠØ¯ÙĪÙħ ÙĬÙĨÙĬ
ĠØ£ Ø®ÙĦØ§ÙĤ
ĠØª ÙĪØ§ØµÙĦ
ĠØ£ÙĨ ÙģØ§ÙĤ
Ø§ÙĤ ÙĩØ§
ÙĬØ´ ÙĥÙĦ
ĠØ§ÙĦÙħØ³ Ø§ØŃØ§Øª
ĠØ§ÙĦØ£ÙĪÙĦ Ø§Ø¯
ĠØ§ÙĦØ§Ø³Øª Ø±Ø§ØªÙĬØ¬ÙĬ
ÙĪØ£ Ø¶Ø§Ùģ
Ġ188 8
99 99
ĠØ§ÙĦÙħØ®ØªØµ Ø©
ĠØ§Ø³ØªØ¯ Ø¹Ø§Ø¡
ĠØ§ÙĦÙħØ±Ø§Ø¨Ø· ÙĬÙĨ
Ø¯ Ø§ÙĨÙĬ
ĠÙĥ Ø±ÙĬØª
ĠØ¬ Ø³ÙĬÙħ
ĠØ± Ø§Ø¬Ø¹
ĠØ§ÙĦÙĨ ÙĪÙī
ÙĪØª ÙĥÙĪÙĨ
ĠØ§ÙĦÙħØ¬ Ø§ÙĦØ³
ĠÙĥÙħ Ø¨ÙĬÙĪØªØ±
ĠØ§ÙĦØªØ± Ø§Ø¬Ø¹
ĠØªØ±Ùĥ ÙĬØ©
ĠØ§ÙĦØªØ´ Ø±ÙĬØŃ
ĠØ§ÙĦÙĪØ± Ø§Ø«ÙĬ
ĠØ§ÙĥØªØ´Ø§Ùģ Ùĩ
ĠØ§ÙĦØ¬ÙĦ Ø¯ÙĬØ©
ĠÙĩÙĦ Ø³ÙĨÙĥÙĬ
ĠÙĬØ±ÙĬØ¯ ÙĪÙĨ
ĠØ¹Ø§ØµÙħ ØªÙĩØ§
ĠÙĪØ§ÙĦØ¥Ø³ÙĦØ§Ùħ ÙĬØ©
ĠÙĪØ§ÙĦØ«ÙĦØ§Ø« ÙĬÙĨ
ĠÙħÙĤØ¨ ÙĪÙĦØ©
r am
Ø³ ÙĦÙĬ
ĠØ¨ Ø¶Ùħ
ÙĪÙĦ ÙĬØ§
ĠØ± Ø§Ø¨Ø·
ĠØ® Ø§Øª
ĠØ§ÙĦØ¥ Ø¨Ø¯Ø§Ø¹
ĠÙħÙĤ Ø·
ĠÙĪØ¹ Ø¨Ø±
ĠÙĬØ¹ Ø·
ĠÙģØ± Ø¯ÙĬ
ĠØ§ÙĦØ¯ÙĪÙĦ ØªÙĬÙĨ
ØºÙĦ Ø§Ùģ
ĠÙĦÙĤ ÙĪØ§Øª
ĠÙĥØ§Ø± Ø«Ø©
ĠÙĪØ§ÙĦØ® Ø¶Ø±
ĠØ§ÙĦÙĬØ± ÙħÙĪÙĥ
ĠØ§ÙĦØ±ÙĩØ¨ Ø§ÙĨ
ÙĦ ÙĦÙħ
ĠÙħ Ø§Ùĩ
Ø· ÙĬÙħ
ĠØ§ÙĦØ£ ÙĪØ¯ÙĬØ©
Ø° Ø§Ø¦Ùģ
ĠØ§ÙĦØ¨ ÙĪØ¨
ĠØ§ÙĦÙĨ Ø§Ùģ
ĠØ¥ÙĨ Ø¬ÙĦÙĬØ²ÙĬØ©
ĠÙĪÙģ Ø±Ø¶
ĠÙĪØ§ÙĦØª Ø±Ùĥ
ĠØ§ÙĦØ¹ÙĦÙħ Ø§ÙĨÙĬØ©
Ø¬Ø¯ Ø¯Ø©
ĠØ§ÙĦÙĩÙĨØ¯ Ø³ÙĬ
ĠØ§ÙĦÙħØ¯Ø± Ø³ÙĬØ©
ĠØ¨Ø§ÙĦÙĦÙĩ Ø¬Ø©
ĠØ£ Ø·ÙĦ
Ø§Øª ÙĪ
ĠØ§ÙĦØ± Ø³Ø§Ùħ
ĠÙĪÙĨ ÙĤØµ
ĠØªØ± Øª
ĠÙĪÙĦØ§ ÙĬØªÙĩ
ĠÙĪØ± Ø£Ø³
ĠØ§ÙĦØ¹ÙħÙĦ Ø§ÙĤ
ĠØ§Ø± ØªÙģØ¹Øª
ĠØ¬Ø± Ø§ØŃÙĬØ©
ĠØªØ³Øª ÙĨØ¯
ĠØ¥ÙĦ Ø®
ĠØ§ÙĦØ¥Ø³Øª Ø±Ø§ØªÙĬØ¬ÙĬØ©
ĠØ¨ÙĪÙĨ Ø§Ø¨
r es
Ø± ÙħØ²
ĠÙĪ Ø¨ÙĦØ¯ÙĬØ©
ĠÙĥ Ø§Ø¦ÙĨØ§Øª
ĠØŃ Ø«
ĠÙĪÙĤ Ø±ÙĬØ©
ĠÙĦØª ÙĪÙĦÙĬØ¯
ĠÙĦØ£ ÙĩÙĦ
ĠÙĬØªÙħ Ø«ÙĦ
ĠÙģÙĦ Ø§Ø¯ÙĬÙħÙĬØ±
ĠØ§ÙĦØ£Ø³Ø± ÙĬØ©
un g
Ġ è
ĠØ£ Ø³ØªØ±
ĠÙĨ Ø§ÙĤÙĦ
ĠØ§ÙĦÙĨ Ø´ÙĬØ¯
Ø§ÙĤ ØªÙĩØ§
ØªØ± Ø§ØŃ
Ø³ÙĬ Øª
ĠÙĪØŃ Ø¶Ø±
ĠØ§ÙĦÙħØ¤ Ø«Ø±Ø©
ĠØ³Øª Ø±ÙĬØª
lo w
ĠØªÙĤØ¯Ùħ ÙĩØ§
ĠØ®Ø´ Ø¨ÙĬØ©
ĠØ§ÙĦØ¥ÙĬØ¬ Ø§Ø¨ÙĬ
ØŃ Ø±Ø¨
ĠÙĥ ÙĬØª
ÙĬØ± Ø³
ĠÙĪØ§ÙĦ Ø¯Ùħ
ĠØ¬ Ø§Ùģ
ĠØ¯ ÙĪØ³
ĠØ§ÙĦØ¥ Ø¶Ø§Ø¡Ø©
ĠØ§ÙĦØ¯ Ø¬Ø§Ø¬
ĠØ¨Ø¯ Ø®ÙĪÙĦ
ĠÙħÙĪ Ø§ØµÙģØ§Øª
ĠÙĨÙĤ Ø´
ĠØ±Ø£Ø³ ÙĩÙħ
ĠÙĥØ§ÙĦ Ø¢
ĠØ§ÙĦØ£Ø±Ø¬ ÙĨØªÙĬÙĨÙĬ
ĠØ§ÙĦÙģÙĤÙĩ ÙĬØ©
ĠØ§ÙĦØ¶Ø¹ ÙĬÙģØ©
Ùĩ ÙĬØ±ÙĬØ©
ĠÙĬ ØµØ¨
ĠØ§ÙĦÙĨ Ùħ
ĠØ§ÙĦÙĨ ØµØ§Ø±Ùī
ĠØ¨Ø§ÙĦ Ø§ØŃ
ĠØ§ÙĦØ± ÙĪ
ĠØ§ÙĦØ£Ùħ Ø«ÙĦ
ĠØ§ÙĦÙħØ± Ø¬Ø¹
ĠØ¯ÙĪÙĨ ÙħØ§
ĠÙĪØ§ÙĦØ´ Ø±ÙĥØ§Øª
ro s
ĠØ§ÙĦØ®ÙĦ Ø·
ĠØ§Ø« ÙĨÙĬ
ĠØ§ÙĦØ£ÙĪØ± ÙĪØºÙĪØ§ÙĬ
ĠÙĨØ² Ø¹
ĠÙĤÙĦØ¨ Ùĩ
ĠÙĪØ§ÙĦÙħØ³ ÙĦÙħÙĬÙĨ
Ø¨Ø¯Ø§ ÙĬØ§Øª
ĠÙĦÙħØ± Ø¶
ĠØ¯Ùģ Ø¹Ø©
Øª Ø¶
Ùģ ÙĩÙĬ
ĠØ§ÙĦÙħ ÙĩØ±Ø¬Ø§ÙĨØ§Øª
ĠØŃ Ø§Ø³ÙħØ©
ÙĩÙħ Øª
ØªØ± ÙĪ
ĠÙĪØª ØŃØ±
ĠÙĪÙĤØ¯ ÙħØª
Ø§Ø° Ø¨
ĠØªØµ ÙĨÙĬ
ĠØ§Ø® ØªÙĬ
ĠØ®Ø· ÙĬØ±
ĠÙĦØ¥ Ø²Ø§ÙĦØ©
ĠØ§ÙĦÙĬØ§Ø¨ Ø³Ø©
ĠÙĦÙĦÙĤ Ø±ÙĨ
ÙħØŃ Ø§ÙģØ¸Ø©
ĠØ¨Ø·Ø± ÙĬØ±Ùĥ
ĠØ±ÙģÙĬ ÙĤ
i tion
ĠÙĪ Ø¨ÙĬØª
ĠØ¥ Ø´Ø¹
ĠØ§ÙĦØ¬ Ø§Ø±ÙĬØ©
ĠØ¨Ø§ÙĦ ÙĦØ§ØªÙĬÙĨÙĬØ©
ĠØ® Ø²Ø§ÙĨ
ĠØ£ÙĪ Ø±ÙĬ
Ø³ÙĬ Ùĩ
ĠØ§ÙĦÙħØ¹ Ø§Ø¯ÙĦØ§Øª
ĠØ§ÙĦÙħØ³Øª ÙĤÙĦ
ĠØ§ÙĦÙħØ³Øª ØŃÙĬÙĦ
ĠØ¯Ø± ÙĩÙħ
ÙĥÙĬ ÙĦÙĬ
ĠØ®Ø· ÙĬ
ĠØ£Ø± Ùī
ĠÙĪØµ ÙĦØ©
ĠÙĦØ¬ Ø§ÙĨ
ĠÙħ Ø±Ø¨Ø¹Ø©
ĠØª Ø¸ÙĦ
ĠÙĨ ØŃØµÙĦ
Ø§ØŃ Ùħ
ĠÙħØŃ ØªØ±Ùģ
ĠÙĪØ§ÙĦÙħ Ø²
ĠÙĪÙħÙĨ ØªØ®Ø¨
ĠØ¨ØŃ ÙĤÙĪÙĤ
in a
is h
ĠØ¢ÙĦ ÙĩØ©
ĠÙĪØ§ÙĨ Ùĩ
ĠØ®Ø± Ø§Ø¦Ø·
ÙĪØªØ´ ÙĬØ±
ĠØ¨Ø´Ø± Ø§Ø¡
ĠÙĪØ§ÙĦ Ø®ÙĦ
ĠÙĪØ§ÙĦ Ø±ÙĬØ§Ø¶ÙĬØ§Øª
ĠØŃ Ø´Ø¯
ĠØ³ ÙĬØ²
ĠØ± ÙĤÙĬÙĤØ©
ĠØ´ ÙĪÙĥ
ĠÙĪØª ÙĦÙĤÙī
Ø¤ ÙĪØ§
ĠÙĬÙĨ Ø³Ø¨
ØªÙģ Ø§Ø¹Ø§Øª
ĠÙĪØ§ÙĦØ¥ Ø±
ĠØ³Ùħ Ø¹Øª
ÙĪØº ÙĪ
ĠØ£Ø² Ø±ÙĤ
ĠØ¨Ø¯ÙĬ ÙĦØ©
ÙĬ Ø£ØªÙĬ
Ø® Ø§Ø·Ø±
ĠÙĬ Ø±ÙģØ¹
ĠÙĥ ÙĪØ²
ĠÙĩ Ø§Ø±Øª
ĠÙĨ ÙĬØ¨
ĠÙĦÙĦ Ø¯ÙĬÙĨ
ĠØ§ÙĦÙģ ÙĬÙĨÙĬ
ĠÙĪØ¨ Ø§ÙĦÙģØ¹ÙĦ
ĠÙĪÙĦ ÙĦÙħ
ĠØ§ÙĦØ¨ÙĬ ÙĪÙĦÙĪØ¬ÙĬ
ĠÙĦÙĤ ØªÙĦ
ĠØŃØ§ÙĦ ØªÙĩ
ĠØ£ÙħÙĬØ± ÙĥØ§
ĠÙĦØº Ø²ÙĪ
ĠØªØºÙĬØ± Øª
ĠØ£Ø³ÙĦ Ø§Ùģ
c he
ÙĤ ÙĬØ§
Ø¬ Ø¨Ø±
Ø² ÙĩØ§
ĠØŃ ÙģÙĬØ¯
ĠØ´ Ø§Ø¦
ÙĪÙĬ ØŃ
ÙħÙĦ Ø§Ø¡
ĠØ² ÙĦØ²Ø§ÙĦ
ÙĦÙĥÙĨ Ùĩ
ĠØ¨Øª Ø®
ÙħØ§ÙĨ Ø©
ÙħØª ÙĦÙĥ
ĠØ§ÙĦØ¥Ø³ ÙħØ§Ø¹ÙĬÙĦÙĬØ©
ĠØ¨Ø±ÙĪØª ÙĬÙĨØ§Øª
Ø§Ø«Ø± ÙĬÙĨ
ĠØ§ÙĦØ³Ø§Ø® ÙĨØ©
ĠØ§ÙĦØªÙĨØ§Ø³ ÙĦÙĬØ©
ÙĨ Ø³Ø¨
Ø¨ ÙĬØ±Ø©
Ø¶ ÙĦ
ĠÙĤ Ø§Ø¶
ĠØ£ÙĨ Ø¨ÙĪØ¨
ĠØ¨Ø§ÙĦ ÙĦÙĤØ¨
ĠØ§ÙĦÙĦ Ø¬Ø§ÙĨ
ĠØ§ÙĦÙĩ Ø§Ø¦ÙĦ
Ø·Ø¨ Ø®
ĠØ§Ø± ØªØ¯Ø§Ø¡
ĠÙĤÙĬ Ø§Ø³ÙĬØ©
ĠÙĤØªÙĦ ÙĪØ§
Ġ188 4
ĠØ£ÙĪØ¨ Ø§ÙħØ§
ĠÙĪ Ø·ÙĦ
ĠÙĪ ÙĪØ³Ø·
ĠÙĦ ÙĪØ±ÙĬ
ĠØ§ÙĦØŃ ÙĦÙħ
ĠØ§ÙĦÙĨ Ø¶Ø§ÙĦ
Ø¨Ø± ÙĨØ§ÙħØ¬
ĠØ¨Ø§ÙĦ ØªØ²
ÙĪØ¯ ÙĪÙĨ
ĠÙĪØ£ Ø´Ø§Ø±
ĠØ§ÙĦØ£Ùħ ÙĬØ©
ĠØªØ¹ ØªØ±Ùģ
ĠØ§ÙĦÙħÙĪ Ø§ØµÙĦØ§Øª
Ø§Ø¯Ø± Ø§
ĠØªØ³ ÙĪÙĬÙĤ
ĠÙĬÙĪÙĨ Ø§ÙĨÙĬØ©
ĠÙĤØ§ÙĦ Ùĩ
ĠØŃÙħ Ø¯ÙĬ
ĠÙĦÙĪ Ø«Ø±
ĠG o
ĠÙģØª ÙĥÙĪÙĨ
ĠÙĬØ¹ØªØ¨Ø± ÙĪÙĨ
ĠØ§ÙĦØŃØ¶ Ø±ÙĬ
ĠÙħÙĨÙģ Ø°
ĠÙħØ³Ø±ØŃ ÙĬØ§Øª
ĠÙħØºÙĦ ÙĤØ©
×ķ ×
ĠÙĬ Ø¨ÙĬÙĨ
Øº Ø±ÙĬ
ĠÙĨ Ø§ÙĦØª
ĠØ§ÙĦÙģ Ø®Ø§Ø±
ĠØ§ÙĦØ· Ø§ÙĤÙħ
ÙĪØª ÙĬÙĨØ§Øª
ĠÙĪÙħ ÙĪÙĤØ¹
ĠÙĪØŃ Ø²Ø¨
ĠØ§ÙĦØ¶ Ø±Ø¨
ĠØ§ÙĦØ¶ Ø§Ø¨Ø·
ĠØ§Ø¹ ØªØ²
ĠÙĪØ´ Ø§Ø¹Ø±
ĠØ§ÙĦØ§ÙĨØª ÙĤØ§Ùħ
ĠÙħØ§Ø± ØªÙĬÙĨ
ĠÙĦØ¯ ÙĪÙĦ
Ġw h
ĠÙģØµ Ø§Ø¦ÙĦ
ĠØ§ÙĦÙħØ§Ø±Ùĥ Ø³ÙĬØ©
ĠØ¨Ø§ÙĦÙĬØ§Ø¨ Ø§ÙĨÙĬØ©
ĠØª Ø¬ÙħØ¹Ø§Øª
Ø§Ø± Ø¬Ø©
Ø« ÙĬÙĨ
ĠØ§ÙĦØª ÙĦÙĤ
ÙĥÙĨ Øª
ÙĪØ¬ Ø§
ĠØ§ÙĦÙĦ Ø¤ÙĦØ¤
ĠØ§ÙĦÙħÙĨ Ø§ÙģØ³
ĠÙĬØª Ø¹Ø§ÙħÙĦ
ĠØªØµ ÙĪÙĬØª
ĠÙĦÙĦØ£ Ø¹ÙħØ§ÙĦ
ÙĪØ§Ø¬ ÙĨ
ÙĪØ£ Ùħ
un t
Ùħ Ø¯ÙĬ
ĠÙĪØ£ ØµØ¯Ø±
ĠØ£ØŃ ØµØ§ÙĩØ§
ĠØ¨Ø§ÙĦÙħ ÙĬØ§Ùĩ
Ø¨ÙĤ Ø§Ø±
ĠØ§ÙĦØ±Ø¦ ØªÙĬÙĨ
ĠØ¹Ø§Ø² Ùģ
i ti
Ã ¶
ĠØ§ÙĦØ³ Ø§ÙħØ©
ĠØ§ÙĦÙĤ Ø¹Ø¯Ø©
Ø¥ ÙħÙĥØ§ÙĨ
ĠØªØŃ ØµÙĬÙĦ
ĠÙĪØ¨ Ø§ÙĦØª
Ø§Ø° Ø¨Ø©
Ġ189 1
ĠÙĦØ¥ÙĨ ÙĤØ§Ø°
Ġ188 7
ĠØ´Ùĥ Ø³Ø¨ÙĬØ±
ĠØ§ÙĦØ¥ÙģØ± Ø§Ø¬
ÙĤ Ø¶
ĠØ¨ Ø§Ø¬
ĠØ§ÙĦÙħ Ø±Ø¨Ø¹
ĠÙĬ Ø¹ÙĦÙĨ
ĠØ¥ ÙĥÙħØ§ÙĦ
ĠØ§ÙĦØª Ø¬Ø²Ø¦Ø©
Ø§Ùģ ÙĪÙĨ
Ø§Ø¬ Ø¹Ø§Øª
ĠØ² Ø¹
ĠØªÙĤ Ø§Ø·Ø¹
ĠØ£Ø³ Ø¦ÙĦØ©
Ø¢ ÙĦ
ĠÙĤØ¯Ùħ ÙĪØ§
ĠØ§ÙĦÙħÙĦ Ø§ØŃØ¸Ø§Øª
ĠØ§ÙĦØ§ØŃ ØªÙĥØ§Ùĥ
ÙĪØ´ Ø§Øª
ĠØ§ ÙĪØ±
ĠØ§ÙĦØµÙĦ Ø§ØŃ
ÙĪØ³ÙĪÙģ ÙĪ
ĠÙħØ³ØªØ®Ø¯Ùħ ÙĬ
ÙĥØ³ÙĬ Ùĥ
ĠØ®Ùħ ÙĬØ³
ĠÙĨØ³Øª Ø·ÙĬØ¹
ĠÙģ Ø§ÙĨÙĩ
ĠØ£ ØªØª
ĠØ¥ ÙĬØ§Ùĩ
ĠØ§ÙĦØ£ Ø¹ÙĦØ§Ùħ
ÙĪØ§ ÙĩØ¯
ĠØ§Ø³Øª Ø¹Ø§Ø¯
ĠÙĪØ§ÙĦÙħ ÙĪ
ĠÙĪØŃ Ø¬Ùħ
ĠØ£Ø¯ ÙĪÙĦÙģ
ĠØ§ÙĦØªÙĨ Ø³
ĠØ£ØµØ¨ØŃ ÙĪØ§
ĠØ¹Ø´ Ø§Ø¦Ø±
ĠÙĪÙħØ¯ Ø±Ø¨
ĠØ¶Ø¦ ÙĬÙĦØ©
Ùħ Ø§Ø±Ø³Ø§Øª
Øª Ø´Ø±
ĠÙģ Ø¨Ø¹Ø¯
ĠØ£ ØµØ±
ĠÙģÙĬ Ø²ÙĬØ§Ø¡
ĠÙĪØ§ÙĦ Ø¬Ø²Ø§Ø¦Ø±
ĠÙĩ Ø¬Ø±ÙĬ
ĠØ¨ÙĦ ÙĪ
ĠÙĪÙĦ ÙĤØ¨
ĠÙĪÙĨ Ø§Ø¦Ø¨
ĠÙĥÙħ ØµØ¯Ø±
ĠØªØµ ØºÙĬØ±
ĠØ§ÙĦØ¹ÙĦ Ø§Ø¬Ø§Øª
ĠØŃÙħÙĦ ØªÙĩ
ĠØ¥Ø¹ÙĦ Ø§ÙħÙĬØ©
ĠÙĦÙĦØ® Ø§Ø±Ø¬
ĠØ§Ø¹ØªÙĤØ§ÙĦ Ùĩ
ĠÙĪÙĥÙĦØ§ ÙĩÙħØ§
ĠØ§ÙĦÙĦÙĬØ«ÙĬ ÙĪÙħ
ĠÙħ ÙħÙĦÙĪÙĥØ©
Ø¬ ÙĬØ¬
ĠØ§ÙĦØ¬ ÙĪØ¹
ĠØ§ÙĦÙĨ Ø´
ĠØ¨Ø§ÙĦ Ø¯Ùħ
ÙĪØ³ ÙĪÙħ
ÙĪÙĬ Ø²
Ø³Ø¨ Ø§ÙĨ
ĠØ§ÙĦØ² ÙĩÙĪØ±
ĠÙĤØ± Ø§Ø±Ø§
ĠØªØ¯ Ø¹ÙĪ
Ġ187 6
ĠØ§ÙĦÙħØ³Ø§ÙĩÙħ ÙĬÙĨ
Ø§ÙĦ ÙĩØ¯Ùģ
ĠØ§ÙĦØ£ ÙĪØ¨
ĠÙĨ Ø³ÙĦ
ĠØ§ÙĦÙĨ Ø·ÙĤ
ĠØ§ÙĦÙĨ ÙĪØ§ØŃÙĬ
ĠÙħØ¹ ÙħÙĦ
ĠØ§ÙĦÙĥ ÙĪÙĨÙĬØ©
ĠØ§ÙĦØ¯ ÙĪÙħ
ĠØ§ÙĦØ± Ø¬Ø§Ø¡
ÙĪÙĤ Ø§ÙĦØª
ĠÙĪØ£ Ùĥ
ĠÙĪØ£ ÙĦÙģ
ĠØ² ÙĬØ¯Ø§ÙĨ
ĠØ¨Ø§ÙĦÙħ Ø´Ø§Ø±ÙĥØ©
ĠØ§ÙĦÙĨÙĤ Ø¯ÙĬ
ÙĪØº Ø§ÙĦØ¨Ø§
ĠÙĬÙĥ ÙħÙĦ
ra b
ĠØ§ÙĦØ¯ÙħØ§Øº ÙĬ
ĠØµØ¹ ÙĪØ¨Ø§Øª
ĠAn d
ĠÙħ ÙĬØ²Ø§Øª
ĠØ§ÙĦØ¥ ÙĬ
ØªÙĬ Ùģ
ĠØ§ÙĦØº Ø¨Ø§Ø±
ĠØ§ÙĦÙħØŃ ÙĦÙĪÙĦ
ĠÙħØ¨ Øª
ĠÙĪØ§ÙĦØª Ø¹Ø§ÙĪÙĨ
ĠØ§ÙĦÙĨØ§Øª ÙĪ
ĠØ§ÙĦØªØ±Ø¬ ÙĬ
Ùģ ÙĪØ§
Ø¨ Ø§ÙĦÙħ
ĠÙĪ ÙĪØ¬Ùĩ
ĠØ¨ Ø§ÙĬØª
ĠØ£ ÙĬÙħÙĨ
ĠÙĦ Ø±ÙģØ¹
ĠÙĤ ÙħÙħ
ÙĪÙĬ Ø³Ø±Ø§
ĠØ£ÙĪ Ø¯ÙĬ
ĠØ§ÙĦØº Ø±Ùģ
Ø¯Ø§ ÙĪÙĦØ©
ĠÙĦØ£ Ø¨ÙĬ
ĠØ¹Ùħ ÙĦÙĬØ§
ĠØªØ³ Ø®ÙĬÙĨ
ÙĪØ£ Ø´Ø§Ø±
ĠM an
ĠØ§ÙĦØ¹Ùħ Ø±ÙĬ
ĠØ§ÙĦÙħÙĨØª Ø®Ø¨Ø§Øª
ĠÙĦØªÙĤ ÙĦÙĬÙĦ
ĠØ¥ØµØ§Ø¨ ØªÙĩ
ĠØ¨ ÙĪØ±Ø¯ÙĪ
ĠØ§ÙĦØ£ Ø®Ø°
ĠØ§ÙĦØŃ ÙĪØ³Ø¨Ø©
ĠØ§ÙĦØ³ ÙĥØ©
ĠØ± Ø®
ĠØ§ÙĦØ´ ÙĤÙĬÙĤ
ĠØ§ÙĦØ± ÙĤÙĬÙĤ
ĠÙħØ³ Ø§Ø¨ÙĤØ§Øª
ĠØ§ÙĦØ² ÙĨÙĥ
ĠØ¥ÙĤÙĦÙĬÙħ ÙĬØ©
ĠØ§ÙĦÙģÙĤ ÙĬØ±Ø©
ĠØ§ÙĦÙħØªÙħÙĬØ² Ø©
ĠØ§ÙĦÙĦØ§Ø³ ÙĦÙĥÙĬØ©
ÙĨ Ø¨Ø§Øª
Ø¯ ÙĪÙĬØ©
ĠÙĦ ÙĪØ±ÙĨ
ĠØª ÙĪØ¸ÙĬÙģ
ĠØŃ Ø¨Ùĩ
ĠØ³ ÙĬÙĪ
Ø¸ ÙĬØ±
ĠØ§ÙĦØ´ Ø·Ø±ÙĨØ¬
ĠØ¨Ùħ Ø³Øª
ĠØ§ÙĦØ¢ ÙĬØ§Øª
ĠÙģØ± Ø¬ÙĬÙĨÙĬØ§
Ø¨Ùĩ Ø§Øª
ÙĪÙĬÙĦ ÙĬØ©
ĠØ£Ø® ØªÙĩ
ĠØ§ÙĦÙħØ® Ø²
ĠØ§ÙĦØ¥ÙĦÙĩ ÙĬØ©
ĠØ£ÙĦØ¨ÙĪÙħ ÙĩØ§
ĠØ§ÙĥØª Ø³Ø§Ø¨
ĠÙĪØ§ÙĦ Ø¸
ĠØ§ÙĦØ¹ Ø¬Ø²
ĠØ§ÙĦØ¬ Ø°Ø±
ĠØ§ÙĦØµ ÙģØ©
ĠØ¢ ÙĦÙĬ
ĠÙĪÙĬ ØªÙħÙĬØ²
ĠÙĪÙĥ Ø§Ø±
ĠÙĪØ³ Ø§Ø±
ĠØ§ÙĦØ¶ Ø¨Ø§Ø¨
ĠØ£Ø´ Ø¨Ø§Ùĩ
ĠÙĪØ¯ Ø§Ø±
ĠØ£Ø® Ø¶Ø±
Ġd ata
ĠØ§ÙĦØ§Ùħ ÙĬØ±
ĠØ¥ÙĬØ¬ Ø§Ø¨ÙĬ
ĠÙĪÙĬÙĦÙĬØ§Ùħ Ø²
__ __
ĠÙĥØ§ÙħØ¨ Ø±ÙĬØ¯Ø¬
ĠØ¹ ÙģØ§ÙĨ
ĠÙģÙĬ Ø´Ø±
ĠØŃ Ø§ØµØ±
ĠØ´ Ø¬Ø¹
ĠÙħØ¹ ÙĬÙĦÙĪÙĨ
ĠØ® Ø§Ø·Ø¦Ø©
[...]
