{"<s>":0,"<pad>":1,"</s>":2,"<unk>":3,"<mask>":4,"!":5,"\"":6,"#":7,"$":8,"%":9,"&":10,"'":11,"(":12,")":13,"*":14,"+":15,",":16,"-":17,".":18,"/":19,"0":20,"1":21,"2":22,"3":23,"4":24,"5":25,"6":26,"7":27,"8":28,"9":29,":":30,";":31,"<":32,"=":33,">":34,"?":35,"@":36,"A":37,"B":38,"C":39,"D":40,"E":41,"F":42,"G":43,"H":44,"I":45,"J":46,"K":47,"L":48,"M":49,"N":50,"O":51,"P":52,"Q":53,"R":54,"S":55,"T":56,"U":57,"V":58,"W":59,"X":60,"Y":61,"Z":62,"[":63,"\\":64,"]":65,"^":66,"_":67,"`":68,"a":69,"b":70,"c":71,"d":72,"e":73,"f":74,"g":75,"h":76,"i":77,"j":78,"k":79,"l":80,"m":81,"n":82,"o":83,"p":84,"q":85,"r":86,"s":87,"t":88,"u":89,"v":90,"w":91,"x":92,"y":93,"z":94,"{":95,"|":96,"}":97,"~":98,"¡":99,"¢":100,"£":101,"¤":102,"¥":103,"¦":104,"§":105,"¨":106,"©":107,"ª":108,"«":109,"¬":110,"®":111,"¯":112,"°":113,"±":114,"²":115,"³":116,"´":117,"µ":118,"¶":119,"·":120,"¸":121,"¹":122,"º":123,"»":124,"¼":125,"½":126,"¾":127,"¿":128,"À":129,"Á":130,"Â":131,"Ã":132,"Ä":133,"Å":134,"Æ":135,"Ç":136,"È":137,"É":138,"Ê":139,"Ë":140,"Ì":141,"Í":142,"Î":143,"Ï":144,"Ð":145,"Ñ":146,"Ò":147,"Ó":148,"Ô":149,"Õ":150,"Ö":151,"×":152,"Ø":153,"Ù":154,"Ú":155,"Û":156,"Ü":157,"Ý":158,"Þ":159,"ß":160,"à":161,"á":162,"â":163,"ã":164,"ä":165,"å":166,"æ":167,"ç":168,"è":169,"é":170,"ê":171,"ë":172,"ì":173,"í":174,"î":175,"ï":176,"ð":177,"ñ":178,"ò":179,"ó":180,"ô":181,"õ":182,"ö":183,"÷":184,"ø":185,"ù":186,"ú":187,"û":188,"ü":189,"ý":190,"þ":191,"ÿ":192,"Ā":193,"ā":194,"Ă":195,"ă":196,"Ą":197,"ą":198,"Ć":199,"ć":200,"Ĉ":201,"ĉ":202,"Ċ":203,"ċ":204,"Č":205,"č":206,"Ď":207,"ď":208,"Đ":209,"đ":210,"Ē":211,"ē":212,"Ĕ":213,"ĕ":214,"Ė":215,"ė":216,"Ę":217,"ę":218,"Ě":219,"ě":220,"Ĝ":221,"ĝ":222,"Ğ":223,"ğ":224,"Ġ":225,"ġ":226,"Ģ":227,"ģ":228,"Ĥ":229,"ĥ":230,"Ħ":231,"ħ":232,"Ĩ":233,"ĩ":234,"Ī":235,"ī":236,"Ĭ":237,"ĭ":238,"Į":239,"į":240,"İ":241,"ı":242,"Ĳ":243,"ĳ":244,"Ĵ":245,"ĵ":246,"Ķ":247,"ķ":248,"ĸ":249,"Ĺ":250,"ĺ":251,"Ļ":252,"ļ":253,"Ľ":254,"ľ":255,"Ŀ":256,"ŀ":257,"Ł":258,"ł":259,"Ń":260,"Ø§":261,"ÙĦ":262,"ÙĬ":263,"ĠØ":264,"Ùħ":265,"Ø§ÙĦ":266,"ÙĪ":267,"ÙĨ":268,"ĠØ§ÙĦ":269,"Ø±":270,"Øª":271,"Ø©":272,"Ø¯":273,"Ùģ":274,"Ø¨":275,"Ùĩ":276,"Ø¹":277,"Ø³":278,"Ùĥ":279,"ÙĤ":280,"ĠÙħ":281,"ĠÙĪ":282,"ĠØ§ÙĦØ":283,"Ø§Ø":284,"ĠÙģ":285,"ĠØ¨":286,"ĠØ£":287,"ÙĬØ©":288,"Ġ.":289,"ØŃ":290,"ĠØĮ":291,"ĠØ¹":292,"Ø§ÙĨ":293,"ĠÙģÙĬ":294,"ĠÙĦ":295,"Ø¬":296,"Ùī":297,"ĠØ§ÙĦÙħ":298,"Ø§Øª":299,"ĠØª":300,"ĠÙħÙĨ":301,"ÙĬÙĨ":302,"Ø·":303,"Øµ":304,"Ø§Ø±":305,"Ø§Ùħ":306,"Ø´":307,"ÙĦÙī":308,"Ø®":309,"ĠÙĬ":310,"ĠØ¥":311,"Ø²":312,"ĠÙĥ":313,"ÙĩØ§":314,"Ø£":315,"Ø¶":316,"Ø«":317,"ÙĬØ±":318,"ĠØ§ÙĦØ£":319,"ÙĪÙĦ":320,"ÙĪÙĨ":321,"ĠÙĪØ§ÙĦ":322,"Ø°":323,"ĠØŃ":324,"Ø±ÙĬ":325,"ĠØ§ÙĦØª":326,"Ø§Ø³":327,"ĠØ³":328,"Ø§Ø¯":329,"ĠØ§ÙĦØ¹":330,"ĠÙĩ":331,"Øº":332,"Ø§Ø¨":333,"ĠÙĤ":334,"ÙĪØ±":335,"ĠÙĨ":336,"Ġ1":337,"ÙĦÙĬ":338,"ĠØ¹ÙĦÙī":339,"Ùĭ":340,"Ø§Ø¡":341,"Ø§Ø¦":342,"ÙħØ§":343,"ĠØ¬":344,"Ġ\"":345,"ĠÙĦÙĦ":346,"Ø¯ÙĬ":347,"ĠØ£ÙĨ":348,"ĠØ§ÙĦØŃ":349,"ĠØ¥ÙĦÙī":350,"ĠØ§ÙĦØ³":351,"Ø§Ø¹":352,"ÙģÙĬ":353,"ĠØ§ÙĦÙĤ":354,"ÙĦÙĥ":355,"ĠØ¯":356,"ÙĪÙħ":357,"ĠØ§ÙĦØ¨":358,"Ġ)":359,"Ġ(":360,"Ø±Ø¨":361,"Ø¸":362,"Ø§Ùģ":363,"ĠØ±":364,"ĠØ´":365,"ÙĬÙĦ":366,"Ùĳ":367,"ĠØ§ÙĦØ¬":368,"Ùİ":369,"Ø§ØŃ":370,"Ø¯Ø©":371,"Ø³Øª":372,"Ø±Ø©":373,"Ġ2":374,"ÙĬØ§":375,"ĠØ§ÙĦÙĨ":376,"ĠÙħØ¹":377,"Ø¨Ø±":378,"ĠØ¨Ø§ÙĦ":379,"Ùı":380,"ÙĩÙħ":381,"Ø§ÙĤ":382,"ĠØ§ÙĦØ´":383,"ĠØ®":384,"Ø¹Ø¯":385,"ĠØ§ÙĦØ¥":386,"ĠØ¹ÙĨ":387,"ÙĦÙħ":388,"ÙĪØ³":389,"Ø¥":390,"Ø¹Ø©":391,"ØªÙħ":392,"ĠØ§ÙĦÙĥ":393,"Ġ19":394,"ĠØ§ÙĦØ¯":395,"Ø±Ùĥ":396,"ÙĤØ¯":397,"ÙĬÙħ":398,"ĠØ§ÙĦÙģ":399,"ĠØ¹Ø§Ùħ":400,"Ø§Ø¬":401,"ÙĪØ¨":402,"ÙĪÙĬ":403,"ĠØ§ÙĦØ±":404,"Ø§ÙĨØª":405,"Ø¦":406,"Ġ:":407,"Ø§Ø³Øª":408,"ĠØ£ÙĪ":409,"00":410,"ÙħÙĨ":411,"ÙħÙĦ":412,"ÙĪØ¯":413,"ÙĬØ³":414,"ÙĬØ¯":415,"ĠÙĩØ°":416,"Ø§Ùĥ":417,"ÙħØ©":418,"ĠØ§ÙĦØªÙĬ":419,"Ø³Ø¨":420,"Ø§Ø·":421,"ÙĦØ©":422,"ØªØ±":423,"ĠØµ":424,"Ø¨ÙĬ":425,"ÙĤØ©":426,"ĠØ·":427,"Ø¨ÙĦ":428,"Ġ-":429,"ĠØ§ÙĦØ®":430,"ĠØ§ÙĦØ°":431,"ÙĦØ§":432,"ĠØ°":433,"ÙĥÙĨ":434,"ÙĥØ§ÙĨ":435,"ÙĪØ¬":436,"Ø§Øµ":437,"ĠØ§ÙĦØµ":438,"ĠØ¨ÙĨ":439,"ĠÙĪØª":440,"ÙĪÙĤ":441,"ĠØº":442,"ÙĪØ§":443,"ØªÙĬ":444,"Ø´Ø±":445,"ÙħØ±":446,"ØªÙĩ":447,"Ø¤":448,"Ø®Ø±":449,"ØŃØ¯":450,"ÙĨØ©":451,"ĠÙĪØ£":452,"Ø§ÙĨÙĬ":453,"Ø§Ø²":454,"ĠØ§ÙĦÙĦ":455,"ÙĪÙģ":456,"ÙĲ":457,"ĠØ§ÙĦØ«":458,"ÙĬØ§Øª":459,"Ø§Ùĩ":460,"ÙĥÙĦ":461,"ĠØ«":462,"Ø¯Ø±":463,"ĠØ§ÙĦØ·":464,"ÙĪØ¹":465,"Ø¯Ùħ":466,"Ø³ÙĬ":467,"Ø³Ùħ":468,"Ø§Ø¶":469,"ÙĪØª":470,"ĠÙħØ§":471,"ĠØ¨ÙĬÙĨ":472,"ĠÙĪÙĩ":473,"Ø¬Ùħ":474,"Ø§ÙĦÙĬ":475,"ĠÙĥØ§ÙĨ":476,"ØªØ¨":477,"ÙĤÙĬ":478,"Ø³ÙĦ":479,"Ø§ÙĦÙħ":480,"ÙĦÙģ":481,"Ø¯ÙĬÙĨ":482,"Ø¹ÙĦ":483,"ÙĨÙĬ":484,"ÙĬØ«":485,"ØªØŃ":486,"ØµÙĦ":487,"Ø§Ø®":488,"Ø§Ø«":489,"Ø§Ø±ÙĬ":490,"ÙĩØ±":491,"Ø§Ø±Ø©":492,"Ø¨Ø¯":493,"ĠØ§ÙĦÙħÙĨ":494,"ĠÙħØŃ":495,"ĠÙĦÙħ":496,"ĠØ£ÙĬ":497,"Ø¹Ø±":498,"ĠÙĪÙħ":499,"ĠØ¨Ø¹Ø¯":500,"ÙĥØ±":501,"ÙĦØ§ÙĦ":502,"ĠØ§ÙĦØ°ÙĬ":503,"ÙĬØ±Ø©":504,"Ø±ÙĨ":505,"ĠØ§ÙĦÙĪ":506,"ÙĨØ¯":507,"ÙĥÙĪÙĨ":508,"ĠÙĩÙĪ":509,"ÙĬØª":510,"ÙĬØ¹":511,"Ġ200":512,"Ø§ÙĨÙĬØ©":513,"ĠØªØŃ":514,"ĠÙĩØ°Ùĩ":515,"Ø§Ø´":516,"ØµØ±":517,"ÙİÙĳ":518,"ÙĢ":519,"ĠÙĩÙĬ":520,"Ø¹Ø¶":521,"Ø¬ÙĦ":522,"ÙĤÙĦ":523,"Ø«Ø±":524,"ÙĬÙĪ":525,"Ø§Ø¯Ø©":526,"Ø«ÙĦ":527,"ĠØ§Ø³Øª":528,"Ø¨Ø©":529,"ĠØªÙħ":530,"ÙħØ§ÙĦ":531,"ĠØ¢":532,"ĠØ°ÙĦÙĥ":533,"Ø¯ÙĬÙĨØ©":534,"Ø¯ÙĬØ¯":535,"ĠØ£Ùĥ":536,"ĠØ²":537,"ĠÙĩØ°Ø§":538,"Ø£ÙĨ":539,"ĠØŃÙĬØ«":540,"ÙĬÙģ":541,"Ø·ÙĦ":542,"ĠØ¶":543,"ĠØ¹ÙĦÙĬ":544,"ĠÙĪØ¨":545,"Ø³Ø±":546,"ĠØ§ÙĦØº":547,"ÙĩØ¯":548,"ÙĪÙĥ":549,"Ø·Ø©":550,"Ø±ÙĤ":551,"ÙĬØ²":552,"Ġ20":553,"ĠÙĥÙĦ":554,"Ø¹Ø¨":555,"ÙĪÙĦØ©":556,"Ø§Ø¯ÙĬ":557,"ÙĪÙĬØ©":558,"Ø¯Ø¯":559,"Ø¥ÙĨ":560,"ÙĪØ±ÙĬ":561,"Ø±Ø¶":562,"ĠÙĦØ§":563,"Ø±ÙĥØ©":564,"ÙħØ¯":565,"ĠØ§ÙĦÙĩ":566,"ĠÂ":567,"ĠÙĪÙĬ":568,"ÙĪØ§Øª":569,"ĠÙħØª":570,"ĠØ§ÙĨ":571,"Ø°Ø§":572,"ÙĨØ§":573,"ĠØ§ÙĦØ£Ùħ":574,"Ø±ÙĬÙĤ":575,"ĠØªØ¹":576,"Ø§Ø³Ùħ":577,"ÙĪØ²":578,"ĠÙĪØ§ÙĦÙħ":579,"ØµØ¨":580,"Ġ3":581,"ĠØªÙĤ":582,"Ġ/":583,"ĠØ¨ÙĦ":584,"Ø±ÙĬØ©":585,"Ø§ÙģØ©":586,"ÙģØ±":587,"ØŃÙĬ":588,"Ø¬Ø©":589,"ÙĨØª":590,"ĠÙĥØ§ÙĨØª":591,"Ø®Øµ":592,"Ø°ÙĦÙĥ":593,"Ø³Ø©":594,"ØªÙī":595,"ĠÙĪÙĤ":596,"ÙĪØ±Ø©":597,"ĠÙħÙĤ":598,"ĠØ¨Ø¯":599,"ĠÙĪØ¬":600,"Ø¹Øª":601,"ÙĴ":602,"ÙģØ³":603,"ÙĪÙģÙĬ":604,"Ø£Ø³":605,"ĠÙħØ±":606,"ĠØ³ÙĨØ©":607,"ĠÙħØ³":608,"Ø¦ÙĬØ³":609,"ĠÙĤØ¨ÙĦ":610,"ĠØ£Ùħ":611,"Ġ201":612,"ÙĨÙĬØ©":613,"Ø¡":614,"ĠØ§ÙĦÙħØª":615,"ÙĦØ¨":616,"ÙģØ©":617,"Ø±Ø¨ÙĬØ©":618,"ĠÙĦÙĩ":619,"ĠØ§ÙĦØ²":620,"ĠÙĪØ¹":621,"ØªÙĦ":622,"ĠØ®ÙĦØ§ÙĦ":623,"ĠØ§ÙĦÙĬ":624,"ØŃØ©":625,"Ø±ÙĬÙĥ":626,"ØªÙĩØ§":627,"ĠØ§ÙĦÙħØŃ":628,"ÙĬØ´":629,"ĠØ§ÙĦÙħØ¹":630,"ĠÙĪÙĥ":631,"Ø®Ø±Ùī":632,"ĠØ¹ÙĨØ¯":633,"ØªØµ":634,"ĠØ¨Ùħ":635,"Ø§Ø±ÙĬØ®":636,"ÙĬÙĥ":637,"Ø¶Ø§":638,"Ø³Ø·":639,"Ø§ÙĦØ©":640,"ĠØ¨Ø¹Ø¶":641,"ĠØ¨Ø±":642,"ĠÙħØ«ÙĦ":643,"ĠØ§ÙĦØ¹Ø§ÙĦÙħ":644,"Ø´ÙĥÙĦ":645,"ĠØ³ÙĬ":646,"ĠÙĤØ¯":647,"ĠØ¹Ø¯Ø¯":648,"Ø§Ø±Ùĥ":649,"ĠØ¥ÙĨ":650,"ØŃØ±":651,"ĠØŃØªÙī":652,"Ø§ÙĦÙĬØ©":653,"ĠÙĬÙħ":654,"ĠÙĦØª":655,"ĠÙĪÙĦ":656,"ÙĤØ±":657,"ĠÙĦÙĦÙħ":658,"ĠØ£Ø¨":659,"Ø·ÙĤØ©":660,"ÙĪÙĦØ§":661,"ÙĪØ¶":662,"ØªØ§Ø¨":663,"ĠÙĪØŃ":664,"Ø®ÙĦ":665,"ÙĬØ¨":666,"Ø·Ø±":667,"Ġ18":668,"ĠÙĥÙħØ§":669,"ĠØºÙĬØ±":670,"Ø¬Ø±":671,"ĠØ«Ùħ":672,"ĠØ§ÙĦÙħØ³":673,"Ø²ÙĬ":674,"ĠÙĪÙĩÙĪ":675,"ĠØ§ÙĦØ¢":676,"Ø«ÙĬØ±":677,"ÙĦÙĬÙħ":678,"Ø®Øª":679,"ÙĪÙĩ":680,"ÙĥÙħ":681,"Ø§Ø¦ÙĦ":682,"Ø®Ø¯Ùħ":683,"ĠÙĥØ¨":684,"ĠÙĬØª":685,"ĠØ¬Ùħ":686,"Ø§Ø±Ø§Øª":687,"ĠØ£Ø³":688,"ĠØ§ÙĦÙħØ±":689,"Ġ4":690,"ĠÙĬÙĨ":691,"Ø§Ø¦ÙĬØ©":692,"Ø®Ø¯":693,"ÙģØ¶":694,"Ø¹ÙĬØ©":695,"ĠÙĪÙħÙĨ":696,"Ø§Ø©":697,"ĠØ§ÙĦØ¹Ø§Ùħ":698,"ĠÙĬØ¹":699,"ÙĪÙī":700,"Ġ,":701,"ĠÙħØ³Øª":702,"âĢ":703,"Ġ%":704,"ØµØ¨ØŃ":705,"ØµÙģ":706,"Ø§ÙĬ":707,"ØªÙģ":708,"ÙĪØŃ":709,"ÙĤØ·":710,"ĠØ³Ø¨":711,"Ø§Ø¦ÙĬ":712,"ÙĪØ§ÙĨ":713,"ÙĪØ§ÙĦ":714,"ÙĦÙĥÙĨ":715,"ÙĪØ¹Ø©":716,"ĠØªØ´":717,"Ø¹Ùħ":718,"ĠÙħØ¯ÙĬÙĨØ©":719,"Ø¹ÙĬ":720,"ÙĨØ§Ø¡":721,"Ø¸Ùħ":722,"ĠÙĪØ§ÙĦØ£":723,"ĠØ§ÙĨØª":724,"ĠØ§ÙĦÙħØ³Øª":725,"ĠØ¹Ø¨Ø¯":726,"ĠØ¯Ø±":727,"Ø¯Ø§":728,"ĠØ§ÙĦØ¥ÙĨ":729,"ÙĦÙĬØ©":730,"ĠÙĪÙģÙĬ":731,"ĠÙħØ¨":732,"ĠØ£ÙĨÙĩ":733,"Ø§Ø¹Ø©":734,"Ġ5":735,"Ø³Ø¨Ø©":736,"ÙĪØ©":737,"Ø§ÙĦØª":738,"ĠÙĪÙĨ":739,"ĠØ£ÙĥØ«Ø±":740,"Ġ199":741,"ÙĪØ±ÙĬØ©":742,"ĠÙħØ¯":743,"ØºÙĬØ±":744,"ĠÙĪÙĤØ¯":745,"ĠØ¨ØŃ":746,"ĠÙĬÙĤ":747,"ĠØªÙĨ":748,"ĠÙĪÙĩÙĬ":749,"ĠÙĪÙģ":750,"ĠØ§ÙĦØ³ÙĬ":751,"ĠØ£ÙĪÙĦ":752,"Ø±ÙĥØ²":753,"ÙĨÙĪØ¨":754,"ĠØ§ÙĦÙħØªØŃ":755,"ĠØ§ÙĦÙĦÙĩ":756,"Ø¢":757,"ĠØ§ÙĦØ¨ÙĦ":758,"ÙĤØ§":759,"ĠØ§ÙĦØ£ÙĪÙĦ":760,"Ø±Ø¯":761,"ĠØ¨Øª":762,"Ø¨Ø§Øª":763,"Ø¸Ø§Ùħ":764,"ÙĪÙĦÙī":765,"ĠØ§ÙĦØ£Ø³":766,"Ø³ÙĦØ§Ùħ":767,"ĠÙģÙĬÙĩØ§":768,"ĠÙĪØ§ØŃ":769,"Ø¦Ø©":770,"Ø¨ÙĦØº":771,"ĠØ§Ø¨":772,"ÙĨØ§Ùĥ":773,"ĠØ¨Ùĩ":774,"Ø³Ø¨Ø¨":775,"ĠÙĪØ§ÙĦØª":776,"ĠÙĦØ£":777,"Ġ6":778,"Ø®Ø¯Ø§Ùħ":779,"Ø§Ø±Ø³":780,"ĠÙħØ´":781,"ÙħØ¨Ø±":782,"Ø§Øº":783,"ĠØ£Ø¹":784,"ĠØ§ÙĦØ¨Ø±":785,"ÙĬÙĬÙĨ":786,"ĠÙĪÙĦÙĥÙĨ":787,"ÙĪØ·":788,"ĠØªØª":789,"ÙĪØ§Ø±":790,"ĠØ£ØŃØ¯":791,"ÙĦØ§Ø«":792,"ÙĬÙĤ":793,"ØºØ©":794,"ĠØ¹ÙħÙĦ":795,"ĠØ§ÙĦØ³ÙĦ":796,"ÙĪÙħØ©":797,"Ø«Ùħ":798,"Ø®ØªÙĦÙģ":799,"ĠâĢ":800,"ĠØªØ±":801,"ÙħØ³":802,"ĠØ£ÙĬØ¶Ø§":803,"ĠØ§ÙĦØ§Ø³Øª":804,"Ø§ÙĦØ¨":805,"ÙģØª":806,"ÙĬÙĦØ©":807,"Ø°Ùĩ":808,"ĠØ¹Ø´Ø±":809,"Ùį":810,"ĠÙħØ¬":811,"ĠÙħØµ":812,"ÙĤØ§ÙĦ":813,"ĠÙĪØ³":814,"Ø§ÙĨÙĬØ§":815,"ĠØªØŃØª":816,"ÙģÙĦ":817,"ĠÙĬÙħÙĥÙĨ":818,"ĠÙĪØ§ÙĦØªÙĬ":819,"ØªØ´":820,"ĠØ§ÙĦÙħØªØŃØ¯Ø©":821,"ĠØ¨Ø´ÙĥÙĦ":822,"ĠÙĪÙĦØ§":823,"ĠØ§ÙĦØ¶":824,"Ø§Ø³Ø©":825,"ØºØ±":826,"ĠØ³ÙĨ":827,"ĠØ¨Ø£ÙĨ":828,"ĠØ§ÙĦÙħØµ":829,"ĠÙĦÙĬ":830,"ØŃÙĪ":831,"ĠØ§ÙĦÙħØ¬":832,"Ø¯ÙĬØ©":833,"ĠÙģØ±":834,"Ø§ÙħÙĦ":835,"ĠÙĨÙģØ³":836,"Ø±Ø¨ÙĬ":837,"ÙĪØ³Ø·":838,"ĠÂ»":839,"ĠØ£Ø®Ø±Ùī":840,"ĠØ§ÙĦÙĤØ±ÙĨ":841,"ĠØ§ÙĦÙħØ¯":842,"ĠÂ«":843,"ÙĪÙĤØ¯":844,"Ø§ØµØ©":845,"ĠØĽ":846,"Ø§ØªÙĩ":847,"Ø¨ÙĬØ©":848,"ĠØ¨ÙĬ":849,"ÙĩØ©":850,"ĠÙĪØ±":851,"ĠÙħØŃÙħØ¯":852,"Ø²Ø©":853,"ĠÙĪØ¥":854,"ØªØ¯":855,"Ø§Ø³ÙĬ":856,"ĠØ¨ÙĩØ§":857,"ÙĬØ·":858,"Ø§Ø±ÙĬØ©":859,"ĠÙĪÙĥØ§ÙĨ":860,"ĠØ§ÙĦÙħØ¯ÙĬÙĨØ©":861,"ÙĦÙĤ":862,"ĠØ§ÙĦØ¬Ø²":863,"ÙĪØ¬Ø¯":864,"Ø§Ø°":865,"ĠÙħÙĨÙĩØ§":866,"ØµÙĪÙĦ":867,"ĠØ§ÙĦÙħØ´":868,"ØªÙĬÙĨ":869,"Ø¶Ø§ÙģØ©":870,"Ø§ÙĬØ©":871,"ĠØ§ÙĦÙħÙĪ":872,"Ø§Ø³ÙĬØ©":873,"ĠØ§ÙĦØ¹Ø±Ø¨ÙĬØ©":874,"Ø¹Ø§Øª":875,"ÙĥØ³":876,"ĠÙģØ¥ÙĨ":877,"ĠÙĬØŃ":878,"ÙĬÙĨÙĬ":879,"ĠÙĥÙħ":880,"ØºÙħ":881,"ĠÙħØ¬Ùħ":882,"Ø§ÙħØ¹Ø©":883,"Ġ198":884,"Ø§Ø¨Ø©":885,"Ø§ÙĤØ©":886,"Ø§ØŃØ©":887,"ĠÙĬØªÙħ":888,"ĠØªØµ":889,"er":890,"ĠØ§ÙĦØ¹Ø¯ÙĬØ¯":891,"ĠØ§ÙĦÙħÙĦÙĥ":892,"ÙĬÙĨÙĬØ©":893,"ĠØ§ÙĦÙħÙħ":894,"ĠØ¨Ø£":895,"ĠØ§ÙĦØ¯ÙĪÙĦ":896,"Ø±Ø§Øª":897,"Ø¯ÙĬØ¯Ø©":898,"ĠÙħØ¤":899,"ĠØ¸":900,"ĠØ£Ø¯":901,"ØªØ±Ø©":902,"ÙĪÙĤØ¹":903,"ĠÙĬÙĥÙĪÙĨ":904,"Ø³Ø§":905,"ĠÙħÙĪ":906,"an":907,"ÙĥÙĬ":908,"ĠØ§Ø¹":909,"on":910,"Ø±Ùģ":911,"Ġ7":912,"Ø¶Ùħ":913,"ÙĥÙħØ§":914,"ÙĥØª":915,"Ø³ÙĬØ©":916,"ØªØ¬":917,"in":918,"ÙĤØ¨":919,"ĠØ§ÙĦØ¥Ø³ÙĦØ§Ùħ":920,"Ø§Ø±Ø¬":921,"Ġ8":922,"ĠØ³ÙĦ":923,"ĠØªÙĦÙĥ":924,"Ø¸Ø±":925,"ĠØ§Øª":926,"ĠÙħÙħ":927,"ĠØªØ¬":928,"ĠØ§ÙĦØ£ÙħØ±ÙĬÙĥ":929,"ÙĩÙĦ":930,"ĠØ§ÙĦØ£ÙĪÙĦÙī":931,"ĠØ¬Ø²":932,"ĠØ§ÙĦØ±Ø¦ÙĬØ³":933,"Ø§ÙħØ©":934,"ĠÙĨØ³":935,"ĠØ¹ÙĦÙĬÙĩ":936,"ĠØ¹Ùħ":937,"Ø¯Ùĩ":938,"ÙĬÙĩ":939,"Ø§ÙĬØ±":940,"ÙĬØ®":941,"ÙĤØ¯Ùħ":942,"ĠØ£Ø´":943,"Ø¬ÙĦØ³":944,"ÙĪØ§ÙĦÙĬ":945,"ĠØ¥ÙĦØ§":946,"Ø§ÙĦØ§Øª":947,"ĠØ§ÙĦÙħØ¤":948,"ÙĪØ±ÙĪØ¨":949,"Ø®Ø¨":950,"ĠÙĬÙĪÙħ":951,"ĠØ§Ø®":952,"Ø¯ÙĬÙħ":953,"ĠØ§ÙĦØ¹ÙħÙĦ":954,"ĠÙĦÙĩØ§":955,"ĠØ§ÙĦØ¹Ø±":956,"ĠØ¥ÙĦÙĬ":957,"Ġ]":958,"Ġ197":959,"ĠÙĦÙĥÙĨ":960,"ĠØ§ÙĦÙĤØ±":961,"ĠÙĤØ±":962,"ÙĦØ§Øª":963,"ÙĪÙĬØ±":964,"ĠØ£ØŃ":965,"Ø³ÙĨ":966,"ĠØ¨Ø·":967,"Ø³ØªØ®Ø¯Ùħ":968,"Ø¹ÙħÙĦ":969,"ĠÙħÙĪØ³":970,"Ø§Ø¶ÙĬ":971,"ÙĪØ¯Ø©":972,"Ø¨Ùĩ":973,"ĠØ§Ø³Ùħ":974,"Ø§ÙģØ¸":975,"ĠØ±Ø¦ÙĬØ³":976,"ĠØ§ÙĦØ¹ÙĦÙħ":977,"Ø¯ÙĬØ«":978,"ĠØ£Øº":979,"Ø¨ÙĨ":980,"Ø±Ø¬":981,"ĠÙħÙĨØ°":982,"or":983,"ĠØ§ÙĦØ¹ÙĦ":984,"Ø¯Ùģ":985,"Ø¶Ø¹":986,"ĠØ§ÙĦØ§Øª":987,"Ø§ÙĨØ§Øª":988,"ĠØ¨Ø§ÙĦÙħ":989,"Ø¹Ø±Ùģ":990,"ĠØ§ÙĦØ°ÙĬÙĨ":991,"ĠØ«ÙĦØ§Ø«":992,"ĠÙĪØ²":993,"ĠØ¬ÙħÙĬØ¹":994,"Ø±ÙĬØ¨":995,"ÙĦÙĬÙĦ":996,"ÙĪØ§Ø¹":997,"ĠØ§ÙĦØªØ¹":998,"ĠÙĤØ§Ùħ":999,"ĠØŃØ¯":1000,"ØªÙĪ":1001,"ĠØ§Ø¨ÙĨ":1002,"Ø¸ÙĩØ±":1003,"ØµØ©":1004,"ÙĥØ±Ø©":1005,"Ø°ÙĬ":1006,"Ø¬Ø¯":1007,"ĠØŃÙĪÙĦ":1008,"Ġ196":1009,"ĠØ¨ÙĪ":1010,"Ø§ÙĦÙĬØ§":1011,"Ø§Ø¨Ø¹":1012,"Ġ>":1013,"ĠØ§ÙĦØ£ÙĨ":1014,"ĠÙģÙĬÙĩ":1015,"ĠÙĥØ¨ÙĬØ±":1016,"ØµØ¯":1017,"ÙĪÙĦØ§ÙĬØ§Øª":1018,"ĠØ§ÙĦØ¬Ùħ":1019,"Ø±ÙĬØ·":1020,"Ø³Ø§ÙĨ":1021,"ĠÙĥØªØ§Ø¨":1022,"Ġ9":1023,"Ø§Ø·ÙĤ":1024,"Ø¨Ø¯Ø£":1025,"ĠØ§ÙĦÙģÙĬ":1026,"Ø§ÙĨÙĪÙĨ":1027,"ĠÙħÙĦ":1028,"ĠØªÙĥÙĪÙĨ":1029,"ĠØ§ÙĦØ«Ø§ÙĨÙĬ":1030,"ĠÙģÙĤØ¯":1031,"ĠØªØ£":1032,"Ø§Ø¨Ø§Øª":1033,"ØŃØ§Ø¯":1034,"ĠØ§ÙĦÙħØ¨":1035,"ĠÙĨØ§Ø¯ÙĬ":1036,"ĠØ®Ø·":1037,"ĠØ§ÙĦÙĪØ·":1038,"ĠØ¹ÙĨØ¯ÙħØ§":1039,"Ġ15":1040,"Ø¨Ø¹Ø¯":1041,"ĠÙħÙĨØ·ÙĤØ©":1042,"ĠØ§ÙĦÙĪÙĤ":1043,"ĠØ§ÙĦØŃØ±":1044,"Ø¬Ø¨":1045,"Ø§Ø¯Ø±":1046,"ĠâĢĵ":1047,"Ø§ÙħØ¬":1048,"ĠÙĦÙĦØ£":1049,"ĠØ£Ø±":1050,"ĠØ§ÙĦØŃÙĥ":1051,"ĠØ¯ÙĪÙĦ":1052,"ĠØ§ÙĦØ¨ÙĬ":1053,"ĠØ¹ÙĦÙħ":1054,"ØªÙħØ±":1055,"ĠÙĩÙĨØ§Ùĥ":1056,"ĠÙĪØ´":1057,"ĠØ§ÙĦØªØŃ":1058,"ĠØ·Ø±ÙĬÙĤ":1059,"Ø®Ø·":1060,"ĠÙħØµØ±":1061,"ÙĦÙĩ":1062,"ĠØ§ÙĦØªÙĤ":1063,"ĠØ§ÙĦØ±ÙĬ":1064,"ÙħÙĪ":1065,"ĠØ¹ÙĦ":1066,"Ø§ÙĦØ«":1067,"ĠØ³ÙĥØ§ÙĨ":1068,"ÙĤÙĬÙĤ":1069,"Ø§Ø¦Ø±":1070,"ÙĪØµ":1071,"ĠÙħÙħØ§":1072,"Ġ10":1073,"ĠØ§ÙĦØŃØ±Ø¨":1074,"Ø§Ø¬Øª":1075,"ØªÙĤ":1076,"ØŃÙĬØ©":1077,"Ġ12":1078,"ĠØ¨Ø³Ø¨Ø¨":1079,"ĠÙĪØ§ÙĦØ¹":1080,"ÙĥÙĪ":1081,"ÙĩÙħØ§":1082,"ĠØ§ÙĦØ¯Ø±":1083,"Ø§ÙĤØªØµ":1084,"Ø¨Ø¹":1085,"ĠØ§ØŃ":1086,"Ø®Ø°":1087,"Ø¬Ùĩ":1088,"Ø¶Ø±":1089,"ĠØ°Ø§Øª":1090,"ĠØªØ·":1091,"Ø§ÙĦØŃ":1092,"ÙĥØ©":1093,"ĠØ§ÙĦØªÙĨ":1094,"ĠØ§ÙĦÙħØº":1095,"Ø³ÙĬÙĨ":1096,"ÙĩÙĬ":1097,"Ø¬Ø²":1098,"ÙĪØ§Ø¬":1099,"ÙĨÙī":1100,"Ġ[":1101,"ĠØ§ÙĦÙħÙĤ":1102,"ĠØ¨Ø¹":1103,"ÙĪÙĨÙĬ":1104,"ØŃØ¯Ø«":1105,"Ġ17":1106,"ÙĦÙĥØ©":1107,"Ø§Ø¬ØªÙħØ§":1108,"000":1109,"ĠØªØ³":1110,"Ġ13":1111,"ĠÙĬØ¯":1112,"ĠÙĦØ¥":1113,"ĠØ§ÙĦØªØ¬":1114,"ĠØ¨Ø§ÙĦØ¥":1115,"ÙĪÙħØ§Øª":1116,"ĠØ¢Ø®Ø±":1117,"ĠØªØ¯":1118,"Ġ194":1119,"ĠØ¹ÙĦÙĬÙĩØ§":1120,"ĠÙĦØ£ÙĨ":1121,"ĠØ§ÙĦÙĪÙĦØ§ÙĬØ§Øª":1122,"ÙĥØªØ¨":1123,"ÙĬØ§Ø©":1124,"ĠØŃÙĪØ§ÙĦÙĬ":1125,"Ø²Ø¨":1126,"ÙħÙĬ":1127,"ÙģØ¹":1128,"ĠØ£ØµØ¨ØŃ":1129,"ĠØªØ§Ø±ÙĬØ®":1130,"ĠØ¨Ø¥":1131,"ĠÙģÙĦ":1132,"ØªÙĨ":1133,"Ġ195":1134,"Ø§Ø¨ÙĦ":1135,"Ġs":1136,"ÙĪØ§Ø¡":1137,"ĠÙĪØ°ÙĦÙĥ":1138,"ĠØ¹Ø¯Ø©":1139,"Ø·ÙĦÙĤ":1140,"la":1141,"ØªØ¹":1142,"Ġ14":1143,"ĠØ§ÙĦØ´Ø±":1144,"ĠØ§ÙĦÙģØ±ÙĨ":1145,"Ø§Ø¯ÙĬØ©":1146,"ÙĪÙĬÙĦ":1147,"ĠØ¨Ø§Ø³Ùħ":1148,"ĠÙħØ¬ÙħÙĪØ¹Ø©":1149,"ĠØ£ÙĨÙĩØ§":1150,"ĠØ§ÙĦØ¹Ø±Ø§ÙĤ":1151,"Ø§ÙĨØ¨":1152,"ĠØ£Ø«":1153,"ĠÙĦØŃ":1154,"ĠÙħÙĦÙĬ":1155,"Ø·Ø¨":1156,"Ø±Ø¨Ø¹":1157,"Ø¹Ø±Ø¶":1158,"ĠØ´Ø®Øµ":1159,"ĠÙģÙĤØ·":1160,"ĠØ§ÙĦØ¬ÙĨ":1161,"Ø§Ø¨ÙĤ":1162,"ĠØ£ÙĥØ¨Ø±":1163,"Ø¸ÙħØ©":1164,"ĠA":1165,"Ø§Ø¹Ø¨":1166,"ÙģØ¶ÙĦ":1167,"Ø±ÙĬØ¯":1168,"ĠØ§Ø³ØªØ®Ø¯Ø§Ùħ":1169,"Ø¬ÙĨ":1170,"ĠC":1171,"ĠØ¬ÙĨ":1172,"Ø´ÙĬ":1173,"ĠØ¯ÙĪØ±":1174,"ÙĦØª":1175,"ÙĪØ¯ÙĬØ©":1176,"ĠØ¯ÙĬ":1177,"ĠØ³Øª":1178,"ĠØ§Ùħ":1179,"Ø§Ø®ÙĦ":1180,"ĠØ§ÙĦØ£Ø®Ø±Ùī":1181,"ĠØ§ÙĦÙĪÙĤØª":1182,"Ø·Ùģ":1183,"ĠØ§ÙĦØ§ÙĨØª":1184,"Ø´Ø§Ø±":1185,"ÙĬÙħØ©":1186,"ĠÙĦÙĨ":1187,"ĠØŃÙĬÙĨ":1188,"ÙĥØ±ÙĬ":1189,"ĠÙħØ®ØªÙĦÙģ":1190,"en":1191,"ĠS":1192,"Ø¹ØªØ¨Ø±":1193,"ĠÙĨØ³ÙħØ©":1194,"ĠÙĦØ¹":1195,"ĠØ§ÙĦÙħÙĨØ·ÙĤØ©":1196,"Ø¶Ø§Ø¡":1197,"ÙĬÙĨØ©":1198,"ĠØ§ÙĦØ¬ÙĨÙĪØ¨":1199,"ĠØ§ÙĦØ¯ÙĪÙĦØ©":1200,"ĠØ´Ø±ÙĥØ©":1201,"ĠÙĪØ§ÙĦØŃ":1202,"ĠØ§ÙĦØ§ÙĨ":1203,"Ø¬ÙĦÙĬ":1204,"Ø¹ÙħØ§ÙĦ":1205,"ĠÙĪØ§ÙĦØ°ÙĬ":1206,"ÙħØ§ÙĨ":1207,"ĠØ§Ø±":1208,"Ø§Ø¦Ø¯":1209,"ĠØ¨ÙĤ":1210,"Ø§Ø¹Ø¯":1211,"Ø¨Ø·":1212,"ĠÙĤØ¯Ùħ":1213,"ĠØ¶Ø¯":1214,"ÙĪØ«":1215,"ĠØ¯ÙĪÙĨ":1216,"Ø¨Øª":1217,"Ġ16":1218,"ĠØ§ÙĦØ¯ÙĬÙĨ":1219,"ÙĦÙĬØ§Øª":1220,"ĠØ§ÙĦØ¨ØŃ":1221,"ĠØ§ÙĦØ³ÙĥØ§ÙĨ":1222,"Ø§ÙģÙĬ":1223,"ĠØ§ÙĦÙĬÙĪÙħ":1224,"Ġ0":1225,"ĠØ§ÙĦÙħÙĦ":1226,"ĠØ§ÙĦØ£Ùĥ":1227,"ĠØ£ÙĤ":1228,"ØºÙĬ":1229,"ĠØ¥Ø¯":1230,"ØŃØ¯Ùī":1231,"ĠØ¹ÙħØ±":1232,"ĠØ§ÙĦØ£Ø¯":1233,"ÙģÙĨ":1234,"ØºÙĦ":1235,"ĠØ£ÙĩÙħ":1236,"ĠÙĪØ§ØŃØ¯":1237,"ÙģØ§Ø¹":1238,"Ġ11":1239,"ĠØ§ÙĦØ´Ø±ÙĤ":1240,"ĠØ§ÙĦØ£Ø±Ø¶":1241,"Ø¨Ø§ÙĦ":1242,"ØªØ¨Ø±":1243,"Ø¹Ø¯Ø§Ø¯":1244,"ĠÙĪØ¬ÙĪØ¯":1245,"ÙĬØ¬":1246,"ĠØ£Øµ":1247,"ĠØ§ÙĦØ£Ø®":1248,"Ø³ÙħÙī":1249,"ĠÙĨØ³Ø¨Ø©":1250,"Ø·Ø§ÙĨ":1251,"ĠÙĦÙĦØŃ":1252,"Ø§ØµØ±":1253,"ĠØ§ÙĦÙģÙĦ":1254,"ar":1255,"Ø§ÙģÙĬØ©":1256,"ĠÙħØ±ÙĥØ²":1257,"Ø·Ø§Ø±":1258,"al":1259,"Ø°ÙĥØ±":1260,"ÙĪØ¯ÙĬ":1261,"ĠÙĪØ§ÙĦÙĨ":1262,"ĠØ£Ø¨ÙĪ":1263,"ĠØ¹Ø¨":1264,"es":1265,"ÙĩÙĪØ±":1266,"ÙĩØ§ÙĬØ©":1267,"ØºØ·":1268,"Ø²Ø±":1269,"ĠØ¨Ø¯Ø£":1270,"ĠØ§ÙĦÙģØ±":1271,"Ø¯Ø±Ø³Ø©":1272,"Ø±ÙĬÙĤØ©":1273,"ĠÙĪØ£ÙĨ":1274,"ĠØ§ÙĦØ¯Ùħ":1275,"ĠØ¹Ø¨Ø±":1276,"ĠÙĪØ®":1277,"Ø§ÙģØ¸Ø©":1278,"ĠØ§ÙĦØ´ÙħØ§ÙĦ":1279,"ĠØ§ÙĦÙĥØ¨":1280,"ĠÙĨÙĤ":1281,"Ø¹ÙĦÙī":1282,"ĠØ§ÙĦØ«Ø§ÙĦØ«":1283,"Ø´Ø£":1284,"ÙĨØªØ§Ø¬":1285,"Ġ193":1286,"Ø§Ø¨Ø¹Ø©":1287,"Ø§ÙĪÙĦ":1288,"ĠØ¶ÙħÙĨ":1289,"ĠØ§ÙĦØ«Ø§ÙĨÙĬØ©":1290,"Ø²ÙĦ":1291,"Ø§Ø±Ø§Ø©":1292,"ĠØ§ÙĦØ·Ø¨ÙĬ":1293,"ÙĪØ£":1294,"ĠØ§ÙĦØ¨ØŃØ±":1295,"ĠÙĬØ´":1296,"Ø¯Ùī":1297,"ĠÙĨÙĪØ¹":1298,"ĠÙħØ±Ø©":1299,"ĠØ§ÙĦÙĤØ¯Ùħ":1300,"ĠØ§ÙĦØ´ÙĬØ®":1301,"ÙĲÙĳ":1302,"ÙĬÙħÙĬ":1303,"Ø®Ø±Ø¬":1304,"ÙĬØ±Ø§ÙĨ":1305,"ØŃÙĦØ©":1306,"ÙħØ¹":1307,"ĠØ§ÙĦØ£ÙħØ±ÙĬÙĥÙĬØ©":1308,"Ø«Ø§ÙĦ":1309,"ÙĬÙħÙĥÙĨ":1310,"ÙĬØ§Ùĩ":1311,"ĠØ¥ØŃØ¯Ùī":1312,"ĠÙĬØ³Øª":1313,"Ø²Ùħ":1314,"ĠÙĬÙĪÙĨ":1315,"ÙĬÙĨØ§":1316,"ĠØ¨Ø§Ø±":1317,"ĠÙĥØ¨ÙĬØ±Ø©":1318,"Ø¹Ø§Ø¯Ø©":1319,"ÙĥØ§ÙĨØª":1320,"Ø§Ø¹Ø¯Ø©":1321,"Ø³ÙĥØ±":1322,"ĠÙħÙĨÙĩ":1323,"ĠØ¬Ø§ÙħØ¹Ø©":1324,"ĠÙģØ±ÙĨ":1325,"ĠÙĪØ¯":1326,"ÙģØ±ÙĬÙĤ":1327,"ĠÙĤÙĬ":1328,"ØŃØª":1329,"ĠØ§ÙĦÙħÙĪØ³":1330,"ĠÙĪØ§ÙĦØ¥":1331,"ĠÙĬØ±":1332,"Ø¨ÙĤ":1333,"ĠØ¥Ø°Ø§":1334,"ĠØ´Ø±":1335,"ĠØ§ÙĦÙħÙĩ":1336,"ÙĨÙĬÙĨ":1337,"ĠØ§ÙĦØ£Ø±":1338,"ĠÙĪØºÙĬØ±":1339,"Ø§ÙħØ§":1340,"ĠØŃÙĤ":1341,"ĠÙĨØŃÙĪ":1342,"ÙĨØ§ÙĨ":1343,"ÙĦÙħØ©":1344,"ØµÙĨ":1345,"Ġ=":1346,"ÙĪÙĬØª":1347,"ØªØ±Ø§":1348,"Ø§ÙģÙĤ":1349,"ĠØ§Ø³":1350,"ĠÙĨØ¸Ø§Ùħ":1351,"Ø·Ø§Ø¹":1352,"ÙģØ§ÙĤ":1353,"ĠØ§ÙĦØŃØ¯ÙĬØ«":1354,"Ø´Ø±ÙĬÙĨ":1355,"Ø±ÙĥØ§Øª":1356,"ĠØ¨ÙħØ§":1357,"ĠØ§ÙĦØªØ§Ø±ÙĬØ®":1358,"Ø¨ØŃ":1359,"ti":1360,"ĠØ§ÙĦÙħØ³ÙĬ":1361,"Ø§Ø³Ø§Øª":1362,"Ø²ÙĬØ©":1363,"Ø§ØŃÙĬØ©":1364,"ÙĪÙħÙĨ":1365,"ÙħÙĬØ©":1366,"ÙĪÙĦÙĬ":1367,"Ø³ØªØ±":1368,"Ø§ÙĨØ§":1369,"Ø±ÙĬÙģ":1370,"Ø´Ø§Ø¡":1371,"ĠØ§ÙĦÙĤØ¯ÙĬ":1372,"ÙĬÙĨØ§Øª":1373,"ĠØ§ÙĦØ£ÙħØ±":1374,"ØªÙĬØ¬Ø©":1375,"ĠM":1376,"ĠÙħØ¬ÙĦØ³":1377,"ĠØ¬ÙĨÙĪØ¨":1378,"ØªØ®Ø¨":1379,"ĠØ§ÙĦØ¬ÙĬØ´":1380,"ĠØ§ÙĦØªØµ":1381,"ĠØ£ÙħØ±ÙĬÙĥ":1382,"Ø§Ø¦Ø±Ø©":1383,"Ø§ÙħÙĬ":1384,"ØŃØµ":1385,"Ø¶Ø©":1386,"ĠØ§ÙĦØ¹Ø±Ø¨ÙĬ":1387,"Ø§ÙĤØ¹":1388,"ÙĪÙĦÙĪØ¬":1389,"Ø§Ø¹ÙĬØ©":1390,"ĠØªÙĤØ¹":1391,"ĠØŃØ±":1392,"ĠÙĪÙĥØ§ÙĨØª":1393,"ÙĪÙĨÙĬØ©":1394,"ĠØ³Ø±":1395,"ÙĪÙħØ§":1396,"Ø¯Ø§Ø¯":1397,"ĠØ£ÙĬØ¶":1398,"ĠØ¨Ùĥ":1399,"ĠØ§ÙĦØªØ±":1400,"ĠØ§ÙĦÙĩÙĨØ¯":1401,"ĠØ§ÙĦØ£ØŃ":1402,"ÙĪÙĦØ¯":1403,"Ø§Ø·Ø¹Ø©":1404,"ÙĬØ±Ø§":1405,"ÙĦÙħÙĬÙĨ":1406,"ĠØ´ÙħØ§ÙĦ":1407,"ĠÙħØ¹Ø¸Ùħ":1408,"ØªÙħØ¹":1409,"ĠØ§ÙĦØ³Ø¹":1410,"ÙħØ¨Ø±Ø§Ø·":1411,"Ø¯ÙĦ":1412,"ØµÙĪØ±":1413,"ĠØ³Ùħ":1414,"Ġ<":1415,"ĠØ£ÙĦ":1416,"ĠØªØ±Ùĥ":1417,"ĠØ§ÙĦØ¹Ùħ":1418,"Ø³ÙħÙĬØ©":1419,"ĠÙģØªØ±Ø©":1420,"ĠÙĪÙĦÙħ":1421,"ĠØ¹ÙħÙĦÙĬØ©":1422,"ĠØ§ÙĦØ§ØŃ":1423,"Ø¹Ø§":1424,"Ġ192":1425,"ĠÙĪØªÙħ":1426,"ĠÙĬØ³":1427,"ĠÙĪØ§Ø³":1428,"Ø§Ø¦ÙĦØ©":1429,"ÙĨØ¯Ø§":1430,"ĠØ¨Ø§Ø³Øª":1431,"ĠÙĪØ§ØŃØ¯Ø©":1432,"ĠØ§ÙĦØŃÙĥÙĪÙħØ©":1433,"ØªØ¨Ø§Ø±":1434,"ĠØµÙĨ":1435,"ĠØ§ÙĦØ®Ø·":1436,"ĠØ£Ø¨ÙĬ":1437,"ÙĪØ´":1438,"ĠÙĪØ§Ø³Øª":1439,"ĠØ¯Ø§Ø®ÙĦ":1440,"Ø§ÙĨØ©":1441,"ĠÙĪÙĦØ§ÙĬØ©":1442,"Ø´Ùģ":1443,"ĠØ§ÙĦØ±ÙĪÙħ":1444,"ĠØ£ÙĪØ±ÙĪØ¨":1445,"Ø§ØŃÙĦ":1446,"ĠÙĪØ§ÙĦØ¯":1447,"ÙĩÙĪ":1448,"ĠØ§ÙĦØ§ØªØŃØ§Ø¯":1449,"ĠØ§ÙĦÙģØªØ±Ø©":1450,"ÙĬÙģØ©":1451,"ÙĬØ³Ø©":1452,"ÙĪØ±ÙĬØ§":1453,"Ø§ÙĦØ£":1454,"Ġt":1455,"ĠØ¨Ø§ÙĦÙĨ":1456,"ĠØ¯Ø±Ø¬Ø©":1457,"ĠØ§ÙĦØ±ØºÙħ":1458,"Ø§Ø±Ø¨":1459,"ÙĪØ¨Ø©":1460,"Ø§Ø¦ÙħØ©":1461,"Ø§Ø¸":1462,"Ø§ØµÙħØ©":1463,"Ø±Øª":1464,"ĠÙħÙĪØ³Ùħ":1465,"Ø¬ÙĬ":1466,"ĠÙĤØ§ÙĦ":1467,"ĠØ§ÙĦØ´Ø®Øµ":1468,"Ø³ÙĪÙĨ":1469,"ĠØŃØ³Ø¨":1470,"ØºÙĬØ±Ø©":1471,"ÙĪÙĥØ§ÙĨ":1472,"Ø¬ÙĪÙħ":1473,"ØªÙħØ¯":1474,"ĠØ´ÙĬ":1475,"ĠØ§ÙĦÙĦØºØ©":1476,"ÙĦØ§Ùģ":1477,"ÙģØ§":1478,"ĠØ§ÙĦØ¨Ø±ÙĬØ·":1479,"ĠÙĤØ¨":1480,"ĠØ¥Ø°":1481,"ĠØ³ÙĨÙĪØ§Øª":1482,"Ø§Ø¦ÙĬÙĦ":1483,"ĠØªØ²":1484,"ÙĩÙĪØ±ÙĬØ©":1485,"Ø¸ÙĬÙħ":1486,"ĠÙĥØ«ÙĬØ±":1487,"ÙĦÙĬØ§":1488,"ĠÙĩÙĢ":1489,"ĠÙħÙĦÙĬÙĪÙĨ":1490,"ĠØ¨Ø´":1491,"ĠÙĥØ±Ø©":1492,"Ø±Ø¨Ø¹Ø©":1493,"ÙħØ§Ùħ":1494,"Ø¬ÙħØ¹":1495,"ĠØ§ÙĦØ£ÙĦÙħ":1496,"ĠÙĥØ±":1497,"ĠØ§ÙĦØ¹Ø§ÙĦÙħÙĬØ©":1498,"ÙĤÙħ":1499,"ÙĤÙĬÙĤØ©":1500,"ĠÙĪØµ":1501,"ĠØ®Ø§ØµØ©":1502,"ĠØ£Ø«ÙĨØ§Ø¡":1503,"ĠØ§ÙĦØªØ´":1504,"Ø§Ø¹ÙĬ":1505,"ÙħÙĬÙħ":1506,"ĠØ§ÙĦÙĥØ«ÙĬØ±":1507,"ĠØ§ÙĦØ¨ÙĦØ§Ø¯":1508,"ĠP":1509,"Ø±Ø¨Ø©":1510,"ÙĬÙĪÙĨ":1511,"ÙĪØ¡":1512,"ĠÙĪØ§ÙĦØ´":1513,"Ø£ÙħØ§":1514,"ĠÙĦØ¯ÙĬ":1515,"ÙģØ§Øª":1516,"ĠÙĤØµ":1517,"ĠÙĦØ¬":1518,"ĠØ§ÙĦØ§Ø¬ØªÙħØ§":1519,"ĠØ§ÙĦÙĤÙĬ":1520,"Ø¨Ø§":1521,"ĠØ§ÙĦØ®Ø§Ùħ":1522,"ĠT":1523,"ÙĤØª":1524,"ĠØ§ÙĦÙĥØªØ§Ø¨":1525,"ĠØ¨Ø§ÙĦØ¥Ø¶Ø§ÙģØ©":1526,"ĠØ¨Ø¬":1527,"ĠØ§ÙĦØ¹Ø§ÙħØ©":1528,"ĠØ´ÙĥÙĦ":1529,"Ġ2010":1530,"Ø§Ø¹Ø§Øª":1531,"Ø§Ø¦Ùħ":1532,"ĠØ§ÙĦØ£Ø´":1533,"Ø§ÙĩØ±Ø©":1534,"ĠÙĪÙĤØª":1535,"ĠD":1536,"ÙĮ":1537,"ĠØ£ÙĦÙģ":1538,"ĠØ¨Ø§ÙĦØ£":1539,"ĠØ§ÙĦÙħØ¹Ø±":1540,"ĠØ£ÙħØ§":1541,"ĠØ§ÙĦØ§ÙĤØªØµ":1542,"Ø±ÙĬÙĦ":1543,"Ø¹Ùī":1544,"ĠØ§ÙĦØ¢ÙĨ":1545,"ÙĤØ§Ùħ":1546,"ĠÙĦÙĦØª":1547,"ĠØ§Ùĥ":1548,"ĠØ£ØŃÙħØ¯":1549,"ĠØ§ÙĦØ¸":1550,"ÙĥØ§Ø±":1551,"Ġf":1552,"ĠØ¨ÙĬÙĨÙħØ§":1553,"Ġ2008":1554,"ÙĪÙĬÙĨ":1555,"Ø¨Ø§Ø¨":1556,"ĠØ§ÙĦÙħÙĪØ¬":1557,"Ø·ÙĬ":1558,"ĠÙħØ§Ø±Ø³":1559,"ĠÙĪÙħØ¹":1560,"ĠØ£Ø®":1561,"Ġ191":1562,"ÙĩØ¯Ùģ":1563,"Ø³ÙĦØ³ÙĦ":1564,"ĠÙĦØ§ØŃ":1565,"ÙĬØ§ØªÙĩ":1566,"ÙĪÙĦÙĬÙĪ":1567,"Ø§ÙĨØ¯":1568,"ĠÙģÙĬÙħØ§":1569,"Ġc":1570,"ĠØ§ÙĦØŃØ¯":1571,"ĠÙĦÙĦÙĨ":1572,"Ġ2011":1573,"ÙĥØ§":1574,"ÙĬØ±ÙĬ":1575,"ĠØ£ÙĪØ±ÙĪØ¨Ø§":1576,"ĠÙĥØªØ¨":1577,"Ġ2007":1578,"ĠB":1579,"Ø³Ø§Ùħ":1580,"Ø§Ø¯Ø§Øª":1581,"Ġ2006":1582,"Ø§Ø¦Ø²Ø©":1583,"Ø³ÙĦØ©":1584,"ĠØ²ÙĬ":1585,"ÙĢÙĢ":1586,"ĠÙĦÙĦØ¥":1587,"ĠØ§":1588,"ĠØ§ÙĦÙħØ®":1589,"Ø·ÙĪØ±":1590,"Ġ25":1591,"ĠØ§ÙĦÙĤØ¯ÙĬÙħØ©":1592,"ĠØ§ÙĦØ¹Ø«Ùħ":1593,"Ø´Ø±ÙĪØ¹":1594,"ĠØ§ÙĦÙĨØ§Ø³":1595,"ĠØ¹Ø¶":1596,"ĠØ¯Ùħ":1597,"ĠÙĨÙģØ³Ùĩ":1598,"ØªÙĩÙħ":1599,"ĠØ¬Ø±":1600,"ĠØ§ÙĦØ®Ø§ØµØ©":1601,"ÙģÙĩ":1602,"Ø±ÙĨØ§ÙħØ¬":1603,"ĠØ°ÙĥØ±":1604,"ĠØ«ÙĦØ§Ø«Ø©":1605,"ĠÙĬÙĨØ§ÙĬØ±":1606,"ĠØ§ÙĦØ¨Ø·":1607,"ØµØ§Ø±":1608,"Ø³Ø±Ø§Ø¦ÙĬÙĦ":1609,"ĠØ£ÙĦÙħ":1610,"ĠØ§ÙĦÙħÙĬÙĦ":1611,"ÙĩØ±Ø¨":1612,"Ø«Ø§Ø±":1613,"ØªÙĪØ¨Ø±":1614,"Ø³Ø§Ø¡":1615,"ÙĩÙħØ©":1616,"ĠÙĬØ¤":1617,"ØªÙģØ§Ø¹":1618,"ĠØ£Ø¹ÙħØ§ÙĦ":1619,"ĠÙĬØ¬":1620,"ĠÙĪØ§ÙĦÙĤ":1621,"ĠØ£ÙĥØªÙĪØ¨Ø±":1622,"Ø²ÙĬØ²":1623,"ĠØ§ÙĦÙĥÙĨ":1624,"ÙĤØ¨ÙĦ":1625,"ĠÙģØ£":1626,"Ø³Ø³":1627,"Ø³ÙĥØ±ÙĬØ©":1628,"ÙĩÙĪØ¯":1629,"ÙĪØ±Ø¯":1630,"ĠØ§ÙĦÙĨØ¸Ø§Ùħ":1631,"Ø§Ø¦ÙĤ":1632,"ĠÙĪÙĦÙĬ":1633,"Ø²Ø§":1634,"ĠØ¨ÙĨØ§Ø¡":1635,"ĠÙĨÙĪÙģ":1636,"ĠØªÙģ":1637,"Ø§ÙĦØ¯":1638,"ĠØ§ÙĦØ£Øµ":1639,"ĠØ§ÙĦØ³ÙĨ":1640,"ĠØ£Ø¬ÙĦ":1641,"ĠØ¯ÙĬØ³":1642,"Ø¬Ø§ÙĦ":1643,"ĠØ¬Ø²Ø¡":1644,"ĠÙĦÙĬØ³":1645,"ĠØ±Ø³":1646,"ĠØ§ÙĦØ®Ø§Ø±Ø¬":1647,"ĠØ§ÙĦÙħØ±ÙĥØ²":1648,"ĠÙĨÙĩØ§ÙĬØ©":1649,"ĠØ¥Ø³":1650,"Ø§ÙĦÙĥ":1651,"ĠØ´ÙĩØ±":1652,"ĠØ§ÙĦØ±ÙĬØ§Ø¶":1653,"ÙĤÙĩ":1654,"ĠØ¨ÙĬØ±":1655,"ĠØŃÙĥÙħ":1656,"Ø§Ø¯ÙĦ":1657,"ÙĤÙĦÙĬÙħ":1658,"le":1659,"ĠØ§ÙĦÙĪØ·ÙĨÙĬ":1660,"is":1661,"ÙĤØ§Øª":1662,"ĠÙħØªØ±":1663,"Ø§ÙħÙĬØ©":1664,"ĠÙĨØ¬":1665,"ĠÙĪØ¶Ø¹":1666,"ĠÙģÙĪÙĤ":1667,"Ø·ÙģØ§ÙĦ":1668,"ĠØ¹Ø±Ø¶":1669,"ĠØ¨Ø§ÙĦÙĤ":1670,"ĠØ§ÙĦÙĨÙĤ":1671,"Ø·ÙĦØ§ÙĤ":1672,"ĠÙĥÙĪÙĨ":1673,"ĠÙĬØ²":1674,"ĠØ§ÙĦØ¹ÙĨ":1675,"ĠØ®Ø§Ø±Ø¬":1676,"ĠÙĪØ¨Ø¹Ø¯":1677,"ÙħÙĦØ©":1678,"Ø§ÙĤØ§Øª":1679,"ĠØ§ÙĦØŃÙĬÙĪ":1680,"Ø±ÙĪÙģ":1681,"ØµØ±ÙĬØ©":1682,"ĠÙĪØ·":1683,"ĠØ±ÙĬ":1684,"ĠØŃØ§ÙĦØ©":1685,"ØªØª":1686,"ĠØ§ÙĦÙĤÙĪØ§Øª":1687,"ĠÙħØ¨Ø§Ø±Ø§Ø©":1688,"ĠØ§ÙĦÙħÙħÙĦÙĥØ©":1689,"te":1690,"ĠØ§ÙĦØ´Ø¹Ø¨":1691,"Ø·ØŃ":1692,"ĠØ§ÙĦØµÙĨ":1693,"Ø·ÙĦØ¨":1694,"ĠØ§ÙĦÙĪØ³Ø·":1695,"Ø¨ÙĬÙĨ":1696,"ĠØ§ÙĦÙħÙĨØ§Ø·ÙĤ":1697,"Ġ2009":1698,"Ø¹Ø§Ø±":1699,"Ø¹ÙĬØ¯":1700,"ØªÙħØ¨Ø±":1701,"Ø·Ø¹":1702,"ÙĬØ±Ø§Øª":1703,"ĠØ§ÙĦØ·Ø¨":1704,"ĠÙħÙĩ":1705,"Ø§ÙĦÙģ":1706,"ĠÙħØ§ÙĬÙĪ":1707,"ĠÙĬÙĪÙĦÙĬÙĪ":1708,"ĠÙħØ®ØªÙĦÙģØ©":1709,"ĠØ§ÙĦØªØ±Ùĥ":1710,"ĠÙħÙĬÙĦ":1711,"ÙĪØº":1712,"ĠØ¹Ø§ÙħØ§":1713,"ÙĪØ¬Ùĩ":1714,"Ø³ÙĬÙħ":1715,"ĠØŃÙħ":1716,"Ġd":1717,"ĠÙĩØ¯Ùģ":1718,"Ø´Ø§Ø·":1719,"ĠØŁ":1720,"ÙĪÙħÙĬ":1721,"ĠÙĦÙĦØ¹":1722,"ĠÙĪÙĥØ°ÙĦÙĥ":1723,"Ġ30":1724,"ĠÙģØ±ÙĨØ³Ø§":1725,"ĠØ§ÙĦÙĨÙĩ":1726,"ĠØ§ÙĦØ³ÙĨØ©":1727,"ĠÙĦÙĤ":1728,"ĠØ§ÙĦØ£ÙĪØ±ÙĪØ¨":1729,"ĠØŃÙĥ":1730,"Ø¹Ø¯Ø¯":1731,"ÙĦÙĬÙĨ":1732,"he":1733,"ĠØ¯ÙĬØ³ÙħØ¨Ø±":1734,"ĠÙģÙĬÙĦÙħ":1735,"ĠØ§ÙĦØŃÙĬØ§Ø©":1736,"ĠØ¯ÙĪÙĦØ§Ø±":1737,"ĠØ³Ø¨ØªÙħØ¨Ø±":1738,"Ø¬Ø§Ø±":1739,"ØªØ¨Ø¹":1740,"Ø£Ø©":1741,"ĠØ¨Øº":1742,"ĠØ¹Ø§ÙĦÙħ":1743,"ĠÙħÙĦÙĥ":1744,"ÙĩØ°Ø§":1745,"ÙĨÙĬÙģ":1746,"ĠØ¥Ùħ":1747,"ĠÙĪØ§ÙĦØ±":1748,"ĠÙĦÙĥØ±Ø©":1749,"ĠØ¥ÙĨØªØ§Ø¬":1750,"Ø¬ÙĬÙĦ":1751,"Ø¶ÙħÙĨ":1752,"ĠØªÙĦ":1753,"ĠØ§Ø´":1754,"ÙĨØ§Ø©":1755,"ĠÙĨÙĪÙģÙħØ¨Ø±":1756,"Ø¹Ø¶Ø§Ø¡":1757,"ÙıÙĳ":1758,"ĠØ§ÙĦØ¥Ø³ÙĦØ§ÙħÙĬØ©":1759,"ĠØ§ÙĦØ«ÙĤ":1760,"ĠØ§ÙĤ":1761,"ÙĪÙħÙĬØ©":1762,"ĠØ§ÙĦÙħØ¬Ùħ":1763,"ĠØµÙģ":1764,"ĠØ£ÙħØ±":1765,"ic":1766,"Ø§ÙĥÙħ":1767,"ÙĪØ¶Ø¹":1768,"ĠÙĬÙĪÙĨÙĬÙĪ":1769,"Ø®Ø©":1770,"ĠØ¨Ø¯Ø§ÙĬØ©":1771,"Ø³Ø·Ø³":1772,"ĠØ§ÙĦØ¹Ø±Ø¨":1773,"ĠØ¹Ø´":1774,"ĠÙĪØ§ÙĦØ¨":1775,"ĠØ§ÙĦØ«ÙĦØ§Ø«":1776,"ĠØ¹ÙĩØ¯":1777,"ØªØ²":1778,"ĠÙĪØ§ÙĦØ³":1779,"Ø¨ÙĥØ©":1780,"ÙĩÙĢ":1781,"ĠØªØ³Øª":1782,"re":1783,"ĠÙħÙĥØ§ÙĨ":1784,"ĠÙĥØ£Ø³":1785,"ØŃÙĦ":1786,"ĠØ£ÙĨÙĪØ§Ø¹":1787,"Ø§Ø²ÙĬ":1788,"ÙĤÙĬØ©":1789,"ĠÙĦØ¨":1790,"ĠÙĥØ«":1791,"ÙĪÙĨØ©":1792,"ĠÙħÙĨÙĩÙħ":1793,"Ø¹ÙĬÙĨ":1794,"ĠÙħØ®":1795,"ĠØ§ÙĦØ¥ÙħØ¨Ø±Ø§Ø·":1796,"ĠØ¨ÙĢ":1797,"Ø¬ÙĦÙĬØ²ÙĬØ©":1798,"ÙĪØ§Øµ":1799,"ĠÙĥÙĨ":1800,"Ø³ÙħÙĬ":1801,"ĠØ¬Ø¯Ø§":1802,"Ġb":1803,"ĠØ§ÙĦØ§Ø¹":1804,"ĠÙ":1805,"ĠØ¬Ø¯ÙĬØ¯Ø©":1806,"ÙĪØ¹Ø§Øª":1807,"ĠÙħØ§Ø±":1808,"ĠØ§ÙĦØ¥ÙĨØ³Ø§ÙĨ":1809,"ÙĨØ¯ÙħØ§":1810,"ĠÙĦØ§Ø¹Ø¨":1811,"ĠØ´Ø±ÙĤ":1812,"ĠÙħÙĪØ¬":1813,"Ø¦Ø§Øª":1814,"ĠÙħÙĪÙĤØ¹":1815,"ĠØ§ÙĦÙĬÙħ":1816,"ĠØ§ÙĦØ£ÙħÙĬØ±":1817,"ĠÙħØ¬Ø§ÙĦ":1818,"Ø´ÙĤ":1819,"ĠØ§ÙĦÙĬØ§Ø¨":1820,"ĠØŃÙĦ":1821,"ĠØ£Ø´ÙĩØ±":1822,"ÙĪÙĤÙģ":1823,"Ø¹ÙĦÙĪÙħØ§Øª":1824,"ĠÙĪØ§ÙĦÙģ":1825,"Ø¯Øª":1826,"ÙĦÙĥØªØ±":1827,"ĠÙĥØ§Ø±":1828,"ĠØ§ÙĦÙģØ±ÙĨØ³ÙĬ":1829,"ĠØ¹Ø¯Ùħ":1830,"ÙĪÙģØ±":1831,"ÙĦØ§ÙĬØ§":1832,"ÙĨØ¨":1833,"ĠÙģØ¨Ø±":1834,"ĠØ§ÙĦØºØ±Ø¨ÙĬØ©":1835,"ØªØ§":1836,"ĠÙĦÙĥÙĦ":1837,"Ø§Ø¦Ùĩ":1838,"ĠØ§ÙĦÙĤØ§ÙĨÙĪÙĨ":1839,"ĠØ¨Øµ":1840,"ĠØ¨ÙĦØº":1841,"ÙĥØªÙĪØ±":1842,"ĠØªØ£Ø³":1843,"Ø§Ø¦Ø¨":1844,"ĠØ£ØºØ³Ø·Ø³":1845,"ĠÙĤØ±ÙĬØ©":1846,"ĠI":1847,"ĠÙĪØµÙĦ":1848,"ĠÙĦÙĪ":1849,"Ø¬Ø±Ø©":1850,"ÙĪØ³ÙĬ":1851,"ÙĥØ§ÙĦ":1852,"ÙĪØ§Ø¨":1853,"ØªØ§Ø¬":1854,"ĠÙĥÙĬÙĦ":1855,"Ø¯ÙĬØ§":1856,"ĠÙģØ¨Ø±Ø§ÙĬØ±":1857,"ĠØ§ÙĦÙĤØ¨":1858,"ĠÙĨØ¸":1859,"ĠØ¥ÙĦÙĬÙĩ":1860,"ĠØ£ÙĤÙĦ":1861,"ĠØ£ÙģØ¶ÙĦ":1862,"ĠØ£ÙĩÙĦ":1863,"ĠØ¹Ø§Ø¯Ø©":1864,"ĠØ§ÙĦØ¥Ø¯":1865,"ĠØ§ÙĦØŃÙĥÙħ":1866,"ÙĩØ§Ø¯":1867,"Ø·ÙĦØŃ":1868,"ÙĩØ§Ø²":1869,"ĠØ¬Ø§ÙĨØ¨":1870,"ĠØ§ÙĦØ±ØŃ":1871,"Ø§Ø¨ÙĤØ©":1872,"ØµÙĪØµ":1873,"Ø§ØªØ¨":1874,"Ø§ÙĦÙĨ":1875,"ĠÙĬÙĦ":1876,"ĠØ¨ÙĪØ§Ø³":1877,"ĠÙĬÙĥÙĨ":1878,"ĠÙĪÙħØ§":1879,"ĠØ§ÙĦÙĬÙĪÙĨ":1880,"ĠÙĬÙĪØ¬Ø¯":1881,"ĠØ£ÙħØ§Ùħ":1882,"Ø·Ø§Øª":1883,"ÙĪØ³ÙĬØ§":1884,"ĠØ§ÙĦØµØŃ":1885,"ĠØ§ÙĦØ«Ø§Ùħ":1886,"ĠØ¯ÙĪÙĦØ©":1887,"ĠÙĦÙĥ":1888,"ĠÙħÙĥ":1889,"ĠØ¬Ø¯ÙĬØ¯":1890,"ÙĪØ°":1891,"ĠÙģÙĨ":1892,"ÙĩØ¨":1893,"ĠØ§ÙĦÙģÙĬÙĦÙħ":1894,"ĠÙħÙĤØ§Ø·Ø¹Ø©":1895,"Ø§ØªÙĩØ§":1896,"Ø§ÙĩØ¯":1897,"ĠØ·ÙĪÙĦ":1898,"Ø±ÙĬÙħ":1899,"ĠØ§ÙĦØªØ¹ÙĦÙĬÙħ":1900,"Ø®ÙĬ":1901,"ĠØ§ÙĦÙĦÙĬ":1902,"ĠØ³ÙĥØ§ÙĨÙĩØ§":1903,"ÙĨØ·":1904,"ĠØ§ÙĦØ£Ø±Ø¯":1905,"Ġ2000":1906,"ĠØ§ÙĦØ¹Ø¨":1907,"ÙĬÙĥÙĬØ©":1908,"ĠØŃØ§ÙĦÙĬØ§":1909,"ĠR":1910,"Ø¬Ø§ÙĨ":1911,"ĠÙĨÙĬ":1912,"ĠL":1913,"ĠØ§ÙĦÙĤØ¯":1914,"ĠØ§ÙĦØ²Ø±":1915,"Ø·Ø¨ÙĬ":1916,"ĠØ³Ø¨ÙĬÙĦ":1917,"ÙģÙĬØ©":1918,"ĠØ·Ø¨ÙĬ":1919,"ÙħÙĬÙĨ":1920,"ĠØ¹ÙĨÙĩ":1921,"ĠØ¨ÙĪÙĦ":1922,"ĠØ§ÙĦØ´Ø±ÙĥØ©":1923,"ĠØ§ÙĦØ¯Ø§Ø®":1924,"ĠÙĪØ¹ÙĦÙī":1925,"ĠÙĪØ§ÙĦÙĥ":1926,"ĠÙĪØ§ÙĦØ¬":1927,"ĠØ¸ÙĩØ±":1928,"Ø¹Ø§Ø¨":1929,"ÙĪÙĨØ§Øª":1930,"ÙĪØ¨Ø±":1931,"ĠÙĪØ¥ÙĨ":1932,"ÙĪØ§Ø¯":1933,"ĠØ§ÙĦÙħØ³ÙĦÙħÙĬÙĨ":1934,"ĠÙĦÙĦÙĤ":1935,"ĠØ§ÙĦÙħØ²":1936,"ĠØ§ÙĦØ§Ø®":1937,"ĠØ¹Ø±":1938,"ĠØ§ÙĦØªØ£":1939,"ĠØ¢ÙĦ":1940,"ĠÙĬØ¬Ø¨":1941,"ÙģØ±ÙĬÙĤÙĬØ§":1942,"ĠÙĦÙħØ¯Ø©":1943,"ĠØ±Ø£Ø³":1944,"Ø§ÙĪÙĨ":1945,"ĠØ¨ÙĪØ§Ø³Ø·Ø©":1946,"ÙĪØ±ÙĨ":1947,"ĠØ¨ÙĨÙĬ":1948,"Ø³Ø§Ø¨":1949,"ØªÙħÙĬØ²":1950,"ĠØ§ÙĦÙĪØ·ÙĨÙĬØ©":1951,"ĠØ§ÙĨØªÙĤÙĦ":1952,"20":1953,"ĠÙĦÙĦØ´":1954,"ĠÙĪØ§ÙĨ":1955,"ĠØ§ÙĦÙħØŃÙĬ":1956,"ÙĨØ¯ÙĬ":1957,"ĠØ§ÙĦÙĨÙģ":1958,"Ġ2005":1959,"ĠÙĨØ´Ø±":1960,"ĠØ£Ø¨Ø±ÙĬÙĦ":1961,"ĠÙĪØ§ÙĦØ«":1962,"ÛĮ":1963,"Ø§ÙĦØ¬":1964,"ĠØºØ±":1965,"ĠÙĬÙĤÙĪÙħ":1966,"as":1967,"ĠØ§ÙĦØ®ÙĦÙĬ":1968,"ÙĩØ§Ø¨":1969,"Ġ21":1970,"Ø§Ø±Ø¹":1971,"ĠØ§ÙĦØ³Ø¹ÙĪØ¯ÙĬØ©":1972,"ÙĩØ¯Ø§Ùģ":1973,"ĠØ§ÙĦÙħØ¹Ø±ÙĪÙģ":1974,"ĠÙħØŃØ§ÙģØ¸Ø©":1975,"ĠØ§ÙĦÙħØµØ±ÙĬ":1976,"Ø³ØªØ§ÙĨ":1977,"ĠH":1978,"Ø·Ø±Ø©":1979,"ĠÙĦÙĩÙħ":1980,"ØµØ§ÙĦ":1981,"ÙħØª":1982,"ĠØ§ÙĦØ¬Ø¯ÙĬØ¯Ø©":1983,"ĠÙĦØ¯Ùī":1984,"Ø³Ø·ÙĬÙĨ":1985,"mu":1986,"ĠØŃØ±Ø¨":1987,"Ø§ÙĩÙĬÙħ":1988,"Ø§Ø±Ø¯":1989,"ĠØ§ÙĦØ¢Ø®Ø±":1990,"Ø§ÙħÙĦØ©":1991,"Ø¬Ø§Ùĩ":1992,"ĠÙĥØ§ÙĨÙĪØ§":1993,"ĠØ·Ø±":1994,"ĠØªØ®":1995,"ÙĬØ±ÙĬØ©":1996,"ro":1997,"Ø§Ø±Øª":1998,"ĠØ§ÙĦØ±Ø³":1999,"Ø«Ø©":2000,"Ø§Ø´Ø±Ø©":2001,"Ø§ÙĦØªØ§ÙĦÙĬ":2002,"ÙģØ±Ø§Ø¯":2003,"ÙĪØ§ÙĬØ©":2004,"Ø§Ø¯Ø±Ø©":2005,"ĠØ§ÙĦÙħØ§Ø¡":2006,"Ø³ÙĥØ±ÙĬ":2007,"ÙĨØ¯ÙĬØ©":2008,"ĠØ§ÙĦØ³Ø§Ø¨ÙĤ":2009,"ĠG":2010,"Ø§Ø¡Ø§Øª":2011,"ĠÙĦØ´":2012,"ĠØºØ±Ø¨":2013,"ĠØŃØµÙĦ":2014,"ÙģØ¸":2015,"Ø§Ø±Ø§":2016,"ĠÙħØ³ØªÙĪÙī":2017,"ĠÙģØ±ÙĬÙĤ":2018,"Ø±ÙĬØ³":2019,"ĠÙħØ¶":2020,"ĠÙģØ¹":2021,"Ø£ÙĬ":2022,"Ø§Ø¨Øª":2023,"ĠÙħØº":2024,"Ø§Ø¨Ùĩ":2025,"ĠØ¨ÙĤÙĬ":2026,"Ø¬Ø±ÙĬ":2027,"ĠØ¨Ø³":2028,"ĠÙĪÙĬØ¹":2029,"Ø·Ø§ÙĤ":2030,"Ġ23":2031,"ĠÙħÙĬ":2032,"ĠØ¨Ø·ÙĪÙĦØ©":2033,"Ø¬Ø§Ø²":2034,"ĠØ§ÙĦÙģÙĨ":2035,"ĠØ§ÙĦØ´ÙħØ§ÙĦÙĬØ©":2036,"Ø¯Ø§ÙĨ":2037,"ĠØ¨ÙĬØª":2038,"ÙĪØ§Ùģ":2039,"ĠØ§ÙĦØ¯ÙĪÙĦÙĬ":2040,"ĠØ±Ùħ":2041,"ĠØ¥ÙĬØ·":2042,"ØªØ±Ùĥ":2043,"Ġ24":2044,"Ø§ÙĪÙĬØ©":2045,"ĠØªÙĤØ±ÙĬØ¨":2046,"Ġp":2047,"Ø§Ø¶Ø·Ø±":2048,"ØªØ±Ø§Ùĥ":2049,"Ġ2004":2050,"ØµÙĬ":2051,"ĠØ¬Ø¯":2052,"ĠØ³Ø¬ÙĦ":2053,"ĠØ§ÙĦØªØ¯":2054,"ĠÙĦØªØŃ":2055,"Ø¹ÙĪØ¯":2056,"ÙĨØ§Øª":2057,"ĠØ§ÙĦÙĥÙĦ":2058,"ĠÙĦÙĦØ³":2059,"ĠÙĪØªØŃ":2060,"Ø¬ÙĩØ²Ø©":2061,"ÙĪØ§ØŃ":2062,"el":2063,"Ø§Ø¬Ø±":2064,"ĠF":2065,"Ġ100":2066,"Ø®Ø§Ø¨Ø§Øª":2067,"Ø¢ÙĨ":2068,"ØºØ±Ø§ÙģÙĬ":2069,"ĠØ§ÙĦØŃÙĤ":2070,"Ø®ÙģØ¶":2071,"ĠØ²ÙĪØ¬":2072,"ĠØ§ÙĦÙģØ±ÙĨØ³ÙĬØ©":2073,"ĠØ§ÙĦØ¬Ø±":2074,"ĠÙĦÙħÙĨ":2075,"ĠÙĪØ³Ø·":2076,"ĠØ§ÙĦØ£Øº":2077,"ĠØ§ÙĦÙģØ±ÙĬÙĤ":2078,"19":2079,"at":2080,"ĠØªØ¨":2081,"ĠØªÙĥ":2082,"ĠØ§ÙĦÙĪØŃ":2083,"Ġ22":2084,"Ø°ÙĩØ¨":2085,"ØªØ¨Ø©":2086,"Ø´ÙĦ":2087,"ĠØ£Ùģ":2088,"ÙĤØ±Ø§Ø·":2089,"ĠØ§ÙĦØ³ÙĪÙģÙĬ":2090,"ØŃØ¯Ø§Ø«":2091,"ØŃØ§":2092,"ĠØ¥Ø³Ø¨":2093,"ĠÙĨÙĤÙĦ":2094,"ĠØ§ÙĦØ§Ø³Ùħ":2095,"Ø¬Ø¹":2096,"Ø§ÙĩØªÙħ":2097,"Ø§Ø®Ø±":2098,"Ø§ÙĦØ³":2099,"ĠØŃØ±ÙĥØ©":2100,"ÙĦÙĬÙģ":2101,"ĠØ¬Ø¹ÙĦ":2102,"ĠÙĬÙģ":2103,"ĠØ§ÙĦØ³ÙĬØ§Ø³ÙĬØ©":2104,"ĠÙª":2105,"Ø§Ø¡Ø©":2106,"Ø§Ø±ÙĥØ©":2107,"ĠÙĦØ¨ÙĨ":2108,"Ø¹ØªÙĤØ¯":2109,"ĠØ§ÙĦÙħÙĬØ§Ùĩ":2110,"ĠØ§ÙĦØ³Ø¨":2111,"Ø§Ø´Ø±":2112,"ĠØ£ØµØ¨ØŃØª":2113,"ĠØ§ÙĦØ¬Ø¯ÙĬØ¯":2114,"ĠØ§ÙĦØ¬Ø²ÙĬØ±Ø©":2115,"ĠØ§ÙĦØ¹ØµØ±":2116,"ÙħØ§Ø¹":2117,"Ø¨Ø±Ø²":2118,"ÙĬÙĤÙī":2119,"Ø§Ø³Ø¨":2120,"ÙģÙĬØ°":2121,"ĠØ§ÙĦØ¥ÙĬØ·":2122,"ĠØ§ÙĦØ´Ø±ÙĤÙĬØ©":2123,"ÙĪÙĨØ³":2124,"ÙĦÙģØ²ÙĬ":2125,"Ø±Ø³":2126,"Ø¬Ø§":2127,"Ø¹ÙĦÙĨ":2128,"ØªÙĦØ§ÙĦ":2129,"ĠØ§Ùģ":2130,"ĠE":2131,"ĠÙħØ²":2132,"ĠØ§ÙĦØ¯ÙĪÙĦÙĬØ©":2133,"ĠN":2134,"ĠØ§ÙĦÙĥØ±":2135,"ĠØ®Ø§Øµ":2136,"ĠØ§ÙĦØ·Ø§ÙĤØ©":2137,"ĠÙĪÙĬÙĨ":2138,"ĠØ§ÙĦØ£ÙĦ":2139,"Ø«ÙĦØ©":2140,"ĠØ¥Ø¶Ø§ÙģØ©":2141,"ÙĪØ±Ùĥ":2142,"ÙĪÙĬØ§Øª":2143,"ÙħØ§ÙĬØ©":2144,"Ø³ÙĬØ§":2145,"Ø·ÙĬØ¹":2146,"ĠØ£ÙĦÙħØ§ÙĨÙĬØ§":2147,"ÙĪØ§Ø¦":2148,"ĠØ¥ÙĦ":2149,"ĠØ§ÙĦØ¹ÙħØ±":2150,"ĠØ£ØµÙĦ":2151,"Ø§Ø¹Ø±":2152,"Ø§ÙĩØ±":2153,"Ø§ÙħØ§Øª":2154,"Ø¨Ø±Ùī":2155,"ĠÙĪØ«":2156,"ĠÙĨÙģ":2157,"Ġ2012":2158,"ĠØ¨Ø¨":2159,"ĠÙħÙĨØ§Ø·ÙĤ":2160,"ÙĪØ±Øª":2161,"Ø¯ÙĬÙĦ":2162,"Ø³ÙĦØŃØ©":2163,"ĠØ§ÙĦØ±Ø¦ÙĬØ³ÙĬØ©":2164,"Ø§ÙĨÙĬÙĬÙĨ":2165,"ĠØ§ÙĦÙħØ±Ø¶":2166,"Ø§Ø³Ø¹":2167,"ĠÙĨÙĩØ±":2168,"ĠØ§ÙĦØ¬Ø§Ùħ":2169,"ĠØ§ÙĦØ´Ø¹":2170,"ĠØ¨ÙĦØ§Ø¯":2171,"ÙģÙĦØ§Ùħ":2172,"ĠØ¥ÙĦÙĬÙĩØ§":2173,"ĠÙģØª":2174,"ĠØ¥Ø¯Ø§Ø±Ø©":2175,"ĠØ§ÙĦÙħØµØ±ÙĬØ©":2176,"ĠØ§ÙĦØ¹Ø³ÙĥØ±ÙĬØ©":2177,"ĠØ¨Ø§ÙĦØ¹":2178,"ĠÙħØ¹Ùĩ":2179,"ĠØµØŃ":2180,"ĠÙĪØº":2181,"ĠØ§ÙĦØŃØ²Ø¨":2182,"ĠØ§ÙĦØ¹Ø´Ø±ÙĬÙĨ":2183,"ÙĥØ«Ø±":2184,"ĠÙĨØªÙĬØ¬Ø©":2185,"ĠÙĤØ¯Ø±":2186,"ĠØ§ÙĦÙĤØ±ÙĬØ©":2187,"ĠÙħÙĨØªØ®Ø¨":2188,"ÙĪØ§ÙĦÙĬØ¯":2189,"ÙĦØ¯":2190,"ĠÙħØ«":2191,"Ø±ÙĬØ±":2192,"ÙĪØ³ÙĬØ©":2193,"ĠØ§ÙĦØ´ÙħØ³":2194,"ÙĥÙĬÙĦ":2195,"Ø³Ø±ØŃ":2196,"ĠØ§ÙĦÙħÙĥ":2197,"ĠU":2198,"ÙħØ³Ø©":2199,"ĠØ¨Ø±ÙĨØ§ÙħØ¬":2200,"ĠØ¬ÙĪÙĨ":2201,"Ø®ÙĪÙĦ":2202,"ĠÙĪÙĦØ¯":2203,"ØªÙĦÙĥ":2204,"us":2205,"ĠØ§ÙĦØ´ÙĬ":2206,"ĠØ§ÙĦÙĥØ¨ÙĬØ±":2207,"ĠØ§ÙĦØ£ÙĥØ«Ø±":2208,"ĠØ§ÙĦØ¥Ø³ÙĦØ§ÙħÙĬ":2209,"ÙĤÙĤ":2210,"Ø¬ÙħÙĬØ¹":2211,"om":2212,"ĠØ§ÙĦÙħØ¹ÙĦÙĪÙħØ§Øª":2213,"ÙĪÙĬÙĦØ©":2214,"ĠÙĪØºÙĬØ±ÙĩØ§":2215,"ĠÙĤÙĪØ§Øª":2216,"ĠÙĪØ¸":2217,"ÙĤØ¯Ø±":2218,"ÙĦØ§Ø¡":2219,"ĠØ£Ø¹ÙĦÙī":2220,"ĠØ¨Ø§ÙĦÙĦ":2221,"Ø§ÙģØ§Øª":2222,"Ø¹Ø§Ø¯":2223,"Ø§Ø¦Ø¹":2224,"ØŃÙħ":2225,"Ø§Ø¨ÙĬ":2226,"ĠØ¹Ø¯":2227,"ÙħÙĪØ°":2228,"ĠØ¨Ø§Ø³ØªØ®Ø¯Ø§Ùħ":2229,"Ø®ØªÙĦÙģØ©":2230,"ÙĦÙħØ§ÙĨ":2231,"ĠØ£Ø³Ø§Ø³":2232,"ĠØªØ³ØªØ®Ø¯Ùħ":2233,"ĠÙĤØ§ÙĨÙĪÙĨ":2234,"ĠØ¨Ø£ÙĨÙĩ":2235,"ĠØªÙĬ":2236,"ÙĪÙĦØ§ÙĬØ©":2237,"mula":2238,"ØŃØ¨":2239,"ÙĪØ±Ø§Øª":2240,"ĠØ§ÙĦØ¹ÙĤ":2241,"ÙĪØ§Ùħ":2242,"ĠØ§ÙĦÙĨØ¨Ø§Øª":2243,"ĠØ§ÙĦÙħÙģ":2244,"ØµØ¯Ø§Ø±":2245,"ĠÙĪÙĩØ°Ø§":2246,"ĠÙĩØ§":2247,"ĠØ§ÙĦØ±Ø¦ÙĬØ³ÙĬ":2248,"ÙĤÙĦØ§ÙĦ":2249,"ØªÙĬØ§Ø±":2250,"ĠØ§ÙĦØ¥Ø¹ÙĦ":2251,"ÙĪÙĬØ³":2252,"ĠØ¬ÙĬ":2253,"it":2254,"ormula":2255,"ĠØ§ÙĦØ¨Ø¹Ø¶":2256,"ĠÙĪÙĬØª":2257,"Ø¯ÙħØ©":2258,"ĠØ§ÙĦØŃØ±ÙĥØ©":2259,"ÙĪØ¨ÙĦ":2260,"ĠØ§ÙĦÙħÙĤØ¯":2261,"Ġ|":2262,"ĠØ§ÙĦØªØ³":2263,"ÙĪØµÙĦ":2264,"ĠÙħØŃØ¯":2265,"ĠØ¹Ø¨Ø§Ø±Ø©":2266,"ĠØµØºÙĬØ±Ø©":2267,"ØµØ¯Ø±":2268,"ĠØ§ÙĦØ³Ùħ":2269,"ÙĪÙħØ¹":2270,"ÙĪÙĦÙĪØ¬ÙĬØ§":2271,"ÙĨÙĩ":2272,"ĠØ¥Ø³Ø±Ø§Ø¦ÙĬÙĦ":2273,"ĠØ§ÙĦØ³Ø±":2274,"ĠØ§ÙĦØ¬Ø²Ø¡":2275,"ĠØ³ÙĦØ³ÙĦØ©":2276,"ĠÙĦØµ":2277,"Ø§ÙĤÙĬ":2278,"ÙĥÙĪØ±":2279,"ĠØ¯Ø®ÙĦ":2280,"ĠØ§ÙĦØ¨Ø´Ø±":2281,"am":2282,"Ø§Ø¦ÙĩØ§":2283,"ĠØ§ÙĦÙĤØµ":2284,"ĠØ¨Ø¯Ø£Øª":2285,"Ø®Ø§Øµ":2286,"Ø¶ÙĬ":2287,"ÙĪØ±Ø¬":2288,"de":2289,"Ø§ØŃØ¸":2290,"ĠØ§ÙĦÙħØ«Ø§ÙĦ":2291,"ĠØ§ÙĦØ¹Ø¯":2292,"ĠÙĪØ§ÙĦÙħÙĨ":2293,"ĠØ±ÙĤÙħ":2294,"ĠØ·Ø¨":2295,"Ø¦ÙĬØ©":2296,"ĠÙĤØ§ÙħØª":2297,"ĠÙĦÙĦØ¯":2298,"ĠØ¬Ø¨ÙĦ":2299,"ĠØ§ÙĦØªÙħ":2300,"Ø§ØªÙĬ":2301,"ÙĪØ¶ÙĪØ¹":2302,"ĠÙĬØ¹ÙħÙĦ":2303,"ĠØ¨Ø§ÙĦÙĨØ³Ø¨Ø©":2304,"ĠØªØ£Ø«ÙĬØ±":2305,"ÙģÙĬÙĨ":2306,"Ø³Ø³Ø©":2307,"ĠÙħØ¹ÙĩÙħ":2308,"ÙĬØ¯Ø±":2309,"ĠÙĪØªØ¹":2310,"ĠØ³Ø·ØŃ":2311,"ĠØ§ÙĦØ£Ø²":2312,"ĠØ¨Ø§ÙĦØª":2313,"ĠÙĬØ¹Ø±Ùģ":2314,"ĠØ§ÙĦÙħØ¬ØªÙħØ¹":2315,"ØŃØ§Ø¡":2316,"ØŃÙĬØ«":2317,"ØºØ§Øª":2318,"Ø®ØµØµ":2319,"Ø±ÙĬØ§Øª":2320,"ĠØ§ÙĦØ£Ø¹ÙħØ§ÙĦ":2321,"ĠØ§ÙĦØ³ÙĪØ¯":2322,"Ġ190":2323,"ĠÙħÙĨØµØ¨":2324,"ØºÙĬÙĬØ±":2325,"Ø§ÙĦØ¨Ø§":2326,"ĠØ£ÙĪØ±":2327,"ĠÙĥØ°ÙĦÙĥ":2328,"Ø§ÙĪÙĬ":2329,"ÙĩÙĬØ±":2330,"ĠÙĦØ¯":2331,"ĠØ´Ø§Ø±Ùĥ":2332,"Ø±Ø®":2333,"ĠØ§ÙĦØŃÙħ":2334,"Ø§ÙĨØ³":2335,"ĠØ§ÙĦØ£ØŃÙĬ":2336,"Ø§ÙĩÙħ":2337,"ĠØ£ÙĬØ§Ùħ":2338,"ĠØ§ÙĦØ´Ø¹Ø±":2339,"ĠÙħØ¯Ø±Ø³Ø©":2340,"ĠØ§ÙĦÙħØ®ØªÙĦÙģØ©":2341,"ĠÙĥØ§ÙĦ":2342,"Ø¹Ø¨Ø©":2343,"ol":2344,"ĠØ§ÙĦÙĨÙĪØ¹":2345,"ĠØ§ÙĥØªØ´":2346,"ĠÙĪØµÙģ":2347,"ĠØ§ÙĦÙĥÙĪÙĬØª":2348,"ÙĬØ¯Ø§":2349,"ĠØ§ÙĦØ±Ø§Ø¨Ø¹":2350,"ĠØ§ÙĦØ«ÙĪØ±Ø©":2351,"Ġ26":2352,"Ø§Ø¬Ø©":2353,"ĠÙĬØ³ØªØ®Ø¯Ùħ":2354,"ĠÙħÙĪØ§ÙĦÙĬØ¯":2355,"ĠÙģØªØŃ":2356,"ĠÙĤØ³Ùħ":2357,"Ø°Ø±":2358,"ÙĪÙĬÙħ":2359,"ĠØŃØ¬Ùħ":2360,"ĠÙĩÙħ":2361,"ĠÙĦØ°ÙĦÙĥ":2362,"ÙĪÙĥØ§ÙĨØª":2363,"ĠØ§ÙĦØ³Ø§Ø¯":2364,"ĠØ§ÙĦØªØ§ÙĦÙĬ":2365,"ĠØ§ÙĦØ¥Ø³":2366,"ĠØ§ÙĦØ£Ø³Ø±":2367,"Ø§Ø¤":2368,"ĠØ¯Ø§Ø±":2369,"ĠÙĨØ¸Ø±":2370,"ÙĪØ³Øª":2371,"ØªÙĥ":2372,"ÙĪØ®":2373,"ÙĪØ³Ùģ":2374,"ØŃØ§Øª":2375,"Ø¬ÙĬÙĨ":2376,"ĠØ§ÙĦØ£Ø®ÙĬØ±Ø©":2377,"Ø¬Ø²Ø§Ø¡":2378,"ĠØ§ÙĦØ¬Ø§ÙħØ¹Ø©":2379,"Ø§Ø¨Ø§":2380,"ĠØ¬Ø§Ø¡":2381,"ĠØ¥ÙĨØ´Ø§Ø¡":2382,"ØªØ¨Ø·":2383,"50":2384,"ĠÙħØ³Ø§ØŃØ©":2385,"ÙĬØ±ØªÙĩ":2386,"ĠØªØ¤":2387,"ĠØ§ÙĦØ®ÙĦ":2388,"ÙĬØ³ÙĬ":2389,"ĠÙĪØ§ÙĨØª":2390,"ĠØ§ÙĦØ¹Ø§ØµÙħØ©":2391,"ĠØ§ÙĦØ§Ùħ":2392,"ĠÙĬØ¹ØªØ¨Ø±":2393,"ĠØ¹ÙĤØ¯":2394,"Ø¨Ø§Ø±":2395,"ĠØ¥ÙĬ":2396,"Ø¨Ø±Ø§ÙĩÙĬÙħ":2397,"ĠØ§ÙĦÙħÙĪØ§Ø¯":2398,"ÙĩØ§Ø±":2399,"ĠØ§ÙĦØ£ÙħØ±ÙĬÙĥÙĬ":2400,"ĠØ¹ÙĬÙĨ":2401,"ĠÙģØ¶":2402,"ÙĪØ±Ø§":2403,"ĠØ§ÙĦØ®Ø§Øµ":2404,"ĠØ§ÙĦÙħØ·":2405,"ĠØ§ÙĦØ¹Ø²ÙĬØ²":2406,"ĠØ§ÙĦÙĥÙĩØ±Ø¨":2407,"Ø§ÙĦÙĤ":2408,"ÙĪÙĬØ¯":2409,"ĠØ¨Ø§ÙĦØŃ":2410,"Ġ2003":2411,"ĠØ§ÙĦØ¬ÙĨÙĪØ¨ÙĬØ©":2412,"ĠØ§ÙĦÙħØ±Ùĥ":2413,"ĠÙĪØ§ÙĦØµ":2414,"ĠØ§ÙĦØŃØ¯ÙĬØ«Ø©":2415,"ØµÙĦØ§ØŃ":2416,"ÙĩØ§Øª":2417,"ĠØ§Ø«":2418,"ĠÙĦØ¹Ø¨":2419,"ÙĦÙĬØ¨":2420,"ÙģØ§Ø¶":2421,"ĠØ¹Ø§Ø¯":2422,"Ø²ÙĪ":2423,"Ġ28":2424,"Ġ27":2425,"ÙĦØ³":2426,"ÙĪØ¨Ø¹Ø¯":2427,"ĠØ¥ÙĬØ·Ø§ÙĦÙĬØ§":2428,"ĠØ¨Ø±ÙĬØ·":2429,"ĠÙĪØ¢":2430,"ĠØ¢ÙĨ":2431,"ØªØ±ÙĨØª":2432,"ÙĬØªÙĩØ§":2433,"ØºÙĬÙĦ":2434,"ĠÙĪØªÙĤ":2435,"ĠØ§ÙĦØºØ±Ø¨ÙĬ":2436,"ĠØ§ÙĦØºØ±Ø¨":2437,"ĠØ¥Ø³Ø¨Ø§ÙĨÙĬØ§":2438,"Ø°Ø§Ùĥ":2439,"Ġin":2440,"ĠØ§ÙĦØµÙģ":2441,"Ø¤ÙĪÙĦ":2442,"ĠØ¹ÙĨÙĩØ§":2443,"ĠØ£Ø±Ø¨Ø¹Ø©":2444,"ĠØ§ÙĦØªØ§Ø³Ø¹":2445,"ĠØ§ÙĦØªÙĤÙĦÙĬ":2446,"Ø§ÙĦÙĩ":2447,"ĠØ£Ø±Ø¶":2448,"Ø´Ø§Ø±Ø©":2449,"ÙĪØŃØ©":2450,"ĠØ¨ÙĦØ¯ÙĬØ©":2451,"ĠØ¨Ùģ":2452,"ÙģÙĬØ¯":2453,"ÙĩØ§Ø¡":2454,"ĠØ§ÙĦÙħØ¶":2455,"ĠØ·ÙĦØ¨":2456,"ĠØ§ÙĦØ¨ÙĨ":2457,"Ø§Ø´Ø§":2458,"ĠØ¬Ø²ÙĬØ±Ø©":2459,"Ø³Ø¨Ø§Ø¨":2460,"ĠØ§ÙĦØ¯ÙĬ":2461,"ĠØ§ÙĦÙģÙĦØ³Ø·":2462,"ĠÙĪØ§ÙĦØ®":2463,"ĠØ¬ÙĬØ´":2464,"ÙĬÙĦØ§":2465,"ÙĪÙĩÙĪ":2466,"Ø³ÙĦÙĪØ¨":2467,"Ø³ÙħØ§Ø¡":2468,"Ø³ÙħØŃ":2469,"ĠØ§ÙĦØªØ§ÙĦÙĬØ©":2470,"ĠÙĪØªÙĨ":2471,"ĠØ¨Ø§ÙĦÙĥ":2472,"ĠØ§ÙĦØ¹ÙĦÙħØ§Ø¡":2473,"ĠØ§ÙĦØ´Ùħ":2474,"ĠØ¥Ø¹Ø§Ø¯Ø©":2475,"Ġn":2476,"Ø¨ÙĬØ¶":2477,"Ø§ÙĦØ¹":2478,"Ø®Ø±Ø§Ø¬":2479,"ĠØ§ÙĦØŃØ±Ø§Ø±Ø©":2480,"ĠØ§ÙĦØ³Ùģ":2481,"ĠØ¹ÙĤ":2482,"ĠØ§ÙĦÙħØ¬ÙĦØ³":2483,"Ġ2002":2484,"ĠÙĤÙĦ":2485,"ĠØ£ÙħØ±ÙĬÙĥØ§":2486,"ÙħØŃ":2487,"ÙĥÙĬØ©":2488,"ĠØ£ÙģØ±ÙĬÙĤÙĬØ§":2489,"ĠØªØ·ÙĪÙĬØ±":2490,"ØŃØ§Ø¨":2491,"ÙħÙĪØ°Ø¬":2492,"ĠÙĥÙĦÙĬØ©":2493,"ÙĪØ§ÙĤ":2494,"ÙĪÙĦØ§Øª":2495,"ĠØ§ÙĦØ¹ÙĦÙĪÙħ":2496,"ÙĤØµ":2497,"Ø§ÙĨÙĪÙĬØ©":2498,"ĠÙĦØ³":2499,"ĠÙģÙĩÙĪ":2500,"ĠØ§ÙĦÙħØ¯ÙĨ":2501,"tion":2502,"ĠÙĤØªÙĦ":2503,"Ø§ØŃØ¨":2504,"ĠØ¬Ø§Ø¦Ø²Ø©":2505,"Ø¦ÙĬ":2506,"Ø±ÙĬØª":2507,"ĠØ§ÙĦØ¨Ø±ÙĬØ·Ø§ÙĨÙĬØ©":2508,"Ø¬Ø§Øª":2509,"ÙħØ§Ø¹Ø©":2510,"ĠÙĦÙĤØ¨":2511,"ĠØ§Ø±ØªÙģØ§Ø¹":2512,"ÙĩÙĨØ§Ùĥ":2513,"Ø§ÙĩØ¯Ø©":2514,"ac":2515,"ĠØ¯Ø±Ø§Ø³Ø©":2516,"ØµØ§Ø¨Ø©":2517,"ĠÙĪØŃØ¯":2518,"ĠØ§ÙĦØ±Ø¨":2519,"ĠÙĨØ³Ø¨":2520,"ĠØ§ÙĦÙĨØ§Ø¯ÙĬ":2521,"et":2522,"ĠØ§ÙĦØ¬Ø³Ùħ":2523,"Ø§Ø¬Ø¹":2524,"ĠØŃØ²Ø¨":2525,"ÙĬØ²Ø©":2526,"ĠÙĦÙĦØ¬":2527,"Ø§ØŃØ«":2528,"ÙĪØªØ±":2529,"ĠØŃÙĬ":2530,"ĠØ®ÙĦÙģ":2531,"ÙĦØ¨ÙĬØ©":2532,"Ø«ÙĨØ§Ø¡":2533,"Ø¶ÙĬØ©":2534,"ØªÙħÙĬ":2535,"Ø§ÙģØ±":2536,"ĠÙĪØ§ÙĦØ¯Ùĩ":2537,"ĠØ§ÙĦØ¯ÙĪØ±ÙĬ":2538,"ĠØ§ÙĦØ³ÙĦØ·Ø§ÙĨ":2539,"Ø¹ÙĦÙĤ":2540,"ĠÙĨÙĩ":2541,"ĠØ§ÙĦØ¥Ùħ":2542,"ĠØ§ÙĦØ£Ø±Ø§Ø¶ÙĬ":2543,"Ø§Ø¬Ùħ":2544,"ĠÙĦØ±":2545,"ĠØ§ÙĦØ¥ÙĦÙĥØªØ±":2546,"Ø¥Ø¶Ø§ÙģØ©":2547,"ĠÙħØ¹Ø±ÙĥØ©":2548,"ĠØ¯ÙħØ´ÙĤ":2549,"ĠØ§ÙĦÙĪØ±":2550,"ĠØ¨Ø§ÙĦÙģ":2551,"Ġ!":2552,"ĠØ²ÙĬØ§Ø¯Ø©":2553,"ĠØ§ÙĦØ§Ø¬ØªÙħØ§Ø¹ÙĬØ©":2554,"Ø§Ø¦Ø¬":2555,"Ø§Ø¨ÙĬØ©":2556,"ØªÙĪÙĬ":2557,"ÙĥÙħØ©":2558,"ĠÙĦÙĦÙĥ":2559,"ĠØ§ÙĦÙĪØ³Ø·Ùī":2560,"ĠÙħÙĤØ±":2561,"ĠØ§ÙĦØ¥Ø³Ø¨":2562,"ĠØ¨Ø§Øª":2563,"ĠØ±ÙĪØ³ÙĬØ§":2564,"Ø¨ÙĬØ±":2565,"ĠØ§ÙĦÙĤØ§ÙĩØ±Ø©":2566,"ĠØ§ÙĦØ¯ÙģØ§Ø¹":2567,"ĠØ£Ø¯Ùī":2568,"ÙĪÙĦÙĩ":2569,"ĠØ§ÙĦÙħÙĬÙĦØ§Ø¯":2570,"Ø¥Ø°Ø§":2571,"ĠÙħÙĥØªØ¨":2572,"ĠÙģÙĩÙĬ":2573,"Ø¯ÙħØ§Øª":2574,"ĠØ§ÙĦØ¹ÙĦÙĬØ§":2575,"ĠØ¨ØºØ¯Ø§Ø¯":2576,"ĠØ±Ø¨":2577,"Ø§ÙĥÙĦ":2578,"ĠÙĪØ¶":2579,"ÙĪØ§Ø±Ø¯":2580,"ĠÙħØ¹Ø±ÙĪÙģ":2581,"ÙĪØ¬ÙĪØ¯":2582,"ĠØ§ÙĦÙĥÙĨÙĬØ³Ø©":2583,"id":2584,"ĠÙħØªÙĨ":2585,"Ġsp":2586,"ĠØŃØ¯Ø«":2587,"ĠØ§ÙĦØ£Ø¨":2588,"ĠÙĤÙĪØ©":2589,"ĠØ£ÙĨØŃØ§Ø¡":2590,"ĠØªØŃØ¯ÙĬØ¯":2591,"ĠØ§ÙĦÙĥØ¨Ø±Ùī":2592,"ĠØ¨Ø°ÙĦÙĥ":2593,"ÙĪØ§Ø²":2594,"ĠØ§ÙĦØ¹Ø¶":2595,"ĠØ§ÙĦØ£Ùģ":2596,"ĠÙĤØ§Ø¦ÙħØ©":2597,"ÙĥØ¯":2598,"ĠÙĬØ¨ÙĦØº":2599,"Ġ50":2600,"ÙĪØ¸":2601,"ĠØ¨Ø¹Ø¯ÙĩØ§":2602,"ĠÙĪØ¨ÙĬÙĨ":2603,"ĠØªÙĪØ¬Ø¯":2604,"ĠÙĦØ¨ÙĨØ§ÙĨ":2605,"Ø²ÙĬÙĨ":2606,"Ø´Ø©":2607,"ĠÙĬØ£":2608,"ĠØ§ÙĦÙħØºØ±Ø¨":2609,"ĠÙħØ¨Ø§Ø´Ø±Ø©":2610,"Ġm":2611,"ĠØ§ÙĦØ£ØµÙĦ":2612,"ĠÙĨØµÙģ":2613,"ĠØªÙĥÙĨ":2614,"Ġ2001":2615,"ÙĬÙĨØº":2616,"ĠÙĪØ£ØµØ¨ØŃ":2617,"ĠØ§ÙĦÙħØ³ÙĬØŃÙĬ":2618,"ÙħÙħ":2619,"ĠØ§ÙĦØ³ÙĬØ§Ø³ÙĬ":2620,"ĠØ³ÙĦÙĬÙħ":2621,"ØªØµÙģ":2622,"ĠØ§ÙĦØ¨ØŃØ±ÙĬØ©":2623,"ĠØ¨ÙĪØ±":2624,"ĠØ§ÙĦØ¯ÙĥØªÙĪØ±":2625,"ÙĪØ§Ø©":2626,"ĠØªÙĤÙĪÙħ":2627,"ĠØ§ÙĦÙĨØ¸":2628,"Ø§Ø¨ÙĨ":2629,"Ø§Ø¨Ø·":2630,"ĠØ´Ø¹Ø¨":2631,"Ø¨Ø¯ÙĪ":2632,"Ġ'":2633,"ÙĪÙĩÙĬ":2634,"ĠØ´Ø¨Ùĩ":2635,"ĠØ§ÙĦÙĨØ¨ÙĬ":2636,"ĠØ§ÙĦÙĤØ±Ø¢ÙĨ":2637,"ÙĪÙĦÙĥÙĨ":2638,"ĠØªÙĤØ±ÙĬØ¨Ø§":2639,"ĠØ§ÙĦØ£ÙħÙĨ":2640,"ĠÙħØªÙĪØ³Ø·":2641,"ĠØ¨ÙħÙĨ":2642,"Ø«ÙĬÙĦ":2643,"ĠØªØ£Ø³ÙĬØ³":2644,"Ø§ÙĪ":2645,"ĠØ§ÙĦØ¯ÙĬÙħ":2646,"ĠØ§ÙĦØ®Ø§Ø±Ø¬ÙĬØ©":2647,"ĠØ§ÙĦØ¨ØŃØ«":2648,"ÙĪØ¨ÙĬ":2649,"ĠÙĢ":2650,"ĠØ§Øµ":2651,"ĠØ³ÙĪØ±ÙĬØ§":2652,"ĠØ§ÙĦÙĨÙĪ":2653,"ĠØ§ÙĦØ§Ø´":2654,"ĠØ§ÙĦÙĤØ¯ÙĬÙħ":2655,"Ġw":2656,"ĠÙĥÙĬ":2657,"ĠÙĦØ¹Ø§Ùħ":2658,"ĠØ§ÙĦÙĥÙĬÙħÙĬ":2659,"ĠÙĦØ§Ø³Øª":2660,"ĠÙģÙĦØ³Ø·ÙĬÙĨ":2661,"ĠÙħÙģ":2662,"Ø§Ø¦Ø±Ø§Øª":2663,"Ø§Ø¨ÙĦØ©":2664,"ĠØªØ¹ØªØ¨Ø±":2665,"ĠÙĥÙĦÙħØ©":2666,"Ø¹Ø§Ùħ":2667,"lo":2668,"ĠØ§ÙĦØŃØ¶":2669,"ĠØ§ÙĦÙĨØ³":2670,"ĠØ§ØªÙģØ§ÙĤ":2671,"ĠØ´ÙĬØ¡":2672,"ØªÙĦØ©":2673,"ÙĬÙģÙĬØ©":2674,"ĠØ§ÙĦØ´Ø±ÙĤÙĬ":2675,"Ø¹Ø¯Ø¯Ø©":2676,"10":2677,"Ø³Ùĥ":2678,"ĠØ§ÙĦÙĤØ·":2679,"ĠØ¥Ø¨Ø±Ø§ÙĩÙĬÙħ":2680,"ĠØŃØ¯ÙĬØ«":2681,"ĠØ§ÙĦØ¹ÙĦÙħÙĬØ©":2682,"ØŃÙĨ":2683,"ÙĦÙĬÙĬÙĨ":2684,"ĠÙĪØªØ±":2685,"ĠØ§ÙĬ":2686,"ĠØ§ÙĦØ¹ÙħÙĦÙĬØ©":2687,"ÙĦÙĪÙĦ":2688,"Ø¹Ø±Ø§Ø¶":2689,"ĠØ§ÙĦÙħØ³ÙĬØŃÙĬØ©":2690,"ĠØªÙĤØ¯Ùħ":2691,"ĠÙĪØ²Ø§Ø±Ø©":2692,"Ġ186":2693,"ing":2694,"Ø·ÙĪÙĬØ±":2695,"ĠØŃÙĬØ§ØªÙĩ":2696,"ĠW":2697,"ĠØ§ÙĦØ£Ø·ÙģØ§ÙĦ":2698,"ÙĪØ²ÙĬØ¹":2699,"ÙĩØ°Ùĩ":2700,"ĠØ§ÙĦØµÙĬÙĨ":2701,"ÙĥÙĦØ©":2702,"ĠØ§ÙĦØ¬Ø¯":2703,"ĠØ£ØŃÙĬ":2704,"ĠØµÙĦ":2705,"Ġ29":2706,"Ø§Ø¦Ùģ":2707,"Ø¦Ø§Ø³Ø©":2708,"ĠØ§ÙĦØ¯Ø§Ø®ÙĦÙĬØ©":2709,"Ø«ÙĦØ§Ø«":2710,"Ø¬Ø±Ø§Ø¡":2711,"ĠØ§ÙĦÙĩÙĬ":2712,"Ø§Ø¦Ø¯Ø©":2713,"ĠØ£ÙĪØ§Ø®Ø±":2714,"Ø§ÙĩØªÙħØ§Ùħ":2715,"ĠÙĦÙģ":2716,"ĠØ£Ø±Ø¨Ø¹":2717,"ÙĩØ±Ø©":2718,"ĠØ¨Ø§Ø´Ø§":2719,"ĠÙĬØ³ÙħÙī":2720,"ĠÙħØ´Ø±ÙĪØ¹":2721,"Ø®Ø¯ÙħØ©":2722,"ĠÙĦÙĢ":2723,"ĠÙĦÙĩØ°Ø§":2724,"ĠØ§ÙĦØ²ÙħÙĨ":2725,"ĠØ§ÙĦØ®Ø§ÙħØ³":2726,"ØªØ§ÙĨ":2727,"ĠÙĪÙħØŃ":2728,"ĠØ¯ÙĬÙĨ":2729,"ĠØ§ÙĦØ¹Ø§ÙĦÙħÙĬ":2730,"ĠØ§Ø³ØªÙħØ±":2731,"ÙĤØ§Ø¡":2732,"ĠÙĪÙĨØ³Ø¨Ø©":2733,"ĠÙĬÙĤØ¹":2734,"ĠØ§ÙĦØ·ÙĦ":2735,"Ø±ÙĬØ¨Ø©":2736,"ĠÙĪØŃØªÙī":2737,"Ø±ÙĬØ¶":2738,"Ø°Ø¨":2739,"ĠØ·ÙĪÙĬÙĦØ©":2740,"ĠÙĪØŃØ¯Ø©":2741,"Ø§Ø«ÙĪÙĦ":2742,"ĠØ£Ø¹Ø¶Ø§Ø¡":2743,"Ø¹Ø§ÙĬØ©":2744,"ĠØ¨ØŃÙĬØ«":2745,"ĠØ¹Ø§ÙĦÙĬØ©":2746,"ÙĨØ¯ÙĨ":2747,"Ġ40":2748,"Ø±Ø§Ø¡":2749,"ĠØ®ÙĦØ§ÙĦÙĩØ§":2750,"ĠØ§ÙĦØ³ÙĦØ·Ø©":2751,"Ġo":2752,"ĠÙĨØ·Ø§ÙĤ":2753,"ÙĥÙĪÙĬÙĨ":2754,"ÙĩÙĨ":2755,"ĠÙģØ§Ø²":2756,"ØªÙĪÙĨ":2757,"Ø§Ø²ÙĦ":2758,"ÙħØ²":2759,"ĠØ¥ÙĤÙĦÙĬÙħ":2760,"ÙĥØ§Øª":2761,"ĠØ°ÙĪ":2762,"Ø³ØªØ§Ø°":2763,"ĠØ§ÙĦØ·Ø±ÙĬÙĤ":2764,"ĠØ§ÙĦØ®ÙĦØ§ÙĬØ§":2765,"il":2766,"Ø§Ø¯ÙĬÙħ":2767,"ĠÙĩÙĨ":2768,"ĠÙħÙĨØ¸ÙħØ©":2769,"ĠØ±Ø¤":2770,"ĠØ¹Ø´Ø±Ø©":2771,"ĠÙĬØµÙĦ":2772,"ĠØªØªÙħ":2773,"ÙĪØ§ÙĨÙĬÙĨ":2774,"ĠØ§ÙĦÙĥÙĪÙĨ":2775,"ĠØ§ÙĦÙħØ¯Ø±Ø³Ø©":2776,"ur":2777,"ĠÙĦØ£ÙĪÙĦ":2778,"ĠÙħØ±Ø¶":2779,"Ø§ÙĨÙĩ":2780,"ĠØ§ÙĦÙĢ":2781,"Ø³ØªÙĪØ±":2782,"Ø¯Ø±Ø³":2783,"ĠØ§ÙĦØªØ§Ø¨Ø¹Ø©":2784,"Ø§Ø¬Ø§Øª":2785,"ĠØ¨Ø§ÙĦØ±":2786,"ĠÙĪØ¬Ùĩ":2787,"ÙĨØ§ÙĪÙĦ":2788,"ĠØ§ÙĦØ£ÙĥØ¨Ø±":2789,"Ø§ÙĬØª":2790,"ĠÙĦÙħØ§":2791,"ÙĬÙĥÙĬ":2792,"Ġformula":2793,"Ø±ÙĬØ§":2794,"ĠØ§ÙĦØ¨Ø±ÙĬØ·Ø§ÙĨÙĬ":2795,"Ø²ÙĨ":2796,"ĠØµØ¯":2797,"ØªØ§ÙĦ":2798,"ĠÙĤÙĨØ§Ø©":2799,"ĠÙĥÙĪÙĦ":2800,"ĠØ§ÙĦØªØ¬Ø§Ø±ÙĬØ©":2801,"ĠØªØ¹ÙħÙĦ":2802,"ĠØ¹ØµØ±":2803,"ĠÙħØ¹ÙĦ":2804,"ĠØ§ÙĦØ´ÙĥÙĦ":2805,"Ø§Ø±ÙĨØ©":2806,"Ø¹Ø·":2807,"ĠØªÙĪÙģÙĬ":2808,"ĠØªØ³ÙħÙī":2809,"ĠØ§ÙĦØ¬Ø²Ø§Ø¦Ø±":2810,"Ø¨ÙĪ":2811,"Ġ189":2812,"ÙĬØªÙĩ":2813,"ÙģØ§Ø¹ÙĦ":2814,"ĠØ¨Ø§Ø¹":2815,"ĠÙħØ¯ÙĨ":2816,"ĠÙĬÙĤÙĪÙĦ":2817,"ĠØ§ÙĦØ´Ø®ØµÙĬØ©":2818,"Ø§Ø¦ÙĦØ§Øª":2819,"ĠØ±ÙģØ¶":2820,"ĠÙĥÙĬÙĦÙĪÙħ":2821,"Ø¤ÙĦØ§Ø¡":2822,"ÙĬØŃ":2823,"ÙĦÙĦ":2824,"ĠØ§ÙĦÙħØŃÙĦÙĬØ©":2825,"ÙĪØµÙģ":2826,"ĠØ¹Ø§Ø¦ÙĦØ©":2827,"ĠØ±Ø¬ÙĦ":2828,"ĠØ§ÙĦØ£Ø³Ø§Ø³ÙĬØ©":2829,"ĠÙħÙĪÙĨ":2830,"Ø±Ø§Ø¹":2831,"ĠÙĬØ¤Ø¯ÙĬ":2832,"ĠØ§ÙĦØ¯ÙĬÙĨÙĬØ©":2833,"ÙĬÙĥØ§":2834,"ĠÙĥÙĦØ§":2835,"Ø¬ÙħØ©":2836,"ĠØªØµÙĨÙĬÙģ":2837,"ĠØ§ÙĦÙĦØ¨ÙĨ":2838,"ĠÙħØ§ÙĬ":2839,"ĠØ§ÙĦØ¨Ø§Ø±":2840,"ĠÙħÙĤØ§Ø¨ÙĦ":2841,"Ø³Ø³Ø§Øª":2842,"ÙħÙĪÙĨ":2843,"ØªØº":2844,"ÙĨØ¹":2845,"Ø¨Ø§Ø·":2846,"ĠØ§ÙĦØ£ÙĪØ±":2847,"ĠØ§ÙĦØ®Ø§ÙħØ³Ø©":2848,"ĠÙĪØ¨Ø§ÙĦØªØ§ÙĦÙĬ":2849,"ĠØ§ÙĨÙĩ":2850,"ĠØ§ÙĦØºØ°":2851,"ÙĨØ§Ø·":2852,"ÙĪØ¬ÙĬÙĨ":2853,"ĠÙħØ·":2854,"ĠÙĦØ¯ÙĬÙĩØ§":2855,"ĠÙĪØ§Ø¯ÙĬ":2856,"ÙĪØ¹ÙĬØ©":2857,"Ġspan":2858,"ĠØ§ÙĦØ³ÙĬÙĨ":2859,"ĠÙĬÙĥ":2860,"ĠØ¹ÙħÙĦÙĬØ§Øª":2861,"Ø«ÙĬ":2862,"ØŃÙĤ":2863,"ÙĪØ§ÙħÙĦ":2864,"Ø®Ùħ":2865,"ĠØ§ÙĦØ¨Ø±ÙĪØª":2866,"ĠÙĪÙĦÙĥÙĨÙĩ":2867,"ĠØ§ÙĦÙħÙĪØ¬ÙĪØ¯Ø©":2868,"ÙģØªØ±Ø©":2869,"Ø§ÙģØ¹":2870,"ĠØ§ÙĦØ¯ÙĪØ±":2871,"ĠØ´Ø¹Ø±":2872,"ØªÙĩØ±":2873,"ĠØ§ÙĦØ¥ÙħØ¨Ø±Ø§Ø·ÙĪØ±ÙĬØ©":2874,"ÙĪÙĬØ§":2875,"ĠØŃØ³ÙĨ":2876,"ĠØ§ÙĦØªÙģ":2877,"ĠØªØ¹Ø¯":2878,"ed":2879,"ĠÙĦÙĩØ°Ùĩ":2880,"ĠØŃÙĬØ§Ø©":2881,"ØªÙĤØ¯":2882,"ĠØ§ÙĦÙħØ¬ÙħÙĪØ¹Ø©":2883,"ĠÙĬØ¹Ø¯":2884,"ĠØ§ÙĦØ¹Ø«ÙħØ§ÙĨÙĬØ©":2885,"ØªÙħÙĦ":2886,"ĠØ³ÙĬÙĨ":2887,"ĠØ§ÙĦØ£Ùĩ":2888,"ØªÙħØ§Ø¯":2889,"ĠØ§ÙĦØ·Ø¨ÙĬØ¹ÙĬØ©":2890,"ĠØ§ÙĦØ³Ø±ÙĬ":2891,"ĠØ§ÙĦØ³Ø§Ø¯Ø³":2892,"ĠÙħØ§Ùĥ":2893,"ÙĦØ§Ùħ":2894,"Ø§Ø¦Ø©":2895,"lu":2896,"ĠÙĪØ§Ø¶":2897,"ĠÙĦØ§ØŃÙĤ":2898,"ĠØ§ÙĦØŃÙĬÙĪØ§ÙĨØ§Øª":2899,"ĠÙĦÙĦÙħÙĨ":2900,"ĠØ¢Ø³ÙĬØ§":2901,"ĠÙĪØªØ´":2902,"Ø§ØµÙĦ":2903,"ĠÙĪÙĬÙĤ":2904,"ĠØŃÙĥÙĪÙħØ©":2905,"ĠØ®ÙħØ³Ø©":2906,"ĠÙĪØ§ÙĦØº":2907,"ĠÙĦÙĦØ±":2908,"ĠØªØµÙĦ":2909,"ĠØ§ÙĦÙħØ¹Ø¯":2910,"Ø§Ø¨Ø±":2911,"ÙģÙĤ":2912,"ĠØ§ÙĦØ¥ÙĨØªØ±ÙĨØª":2913,"Ø¨ÙĬØ¹":2914,"ĠO":2915,"ÙĥÙĨØ¯Ø±":2916,"ĠØ¹Ø¯ÙĬØ¯Ø©":2917,"Ø§ÙĥØ²":2918,"ĠØ£Ø®Ø°":2919,"ĠØ§ÙĦÙħÙĪÙĤØ¹":2920,"ĠØªÙĨØª":2921,"ĠÙĥØ«ÙĬØ±Ø©":2922,"Ø±ÙĬØ¯Ø©":2923,"ĠØŃØ§ÙĦ":2924,"Ġa":2925,"Ø§Ø±ÙĬØ§":2926,"ĠÙħØ§ÙĨ":2927,"ØŃÙĬØŃ":2928,"ĠØªØŃÙĤÙĬÙĤ":2929,"Ø§Ø±ÙĬØ§Øª":2930,"ĠÙĨÙģØ³ÙĩØ§":2931,"ĠÙħØ¹Ø¯":2932,"ØªÙĦØ§Ùģ":2933,"ĠÙĦÙĬÙĨ":2934,"ĠÙĦØ¥ÙĨ":2935,"ĠÙĦÙĬØ³Øª":2936,"un":2937,"Ø§ÙĦÙĬÙģ":2938,"ĠÙĪÙĩÙħ":2939,"ĠØ§ÙĦØ¬ÙħÙĩÙĪØ±ÙĬØ©":2940,"Ø¶Ø§Ùģ":2941,"ĠØªØ¹Ø±Ø¶":2942,"ĠÙĥÙĦÙħ":2943,"Ø¯Ø±Ø¬Ø©":2944,"ĠØ§ÙĦØ¯Ø±Ø¬Ø©":2945,"Ø²Ø±Ø§Ø¡":2946,"ĠÙģÙĬØ±":2947,"ĠÙĩÙĨØ§":2948,"ĠÙĬØ®":2949,"ĠÙĨØµ":2950,"ĠØ§ÙĦÙĥØ¨ÙĬØ±Ø©":2951,"ĠØ®ÙĦÙĬ":2952,"ĠÙĬÙĦØ¹Ø¨":2953,"ĠØ§ÙĦØ£Ø®ÙĬØ±":2954,"ĠØ¸ÙĩÙĪØ±":2955,"Ġ188":2956,"ĠØ§ÙĦØŃÙĦ":2957,"Ø¯ÙĬÙĪ":2958,"ĠØ§ÙĦÙħØªÙĪØ³Ø·":2959,"Ø§ÙĨÙĪ":2960,"Ø¬ÙĬØ©":2961,"Ø®ÙĬØµ":2962,"ĠÙĦØºØ©":2963,"ĠØ§ÙĦÙĪØ²Ø±Ø§Ø¡":2964,"Ø²Ø§Ùħ":2965,"Ġ2013":2966,"ĠØ§ÙĦØ£ÙħÙħ":2967,"ÙĪØ§Ø¹Ø¯":2968,"ĠØ§ÙĦØ¨Ø·ÙĪÙĦØ©":2969,"ĠÙĦÙĨØ¯ÙĨ":2970,"Ø¹Ø§ÙĨ":2971,"ĠÙĦÙĦØº":2972,"ĠØ§ÙĦØ¬ÙĪÙĬØ©":2973,"ĠÙĪØ¨Ø¹Ø¶":2974,"ĠØŃØ³ÙĬÙĨ":2975,"ĠØ§ÙĦØŃØ¯ÙĪØ¯":2976,"ĠØ¹Ø¶ÙĪ":2977,"ĠØ§ÙĦÙħØ³ØªØ®Ø¯Ùħ":2978,"ent":2979,"ĠØ§ÙĦØ£ØŃÙħØ±":2980,"ĠØ¨ÙĨØ³Ø¨Ø©":2981,"ĠØ¹Ø§ÙħÙĬ":2982,"ØªØ§Ø±":2983,"ĠÙħØ±Ùĥ":2984,"ĠÙħÙĤØ¯":2985,"ÙĦÙĬÙĪÙĨ":2986,"ĠØªØŃØªÙĪÙĬ":2987,"ĠØ®ÙħØ³":2988,"ĠÙĦÙĥÙĨÙĩ":2989,"ØªÙĬØ©":2990,"ØªØ§Ø¦Ø¬":2991,"ÙĤØ³Ùħ":2992,"Ø§Ø¯Øª":2993,"ØªÙĬØ¨":2994,"ĠØ§ÙĦØ¹ÙĦÙħÙĬ":2995,"Ø¹Ø¯Ùħ":2996,"ĠÙħØŃÙħ":2997,"ĠØ§ÙĦØ¹Ø¯Ø¯":2998,"ĠØ§ÙĦÙĤÙĦØ¨":2999,"ĠØ¨Ø±ÙĬØ·Ø§ÙĨÙĬØ§":3000,"Ø´ÙĬØ¯":3001,"Ø§Ø±Ø¶":3002,"ØªÙģØ¹":3003,"ØªØ§Ø²":3004,"ĠØªØ·Ø¨ÙĬ":3005,"ĠØ§ÙĦØ¹ÙĦØ§Ø¬":3006,"ÙĦØ¨ÙĪÙħ":3007,"ĠØ³ÙĪØ§Ø¡":3008,"ĠØ§ÙĦØ¥ÙĨØ¬ÙĦÙĬØ²ÙĬØ©":3009,"ĠØ§ÙĦØ¯Ø±Ø§Ø³Ø§Øª":3010,"ĠØ§ÙĦØŃØ¯ÙĬØ¯":3011,"ĠØ¨Ø§Ø¨":3012,"ĠØ£Ø¨Ø±Ø²":3013,"ÙĤØ±Ø§Ø±":3014,"ĠÙĨÙĤØ·Ø©":3015,"ÙĤÙĦØ©":3016,"ĠØ§ÙĦØ¨Ø¯":3017,"ĠÙĪØ³ÙĬ":3018,"Ġ*":3019,"ĠØ§ÙĦÙħØ°":3020,"ÙĩØª":3021,"ĠÙĤØ·":3022,"ĠØµØ¯Ø±":3023,"ĠØ´Ø¨ÙĥØ©":3024,"ĠØ£ÙĩØ¯Ø§Ùģ":3025,"and":3026,"ĠØ§ÙĦØ¯ÙĬÙħÙĤØ±Ø§Ø·":3027,"ĠØ¬Ø§Ùħ":3028,"ĠØ·Ø±ÙĬÙĤØ©":3029,"ĠØ£Ø¬":3030,"ĠØ£Ø«Ø±":3031,"ĠØ§ÙĦØ³ÙĦØ§Ùħ":3032,"ĠØ±Ø³Ùħ":3033,"ĠÙĬÙĪØ³Ùģ":3034,"Ø¨Ø¯Ø£Øª":3035,"Ø³Ø±Ø¹Ø©":3036,"ĠØ§ÙĦØ£ÙĦÙħØ§ÙĨÙĬØ©":3037,"Ø¶Ùī":3038,"ĠØ¬ÙħÙĩÙĪØ±ÙĬØ©":3039,"ĠØ§ÙĦØ¥ÙħØ§Ùħ":3040,"ĠÙĤÙĦÙĬ":3041,"ra":3042,"Ġ2014":3043,"Ġ31":3044,"ØªÙĤØ¹":3045,"ÙĪÙĥØ³":3046,"ĠØ³Ø§Ø¨ÙĤ":3047,"Ø³Ø±Ø§Ø¦ÙĬ":3048,"ĠØŃØ¯ÙĪØ¯":3049,"ht":3050,"ĠØªÙĤØ¯ÙĬÙħ":3051,"ĠØ£Ø·ÙĦÙĤ":3052,"ĠØ¹Ø§ØµÙħØ©":3053,"ĠØ¨Ø£ÙĨÙĩØ§":3054,"ĠØ§ÙĦÙĤÙĦ":3055,"ĠÙĨØ¬Ø§ØŃ":3056,"ĠØ§ÙĦØ£Ø±Ø¯ÙĨ":3057,"ĠØ§ÙĦØ¥ÙĨØ¬ÙĦÙĬ":3058,"Ø§ÙĦØ¬Ø©":3059,"ĠØ§ÙĦØ«Ø§ÙħÙĨØ©":3060,"ĠØ¨Ø§ÙĨ":3061,"ĠÙĪÙģØ§Ø©":3062,"ĠØ§ÙĦÙģØ¶":3063,"ĠØ¨ÙĤÙĬØ§Ø¯Ø©":3064,"ĠÙĪØ§ÙĦÙĦ":3065,"ĠØ§ÙĦØŃØ§ÙĦØ©":3066,"ĠØ§ÙĦØŃØ§ÙĦÙĬ":3067,"ĠØ¹ÙĦÙħØ§Ø¡":3068,"ĠØ§ÙĦØ¹Ø«ÙħØ§ÙĨÙĬ":3069,"Ø±ÙĬØŃ":3070,"ĠØ§ÙĦØ«Ø§ÙĦØ«Ø©":3071,"ĠÙħÙĬÙĨ":3072,"ĠØ§ÙĦØ£Ø¨ÙĬØ¶":3073,"ĠØ¨Ø§ÙĦØ¥ÙĨ":3074,"ĠØ§ÙĦØ³Ø§Ø¨ÙĤØ©":3075,"Ø®ÙĦØ§ÙĦ":3076,"ĠØ§ÙĦØ§ÙĤØªØµØ§Ø¯ÙĬØ©":3077,"Ø¬ÙĨØ©":3078,"ĠØ´Ø¹":3079,"Ø§Ø³ÙĦ":3080,"Ø§ÙĪÙĦØ©":3081,"ÙĪØ¹ÙĬ":3082,"ĠØ§ÙĦØµØºÙĬØ±Ø©":3083,"Ø§ÙĤØªØµØ§Ø¯":3084,"ĠØ³Ùģ":3085,"ĠØ¬ÙħØ¹":3086,"ĠÙħØ¬ÙĦØ©":3087,"ĠØ¬ÙĪØ±Ø¬":3088,"ĠØ¨Ø³ÙĬ":3089,"ÙĪØ±Øº":3090,"ĠØ§ÙĦÙĩÙĪØ§Ø¡":3091,"ÙĬØ§Ø±":3092,"ĠØ£ÙĪØ§Ø¦ÙĦ":3093,"ĠØ§ÙĦÙħØ§ÙĦ":3094,"ĠÙĪØ§Ø¬":3095,"ĠØ±Ø¬Ø§ÙĦ":3096,"ĠÙĪØ²ÙĬØ±":3097,"ĠØ§ÙĦØŃØµÙĪÙĦ":3098,"ÙĩØ§Ø¯Ø©":3099,"ØªØ±Ø§Øª":3100,"ĠÙĪÙĤØ§ÙĦ":3101,"ĠØ§ÙĦØ¨ÙĬØ§ÙĨØ§Øª":3102,"ĠØ¹ÙĦÙĬÙĩÙħ":3103,"ĠÙħØ¹ÙĬÙĨØ©":3104,"ĠØ¨ÙĩØ°Ø§":3105,"ÙĦØ§ÙĦØ©":3106,"Ø§ÙĬÙĨ":3107,"ĠØ§ÙĦØ£ÙĪØ±ÙĪØ¨ÙĬ":3108,"ÙĪØ§ÙģÙĤ":3109,"ĠØ§Ø³ÙħÙĩ":3110,"ĠØ§ÙĦØ¥ÙĨØªØ§Ø¬":3111,"Ø£ÙĦÙģ":3112,"Ø¨Ø§ØŃ":3113,"ÙĬÙĨÙĬØ§Øª":3114,"ĠØ§ÙĦØ±ØŃÙħÙĨ":3115,"ĠØ§ÙĦÙĨØ§Øª":3116,"ÙĪÙĦØª":3117,"ĠØ§ÙĦØŃÙĬ":3118,"Ø§Ø³Ø¨Ø©":3119,"ĠØ¨ÙĨÙģØ³":3120,"ĠV":3121,"ĠÙĬØ¹ÙĨÙĬ":3122,"ĠØ§ÙĦØ®Ø±":3123,"Ø§Ø¦Øµ":3124,"ly":3125,"ĠØŃÙĤÙĪÙĤ":3126,"ĠØ§ÙĦØ£Ø¹":3127,"ÙģØ³ÙĬØ±":3128,"ĠØ§ÙĦØ£ÙĦÙħØ§ÙĨÙĬ":3129,"ÙĪØ³Ø¹":3130,"ĠØ§ÙĦØ¹Ø³ÙĥØ±ÙĬ":3131,"ĠØ§Ø³ØªØ®Ø¯Ùħ":3132,"ĠØ§Ø¬ØªÙħØ§":3133,"Ø¤ÙĪÙĨ":3134,"ĠÙħÙĨØªØµÙģ":3135,"Ø¯Ø§ÙĬØ©":3136,"ĠØ¨Ø§ÙĦÙĤØ±Ø¨":3137,"ia":3138,"ĠÙĪØ§Øª":3139,"ĠØ·Ø§ÙĦØ¨":3140,"Ø³ÙģØ©":3141,"Ġ1999":3142,"ĠØ§ÙĦÙħÙĦÙĥÙĬØ©":3143,"ĠØ§ÙĦÙĬØ§Ø¨Ø§ÙĨ":3144,"ĠØ§ÙĦØ¥ÙĬØ·Ø§ÙĦÙĬ":3145,"ĠØ´Ø®ØµÙĬØ©":3146,"ĠÙĪÙĦÙĬØ³":3147,"ĠØ§ÙĦØ¬Ø²Ø§Ø¦":3148,"ĠÙħØ±ØŃÙĦØ©":3149,"ĠØ§ÙĦØªØ§Ø±ÙĬØ®ÙĬØ©":3150,"ĠÙĦØ£ÙĨÙĩ":3151,"Ø·ÙĤ":3152,"ch":3153,"ĠÙĬÙĩ":3154,"ĠÙĪÙĬØ³":3155,"Ø§ÙĬÙĦ":3156,"ĠØ¨Ø¯ÙĦØ§":3157,"ĠÙĥØªØ§Ø¨Ùĩ":3158,"ÙĨØ§Ø¦ÙĬ":3159,"ĠØ¨Ø¯ÙĪÙĨ":3160,"ÙĨÙĪØ§ÙĨ":3161,"ÙĤØ§ÙħØ©":3162,"ĠØ§ÙĦØ£ÙĬ":3163,"ĠÙĩÙĬØ¦Ø©":3164,"ĠÙĬØ¹ÙĬØ´":3165,"ĠØ§ÙĦÙĨÙģØ³":3166,"ĠÙģØ¹ÙĦ":3167,"ØµØŃ":3168,"ĠØ¨Ø§ÙĦØ³":3169,"ĠØ§ÙĦØ°Ùĩ":3170,"ĠØ§ÙĦÙĦØ§Ø¹Ø¨":3171,"ĠØ§ÙĦØ´Ø¹Ø¨ÙĬØ©":3172,"ĠØ§ÙĦØ±ÙĪÙħØ§ÙĨÙĬØ©":3173,"ØªØ§Ø±ÙĬØ®":3174,"ĠÙĥØ§ÙħÙĦ":3175,"ĠØ§ÙĦÙĬÙĩ":3176,"Ø´ØŃ":3177,"ÙĬØ±ÙĪØ³":3178,"Ø§Ø³ØªÙħØ±":3179,"ĠØ£ÙħØ±ÙĬÙĥÙĬ":3180,"ĠÙĨØ²":3181,"Ø³ØªÙĪÙĨ":3182,"Ø§Ø¯Ùĩ":3183,"ĠØªØ¹ÙĦÙĬÙħ":3184,"ØªØ¬Ø§Øª":3185,"ĠØ§ÙĦÙħØŃÙĬØ·":3186,"ĠØ§ÙĦØ§":3187,"ĠØ§ÙĦÙģÙĨØ§ÙĨ":3188,"ĠØ§ÙĦØ£ÙĪØ±ÙĪØ¨ÙĬØ©":3189,"Ø§ÙĤØ¹Ø©":3190,"Ø³Ø±ØŃÙĬØ©":3191,"ĠÙħØµØ·ÙĦØŃ":3192,"ĠÙĩØ¤ÙĦØ§Ø¡":3193,"Ø¹ÙĦÙĪÙħ":3194,"ĠØ§ÙĦÙĪØµÙĪÙĦ":3195,"ÙĤØ§ÙģØ©":3196,"ĠØ¨Ø§Ø±ÙĬØ³":3197,"Ø´Ø¨":3198,"ÙĨÙģ":3199,"ĠØµØ§ØŃØ¨":3200,"ĠÙĪÙĥÙĦ":3201,"ĠØ§ÙĦÙħØ§Ø¯Ø©":3202,"ÙĨØªÙĬÙĨ":3203,"ÙĬØ¨ÙĦØº":3204,"ĠÙĥØ§Ùħ":3205,"ÙĦÙģØ§Øª":3206,"ĠØ§ÙĦÙĬÙĩÙĪØ¯":3207,"ĠØªØŃÙħÙĦ":3208,"ĠØ§ÙĦØ£Ø³Ø±Ø©":3209,"Ø´Ø§Ø±Ùĥ":3210,"ĠØ§ÙĦØ¬ÙĩØ§Ø²":3211,"ĠØ§ÙĦØ³ÙĬØ¯":3212,"ĠÙĥØ£":3213,"ÙģÙĬØ§":3214,"ĠØ±Ø£":3215,"Ø²ÙĪØ¬":3216,"ĠÙĤØ±Ùī":3217,"ĠØªØ¹Ø¯Ø§Ø¯":3218,"Ø¬Ø§Ø¬":3219,"ĠØ§ÙĦÙĪØ§ÙĤØ¹":3220,"Ġ187":3221,"ĠØ§ÙĦØ³ÙĨÙĪØ§Øª":3222,"ĠØŃÙħÙĦ":3223,"ÙĦÙħÙĪÙĨ":3224,"ĠK":3225,"Ø¯ÙĬØ§Øª":3226,"ig":3227,"ĠØ§ÙĦØ´Ø¨Ø§Ø¨":3228,"ĠØ³Ø§ÙĨ":3229,"ĠÙĥØ«ÙĬØ±Ø§":3230,"ÙĪÙģØ©":3231,"ĠÙĦØµØ§ÙĦØŃ":3232,"Ø§ÙĤÙĬØ©":3233,"ĠØ£Ø³Ø±Ø©":3234,"Ø±Ø§ØªÙĬØ¬":3235,"ĠØ§ÙĦØªØ¨":3236,"ĠØ®Øµ":3237,"ÙģÙĩÙĪÙħ":3238,"Ø§Ø±Ùģ":3239,"ĠÙĪÙĬÙĦ":3240,"ĠØªØµÙħÙĬÙħ":3241,"ÙĤÙī":3242,"ØŃØ¯Ø¯":3243,"ĠØ§ÙĦÙĨØ³Ø§Ø¡":3244,"ĠÙĪÙģÙĤØ§":3245,"ĠØ¨ÙħØ¹":3246,"ĠØ¨Ø¯ÙĪØ±":3247,"ÙĬØªÙħ":3248,"Ø·ÙĪÙĦ":3249,"ĠÙĪØ§ÙĦÙĩ":3250,"Ø¹ÙĬÙħ":3251,"ĠÙĪØ§Ø¹":3252,"ĠØ²ÙħÙĨ":3253,"Ø±Ø±":3254,"ĠØ§ÙĦØªÙĪÙĨ":3255,"ĠØ§ÙĦÙĥØªØ¨":3256,"Ø¯Ø±Ø§Ø³Ø©":3257,"ĠÙĦÙĦØ¨":3258,"ĠØ¥Ø·ÙĦØ§ÙĤ":3259,"ĠÙĤØ·Ø±":3260,"Ø§Ø·Ø©":3261,"ĠØ§ÙĦØ£ØŃÙĬØ§ÙĨ":3262,"Ġ1998":3263,"ĠÙĪÙħØ±":3264,"ĠØ±ØºÙħ":3265,"ĠØ§ÙĦØ¹ÙĩØ¯":3266,"ĠÙĪÙĬØ±":3267,"ĠØ£ÙģØ±Ø§Ø¯":3268,"Ø¬ÙħÙĪØ¹Ø©":3269,"ÙĪÙĩØ§":3270,"ĠÙĬØ¸ÙĩØ±":3271,"ĠÙģØ§ÙĦ":3272,"Ø¬ÙĦØªØ±Ø§":3273,"ĠÙĬØ¹ÙĪØ¯":3274,"ØŃØµØ§Ø¡":3275,"ĠØ¬ÙĩØ©":3276,"Ø§Ø²ÙħØ©":3277,"ĠØµÙĪØª":3278,"ĠØ®ÙĦ":3279,"ĠÙħØ§Øª":3280,"ĠØªÙĩ":3281,"ĠØ±ÙĪÙħ":3282,"ÙĪÙĬÙĪØ±Ùĥ":3283,"ĠØ§ÙĦØ¨Ø¯Ø§ÙĬØ©":3284,"ĠÙĨØ´Ø§Ø·":3285,"Ø¹ÙĦØ§Ø¬":3286,"ĠØ§ÙĦØ£ÙĪØ³Ø·":3287,"ĠØ¶Ø¹":3288,"ĠØ£Ø¨ÙĨØ§Ø¡":3289,"ĠØªØ¹Ø±Ùģ":3290,"ĠÙģØ§ÙĨ":3291,"ÙħØ·":3292,"Ø§Ø¬Ø¯":3293,"ĠÙħØªØŃ":3294,"ĠØ§ÙĦØ¬ÙħØ§":3295,"Ø§Ø¨Ø·Ø©":3296,"ĠØ§ÙĦØ«Ø§ÙħÙĨ":3297,"ÙģÙĬØ§Øª":3298,"ĠØ§ÙĦÙĥØ§Ø«ÙĪÙĦ":3299,"ĠØ§ÙĦÙħØ«":3300,"ĠØ§ÙĦÙħØ¬Ø§ÙĦ":3301,"ĠØ¨Ø§ÙĦÙĦØºØ©":3302,"ØªØ±Ø§ÙĪØŃ":3303,"Ø´Ø¹":3304,"Ø²ÙĬØ§Ø¡":3305,"ĠÙĪØ§Ø³Ø¹":3306,"ĠØ¹Ø§ÙħØ©":3307,"Ø¯Ø§Ø±Ø©":3308,"ĠÙĬØ¬Ø¹ÙĦ":3309,"ĠØ¯ÙĪØ±ÙĬ":3310,"ĠØ³ÙĬØ±":3311,"Ø¹Ø§Ø¡":3312,"ĠØ¥ÙĬØ±Ø§ÙĨ":3313,"ĠØªÙĨØ¸ÙĬÙħ":3314,"ĠØ§ÙĦØ§Ø±":3315,"Ø´Ø±ÙĤ":3316,"ĠÙħØ±Ø¨Ø¹":3317,"ĠÙĬØŃØ¯Ø«":3318,"iv":3319,"ĠÙģÙĤØ§ÙĦ":3320,"ÙĪØ¨Ø§Øª":3321,"Ġ;":3322,"ĠØ§ÙĦÙħØ¨Ø§Ø±Ø§Ø©":3323,"ÙĪØ§Ùĥ":3324,"ĠØ¨ÙĦØ¯Ø©":3325,"ĠÙĪÙģÙĤ":3326,"Ø§Ø·ÙĨÙĬÙĨ":3327,"ĠØ§ÙĦØ³ÙĥØ§ÙĨÙĬØ©":3328,"Ø§ÙĦÙħÙĨ":3329,"ĠÙĪÙĤØ§Ùħ":3330,"ÙģØ§Ø¸":3331,"ĠØ¬ÙĩØ§Ø²":3332,"ÙĪØ§Ø¦Ø²":3333,"ĠØªØ´ÙĥÙĦ":3334,"ĠØ³Ø±ÙĬ":3335,"ĠÙĬØ²ÙĬØ¯":3336,"Ø¨ØŃØ«":3337,"ĠØªØ¸ÙĩØ±":3338,"ØŃØµÙĦ":3339,"ĠØ¢ÙĨØ°Ø§Ùĥ":3340,"ĠÙħØ±Ø§Øª":3341,"Ġthe":3342,"ĠØ£ÙħÙĬØ±":3343,"ĠÙĦØº":3344,"ĠØ§ÙĦØ±ÙĤ":3345,"ĠØ§ÙĦÙĪØ§ØŃ":3346,"ĠÙĨØ¨Ø§Øª":3347,"ĠØ£ÙĩÙħÙĬØ©":3348,"ÙĥØ§Ùħ":3349,"ĠØ§ÙĦØ¹ØµÙĪØ±":3350,"Ø¹Ùĩ":3351,"ĠÙĪØ§ÙĦØ³ÙĬ":3352,"ĠØ´ÙĩØ¯":3353,"ÙĪÙģÙĬØ±":3354,"ĠØ§Ø®ØªÙĬØ§Ø±":3355,"ĠÙĪØ£ÙĬ":3356,"Ø´Ø·Ø©":3357,"ĠØ§ÙĦÙħØ§Ø¶ÙĬ":3358,"Ø«ÙħØ§ÙĨ":3359,"ĠØ§ÙĦØŃØ§ÙĦØ§Øª":3360,"ĠÙĪØ¨Ø±":3361,"Ø¹ÙĨØ¯ÙħØ§":3362,"ĠØ§ÙĦØ®ÙĦÙĬØ¬":3363,"ĠØµÙĪØ±Ø©":3364,"ĠÙĬÙĦÙĬ":3365,"ĠØµÙĨØ§Ø¹Ø©":3366,"ĠØ£Ø±Ø§Ø¶ÙĬ":3367,"Ġ+":3368,"ĠØ²Ø±":3369,"ĠÙĩÙĪÙĦ":3370,"Ø§Ø¯ÙĬÙħÙĬØ©":3371,"ĠÙħØ¯Ùī":3372,"ÙħØ§Ø±":3373,"ÙĥÙĬØ¨ÙĬ":3374,"ĠÙĬØ§":3375,"ĠØ®Ø±":3376,"ĠØ§ÙĦØ³Ø§Ø¨Ø¹":3377,"ØªØ±Ùģ":3378,"ĠØ§ÙĦÙħØ¤Ø±Ø®":3379,"ĠØ§ÙĦØ´Ø§Ùħ":3380,"ĠØ£Ø³Ø±":3381,"ĠØ§ÙĦÙĥØ«":3382,"ĠØ¨Ø¹Ø¶ÙĩØ§":3383,"ĠØ§Øº":3384,"ĠÙħØµØ¯Ø±":3385,"Ø§ÙĦØ§":3386,"ÙĨÙĬØ§Øª":3387,"ØµØ§ÙĦØ§Øª":3388,"ĠØ§ÙĦØ¹Ø¸Ùħ":3389,"ĠØ¯Ø¹":3390,"Ø¨ÙĤÙī":3391,"ĠØ¨ÙĥÙĦ":3392,"ĠØ¯Ø¹Ùħ":3393,"ÙħÙī":3394,"ĠØªÙħÙĥÙĨ":3395,"os":3396,"ĠØ§ÙĦØªØŃØ±":3397,"Ø±Ø¨ÙĪÙĨ":3398,"ĠÙĤÙĬØ§Ø¯Ø©":3399,"ĠÙĪØ®Ø§ØµØ©":3400,"ĠØµØºÙĬØ±":3401,"Ø§ÙħÙĬÙĨ":3402,"ĠØ£ØŃØ¯Ø§Ø«":3403,"ĠØ§ÙĦØ·Ø¨ÙĬØ¹ÙĬ":3404,"12":3405,"Ø±Ø¨Ø·":3406,"Ø§ÙĤØ¨Ø©":3407,"ĠØ§ÙĦÙħØ±ØŃÙĦØ©":3408,"ĠØ§Ø¬":3409,"ĠØªØ¶Ùħ":3410,"ĠØ¯ÙģØ¹":3411,"ĠØ£Ø¬Ø²Ø§Ø¡":3412,"ĠØ§ÙĦØ¹Ø§Ø¦ÙĦØ§Øª":3413,"Ø§ÙĦØ¥":3414,"ĠØ¹Ø±Ùģ":3415,"ĠÙĤØµØ±":3416,"ÙĪÙĬÙĤ":3417,"ĠØ¸ÙĦ":3418,"Ġv":3419,"ĠØªÙĪÙĨØ³":3420,"Ø±Ùī":3421,"ĠØ§ÙĦÙģØ±Ø¯":3422,"ÙħÙĩ":3423,"ĠÙĪÙĬÙħÙĥÙĨ":3424,"ĠÙĨØ¸Ø±ÙĬØ©":3425,"30":3426,"Ø´Ø±Ø©":3427,"ØªØ±ØŃ":3428,"ĠØµØ§ÙĦØŃ":3429,"ĠÙĦÙĬØ¨":3430,"ĠØ§ÙĦØ·Ø±ÙĤ":3431,"ĠÙĤÙĬÙħØ©":3432,"ĠØ³Ø¨Ø¨":3433,"ĠØ§ÙĦÙħÙĤØ§ÙĦ":3434,"ĠÙħÙĥÙĪÙĨ":3435,"ĠØ§ÙĦÙĤÙĪØ©":3436,"Ø¨Ø§Ø¡":3437,"ĠØ¬Ø¨Ø§ÙĦ":3438,"Ġ1990":3439,"Ø¨Ø§ÙĨ":3440,"ĠØ§ÙĦÙĤØ¯Ø³":3441,"ĠØ§ÙĦØ´ÙħØ§ÙĦÙĬ":3442,"Ġ60":3443,"ÙĬØ¨Ø©":3444,"ĠØ³Ø§ÙĨØª":3445,"ĠÙĦÙĦÙĩ":3446,"ĠØ·ÙĪÙĬÙĦ":3447,"Ø´ÙģÙī":3448,"ÙĥØ°Ø§":3449,"ĠØ£Ø²":3450,"Ø²Ø§Ø¨":3451,"ĠÙħÙĨØŃ":3452,"ĠÙħØ¬ÙħÙĪØ¹":3453,"ĠÙģØµÙĦ":3454,"ĠÙħÙĩÙħØ©":3455,"ĠÙħØ¹Ø¯ÙĦ":3456,"ĠÙĦÙĦÙģ":3457,"ÙĪÙĨØº":3458,"Ø°Ø©":3459,"Ø¹ÙĦÙĬÙħ":3460,"ĠØ³Ø§Ø¨":3461,"ĠÙħØ³ÙĦØ³ÙĦ":3462,"ĠØ§ÙĦØ·Ø±ÙĬÙĤØ©":3463,"ØµØ±Ùģ":3464,"ĠÙĨØ§ØŃÙĬØ©":3465,"ĠÙĪÙħÙĨÙĩØ§":3466,"ĠØ§ÙĦØ±ÙĬØ§Ø¶ÙĬØ©":3467,"ĠÙĪØ±Ø¯":3468,"ĠØ³ÙĪÙģ":3469,"ĠØ§ÙĦØ£ÙĤÙĦ":3470,"ĠØ§ÙĦÙħØ¯Ø§Ø±Ø³":3471,"ØµÙĦØ©":3472,"ĠØ£ØºÙĦØ¨":3473,"ÙĬØ±ÙĬØ§":3474,"ÙħØ§Ø¹ÙĬÙĦ":3475,"ĠØŃØ±Ø§Ø±Ø©":3476,"Ø±Ø³Ø§ÙĦ":3477,"ĠØ³Ø¹ÙĬØ¯":3478,"ĠÙħÙħÙĦÙĥØ©":3479,"ĠØ§ÙĦØ¥Ø³Ø±Ø§Ø¦ÙĬ":3480,"ĠØ§ÙĦØ£Ø³ÙĪØ¯":3481,"ĠØ¸ÙĩØ±Øª":3482,"ĠØ§ÙĦÙħÙĨØªØ®Ø¨":3483,"ÙĬØ§Ø¨":3484,"ĠÙģØ¥ÙĨÙĩ":3485,"ĠØ¨Ø±ÙĬ":3486,"ÙĪÙĦÙħ":3487,"ĠÙĥØ¨ÙĬØ±Ø§":3488,"ĠØ§ÙĦØŃØ¨":3489,"ĠØ§ÙĦØ³ÙĪØ±ÙĬØ©":3490,"ĠØ§ÙĦÙħÙĥØªØ¨":3491,"ÙĪÙĦÙĬØ©":3492,"ĠØ«Ø§ÙĨÙĬ":3493,"ĠÙĪØ¬Ø¯":3494,"qu":3495,"ĠØ§ÙĦØ¬Ø§ÙĨØ¨":3496,"Ġ2015":3497,"Ø¹ÙĦÙĨØª":3498,"ĠØ§ÙĦÙĬÙħÙĨ":3499,"ÙĤÙĪØ·":3500,"ĠÙģÙĥØ±Ø©":3501,"ĠØ§ÙĦÙĪØŃÙĬØ¯":3502,"ÙĨÙĩØ§":3503,"Ø§Ø¯Ùħ":3504,"ĠØ§ÙĦØµÙĪØª":3505,"ĠØ§ÙĦØ§Ø¬ØªÙħØ§Ø¹ÙĬ":3506,"Ø§ÙĦØº":3507,"ÙĬÙħÙĨ":3508,"ĠÙħØªØ¹Ø¯Ø¯Ø©":3509,"ÙħØ±Ø§Ø¡":3510,"Ø§ÙĪØ±Ø©":3511,"Ø¶Ø§ÙĬØ§":3512,"ÙĦÙģØ²ÙĬÙĪÙĨ":3513,"ĠØ¥Ø¹ÙĦ":3514,"ĠØ§ÙĦØ£ÙĤ":3515,"ÙĬÙĤÙĬØ©":3516,"ÙĬÙĪØ¬Ø¯":3517,"ĠØ¨ÙĩØ°Ùĩ":3518,"ØªÙĤÙĦ":3519,"ĠÙĦÙĦØ·":3520,"Ø¸ÙĩØ±Øª":3521,"ĠÙħØ¬Ø±":3522,"Ġof":3523,"ÙħØ§Ùĥ":3524,"ĠÙĨÙĬÙĪÙĬÙĪØ±Ùĥ":3525,"Ø§ÙĦØ±":3526,"ĠØ§ÙĦÙħÙĬ":3527,"ÙĪÙĨØ§":3528,"ĠÙĪØ§Ø´":3529,"ÙĪØªÙĬ":3530,"ĠÙĪØ§ÙĦØ·":3531,"ĠÙĩØ±":3532,"ÙĪØ§Ø¬Ø¯":3533,"ĠØ§ÙĦØªÙĤÙĪÙĬÙħ":3534,"Ø§Ø¯Ø§":3535,"ĠØ§ÙĦØ±Ø³ÙħÙĬ":3536,"ĠØ¬Ø§ÙĨ":3537,"Ø¹ÙħØ§Ø±":3538,"ĠØ§ÙĦÙħÙĬÙĦØ§Ø¯ÙĬ":3539,"ĠØ§ÙĦÙħØ³Ø¬Ø¯":3540,"ĠÙħØ´Ø§Ø±Ùĥ":3541,"ÙĦÙĨØ¯Ø§":3542,"ĠØŃØ§ÙĦØ§Øª":3543,"ik":3544,"ĠØ¯Ø§Ø¦":3545,"ÙĬØ§ÙĨ":3546,"ĠØ¨Ø¹ÙĨÙĪØ§ÙĨ":3547,"ĠØ§ÙĦÙĪÙĦ":3548,"ĠØ§ÙĦÙħØ§ÙĦÙĬØ©":3549,"Ġ1996":3550,"Ø¹Ø¨ÙĬØ±":3551,"âĢ¢":3552,"ÙĪØªÙĩ":3553,"ÙĦÙĤØ¯":3554,"ĠØªØºÙĬÙĬØ±":3555,"ĠØ§Ø²":3556,"ĠØªÙĦÙĤ":3557,"ĠØ·ÙĦ":3558,"Ø¯Ø®ÙĦ":3559,"Ø¯Ø§Ø¨":3560,"Ø³Ø¨ÙĪØ¹":3561,"ÙĦØ²":3562,"Ø±ÙģØ©":3563,"Ġ35":3564,"ĠÙģÙĥØ§ÙĨ":3565,"ÙĪØªØ´":3566,"Ø®Ø¨Ø§Ø±":3567,"ĠØ§ÙĦØŃØ³":3568,"Ø§ØµÙĬÙĦ":3569,"ØªØ±Ø¶":3570,"ĠÙĪØ§ÙĦÙħØ±":3571,"11":3572,"ĠØµÙĪØ±":3573,"Ø§ÙĦØªØ§Ø±ÙĬØ®":3574,"Ø´Øª":3575,"ĠØ£Ø¹ÙĦÙĨ":3576,"ĠÙĬØµ":3577,"ĠÙĬÙħØ«ÙĦ":3578,"ĠØ§ÙĦØ¨Ø±ÙĨØ§ÙħØ¬":3579,"ĠØ±ÙĪÙħØ§":3580,"ĠØ§Ø¯":3581,"ĠØ§ÙĥØªØ´Ø§Ùģ":3582,"ĠØ§ÙĦÙħØ³ÙĦØ³ÙĦ":3583,"ĠØ§ÙĦØªØ¬Ø§Ø±Ø©":3584,"Ø°ÙĪØ±":3585,"ĠØ£ÙĨÙĩÙħ":3586,"ĠØ§ÙĦØªÙĥ":3587,"ĠØ§ÙĦØ·Ø¨ÙĬØ©":3588,"ĠØ§ÙĦÙģÙĨÙĬØ©":3589,"ĠØ¹ÙĦØ§ÙĤØ©":3590,"ÙĩÙĪÙĦØ©":3591,"ĠØ§ÙĦØ´Ø±ÙĥØ§Øª":3592,"Ø§Ø¶ÙĬØ©":3593,"ĠÙĥØ§Øª":3594,"Ġ1997":3595,"Ø§Ø³ØªÙĩ":3596,"ĠØ§ÙĦØ«ÙĤØ§ÙģØ©":3597,"ĠÙĦØ§ÙĨ":3598,"ÙĩÙī":3599,"Ø¹ÙĦÙħ":3600,"Ø§Ø±ÙĬØ¹":3601,"ĠØ§ÙĦØ¬Ø¨ÙĦ":3602,"ĠØµÙĬ":3603,"ĠØ§ÙĦÙģÙĦØ³Ø·ÙĬÙĨÙĬØ©":3604,"ĠÙĦÙĦØ§Ø³Øª":3605,"ĠÙĤØ±Ø¨":3606,"ÙĪØ¹ÙĦÙī":3607,"Ø·Ø§ÙĦ":3608,"ĠØŃØ¯ÙĪØ«":3609,"ĠÙĤØµØ©":3610,"Ø®ÙģØ§Ø¶":3611,"Ø§Ø¦Ø¹Ø©":3612,"ĠØ§ÙĦÙħØ´Ø±ÙĪØ¹":3613,"ĠØ¨Ø§ÙĦØ¬":3614,"ĠÙĪØ§Ø³Ø¹Ø©":3615,"Ø®ÙĦØµ":3616,"Ø¬Ø§ØŃ":3617,"ÙĤØ§ÙĪÙħØ©":3618,"ĠØ§ÙĦØ¨Ø±ÙĦÙħØ§ÙĨ":3619,"ĠØ¥ØµØ¯Ø§Ø±":3620,"ĠÙħØ³ÙĬØ±ØªÙĩ":3621,"ĠØ¹Ø²":3622,"ĠØŃØ³":3623,"ÙĪØ¬ÙĬÙĩ":3624,"ĠØ§ÙĦØ§ÙĨØªØ®Ø§Ø¨Ø§Øª":3625,"ĠØ§ÙĦØ£Ø¹ÙĦÙī":3626,"ÙĩØ±Ø¬Ø§ÙĨ":3627,"ĠØŃØ¶":3628,"ĠÙĦØ¬ÙĨØ©":3629,"Ġst":3630,"Ø´Ø±Ùģ":3631,"ÙħÙĬÙĦ":3632,"ĠØ³ÙĦÙĬÙħØ§ÙĨ":3633,"ØºØ§":3634,"ÙĪØ±ÙĪ":3635,"ĠÙĤØ¯ÙĬ":3636,"ĠØ§ÙĦÙĥØ±ÙĬÙħ":3637,"ĠØªØºÙĬØ±":3638,"ÙĦØ§Ø©":3639,"ĠØ§ÙĦÙĨÙģØ·":3640,"ĠÙĪØ§ÙĦØ§Ø³Øª":3641,"ÙĪØ§ØµÙĦ":3642,"ĠØ§ÙĦÙħØ±Ø£Ø©":3643,"ĠØ§ÙĦØ¬ØºØ±Ø§ÙģÙĬ":3644,"ĠØ®Ø§ÙĦØ¯":3645,"ĠØ§ÙħØªØ¯":3646,"ÙĪÙĨÙĬØ§":3647,"ÙĪÙĥÙĬ":3648,"Ø£ÙĦ":3649,"ĠØ§ÙĦÙĦÙĪÙĨ":3650,"ĠØ§ÙĦØ´Ùĩ":3651,"Ø¨ÙĨÙī":3652,"ĠØ§Ø¶Ø·Ø±":3653,"ĠØ§ÙĦØ§Ø¨":3654,"ĠØ§ÙĦØ³ÙĪØ±ÙĬ":3655,"ĠØ§ÙĦØ¥ÙĬØ±":3656,"ĠØ³ØªØ©":3657,"Ø°ÙĬØ©":3658,"ĠØ¨ÙĬÙĨÙĩØ§":3659,"Ø¨Ø±Ø©":3660,"ĠØ§ÙĦØ³ÙĪÙĤ":3661,"ĠØªÙħØ«ÙĦ":3662,"ĠØ¨Ø®":3663,"ĠÙĤØ¨ÙĬÙĦØ©":3664,"ĠØ³ÙĪÙī":3665,"ĠØ§ÙĦØ£ØŃØ¯Ø§Ø«":3666,"ĠØ§Ø³ØªØ·Ø§Ø¹":3667,"ĠØ§ÙĦÙħÙĪØ³ÙĬÙĤÙī":3668,"ĠØªØŃØ¯Ø«":3669,"ĠÙĤØ§Ø¹Ø¯Ø©":3670,"ĠØ§ÙĦÙħØ¹Ø±ÙĪÙģØ©":3671,"Ø§ÙģØ³":3672,"ÙĬÙħØ§ÙĨ":3673,"ØªØ³":3674,"ĠÙħØŃÙħÙĪØ¯":3675,"ĠØ§ÙĦÙĥÙĦÙĬØ©":3676,"ĠØ¨Ø§ÙĦØ¯":3677,"ĠØ§ÙĦØ¨ÙĦØ¯Ø§ÙĨ":3678,"ĠØ«ÙĪØ±Ø©":3679,"ĠØ¯Ø¨":3680,"ĠØ¨ØªØŃ":3681,"ĠØ§ÙĦØ¶ÙĪØ¡":3682,"ĠØ¥ÙĨØ¬ÙĦØªØ±Ø§":3683,"Ġ1994":3684,"ÙģØ±Ø¯":3685,"Ø¨ÙĩØ©":3686,"ĠØ³ÙĬØ¯":3687,"Ø¸Ø©":3688,"ĠØ§ÙĦÙĨØ¸Ø±":3689,"ĠØ³Ùĥ":3690,"ÙĬØ§ØªÙĩØ§":3691,"ĠÙĤØ§Ø¦Ø¯":3692,"Ø§Ø±Ùĩ":3693,"ĠJ":3694,"ĠØ§ØªØŃØ§Ø¯":3695,"ØµÙĬÙĦØ©":3696,"ĠØ§ÙĦØ±ÙĪØ³ÙĬØ©":3697,"ØŃØ±Ø§Ø¡":3698,"ÙĥÙĦÙĬ":3699,"ĠØ§ÙĦØ§Ø³":3700,"ĠØ¨ØŃØ±":3701,"ĠØ§ÙĦØ§Ø´ØªØ±Ø§Ùĥ":3702,"ĠØ§ÙĦØºØ§Ø²":3703,"ĠØ§ÙĦØªÙĤÙĦÙĬØ¯ÙĬØ©":3704,"ĠØªØ¹ÙĨÙĬ":3705,"ĠØ£ÙĤØ¯Ùħ":3706,"ĠØ£ØµØ¯Ø±":3707,"ĠÙĨØ³Ø®Ø©":3708,"ĠØ§ÙĦØ¹Ø±Ø§ÙĤÙĬØ©":3709,"ĠØ§ÙĨØªØ´Ø§Ø±":3710,"Ø®ØµØµØ©":3711,"Ø§ÙĩØ§":3712,"ÙĥÙĬØ¨ÙĬØ¯ÙĬØ§":3713,"ck":3714,"ĠÙĬØŃÙħÙĦ":3715,"clu":3716,"ĠØ£ÙĥØ³":3717,"ĠÙĨÙĪØ±":3718,"Ø§Ø³ÙĪØ¨":3719,"Ø´Ø·":3720,"ÙĤÙģ":3721,"ĠØ§ÙĦÙĨÙĩØ§Ø¦ÙĬ":3722,"TC":3723,"Ø§Ø¯Ø¦":3724,"ĠØ§ÙĦÙĨÙĩØ§ÙĬØ©":3725,"ÙĪØ§Ø¦ÙĬØ©":3726,"ĠØ§ÙĦÙĦØ§Øª":3727,"ĠÙĦÙħØŃ":3728,"ĠØªØ´ÙĥÙĬÙĦ":3729,"ÙĬÙĪØ§ÙĨ":3730,"ĠÙħØ¤Ø³Ø³Ø©":3731,"Ø¬ÙĦØ©":3732,"ĠØ§ÙĦØ¨ÙĦØ¯Ø©":3733,"ĠÙħÙĩÙħ":3734,"Ø§Ø¶Ø±":3735,"ÙĬÙĨÙĪ":3736,"13":3737,"ĠÙħÙĬØ§Ùĩ":3738,"ĠØ§ÙĦØ¨ÙĪÙĦ":3739,"ÙĬÙĪØ±":3740,"ĠØ¨Ø±ÙĪØª":3741,"ĠØ§ÙĦØ¨Ø§Ø¨":3742,"Ø§Ø¦ÙĨ":3743,"ÙĬØ¹ØªØ¨Ø±":3744,"ĠØ¨ÙĬØ±ÙĪØª":3745,"ĠØ§ÙĦÙħÙĥØ§ÙĨ":3746,"ĠØ§ÙĦØ¥ÙĨØ³":3747,"ĠØ§ÙĦØ¹Øµ":3748,"ĠØ§ÙĦØ§ÙĤØªØµØ§Ø¯":3749,"ad":3750,"ĠØ§ÙĦÙĥÙħ":3751,"ĠØ§ÙĦØ±Ø³ÙħÙĬØ©":3752,"ĠØ³ÙĪÙĤ":3753,"ĠØ§ÙĦØ¬ÙħØ¹ÙĬØ©":3754,"ĠØ§ÙĦÙĤØ¨Ø§Ø¦ÙĦ":3755,"ÙĪÙħØ¨":3756,"ĠØºØ§ÙĦØ¨Ø§":3757,"Ø®Ø·Ø·":3758,"Ø§ÙĦÙī":3759,"ĠØ¨Ø±Ø§ÙħØ¬":3760,"clude":3761,"ĠØªØ´ÙħÙĦ":3762,"ĠÙĪÙĦÙĥÙĨÙĩØ§":3763,"ĠÙĨÙĬÙĪ":3764,"ĠØ§ÙĦÙĤÙħØ±":3765,"ĠØªØ²Ø§ÙĦ":3766,"ĠØ§ÙĦØ¨Ø§ØŃØ«":3767,"ĠØ¨ÙĥØ±":3768,"ĠÙĩÙħØ§":3769,"ĠØ¢ÙĦØ§Ùģ":3770,"ĠÙĬØŃØªÙĪÙĬ":3771,"ĠØ§ÙĦØ«ÙĦØ§Ø«Ø©":3772,"ÙĪÙĨØ¯":3773,"ĠØ§ÙĦÙħØ¹Ø±ÙĥØ©":3774,"ĠÎ":3775,"ÙĬØ¯Ø§ÙĨ":3776,"ĠØ§ÙĦÙĤØ±Ùī":3777,"Ġ1991":3778,"ÙĬØ±ÙĪ":3779,"ĠÙħÙĨÙģ":3780,"Ø§Ø¦Ø³":3781,"ĠØªØ·ÙĪØ±":3782,"ĠØ«Ø§Ø¨Øª":3783,"ĠØ§ÙĦØ¥ÙħØ§Ø±Ø§Øª":3784,"Ø¯ÙĬÙĩ":3785,"ĠØ§ÙĦØ¥ÙĤÙĦÙĬÙħ":3786,"ĠØ³Ø§Ø¹Ø©":3787,"Ø§Ø·Ø¦":3788,"ĠØ§ÙĦØ£Ø´Ø®Ø§Øµ":3789,"Ø«Ø±Ø©":3790,"ĠØ§ÙĦÙħÙĪØ³Ùħ":3791,"ÙĨÙĬØ¹":3792,"ĠØ£ØµÙĪÙĦ":3793,"18":3794,"Ø¬ØŃ":3795,"ĠØ£Ø³Ø³":3796,"ÙĪÙĥØ¨":3797,"ĠØ§ÙĦØ³Ø§Ø¹Ø©":3798,"ĠØ§ÙĦØ¶ØºØ·":3799,"Ø¬ÙħØ§ÙĦÙĬ":3800,"Ø´Ø¦":3801,"ÙĦÙĬØ³":3802,"ĠØªØ§Ø¨Ø¹Ø©":3803,"ĠâĢĿ":3804,"Ġ32":3805,"ĠØ§ÙĦØ¹ÙħÙĦÙĬØ§Øª":3806,"ÙĤÙĬÙĤÙĬ":3807,"ĠÙħØ³Ø§ØŃ":3808,"Ø§ÙħÙĩ":3809,"ĠØ§ÙĦØ£Ø¬":3810,"ĠÙħÙĦÙĬØ§Ø±":3811,"ĠÙĪÙģØ§ØªÙĩ":3812,"ĠØªØªØ¨Ø¹":3813,"ĠÙħØŃØ§ÙĪÙĦØ©":3814,"ĠÙĦØ§ØŃÙĤØ§":3815,"ter":3816,"ĠØ·Ø±ÙĤ":3817,"Ġ1992":3818,"Ø³Ø§Ø¹Ø¯Ø©":3819,"ĠØ³Ø¹ÙĪØ¯":3820,"ow":3821,"ĠÙĪØ§ÙĦØ¨Ø±":3822,"ĠØ§ÙĦÙĦØ¬ÙĨØ©":3823,"ĠÙĬØ²Ø§ÙĦ":3824,"15":3825,"ĠÙĥØ±ÙĬ":3826,"Ø¬Ø§Ø¨":3827,"Ø§ÙĦÙħÙĪÙĤØ¹":3828,"ĠØ¨ØŃØ³Ø¨":3829,"Ø¨Ø§ÙĦØ¥Ø¶Ø§ÙģØ©":3830,"ÙĪØ¬Ø¨":3831,"Ø§ÙĦØ´":3832,"ØªÙĩÙĬ":3833,"ÙĤÙĬÙħ":3834,"ĠØ§ÙĦØµÙĦ":3835,"ĠØ£Ø¬ÙĩØ²Ø©":3836,"Ø§Ø¦ÙĬØ§Øª":3837,"ĠØ¢Ø«Ø§Ø±":3838,"ÙĤØ·Ø¹":3839,"ĠØ§ÙĦØ±Ø§Ø¨Ø¹Ø©":3840,"ØµÙī":3841,"ĠØ§ÙĦÙħÙħÙĥÙĨ":3842,"ÙĪÙĦÙĪØ¬ÙĬØ©":3843,"ĠØ§ÙĦÙħØ·ÙĦ":3844,"ĠØªØ¹ÙĪØ¯":3845,"Ø§Ø·Ø±":3846,"ĠØ¨Ø¥ÙĨ":3847,"ĠØ§ÙĦØ¹ÙĬÙĨ":3848,"ĠØ§ÙĦØ¹Ø±Ø§ÙĤÙĬ":3849,"ĠØ§ÙĦØ¯Ø±Ø§Ø³Ø©":3850,"ĠØ§ÙĦØ¥ÙĨØ¬ÙĦÙĬØ²ÙĬ":3851,"ØªØ§Ø¡":3852,"ĠØ§ÙĦØ«Ø§ÙĨÙĪÙĬØ©":3853,"ĠØ§ÙĦØµÙĨØ§Ø¹ÙĬØ©":3854,"ĠØ®ØµÙĪØµ":3855,"14":3856,"Ø²ÙĬÙħØ©":3857,"ĠÙĪØ±Ø§Ø¡":3858,"ĠØ§ÙĦØ¹Ø§ÙĦÙĬ":3859,"ØªØ©":3860,"Ø¯Ø±Ø¬":3861,"Ø¯Ø§Ø¡":3862,"ÙĤÙĬØ§Ø³":3863,"ĠØ¯Ø®ÙĪÙĦ":3864,"Ġ80":3865,"ÙħØ«ÙĦ":3866,"Ġ1995":3867,"ĠØ§ÙĦÙģÙĦÙĥ":3868,"ĠØ¨Ø·Ø±ÙĬÙĤØ©":3869,"ĠØ§ÙĦØ¥Ø¯Ø§Ø±Ø©":3870,"ĠØ§ÙĦØ¨Ø´Ø±ÙĬØ©":3871,"ĠUTC":3872,"Ø§ØŃÙĬ":3873,"ĠØ§ÙĦÙģØ¶Ø§Ø¡":3874,"em":3875,"ĠØ§ÙĦØ£Ø³Ø§Ø³ÙĬ":3876,"Ø§Ø¯ÙĦØ©":3877,"ĠÙĪØ¹Ø¯Ø¯":3878,"ÙħÙĬØ±":3879,"Ø¹ÙĦÙĤØ©":3880,"ĠØ¢Ø±":3881,"ĠØ§ÙĦØ®Øµ":3882,"ĠØ£Ø´ÙĥØ§ÙĦ":3883,"ĠØ£Ø±Ø³ÙĦ":3884,"ÙĪÙĦÙĬÙĨ":3885,"ĠØ±ÙĪØ§ÙĬØ©":3886,"ÙĥÙĨØ¯Ø±ÙĬØ©":3887,"um":3888,"ĠÙĪØªØª":3889,"ĠØ§ÙĦÙĨØ§Ø±":3890,"ÙĬÙĪØ®":3891,"Ø¶ÙĬÙģ":3892,"ĠØ§ÙĦÙħØ³ØªÙĪÙī":3893,"ĠØ¬ÙĦ":3894,"Ø´Ø¯":3895,"ĠØ§ÙĦÙħØ¹Ùħ":3896,"ĠÙħØ§Ø¯Ø©":3897,"ĠØ§ÙĦØ¬ÙĨÙĪØ¨ÙĬ":3898,"ÙģÙĬÙģ":3899,"ĠØ§ÙĦØ¹ÙĦØ§ÙĤØ§Øª":3900,"ĠØ§ÙĦØ¢Ø«Ø§Ø±":3901,"ÙĤØ§ÙģÙĬ":3902,"ĠØ§ÙĦØ§ÙĤØªØµØ§Ø¯ÙĬ":3903,"ĠØ§ÙĦØ³ÙĬØ·Ø±Ø©":3904,"Ø¹ÙĪÙĨ":3905,"Ø§Ø¦Ø·":3906,"ĠØ¨Ø³Ø±Ø¹Ø©":3907,"Ø³Ø¯":3908,"ĠØªÙħØª":3909,"ĠØ¹Ø§Ø´":3910,"Ġ2016":3911,"ĠØ¨ÙħØ±":3912,"ĠØªØº":3913,"ĠÙħÙĨØª":3914,"ĠØ¨ÙĬÙĨÙĩÙħ":3915,"ĠØ§ÙĦÙĨØ¨":3916,"ag":3917,"Ø§ÙĪØ±":3918,"ĠØ§ÙĦØ¨ÙĬØ²":3919,"Ġ{":3920,"Ø²ÙĬØ§Ø¯Ø©":3921,"ĠÙĥÙĨÙĬØ³Ø©":3922,"Ø§Ø¨Ø³":3923,"Ø®Ø·ÙĬØ·":3924,"ĠÙģÙĩÙħ":3925,"ĠÙĬØªØ¨Ø¹":3926,"ĠØ¯ÙĪ":3927,"ĠØ«Ø§ÙĨÙĬØ©":3928,"ÙĪØ§Ø¦ÙĦ":3929,"ØµØ§Ø¨":3930,"Ø±ÙĬÙĤÙĬ":3931,"ÙĨØ§Ø¦ÙĬØ©":3932,"ĠØ§ÙĦØ£Ø¯Ø¨":3933,"ØªØ¯Ø§Ø¡":3934,"ĠØ§ÙĦØ£ÙĨÙĪØ§Ø¹":3935,"ĠØªÙĨÙģÙĬØ°":3936,"ÙģØ§Ùģ":3937,"Ġ1948":3938,"ĠÙģØ±ÙĤ":3939,"ĠØŃØ³Ø§Ø¨":3940,"ĠÙĨØ´Ø£":3941,"ĠØ§ÙĦØŃØ³ÙĨ":3942,"ĠØ¨Ø§ÙĦØ¥ÙĨØ¬ÙĦÙĬØ²ÙĬØ©":3943,"ĠØ§ÙĦØ®ÙĬ":3944,"ĠØ£ØºÙĨÙĬØ©":3945,"ĠØªØ³Ø¨Ø¨":3946,"ÙĪÙĬØªÙĬ":3947,"Ø§ÙĬÙĬØ±":3948,"ĠØ¯Ø§Ø¦Ø±Ø©":3949,"ĠØŃØ¨":3950,"Ø§ÙĥØªØ´":3951,"60":3952,"ØªØµØ§Øµ":3953,"ĠØ¨ØµÙĪØ±Ø©":3954,"ĠØ§ÙĦØ§Ø³ØªÙĤÙĦØ§ÙĦ":3955,"40":3956,"Ø§ÙĦØªØŃ":3957,"ĠØ§ÙĦØŃØ§ÙĦ":3958,"ĠØªÙħØ§ÙħØ§":3959,"ÙĦÙģÙĬØ©":3960,"ĠÙĬØ·ÙĦÙĤ":3961,"ĠØ³ØªÙĬ":3962,"ÙĬÙģØ§":3963,"ØªÙĪÙģÙĬ":3964,"ÙĤØ§Ø·":3965,"ĠØ§ÙĦØ¹Ø±Ø¶":3966,"ĠØ§ÙĦÙħØ¹Øª":3967,"ĠØ§ÙĦÙħÙĨØ§Ø®":3968,"âĢĮ":3969,"Ø±Ø§ÙĦ":3970,"Ø³ØªØ±Ø§ÙĦÙĬØ§":3971,"ĠÙħØ¯ÙĬØ±":3972,"only":3973,"ĠØ§ÙĦØ³ÙĬØ§Ø³Ø©":3974,"Ø§ÙĬØ§":3975,"ĠØ§ÙĦÙĪØ²":3976,"ĠØ§Ø¨ÙĨÙĩ":3977,"ĠÙĪØ§Ø³ØªÙħØ±":3978,"ĠØ¨Ø§Ø¹ØªØ¨Ø§Ø±":3979,"ĠØ¬ÙĬÙħ":3980,"Ø´Ø±ÙĬ":3981,"ĠØ³Ø§Ø¨ÙĤØ§":3982,"ĠØ¬Ø²Ø±":3983,"Ø§Ø¯ÙĤ":3984,"ĠØªÙĤØ¯":3985,"ĠØ§ÙĦØ£Ø«Ø±":3986,"ĠØ§ÙĦØŃØ§ÙĦÙĬØ©":3987,"ĠÙħØ·ÙĦ":3988,"Ø¨ÙĬØª":3989,"ĠØ§ÙĦØ³Ø¹ÙĪØ¯ÙĬ":3990,"ĠØ§ÙĦØ·Ø§Ø¦Ø±Ø©":3991,"ÙĩØ§Ùħ":3992,"ĠÙĥØªØ§Ø¨Ø©":3993,"ĠØ§ÙĦØ¬ÙĪÙĬ":3994,"ĠØ¶ØºØ·":3995,"ÙĪØªÙħ":3996,"ĠØ§ÙĦØ¹ÙħØ§ÙĦ":3997,"Ø¬Ø²Ø¡":3998,"Ø´Ø±ÙĪÙĨ":3999,"ĠØ§ÙĦØ¥Ø³Ø±Ø§Ø¦ÙĬÙĦÙĬ":4000,"ĠÙĤØ§Ø¦":4001,"ĠÙħÙĪØ§ÙĤØ¹":4002,"ÙģØ±ÙĬÙĤÙĬØ©":4003,"ĠØ§ÙĦØ±ÙĪØ§ÙĬØ©":4004,"ĠØ§ÙĦÙħØŃÙĬØ·Ø©":4005,"ÙĤÙĦÙĬØ©":4006,"ÙĬÙĦÙĬØ©":4007,"ĠÙħØ³ÙĬ":4008,"ĠÙĪØ¨ÙĦØº":4009,"ĠÙħØ¹ÙĬÙĨ":4010,"ĠÙĥÙĬÙĦÙĪÙħØªØ±":4011,"ĠØ§ÙĦØ¨Ø±ØªØº":4012,"ĠÙĦØ§Øª":4013,"ĠØ§ÙĦØ¥ÙħØ¨Ø±Ø§Ø·ÙĪØ±":4014,"ĠØ§ÙĦØ´Ø±Ø·Ø©":4015,"ÙĪØªÙĪ":4016,"ĠØ¬ÙĨØ³":4017,"Ø±Ø³ÙĦ":4018,"ĠÙħØ¯Ø§Ø±":4019,"ĠÙĨØ¬Ø¯":4020,"ĠÙģÙĤ":4021,"Ø´ÙĩØ¯":4022,"ÙĪØ§Ø³":4023,"ĠÙħÙħØ«ÙĦ":4024,"ĠØ§ÙĦÙĦØºØ§Øª":4025,"ĠØ¥ÙĬØ±":4026,"Ø§Ø±Ø¶Ø©":4027,"ĠØ§ÙĦØ¨ÙĨØ§Ø¡":4028,"ØŃØ¯Ø§Øª":4029,"ÙĥÙĪÙħØ©":4030,"ĠÙĤØ§Ø¯":4031,"ĠØªØ±ÙĥÙĬØ§":4032,"ĠÙĪØ³Ø§Ø¦ÙĦ":4033,"ĠÙĤÙĦØ¨":4034,"ÙĦØ¹Ø¨":4035,"ĠÙĪØ§ÙĦØªØŃ":4036,"ĠÙĨÙħÙĪØ°Ø¬":4037,"ĠØ¨ØªØ§Ø±ÙĬØ®":4038,"ĠÙĪØ´Ø§Ø±Ùĥ":4039,"ØªØ¨Ø·Ø©":4040,"ĠÙĪÙħØ³":4041,"Ø¨ØŃØ§Ø«":4042,"ÙħØ¬":4043,"ĠØ§ÙĦÙĨÙħØ³":4044,"ĠØ§ÙĦÙħØªÙĨ":4045,"ĠØªØ´ÙĬØ±":4046,"ĠØ¬ÙħØ§ÙĦ":4047,"ĠØ´Ùĥ":4048,"Ø¬ÙĦØ§Øª":4049,"ÙĪÙĨÙĩ":4050,"ĠØ§ÙĦØ±Ø¬Ø§ÙĦ":4051,"ÙĪØŃÙĬØ¯":4052,"ÙĥÙĬØ±":4053,"Ø¯ÙħÙĬØ±":4054,"ĠÙħØ¹ÙĦÙĪÙħØ§Øª":4055,"ĠÙģØ§Ø±":4056,"Ø´Ø±Øª":4057,"ĠØªØ¹ÙĬÙĬÙĨ":4058,"ĠØ§ÙĦØµØŃÙĬØ©":4059,"ot":4060,"ĠÙģÙħØ§":4061,"Ø²Ø§ÙĦØ©":4062,"ĠÙĬØªØŃ":4063,"Ø´ÙĬØ±":4064,"Ġ1967":4065,"ĠØ§ÙĦØ²Ø±Ø§Ø¹Ø©":4066,"ĠØ³ÙĬØ§Ø³ÙĬ":4067,"ĠØ§Ø³ÙħÙĩØ§":4068,"Ø·ÙģÙī":4069,"ĠØ§ÙĦØ´Ø±ÙĬ":4070,"ĠØ¬ÙħØ¹ÙĬØ©":4071,"ØºØ§ÙĨ":4072,"ØªØ±ÙĥØ©":4073,"ĠÙĪØµÙĪÙĦ":4074,"ĠÙĤØµÙĬØ±Ø©":4075,"ĠØ§ÙĦØ·Ø±Ùģ":4076,"ĠÙĤØ·Ø§Ø¹":4077,"Ø¯ÙĬÙĤØ©":4078,"ØªØ§Ø¨Ø©":4079,"ĠØ§ÙĦØ¶Ø±":4080,"ĠØºØ§ÙĦØ¨":4081,"ĠÙĪÙĩÙĨØ§Ùĥ":4082,"ÙĪØ²Ø¹":4083,"ĠÙħÙģØª":4084,"Ø§Ø¦ÙĨØ§Øª":4085,"ĠØ¶Ø±":4086,"ĠØ¯ÙĬØ±":4087,"ĠÙħÙĪØ¶ÙĪØ¹":4088,"ØºØ¨":4089,"ĠØ§ÙĦØ³Ø¨Ø¨":4090,"ÙĤØ±Ø±":4091,"ĠØ¨ÙĩÙħ":4092,"Ġ2017":4093,"Ø¯ÙĬÙĤ":4094,"ĠØ§ÙĦØ®Ø¯ÙħØ©":4095,"16":4096,"Ø´ÙĨ":4097,"ĠØŃØµ":4098,"ĠØ§ÙĦÙĦØ¹Ø¨":4099,"ĠØ§ÙĦÙħÙĨØª":4100,"Ġ1993":4101,"ĠÙĪØ³Ø¬ÙĦ":4102,"ĠÙħØ¬ÙħÙĪØ¹Ø§Øª":4103,"ĠÙĥÙħÙĬØ©":4104,"17":4105,"ĠØ§ÙĦØªØŃØ±ÙĬØ±":4106,"ĠÙĬØ¹ØªÙĤØ¯":4107,"ĠØ£ÙģÙĦØ§Ùħ":4108,"ĠØ§ÙĦÙĤØ³Ùħ":4109,"ĠØ³Ø±Ø¹Ø©":4110,"ĠØ§ÙĦÙĬØ³":4111,"ĠØªÙĪÙĤ":4112,"ÙĦØ§ÙĬÙĬÙĨ":4113,"ĠØ§ÙĦÙħÙĦÙĥÙĬ":4114,"Ø¦Ø§":4115,"Ø¨ÙĦÙĪÙħ":4116,"ÙĪÙĩÙĨØ§Ùĥ":4117,"ØªØ¨Ø§Ø·":4118,"ØªØ¹ØªØ¨Ø±":4119,"25":4120,"ĠØ§ÙĦØ³Ø¨Ø¹":4121,"ÙĨÙĬÙĬÙĨ":4122,"Ø§ØµØ±Ø©":4123,"Ø§ØªÙĦ":4124,"ĠØ·Ø±Ùģ":4125,"ĠØ§ÙĦØµÙĦÙĬ":4126,"Ø¶Ø§ÙĨ":4127,"ĠØ§ÙĦÙĪØ¸":4128,"ÙĦÙģØ§Ø¡":4129,"ĠØ§ÙĦØ£ÙħØ±Ø§Ø¶":4130,"ĠØ§ÙĦØ§ØŃØªÙĦØ§ÙĦ":4131,"ÙĪØ§ÙĬ":4132,"Ø§Ø±Ø¨Ø©":4133,"ÙĦÙħØ§Øª":4134,"ØªØ±Ø§Ùģ":4135,"ĠØ§ÙĦÙĨØ¨Ø§ØªØ§Øª":4136,"ÙĦÙħÙĬ":4137,"ĠØ¹ÙĦØ§Ø¬":4138,"Ø¶ØŃ":4139,"Ø±ÙĬØ¬":4140,"ØºÙĪ":4141,"ĠØ¨ÙĬÙĦ":4142,"ĠÙĪØ§Ø®":4143,"ÙĪÙĩØ°Ø§":4144,"ĠØ¥ÙħØ§":4145,"Ø£Ø«Ø±":4146,"ĠØŃØ§ÙĪÙĦ":4147,"ĠÙĪØ§ÙĦØ¢":4148,"ĠÙĤØ·Ø¹":4149,"99":4150,"ĠØ´ÙĩØ§Ø¯Ø©":4151,"ÙĪØŃØ¯Ø©":4152,"ĠØ§ÙĦØ³ÙĪØ¯Ø§ÙĨ":4153,"Ø¯ÙģØ¹":4154,"ÙĥØ§ÙĨÙĬØ©":4155,"Ø²ÙĬÙħ":4156,"Ø£ØµØ¨ØŃ":4157,"ĠÙĬØ³ØªØ·ÙĬØ¹":4158,"ĠÙħÙĨØ¹":4159,"ĠØ§ÙĦØªØ·Ø¨ÙĬ":4160,"Ø¨ÙĦØ¯ÙĬØ©":4161,"ĠØ¥Ø¬Ø±Ø§Ø¡":4162,"ĠØŃØ²":4163,"ĠÙģÙĦÙħ":4164,"Ø§Ø¨ÙĦØ³":4165,"Ø¸ÙħØ§Øª":4166,"ĠØ¥Ø³ÙħØ§Ø¹ÙĬÙĦ":4167,"ØŃØ³Ø¨":4168,"ĠØ§ÙĦØ¥Ø¹ÙĦØ§Ùħ":4169,"Ø´Ø±Ø§Øª":4170,"ĠØ§ÙĦÙĪØ³":4171,"Ø§Ø´ÙĬ":4172,"ĠØ§ÙĦØ£ÙĦØ¹Ø§Ø¨":4173,"ĠØ§ÙĦÙħØ³Ø±ØŃ":4174,"Ġinclude":4175,"ĠÙĥÙģ":4176,"ĠØ§ÙĦØ¯Ø¹":4177,"ĠÙĦÙĦÙħØ±":4178,"ĠØ§ÙĦÙĩØ¬ÙĪÙħ":4179,"ĠØ¨Ø§Ùĥ":4180,"ÙĬØ¯Ø§Øª":4181,"80":4182,"Ø®ÙħØ©":4183,"ĠÙħØ³Ø¬Ø¯":4184,"ĠØ®Ø±Ø¬":4185,"ĠÙĦÙĥÙĬ":4186,"ĠØ§ÙĦØ£ÙĨØ¯":4187,"Ø¹ÙĨ":4188,"Ø§ÙħØ±":4189,"ĠØ¹ÙĨÙĪØ§ÙĨ":4190,"ÙĪØ±ÙĨÙĬØ§":4191,"Ø±ÙĬØ´":4192,"ĠØ§ÙĦÙĪØ§ÙĤØ¹Ø©":4193,"ĠØ§ÙĦÙħÙĪØª":4194,"ĠØ§ÙĦÙħÙģØª":4195,"ĠØ§ÙĦÙħØŃÙĦÙĬ":4196,"Ø§ÙĬØ¯":4197,"ĠØ¯Ø±Ø¬Ø§Øª":4198,"Ġ1980":4199,"ĠØ§ÙĦÙħØ³ØªÙĤØ¨ÙĦ":4200,"ĠØ¨ÙħØ¯ÙĬÙĨØ©":4201,"ĠØ§ÙĦØ¥ÙĬØ·Ø§ÙĦÙĬØ©":4202,"ĠÙĤØ±Ø§Ø±":4203,"ÙĪÙĬÙħÙĥÙĨ":4204,"ĠÙĬØŃÙĬ":4205,"ĠØ³Ø¹Ø¯":4206,"ĠÙĪÙĦÙĩ":4207,"ĠÙħØ¹ÙĩØ¯":4208,"ĠÙĪØ£ÙĬØ¶Ø§":4209,"ĠØªØŃØ±ÙĬØ±":4210,"ĠØ§ÙĦÙĨÙĩØ±":4211,"ÙĤÙĬÙĬÙħ":4212,"ĠÙħÙĥØ©":4213,"ĠØªØ¨ÙĦØº":4214,"ĠØªØ¹ØªÙħØ¯":4215,"ÙĪØ§Ø¬Ùĩ":4216,"Ø¸Ø§ÙĩØ±":4217,"ĠØ§ÙĦØ£ÙħØ±ÙĬÙĥÙĬÙĬÙĨ":4218,"ĠØªØ·Ø¨ÙĬÙĤ":4219,"ĠØ¯ÙĪØ±Ø©":4220,"Ø£Ùħ":4221,"ut":4222,"ĠØ§ÙĦØ±Ø¬ÙĦ":4223,"Ø§ØªÙĬØ©":4224,"Ø®ÙģØ¶Ø©":4225,"ĠØ§ÙĦÙĩÙĬØ¯Ø±":4226,"ĠØ§ÙĦÙħØµØ§Ø¯Ø±":4227,"ĠØ¨ØŃØ«":4228,"ĠØ§ÙĦØ£Ø³Ø·":4229,"ĠÙĦÙĦØ¹ÙħÙĦ":4230,"Ø§ÙĦØ³ÙĥØ§ÙĨ":4231,"ÙĪØ¨Ø§":4232,"ÙĨØ³":4233,"Ø§ÙĦÙĬÙģÙĪØ±ÙĨÙĬØ§":4234,"Ø¯ÙĬØ±":4235,"ĠØ¨Ø¯Ø¡":4236,"ĠØ§ÙĦØ±ÙĪØ³ÙĬ":4237,"ØªÙĤØ§ÙĦ":4238,"ĠØµÙĦØ§ØŃ":4239,"Ġincludeonly":4240,"ĠÙĥÙĪØ±":4241,"ĠÙĪØ¹ÙħÙĦ":4242,"Ø°Ùģ":4243,"ĠØ·Ø§ÙĤØ©":4244,"ĠÙģÙĦØ§":4245,"ĠØ£Ø³ÙħØ§Ø¡":4246,"Ø§Ø·Ø¹Ø§Øª":4247,"ØŃÙĬØ¯Ø©":4248,"ĠØ§ÙĦØ¨ØŃØ±ÙĬÙĨ":4249,"ÙĪÙģÙĬØ©":4250,"ĠÙĩØ§Ø±":4251,"ĠØ®Ø¯ÙħØ©":4252,"ĠØ¯ÙĤÙĬÙĤØ©":4253,"ĠØ§Ø¹ØªØ¨Ø§Ø±":4254,"ĠØ§ÙĦØ¥ØµØ§Ø¨Ø©":4255,"ĠØ§ÙĦØ£Ø±Ø¬":4256,"ĠØ§ÙĦØ£ØµÙĦÙĬ":4257,"ÙħØ±Ø©":4258,"ĠØ§ÙĦÙħØ¬Ø§ÙĪØ±Ø©":4259,"Ø±ÙĬØ§Ø¶":4260,"ĠØ¹Øµ":4261,"ĠØ§ÙĦØ¹ÙĨØ§ØµØ±":4262,"ĠØ§ÙĨØ¶Ùħ":4263,"ĠÙĪÙĦØ¹Ø¨":4264,"ĠÙģØ±Ø§ÙĨ":4265,"ĠØ§ÙĦØŃØ¬":4266,"Ġ1989":4267,"Ø§ÙĨØ¹":4268,"ĠØ§ÙĦÙĨØµ":4269,"Ø¬ÙħØ§Øª":4270,"ĠÙħØŃÙĦ":4271,"im":4272,"Ø³ÙĬÙħØ§Øª":4273,"Ø²Ø±Ø§Ø¹Ø©":4274,"ĠØ£Ø³Ø·":4275,"ÙĤÙĪÙĤ":4276,"ĠØ§ÙĦÙĨØ²":4277,"ĠØªØ³ÙħÙĬØ©":4278,"ĠØ§ÙĦÙĤÙĪÙī":4279,"ĠÙĦØ¯ÙĬÙĩ":4280,"ĠØ§ÙĦØªØ®":4281,"ĠÙĪÙĬØªÙħ":4282,"ĠØ§ÙĦÙĤØ¯Ø±Ø©":4283,"Ġal":4284,"ĠØ§ÙħØ±":4285,"ĠØ§ÙĦØªÙĦ":4286,"ÙĥÙĦÙģØ©":4287,"ĠØ§ÙĦØ£Ø¬ÙĨ":4288,"ĠØ§ÙĦØ£ÙģÙĦØ§Ùħ":4289,"ĠØ±Ø³ÙĪÙĦ":4290,"ĠØ§ÙĦØŃÙĥÙĪÙħÙĬØ©":4291,"Ø§Ø¬ÙĩØ©":4292,"Ø§Ø°Ø§":4293,"ĠØ§ÙĦØ£Ø¹Ø¶Ø§Ø¡":4294,"ĠÙĪÙĬÙħ":4295,"ÙħÙĦÙĥØ©":4296,"ĠÙħØ¤ÙĦÙģ":4297,"Ø¹ÙħØ±":4298,"ĠØ§ÙĦØ¬ÙĪ":4299,"Ø§Ø´Ø©":4300,"ÙĪØŃØ§Øª":4301,"ĠØ§ÙĦÙģØ±ÙĤ":4302,"ÙĪÙĤØ§ÙĦ":4303,"ĠØ±ØŃ":4304,"ĠØ§ÙĦÙħØ³ÙĬØŃÙĬÙĬÙĨ":4305,"ÙĨÙĬØ§":4306,"ÙĬÙĪØ´":4307,"ĠØ¨ÙĩØ¯Ùģ":4308,"ĠØ§ÙĦÙģÙĥØ±":4309,"ĠØ§ÙĦØ±Ùħ":4310,"Ø«ÙĪØ±":4311,"Ø§ÙĥÙħØ©":4312,"ĠØ±Ø³Ø§ÙĦØ©":4313,"ĠÙģØ±Ø¶":4314,"ĠØ¹Ø³ÙĥØ±ÙĬØ©":4315,"ĠÙĦÙģØªØ±Ø©":4316,"ĠØ§ÙĦÙĤÙĨ":4317,"ÙĨÙħ":4318,"ĠØ§ÙĦÙĪÙĦØ§ÙĬØ©":4319,"ĠÙĪØ§ÙĦÙħØ³":4320,"ĠÙħØ¯Ø©":4321,"ĠØ§ÙĦÙħØ³ÙĦØŃØ©":4322,"ĠØ§ÙĦÙĪØŃØ¯Ø©":4323,"ĠÙĥØ§ÙģØ©":4324,"ĠÙĦÙĥÙĨÙĩØ§":4325,"ĠÙħØ§Ø±Ùĥ":4326,"ÙĦÙĬÙĪ":4327,"ĠØ§ÙĦØ®Ø¯ÙħØ§Øª":4328,"Ø®ØµÙĪØµ":4329,"ĠØ·ÙĪØ§ÙĦ":4330,"ÙģÙĤØ¯":4331,"Ġ70":4332,"Ø®Ø§ÙĦ":4333,"ĠØ§ÙĦÙĬØ¯":4334,"ĠØªØ³Ø¬ÙĬÙĦ":4335,"ÙĪØ·ÙĨ":4336,"Ġ185":4337,"ÙĭÙĳ":4338,"ĠÙħØŃØ·Ø©":4339,"ĠØ¨Ø·Ø±":4340,"ĠÙħØ«ÙĦØ§":4341,"ĠØªÙĪÙħ":4342,"ĠÙĩØ§Ùħ":4343,"ĠÙħØ§Ø±ÙĬ":4344,"Ø·Ø±Ø§Ùģ":4345,"Ø´ÙĬØ©":4346,"ĠØ§ÙĦÙĨÙĬ":4347,"Ø±ÙĤÙĬØ©":4348,"ĠÙĪÙĬÙĥÙĬØ¨ÙĬØ¯ÙĬØ§":4349,"ĠØ§ÙĦØ±ÙĪÙħØ§ÙĨ":4350,"ĠÙĪØ§Ø±":4351,"ĠØ§ÙĦÙĩØ¯Ùģ":4352,"ĠØ§ÙĦÙĥÙĩØ±Ø¨Ø§Ø¦ÙĬØ©":4353,"ĠØ§ÙĦÙĬÙĪÙĨØ§ÙĨ":4354,"ĠØ§ÙĦÙĨØ´Ø§Ø·":4355,"ĠØ§ÙĦÙħØ¬Ø±":4356,"ĠÙĪØ£Ø®":4357,"ĠØ§ÙĦÙĩØ±":4358,"ĠÙħÙĦØ¹Ø¨":4359,"ĠÙĤÙĨ":4360,"Ġ1982":4361,"ĠÙĪØ£Ùħ":4362,"ĠØ¨Ø´Ø±":4363,"ÙĬØ³ÙĬØ©":4364,"ĠÙĪÙĬØ¨ÙĦØº":4365,"ĠÙĪØ§ÙĦØ¥ÙĨ":4366,"ĠØ¹ÙħÙĦÙĩ":4367,"ØŃØªÙĪÙĬ":4368,"od":4369,"ÙĬÙĤØ©":4370,"ĠØ§ÙĦØ²Ø±Ø§Ø¹ÙĬØ©":4371,"ØŃÙĬÙĨ":4372,"ĠØ§ÙĦØµÙĬ":4373,"ĠØ§ÙĦØ³ÙĦØ·Ø§Øª":4374,"ĠØ§ÙĦÙĬÙĪÙĨØ§ÙĨÙĬØ©":4375,"Ø´Ø±Ø§Ùģ":4376,"ØµÙĨØ§Ø¹Ø©":4377,"ĠØ§ÙĦÙħØŃÙĥÙħØ©":4378,"ĠÙĦÙĦØ¥ÙĨ":4379,"ĠØ§ÙĦØ±Ùĥ":4380,"ation":4381,"ĠØ¥ÙĬØ¬":4382,"ĠØ§ÙĦÙĩÙĨØ¯Ø³Ø©":4383,"Ġ45":4384,"ÙĥÙĨÙĪÙĦÙĪØ¬ÙĬØ§":4385,"ĠÙģØ±ÙĤØ©":4386,"Ø§Ø±Ø³Ø©":4387,"ĠØ§ÙĦØ³ÙĬØ§Ø±Ø§Øª":4388,"ĠØ§ÙĦÙĤØ§Ø¯":4389,"ĠØ§ÙĦÙĦØ¹Ø¨Ø©":4390,"ĠÙħÙĪØª":4391,"ĠØ§ÙĦØ²ÙĬØª":4392,"ĠØ§ÙĦÙħÙĨØ¸ÙħØ©":4393,"ĠÙĦÙĪÙĬØ³":4394,"ĠÙħÙĤØ§Ø±ÙĨØ©":4395,"ĠØ§ÙĦØ¯ÙħØ§Øº":4396,"Ø¨ÙĤØ§Øª":4397,"ĠØ¨ÙĦØ¯":4398,"ĠÙĬØ³ÙħØŃ":4399,"ĠÙħÙĪØ¬ÙĪØ¯Ø©":4400,"ĠØ§ÙĦØ´Ø¨ÙĥØ©":4401,"ĠØ§ÙĦØ·Ø¨ÙĬØ¹Ø©":4402,"ĠÙĪØ§ÙĦØ²":4403,"ĠÙĪÙĩØ°Ùĩ":4404,"ĠØ§ÙĦØ¨ÙĬØ¦Ø©":4405,"ĠÙĩÙĨØ±ÙĬ":4406,"ÙĦÙĬØ¯":4407,"ĠØ±Ø¯":4408,"Ø£Ø®":4409,"ĠÙĪØŃØµÙĦ":4410,"ir":4411,"Ø§ÙĦÙĬØ¨":4412,"ĠØ§ÙĦØ§Øµ":4413,"ĠØ§ÙĦØ®ÙĦÙĬÙģØ©":4414,"ĠØ§ÙĦØ§ØªÙģØ§ÙĤ":4415,"Ø§ÙĥÙĬ":4416,"ĠØ§ØªØ¬Ø§Ùĩ":4417,"ĠØ§ÙĦØ±Ø¦":4418,"ĠØ§ÙĦØªØ§Ø¨Ø¹":4419,"ĠÙĥÙĬÙģ":4420,"Ġ1986":4421,"ØªØªØ§ØŃ":4422,"ĠØµØŃÙĬÙģØ©":4423,"ÙĪØªÙĨ":4424,"ĠØ¹ÙĨØ§ØµØ±":4425,"ĠÙĬØ´ÙĬØ±":4426,"ĠØ§ÙĦÙħØ±ÙĥØ²ÙĬØ©":4427,"ĠØ¥Ø·Ø§Ø±":4428,"ĠØ§ÙĦÙħØ³ØªØ®Ø¯ÙħØ©":4429,"ØŃÙĬØ§ØªÙĩ":4430,"Ø¹Ø¯Ø§Ùħ":4431,"ĠØ§ÙĦØµÙĪØ±Ø©":4432,"ĠØ¨ÙĦØ§":4433,"ĠØ®ÙĬ":4434,"ĠØ§ÙĦØ¹Ø§Ø¦ÙĦØ©":4435,"ĠØ§ÙĦÙħØµØ·ÙĦØŃ":4436,"ĠØ§Ø®ØªØ±":4437,"ĠØ§ÙĦØ¹ØµØ¨":4438,"ĠØ§ÙĦØ«ÙĤØ§ÙģÙĬØ©":4439,"ØªØ£Ø³":4440,"ĠÙħØ·Ø§Ø±":4441,"ĠØ§ÙĦØŃØ³ÙĬÙĨ":4442,"Ø³Ø±Ø§Ø¦ÙĬÙĦÙĬØ©":4443,"Ø¨ÙĬÙĩ":4444,"ÙĩÙĪØ±ÙĬ":4445,"ÙĨØ¯Ø³Ø©":4446,"ĠØ£ØŃÙĬØ§ÙĨØ§":4447,"ĠØ§ÙĦÙĨÙĪÙĪÙĬ":4448,"ĠØ¨ÙĬØ¹":4449,"Ø¨Ø·ÙĪÙĦØ©":4450,"ĠØ§ÙĦÙĨÙĤÙĦ":4451,"ĠÙħØ§ÙĦ":4452,"ĠØªÙĪÙĦ":4453,"ĠØªÙħØ±":4454,"Ġ65":4455,"Ø¬Ø§Ø¨Ø©":4456,"Ġ1988":4457,"ÙĥÙĬÙĨ":4458,"ĠÙĦØªÙĨ":4459,"Ø¨Ø¹Ø§Ø¯":4460,"ÙĩÙĬÙĦ":4461,"ĠÙĪØªØ³":4462,"ÙĪØ§ÙĬØ§Øª":4463,"ÙĦØ§Ùĩ":4464,"ĠØŃÙħÙĦØ©":4465,"ĠØªØ¹ÙĬØ´":4466,"ĠÙĥØ§ÙĦÙĬÙģÙĪØ±ÙĨÙĬØ§":4467,"ĠÙĦÙĦØºØ§ÙĬØ©":4468,"ĠÂ²":4469,"Ġ}":4470,"ĠØ§ÙĦØ¨Øµ":4471,"ĠÙĦØ£ÙĨÙĩØ§":4472,"Ġ184":4473,"Ø®Ø·ÙĪØ·":4474,"ØªÙħØ¹Ø§Øª":4475,"ĠØ§ÙĦÙħØŃØ§ÙģØ¸Ø©":4476,"Ġ1984":4477,"ĠØ§ÙĦÙģØª":4478,"ÙħÙĨØ°":4479,"ĠØ¯Ø§Ø¦ÙħØ§":4480,"ĠØªÙĤØ³ÙĬÙħ":4481,"ĠØ¥ÙĨÙĩ":4482,"ĠÙĥØ¨Ø§Ø±":4483,"ĠØ§ÙĦÙĨØ¬Ùħ":4484,"ĠÙĦÙĦØµ":4485,"ĠÙĥØ§Ø±ÙĦ":4486,"ĠØªØŃÙĪÙĬÙĦ":4487,"ĠÙħÙĪØ³Ùī":4488,"ĠØ§ÙĦØ¨Ø±Ø§ÙħØ¬":4489,"ÙģÙĪ":4490,"Ø³Ø§ÙĪÙĬ":4491,"ĠÙĦÙĬØª":4492,"ĠØ§ÙĦØŃÙĬÙĪÙĬØ©":4493,"Ø¨Ø±Øª":4494,"ĠÙĪÙħØ¤":4495,"ĠÙĨØªØ§Ø¦Ø¬":4496,"ĠØ¨Ø¹Ø¶ÙĩÙħ":4497,"ĠÙĪÙĪ":4498,"ĠÙĨØ¬Ùħ":4499,"ĠØ¨ÙĨØª":4500,"ĠÙĨØ¸Ø±Ø§":4501,"Ø³Ø§ÙĩÙħ":4502,"ĠØ§ÙĦØ§ÙĤ":4503,"ĠØ§ÙĦÙģÙĤÙĩ":4504,"ĠØ§ÙĦØµØŃØ©":4505,"ĠØ§ÙĦØ®ÙħØ³":4506,"ĠÙĬØµØ¨ØŃ":4507,"Ø§ÙĥØ±Ø©":4508,"Ø³Ø§Øª":4509,"ĠØ±ÙģØ¹":4510,"ÙĪÙĬØ¬":4511,"op":4512,"Ø´Ø§Ø±ÙĥØ©":4513,"ĠØ§ÙĦØ¨ÙĬØª":4514,"Ø¹ÙĦØ§Ùħ":4515,"Ø§Ø±ÙĤØ©":4516,"Ø¬Ø§ÙĪØ²":4517,"ĠÙģØ¦Ø©":4518,"ĠÙĤÙĦÙĬÙĦØ©":4519,"ĠØ§ÙĦØ¥Ø³Ø±Ø§Ø¦ÙĬÙĦÙĬØ©":4520,"Ġ33":4521,"ĠØ§ÙĦÙĤØ·Ø§Ø¹":4522,"Ø§Ø¦ÙĩÙħ":4523,"ĠØ£Ø¹Ø¯Ø§Ø¯":4524,"Ø§Ø«Ø©":4525,"ĠØ§ÙĦØ¨Ø¹":4526,"ĠØ§ÙĦØ¨Ø±Ø§Ø²":4527,"ĠØ§ÙĦÙĤØµØ±":4528,"Ø§ÙĬÙħ":4529,"ĠÙħØ±ÙĪØ±":4530,"ul":4531,"ĠØ´Ø¨":4532,"ĠØ³ÙĪÙĬ":4533,"Ø³ØªÙĬØ±":4534,"ÙĤÙĬÙĤÙĬØ©":4535,"ĠØ§ÙĦØ²ÙĬ":4536,"Ø®ØªØ§Ø±":4537,"ĠØªÙĪØ±":4538,"ĠØ£Ùĩ":4539,"ĠØ§ÙĦÙĤÙĨØ§Ø©":4540,"ĠØ§ÙĦØ³Ø§ØŃÙĦ":4541,"ÙĬØ²Ø§Øª":4542,"ĠØ¹ÙħØ±Ùĩ":4543,"ĠØµØ§Ø±":4544,"ĠØªØªØŃ":4545,"ĠÙħØµØ§Ø¯Ø±":4546,"Ġ90":4547,"ĠØ¬ÙĪ":4548,"ÙħØ§ÙĥÙĨ":4549,"ĠÙĦÙĦØ³ÙĬ":4550,"Ø¬ÙħÙĩÙĪØ±ÙĬØ©":4551,"ĠÙħØµØ±ÙĬ":4552,"ĠØ£Ø¹ÙĦÙĨØª":4553,"ĠØªÙĬÙħ":4554,"ĠØ§ÙĦØ±ÙĪÙħØ§ÙĨÙĬ":4555,"ÙĤØ§Ø·Ø¹Ø©":4556,"ĠØ®Ø§ÙĨ":4557,"ĠØ¨Ø«":4558,"ĠØ§ÙĦØ¨Ø§Ø¨Ø§":4559,"ĠØ§ÙĦØ¬ÙĨØ³ÙĬØ©":4560,"ĠâĢľ":4561,"Ġ2018":4562,"ĠÙĦÙĦØ®":4563,"ĠØ§ÙĦÙĪØ¶Ø¹":4564,"ĠÙĪØ§ÙĦØ°":4565,"ĠØ§ÙĦØµÙĪØ±":4566,"Ġ180":4567,"ĠØ´Ø¯ÙĬØ¯":4568,"ĠØ¹Ø±Ø¨ÙĬØ©":4569,"ĠØªØ¶":4570,"ØºØ±Ø§ÙģÙĬØ§":4571,"ĠØªØ¹Ø±ÙĬÙģ":4572,"ĠÙħØ¤ØªÙħØ±":4573,"ĠÙĤÙĬØ§Ø³":4574,"ĠØ§Ø³ØªØ¹ÙħØ§ÙĦ":4575,"Ġre":4576,"ĠØ§ÙĦØ¥Ø³Ø¨Ø§ÙĨÙĬ":4577,"ĠØ¨ÙĬØ§ÙĨØ§Øª":4578,"ØŃÙģ":4579,"Ø¹ÙħÙĦÙĬØ©":4580,"Ø¨ÙĬÙĨÙħØ§":4581,"ĠØ¬Ø§Ùĥ":4582,"Ø«ÙĪØ°":4583,"ĠØ§ÙĦØ¨ÙĬØ¶Ø§Ø¡":4584,"ĠØµÙģØŃØ©":4585,"ĠÙĪØ¥ÙĦÙī":4586,"Ġ1970":4587,"ĠØ¹ÙĥØ³":4588,"ĠØ§ÙĦØ³Ø§ØŃ":4589,"Ø¨ÙĦØ§Ø¯":4590,"200":4591,"ĠÙħØ¹Ø±ÙģØ©":4592,"ØºØ·ÙĬ":4593,"ØºÙĬÙĬØ±Ø§Øª":4594,"ĠØ¨Ø¶":4595,"ĠØ¬Ø³Ùħ":4596,"ĠØ¹ÙħØ§ÙĨ":4597,"ĠØ§ÙĦØ·ÙĬØ±Ø§ÙĨ":4598,"ĠØ§ÙĦØŃÙħÙĦ":4599,"ĠØ§ÙĦØ³ÙĪÙģÙĬØªÙĬ":4600,"ĠØ§ÙĦØ£Ø±Ø¨Ø¹":4601,"ĠÙĦÙĦØªØ¹":4602,"ĠÙģØ§Ø±Ø³":4603,"ĠØŃÙħØ§ÙĬØ©":4604,"Ø¯Ø¨":4605,"ĠÙĦÙĪÙĨ":4606,"ĠØ§ÙĦÙĨØ¬ÙĪÙħ":4607,"ĠØ¹Ø¶ÙĪØ§":4608,"ĠØ§ÙĦÙĦØ¨ÙĨØ§ÙĨÙĬØ©":4609,"ĠØ£Ø³Ø§Ø³ÙĬ":4610,"Ġ1979":4611,"ĠØ§ÙĦØ¥Ø°":4612,"ĠØ§ÙĦÙĥÙĦÙħØ©":4613,"ĠØ£ÙħØ±ÙĬÙĥÙĬØ©":4614,"ĠØ§ÙĦØ¯Ø§Ø®ÙĦÙĬ":4615,"Ø§ÙģØ§":4616,"ĠØ§ÙĦÙĩÙĪÙĦ":4617,"ĠØ¥Ø³ÙĦØ§Ùħ":4618,"Ø§Ø²Ø§Øª":4619,"Ø§Ø¨ÙĬÙĨ":4620,"ĠÙĩÙĬØ±":4621,"Ø§Ø¦ØŃ":4622,"ĠØ´Ø§Ø±":4623,"ÙĦÙĬÙĩ":4624,"ĠÙĬØ¹ØªÙħØ¯":4625,"ab":4626,"ĠÙĪÙĬØ³Øª":4627,"ĠÙħÙĪØ±":4628,"Ø¨Ø±ÙĬØ©":4629,"ĠÙĤØ±Ø±":4630,"ĠØ³ÙĤÙĪØ·":4631,"Ø£ÙĦØ©":4632,"ĠØ§ÙĦØ·ÙĦØ§Ø¨":4633,"ĠØ§ÙĦÙħÙĪØ§ÙĤØ¹":4634,"ĠØ§ÙĦÙĥØ«Ø§ÙģØ©":4635,"Ø°Ø§Ø±":4636,"ec":4637,"Ø£Ùĥ":4638,"ĠØ§ÙĦØ°ÙĥÙĪØ±":4639,"Ø¬Ø§Ø¡":4640,"ĠÙĪØ¹ÙĦÙħ":4641,"Ø§Ø¯ÙĨ":4642,"ÙĩÙĪÙĦ":4643,"ĠØŃÙĦØ¨":4644,"ĠØ§ÙĦØ¹Ø§ÙĦÙĬØ©":4645,"ĠÙĪØµÙĦØª":4646,"ĠØ§ÙĦØ¬ÙĦ":4647,"ÙĪØ¨ÙĬØ©":4648,"ĠØ§ÙĦØªØ±ÙĥÙĬØ©":4649,"ĠØ´Ø§Ø±Ø¹":4650,"Ø§Ø²Ùħ":4651,"Ø§Ø¯Ø«":4652,"ĠØ§ÙĦÙģÙĨÙĬ":4653,"ĠÙĪØ§ÙĦØªÙĨ":4654,"ÙĬØ¯Ø©":4655,"ĠØ§ÙĦÙħØ³Ø¤ÙĪÙĦ":4656,"ÙĥØ´":4657,"ĠØ´Ø±ÙĥØ§Øª":4658,"Ø¦ÙĬÙĨ":4659,"ĠÙĦØªÙĤ":4660,"ÙĬÙĨØª":4661,"ÙĪØ§Ø¦ÙĬ":4662,"ĠÙģØ³":4663,"ĠØªØ´Ø±ÙĬÙĨ":4664,"ĠÙĤØ¨Ø§Ø¦ÙĦ":4665,"ĠØ°ÙĬ":4666,"ĠØ°Ø§":4667,"ĠØ§ÙĦØ·Ø±":4668,"ĠØ§ÙĦÙĥØªØ§Ø¨Ø©":4669,"Ø§Ø¨Ø¯":4670,"ĠØ§ÙĦÙĨØ§ØŃÙĬØ©":4671,"ĠØ§ÙĦØªØŃÙĥÙħ":4672,"ÙĪØ³Ø·Ø©":4673,"ĠØªÙĤÙĦ":4674,"Ø§Ø¬ÙĬ":4675,"ÙĨÙĬÙĩ":4676,"ĠÙĨØ§Ø¨":4677,"Ø§ÙĥØª":4678,"ØªØ¨Ø§Ø¹":4679,"ĠÙĤÙĬØ§Ùħ":4680,"ĠØ±Ø³ÙħÙĬ":4681,"ĠØ§ÙĦØ§Ø³ØªØ®Ø¯Ø§Ùħ":4682,"Ø¨Ø¯Ø§":4683,"Ø³ÙĥÙĬ":4684,"Ġ1987":4685,"ĠØ§ÙĦÙĥØ±Ø¨ÙĪÙĨ":4686,"ĠÙħØ¹Ø§":4687,"ĠÙħÙĤØ§":4688,"ĠÙĪÙĤØ¹":4689,"ĠØ¨Ø§ÙĦØ´":4690,"ĠØ§ÙĦÙģØ¹ÙĦ":4691,"ĠØ§ÙĦØ¥ÙĦÙĩ":4692,"ØºÙĦØ¨":4693,"ĠØ§ÙĦØ¹ÙĦØ§ÙĤØ©":4694,"ĠØ§ÙĨÙģ":4695,"ĠØ§ÙĦÙĤØªØ§ÙĦ":4696,"ĠÙĪØ³Øª":4697,"ĠÙħÙĪÙĦ":4698,"Ø®Ø¯ÙħØ§Øª":4699,"ĠØªØ¨Ø¯Ø£":4700,"ĠØ§ÙĦØ´Ø§Ø¹Ø±":4701,"ĠØ§ÙĦÙĪÙģ":4702,"ÙĤÙĪÙĦ":4703,"ĠØªØ¬Ø§Ùĩ":4704,"ĠØ§ÙĦÙģÙĤ":4705,"ĠØ£Ø¹ÙħØ§ÙĦÙĩ":4706,"ĠØ²ÙĪØ¬ØªÙĩ":4707,"ĠÙħØ¨Ø§Ø±ÙĬØ§Øª":4708,"Ø®ÙĪØ±":4709,"ĠØ¬Ø²Ø¡Ø§":4710,"Ø¨Ø¹Ø¶":4711,"ĠØµØ±":4712,"Ø§Ø·ÙĬ":4713,"ĠØ§ÙĦÙĥØ§ÙħÙĦ":4714,"ĠÙĨÙĤØµ":4715,"ĠØ§ÙĦØŃØ¬Ùħ":4716,"ĠÙĥØ§ÙĨÙĪÙĨ":4717,"ÙģÙĬÙĩ":4718,"ĠØ§ÙĦØ¯ÙĤÙĬÙĤØ©":4719,"ÙĢÙĢÙĢÙĢ":4720,"ĠÙħÙĪØ§Ø¯":4721,"ĠÙĦÙĬØ¨ÙĬØ§":4722,"ÙĦÙĤØ§Øª":4723,"ØµÙĨØ¹":4724,"ĠÙħÙĦØ§ÙĬÙĬÙĨ":4725,"ĠØ¹Ø³ÙĥØ±ÙĬ":4726,"Ġ1945":4727,"ĠØ§ÙĦØªØ·ÙĪØ±":4728,"ĠØ§ÙĦØ¯Ø³ØªÙĪØ±":4729,"ÙĬØªÙĬÙĨ":4730,"ĠØ§ÙĦÙĥØ±Ø©":4731,"Ø§ÙĦÙĦ":4732,"Ø¨ÙĬØ¨":4733,"ĠØ§ÙĦØ·Ø§Ø¦Ø±Ø§Øª":4734,"Ġ300":4735,"ĠØ§ÙĦØ±ÙĬØ§Ø¶ÙĬ":4736,"iki":4737,"ĠØ·Ø§Ø¦Ø±Ø©":4738,"ĠØ®Ø·Ø±":4739,"Ġ1975":4740,"ĠØ£Ø¬Ø±":4741,"ĠØ£Ø³ÙĦÙĪØ¨":4742,"Ø§Ø±ÙĤ":4743,"ĠÙĥÙĬÙĦÙĪ":4744,"ĠØ¹Ø«ÙħØ§ÙĨ":4745,"ĠÙĨØ§Ø¦Ø¨":4746,"ĠÙĦØªØ´":4747,"ĠØ§ÙĦÙħØ¤ØªÙħØ±":4748,"Ø²ÙĬØ¦Ø§Øª":4749,"ĠÙģÙĪØ±":4750,"ĠÙĪØºÙĬØ±ÙĩÙħ":4751,"22":4752,"ÙĪØ¬Ø©":4753,"Ø±ÙĤØ§Ùħ":4754,"ĠØ£ÙĨØ¸ÙħØ©":4755,"ØºØ±Ø§ÙģÙĬØ©":4756,"ÙģØ§ÙĪØ¶":4757,"ĠØ§ÙĨØªØ®Ø§Ø¨Ø§Øª":4758,"ĠØ§ÙĦØ£ØµÙĦÙĬØ©":4759,"ĠØ§ÙĦÙĥÙĦØ§Ø³":4760,"ĠØ¯Ø§Ø®":4761,"ĠØ§ÙĦØªØµÙĪÙĬØ±":4762,"ĠØªÙĪØ³":4763,"ÙĨØ¯ÙĪÙĤ":4764,"ĠØ§ÙĦÙħØ±ØªØ¨Ø©":4765,"ĠØ§ÙĦØ¥Ø±":4766,"ĠØ§ÙĦÙĤÙĬØ§Ø¯Ø©":4767,"ĠØªØªÙĥÙĪÙĨ":4768,"ĠØ¨ÙħØŃ":4769,"Ġ1985":4770,"Ø¹ØªÙĩØ§":4771,"ĠÙĪØ§ÙĦÙħØŃ":4772,"ĠØ¥Ø±":4773,"ĠÙĤÙĦØ¹Ø©":4774,"ĠÙĪØ§ÙĤ":4775,"Ġ500":4776,"Ø§Ø±ØªÙĩ":4777,"Ø§Ø±ÙĩØ§":4778,"ĠØ§ÙĦØ¢Ø®Ø±ÙĬÙĨ":4779,"ĠØ£ÙħÙĨ":4780,"ĠØ§ÙĦØ§Ùģ":4781,"ĠØ´Ø¹Ø¨ÙĬØ©":4782,"ĠÙĪØ§ÙĦØªØ±":4783,"Ø¯ÙĬØ§ÙĨ":4784,"Ġ36":4785,"ri":4786,"ØµØ§Øµ":4787,"ĠØ®Ø·ÙĪØ·":4788,"ĠØ§ÙĦØ³ÙģÙĨ":4789,"Ø§ÙģÙĤØ©":4790,"ĠÙĪÙģØ±":4791,"Ø¨Ø±Ùĩ":4792,"ĠÙĬØªØ¹ÙĦÙĤ":4793,"ĠØ§ÙĦØ·Ø¨ÙĤØ©":4794,"ĠØ§ÙĦØªØ´Ø±ÙĬ":4795,"ÙĬÙĤÙĬ":4796,"ĠØ§Ø¹ØªÙħØ§Ø¯":4797,"ĠÙħØ¯Ø±":4798,"70":4799,"ĠÙħØ§ÙĦÙĥ":4800,"ĠØ§ÙĦØŃÙĤÙĪÙĤ":4801,"ĠØ§ÙĦÙĤØ¶Ø§Ø¡":4802,"Ø¥ÙĦØ§":4803,"ĠÙĦÙħØ¹":4804,"ĠØªØŃÙĪÙĦ":4805,"Ġ183":4806,"ÙĪÙģØ§":4807,"ĠÙħØµØ·ÙģÙī":4808,"ĠØ§ÙĦÙĨØ¸Ø±ÙĬØ©":4809,"ĠØ§ÙĦØªØµÙħÙĬÙħ":4810,"Ø¹Ø±Ø§ÙĤ":4811,"ĠØ¬ÙħØ§Ø¹Ø©":4812,"ĠØ±Ø¨ÙħØ§":4813,"ÙĦÙĬÙĤ":4814,"Ġ1973":4815,"Ø·Ø¨Ø§Ø¡":4816,"ĠÙħØ¹Ø§ÙĩØ¯Ø©":4817,"ÙĨØ¯Ø³":4818,"Ø¬Ø±Ø§Ø¡Ø§Øª":4819,"ĠØ¨ÙĬÙĨÙĩÙħØ§":4820,"Ø±Ø¬Ø¹":4821,"Ġla":4822,"ØªÙĪÙī":4823,"ĠØªÙĥÙĪÙĬÙĨ":4824,"ÙĪØ§Ø±ÙĬØ®":4825,"ĠÙĥØ§ÙħÙĦØ©":4826,"ĠØ§ÙĦØ·Ø¹Ø§Ùħ":4827,"ĠØ§ÙĦØ·ÙĬÙĪØ±":4828,"ĠØŃØ§ÙĥÙħ":4829,"ĠØ´Ø£ÙĨ":4830,"ĠØ£Ø¯Ø§Ø¡":4831,"ĠØ§ÙĦØ´Ø®ØµÙĬØ§Øª":4832,"ĠØªÙĪØ²ÙĬØ¹":4833,"ĠØ§ÙĦÙħØ´Ø§Ø±ÙĥØ©":4834,"Ø§Ø¦Ø²":4835,"ĠØ®Ø§Ø±Ø¬ÙĬØ©":4836,"ĠÙħÙĬØ±":4837,"ĠØ±ÙĤ":4838,"Ø±Ø§ØªÙĬØ¬ÙĬØ©":4839,"ĠÙħØ³Ø±ØŃ":4840,"Ø§ØªÙĩÙħ":4841,"Ø¸ÙĦ":4842,"ĠÙĬÙħÙĨ":4843,"ĠØ§ÙĦØ²ÙĪØ§Ø¬":4844,"ÙĨØ²":4845,"ĠØ±Ø³ÙħÙĬØ§":4846,"ÙĥÙĥ":4847,"ĠØ¨Ø§ÙĦØªØ¹":4848,"Ø§Ø¨ÙĬØ¹":4849,"ĠÙĪØ¹ÙĨØ¯ÙħØ§":4850,"ĠØ§ÙĦÙĨÙħÙĪ":4851,"ĠØ§Ø¹ØªØ¨Ø±":4852,"ĠØ£ØµØºØ±":4853,"Ø§Ø«Ø±":4854,"ÙħÙĥØ§ÙĨ":4855,"ĠÙĪÙĬØŃ":4856,"ÙģØ³ÙĩÙħ":4857,"ĠØ§ÙĦÙħÙĪØ¶ÙĪØ¹":4858,"ĠØ§ÙĦØ®Ø§Ø±Ø¬ÙĬ":4859,"ĠÚ":4860,"ĠØ§ÙĦÙĦØ§ØªÙĬÙĨÙĬØ©":4861,"ĠØ¨Ø§ÙĦØ·":4862,"Ø§Ø°Ø¬":4863,"ĠØ§ÙĦÙĥÙĬÙħÙĬØ§Ø¦ÙĬØ©":4864,"Ġ1981":4865,"ĠØ§ÙĦØ£ÙĩÙĦÙĬØ©":4866,"ØŃÙĪØ«":4867,"ĠØ¨Ø´Ø£ÙĨ":4868,"ÙĪØ²ÙĬ":4869,"ĠÙĦØ¨Ø¹Ø¶":4870,"ĠÙħØ¦":4871,"Ø£Ø«ÙĬØ±":4872,"ĠØ´ÙĬØ®":4873,"ĠØ£Ø·ÙģØ§ÙĦ":4874,"ĠÙħØ³Ø¤ÙĪÙĦ":4875,"ĠØ§ÙĦÙħÙĦØ¹Ø¨":4876,"Ø¶Ø¨":4877,"Ø«Ùī":4878,"ĠØ¥Ø«Ø±":4879,"Ġl":4880,"ĠØ§ÙĦÙħÙĤØ¯Ø³":4881,"ĠØ§ÙĦÙħÙĥÙĪÙĨ":4882,"ĠØ§ÙĦÙħØªØ¹ÙĦÙĤØ©":4883,"ÙĪÙĬØ¶":4884,"Ġh":4885,"ĠØ¯ÙĪØ±Ø§":4886,"ĠØ£Ø³ØªØ§Ø°":4887,"ĠØ§ÙĦÙĨÙĬÙĦ":4888,"ĠÙĨØ¨":4889,"ĠØ³ÙĬØ§Ø³ÙĬØ©":4890,"th":4891,"ĠÙĦØ¹Ø¨Ø©":4892,"Ø¨Ø³":4893,"ĠÙĪØ§ÙĦÙħØ¯":4894,"ÙĪÙģÙĤØ§":4895,"ĠÙĤÙĪÙĬØ©":4896,"Ø§Ø¤Ùĩ":4897,"ĠØ´Ø§Ùĩ":4898,"Ø¹ÙĨØ¯":4899,"ĠØ¥Ø®Ø±Ø§Ø¬":4900,"ĠØ§ÙĦØ¨ÙĬØ¶":4901,"ÙĩÙħÙĬØ©":4902,"Ø§Ø·ÙĨ":4903,"ĠØ§ÙĦØ´Ø±ÙĬÙģ":4904,"Ø¯ÙģÙĤ":4905,"ÙĪØªØ§":4906,"ĠÙħÙģÙĩÙĪÙħ":4907,"ĠØ§ÙĦÙĨØµÙģ":4908,"ÙĬØªÙĬ":4909,"ĠØ«ÙĤ":4910,"ĠØ±Ø¦ÙĬØ³Ø§":4911,"ĠØ§ÙĦØªØ£Ø«ÙĬØ±":4912,"ÙģØ§Ø¡":4913,"Ġ1974":4914,"ĠÙĪØªØ±Ùĥ":4915,"ĠØ³Ø¨Ø¹Ø©":4916,"ĠØ§ÙĦÙĬÙĩÙĪØ¯ÙĬØ©":4917,"tp":4918,"ÙĪÙĬÙĬÙĨ":4919,"ĠÙĩÙĦ":4920,"ĠØ³ÙĬØ¯ÙĬ":4921,"ĠØ¹Ø¯Ø¯Ø§":4922,"ÙħÙĨØ©":4923,"ĠØ¶Ø±Ø¨":4924,"Ø±ÙĬÙħØ©":4925,"ĠØ¬ÙĬÙĨ":4926,"ĠØ§ÙĦÙĪØ§ØŃØ¯":4927,"Ø³Ø¨ÙĤ":4928,"Ø§Ø¦ÙģØ©":4929,"ĠØªØµÙĪÙĬØ±":4930,"ĠØ§ÙĦÙĨØ§ØªØ¬":4931,"ĠÙĪØ§ÙĦÙħØ¹":4932,"ĠØ£ÙĨØ´Ø£":4933,"ĠÙħØ¹ÙĩØ§":4934,"ĠÙĪØ§ÙĦØ¹Ø´Ø±ÙĬÙĨ":4935,"ĠØ³Ø§Ùħ":4936,"ĠÙĬØ´ÙĥÙĦ":4937,"ĠØ³ÙĬØ§Ø³Ø©":4938,"ĠØ³ÙĬÙģ":4939,"ĠØªØ¯Ø®ÙĦ":4940,"ĠØ§ÙĦÙģØ±ÙĤØ©":4941,"ĠØ³ÙĦØ·Ø§ÙĨ":4942,"Ġ1960":4943,"ĠØ¹ÙħØ±ÙĪ":4944,"ÙĪØ§ØŃÙĬ":4945,"ĠØ§ÙĦÙħÙĥØ³ÙĬ":4946,"ĠØ§ÙĩØªÙħØ§Ùħ":4947,"ĠÙĦÙĦÙħØ±Ø©":4948,"ÙĬØ§Ø¡":4949,"Ø§ÙĤØªØµØ§Ø¯ÙĬØ©":4950,"ĠØ§ÙĦØ¨ÙĦØ¯":4951,"ĠØ§Ø®Øª":4952,"ĠØ§ÙĦÙħØ±ÙĥØ²ÙĬ":4953,"ĠØ³ÙĥÙĨ":4954,"ĠÙħØ³ØªÙĤÙĦØ©":4955,"ĠØ§ÙĦØ£ÙģØ±Ø§Ø¯":4956,"ĠØ§ÙĦÙħØ¨ÙĥØ±Ø©":4957,"Ġ150":4958,"Ø§Ø·Ø¹":4959,"Ø´Ø§Ø¨":4960,"ĠÙĬØ¨Ø¯ÙĪ":4961,"ĠØ§ÙĦØ¹ÙĤØ¯":4962,"Ġg":4963,"28":4964,"ĠØ³Ø§ÙĩÙħ":4965,"ÙĨØªØ¬":4966,"Ø§ÙĦÙĬÙĨ":4967,"Ø§ÙĥØ±":4968,"ĠØ§ÙĦÙħØªØ¨":4969,"ĠØªÙĪÙĦÙī":4970,"ĠØ§ÙĦØŃÙĤÙĬÙĤÙĬ":4971,"Ø¦Ø±":4972,"ĠØ§ÙĦÙĤØµØ©":4973,"ĠØ§ÙĦÙħÙĪØ§ÙģÙĤ":4974,"ĠØ§ÙĦØ¬Ø¨Ø§ÙĦ":4975,"Ø¹Ø¯ÙĦ":4976,"Ø§Ø³Ø¹Ø©":4977,"ĠØ§ÙĦÙĨØ®":4978,"ĠÙĦØ¯ÙĬÙĩÙħ":4979,"ĠØ§ÙĦÙĨØ³Ø®Ø©":4980,"ĠØ®ÙĦØ§ÙĬØ§":4981,"ÙĨÙĤ":4982,"21":4983,"ÙĨØ¯ÙĤ":4984,"ĠØ¬ÙħØ§":4985,"ÙĤÙĦØ§Ø¨":4986,"ÙģÙĬÙĦÙħ":4987,"ĠØ§ÙĦÙħØ¬ÙħÙĪØ¹Ø§Øª":4988,"ĠØ¨Ø¹Ø¯Ùĩ":4989,"ĠÙĪÙĤØ¹Øª":4990,"Ġ1983":4991,"ĠÙħÙĪØ§Ø³Ùħ":4992,"Ø§ÙģØ³Ø©":4993,"ĠØ§ÙĦØ£ÙĪÙĦÙĬØ©":4994,"ĠÙħØŃØ¯Ø¯Ø©":4995,"ĠØ§ÙĦØ¨Ø±ÙĬØ©":4996,"ÙĪØ¯Ø§":4997,"ĠØŃÙĤÙĤ":4998,"ĠØ§ÙĦÙĥØ§Ø«ÙĪÙĦÙĬÙĥÙĬØ©":4999,"Ø°ÙĨ":5000,"ĠØ§ÙĦÙħØ¤Ø³Ø³Ø§Øª":5001,"ÙĪØ¨Ø±Øª":5002,"Ø·ÙĨ":5003,"ĠØªØ´ØºÙĬÙĦ":5004,"ĠØ±Ùĥ":5005,"ÙĪØ³ÙĪÙģ":5006,"ĠØ§ÙĦÙĤÙĬØ§Ùħ":5007,"Ø§ÙĦØ³ÙĬ":5008,"ĠØ¢ÙĬ":5009,"ĠÙģÙĪÙĦ":5010,"ĠØ±Ø¦ÙĬØ³ÙĬ":5011,"ĠØ§ÙĦØ§ØªØµØ§ÙĦ":5012,"ĠØ§ÙĦØ¬ÙĨÙĪØ¯":5013,"Ø±Ø¨ÙħØ§":5014,"ĠØ§ÙĦØ´Ø¹Ø¨ÙĬ":5015,"ĠÙĨØ¸Ùħ":5016,"ÙĬÙĪØ§ÙĨØ§Øª":5017,"ĠØ·ÙĨ":5018,"ĠØ§ÙĦÙħÙĩÙħØ©":5019,"ÙĨØ§Ø·ÙĬØ³ÙĬ":5020,"ØºÙĬØ±Ø§Øª":5021,"ĠØ§ÙĦØ£Ø«Ø±ÙĬØ©":5022,"ØºØ§Ø±":5023,"ĠÙĪØ£ÙĥØ«Ø±":5024,"ĠØ£Ø³ØªØ±Ø§ÙĦÙĬØ§":5025,"ÙĪØ¹Ø§":5026,"ĠØ§ÙĦÙģÙĦØ³Ø·ÙĬÙĨÙĬ":5027,"http":5028,"ĠØ®ØµÙĪØµØ§":5029,"ĠØ§ÙĦØ¥Ø³ÙĥÙĨØ¯Ø±ÙĬØ©":5030,"Ø¨ØºÙĬ":5031,"ers":5032,"Ø£ÙĪÙĦ":5033,"ÙĬØ³Ø§ÙĨ":5034,"ĠØ®ÙĦÙĤ":5035,"ĠØªØ§Ø±ÙĬØ®ÙĬØ©":5036,"ØºØ§ÙĦ":5037,"ÙĨØ´Ø£":5038,"ĠÙĬÙĤØ¯Ùħ":5039,"ĠØ§ÙĦØŃØ±Ø©":5040,"ĠØ§ÙĦÙħØ±ÙĬØ¶":5041,"ĠØ¬ÙĬØ¯":5042,"Ø§ÙĤØ¨":5043,"ĠØ±ÙĬØ§Ø¶":5044,"ote":5045,"ĠØ§ÙĦØŃØ§Ø³ÙĪØ¨":5046,"Ġand":5047,"ĠØ§ÙĦÙħÙĤØ§ÙĪÙħØ©":5048,"ÙĥÙħÙĦ":5049,"ØªÙĬØ§ÙĦ":5050,"ĠÙģØ±ÙĬØ¯":5051,"ĠØ§ÙĦØ¬ÙĩØ©":5052,"ĠØ§ÙĦØºØ°Ø§Ø¦ÙĬØ©":5053,"ĠØ§ÙĦÙħÙĤØ§ÙĦØ§Øª":5054,"ĠØ§ÙĦØµÙĬÙĨÙĬØ©":5055,"ÙħØ«":5056,"ĠØ§ÙĦÙĪØ·ÙĨ":5057,"ĠÙĬÙĤÙĦ":5058,"ĠÙĥÙĦÙĩØ§":5059,"ĠØ§ÙĦØŃØ§ÙĥÙħ":5060,"ĠØ§ÙĦØªØ±ÙĥÙĬØ¨":5061,"ØºØ§Ø¡":5062,"ØªÙħØ§ÙĦ":5063,"ĠØ§ÙĦÙģÙĤØ±":5064,"ĠØ§ÙĦØ®Ø¶Ø±":5065,"ĠØ§ÙĦÙģÙĨÙĪÙĨ":5066,"ØºØ±Ø¨":5067,"Ġ1978":5068,"ĠØ§ÙĦØ¬Ø§ÙħØ¹Ø§Øª":5069,"Ġ1976":5070,"ĠØ§ÙĦÙģØ¹":5071,"ĠØ¯Ø±Ø§Ø³ØªÙĩ":5072,"ĠØ§ÙĦÙĤØ§Ø¦ÙħØ©":5073,"Ø§Ø±ÙĬÙĪ":5074,"ĠØ§ÙĦÙĪØ«":5075,"ĠØ¨Ø§ÙĦÙħÙĨ":5076,"ĠÙĬØ¯Ø¹Ùī":5077,"ĠØ§ÙĦØ§Ø¨ØªØ¯":5078,"Ø§Ø±ÙĬØ±":5079,"ÙħÙĥÙĨ":5080,"Ø«ÙĪØ°ÙĥØ³":5081,"ĠÙĦØ®":5082,"ÙĪÙĬÙĩ":5083,"Ø§ÙħÙĨ":5084,"ĠÙĥÙĩØ±Ø¨":5085,"ĠØ§ÙĦÙĥÙĪÙĬØªÙĬ":5086,"ĠØ§ÙĦØµØŃØ±Ø§Ø¡":5087,"ĠØ§ÙĦØ¥Øº":5088,"ĠÙģØ¶ÙĦØ§":5089,"ĠØ§ÙĦØ£Ø±Ø¨Ø¹Ø©":5090,"ĠØ§ÙĦØ£ÙĪÙĦÙħ":5091,"ĠØ§ÙĦÙĤÙĦØ¹Ø©":5092,"ĠÙħÙĨØ²ÙĦ":5093,"ĠÙĪØ£Ø³":5094,"Ø®Ø§Ø°":5095,"ØªØ±Ø§Ø¶":5096,"ĠØªÙĨØ§ÙĪÙĦ":5097,"ÙĪÙĨÙĩØ§":5098,"Ø§ØŃØ§Øª":5099,"ÙĩÙĦØ§Ùĥ":5100,"ĠØ§ÙĦÙģÙĪØ²":5101,"ĠØ§ÙĦÙħØ¹ÙĩØ¯":5102,"ĠØ¯Ø§":5103,"ĠØ±Ùģ":5104,"ĠØ§ÙĦÙĪØŃÙĬØ¯Ø©":5105,"ĠØ§ÙĦØ³ÙĬØ±":5106,"ĠÙĦÙĦØŃØµÙĪÙĦ":5107,"ØªØªØŃ":5108,"Ø²Ø§ÙĦ":5109,"Ø±ØºÙħ":5110,"ĠÙĥÙĨØ¯Ø§":5111,"ĠÙĩÙĬÙĦ":5112,"ĠÙĤÙĦÙĬÙĦ":5113,"ÙĤØ¯ÙħØ©":5114,"ĠÙĦÙĬÙĥÙĪÙĨ":5115,"ĠÙĪØŃØ¯Ø§Øª":5116,"Ø£Øª":5117,"ĠØ§ÙĦØ£Ø¬ÙĩØ²Ø©":5118,"ĠØ§ÙĨØ®ÙģØ§Ø¶":5119,"ĠÙģØ±Ø¹":5120,"90":5121,"ĠØ§ÙĦØ¯ÙĬÙħÙĤØ±Ø§Ø·ÙĬØ©":5122,"Ø®Ø§Ø¨":5123,"ĠØ§ÙĦÙĤÙĪÙĦ":5124,"Ø¬ÙĪ":5125,"ĠØ§ÙĦÙĤØ±Ø§Ø±":5126,"ĠØ´Ùħ":5127,"ĠØ§ÙĦØµØ¯":5128,"ĠØ§ÙĦØ¬Ø¯ÙĪÙĦ":5129,"ĠØ¬ÙĬÙħØ³":5130,"Ø³ÙĨØ©":5131,"ÙħØ§Ø°Ø¬":5132,"ĠÙĦÙĬÙĦ":5133,"ÙĤØ¨Ø§ÙĦ":5134,"ĠØ£ÙĦØ¨ÙĪÙħ":5135,"ĠÙģÙĬØµÙĦ":5136,"ĠØ§ÙĦÙĩØ¬Ø±ÙĬ":5137,"ĠÙĤÙĬÙħ":5138,"ÙħØ§Ø·":5139,"ĠØ·Ø¨ÙĤØ©":5140,"ĠÙĪÙħØ³Øª":5141,"ĠÙĪØ£ØµØ¨ØŃØª":5142,"ØªØ±ÙĬ":5143,"ĠØ§ÙĦÙĨÙĤØ¯":5144,"ĠØ§ÙĦÙĩÙĬØ¦Ø©":5145,"ĠØ§ÙĦÙĪÙĬ":5146,"ĠØ¨Ø¯Ø§":5147,"ĠÙĪØ°":5148,"ĠÙĥØªÙĦØ©":5149,"ĠØ§ÙĦØ®ÙĦÙĬØ©":5150,"ĠØ²Ø§ÙĦ":5151,"ÙģÙĬÙĦ":5152,"ĠØ¨ØªØ±":5153,"ĠØºØ²Ø©":5154,"ĠØ§ÙĦØªØ±Ø§Ø«":5155,"Ø¹Ø¶ÙĪ":5156,"ĠÙĨÙħÙĪ":5157,"ĠØ®Ø¯ÙħØ§Øª":5158,"Ø¬ÙĬØ±":5159,"ĠÙĥÙĪÙħ":5160,"lock":5161,"ĠØ±ÙĬØª":5162,"Ø¹Ø·Ø§Ø¡":5163,"ĠØ§ÙĦØŃØ§Ø¬":5164,"ĠØ¹ÙĬØ¯":5165,"ĠÙĪÙħØ¯":5166,"ĠÙħØ³ØªÙĪÙĬØ§Øª":5167,"ĠÙĦÙĦÙħØ¯ÙĬÙĨØ©":5168,"ØªÙģØ¸":5169,"ĠØ§ÙĦÙĨØ³Ø¨":5170,"ĠØªØ¤Ø¯ÙĬ":5171,"ĠÙĬÙĪ":5172,"ĠØ³ÙĪØ±ÙĬØ©":5173,"Ġ2019":5174,"ĠÙĪØ¨Ø¯":5175,"ĠØ§ÙĦÙħØ¹Ø±ÙģØ©":5176,"ÙħØµ":5177,"ĠÙĦØ´Ø±ÙĥØ©":5178,"ĠÙĬÙĪÙħØ§":5179,"Ø¯Ø±Ø§Ø³Ø§Øª":5180,"Ġ34":5181,"ĠÙĪØ£ØŃ":5182,"ĠØªØ¬ÙħØ¹":5183,"ĠØ£ÙĪØ³":5184,"ØªØ¹Ø¯":5185,"Ø¹ÙĪ":5186,"ĠØ¨Ø§ÙĤÙĬ":5187,"ĠØªÙģØ³ÙĬØ±":5188,"ĠØ£ÙĨØ§":5189,"ĠØ´ÙĤÙĬÙĤ":5190,"ĠØ³ÙĬØ§Ø±Ø©":5191,"Ø§ØºØ©":5192,"ĠØ§ÙĦØ³ÙĪÙĬ":5193,"ĠØ§Ø³ØªÙĤÙĦØ§ÙĦ":5194,"ĠØ§ÙĦØ¬ÙĨØ³":5195,"ÙĪØ³ÙĬÙĤÙī":5196,"ĠØ§ÙĦØµÙĬØ¯":5197,"Ø³ÙĬØ¬":5198,"ĠÙģÙģÙĬ":5199,"Ø§Ø¦ÙĬØ§":5200,"ĠØªØ®ØªÙĦÙģ":5201,"ĠØ§ÙĦØŃÙħÙĦØ©":5202,"ĠÙĦÙĦØªØŃ":5203,"ĠØ§ÙĦØ¥Ø¯Ø§Ø±ÙĬ":5204,"ĠØ±Ø¦Ø§Ø³Ø©":5205,"ÙĬÙģØ±":5206,"Ø£Ø³ÙĬØ³":5207,"ÙĪÙģØ§ØªÙĩ":5208,"ÙĪØ¶Ø©":5209,"ĠØ®Ø³":5210,"ĠØ§ÙĦØ±ÙĬØ§Ø¶ÙĬØ§Øª":5211,"ĠØ§ÙĦØŃÙĤÙĬÙĤØ©":5212,"ĠÙĥÙĦÙĬ":5213,"ĠÙħØ±Ø§ÙĥØ²":5214,"ÙĩØ±ÙĬ":5215,"24":5216,"Ø¯ÙĪÙĨ":5217,"ÙĦÙĪ":5218,"ĠØ±Ø¬":5219,"ĠØµØ¨Ø§ØŃ":5220,"Ø§ÙĪÙĦØ§Øª":5221,"ĠÙħØ¹Ø±ÙĪÙģØ©":5222,"Ø·ÙĨØ©":5223,"ØŃÙĩ":5224,"ĠØ§ÙĦÙħÙħØ«ÙĦ":5225,"ĠØ§ÙĦÙħØ±Ø¶Ùī":5226,"Ø³ØªØ§ÙĨØª":5227,"ØªØ¨ÙĦØº":5228,"ĠÙĪÙĬØ¯":5229,"ĠØŃÙĦÙĤØ©":5230,"ĠÙħØ¨ÙĨÙī":5231,"ĠØ§ÙĦÙħØ²ÙĬØ¯":5232,"ĠÙģØ´ÙĦ":5233,"ĠØ§ÙĦØŃØµ":5234,"Ø¹Ø±ÙģØ©":5235,"ĠØ§ÙĦØ¥ÙĨØ³Ø§ÙĨÙĬØ©":5236,"Ø§ÙĥÙĨ":5237,"Ø³Ø·ÙĨØ·":5238,"ĠÙħØªÙĨÙĪØ¹Ø©":5239,"Ø§ÙĨØº":5240,"ĠÙĬØ±Ùī":5241,"Ø§ÙĪØ²":5242,"ĠØ§ÙĦØ§Ø«":5243,"ĠØ§ÙĦÙħØ¯Ø±":5244,"Ø§Ø±ÙĬØ³":5245,"ĠØ®ÙĦØ§Ùģ":5246,"ÙĬÙħÙĪÙĨ":5247,"ĠØ£Ø¹Ø·":5248,"Ø¬Ø§Ø±Ø©":5249,"Ø±ÙĨØ³Ø§":5250,"ĠØ§ÙĦØ³ÙĥÙĨ":5251,"ĠÙģÙħÙĨ":5252,"ÙĦÙħØ§ÙĨÙĬØ©":5253,"Ġ1962":5254,"ĠÙħØ°":5255,"ĠØªØµØ¨ØŃ":5256,"Ø§Ø²ÙĬØ©":5257,"ÙĪØ§Ø±Ø¹":5258,"Ø¹ÙģØ±":5259,"ĠÙĦÙħØ±":5260,"Ġ1963":5261,"ĠØ«Ø§ÙĦØ«":5262,"ĠØ±Ø¦ÙĬØ³ÙĬØ©":5263,"ĠØªØ«":5264,"ĠØ§ÙĦÙĪØŃØ¯Ø§Øª":5265,"Ġ1956":5266,"ĠØ¨ÙĥØ«ÙĬØ±":5267,"ĠØ§ÙĦØ§ØŃØªÙģ":5268,"ÙĤÙĨ":5269,"Ø§Ø¯Ùī":5270,"ĠØ§ÙĦØ£Ø·ÙĦ":5271,"ĠØ§ÙĦÙĤØ§Ø¦Ø¯":5272,"Ġ37":5273,"ĠØ§ÙĦØ´ØªØ§Ø¡":5274,"Ø§ØµØ¨":5275,"Ø³ÙĪÙħ":5276,"ĠØ§ÙĦØ£ÙħØ©":5277,"ĠØ§ÙĦØ£ÙĥØ³":5278,"ĠÙĬØ°ÙĥØ±":5279,"ĠØ§ÙĦØªÙĪÙĨØ³ÙĬØ©":5280,"Ø¨ÙĬÙĪØªØ±":5281,"ÙĪØ¨ÙĬÙĨ":5282,"ĠØ£ÙĪÙĦØ§Ø¯":5283,"ĠØ¨Ø§ÙĦØ¨":5284,"ĠØ§ÙĦØ¥Ø´Ø§Ø±Ø©":5285,"ĠØ¨ÙħØ«":5286,"ĠÙħÙĩØ±Ø¬Ø§ÙĨ":5287,"ÙĬÙĨÙĬØ§":5288,"ĠÙĥØ«Ø§ÙģØ©":5289,"ĠÙĥØ§Ø¨":5290,"ĠØ£ÙħÙĦ":5291,"ĠØ¥ÙĦÙĥØªØ±":5292,"ĠØ§ÙĦØ£ØŃÙĬØ§Ø¡":5293,"ĠØ³Ø¹":5294,"ĠØ§Ø«ÙĨÙĬÙĨ":5295,"ĠÙĦÙĬÙĪÙĨ":5296,"ĠÙħØ¯Ø±ÙĬØ¯":5297,"ĠØ£ØµØŃØ§Ø¨":5298,"ĠØªØ£Ø³Ø³Øª":5299,"ĠÙĤØ§Ø¯Ø±":5300,"ĠÙĬØªÙĥÙĪÙĨ":5301,"ĠÙĪØ¹Ø¯Ùħ":5302,"ĠÙħØ´ÙĥÙĦØ©":5303,"ĠØ§ÙĦÙĨÙĪÙĪÙĬØ©":5304,"ĠÙĪØ§ÙĦØ£Ø³":5305,"ĠØ§ÙĦØ¥ØµÙĦØ§ØŃ":5306,"ĠØ¨Ø¬Ø§ÙħØ¹Ø©":5307,"ĠØ±ÙħØ¶Ø§ÙĨ":5308,"ĠÙĪØ§ÙĦØ£ÙĨ":5309,"ĠØ¯Ø§Ø¦Ùħ":5310,"ĠØ§ÙĦÙħØ³ÙĦÙħÙĪÙĨ":5311,"Ø¬ØªÙħØ¹":5312,"ĠØ§ÙĦØ¬Ø²Ø§Ø¦Ø±ÙĬ":5313,"Ø§ØªØŃØ§Ø¯":5314,"ĠÙĪØ¹ÙĨ":5315,"ĠØ£ÙĪÙĦØ§":5316,"Ø¯ÙģØ§Ø¹":5317,"ĠØ£Ø¯Øª":5318,"ĠÙĨÙĬÙĥ":5319,"ĠØ§ÙĦØ¥Ø¯Ø§Ø±ÙĬØ©":5320,"ĠÙĥÙĨØª":5321,"Ø®ØªØ¨Ø±":5322,"ÙħÙĦØª":5323,"27":5324,"ĠÙĤÙĪØ§Ø¹Ø¯":5325,"ÙĦÙĬÙĥ":5326,"ĠØ§ÙĦØºØ§ÙĦØ¨":5327,"ĠØ§ÙĦØ£ØºÙĨÙĬØ©":5328,"ĠØ¨ÙħØ¹ÙĨÙī":5329,"ĠØ§ÙĦØŃÙħØ±Ø§Ø¡":5330,"ĠÙĪØ§ÙĦÙħØ¤":5331,"ĠØ§ÙĦØ¬Ø²Ø§Ø¦Ø±ÙĬØ©":5332,"ĠÙģØ±Ø¯":5333,"ĠØ§ÙĦÙħÙĪØµÙĦ":5334,"Ġ1972":5335,"st":5336,"Ø³Ø±Ø§":5337,"Ġ1958":5338,"ĠØ§ÙĦÙħØ³ÙĬØŃ":5339,"ĠThe":5340,"ĠØ·Ùģ":5341,"ĠØ£ÙĤÙĬÙħ":5342,"Ø±ÙĬØ¨ÙĬØ©":5343,"ĠØµØŃÙĬØŃ":5344,"ÙĤÙĬØ¯Ø©":5345,"ÙģØ²":5346,"Ø¹ÙĬØ¯Ø©":5347,"ĠØ§ÙĦÙģÙĦØ³ÙģØ©":5348,"Ø¨ÙĬÙĬÙĨ":5349,"ĠØ¶Ùħ":5350,"ÙĪØ±ÙĬÙĪØ³":5351,"ĠØ§ÙĦÙħØªØ±":5352,"ÙĪÙģÙĤ":5353,"Ġ1971":5354,"ĠÙĩØ¬ÙĪÙħ":5355,"33":5356,"Ġ1968":5357,"Ø®Ø§Ø±":5358,"ĠØ§ÙĦØªØ´ØºÙĬÙĦ":5359,"ĠØµÙĨØ¹":5360,"ĠÙĦØ°Ø§":5361,"ĠØ¨Ø§Ø®":5362,"ÙĪØ±ÙĬÙĨ":5363,"ce":5364,"ĠÙĦØ·":5365,"Ġ1977":5366,"ĠØ§ÙĦØ¹ÙĪØ¯Ø©":5367,"ĠØ§ÙĦØµÙĬÙģ":5368,"ÙĪØ¶ØŃ":5369,"ĠÙĦÙħØ³":5370,"ĠÙħØ¬Ø§ÙĦØ§Øª":5371,"ĠÙģØ±Ø§ÙĨØ³":5372,"Ġ1969":5373,"ĠØ£ÙĦØ¨":5374,"ĠØ§ÙĦÙĥØ§ØªØ¨":5375,"ĠØªÙĤÙĨÙĬØ©":5376,"Ø¶Ø§Ø¹":5377,"ĠØ§ÙĦØªØ³ÙħÙĬØ©":5378,"ĠØ§ÙĦØ¬Ø¨ÙĩØ©":5379,"ĠØ§ÙĦØ£ÙħÙĪØ±":5380,"ÙĪØ§ÙĨØ¨":5381,"ĠØ§ÙĦØ£ÙħØ·Ø§Ø±":5382,"ØºØ±Ø§Ø¶":5383,"ÙĨØ§ÙħØ¬":5384,"ĠØ§ÙĦÙĨÙĤØ·Ø©":5385,"ĠÙĬØ±ÙĬØ¯":5386,"Ø´Ø§Ø±Ø§Øª":5387,"ĠØ§ÙĦØ±Ø£Ø³":5388,"ĠØ¨Ø¹Ø¯ÙħØ§":5389,"ÙĤØ·Ø§Ø¹":5390,"26":5391,"ĠØ§ÙĦØ¹Ø´":5392,"ĠØ§ÙĦÙģØµÙĬÙĦØ©":5393,"ĠØ§ÙĦØ¬ÙĦØ¯":5394,"ĠØ°ÙĪÙĬ":5395,"ĠÙĦØ¢":5396,"ĠØ¥ÙĬÙĩ":5397,"ĠØ§ÙĦÙĨØŃ":5398,"ĠØ°ÙĩØ¨":5399,"ĠØ§ÙĦÙĬØ§Ø¨Ø§ÙĨÙĬØ©":5400,"ÙĥÙĨÙĬØ³Ø©":5401,"ĠÙħØ³Ø§ÙģØ©":5402,"ĠØ¨ØªÙĤ":5403,"ÙĤØ§Ø°":5404,"ÙĬÙĦØ§Øª":5405,"ĠØ§ÙĦØµØºÙĬØ±":5406,"ĠØ¥Ø¹ÙĦØ§ÙĨ":5407,"ĠØ¹Ø§ÙħÙĦ":5408,"ĠØ¨Ø§ÙĦÙĥØ§ÙħÙĦ":5409,"ĠØ¨ÙħÙĪØ¬Ø¨":5410,"ĠØ¨ÙħØ«Ø§Ø¨Ø©":5411,"ĠØ§ÙĦØµØŃÙĬ":5412,"ĠÙĪØ¬Ø¯Øª":5413,"ĠÙĤØ¶":5414,"ĠÙĪØ±Ø¦ÙĬØ³":5415,"Ġ1964":5416,"ĠÙĦØªØ±":5417,"ĠÙĤØ¯ÙĬÙħØ©":5418,"ÙĪÙĥÙĦ":5419,"ĠØ§ÙĦÙĥØ§Ø¦ÙĨØ§Øª":5420,"ĠÙħÙĤØ§ÙĪÙħØ©":5421,"ĠØ¥ØŃØµØ§Ø¡":5422,"ĠØ§ÙĦØ«ÙħØ§ÙĨ":5423,"ÙģÙĨÙĪÙĨ":5424,"ont":5425,"ĠÙĪÙĬØ¹ØªØ¨Ø±":5426,"ĠØ£ÙĥØ³ÙĬØ¯":5427,"ĠØ¢Ø¨":5428,"Ø±Ø²":5429,"ĠØ§ÙĦØ·ÙģÙĦ":5430,"Ġid":5431,"ĠØ¬ÙĬØ±":5432,"Ø±ÙĥØ§ÙĨ":5433,"Ġblock":5434,"ĠØ§ÙĦØ´ÙĩÙĬØ±":5435,"Ø¨Ø¯Ø§ÙĦ":5436,"ĠØªÙĤØ±ÙĬØ±":5437,"ÙĤØ§ÙĬØ§":5438,"ĠØ§ÙĦØ±Ø³ÙĪÙĦ":5439,"ĠØ§ÙĦÙĦØŃ":5440,"Ø§ØŃÙĤØ©":5441,"ĠØ§ÙĦØ¹Ø¸ÙħÙī":5442,"ĠÙħÙĬØª":5443,"ĠÙĬØ¶Ùħ":5444,"ĠØ§ÙĦØ´ÙĩØ±":5445,"ĠØ§ÙĦÙħØµØ¯Ø±":5446,"ĠØ§ÙĦØ³ÙĬÙĨÙħØ§":5447,"ÙĬØ±Ùĥ":5448,"ÙħØ§Ø¦ÙĬ":5449,"ĠØ§ÙĦØªÙĩØ§Ø¨":5450,"ĠØŃÙģÙĦ":5451,"Ø®Ø±Ø©":5452,"ĠØ§ÙĦØ°ÙĩØ¨":5453,"ĠØ£ÙĤØµÙī":5454,"ĠÙģÙĬÙĨ":5455,"ĠØ§ÙĦÙħÙĨØ´":5456,"ĠÙħØ¨Ø§Ø´Ø±":5457,"ĠØ§ÙĦÙħÙĪØ¬ÙĪØ¯":5458,"Ø¨Ø§Ùĩ":5459,"ÙĬØ³Øª":5460,"ĠØ§ÙĦØ£Ø³ÙĦØŃØ©":5461,"ĠÙĤØ¯Ø±Ø©":5462,"ĠØ§ÙĦØ¢Ø³ÙĬ":5463,"ÙĤØ§ÙĦØ©":5464,"Ġ48":5465,"ĠØ§ÙĦØ¨Ø±Ø§Ø²ÙĬÙĦ":5466,"ĠÙĬØº":5467,"ĠÙĤØ±ÙĬØ¨":5468,"ĠÙĤØ¶Ø§Ø¡":5469,"ĠØ§ÙĦØ¥Ø³Ø¨Ø§ÙĨÙĬØ©":5470,"ĠÙħÙĬØ²":5471,"ĠØ¥Ø³Øª":5472,"ĠØ²Ø§ÙĦØª":5473,"ĠØ³ÙĬØ·Ø±":5474,"ĠÙħØ¤Ø³Ø³":5475,"ĠØ§ÙĦÙĦØº":5476,"ĠÙħØ³ØªØ®Ø¯Ùħ":5477,"ĠØ¹Ø§Ø¦ÙĦ":5478,"Ġ38":5479,"ĠØ£Ø³Øª":5480,"ĠØ§ÙĦØªÙĬØ§Ø±":5481,"ĠØ§ÙĦØ¹ÙĤÙĦ":5482,"ĠØ«ÙħØ§ÙĨÙĬØ©":5483,"ĠØ£ÙĨØ·":5484,"ĠØ£Ø³Ø¨ÙĪØ¹":5485,"ĠÃ":5486,"ĠØ¨Ø³ÙĬØ·Ø©":5487,"Ø§ÙĦØ®":5488,"ĠØ§ÙĦÙħØ¯ÙĨÙĬØ©":5489,"ĠÙĦÙĦØ³ÙĥØ§ÙĨ":5490,"Ø·Ø¨ÙĤ":5491,"Ø±Ø§":5492,"Ø³Ø¬Ø©":5493,"ĠØŃØµÙĦØª":5494,"ĠØ§ÙĦØ¨Ø´Ø±ÙĬ":5495,"Ø«ÙħØ§Ø±":5496,"ĠØ§Ø³ØªØ®Ø¯Ø§ÙħÙĩØ§":5497,"ĠÙĤØµÙĬØ±":5498,"ÙĩÙĦÙĥ":5499,"Ø§ÙĤØ´":5500,"ĠØ§ÙĦØ¥ÙĨØ§Ø«":5501,"Ø¹ÙĬÙĬÙĨ":5502,"ĠÙħÙħÙĨ":5503,"ĠØ§ÙħØ±Ø£Ø©":5504,"ĠÙħØ´Ø§ÙĥÙĦ":5505,"ĠÙĪØªØ·ÙĪØ±":5506,"ĠØ§ÙĦØ«ÙĤØ§ÙģÙĬ":5507,"ĠØ§ÙĦØ£ØµÙĪÙĦ":5508,"ĠØ§ÙĦØ°Ø§ØªÙĬØ©":5509,"ĠØ§ÙĦÙĨÙĩØ§Ø¦ÙĬØ©":5510,"Ø³ÙĪØ±":5511,"ĠÙħÙħØ§Ø«":5512,"ĠØ¥Ø«":5513,"ĠØ§ÙĦÙĤÙĬÙħØ©":5514,"ÙĪÙĦÙĪØ¬ÙĬ":5515,"ÙģÙĬØ±":5516,"ĠØ§ÙĦÙĨØ§ØµØ±":5517,"ĠÙħÙĬÙĨØ§Ø¡":5518,"ĠØ¨Ø°":5519,"ĠÙĦÙĬÙģ":5520,"ĠØ§ÙĦØªØ±Ø¬":5521,"ĠØ§ÙĦØ°Ø§ØªÙĬ":5522,"ĠØ¶Ø¹Ùģ":5523,"ÙĤÙĬØ§Ùħ":5524,"ĠØ§ÙģØªØªØ§ØŃ":5525,"Ø²Ø§ÙĬØ¯":5526,"ĠÙĬØ£ØªÙĬ":5527,"ĠØ¨Ø¯Ø±":5528,"ĠØ¨ÙĦØºØª":5529,"Ø®ÙĪØ§ÙĨ":5530,"ĠØ§ÙĦØªÙĨÙģÙĬØ°":5531,"Ġe":5532,"ØµÙĬÙĦ":5533,"ÙĪÙĦÙģ":5534,"Ø¤ÙĬØ©":5535,"ĠÙĪÙĬÙĪØ¬Ø¯":5536,"Ø§ÙħØ¨":5537,"ØµÙĪØ±Ø©":5538,"ĠØ£Ø¨Ø±":5539,"Ø¦Ø°":5540,"ÙĪØ¨ÙĦØº":5541,"ĠØ§ÙĦØ´Ø¨":5542,"ÙĦØ§ÙĪØ©":5543,"ĠÙħØ±Ø§ØŃÙĦ":5544,"ĠØ¨ÙĤÙĬØ©":5545,"ĠØ¹ÙĦÙĪÙħ":5546,"ĠØ§ÙĦØŃØ§Ø¬Ø©":5547,"ĠÙĨÙĪ":5548,"ÙĪØ³Ø©":5549,"ØºØ¨Ø©":5550,"ĠØ±ØŃÙĦØ©":5551,"ÙĤØ§ÙħØª":5552,"ĠÙħØ³Ø§Ø¹Ø¯":5553,"ĠØªÙĪÙģØ±":5554,"ØªØµÙħÙĬÙħ":5555,"ÙħØ¬Ø©":5556,"ÙĨØ§Ùĩ":5557,"ĠØ¬Ø±ÙĬØ¯Ø©":5558,"ĠÙĬØ¨Ø¯Ø£":5559,"ĠÙĥÙĬÙħÙĬ":5560,"Ø§ÙĦØªÙĩØ§":5561,"ĠØ§ÙĦÙĥÙĩ":5562,"ĠØ§ÙĦÙĤØ¯ÙĬØ³":5563,"ĠØ£ÙħØ§ÙĥÙĨ":5564,"ĠÙģÙĬÙĦ":5565,"Ø§Ø±ÙĬÙĨ":5566,"ĠØ¯Ø±Ø³":5567,"ĠØªØªØ¶ÙħÙĨ":5568,"ĠØ¨ÙĪØ¬ÙĪØ¯":5569,"Ø§Ø¶ÙĬØ¹":5570,"ĠÙĪØ¹Ø¨Ø¯":5571,"ĠÙĪØ¨Ø¯Ø£":5572,"ÙĦÙĬØ§Ùħ":5573,"ĠØ§ÙĦØ¥Ø³Øª":5574,"ĠÙĪÙħÙĦ":5575,"ÙĪØ¹ÙĨØ¯ÙħØ§":5576,"quote":5577,"ĠØ§ÙĦØ±ÙĪØŃ":5578,"ĠÙĬÙĨØªØ¬":5579,"ĠØ§ÙĦØ¬ÙĨØ³ÙĬ":5580,"ĠØ§ÙĦØ¸Ø±ÙĪÙģ":5581,"ĠÙĬÙĨØªÙħÙĬ":5582,"Ø§Ø³ØªØ®Ø¯Ø§Ùħ":5583,"Ù¾":5584,"ĠÙħÙĥØª":5585,"ÙĥØªÙĦ":5586,"ĠÙĪØ³ÙĦ":5587,"ĠÙħØ¯Ø§Ø±Ø³":5588,"ÙĪØ§Ø¨Ø·":5589,"ÙĪØ§ÙĨÙĬ":5590,"ĠØªÙĨØªØ¬":5591,"Ø²Ø¹":5592,"ĠØ£Ø¨Ø·Ø§ÙĦ":5593,"ĠØªÙĪÙģÙĬØ±":5594,"ĠØ§ÙĦØ³Ø¬ÙĨ":5595,"ĠØ´Ø±ÙĬÙĥ":5596,"ĠØ§ÙĦØªØ¹Ø§ÙĪÙĨ":5597,"Ø±Ø¨ÙĬÙĨ":5598,"ĠØ§ÙĦØ£Ø±Ø¯ÙĨÙĬØ©":5599,"ĠØ§ÙĦØ¹Ø«ÙĪØ±":5600,"Ø´ÙĬØ§Ø¡":5601,"Ġblockquote":5602,"ĠØ§ÙĤØªØ±":5603,"ĠÙĥØ±ÙĬØ³Øª":5604,"ĠØ£ÙĩÙħÙĩØ§":5605,"ĠÙħØµÙĨ":5606,"ĠÙĤÙĪØ§ÙĨÙĬÙĨ":5607,"ĠØ¨ØªÙĨ":5608,"ĠÙĪØ¨ÙĬ":5609,"ĠØ¥ÙĦÙĩ":5610,"Ø¶ÙĬØ±":5611,"23":5612,"ĠØŃØ¬Ø±":5613,"ĠØ«ÙĨØ§Ø¦ÙĬ":5614,"Ø§Ø´ÙĬØ©":5615,"ĠØ§ÙĦØŃÙģØ§Ø¸":5616,"ĠØ§ÙĦØ¯Ø¨":5617,"ĠØ§ÙĤØªØµØ§Ø¯":5618,"ĠØ£ÙĪÙĦÙī":5619,"ÙĥØ°ÙĦÙĥ":5620,"ĠØ¨ØŃÙĬØ±Ø©":5621,"ĠØ§ÙĦØªØ¬Ø§Ø±ÙĬ":5622,"ĠØ£ÙħÙĬÙĨ":5623,"ĠØ¨ØŃÙĪØ§ÙĦÙĬ":5624,"ĠØ³ÙĬÙĦ":5625,"ĠÙħØªØ±Ø§":5626,"ĠÙĤÙĪÙĬ":5627,"ÙĥØªÙĬØ±ÙĬØ§":5628,"ĠØ³ÙĨÙĪÙĬØ§":5629,"ĠØ§ÙĦÙĤØ§Ø¹Ø¯Ø©":5630,"ÙĪÙĥÙĪÙĦ":5631,"ĠÙħØ¬ØªÙħØ¹":5632,"ĠØªØŃØ³ÙĬÙĨ":5633,"ĠØªØ²ÙĪØ¬":5634,"ĠØ§ÙĦÙĥÙĦÙĬ":5635,"ĠØ¨Ø¹ÙĬØ¯":5636,"ĠÙĦØ£ÙĬ":5637,"ĠØ§ÙĦØ¯ÙĪØ±Ø©":5638,"ĠØ¨Ø§ÙĦÙģØ¹ÙĦ":5639,"ÙĤØ³Ø§Ùħ":5640,"ĠØ§ÙĦØµØ±Ø§Ø¹":5641,"ĠØ§ÙĦØ£ÙĥØ§Ø¯ÙĬÙħÙĬØ©":5642,"ÙģØ§ÙĦ":5643,"ĠØ¯ÙĦÙĬÙĦ":5644,"ØªÙĦØ±":5645,"ĠØ§ÙĦØ£Ø³Ø§Ø³":5646,"ss":5647,"ĠÙģØ±ÙĬ":5648,"Ø§Ø±Ø³ÙĬØ©":5649,"ĠØ£Ø³Ø¨Ø§Ø¨":5650,"ĠØ§ÙĦØªÙĤÙĨÙĬØ©":5651,"ØµÙĬØ¨":5652,"Ø§Ø¯ØªÙĩ":5653,"ØŃØ±Ùģ":5654,"Ø§ÙĤÙĦ":5655,"ĠØºØ²":5656,"Ø³ÙĬÙĤ":5657,"ĠØ¨Ø·ÙĦ":5658,"ĠØ£ÙĦØ¹Ø§Ø¨":5659,"Ġdiv":5660,"ÙĬÙĦØ§Ø¡":5661,"Ø§Ø¬Ø¹Ø©":5662,"Ø¶Ø§ÙģÙĬØ©":5663,"ĠØ§ÙĦÙĤÙĪÙħÙĬØ©":5664,"ĠÙĪÙĦØ°ÙĦÙĥ":5665,"Ø±ÙĬØ®":5666,"ÙĪØ§Ùĩ":5667,"ĠÙĪÙĤØªÙĦ":5668,"ÙģØ§ÙĨ":5669,"ĠØªÙĤØ¯Ø±":5670,"ĠØ§ÙĨØªÙĩØ§Ø¡":5671,"ĠØ§ÙĦØ¥ÙĦÙĥØªØ±ÙĪÙĨÙĬØ©":5672,"Ø·Ø§":5673,"ĠÙĪØ§ÙĦØ§Ø¬ØªÙħØ§":5674,"ĠØ§ÙĦØ®Ùħ":5675,"ĠØ³ÙĦØ§ØŃ":5676,"ĠØ§ÙĦÙģÙĬØ¯ÙĬÙĪ":5677,"Ø§ÙģØŃØ©":5678,"ĠÙĨØ³Ø¨ÙĬØ§":5679,"ĠØ¬Ø§ÙħØ¹":5680,"ĠØŃÙģØ¸":5681,"ĠØ§ÙĦØªÙģØ§Ø¹ÙĦ":5682,"ĠØ§Ø¨ÙĨØ©":5683,"ĠX":5684,"ĠØ§ÙĦØªÙħØ«ÙĬÙĦ":5685,"Ø®ÙĬÙĨ":5686,"ĠÙĦØªØ¹":5687,"ÙĨØ·ÙĨ":5688,"ĠØ§ÙĦÙĥØ±ÙĪÙĬØ©":5689,"ĠÙĩØ²Ùħ":5690,"ĠÙĪØ¬ÙĨÙĪØ¨":5691,"Ġâ":5692,"Ø§Ø³ØªÙħØ±Ø§Ø±":5693,"ĠÙĪØªÙĪÙģÙĬ":5694,"ĠØ³ÙĬÙĥÙĪÙĨ":5695,"ĠØ§ÙĦØŃØ±ÙĪØ¨":5696,"ÙĬØ¯ÙĬØ©":5697,"og":5698,"ĠØ§ÙĦØ¯ÙħÙĪÙĬØ©":5699,"ĠØµØ¹":5700,"ĠØ¨Ø§":5701,"ØŃØ¯Ø±":5702,"ĠØ§ØŃØªÙĦ":5703,"ĠÙħÙĤØªÙĦ":5704,"ĠÙĦÙĪÙĥ":5705,"ĠØ³Ø§Ø¹Ø¯":5706,"ÙħØ§ÙĦÙĥ":5707,"ØªØµØ±":5708,"ĠØ¨ÙĪÙĨ":5709,"ĠØ±Ø³ÙħÙĬØ©":5710,"ĠÙĬØŃØµÙĦ":5711,"ĠØ§ÙĦØ¹Ø±Ø´":5712,"Ġde":5713,"ÙħØ§Ø©":5714,"ĠØ§ÙĦØ§ØªØµØ§ÙĦØ§Øª":5715,"77":5716,"ÙĪÙħØ§ÙĨ":5717,"ĠØ®Ø³Ø±":5718,"Ġ1961":5719,"ĠÙĥØ´":5720,"ĠÙħØ³Ø§ØŃØªÙĩØ§":5721,"ĠÙħÙħÙĥÙĨ":5722,"ÙĨØº":5723,"ĠÙĪØ«ÙĦØ§Ø«":5724,"ĠØ£Øª":5725,"ÙĤØ§Ø¨":5726,"ÙĤÙĬØ¨":5727,"ĠØªØ´Ø§Ø±":5728,"ĠIn":5729,"ÙĤØ§Ø¯":5730,"ĠØŃÙħØ¶":5731,"Ġ\\":5732,"ĠØ¹ÙĬ":5733,"ĠØ§ÙĦÙĤÙĪÙħÙĬ":5734,"Ø¨ÙĬØ¹Ø§Øª":5735,"ĠØŃÙĬÙĨÙĩØ§":5736,"ÙĤØ§ÙĦÙĬØ¯":5737,"ĠØ¨Ø±Ø¬":5738,"Ø·Ø§Ø¡":5739,"ĠØ¨Ø£ÙĬ":5740,"Ø§Ø¬Ø³ØªÙĬØ±":5741,"ĠØ¹Ø¨Ø§Ø³":5742,"ĠØ§ÙĦØ§ØªØ¬Ø§Ùĩ":5743,"ĠÙħØ¦ÙĪÙĬØ©":5744,"Ø§Ø³Ø§":5745,"ÙĬØ³Ùī":5746,"ĠÙĬÙĤØ±Ø¨":5747,"Ø§Ø¸Ø±":5748,"Ø§ÙĦØ¨Ø©":5749,"ĠØ§ÙĦÙħÙĨØªØ¬":5750,"ĠÙħÙĪØ¸":5751,"ĠÙħÙħØ«ÙĦØ©":5752,"ĠÙĨÙĩØ§Ø¦ÙĬ":5753,"29":5754,"ĠØªØ³ÙħØŃ":5755,"ĠØ§ÙĦØ¹ÙĪØ§ÙħÙĦ":5756,"Ġ1965":5757,"ØŃØ§Ø«":5758,"ĠØ³Ø§Ø¹Ø§Øª":5759,"ĠÙĪØ§Ø¶ØŃ":5760,"Ø±ÙĪØ©":5761,"ĠØ§ÙĦØ¬ÙħÙĩÙĪØ±ÙĬ":5762,"ÙħØ¬ÙĬØ§Øª":5763,"ĠÙĦÙĦØ¯ÙĪÙĦØ©":5764,"ĠÙĦÙĬÙĦØ©":5765,"ĠØ§ÙĦØªÙĨØ¸ÙĬÙħ":5766,"ĠØ§ÙĦØ³ÙĦØ³ÙĦØ©":5767,"ĠØ§ÙĦØªØ¹Ø§ÙħÙĦ":5768,"ĠØ³Ø¨ÙĤ":5769,"ĠØ§ÙĦÙħØ¤ÙĦÙģ":5770,"ĠØ§ÙĦÙħØŃØ¯":5771,"ØŃÙĬØ§Ø¡":5772,"ÙĪÙĦÙĪ":5773,"ĠÙĤØ¶ÙĬØ©":5774,"ĠØ§ÙĦØ¯ÙĬÙĨÙĬ":5775,"ĠØ§ÙĨØªÙĩØª":5776,"ÙĤØµÙī":5777,"ĠØ§ÙĦØ±Ø£ÙĬ":5778,"ÙĩØ§ÙĨ":5779,"Ġ75":5780,"ØªØ§ÙĦÙĬØ©":5781,"ÙģÙī":5782,"ĠÙħÙĪØ±ÙĬ":5783,"Ø§ÙĦÙĬÙĥ":5784,"ĠØ³ÙĬÙħØ§":5785,"ĠÙĬØ¨":5786,"Ø¸Ø§Ø±":5787,"Ø¯Ø±Ø§ÙĨ":5788,"ĠÙģÙĪÙĨ":5789,"ĠØ§ÙĦÙĨØ·Ø§ÙĤ":5790,"ÙĨØ±":5791,"ĠØ¹Ø±Ø¨":5792,"ĠÙĪØ§ÙĦØ³ÙĦ":5793,"ĠØªØ¹Ø§ÙĦÙī":5794,"ĠØ§ÙĦØ£Ø¯ÙĪÙĬØ©":5795,"ĠÙĦÙĪØ³":5796,"ĠØ§ÙĦØ¯Ø¹Ùħ":5797,"ÙħØ¨Ø±Ø§Ø·ÙĪØ±ÙĬØ©":5798,"ĠØ§ÙĦØ£Ø±Ø¶ÙĬØ©":5799,"Ø§ÙĦÙħØ±":5800,"Ø§ØŃØ¸Ø©":5801,"ÙħØ±Ø§Ø¶":5802,"ĠØ¥ÙĥØ³":5803,"ĠÙĩØ§Øª":5804,"ĠØªØ¹ÙĦÙħ":5805,"ĠØ¨Ø¨Ø¹Ø¶":5806,"ĠØ§ÙĦØ¨ÙĬØ²ÙĨØ·":5807,"ÙģÙĬÙģØ©":5808,"ÙĪÙĤØ§Øª":5809,"ĠØ¨Ø§ÙĨØª":5810,"Ø§ÙĤØ¯":5811,"ĠØ§ÙĨØ³":5812,"ĠÙĬØŃÙĬÙī":5813,"ÙĤÙĦØª":5814,"ĠØ§ÙĦØªÙĪÙĨØ³ÙĬ":5815,"ĠØ§ÙĦØªÙĦÙģØ²ÙĬ":5816,"ĠØ§ÙĦØ°ÙĩØ¨ÙĬ":5817,"ĠØ¬ÙĨØ¨":5818,"ĠÙĦÙĦØªÙĨ":5819,"ĠÙħÙĥØªØ¨Ø©":5820,"ĠØ§ÙĦØ¬ÙĬÙĦ":5821,"ĠÙĨÙĪØ¨ÙĦ":5822,"ĠØ³ÙĦØ·Ø©":5823,"ĠØ§ÙĦØ£Ø´Ø¹Ø©":5824,"ĠØ§ÙĦÙģÙĬØ±ÙĪØ³":5825,"Ø®ÙĦØ§ÙĤ":5826,"ĠØ¨ÙĬØ¯":5827,"ĠÙħØ¬Ø±Ø¯":5828,"ĠÙģÙĪØ²":5829,"ĠØ§ÙĦØ¹Ø¸ÙĬÙħ":5830,"ĠØ§ÙĦÙħÙĦÙĥØ©":5831,"ĠÙĦÙĦÙħØ³":5832,"ĠØ®ÙĦÙĬÙģØ©":5833,"Ø¬ÙĪÙĨ":5834,"ĠØ¹ÙĨØµØ±":5835,"ĠØ§ÙĦØ¯ÙĬÙħÙĤØ±Ø§Ø·ÙĬ":5836,"ĠØ¹Ø¯Ø§":5837,"ĠÙĦØ§Ø¹":5838,"ĠØ£ÙĨØª":5839,"Ø§ÙħØª":5840,"ĠØ§ÙĦØŃØ±ÙĬØ©":5841,"ĠÙĦÙĦØ«":5842,"ÙĥÙĦÙĬØ©":5843,"Ġ1950":5844,"ØŃØ§ÙĨ":5845,"Ø¯ÙĪØ²":5846,"ĠØŃØ¶Ø±":5847,"ĠØ§ÙĨÙĩØ§":5848,"ĠÙĪØ¬Ø¹ÙĦ":5849,"Ø±Ø§Ø¯":5850,"ĠØ§ÙĦØ´ÙĩÙĬØ±Ø©":5851,"Ġ400":5852,"ĠÙĪØ£ÙĨÙĩ":5853,"ĠØ§ÙĦØ£Ø±Ø«ÙĪØ°ÙĥØ³":5854,"ĠØ§ÙĦÙĤÙĪØ§ÙĨÙĬÙĨ":5855,"ÙĦÙĩØ©":5856,"ĠØ§ÙĦÙħÙĪØ³ÙĬÙĤÙĬØ©":5857,"ĠØ§ÙĦÙĨÙħÙĪØ°Ø¬":5858,"ØªØ¨Ø§Ø±Ø§Øª":5859,"ĠÙĪØ§Ø¨ÙĨ":5860,"ĠØ³Ø§ØŃÙĦ":5861,"ĠØ§ÙĦÙĨØµØ±":5862,"ÙĬÙĤØ¹":5863,"ĠØ§ÙĦØŃØ§Ø¯ÙĬ":5864,"ĠØ±ÙĬØ§ÙĦ":5865,"ÙĪØ¬ÙĦ":5866,"Ø¬Øª":5867,"ĠÙĥÙĪØ±ÙĬØ§":5868,"ĠØ§ÙĦØ³ÙĥØ±":5869,"ĠØ§ÙĦÙģÙĬØ²ÙĬ":5870,"Ø¹ÙħÙĦÙĬØ§Øª":5871,"ĠØ§ÙĦÙħØ¤Ø³Ø³Ø©":5872,"Ø±ÙĬØ§ÙĨ":5873,"ĠØ§ÙĦÙħÙĨØªØ¬Ø§Øª":5874,"ĠÙĪØ¨Ø°ÙĦÙĥ":5875,"ĠÙĪØ§ÙĦØ§ÙĨØª":5876,"ĠØ§ÙĦÙĨÙĪØ§Ø¨":5877,"ĠØ§ÙĦØ¥Ø·ÙĦØ§ÙĤ":5878,"ĠØ§ÙĦØªØ±Ø¨Ø©":5879,"ĠØ§ÙĦÙĩÙĨØ¯ÙĬØ©":5880,"ĠØ§ÙĦÙħØ¸":5881,"Ø¸Ø±ÙĬØ©":5882,"ĠØ¨ÙħØ³":5883,"ĠØ¢Ø®Ø±ÙĬÙĨ":5884,"ĠÙħÙĪØ¬ÙĪØ¯":5885,"ĠØ¥ØŃØµ":5886,"ĠØ§ÙĦÙģØ¦Ø©":5887,"ĠÙĪØ£ÙĪÙĦ":5888,"Ø¤Ø¯ÙĬ":5889,"ĠÙĪÙĩÙħØ§":5890,"ĠØªØ¯Ø±ÙĬØ¨":5891,"ĠØ§ÙĦØ¬Ø²Ø±":5892,"75":5893,"ron":5894,"ÙĪØ±Ùĩ":5895,"ph":5896,"ĠØ§ÙĦÙħØ±Ø©":5897,"ĠØ±ÙĪØŃ":5898,"ĠØ¥ÙħÙĥØ§ÙĨÙĬØ©":5899,"Ø±ÙĬØº":5900,"ĠØ§ÙĦØ¬ÙĨØ±Ø§ÙĦ":5901,"ÙĬÙĦÙĬ":5902,"ÙĬØ±ÙĪÙĨ":5903,"ĠØ§ÙĦØŃÙĬÙĨ":5904,"ĠØ±Ø¤ÙĬØ©":5905,"ĠÙĨØ¨Ø§ØªÙĬ":5906,"ĠØªÙħÙĨ":5907,"Ø§ÙĥØ³":5908,"ĠÙħØŃØ§ÙģØ¸":5909,"ĠØ§ÙĦØ£Ø¯Ø¨ÙĬØ©":5910,"ĠØ§ÙĦÙĤØ¶":5911,"Ø§Ø¬ÙħØ©":5912,"ØŃØ¯ÙĩØ§":5913,"ĠÙĬØŃØªØ§Ø¬":5914,"ĠØ£ØºØ§ÙĨÙĬ":5915,"ÙĪØ±ÙĬØ¯":5916,"com":5917,"ĠØ§ÙĦØªÙĤÙĦÙĬØ¯ÙĬ":5918,"ĠØ¯ÙĬÙħ":5919,"ĠØ¨Ø±ÙĦÙĬÙĨ":5920,"ĠÙĦØ¹Ø¯Ø©":5921,"ĠÙħÙĬØ¯":5922,"ĠÙĤÙĬØ¯":5923,"ĠÙĪØªØ¯":5924,"ĠÙĪØ§ÙĦÙħÙĦ":5925,"ĠØ§ÙĦØ§ÙĨÙģ":5926,"ØºÙĦØ§ÙĦ":5927,"ĠØ§ÙĦØ£ØµÙĦÙĬÙĬÙĨ":5928,"ÙģØ±ÙĤØ©":5929,"ĠØ¯ÙĪÙĦÙĬØ©":5930,"ÙĪØ§Ø²ÙĨ":5931,"Ø¯ÙĬØ¨":5932,"ĠÙĪÙĥØ§ÙĦØ©":5933,"ĠØ§ÙĦØ£Ø®Ø¶Ø±":5934,"ĠÙĨØ´":5935,"ĠØ§ØªÙģØ§ÙĤÙĬØ©":5936,"ĠÙħØªØŃÙģ":5937,"ĠØ§ÙĦØ¨ÙĦØ¯ÙĬØ©":5938,"ĠØ¬ÙĬØ¯Ø©":5939,"ĠØ®Ø·Ø©":5940,"ĠØ¨ØŃÙĦÙĪÙĦ":5941,"ĠÙĬÙĤØ§Ø±Ø¨":5942,"ĠÙħØ³Ø±ØŃÙĬØ©":5943,"ĠØ´ÙĩØ±Ø©":5944,"ĠÙĦÙĦÙħØ¹":5945,"ÙģÙĪØ±Ø¯":5946,"ĠØ§ÙĦØ¬ÙħÙĬØ¹":5947,"Ø§Ø¯Ø«Ø©":5948,"ØŃÙĬØ·":5949,"ĠØ§ÙĦØ£ÙĬØ§Ùħ":5950,"ĠÙĦÙĤØ¯":5951,"Ø£ØªÙĬ":5952,"ĠØ¨Ø§ÙĦØµ":5953,"ĠØ¹Ø±ÙģØª":5954,"Ø²Ø§ÙĨ":5955,"ĠÙĪØ¹ÙĨØ¯":5956,"ĠÙħÙĨØªØ¬":5957,"ĠØµÙģØ±":5958,"ĠØ§ÙĦÙħØ¨Ø§ÙĨÙĬ":5959,"ĠÙĤØ·Ø¹Ø©":5960,"ĠÙĪØ³Ùħ":5961,"ĠØ§ÙĦØªÙĤØ¯Ùħ":5962,"Ø§ÙĦÙĬÙĬÙĨ":5963,"ĠØ§ÙĦØ³ÙĬØ§Ø±Ø©":5964,"ĠØ§ÙĦØ¹ÙĦÙĪÙĬ":5965,"ĠØ¨ÙĪÙĦØ§ÙĬØ©":5966,"ĠØ§ÙĦØ£Ø³ÙħØ§Ùĥ":5967,"ĠÙħØ³Ø¨":5968,"ĠØ§ÙĦØ³ÙģØ±":5969,"ĠØ¯Ø¨ÙĬ":5970,"ĠØ§ÙĦØ±ÙĤÙħ":5971,"ĠØ§ÙĦÙĦØ§Ø²ÙħØ©":5972,"ĠØµÙģÙĪÙģ":5973,"ĠØ§ÙĦØ¨Ø§ÙĦØº":5974,"ØªØ´Ùģ":5975,"ĠÙħÙĨÙĩÙħØ§":5976,"ĠÙħÙĤØ§ÙĦØ©":5977,"Ġ1966":5978,"Ø§ÙħØ¹":5979,"ĠØ³ÙģØ±":5980,"ĠØªÙĤÙĦÙĬ":5981,"ĠØ§ÙĦÙĥØªÙĦØ©":5982,"Ġ2020":5983,"ĠØ¨ÙĬÙĥ":5984,"ĠØ§ÙĦÙĥÙģ":5985,"ĠØ¨Ø§ÙĦØº":5986,"Ġ1954":5987,"ĠØ§ÙĦÙĦÙĬÙĦ":5988,"ÙĩÙĪØ±Ø©":5989,"ĠØ¥Ø±Ø³Ø§ÙĦ":5990,"ÙĨÙĥ":5991,"ĠØ§ÙĦØµØ¯Ø±":5992,"ĠÂ°":5993,"ĠÙĬØ±Ø¬Ø¹":5994,"ÙĦÙĥÙĬØ©":5995,"ĠÙĪØ£Ø®Ø°":5996,"ĠØ£ÙĨÙģØ³ÙĩÙħ":5997,"ĠØ°Ø§ØªÙĩ":5998,"ĠØ§ÙĦÙĨÙĩØ¶Ø©":5999,"Ø¨ÙĪØ¨":6000,"Ø§ÙĨÙĬÙĪÙĨ":6001,"ĠÙĦØªÙĥÙĪÙĨ":6002,"ĠØŃØ±Ùģ":6003,"ĠÙħØ±ØªÙĬÙĨ":6004,"ÙĪØ§ÙĤØ¹":6005,"ĠØ§ÙĦÙĩØ¬Ø±Ø©":6006,"ĠÙĪÙĬÙĥÙĪÙĨ":6007,"ÙĩØ¬":6008,"ĠÙħÙĤØ§Ø¨ÙĦØ©":6009,"ÙĬÙĪÙħ":6010,"ØºØ·ÙĬØ©":6011,"ĠØ±ÙħØ²":6012,"ĠØ§ÙĦÙħØ³Ø±ØŃÙĬØ©":6013,"Ã©":6014,"ĠÙĦÙĦÙħØŃ":6015,"ine":6016,"ĠÙĬÙħÙĦÙĥ":6017,"ÙħØ§Øª":6018,"ĠÙħØ§Ø¡":6019,"ĠØ§ÙĦØ£ÙħØ§ÙĥÙĨ":6020,"ĠÙħÙĦÙĪÙĥ":6021,"ĠØ§ÙĦÙħØºØ±Ø¨ÙĬØ©":6022,"ÙĤÙĬÙĩ":6023,"ĠØ§ÙĨØªÙĤØ§ÙĦ":6024,"ĠØ§ÙĦÙħØµÙĨ":6025,"ww":6026,"ĠÙĪØ´Ø±":6027,"ĠØ§ÙĦØ³ÙĦÙĪÙĥ":6028,"ĠØ¹ÙĦØ§ÙĤØ§Øª":6029,"ĠØ§ÙĦØµÙģØŃØ©":6030,"ĠÙĥØ§ØªØ¨":6031,"ĠÙĦÙĬØµØ¨ØŃ":6032,"ĠØ´Ø¨Ø§Ø¨":6033,"ĠØ¬ÙĪØ²":6034,"ĠØªØ¹Ø¯ÙĬÙĦ":6035,"ĠØ§ÙĦØŃØ¬Ø±":6036,"ĠØ±ÙĪØ¯":6037,"Ġ1949":6038,"ĠØ·Ø¨ÙĬØ¹ÙĬØ©":6039,"ĠØ§ÙĥØªØ´Ùģ":6040,"ĠÙĪØ¢Ø®Ø±":6041,"ÙĪØ²Ø§Ø±Ø©":6042,"ØŃØ§ÙĤ":6043,"ĠØ§ÙĦÙħØŃØ§ÙģØ¸":6044,"Ø£Ø®Ø°":6045,"ĠØ§ÙĦØ³ÙĪÙĬØ¯":6046,"ÙĬØ§ÙĤ":6047,"yle":6048,"ĠÙĩØ¯":6049,"ĠÙħØ¹Ø§ÙĦØ¬Ø©":6050,"Ø§ØµÙħ":6051,"ĠØ§ÙĦÙħØªØŃÙģ":6052,"ĠØ¬Ø¨":6053,"ÙĬØªØ§ÙĨ":6054,"ÙĥØ±Ø§":6055,"Ġ55":6056,"ØºØ±ÙĤ":6057,"ÙĪØ¯Ùĩ":6058,"ĠÙĤØ§Ø¦ÙĦØ§":6059,"ĠØ§ÙĦÙħØ§Ø¦ÙĬØ©":6060,"ĠØªØ³Ùħ":6061,"Ø¯ÙĬÙĦØ§Øª":6062,"ĠØ§ÙĦØ«ÙĦ":6063,"ÙĬØ¹Ø¯":6064,"ÙĪØµÙĪÙĦ":6065,"Ø³Ø§Ø³":6066,"ĠØ´Ø¯ÙĬØ¯Ø©":6067,"ĠÙĬØ³Ø¨Ø¨":6068,"ĠØ§ÙĦØŃÙĬØ©":6069,"ĠØ§ÙĦÙħØŃÙħ":6070,"ĠØ§ÙĦØºÙĬØ±":6071,"ĠØªØµØ¯Ø±":6072,"Ø§ÙĦØ·":6073,"ÙĦÙĬØ§Ùģ":6074,"Ø±ÙĨØ³ÙĬØ©":6075,"ĠØªØ®Ø±Ø¬":6076,"Ġ1939":6077,"ĠØ£Ø±Ø¬":6078,"Ġ1952":6079,"ĠØ¯Ø¨ÙĦÙĬÙĪ":6080,"ĠØ¥ÙĤØ§ÙħØ©":6081,"ĠØ§ÙĦØ¥Ø«":6082,"ĠØªØ£ÙĦÙĬÙģ":6083,"ĠØ±ÙĪØ¨Ø±Øª":6084,"ĠÙĤØ¯ÙħØª":6085,"ĠÙĦÙĦØ¨Ø±":6086,"ĠØ§ÙĦØ¨ÙĤ":6087,"ĠÙĪØ£Ø´":6088,"ĠØ§Ø®ØªØ¨Ø§Ø±":6089,"ĠÙĪØ§ØŃØ¯Ø§":6090,"ÙĪØ§ÙĦÙħ":6091,"ÙĬØ±Ùĩ":6092,"Ø§Ø¦ØŃØ©":6093,"ÙĪØªÙĬÙĨ":6094,"ĠØ§ÙĦÙħØ¯ÙĨÙĬ":6095,"ĠØ´ÙĩØ¯Øª":6096,"Ø¥ÙĦÙī":6097,"ĠØ°Ùĩ":6098,"ĠØ§ÙĦÙħÙĩÙĨÙĬØ©":6099,"Ġ1957":6100,"ĠÙģØ±ÙĨØ³ÙĬ":6101,"ĠØ§ÙĦØŃØ¯ÙĬØ¯ÙĬØ©":6102,"ÙĥØ§Ø¡":6103,"ĠØ¥Ùģ":6104,"ĠÙħØŃØ±Ùĥ":6105,"ÙĥØ±Ø±":6106,"ĠÙħÙĤØ§ÙĦ":6107,"ĠØªÙĪ":6108,"ĠÙĤØ¨Ø±":6109,"ĠØ§ÙĦÙĩØ§":6110,"ĠØºØ§Ø²":6111,"ĠØ§ÙĦØ¶ÙĪ":6112,"ĠØ§Ø®ØªÙĦØ§Ùģ":6113,"ĠØ§ÙĦØ³Ø·ØŃ":6114,"ĠØ§ÙĦØ®Ø¨Ø±":6115,"ĠÙĪÙĪØ¶Ø¹":6116,"ĠØ§ÙĦØªÙĪØ§ÙĦÙĬ":6117,"Ø²Ùģ":6118,"ĠØ§ÙĦÙĤØ§Ø·ÙĨÙĬÙĨ":6119,"ĠØ¹ÙĤØ¨":6120,"ĠØ§ÙĦØ°ÙĩØ¨ÙĬØ©":6121,"Ø¹Ø§ÙħÙĦ":6122,"ĠØ·Ø¨ÙĬØ¹Ø©":6123,"ĠØ§ÙĦØ¯Ùĩ":6124,"ĠØ§ÙĦØµÙģØ±":6125,"ĠÙĦØªØ³":6126,"ĠØ¸Ø±ÙĪÙģ":6127,"ĠÐ":6128,"ĠØ§ÙĦØ¯ÙĪ":6129,"ĠØ§ÙĦØªØ±Ø¨ÙĬØ©":6130,"ĠØ£Ø®ÙĬÙĩ":6131,"Ø§Ø¤ÙĩØ§":6132,"ĠÙĦØ¥ÙĨØªØ§Ø¬":6133,"ĠØ§ÙĦØ³ØªÙĬÙĨ":6134,"Ø¬ÙĩØ§Ø²":6135,"ĠÙĪØ¥ÙĨÙħØ§":6136,"ĠØ¬ÙĬÙĦ":6137,"Ø¬ÙħØ¹ÙĬØ©":6138,"ĠÙħÙĨØ²":6139,"ØªÙĪØ¬Ø¯":6140,"Ø¯Ø§Ùħ":6141,"ĠÙħØ³ØªÙĤØ¨ÙĦ":6142,"ØªØ§ÙĬÙĨ":6143,"tic":6144,"ĠØ¨Ø§Ø³ØªØ«ÙĨØ§Ø¡":6145,"35":6146,"ĠÙĪÙģØ§Ø²":6147,"ØŃÙĪÙĦ":6148,"Ø§Ø³ÙĬÙĨ":6149,"ĠØ§ÙĦØ´ÙĬÙĪØ®":6150,"ĠØ£ÙģÙĥØ§Ø±":6151,"ÙĩÙĬØ§Ø±":6152,"Ġ1920":6153,"ĠÙĩØ§ÙĨ":6154,"ĠØ§ÙĥØª":6155,"ĠØ§ÙĦÙħØ´Ø§ÙĥÙĦ":6156,"ĠØ§ÙĦÙĪØ¬Ùĩ":6157,"ĠØ¥Ø´Ø§Ø±Ø©":6158,"ĠÙĨÙĬØ³Ø§ÙĨ":6159,"ĠØ§ÙĦØ£Ø³ÙĨØ§ÙĨ":6160,"ĠÙĪØ§ÙĦØªØ¹ÙĦÙĬÙħ":6161,"ĠØ§ÙĦØ¯Ø§Ø¦Ø±Ø©":6162,"ĠÙĪØªØ¹ØªØ¨Ø±":6163,"ĠÙĪÙħØŃÙħØ¯":6164,"ĠØ§ÙĦØ¨Ø±ÙĬ":6165,"ĠÙģÙĥØ§ÙĨØª":6166,"ĠÙĦÙĨØ§":6167,"ĠØªØŃÙĦÙĬÙĦ":6168,"ĠØ§ÙĦÙģÙĬØ²ÙĬØ§Ø¡":6169,"ĠØ§ÙĦÙģØ§Ø±":6170,"ĠØ§ÙĦÙĨØªØ§Ø¦Ø¬":6171,"ĠÙĪØ§ÙĦÙħØ³Øª":6172,"ÙĥØ¨Ø±":6173,"Ø´ÙĦÙĪÙĨØ©":6174,"ÙĤØ¯Ø©":6175,"ĠØ§ÙĦÙĨØ¬":6176,"ĠÙĦÙĦÙĬ":6177,"ĠØ§ÙĦÙħØªÙħ":6178,"ĠÙĪØªÙĤØ¹":6179,"ay":6180,"Ø¨Ø±Øº":6181,"ĠØ§ÙĦÙħÙĤØ¯Ø³Ø©":6182,"Ø§ÙĩÙĬØ©":6183,"ĠØ¹ÙĦÙħÙĬØ©":6184,"Ø¨Ø±ÙĬ":6185,"ĠÙĨÙĤØ§Ø·":6186,"ĠØ§ÙĦØ³Ø±ÙĬØ¹":6187,"ĠØ§ÙĦØ£ÙĪ":6188,"ĠØ£Ø¬ÙĨ":6189,"ĠØ®Ø¨Ø±":6190,"ÙģØ§Ø¯":6191,"ĠØ£Ø±Ø§Ø¯":6192,"Ø®Ø±ÙĬØ©":6193,"ĠÙĪØ§ÙĦØ¨ÙĬ":6194,"ĠØ§ÙĦÙħØ®Ø±Ø¬":6195,"ĠØ§ÙĦØ£ÙĦØ¨ÙĪÙħ":6196,"ØªÙĤØ§Ø¯":6197,"ĠØ§ÙĦØ¬Ø§ÙħØ¹":6198,"ess":6199,"ĠØ§ÙĦØªØ¹Ø¨ÙĬØ±":6200,"ĠØ¯Ø±Ø§Ø³Ø§Øª":6201,"ĠØ§ÙĦØ£ÙĨØ¸ÙħØ©":6202,"ĠÙģØ±ÙĪØ¹":6203,"ÙĦÙĤÙī":6204,"ĠØ£Ø³ÙģÙĦ":6205,"ĠÙĥÙĪÙĥ":6206,"ĠØ§ÙĦØªØ·":6207,"ĠØ§Ø³ØªÙħØ±Øª":6208,"ĠØ§ÙĦØ³ÙĪÙĬØ³":6209,"ĠØ§ÙĦÙħÙĨØ²ÙĦ":6210,"ĠØ§ÙĦØ¨ØŃØ±ÙĬ":6211,"ĠØ§ÙĦØ£ÙĨØ¯ÙĦØ³":6212,"ĠØŃØ¬":6213,"ĠØ£Ø·ÙĪÙĦ":6214,"Ø§Ø³ÙĬÙĬÙĨ":6215,"eg":6216,"ĠÙħØ¹ÙĨÙī":6217,"ĠØ§ÙĨØ¯ÙĦ":6218,"ĠØ®ØµØ§Ø¦Øµ":6219,"ĠÙħØ¹Ø±Ø¶":6220,"ĠÙĪÙħØ±ÙĥØ²":6221,"ĠØ¹Ø±Ø¨ÙĬ":6222,"ĠØ¬ÙĪØ§Ø¦Ø²":6223,"ĠØ§ÙĦØ¨ÙĨÙĬØ©":6224,"ĠÙħØ«Ø§ÙĦ":6225,"ĠØ§ÙĦØ¥Ø´Ø¹":6226,"ĠØ§ÙĦØ¶ÙģØ©":6227,"Ø§Ø°Ø¨ÙĬØ©":6228,"ĠØ§ÙĦØªÙĨÙħÙĬØ©":6229,"ĠØ§ÙĦØ¹Ø¯ÙĪ":6230,"ĠÙģÙĥ":6231,"ĠÙĤØ§Ø¯Ø©":6232,"ĠØ§ÙĦØ£Ø³Ø¨":6233,"ĠØŃÙģ":6234,"Ġ1947":6235,"ĠØ§Ø·":6236,"Ø¬ÙĬØ¹":6237,"ÙĬØ³ÙĬØ§":6238,"ĠØ§ÙĦØ¨ÙĪ":6239,"ÙĬØ³ÙĥÙĪ":6240,"ÙĦÙĤØ¨":6241,"ĠØ§ÙĦØ£Ø´Ø¬Ø§Ø±":6242,"ĠØ§ÙĦØµØŃØ§ÙģØ©":6243,"ĠØ£ØªØ¨Ø§Ø¹":6244,"ĠØ§ÙĦÙħØ°ÙĩØ¨":6245,"ÙħØ¤":6246,"ĠØ§ÙĦÙĨØŃÙĪ":6247,"98":6248,"ĠÙĥÙģØ±":6249,"ĠØ§ÙĦØµÙĪÙħ":6250,"ĠØªØ¬Ø§Ø±ÙĬØ©":6251,"ĠØ²ÙĬÙĨ":6252,"Ġ1959":6253,"ĠØ§ÙĦØªØºÙĬÙĬØ±Ø§Øª":6254,"Ø§Ø³ÙĬØ§":6255,"ĠÙģØ¥ÙĨÙĩØ§":6256,"ĠÙħØ§ÙĦÙĬ":6257,"ØªØ´ÙĬØ±":6258,"ĠÙĪØ§Ø´ÙĨØ·ÙĨ":6259,"ÙĪØªÙĩØ§":6260,"ĠØ§ÙĦØ³ÙħØ§Ø¡":6261,"ĠØªØ¨Ø¹":6262,"ĠØªØ¯Ø¹Ùī":6263,"ĠØ§ÙĦØ¹ØµØ¨ÙĬ":6264,"ĠØ§ÙĦÙĥÙĩØ±Ø¨Ø§Ø¦ÙĬ":6265,"ĠØ§ÙĦØ¨Ø³ÙĬ":6266,"ĠØ§ÙĦØ®Ø·ÙĪØ·":6267,"ĠÙģÙĬÙĦÙĬØ¨":6268,"Ġ64":6269,"ĠØªØ¨ÙĤÙī":6270,"ĠØ´ÙħØ§ÙĦØ§":6271,"ĠÙĤÙħØ©":6272,"ĠØºØ±ÙģØ©":6273,"ĠØªØ±ÙĥÙĬØ¨":6274,"Ø´Ùĥ":6275,"ĠÙĪØªØµ":6276,"ĠØ£Ø¹Ø±Ø§Ø¶":6277,"ĠØ§ÙĦØ¥Ø¹ÙĦØ§ÙĨ":6278,"ĠØ¨Ø¬Ø§ÙĨØ¨":6279,"ĠÙĥÙĬÙĨ":6280,"Ø³ØªÙĬÙĨ":6281,"Ø´Ø¦Øª":6282,"95":6283,"ĠØ§ØŃØªÙĬ":6284,"ĠØ§ÙĦØ´ÙħØ³ÙĬØ©":6285,"ĠØ§ÙĦØ¥ÙĦÙĥØªØ±ÙĪÙĨÙĬ":6286,"ØµØ§Øª":6287,"ĠØ§ÙĦÙħÙģØ±":6288,"ĠØ§ÙĦÙģØµÙĦ":6289,"ĠØ¹ÙĪØ§ÙħÙĦ":6290,"ĠØªÙħØªÙĦÙĥ":6291,"Ø´Ø§":6292,"ĠØ¬ÙĨØ¯ÙĬ":6293,"ĠØ§ÙĦØ´ÙĬØ¹Ø©":6294,"ÙģØ§Ø¹ÙĦØ§Øª":6295,"ĠÙĨØ§Ø¬":6296,"ÙĦØ§ÙĦØ§Øª":6297,"ap":6298,"ĠØ§ÙĦÙħØ´ØªØ±ÙĥØ©":6299,"ĠØ§ÙĦØºØ°Ø§Ø¡":6300,"Ø§Ø¯ÙĬÙĪ":6301,"ĠØ§ÙĦØ·ÙĦØ¨":6302,"ĠÙħØ³ÙĦÙħ":6303,"ĠÙĦÙĬØµÙĦ":6304,"ĠØ®Ø¯Ùħ":6305,"ĠÙĪØ§ÙĦØ£Ø±Ø¨Ø¹Ø©":6306,"formula":6307,"ĠØ¹ÙĪØ¯":6308,"ĠÙĦØºØ§Øª":6309,"ÙĪØ§ÙĦØ¯":6310,"ĠØ¥Ø²Ø§ÙĦØ©":6311,"Ø¬ÙĦØ¯":6312,"Ø´Ø£Ø©":6313,"ØŃÙĬÙĦ":6314,"ĠØ§ÙĦÙĪÙĤÙĪØ¯":6315,"ÙĤØ³":6316,"Ġ1946":6317,"ØªÙģØ¹Ø©":6318,"ĠÙĪØ¹Ø±Ø¶":6319,"ĠÙĤØµØµ":6320,"ĠØ§ÙĦÙĥÙĦØ§Ùħ":6321,"ĠØ§ÙĦÙĥÙĨØ§Ø¦Ø³":6322,"Ø§Ø¯ÙĬÙĨ":6323,"ias":6324,"Ø²Øª":6325,"ĠØ§ÙĦÙħÙĤØ§ÙĦØ©":6326,"ĠÙĩØªÙĦØ±":6327,"ĠØ³Ø¨Ø¹":6328,"Ø±Ø¨Ø¹ÙĪÙĨ":6329,"ĠØ§ÙĦÙħØ¬ÙħÙĪØ¹":6330,"ĠÙĥÙĪØ¨":6331,"ĠØ§ÙĦØ°Ø§ÙĥØ±Ø©":6332,"ĠØ§ÙĦÙħØ¹Ø§Ø±Ø¶Ø©":6333,"ĠÙĪÙĬÙĦÙĬØ§Ùħ":6334,"ĠÙĪØ§Ø¶ØŃØ©":6335,"ĠÙģØ¬":6336,"ĠØªØªØ±Ø§ÙĪØŃ":6337,"Ø¯Ø±Ø§Øª":6338,"ĠØ·Ø§Ø¦Ø±Ø§Øª":6339,"Ø²ÙħØ©":6340,"ĠØ²ÙĪØ¬ÙĩØ§":6341,"Ú¯":6342,"Ø§Ø³Ø¨Ø§Øª":6343,"ÙĪÙĩØ§Øª":6344,"ĠØªÙĥØ³":6345,"Ø§Ø¶Ø·Ø±Ø§Ø¨Ø§Øª":6346,"ÙĪÙģÙī":6347,"ÙĬØªØ§":6348,"ĠØ§ÙĦØµØ¨Ø§ØŃ":6349,"ÙĨÙħØ§Ø±Ùĥ":6350,"ĠÙĪØŃÙĬØ¯":6351,"ĠØ£ÙĪØ¨":6352,"ĠÙĥÙĬÙģÙĬØ©":6353,"ØªÙĬØ¨Ø©":6354,"Ø³ÙĬØ·Ø±":6355,"ĠØ£Ø¶":6356,"ĠÙĨÙħØ·":6357,"ĠØ§ÙĦÙħØ¬ØªÙħØ¹Ø§Øª":6358,"ĠØ¨Ø§ÙĦÙħØ¯ÙĬÙĨØ©":6359,"ĠØ§ØŃØªÙĦØ§ÙĦ":6360,"ĠÙĬØ¯Ø®ÙĦ":6361,"ÙĪØ·Ø©":6362,"ĠÙħÙĦØŃÙĪ":6363,"ÙĨØ³Ø¨Ø©":6364,"ĠÙĥØ§ÙĦØªØ§ÙĦÙĬ":6365,"ĠÙĪØ¬ÙĩØ©":6366,"ĠØ§ÙĦÙħØ³Ø§ØŃØ©":6367,"ion":6368,"Ø§ØµÙĦØ©":6369,"ĠØ§ÙĦØºÙĦØ§Ùģ":6370,"ĠØ³ÙĪ":6371,"ĠØ¯Ùģ":6372,"Ġ1936":6373,"ĠÙĪØªÙĥÙĪÙĨ":6374,"ĠØºÙĬØ±ÙĩØ§":6375,"ĠØ³ÙħÙĬØª":6376,"ĠÙĪØ¨Ø¹Ø¯ÙĩØ§":6377,"96":6378,"ĠØªØ²ÙĬØ¯":6379,"ĠÙħÙĪØ³ÙĥÙĪ":6380,"Ġ1940":6381,"ĠØ§ÙĦÙħÙĥØ³ÙĬÙĥ":6382,"ĠÙĪØ§ÙĦÙĤØ±":6383,"ĠÙĨØ¬ÙĪÙħ":6384,"ĠØ§ÙĦØ°ÙĥØ±":6385,"Ø§ÙĦÙĬØ§Øª":6386,"Ø¯Ø§ÙĪÙĦ":6387,"ĠØ§ØªÙģØ§ÙĤÙĬØ§Øª":6388,"ĠØ·Ø±Ø§Ø¨ÙĦØ³":6389,"ĠØ§ÙĦÙħØ´Ø±":6390,"ĠØ¨Ø§ÙĦÙĦÙĩ":6391,"ÙĨØ¬":6392,"ĠØ¹Ø§ÙĦÙĬ":6393,"ĠØ¨ÙĤÙĪØ©":6394,"ĠÙħÙĨØ´":6395,"Ġ1955":6396,"ĠØ§ÙĦØ§ØŃØªØ±":6397,"ÙĤÙĪØ¨":6398,"ĠØ§ÙĦÙħØ¨ÙĨÙī":6399,"ĠØªØªÙħÙĬØ²":6400,"Ø§ÙĩØ±Ø§Øª":6401,"ÙĪØ³ÙĪÙģØª":6402,"ĠØªÙĤÙĪÙĦ":6403,"Ø¹ÙħØ¯Ø©":6404,"ĠØªØŃØªØ§Ø¬":6405,"ĠØ§ÙĦØ¬ÙħÙĩÙĪØ±":6406,"ĠØ§ÙĦÙħØ«ÙĦ":6407,"ĠØ±Ø¨ÙĬØ¹":6408,"ĠØªØ±Ø¬ÙħØ©":6409,"ĠØ§ÙĦÙĩÙĬØ¯Ø±ÙĪØ¬ÙĬÙĨ":6410,"ĠÙĪØ§ÙģÙĤ":6411,"ĠØ§ÙĦØ¬ÙħØ¹Ø©":6412,"ĠØ´ÙĪ":6413,"ĠØ§ÙĦØªØŃÙĤ":6414,"Ø§ÙĨÙĪÙĬ":6415,"ĠØ§ÙĦÙĨØ¬Ø§ØŃ":6416,"ĠØ§ÙĦÙĥØ¨Ø¯":6417,"ĠÙħØŃÙĥÙħØ©":6418,"ĠØ¬Ø¹ÙģØ±":6419,"ĠÙħØ³ØªØ´ÙģÙī":6420,"ĠØ§ÙĦØ¥Ø°Ø§Ø¹Ø©":6421,"ÙĥØ±ÙĪØ³ÙĪÙģØª":6422,"ØªÙĦØ·":6423,"ĠØ·Ø¨ÙĬØ¹ÙĬ":6424,"ĠØ¨Ø§ÙĦØ±ØºÙħ":6425,"ĠÙĪÙħØª":6426,"ĠØ´ÙĬØ¦Ø§":6427,"ĠØ§ÙĦØ£Ø¨ØŃØ§Ø«":6428,"ĠØªÙħØªØ¯":6429,"ĠØ£Ø±Ø¨":6430,"ĠÙĦØ¬ÙħÙĬØ¹":6431,"ĠØŃÙĤÙĬÙĤØ©":6432,"ĠØ§ÙĦÙĨÙģØ³ÙĬ":6433,"ĠØ§ÙĦØ±ÙĬØ§ØŃ":6434,"ĠÙħØ¬ÙħØ¹":6435,"ĠØªØ¬Ø±Ø¨Ø©":6436,"ÙĨØ§Ø·ÙĬØ³ÙĬØ©":6437,"ĠØ§ÙĦØ¬ÙħØ§Ø¹Ø©":6438,"Ø²ÙĬÙĦ":6439,"Ø¨Ø±Ø§":6440,"ĠÙĥØª":6441,"ĠØ§ÙĦÙģØªØŃ":6442,"ĠØªØ³ØªØ·ÙĬØ¹":6443,"ĠÙģØ§Ø³Øª":6444,"ĠØ§ÙĦØ¯Ø³Øª":6445,"ĠØµØŃÙĬ":6446,"ĠÙħÙħØ§Ø±Ø³Ø©":6447,"bel":6448,"ĠØ§ÙĦØµÙĨØ§Ø¹Ø©":6449,"ĠØ§Ø¶":6450,"ĠÙĦÙĦØ³ÙĦ":6451,"ĠØ§ÙĦÙĥÙĩØ±Ø¨Ø§Ø¡":6452,"Ø¯ÙĪ":6453,"ĠØ§ÙĦØ¬ÙĬ":6454,"ĠØ§ÙĦÙĦØ§Ø¹Ø¨ÙĬÙĨ":6455,"36":6456,"ĠØ³ÙĩÙĦ":6457,"ĠØ·Ø±Ø§Ø²":6458,"Ø¨ÙĪØ·":6459,"Ø³ÙĪ":6460,"ĠØ¨ÙĨÙĬØ©":6461,"ĠÙħØ§ÙĬÙĥÙĦ":6462,"ØªØ²ÙĪØ¬":6463,"ĠÙħÙĨØ®ÙģØ¶Ø©":6464,"ĠØ¨Ø§ØªØ¬Ø§Ùĩ":6465,"ĠØ´Ø§Ø¹Ø±":6466,"ÙĨØ§ÙĬØ©":6467,"ÙĥÙħØ§ÙĦ":6468,"ĠØªÙĪØ¬Ùĩ":6469,"ÙĪÙĤØ±":6470,"ĠØªÙħÙĪØ²":6471,"ĠØ´ØºÙĦ":6472,"ĠÙĬÙĨØ¨ØºÙĬ":6473,"ÙĦÙĩØ§":6474,"ĠØ§ÙĦÙħØ¨Ø§Ø´Ø±":6475,"ĠØ¥ØµÙĦØ§ØŃ":6476,"ÙģØ°":6477,"Ø§Ø·ÙĬØ©":6478,"ĠØŃÙħØ¯":6479,"ĠØ±ØŃÙĦ":6480,"ĠÙĪØ¨ÙĤÙĬ":6481,"Ø§ÙĦÙħÙĨØ§Ø®":6482,"ĠÙĬØ¬Ø¯":6483,"ĠØ§ÙĦÙĥÙĦÙħØ§Øª":6484,"Ø¢Øª":6485,"ĠØ§ÙĦØ£Ø¹Ø±Ø§Ø¶":6486,"ĠØŃØ§ÙĦÙĬ":6487,"ĠØ¥Ø¬ÙħØ§ÙĦÙĬ":6488,"ĠØ§ÙĦÙĨØµÙĪØµ":6489,"ØµØ¯ÙĤ":6490,"ĠØ±Ø£ÙĬ":6491,"ØŃØªÙī":6492,"ĠØ§ÙĦØµÙĨØ§Ø¹ÙĬ":6493,"ÙĨØ¸Ø±":6494,"ĠØŃØª":6495,"ÙĪÙĬÙĥ":6496,"Ø§ØºÙĪ":6497,"Ġ1941":6498,"ÙĬØ³Ø±":6499,"ĠÙĩÙĪÙĦÙĨØ¯Ø§":6500,"ĠÙĪØ£ÙĦ":6501,"ĠÙħÙĤØ§ÙĦØ§Øª":6502,"ĠØ£ÙĤØ±Ø¨":6503,"ĠØ£Ø¹Ø¯":6504,"ĠÙĦÙĬØ¹":6505,"ĠØ¬Ø°":6506,"ĠØ§ÙĦØŃØ±Ø§Ø±ÙĬØ©":6507,"ĠØ±Ø¨Ø·":6508,"Ø¯ÙħØ§Ø¬":6509,"Ø®ÙĦÙĤ":6510,"ĠØ§ÙĦØ¬ÙħØ¹":6511,"ĠØ®ÙĬØ±":6512,"ĠÙĤÙĦÙĬÙĦØ§":6513,"ĠØ§ÙĦØ´ÙĬÙĪØ¹ÙĬ":6514,"ĠÙĨØµØ±":6515,"ĠØ§ÙĦÙħÙĪØ³ÙĪØ¹Ø©":6516,"ÙģØ§Ø±":6517,"ĠØªØ§Ø¨Ø¹":6518,"ĠÙĤØ§Ø¯Ø±Ø©":6519,"Ø°ÙĬØ¨":6520,"ĠØ§ÙĦØ¹ØµØ¨ÙĬØ©":6521,"ĠØªØ±ØªÙĬØ¨":6522,"ĠØ¨ÙĨÙģØ³Ùĩ":6523,"Ø¶ÙħØ§Ùħ":6524,"ÙģÙĬÙĬÙĨ":6525,"ĠØ§ÙĦÙĨÙħØ·":6526,"ĠØ§ÙĦÙħØ¯Ùī":6527,"ÙģØ§ÙĪØ¶Ø§Øª":6528,"ĠØ§ÙĦØªØ¯Ø±ÙĬØ¨":6529,"ĠØ§ÙĦØªÙĦÙģØ²ÙĬÙĪÙĨ":6530,"Ġ1000":6531,"Ø¤Ø§ÙĦ":6532,"Ġ140":6533,"ĠØ§ÙĦÙħÙĪØ§Ø±Ø¯":6534,"ĠØ§ÙĦØºØ±":6535,"ĠÙĨØ§ØµØ±":6536,"ĠÙħÙĪÙĤÙģ":6537,"ĠÙĪÙħØ´":6538,"ÙģÙģÙĬ":6539,"ĠÙĪÙĥØªØ¨":6540,"Ø§Ø³Ùĥ":6541,"ĠÙĪØ§ÙĦÙħØª":6542,"ÙĬÙĤÙĪÙĦ":6543,"ĠSt":6544,"ĠÙĬØ³ÙĪØ¹":6545,"ĠØ§ÙĦØ¹Ø§Ø´Ø±":6546,"ĠÙĤØ¯ÙĬÙħ":6547,"ÙĪÙħÙĬÙĨ":6548,"ĠØ³ÙģÙĬÙĨØ©":6549,"ÙĦÙħØ§ÙĨÙĬØ§":6550,"ĠØ£ÙĬØ¯ÙĬ":6551,"ĠØ§ÙĦØ±Ø¨ÙĬØ¹":6552,"Ø¯ÙĨ":6553,"Ø¹Ø¨Ø¯":6554,"ĠÙħØ¤ÙĤØª":6555,"ĠØ§ÙĦØ§Ø¨ØªØ¯Ø§Ø¦ÙĬØ©":6556,"ĠØ¥Ø¨":6557,"ĠØ¬ÙĩÙĪØ¯":6558,"ÙĬØ³ØªØ®Ø¯Ùħ":6559,"ÙĪØ§ÙĥØ¨":6560,"ĠØ§ØªØ®Ø°":6561,"ĠØ¨ÙĪØ³":6562,"ĠØºÙĦ":6563,"Ġ120":6564,"ĠØ¹ÙĬØ³Ùī":6565,"ĠØ§ÙĦØªØ±ÙĥÙĬ":6566,"ÙĪÙĤØ©":6567,"ĠØ§ÙĦØ³Ø§Ø¦ÙĦ":6568,"ĠÙħØªÙħ":6569,"ĠÙħÙĪØ¶Ø¹":6570,"ĠØ§ÙĦÙħÙħØªØ§Ø²":6571,"Ø¬Ø±ÙĬØª":6572,"ub":6573,"ÙĨØ§Ùģ":6574,"Ø®Ø±Ø§":6575,"ÙĪÙĬØ´":6576,"ĠÙĬÙħØ±":6577,"ĠØ¯ÙĪÙĦÙĬ":6578,"Ø§ÙĦØµ":6579,"ĠÙĦØªØŃÙĤÙĬÙĤ":6580,"ÙģÙĬØ°ÙĬ":6581,"Ø¯ÙģÙĨ":6582,"ÙħÙĦÙĪÙĥ":6583,"ĠÙĪØ¸ÙĬÙģØ©":6584,"ĠØ§ÙĦÙĥÙĦØ§Ø³ÙĬÙĥÙĬØ©":6585,"ĠØ§ÙĦØ£ÙĪÙĦÙħØ¨ÙĬØ©":6586,"ĠØ§ÙĦÙĤØ§Ø±Ø©":6587,"ĠÙħÙĪØ§Ø¬ÙĩØ©":6588,"ĠØ§ÙĦÙħØ·Ø¨":6589,"ĠÙĩØ²ÙĬÙħØ©":6590,"ĠØ·ÙĪØ±":6591,"Ø¨Ø§Ø¹":6592,"ĠØ§ÙĦØŃØ§Ø¶Ø±":6593,"Ø¬Ø±Ø¯":6594,"ĠØ£Ø±Ø¯":6595,"ÙĤØ§Ø±ÙĨØ©":6596,"ĠÙħØ³Ø§Ø¹Ø¯Ø©":6597,"45":6598,"ĠÙĦØªØµ":6599,"Ø§ÙĩØ¨":6600,"ĠÙĬØªØŃØ¯Ø«":6601,"ÙĤØ§ÙĦÙĬÙħ":6602,"ĠØ£ÙĦØ§":6603,"ĠÙĪØ³ÙĦÙħ":6604,"Ġto":6605,"Ġwww":6606,"ĠÙħØ¸":6607,"ĠØ§ÙĦØºØ§Ø¨Ø§Øª":6608,"ĠØ¨ÙĦØ¯ÙĬØ§Øª":6609,"ĠØ§ÙĦØªØµÙĨÙĬÙģ":6610,"38":6611,"Ø·ÙĦØ¨Ø§Øª":6612,"Ġ1934":6613,"ĠÙĦÙĪØŃØ©":6614,"ĠØ§ÙĦØ´Ø±ÙĬØ¹Ø©":6615,"ØŃØ§ÙĬØ§":6616,"ĠØ¨Ø§ÙĦÙħØ±":6617,"ĠØ¨Ø´Ø¯Ø©":6618,"up":6619,"Ġ1930":6620,"ĠØ§ÙĦØªØ¶":6621,"Ø§ÙĨÙĬÙĨ":6622,"Ø±ÙĬÙĬÙĨ":6623,"ĠÙĬØ¹Ø§ÙĨÙĪÙĨ":6624,"ĠØ§ÙĦØµØŃÙģ":6625,"ØªÙĬÙĦ":6626,"ÙģØ§Ø¯Ø©":6627,"ØªÙĬØ±":6628,"Ø«Ø¨Øª":6629,"ĠØ§ÙĦØ«Ø¯ÙĬ":6630,"Ø´ÙĬØŃ":6631,"ØĮ":6632,"ĠÙĬÙĥØªØ¨":6633,"Ø´Ø§Ø±Ø¯":6634,"ĠØ§ÙĦØ¯Ø¹ÙĪØ©":6635,"ĠØ³Ø§ØŃØ©":6636,"Ø§ÙĥØ¨":6637,"ĠÙħÙĪØ³ÙĬÙĤÙī":6638,"ĠØ´ÙħØ³":6639,"ve":6640,"ÙĨÙĬØª":6641,"ĠØ¥ÙħØ§Ø±Ø©":6642,"ĠÙĪØ¨ÙĦ":6643,"ĠØ§ÙĦÙĩÙĨØ¯ÙĬ":6644,"ĠÙħØ¨Ø§Ø±Ùĥ":6645,"Ġ1918":6646,"ĠØ§ÙĦØ¹ÙĨÙģ":6647,"Ø¯Ø±Ø§ÙĦÙĬØ©":6648,"ĠØ§ÙĦØ®ÙĦØ§ÙģØ©":6649,"ĠÙĦØ³ÙĨØ©":6650,"ÙĤÙĬÙĨ":6651,"ĠÙħÙĤØ§Ø·Ø¹Ø§Øª":6652,"Ġ1861":6653,"ĠØªÙĪÙĤÙģ":6654,"ĠØ§ÙĦØŃÙĦÙģØ§Ø¡":6655,"ĠØ§ÙĦØ£Ø³ØªØ§Ø°":6656,"ĠÙĪØ§ÙĦØ§ÙĨ":6657,"ĠØ²ÙĬØ¯":6658,"ĠÙħØ§Ø¯":6659,"ĠØ§Ø³ØªÙĤØ±":6660,"ĠØ§ÙĦØªØ§Ø±ÙĬØ®ÙĬ":6661,"ĠØ£Ø¨ÙĬÙĩ":6662,"ØŃØ§ÙĪÙĦ":6663,"ĠØ¥Ø¹":6664,"ĠØ§ÙĦØ£ÙĦØ¨":6665,"ĠØ§ÙĦØ¯Ø§Ø®ÙĦ":6666,"ĠÙĪØ§ÙĦØ³ØªÙĪÙĨ":6667,"ĠØ£ÙĨØªØ¬":6668,"ĠØ§ÙĦÙĤØ¶Ø§ÙĬØ§":6669,"ĠÙģØ±ØµØ©":6670,"ĠØ§ÙĦØ§ÙĩØªÙħØ§Ùħ":6671,"ĠØ¨ØµÙģ":6672,"ĠØ§ÙĦØµØºØ±":6673,"ĠØ¨Ø±Ø´ÙĦÙĪÙĨØ©":6674,"ĠØ£Ø³Ø§Ø³Ø§":6675,"Ø§ÙĥØªØ´Ø§Ùģ":6676,"Ø§ØŃÙĬÙĨ":6677,"Ø³Ø±ØŃÙĬ":6678,"ÙĤØ·Øª":6679,"ĠØ²Ø¹ÙĬÙħ":6680,"ÙĬØ·Ø§ÙĨ":6681,"ist":6682,"ĠÙĬØ®ØªÙĦÙģ":6683,"ĠØ§ÙĦØ£Ø«":6684,"ĠØ§ÙĦÙħØ´ØªØ±Ùĥ":6685,"Ø±ÙĬÙĥØ§":6686,"ĠÙħØ´ØªØ±Ùĥ":6687,"ĠØ§ÙĦØŃÙĬÙĪØ§ÙĨ":6688,"ĠØ§ÙĦÙħØ·Ø§Ø±":6689,"ĠØ§ÙĦÙħØ±ØªØ¨Ø·Ø©":6690,"ĠØ§ÙĦÙħÙĪØ³ÙĬÙĤÙĬ":6691,"48":6692,"ĠØ¨ÙĪØª":6693,"ĠØ£ÙħØ±Ø§Ø¶":6694,"ĠØ¯Ø®ÙĦØª":6695,"ĠØ§ÙĦØ£Ø³ÙĦÙĪØ¨":6696,"Ø·ÙĦÙĤØª":6697,"ĠØŃÙĬØ§ØªÙĩØ§":6698,"ĠØ´Ø¹Ø§Ø±":6699,"Ġ46":6700,"ĠØ§Ø³ØªØ®Ø¯Ø§ÙħÙĩ":6701,"ĠÙĦØªØŃØ¯ÙĬØ¯":6702,"ĠØ£Ø°":6703,"Ø¯Ø§Ø±":6704,"ĠØ£ÙĤØ³Ø§Ùħ":6705,"ĠØ§ÙĦØ±Ø¹Ø§ÙĬØ©":6706,"ĠØ§ÙĦØ£Ø´ÙĬØ§Ø¡":6707,"ĠØŃØ§ÙģØ¸":6708,"Ø²ÙĬØ¯":6709,"ĠÙħØ·ÙĦØ¹":6710,"ĠØ§ÙĦÙĨÙħØ³Ø§":6711,"ĠØ´Ùĩ":6712,"ĠÙħØ¦Ø§Øª":6713,"ÙĬÙĨØ§Ø¡":6714,"ĠØ§ÙĦØ¥ØµØ¯Ø§Ø±":6715,"ĠÙĦØ§ÙĨØª":6716,"ĠØ§ÙĦØ¯Ø§Ø±":6717,"Ø¨Ùĥ":6718,"ÙĪØ±Ø§ÙĨ":6719,"ĠØ§ÙĦØ§Ø¬ØªÙħØ§Ø¹":6720,"ĠØ§ÙĦØ³ÙģÙĬÙĨØ©":6721,"ĠØ§ÙĦØ³Ø±Ø¹Ø©":6722,"ĠØ¨Ø§ÙĬ":6723,"ĠÙĪØ¸Ø§Ø¦Ùģ":6724,"ĠØ§ÙĦØªØµÙĪÙĬØª":6725,"ĠØªÙħØ§Ùħ":6726,"ran":6727,"ĠÙĨØ³Ø®":6728,"ĠÙģÙĬØª":6729,"Ø²ÙĤ":6730,"ĠÙĨØ´Ø±Øª":6731,"ĠØ³Ø¯":6732,"ĠØ¹ÙĦØ§ÙħØ©":6733,"31":6734,"ĠØªÙħÙĬØ²":6735,"Ø§ÙĥÙĪ":6736,"ĠÙĪØ±Ø¨ÙħØ§":6737,"oc":6738,"ĠØ³ÙĬØªÙĬ":6739,"ĠY":6740,"ØºÙĦØ§ÙĤ":6741,"ĠØ§ÙĦÙħÙĥØª":6742,"ĠØ§ÙĦØ£ÙĥØ³Ø¬ÙĬÙĨ":6743,"ĠØ¥ÙĨØ´":6744,"ĠØªØ¬Ø§ÙĪØ²":6745,"ĠØ§ÙĦÙĪÙĦØ§Ø¯Ø©":6746,"76":6747,"ĠØ³Ø§ÙĦÙħ":6748,"Ø³Ø§Ø¯":6749,"ĠØ§ÙĦØ£ÙģØ±ÙĬÙĤÙĬØ©":6750,"ĠØ£ÙĨØ¯ÙĬØ©":6751,"ĠØ§ÙĦØ£ÙĪØ³":6752,"ĠØ±ÙĬØªØ´Ø§Ø±Ø¯":6753,"ÙĦØ§ÙĨ":6754,"ĠÙħÙĦÙģ":6755,"ĠØ§ÙĦÙħØ³Ø§Ø¹Ø¯Ø©":6756,"ĠØ§ÙĦØªØŃÙĤÙĬÙĤ":6757,"ĠØ§ÙĦØªÙĩ":6758,"ĠØ§Ø±ØªØ¨Ø§Ø·":6759,"ie":6760,"ĠØ§ÙĦÙħÙĪØ§Ø·ÙĨÙĬÙĨ":6761,"Ú¤":6762,"ĠØ§ÙĦÙģÙĥØ±Ø©":6763,"ĠØ§Ø®ØªØµ":6764,"ĠØ¨ÙģØ¶ÙĦ":6765,"Ø§Ø¯ÙĪ":6766,"ÙĤØ±Ø§Ø·ÙĬØ©":6767,"ĠØªÙĪØ£":6768,"ĠØ¶Ø®ÙħØ©":6769,"Ø¬Ø²ÙĬØ±Ø©":6770,"Ø®ÙĬØ±":6771,"ĠØºØ²ÙĪ":6772,"ĠØ§ÙĦÙĤØ§ÙĨÙĪÙĨÙĬØ©":6773,"ĠÙħÙĩÙħØ§":6774,"ĠÙĦÙĦØ¶":6775,"ĠØ§ÙĦÙħØ¬Ø§ÙĦØ§Øª":6776,"ĠØ£ÙĪÙĨ":6777,"ĠÙĪØ§ÙĦØ¹ÙĦÙĪÙħ":6778,"ĠØ§ÙĦÙĪØ§Ø¯ÙĬ":6779,"ĠØ§ÙĦÙħØºÙĨØ§Ø·ÙĬØ³ÙĬ":6780,"ĠØ§ÙĦØ£Ø·ÙĦØ³ÙĬ":6781,"ĠÙĪØ¹Ø¯":6782,"ĠØ§ÙĦØ£ÙĤØµÙī":6783,"Ø£ÙĨÙĪØ§Ø¹":6784,"ĠØ§ÙĦØ£ÙĦÙħØ§ÙĨ":6785,"ĠØ§ÙĦØ¨Ø§ØŃØ«ÙĬÙĨ":6786,"ĠØ¨ÙĬØ§ÙĨ":6787,"ÙĪØ³Ùħ":6788,"ĠØ§Ø¬ØªÙħØ§Ø¹":6789,"ĠØ§ÙĦÙĩØ¯":6790,"Ø³Ø¹":6791,"ĠØ§ÙĦØ³ÙĨÙĬÙĨ":6792,"ĠØ£ÙĤØ±":6793,"ĠØªØ¯ÙħÙĬØ±":6794,"Ø§Ø´Ø¯":6795,"ĠØ§ÙĦØ£ÙĪÙĦÙĬ":6796,"ÙĬØµ":6797,"ĠØ§ÙĦØŃÙĤÙĬÙĤÙĬØ©":6798,"ĠØ§ÙĦÙħØµØ±ÙĬÙĬÙĨ":6799,"ĠØ§ÙĦØ§Øº":6800,"ÙĪÙĦÙĤØ¯":6801,"ØªÙĩÙħØ§":6802,"ĠØ¨Ø³ÙĩÙĪÙĦØ©":6803,"ÙĪØªØª":6804,"ĠØ³ÙĦÙĪÙĥ":6805,"Ø§Ø²ÙĬØº":6806,"ĠØ§ÙĦÙħÙĤØ¨":6807,"ĠØ¢ÙĦØ©":6808,"ĠØ§ÙĦØ£ÙĪØ±Ø§ÙĤ":6809,"ĠÙħØ³Ø§Ø±":6810,"85":6811,"Ø¨ÙĪÙĨ":6812,"ĠÙĦÙĨÙģØ³":6813,"ÙĦÙĨØ¯ÙĬØ©":6814,"Ø°Ø§Ø¡":6815,"ÙĪØ¯ÙĬÙĪÙħ":6816,"ĠØ§ÙĦØ³ÙĥÙĨÙĬØ©":6817,"ØªØ§Øª":6818,"ÙĪÙĤÙĬØ©":6819,"ĠØ§ÙĦÙĬØ§Ø¨Ø§ÙĨÙĬ":6820,"ĠØ§ÙĦÙħØ·Ø§Ùģ":6821,"ØºØ°ÙĬØ©":6822,"Ġx":6823,"ĠØ§ÙĦØŃÙħØ§ÙĬØ©":6824,"ĠØ§ØŃØªÙģ":6825,"ĠÙħØ³Ø¤":6826,"ĠÙĦÙħØŃØ§ÙģØ¸Ø©":6827,"Ø¬Ø§Ø²Ø§Øª":6828,"ĠØ§ÙĦÙĨÙĪØ±":6829,"ĠÙĤØ¯Ø±Ùĩ":6830,"ĠÙģÙĥØ±":6831,"ĠÙĬØªØ±":6832,"ĠØ§ÙĦÙĥØ´Ùģ":6833,"ĠØ§ØŃØªØ±":6834,"ĠØ§ÙĦØµÙĬÙĨÙĬ":6835,"ĠØ§ÙĦÙħÙĤØ§Ø·Ø¹Ø©":6836,"ard":6837,"32":6838,"ĠØ§ÙĦØ£ØµØºØ±":6839,"if":6840,"ÙĤØ§Ø¦ÙĤ":6841,"Ø¹ÙĬÙĨÙĬØ§Øª":6842,"ĠØ¬Ø§Ø¡Øª":6843,"ĠØ¨ÙĤØ§ÙĬØ§":6844,"ĠØ§ÙĦØ·Ø¨ÙĬØ¨":6845,"ĠØ§ÙĦØ±Ø³Ø§ÙĦØ©":6846,"ĠØ§ÙĦØ£ØºØ§ÙĨÙĬ":6847,"ĠØ§ÙĦÙĬÙĪÙħÙĬØ©":6848,"ÙĪÙĩØ°Ùĩ":6849,"ÙģØ§Ø¶Ø©":6850,"ØºÙĨÙĬØ©":6851,"Ø¦Ùĥ":6852,"ĠØ¨Ø¯ÙĬ":6853,"ĠÙĦÙĦÙĤÙĪØ§Øª":6854,"ĠÙħØ¨Ø¯Ø£":6855,"ĠÙģØµ":6856,"ÙĪÙģØ±Ø©":6857,"ĠØ§ÙĦÙħÙģØªÙĪØŃØ©":6858,"Ø¯Ø¹":6859,"ĠØ§ÙĦÙĤØ¶ÙĬØ©":6860,"ĠÙĬØ³Ø§Ø¹Ø¯":6861,"Ú©":6862,"ĠØ§ÙĦÙĩØ§Ø¯":6863,"ĠØ¥ÙĬÙģ":6864,"ĠØªØ±ÙĥÙĬØ²":6865,"ĠÙģØ£ÙĨ":6866,"ĠÙħØ¬Ø¯Ø¯":6867,"ĠØ§ÙĦØ³ÙĦØ§ØŃ":6868,"ĠØ§ÙĦØ¥ÙĬØ±Ø§ÙĨÙĬØ©":6869,"Ø¬Ø§Ùħ":6870,"ĠÙħØ³ØªÙĤÙĦ":6871,"ĠØ§ÙĦÙħØ´ÙĥÙĦØ©":6872,"ÙĨÙĪÙĨ":6873,"ĠØªØ£Ø«Ø±":6874,"ĠØ³ÙĬØ·Ø±Ø©":6875,"ĠÙĪØ§ÙĦØªÙĤ":6876,"ĠØ§ÙĦØ¹Ø¶ÙĪÙĬØ©":6877,"Ġlabel":6878,"ĠØ§ÙĦØ¥ØºØ±ÙĬÙĤ":6879,"ĠØ±Ø§Ùħ":6880,"ĠÙħØ¯ÙĬÙĨ":6881,"ĠØªÙħØ«ÙĬÙĦ":6882,"ÙĦØ·Ø§ÙĨ":6883,"ĠÙĩÙĨØ¯":6884,"ĠØ§ÙĦÙĥØ§Ùħ":6885,"ĠÙĦÙħØ¯ÙĬÙĨØ©":6886,"ÙĪØ§ÙĩØ±":6887,"ĠØ³ÙĦØ§Ùħ":6888,"Ġalias":6889,"ĠÙĪÙĤÙģ":6890,"ĠØ§ÙĦÙħØ±ÙĥØ¨Ø§Øª":6891,"ĠØ¥Ø®":6892,"ĠØ³ÙĦØ§ÙĦØ©":6893,"ĠØ§ÙĦØ§Ø¯":6894,"ĠØ§ÙĦØ£Ø³Ø¨Ø§Ø¨":6895,"ĠCh":6896,"ÙĪØ§Ø¦Ø¯":6897,"ĠÙĥÙĪ":6898,"Ø§ÙĤÙģ":6899,"ĠØªÙģØ§Ø¹ÙĦ":6900,"Ġ1953":6901,"Ø§ÙħØ±Ø©":6902,"ĠÙĬÙĪØŃ":6903,"Ø¹ÙħØ±Ø©":6904,"ate":6905,"ĠØ¸Ø§ÙĩØ±Ø©":6906,"ÙĪØ§ÙģÙĤØ©":6907,"ĠØ§ÙĦØŃØ±Ùģ":6908,"ĠØ±Ø£Ùī":6909,"ĠÙĪØ®ØµÙĪØµ":6910,"ĠØ±ØªØ¨Ø©":6911,"ĠØ§ÙĦØ®Ø·Ø§Ø¨":6912,"ĠØ§ÙĦÙĥÙĬÙħÙĬØ§Ø¡":6913,"ĠÙĬØªÙħÙĥÙĨ":6914,"ÙĪØ§Ø¦Ùģ":6915,"ĠØ®ÙĦÙĬØ¬":6916,"Ġaliases":6917,"ĠÙĪØªØ£":6918,"ÙĦÙĨØ¯ÙĬ":6919,"ĠØµØŃØ©":6920,"ĠØªØµÙĨÙĬØ¹":6921,"Ø§ÙĨÙĬÙĪÙħ":6922,"ĠØ§ÙĦØŃØ¶Ø§Ø±Ø©":6923,"ĠØ£ÙĬØ©":6924,"ĠØ§ÙĦÙħÙĨØ²":6925,"ÙĥØ³ÙĬ":6926,"ĠØªÙĪÙĨ":6927,"ĠØ§ÙĦÙħÙĦØŃ":6928,"ĠÙĦÙĥÙĪÙĨ":6929,"ĠØ¹Ø§ÙĦÙħÙĬØ©":6930,"ĠØªØ¶ÙħÙĨ":6931,"ÙĪØ§Ø·":6932,"ĠØ¬ÙĩØ¯":6933,"Ġ1938":6934,"ak":6935,"ĠØŃÙĪØ¶":6936,"ĠØ§ÙĦØ²ÙĬØªÙĪÙĨ":6937,"37":6938,"ĠÙĪØ§ÙĦÙģÙĦ":6939,"ĠØ§ÙĦÙĥÙĩØ±":6940,"ĠØ§ÙĦØ¯Ø®ÙĪÙĦ":6941,"ĠØ§ÙĦØ³ÙĪØ¯Ø§Ø¡":6942,"Ġstyle":6943,"ØµÙĦØŃØ©":6944,"Ø§Ø¬Ø±ÙĬÙĨ":6945,"ĠØ³Ø¬ÙĨ":6946,"ĠØ§ÙĦÙħØ¹ÙĬØ´":6947,"ĠØ±ÙĪØ¨":6948,"92":6949,"ĠÙĬØ´ÙħÙĦ":6950,"ĠØ§ÙĦÙħÙĥØ±":6951,"ĠØ¨ÙĨØªÙĬØ¬Ø©":6952,"ØªÙĬÙĥ":6953,"ĠØ£ÙĦÙĥ":6954,"ĠØ§ÙĦÙħØ¹Ø§Ø±Ùĥ":6955,"ĠÙĥÙĪÙĨÙĩØ§":6956,"ĠÙĦØªØµØ¨ØŃ":6957,"Ġ1944":6958,"ÙħØ«ÙĦØ§":6959,"Ø¯Ø±ÙĬ":6960,"ĠØ§ÙĦØªØŃØ§ÙĦÙģ":6961,"ĠØ§ÙĦØ§ÙĨØªÙĤØ§ÙĦ":6962,"ĠØ¥Ø¯ÙĪØ§Ø±Ø¯":6963,"ĠÙĬØ¬ÙĬØ¯":6964,"ĠØ§ÙĦÙĤØ·Ø¹":6965,"ØªÙĦÙĤÙī":6966,"ĠÙĬØ¹Ø·ÙĬ":6967,"ĠØ¥ÙģØ±ÙĬÙĤÙĬØ§":6968,"ĠØ§ÙĦØ´Ø±Ø¹ÙĬØ©":6969,"ĠÙĬØ·":6970,"ÙĬØ±ÙĦÙĨØ¯Ø§":6971,"ĠØ£Ø¨ØŃØ§Ø«":6972,"ĠØ´Ø®ØµÙĬØ§Øª":6973,"ĠØ³ÙĦÙħ":6974,"ÙĦØ§ÙĨØ¯":6975,"Ø²ÙĪÙĨ":6976,"ØºÙĪØ·":6977,"Ø¯ÙħØ¬":6978,"ĠØ£ÙħØ«Ø§ÙĦ":6979,"ĠÙĪÙĥÙĨ":6980,"Ø§ÙĩÙĬ":6981,"ĠØ§ÙĦØ¹ÙĦØ§ÙħØ©":6982,"ĠØ§ÙĦØ£ØŃØ²Ø§Ø¨":6983,"34":6984,"ĠÙĪØ§ÙĦØ´Ø±":6985,"Ø±ÙĬØ¨ÙĬ":6986,"ĠØ§ÙĦØ£ÙĦÙĪØ§ÙĨ":6987,"ĠØ§ÙĦÙħØ§ÙĦÙĬ":6988,"ĠØ§ÙĦÙĨØªÙĬØ¬Ø©":6989,"ØªØ£Ø³Ø³Øª":6990,"ØªØ´ÙħÙĦ":6991,"ĠÙĦØ¨Ø±":6992,"ĠØ§ÙĦÙħÙĥØªØ¨Ø©":6993,"ÙħÙĪØ±":6994,"ÙĦÙĬÙĦØ©":6995,"ĠØ¨Ø§ÙĦØªØŃ":6996,"ĠØ§ÙĦØ±Ø³Ùħ":6997,"Ø§Ø«ÙĬØ©":6998,"ĠØ§ÙĦØºØ²ÙĪ":6999,"ĠØ§ÙĦØ£Ø¯Ø§Ø¡":7000,"Ġar":7001,"ĠØ§ÙĦØ£ÙĩØ¯Ø§Ùģ":7002,"ĠÙĪÙĬØ´":7003,"ĠØµÙĬÙģ":7004,"ĠÙħÙĪØ²":7005,"Ø·Ø¨Ø©":7006,"ĠÙĬØ¶":7007,"ĠØ§ÙĦØ£ÙģÙĥØ§Ø±":7008,"Ø§ÙĨÙī":7009,"ĠÙĤÙĪÙĦ":7010,"Ø¯Ø±Ø§Ùĥ":7011,"Ø¯Ø±Ø§ÙĦÙĬ":7012,"ĠÙģØ§Ø¹":7013,"ĠÙĪÙħÙĨÙĩÙħ":7014,"ĠØ§ÙĦØªØ¹ÙĦÙĬÙħÙĬØ©":7015,"ØªÙħØ«ÙĬÙĦ":7016,"Ġ44":7017,"ĠØ§ÙĦØŃÙħØ¶":7018,"ĠØ§ÙĦØ§Ø´ØªØ±Ø§ÙĥÙĬØ©":7019,"ĠØ§ÙĦÙħØ¹Ø§ØµØ±":7020,"ĠØ§ÙĦØ§Ø³ØªØ¹ÙħØ§Ø±":7021,"ĠØ§ÙĦÙħØºØ±Ø¨ÙĬ":7022,"ĠØ£Ø¹Ø¸Ùħ":7023,"ĠÙĬØ´Ø¨Ùĩ":7024,"Ø±Ùħ":7025,"ĠØ¨ØªØ³":7026,"ĠÙĥÙĦÙħØ§Øª":7027,"ĠØ³Ø§Ø±":7028,"ĠØ§ØªØµØ§ÙĦ":7029,"ĠÙĥÙĪÙĨÙĩ":7030,"ĠØŃØ§Ùħ":7031,"ØªÙĦØ§ÙģØ§Øª":7032,"ÙĨØ·ÙĬ":7033,"ĠØ§ÙĦØ±Ø§Ø¨Ø·Ø©":7034,"Ø§ÙģØ¹ÙĬ":7035,"ĠØ§ÙĦÙħØ¤ÙħÙĨ":7036,"ĠÙĦÙĦØ§ÙĨ":7037,"ĠØ§ÙĦÙĤØ¨Ø¶":7038,"ÙĪØ§Ø¬ÙĩØ©":7039,"ĠØ§ÙĦÙĤØµÙĬØ±Ø©":7040,"ĠØ§ÙĦÙħÙĬÙĥØ§ÙĨ":7041,"ĠÙĪÙĨÙĬ":7042,"ĠØ¨ÙĦØ¯Ø§ÙĨ":7043,"ĠØ§ÙĦÙħØ³Ø§":7044,"ĠØ¹ÙħÙĪÙħØ§":7045,"Ġnow":7046,"ĠØ§ÙĦÙĨØ§ØªØ¬Ø©":7047,"ÙģÙĪÙĨ":7048,"ĠØŃÙĬØ§Øª":7049,"ĠØ±Ø§Ø¨Ø·Ø©":7050,"ĠØ§ÙĦÙĪØ¬":7051,"ÙĪØ¨ÙĬØ§":7052,"ĠØ²Ø§Ø¯":7053,"Ġ1922":7054,"ĠØ£ÙĤÙĬÙħØª":7055,"ĠØ§ÙĦÙģÙħ":7056,"ĠÙģØ¨ÙĦØº":7057,"ĠÙħÙĨØ¸":7058,"88":7059,"ĠØ±Ø´ÙĬØ¯":7060,"ĠÙĪÙħÙĨØ°":7061,"ĠÙĪØ§ÙĦØ£Ø¯":7062,"Ø§Ø²Ø©":7063,"ĠØªÙħÙĦÙĥ":7064,"ĠØ§ÙĦØ¹ÙħØ§Ø±Ø©":7065,"ĠÙĪØ§ÙĦØ´ÙĬØ®":7066,"ĠØ§ÙĦØ£Ø¬ÙĨØ¨ÙĬØ©":7067,"ĠÙĨØ§Ø¯Ø±":7068,"ĠØ§ÙĦÙĩØ§Øª":7069,"ĠÙĪØ£Ø¯":7070,"ĠÙĬØŃØ§ÙĪÙĦ":7071,"ĠØ¯ÙĬÙģÙĬØ¯":7072,"ÙģØ±Ø©":7073,"Ġ85":7074,"ĠØ§ÙĦØ£Ø·Ø¨Ø§Ø¡":7075,"ĠØ§ÙĦÙħÙĨØ¸ÙħØ§Øª":7076,"ÙħØŃÙħØ¯":7077,"ĠØ§ÙĦÙĥÙĬÙħÙĬØ§Ø¦ÙĬ":7078,"ĠØ§ÙĦÙĤØ§Ø¯Ø±":7079,"97":7080,"ÙĦÙĬØ§ÙĨ":7081,"ĠØ§ÙĦÙħÙĨÙĪØ±Ø©":7082,"ĠØ§Ø¹Øª":7083,"ĠØ§ÙĦØ¨ÙĬØ¦ÙĬØ©":7084,"ĠØ£Ø·":7085,"ĠØ«ÙĦ":7086,"ĠØ§ÙĦØ¯ÙĥØªÙĪØ±Ø§Ùĩ":7087,"ĠØ£ØŃØ¯Ø«":7088,"ĠØªÙĪÙħØ§Ø³":7089,"ĠØ§ÙĦØ¨Ø±ÙĪØªØ³ØªØ§ÙĨØª":7090,"Ġ×":7091,"ĠØ¯ÙģØ§Ø¹":7092,"Ø§Ø¨ÙĩØ©":7093,"ĠÙĥÙħÙĬØ§Øª":7094,"ÙĪØ§Ø¦Ùħ":7095,"ĠØ¹ÙĪØ¯Ø©":7096,"ĠØ¨Ø§ÙĦØ§ÙĨ":7097,"Ø§ÙĦÙħØ³":7098,"ĠÙģÙĦÙħØ§":7099,"ĠØ§ÙĦØ®ÙĦØ§Ùģ":7100,"ĠØ§ÙĦÙĤØ±Ø§Ø¡Ø©":7101,"ĠØ§ÙĦØ£Ø¬Ø²Ø§Ø¡":7102,"ÙĪØµÙĬÙĦ":7103,"ĠØ£ÙĬÙĨ":7104,"ĠØ¬ÙĪØ¬ÙĦ":7105,"ÙĬØªÙĪ":7106,"ĠÙģÙĦØ³Ø·":7107,"Ø§ÙĬØ³":7108,"ĠØ§ÙĦØ¬ÙħÙĬÙĦØ©":7109,"ÙĬÙģÙĬ":7110,"ÙĪÙĩÙħ":7111,"ÙĪØ§Ø³Øª":7112,"ĠØ·Ø±Ø¯":7113,"ÙģØ±Ø¹":7114,"ÙģØ£":7115,"ĠÙĪØ³Ø¨":7116,"ĠÙĩØ§ÙħØ©":7117,"ÙĪÙĬØ¹":7118,"ĠØ§ÙĦÙħØŃØ±Ùĥ":7119,"ĠÙĪØªØŃØ¯ÙĬØ¯":7120,"Ø§ÙĬØªØ¯":7121,"ĠÙĥÙĪÙĥØ¨":7122,"ØŃØ§ÙĪÙĦØ©":7123,"ĠØ§ÙĦÙĨØ§Ø´":7124,"ĠØŃØ±ÙĬØ©":7125,"ĠØ§ÙĦØ´Ø¹ÙĪØ¨":7126,"ÙĤØ±ÙĬØ±":7127,"ÙĬÙĤØ§Ùģ":7128,"ĠØ±ÙģÙĬ":7129,"ÙĤØ±Ø©":7130,"ĠØ¥Ø¶Ø§ÙģÙĬØ©":7131,"ĠØ±ÙĪÙħØ§ÙĨÙĬØ§":7132,"ĠØ§ÙĦØ¨ØµØ±Ø©":7133,"94":7134,"ĠØ®Ø§Ø¶":7135,"ĠÙĪÙĨØ´Ø±":7136,"ĠØ¥ÙĦÙĬÙĩÙħ":7137,"ĠØ§ÙĦØ§ØŃØªÙĬ":7138,"ĠØ§ÙĦØ¨Ø¹Ø«":7139,"ĠÙĪØ³Ø±":7140,"ÙĬÙĦÙĪÙĦ":7141,"ĠØ§ÙĦØ£Ø³Ø¯":7142,"ĠØ¯ÙĬÙĨÙĬØ©":7143,"Ø¹ÙĦØ§ÙĤØ§Øª":7144,"ĠÙĦØ£ÙĥØ«Ø±":7145,"ĠØ§ÙĦÙħÙĨØµØ¨":7146,"ØµØ¯Ø§Ø±Ø§Øª":7147,"ĠÙģØ§Øª":7148,"ÙĤÙĦØ¨":7149,"ĠØ§Ø³ØªØ®Ø¯ÙħØª":7150,"ĠÙĥØ§Ùģ":7151,"ĠØªØ´Ø¨Ùĩ":7152,"ĠØ§ÙĦØ³Ø§Ø¯Ø³Ø©":7153,"ĠØ§ÙĦØŃØ±Ø¨ÙĬØ©":7154,"Ø§Ø¬Ùĩ":7155,"ĠØŃØ¯ÙĬØ«Ø©":7156,"Ġr":7157,"ÙĦÙĨ":7158,"Ø§Ø¨ÙĬØ¨":7159,"ĠØ¹Ø§ÙħØ±":7160,"ÙĪÙĤØª":7161,"Ø§ÙĩØ²":7162,"ÙĦÙģØ©":7163,"ĠØ§ÙĦÙĨÙģØ³ÙĬØ©":7164,"ĠØªØ´Ø§Ø±ÙĦØ²":7165,"ÙĬÙĥÙĪ":7166,"Ø®Ø§ÙĨ":7167,"ĠØ±ÙĪØ²":7168,"ĠØŃØ²ÙĬØ±Ø§ÙĨ":7169,"Ø¨ÙĬØ¹Ø©":7170,"ĠØ£Ø³Ø§Ø³ÙĬØ©":7171,"ĠØ§ÙĦÙģØ±ÙĨØ³ÙĬÙĬÙĨ":7172,"ĠØ§ÙĦØ¶Ø¹":7173,"ĠØ§ÙĦÙħÙĤØ±":7174,"Ġ47":7175,"ÙĪÙħÙĬØ¯ÙĬ":7176,"ĠÙĪØ¶Ø¹Øª":7177,"ĠØ¥Ø¹Ø¯Ø§Ø¯":7178,"ÙĪØ³Ø§":7179,"__":7180,"ĠÙĪÙħØµ":7181,"ĠØ¨ÙĦÙĤØ¨":7182,"ĠØªØ¬Ø¹ÙĦ":7183,"ĠÙĥÙĪÙĦÙĪÙħØ¨":7184,"ĠÙħØ±ÙĥØ²Ø§":7185,"ĠÙģØªØ±Ø§Øª":7186,"Ø®ØµÙĬØ©":7187,"ĠÙĥÙĬØ±":7188,"Ø¦Ø§Ø¨":7189,"ĠØ§ÙĦØ£ØµÙĪØ§Øª":7190,"ĠÙĨØª":7191,"Ġnowiki":7192,"ĠÙĬÙĤØ§ÙĦ":7193,"ĠØ§ÙĦØ¨ÙĨÙĥ":7194,"ĠØ§Ø¹ØªÙħØ¯":7195,"ĠØ§ÙĦÙĦØ¨ÙĨØ§ÙĨÙĬ":7196,"ĠØ§ÙĦÙħÙĦÙĪÙĥ":7197,"ĠÙĬØ£Ø®Ø°":7198,"ĠØ§ÙħØªØ¯Øª":7199,"Ø³Ùĩ":7200,"ĠØµØ¯ÙĬÙĤ":7201,"ØªÙĩØ±Øª":7202,"ÙĬØ¸ÙĩØ±":7203,"Ø´Ø§Ø¯":7204,"ÙĬÙĤÙĪÙħ":7205,"Ø·Ø¨ÙĬÙĤ":7206,"ĠØ§ÙĦÙħØ¤Ø±Ø®ÙĬÙĨ":7207,"Ø¸ÙĬÙħØ©":7208,"86":7209,"Ø®Ø§Ø¨ÙĬØ©":7210,"ĠØ§ÙĦÙħØ´Ø§Ø±ÙĬØ¹":7211,"ĠØ§ÙĦØ£ÙħÙĪØ§ÙĦ":7212,"ÙĦØ°ÙĦÙĥ":7213,"ĠÙĥØ³Ø±":7214,"ĠØ¬ÙĨÙĬÙĩ":7215,"ĠØ§ÙĦÙħØ³ØªØ¹ÙħØ±":7216,"ĠÙĬÙħØªÙĦÙĥ":7217,"ĠÙħØ´Ø§Ø±ÙĬØ¹":7218,"ĠØ§ØŃØªØ¬":7219,"ĠØ§ÙĦØ£Ø±Ø¯ÙĨÙĬ":7220,"ÙħØ§ÙĨÙĬØ©":7221,"ĠØ³ÙħØ¹":7222,"Ø¯Ø£":7223,"ĠØªØ³Ø§Ø¹Ø¯":7224,"ĠØ§ÙĦÙĤØµØµ":7225,"ÙĨØ§ÙĩØ§":7226,"ĠÙĦØªÙĦÙĥ":7227,"ĠÙĬØ¯ÙĦ":7228,"ou":7229,"ĠÙĪÙĬÙĨØ¯ÙĪØ²":7230,"ĠØ§ÙĦÙħÙĬØ«":7231,"ĠØ¨Ø§ÙĦÙĩ":7232,"ĠØ£Ø®Ø¨Ø§Ø±":7233,"ØŃÙĩØ§":7234,"Ø¨Ø±Ø§Ø·":7235,"ĠØ§ÙĦØªØ±ÙĥÙĬØ²":7236,"ĠØ§ÙĦÙħØ¹Ø¯ÙĨÙĬØ©":7237,"Ø§ÙĨÙĥ":7238,"ĠØ§ÙĦØ³ÙĬØ¯Ø©":7239,"ĠØ§ÙĦÙħØ·Ø±":7240,"ĠØ§ÙĦØªÙĪÙĤ":7241,"Ġ1919":7242,"ĠÙħØ£":7243,"ĠØ§ÙĦÙħØ±Ø¬":7244,"ĠØ§ÙĦØ±Ø³ÙĪÙħ":7245,"Ø§Ø·ÙĬØ±":7246,"ĠØ§ÙĦØºØ²":7247,"ĠØ§ÙĦÙħØ¹Ø§Ø¯ÙĨ":7248,"ĠØ¥ØŃ":7249,"ĠØ·Ø¨ÙĤØ§Øª":7250,"ĠØ§ÙĩØªÙħ":7251,"Ø¨ÙĪÙĦ":7252,"ĠØ¨Ø¹ÙħÙĦ":7253,"ĠØŃØµÙĪÙĦ":7254,"ĠØªÙĪØ¬ÙĬÙĩ":7255,"ĠÙĬÙĨØª":7256,"ĠØºØ§Ø¯Ø±":7257,"ĠØ£ÙĤÙĪÙī":7258,"Î±":7259,"ĠØªÙĦÙģØ²ÙĬ":7260,"ĠØªÙĤÙĬÙĬÙħ":7261,"ĠÙĪÙĦÙĩØ§":7262,"ĠÙĪØ²Ø±Ø§Ø¡":7263,"ĠØ§ÙĦØŃØ¯Ø«":7264,"ĠØ´Ø¤ÙĪÙĨ":7265,"ĠØµÙĦÙī":7266,"ĠØ§ÙĦØ²Ø§ÙĪÙĬØ©":7267,"ĠØ¨ÙĬØªØ±":7268,"ĠÙĬÙĪØŃÙĨØ§":7269,"ĠØ¨ÙĨÙĥ":7270,"ĠZ":7271,"ĠØ¨Ø·ÙĪÙĦ":7272,"ÙĤØ§ÙĨ":7273,"Ø§Ø±Ø³Ø§Øª":7274,"ĠØ§ÙĦØŃÙĦÙĤØ©":7275,"ĠØ§ÙĦØ¢Ø³ÙĬÙĪÙĬØ©":7276,"Ġk":7277,"ØªÙħÙĦØ©":7278,"ĠÙĪØ§ÙĦØ¶":7279,"Ø§Ø±ÙĨ":7280,"Ø±ÙĥÙĬØ©":7281,"ĠØ¨ØŃØ±ÙĬØ©":7282,"ĠØ«Ø§Ø¨ØªØ©":7283,"ĠØ§ÙĦÙħØªØ¹Ø¯Ø¯Ø©":7284,"Ġ1937":7285,"ĠÙģÙĬØ±ÙĪØ³":7286,"ãĥ":7287,"ĠÙģØ§Ø³":7288,"Ø§ÙĤØªØµØ§Ø¯ÙĬ":7289,"ĠØ§ÙĦÙħØ³ØªØ®Ø¯ÙħÙĬÙĨ":7290,"ĠÙĨØ§Øª":7291,"Ø®ØµØ§Ø¦Øµ":7292,"ĠÙĪÙĤØ±":7293,"ĠØ¹ÙħØ±ÙĩØ§":7294,"ĠØ§ÙĦØ¬Ø§ÙħØ¹ÙĬ":7295,"ĠØ²Ø±Ø§Ø¹Ø©":7296,"ĠØ§ÙĦØªØ·Ø¨ÙĬÙĤØ§Øª":7297,"ĠÙĪØ§ÙĦØ¨ÙĦ":7298,"ĠÙĪÙĦØ¯Øª":7299,"ĠØ£ÙĨØ¯Ø±":7300,"ÙĬØ¯Ùĩ":7301,"ÙĪÙĤÙĬ":7302,"ĠØ§ÙĦÙħØ±Ø§ÙĥØ²":7303,"ĠØ£Ø´Ø¹Ø©":7304,"ÙħØ§Ø¦ÙĬØ©":7305,"ÙĦØ§Ø¹":7306,"ĠØ¥Ø¹Ø·Ø§Ø¡":7307,"ĠØ·ÙģÙĦ":7308,"ĠØªØ¨Ø¹Ø¯":7309,"ĠØ§ÙĦØ§ÙĨØªÙĤ":7310,"ÙĥÙĦÙĬØ²ÙĬØ©":7311,"ĠÙħØ¹Ø³ÙĥØ±":7312,"ĠØ³ÙħÙĬ":7313,"ÙĥÙĪØ±Ø©":7314,"ĠÙħÙĤØ¹Ø¯":7315,"ĠØ§ÙĦØ¶Ø±Ø§Ø¦Ø¨":7316,"ĠØ§ÙĦÙģØ¶Ø§Ø¦ÙĬØ©":7317,"87":7318,"ØŃØµØ§Ø¦ÙĬØ©":7319,"Ø§Ø±ØªÙĩØ§":7320,"ĠØ³ÙĪØ±Ø©":7321,"ÙħØ§Ùĩ":7322,"ĠÙĦÙĦØ¢":7323,"und":7324,"ØŃÙĨØ©":7325,"ĠØ³Ø§ÙĦ":7326,"ÙģØ¹Ø§ÙĦ":7327,"Ġ1951":7328,"ĠØ¹Ø±ÙĤ":7329,"ĠÙĪÙĤØªÙĩØ§":7330,"ĠØ§ÙĦÙħØ¹ÙħØ§Ø±ÙĬ":7331,"ĠØªÙĥØ±ÙĬ":7332,"ĠØ§ÙĦØ£Ø¨Ø¹Ø§Ø¯":7333,"ĠØ§ÙĦØŃØµØ§Ø±":7334,"ĠØ§ÙĦØ£Ø²Ø±ÙĤ":7335,"ĠØ§ÙĦØ³Ø¯":7336,"ĠÙĦØ§Ø³ØªØ®Ø¯Ø§Ùħ":7337,"ĠØ§ÙĦØ³Ø·":7338,"ĠØ¯ÙĬØ²":7339,"ĠÙĤØ§Ø¨ÙĦØ©":7340,"ÙģÙĬØ³":7341,"65":7342,"ĠØ§ÙĦØ¬Ø²ÙĬ":7343,"ĠØ¢Ø°Ø§Ø±":7344,"ĠØ¨Ø¥ÙĨØ´Ø§Ø¡":7345,"ÙĪÙĬØ¹ØªØ¨Ø±":7346,"ÙĨØªÙĩØ§":7347,"ĠØ¥Ø¯Ø®Ø§ÙĦ":7348,"ĠØªØ¤Ø«Ø±":7349,"Ø·ÙĪØ¨Ø©":7350,"ĠÙĤØ±ÙĨ":7351,"ĠÙĪØ¨Ø§ÙĦ":7352,"ĠØ§ÙĦØ´ÙĬØ¡":7353,"ĠØªÙĥØ³Ø§Ø³":7354,"ĠØªÙĨØªÙħÙĬ":7355,"ĠØ¨ØµÙģØ©":7356,"ĠØ§ÙĦØ£Ø³ÙĪØ§ÙĤ":7357,"ĠÙħØ³ÙĬØŃÙĬ":7358,"Ø´ÙģÙĬØ§Øª":7359,"ĠÙħØ³Ø£ÙĦØ©":7360,"ĠØ§ÙĦØ¹Ø§Øµ":7361,"Ø¬Ø±Ùī":7362,"ĠÙħÙĨØµØ¨Ùĩ":7363,"ĠØ§ÙĦÙĤØ·Ø¨":7364,"ĠÙħÙĬØ´":7365,"ØªØ±Ø§Ø¹":7366,"ĠØ§ÙĦØµÙĦØ§Ø©":7367,"Ġth":7368,"ĠØ§ÙĦØ£Ø¬Ø³Ø§Ùħ":7369,"Ø¹Ø§ÙĪÙĨ":7370,"ĠØŃØ¯Ø«Øª":7371,"ĠÙĪØ§Ø¨":7372,"ĠØ§ÙĦÙĤÙĬÙħ":7373,"ÙģØ±Ø¬":7374,"Ø¨ÙĤØ§Ø¡":7375,"ĠÙħÙĤØ¯ÙħØ©":7376,"ØºØ§ÙĨØ³ØªØ§ÙĨ":7377,"ÙĤØ§Ø¨ÙĦ":7378,"ÙĪØ²ÙĬØ±":7379,"ĠØ¨Ø§Ø³":7380,"ĠÙĬÙĪÙĨØ§ÙĬØªØ¯":7381,"ÙĩÙĦØ©":7382,"ĠØ¨Ø±ÙĨ":7383,"ĠØ§ÙĦÙģÙĪÙĦ":7384,"ĠÙģÙĤØ¯Ø§ÙĨ":7385,"ĠØ§ÙĦØªØ¯Ø±ÙĬØ³":7386,"ĠÙħØŃØ¯ÙĪØ¯Ø©":7387,"ĠØ§ÙĦØ´Ø¯ÙĬØ¯":7388,"ĠÙĪÙĩÙĥØ°Ø§":7389,"ĠØ£ÙĪØ±Ø§ÙĤ":7390,"ĠØ§ÙĦÙģØ±Ø³":7391,"ĠÙĪØ§ÙĦØ°ÙĬÙĨ":7392,"ĠÙĬØªØ·ÙĦØ¨":7393,"ĠÙĪØ§ÙĦØ¹Ø´Ø±ÙĪÙĨ":7394,"ĠØ§ÙĦØ·ÙĪÙĬÙĦ":7395,"ĠÙĩØ§Ø±ÙĬ":7396,"ĠØ£Ø¹ÙĪØ§Ùħ":7397,"ĠØ§ÙĦÙĪØ²ÙĨ":7398,"ĠÙħØªØ¹Ø¯Ø¯":7399,"ĠØ¬Ø³":7400,"ĠÙĪØ¨ÙĨ":7401,"ĠÙħØ¯Ø±Ø¨":7402,"ĠÙĨØ¬Ø§ØŃØ§":7403,"Ø§ÙĬÙĬÙĨ":7404,"ĠÙĪÙĤÙĬÙĦ":7405,"ÙĪÙĩÙĥØ°Ø§":7406,"ĠÙĪØ§Øµ":7407,"ĠÙĦØ¯Ø±Ø§Ø³Ø©":7408,"ĠØ§ÙĦØ±ØµØ§Øµ":7409,"ÙħØ±Øª":7410,"ĠØ§ÙĦÙĦØ§ØŃÙĤØ©":7411,"ÙĢØ©":7412,"ĠÙħØ´Ø§Ø±ÙĥØ©":7413,"ØŃÙħØ¯":7414,"Ø§ÙĤÙħ":7415,"Ø§Ø·ÙĬÙĨ":7416,"ĠÙĨØ¬ØŃ":7417,"ĠØ¨Ø§ÙĦØ°ÙĥØ±":7418,"ĠØ§ÙĦÙĥÙħØ¨ÙĬÙĪØªØ±":7419,"ØªØ±Ø¨":7420,"ÙģÙĬØ¶":7421,"ÙĦØ¹":7422,"Ø³ÙĦØ³ÙĦØ©":7423,"ĠÙĥØ§ÙģÙĬØ©":7424,"ÙħØ³ÙĬØ±ØªÙĩ":7425,"ĠÙĦÙĨØ§Ø¯ÙĬ":7426,"ĠØ§ÙĦØ³ÙģÙĦÙĬ":7427,"ĠØ¨Ø§ÙĦØ®":7428,"ĠØ§ÙĦÙĤØ§ÙĨÙĪÙĨÙĬ":7429,"à¸":7430,"ĠØ¯Ø³ØªÙĪØ±":7431,"Ø¬ÙĦÙĪØ³":7432,"Ø±ÙĬØ¬ÙĬ":7433,"ĠØªØ±Ø¬Ùħ":7434,"ĠØ§ÙĦØµØ§ÙĦØŃ":7435,"ĠØ§ÙĦÙģÙĨØ§ÙĨÙĬÙĨ":7436,"66":7437,"Ø¯ÙĬØ³":7438,"ĠÙĪØ³ÙĬÙĦØ©":7439,"Ġ1917":7440,"ĠÙĪÙĨØµÙģ":7441,"ĠÙĬØ³ØªØ¹ÙħÙĦ":7442,"Ø¶Ø¨Ø©":7443,"Ø®ØµØ©":7444,"Ġ1943":7445,"iz":7446,"ØªÙħØª":7447,"ÙĪÙħÙĩ":7448,"ĠØŃØ§Ø¬Ø©":7449,"Ø±Ø§Ø¶ÙĬ":7450,"Ø£ÙĩÙħ":7451,"ĠØ§ÙĦÙĤØ±ÙĪÙĨ":7452,"ĠØŃÙĬÙĨÙħØ§":7453,"ĠØ±Ø£Ø³Ùĩ":7454,"ĠØ²ÙĪØ¬Ø©":7455,"ĠØªØ®ØµØµ":7456,"ĠØ§ÙĦØ¯ÙĨÙĬØ§":7457,"ĠØ§ÙĦÙħØ¯ÙĬØ±":7458,"Ø¹ÙĦØ§ÙĨ":7459,"Ø¶ÙħØ§ÙĨ":7460,"ĠØ§ÙĦØ«Ø§Ø¨Øª":7461,"ÙĪÙĥÙĪ":7462,"ĠØ§ÙĦÙħÙĤØ§Ùħ":7463,"ĠÙħØ±ØªØ¨Ø·Ø©":7464,"ĠØ§ÙĦÙħØªÙĪÙĤØ¹":7465,"ĠØªØ¹Ø²ÙĬØ²":7466,"ĠÙĬØ³Ùħ":7467,"ĠÙħÙĤØ¨Ø±Ø©":7468,"Ġ&":7469,"ĠØ§ÙĦÙĤØ±ÙĬØ¨Ø©":7470,"ÙģØ§Ø²":7471,"ĠØ¹Ø·":7472,"ĠØ¨ÙĪÙĦÙĨØ¯Ø§":7473,"ĠØºØ¶":7474,"ÙĪØ±ÙĬÙĬÙĨ":7475,"ĠØ¯ÙĬÙĦ":7476,"ĠØ§ÙĦØ³ÙĬØ§ØŃÙĬØ©":7477,"ĠØ§ÙĦØµÙĩÙĬ":7478,"ĠØ§ÙĦØ£ÙħØ«ÙĦØ©":7479,"ĠØ§ÙĦØ¹Ø§ÙħÙĦØ©":7480,"ĠÙĤØ§Ø³Ùħ":7481,"ÙĤØ±Ø§Ø¶":7482,"Ø£ÙĪ":7483,"ĠØ§ÙĦÙĤØ§Ø¦Ùħ":7484,"ĠÙĪØ§ÙĦÙĬ":7485,"ĠØ§ÙĦØ¨ØªØ±":7486,"ĠÙĦÙĦØªØ±":7487,"ÙħÙĬØ²":7488,"Ø·ÙĪØ±Ø©":7489,"ĠØªØ£ØªÙĬ":7490,"ĠØ³Ø¬ÙĦØª":7491,"ĠØ§ÙĦÙĨÙĤØ§Ø¯":7492,"ĠØ§ÙĦØ¹Ø¸Ø§Ùħ":7493,"ĠØ§ØªØ®Ø§Ø°":7494,"ĠÙģØ´":7495,"ĠÙĦÙĪØ§Ø¡":7496,"ØªÙħØ±Ø§Øª":7497,"ĠØªÙĪØ£ÙħØ©":7498,"ĠÙĪØ§Ùħ":7499,"ĠÙĤÙħ":7500,"Ø´Ø³ØªØ±":7501,"ĠÙĤØ§Ø¨ÙĦ":7502,"ĠÙħØŃÙĦÙĬØ©":7503,"ÙĪØ±ÙĪØ¨Ø§":7504,"ÙĪØµÙĦØ§Øª":7505,"ĠÙħÙĦÙħ":7506,"ĠØ§ÙĦØ£Ø³Ø¨ÙĪØ¹":7507,"ĠØ§ÙĦÙħØ³Ø§ÙģØ©":7508,"ØªÙĬØ§Ø²":7509,"Ġ39":7510,"ĠØŃÙĥÙħÙĩ":7511,"ĠØ¬ÙĪÙĦ":7512,"ĠØ§ÙĦÙĩØ§ÙħØ©":7513,"Ø²ÙĬØ¬":7514,"ÙħØ´":7515,"ĠØ§ÙĦØ£Ø³ÙħØ§Ø¡":7516,"Ø®Ø·Ø§Ø¡":7517,"ĠØ§ÙĦØµÙĪØªÙĬØ©":7518,"ĠÙħÙħØ§Ø«ÙĦØ©":7519,"ĠØ¨Ø«ÙĦØ§Ø«":7520,"Ø±Ø§ÙĨ":7521,"ĠÙĦÙĦØ²":7522,"ĠØªÙĤØ¯ÙĬØ±":7523,"ĠÙħØ¹Ø¨Ø¯":7524,"ĠÙĪØ¥Ø°Ø§":7525,"ØŃÙĦÙĪÙĦ":7526,"Ð°":7527,"ĠØ§ÙĦØ¬Ø³ÙĬÙħØ§Øª":7528,"ĠØ¹Ø«Ø±":7529,"ĠØ§ÙĦÙħÙĩÙħ":7530,"Ø±ÙĬØ·Ø©":7531,"Ø§Ø¨ÙĩØ§":7532,"ĠØ§ÙĦÙĤØ§Ø³Ùħ":7533,"ĠØ¨Ø§ÙĦØ§Ø³Øª":7534,"ĠÙĥØ¬Ø²Ø¡":7535,"ĠØ§ÙĦØ¬Ø§Ø¦Ø²Ø©":7536,"ĠØ§ÙĦØ³ÙĬØ§ØŃØ©":7537,"ĠØªØ¯ÙĪØ±":7538,"ĠØ§ÙĦØ³ÙĪÙģÙĬØªÙĬØ©":7539,"Ø®ÙĦØ§Ùģ":7540,"Ø§ÙĬØ¯Ø©":7541,"ĠÙĪØ¹Ø§Ø¯":7542,"ĠØ£Ø³Ø§Ø¨ÙĬØ¹":7543,"ĠÙħØ´ØªØ±ÙĥØ©":7544,"ĠÙĪØ´ÙħØ§ÙĦ":7545,"ĠØªØ§Ø±ÙĬØ®ÙĩØ§":7546,"ĠÙħØŃØ¯Ø¯":7547,"ĠØ¨ÙħØ³Ø§Ø¹Ø¯Ø©":7548,"ÙĦÙĤØª":7549,"ĠAn":7550,"ĠÙħÙĦØŃÙĪØ¸":7551,"Ø¯ÙĪØ±":7552,"ÙģÙĪØ±":7553,"ÙĥÙĪÙĥ":7554,"ĠØ§ÙĦØªÙĨÙģÙĬØ°ÙĬ":7555,"ĠÙģØ¶ÙĦ":7556,"ĠØ³Ø·":7557,"ÙħÙĨØª":7558,"Ġ95":7559,"Ġ1933":7560,"ÙĨØ¨ÙĪÙĦ":7561,"ĠÙĨØ¹":7562,"ĠØ§ÙĦÙģØ§Ø±Ø³ÙĬØ©":7563,"ĠØ§ÙĦØ·ÙĪÙĬÙĦØ©":7564,"ĠÙĪØ§ÙĦØ¹Ø¯ÙĬØ¯":7565,"ĠÙĥØ³":7566,"ĠÙĪØªÙģ":7567,"ĠØ§ÙĦØ¶Ø¨Ø§Ø·":7568,"ĠØ¨ÙĪØ¶Ø¹":7569,"ĠØ§ÙĦØ¨ÙĨØ¯":7570,"Ø¬ÙħØ¹Ø§Øª":7571,"ĠÙĤØ±Ø§Ø¡Ø©":7572,"ĠØ¨ÙĪØµÙģ":7573,"Ø£ÙħØ©":7574,"ĠØ§ÙĦÙģØ±Ø¯ÙĬØ©":7575,"Ø´ØªØ§ÙĬÙĨ":7576,"ĠØ§ÙĦÙħØªØ¹":7577,"ĠØ¨ÙĪØ´":7578,"Ø¹Ø§Ø´":7579,"Ø§ÙĦØŃØ©":7580,"ĠØ´ÙĬØ±":7581,"ĠØ§ÙĦÙħØºÙĪÙĦ":7582,"Ø¨ØŃÙĦÙĪÙĦ":7583,"ĠØ§ÙĦÙĬÙĪÙĨØ§ÙĨÙĬ":7584,"ĠØ§ÙĦÙħØ¬ÙħØ¹":7585,"ĠØ§ÙĦØ¯Ø®ÙĦ":7586,"ÙĪØ§ÙĬØ§":7587,"ĠÙĦÙħÙĨØ·ÙĤØ©":7588,"ĠØ§ÙĦÙģØ¶ÙĦ":7589,"ĠØ§ÙĦØ£Ø³ØªØ±":7590,"ÙĤÙĬØ§Ø¯Ø©":7591,"ØªØ¨Ø§Ùĥ":7592,"ĠÙĪØ®ÙĦØ§ÙĦ":7593,"ĠÙĬØ³ÙĥÙĨ":7594,"ĠØ§ÙĦØ³Ø±Ø·Ø§ÙĨ":7595,"ĠØ§ÙĦÙħÙĨØ§Ø®ÙĬØ©":7596,"ĠØ§ÙĦØ¹Ø«ÙħØ§ÙĨÙĬÙĬÙĨ":7597,"ĠØ§ÙĦØ¨ØŃÙĪØ«":7598,"ÙĪÙĬÙģ":7599,"ĠØ§ÙĦÙħØ³Ø§Ø¬Ø¯":7600,"ĠÙħØ±ÙĥØ¨":7601,"ĠÙĦØ§Ùħ":7602,"ĠØ§ÙĦØ£Ø·Ø±Ø§Ùģ":7603,"ĠØ§ÙĦØ¬ÙĩØ¯":7604,"Ø§Ø±ÙĪ":7605,"ØªØŃØª":7606,"Ġ1942":7607,"ĠÙĨØ§Ø¨ÙĦÙĬÙĪÙĨ":7608,"ĠÙĬÙĤØ¯Ø±":7609,"ÙĦÙģÙĩ":7610,"Ø¨ÙĩØ§":7611,"ØªØ´Ø±Ø©":7612,"ĠØ´Ø±Ø§Ø¡":7613,"ĠÙĥØ§Ø³":7614,"ĠØ§ÙĦØªØ±Ø¨":7615,"ĠØ°Ø±":7616,"ÙĩØ§Ø¯Ø§Øª":7617,"ĠØ§ÙĦØŃØ§Ø±":7618,"ĠØ§ÙĦÙħØ¶Ø§Ø¯Ø©":7619,"ĠØªÙĦÙĤÙī":7620,"ÙħÙĤØ§Ø·Ø¹Ø©":7621,"ĠØ£Ø®Ø±":7622,"ĠØ£Ø¯ÙĪØ§Øª":7623,"ÙĪØ®ÙĦØ§ÙĦ":7624,"ĠÙĬØ¹ÙĬØ´ÙĪÙĨ":7625,"ĠØ®Ø·Ø·":7626,"ĠØªØ§ÙĬÙĦ":7627,"Ø¶ÙĪØ±":7628,"ĠØ§ÙĦØµÙĨØ§Ø¹Ø§Øª":7629,"ĠØ¨Ø§Ø¹ØªØ¨Ø§Ø±ÙĩØ§":7630,"Ø§ÙĦÙĬÙħ":7631,"ĠØ§ÙĦØ£ØªØ±Ø§Ùĥ":7632,"Ø³Ø¨Ø§ÙĨÙĬØ©":7633,"ĠÙĪØ§ÙĦØ¹ÙħÙĦ":7634,"ĠØ§ÙĦÙĦÙĤØ¨":7635,"ĠÙħØ§ÙĬÙĥØ±ÙĪØ³ÙĪÙģØª":7636,"ØªØŃÙģ":7637,"ĠØ¨Ø¹ÙĬØ¯Ø§":7638,"ĠÙģÙĬØ¯ÙĬÙĪ":7639,"ĠÙĨØ§Ø´":7640,"ĠÙĪØ§Ø³Ùħ":7641,"ĠØµØ±Ø§Ø¹":7642,"ØŃØ¯ÙĪØ¯":7643,"ĠÙģÙĬÙĩÙħ":7644,"ÙĥÙĬÙħ":7645,"Ø§ÙĨØ¯ÙĬ":7646,"ÙĬØ§ÙĥÙĦ":7647,"ĠØ§ÙĦØ¥Ø¬ÙħØ§ÙĦÙĬ":7648,"ĠØ§ÙĦØ¨ÙĥØ§ÙĦ":7649,"Ġ1931":7650,"ĠØ²ÙĬØ§Ø±Ø©":7651,"ĠÙĬØ§Ø¨":7652,"ĠÙĬÙħØªØ¯":7653,"Ø·Ùī":7654,"ĠØ§ÙĦØ¹Ø§Ø¯ÙĬØ©":7655,"ĠØ·ÙĬÙĦØ©":7656,"ĠÙĩÙĬÙĥÙĦ":7657,"ĠØ´ÙĬÙĪØ¹Ø§":7658,"ÙĬØ²ÙĬØ¯":7659,"ÙĥÙĦÙħ":7660,"ÙĪØ¬Ø§Øª":7661,"Ø·ÙĦØ§Ø¹":7662,"ĠØ§ÙĦØ£Ø±Ø¬ÙĨØªÙĬÙĨ":7663,"ĠÙĪØ¯Ø®ÙĦ":7664,"ĠØ§ÙĦÙĩÙĬÙĥÙĦ":7665,"ĠÙĦÙĦØ£Ø³":7666,"Ø³Ø¨Ø§ÙĨÙĬØ§":7667,"ĠÙĪØ¹Ùħ":7668,"ĠØ§ÙĦØªØ¹Ø±ÙĬÙģ":7669,"ĠÙĦÙĦØŃØ²Ø¨":7670,"Ø´Ø§Ùħ":7671,"ĠØ´Ø¬Ø±Ø©":7672,"ÙħØ¹Ø¸Ùħ":7673,"ĠØ£ÙĩÙĦÙĩØ§":7674,"Ø¯Ø¹Ùī":7675,"Ø´ÙĬÙĨ":7676,"ĠØ§ÙĦØ·Ø¨ÙĤØ§Øª":7677,"est":7678,"Ø³Ø·ÙĬÙĨÙĬÙĬÙĨ":7679,"ĠØ§ÙĦØ§Ø´ØªØ±Ø§ÙĥÙĬ":7680,"ĠØ¹ÙĩØ¯Ùĩ":7681,"ĠÙħÙĨØªØ¬Ø§Øª":7682,"ĠØ§ÙĦØ£Ø¹Ø¯Ø§Ø¯":7683,"ÙĬÙħÙĨØ©":7684,"ØªÙĪØ£ÙħØ©":7685,"47":7686,"ĠÙĦØ¹Ø¯Ùħ":7687,"ĠØ¨Ø¹Ø¯Ø©":7688,"ĠØ§ÙĦØ®Ø¶Ø±Ø§Ø¡":7689,"ÙĦØ§ØŃØ¸":7690,"ĠÙĥÙĦÙħØ§":7691,"ĠÙĥØªØ¨Ùĩ":7692,"ÙĥØ±Ø§ÙĨÙĬØ§":7693,"ÙģØªØ§Ø¡":7694,"ĠØ§ÙĦÙĪØ§ØŃØ¯Ø©":7695,"ĠØ§ÙĦØ®ØµÙĪØµ":7696,"ĠØ§ÙĦÙħÙħØ§ÙĦÙĬÙĥ":7697,"ĠØ§ÙĦÙĦÙĬØ¨Ø±":7698,"Ø§Ø¶Ø·Ø±Ø§Ø¨":7699,"Ø±ÙģØ¹":7700,"ØªÙĬØŃ":7701,"ĠØ²ÙĪØ§Ø¬":7702,"ĠØºÙĬØ±Ùĩ":7703,"ĠÙħØ³ØªÙħØ±":7704,"ĠÙĤØ±Ø§Ø¨Ø©":7705,"ĠØ§ÙĦØªØ¬Ø§Ø±Ø¨":7706,"ĠØ¶ÙĪØ¡":7707,"ĠØ¨ÙĬØ¦Ø©":7708,"ØµØ¯ÙĤØ§Ø¡":7709,"ĠØ§Ø¬ØªÙħØ§Ø¹ÙĬØ©":7710,"ØªØ³ØªØ®Ø¯Ùħ":7711,"ĠØ§ÙĦØªÙħØ±":7712,"Ø§ÙĤØ´Ø©":7713,"ĠÙħØŃØ·Ø§Øª":7714,"ĠÙĪÙħØµØ±":7715,"ĠØ¨Ø¹Ø¯Ùħ":7716,"ĠØµØ¯Ø±Øª":7717,"ĠØ¥ÙĦØºØ§Ø¡":7718,"ĠØ§ÙĦØ£Ø¹Ø¸Ùħ":7719,"ĠØ§ÙĦØªÙģÙĥÙĬØ±":7720,"ĠÙĪØ§ÙĦØ§Ø¬ØªÙħØ§Ø¹ÙĬØ©":7721,"ĠÙĨÙĪØ¹Ø§":7722,"ĠØ§ÙĨØªÙĤÙĦØª":7723,"ĠÃĹ":7724,"Ġå":7725,"ĠØ§ÙĦØ£Ø®Ø¨Ø§Ø±":7726,"ĠÙħØ±ÙħÙī":7727,"ĠÙĪÙģÙĬÙĩØ§":7728,"ĠÙĦÙĦØ£Ø·ÙģØ§ÙĦ":7729,"ĠÙĪØ¯ÙĬ":7730,"ĠØ®Ø´":7731,"ĠØ£Ø´Ø®Ø§Øµ":7732,"Ø±ÙĬØ²":7733,"ĠØ³ÙĪØ¯":7734,"ĠÙħÙĨØ§Ø³Ø¨Ø©":7735,"ĠÙĥØ¨Ø±Ùī":7736,"Ø¶Ø±ÙĪØ±Ø©":7737,"ĠØªÙĪÙĤÙĬØ¹":7738,"ĠØ¹Ø§ÙĦ":7739,"ĠØ±ÙĪØ§":7740,"ĠØ¨ÙĬÙĨÙĩ":7741,"ØŃÙĬØ§ÙĨØ§":7742,"Ø¬ÙĬÙĥØ§":7743,"ĠØ§ÙĦØ¯Ø¨ÙĦÙĪÙħ":7744,"Ø¨Ø¹Ø«":7745,"ĠÙħÙĬÙĦØ§ÙĨ":7746,"ĠÙĥÙħØ§ÙĦ":7747,"ØºÙĨ":7748,"ĠØ§ÙĦØ¹Ø±ÙĤÙĬ":7749,"ĠØ§ÙĦÙĨØ±":7750,"ÙĪØ¬Ø±":7751,"ĠØ¥ÙĨÙĩØ§":7752,"ĠØ§ÙĦØ¢Ø¯Ø§Ø¨":7753,"ĠÙĬØ¹ÙĤÙĪØ¨":7754,"Ø¨Ø§ÙĦÙĨØ³Ø¨Ø©":7755,"ĠÙĦÙĪØŃ":7756,"ĠÙħØµÙĨØ¹":7757,"ĠÙĥÙĦÙĩ":7758,"ĠØ§ÙĦÙħØµØ§Ø¨ÙĬÙĨ":7759,"ĠÙģÙĨÙĦÙĨØ¯Ø§":7760,"Ø§ÙĩÙĨ":7761,"ĠØ£Ø¨ÙĨ":7762,"ØªÙģØ¹Ø§Øª":7763,"ĠØ´Ø±Ùģ":7764,"ĠØªÙĤÙĨÙĬØ§Øª":7765,"ĠØ§ÙĦÙħØ³ØªØ´ÙģÙī":7766,"ĠØ§ÙĦÙĬÙħÙĨÙĬØ©":7767,"ĠØ§ÙĦØ·ÙĦØ¨Ø©":7768,"ĠØ¨Ø·Ø±Ø³":7769,"ĠÙĪØ¨Ø¯Ø£Øª":7770,"ĠÙĪØ²ÙĨ":7771,"ĠØ¯ÙħØ¬":7772,"ĠÙĪØ§ÙĦØ¹Ø§ÙĦÙħ":7773,"Ø¬Ø²Ø§Ø¦Ø±":7774,"ĠÙħØ¹Ø¯ÙĦØ§Øª":7775,"ĠØ§ÙĦØµØ±":7776,"ĠÙĪØ§ÙĦÙħØ´":7777,"ĠØ£ÙĩØ§ÙĦÙĬ":7778,"Ø§ÙĬØ®":7779,"89":7780,"ĠÙĬØ³Ø¬ÙĦ":7781,"Ø¬ÙħØ§ÙĦ":7782,"ØµÙĨÙģ":7783,"Ø§Ø¯ÙĩØ§":7784,"ĠØ§ÙĦØ£ÙħÙĬÙĨ":7785,"Ø§ÙĦØ¨ÙĬ":7786,"ĠÙħÙĬØ¯Ø§ÙĨ":7787,"ÙĦÙĤØ§Ø¡":7788,"ĠØ§ÙĦØ£Ø±ÙħÙĨ":7789,"Ø§Ø¨Ø±Ø§Øª":7790,"ÙĪØªÙĪØ²Ø¹":7791,"ĠâĢĶ":7792,"ĠÙĪØ§ÙĦÙħØ¹Ø±":7793,"ĠØ¨ØªØ¹":7794,"ĠØ¬ÙħÙĬØ¹Ø§":7795,"ĠØ³ÙĪØ¡":7796,"ĠØ§ÙĦØ®Ø²":7797,"ĠØ§ÙĦÙĪÙĦÙĬØ¯":7798,"ĠÙĨØ®":7799,"ĠØ³ÙĬØ§Ø±Ø§Øª":7800,"ĠØµÙĨØ¯ÙĪÙĤ":7801,"ĠØ§Ø®ØªØ§Ø±":7802,"ĠÙĦØ¨ÙĨØ§Ø¡":7803,"Ø§Ø¦ÙĤØ©":7804,"ÙĪØ¯ÙĬÙĨ":7805,"ĠÙĦÙĦÙħØ¤":7806,"ĠÙħØ¨ÙĥØ±":7807,"ĠØ¯Ø¹Ø§":7808,"ĠØ§ÙĦØ¨ÙĤØ§Ø¡":7809,"ĠØ§ÙĦØ¨Ø±Ø¬":7810,"ØªÙĪØ³Ø·":7811,"ĠØ«ÙĤØ§ÙģØ©":7812,"ĠØ§ÙĦØŃØ±Ø§Ø±ÙĬ":7813,"ĠÙĪØªØ·ÙĪÙĬØ±":7814,"ĠÙĪØ§ÙĦØ¯ØªÙĩ":7815,"ĠÙĪØ·ÙĨÙĬØ©":7816,"ĠØªØªØ·ÙĦØ¨":7817,"Ø°Ø§ÙĨ":7818,"ĠÙħØªÙĦ":7819,"ĠØ§ÙĦØ§ÙĨØ³":7820,"ĠØ´Ø±ÙĪØ·":7821,"Ø¬Ø£":7822,"Ø§ÙĨØ¸Ø±":7823,"ĠØ§ÙĦØ³ÙĥØ±ÙĬ":7824,"ĠØ§ÙĦØµØ®ÙĪØ±":7825,"ĠØ³Ø±Ø·Ø§ÙĨ":7826,"ĠØ´Ø§Ø±ÙĥØª":7827,"ĠÙĨÙĤØ¯":7828,"ØºØ±Ø³":7829,"ĠØ³ÙĥØ±":7830,"ĠÙĤØ±ÙĬØ¨Ø©":7831,"ĠØªÙĥØ±":7832,"ĠØ§Ø³ØªÙĤØ§ÙĦ":7833,"Ø³ÙĨØ¯Ø±":7834,"ĠØ§ÙĦØ´Ø®ØµÙĬ":7835,"ĠÙĦÙĦØ¬ÙĬØ´":7836,"ĠÙĥØ´Ùģ":7837,"ØºÙĪØ±":7838,"ĠØ§ÙĦØŃØ¬Ø§Ø²":7839,"ĠØ¨ÙħÙĨØ·ÙĤØ©":7840,"Ø±ÙĬÙĨ":7841,"Ø§Ø¹Ø¯Ùĩ":7842,"ĠØ±ÙĪÙĨ":7843,"ĠÙĦØ¯Ø±Ø¬Ø©":7844,"Ø°Øª":7845,"ĠÙĪØ§ÙĤØ¹Ø©":7846,"ĠÙħØ¨Ø§Ø¯Ø¦":7847,"39":7848,"ĠÙħÙĬØ³":7849,"ĠÙħØ¯Ø®ÙĦ":7850,"ĠØ§ÙĦØ£Ø±Ø«ÙĪØ°ÙĥØ³ÙĬØ©":7851,"ĠÙĪØ®ØµÙĪØµØ§":7852,"ĠÙĪØ£Ø¨ÙĪ":7853,"ĠØ´Ø±ØŃ":7854,"ĠØ§ÙĦØªØ±Ø¬ÙħØ©":7855,"ĠØ§ÙĦØ³ØŃ":7856,"ÙĪØªØ¹ØªØ¨Ø±":7857,"ĠØ§ÙĦÙħÙĪØ¸":7858,"ĠÙĦÙħÙĨØ¹":7859,"Ø¶Ø¹Ùģ":7860,"ĠÙĪØ°ÙĥØ±":7861,"ĠØ§ÙĦØ¨Ø±ØªØºØ§ÙĦ":7862,"ys":7863,"Ġ42":7864,"ĠØ¹Ø¨ÙĬØ¯":7865,"ÙĦÙĪÙĨ":7866,"ĠØ§ÙĦØ£ÙĨØ´Ø·Ø©":7867,"Ø®Ø·ÙĪØ·Ø§Øª":7868,"ĠÙĦØ¹Ø¯Ø¯":7869,"ĠØ§ÙĦØŃØ³Ø§Ø¨":7870,"ÙģÙĬØ¯Ø©":7871,"ĠØ¨Ø¯ÙĦ":7872,"ĠØ£Ø¨Ø§":7873,"ĠÙĬØªØ¶ÙħÙĨ":7874,"Ġ160":7875,"ĠØ§ÙĦØŃÙĬÙĪÙĬ":7876,"ĠØªØ±Ø¯Ø¯":7877,"ĠØªØ®Øµ":7878,"ÙĪØ±ÙĬØ§Øª":7879,"ĠÙħØ±Ø§Ø¯":7880,"ĠÙĨÙģÙĪØ°":7881,"ĠØ£ÙĨØ«Ùī":7882,"ÙģÙĬÙĦØ¯":7883,"ĠØ´ÙĨ":7884,"ÙĦÙħØ§Ø¡":7885,"ĠØ§ÙĦØ£Ø²ÙĩØ±":7886,"ĠØ§ÙĦØ§Ø¨ÙĨ":7887,"ØªÙħÙĥÙĨ":7888,"44":7889,"Ø§ÙĥØ§":7890,"ĠØ³Ø¹Ø±":7891,"ĠØ§ÙĦØµÙĪØ¯ÙĬÙĪÙħ":7892,"ĠØ³ÙĪÙĬØ³Ø±Ø§":7893,"ver":7894,"ÙĤØ¯ÙĬØ±":7895,"ĠÙĪÙģØ±ÙĨØ³Ø§":7896,"ĠØŃØ¯ÙĬÙĤØ©":7897,"ĠØ§ÙĦØ¬ÙĪØ¯Ø©":7898,"ĠØªÙĩØ¯Ùģ":7899,"Ø§Ø´Ø§Øª":7900,"ĠØ®Ø·Ø£":7901,"ĠØªØ°ÙĥØ±":7902,"ÙĤØªÙĦ":7903,"ĠØ§ÙĦÙĥØ§ÙħÙĦØ©":7904,"Ġ1935":7905,"Ø§Ø«ÙĬ":7906,"ight":7907,"Ø§ÙĤØµ":7908,"ĠØ§ÙĦÙĩÙĦØ§ÙĦ":7909,"ĠÙĦÙģØ¸":7910,"ĠÙĤØ§Ø¨":7911,"ĠØ±Ø³Ø§Ø¦ÙĦ":7912,"Ø¨Ø¯Ø§ÙĬØ©":7913,"ĠØ§ÙĦÙħØ³ØªÙħØ±":7914,"Ġ56":7915,"Ø£Ø®Ø±":7916,"ĠØ§ÙĨØ¸Ø±":7917,"ĠÙĪØ§ÙĦÙĪÙĦØ§ÙĬØ§Øª":7918,"ÙĨØ¯ÙĪÙĨ":7919,"ĠØ£ÙĤØ§Ùħ":7920,"ĠØ§Ø®ØªØ±Ø§Ø¹":7921,"ĠØ§ÙĦÙĪØ¹":7922,"ÙĪÙĬØªÙħ":7923,"Ø§ÙĤØªÙĩ":7924,"ÙĩØ±Ø§ÙĨ":7925,"ĠÙĥØŃ":7926,"ĠØ§ÙĦØ³Ø§Ø¨Ø¹Ø©":7927,"ĠØ¹Ø§ÙĦÙħÙĬ":7928,"ĠØŃØµØ§Ø±":7929,"Ø¨Ø·Ø§ÙĦ":7930,"ĠØ§ÙĦØ±ÙĪØ§ÙĬØ§Øª":7931,"Ø¶Ø§Ø©":7932,"ĠØ§ÙĦØ¨ÙĥØªÙĬØ±ÙĬØ§":7933,"ĠØ§ÙĦØ¯ÙĨÙħØ§Ø±Ùĥ":7934,"ĠØªØŃÙĪÙĬ":7935,"Ø³ÙħØ©":7936,"ĠÙĪØªØ¹ÙĨÙĬ":7937,"ĠØ§ÙĦÙĬÙĩÙĪØ¯ÙĬ":7938,"ĠØ§ÙĦØµØºØ±Ùī":7939,"ĠØ§Ùĩ":7940,"ĠØ§ÙĦÙĨÙĪØ§Ø©":7941,"ĠØ¨ØªØµ":7942,"ĠØ¨Ø¹Ø«":7943,"ĠØ·ÙĪÙĦÙĩ":7944,"ĠØ®Ø±ÙĪØ¬":7945,"ĠÙĪØªØ®":7946,"ĠØŃØ¯ÙĬØ¯":7947,"ÙĪÙĥØ°ÙĦÙĥ":7948,"Ġ600":7949,"ĠØ³Ø±Ø§ØŃ":7950,"ĠØµÙģØŃØ§Øª":7951,"ĠØ§ÙĦÙĤØ§Ø¯ÙħØ©":7952,"uc":7953,"ÙĤØ¯Ø§Ùħ":7954,"ĠØ´Ø±ÙĤÙĬ":7955,"ĠØ§ÙĦØ£ÙĨØ¯ÙĬØ©":7956,"ĠÙĬÙĪÙħÙĬØ§":7957,"ĠÙĤØ§ÙħÙĪØ§":7958,"ĠØ§ÙĦØ£Ø¯Ø¨ÙĬ":7959,"Ø£ØµØ¨ØŃØª":7960,"Ø°Ùī":7961,"ĠÙĬØªÙĨ":7962,"ĠØ§ÙĦØªÙħÙĬ":7963,"ĠAl":7964,"ĠÙĪØ«ÙĬÙĤØ©":7965,"ÙĤØ¹":7966,"ĠÙĪÙĦÙĦ":7967,"ÙĪØ§Ø±Ùĩ":7968,"ĠÙħØŃØ§ÙĪÙĦØ§Øª":7969,"ĠØªØŃØ§ÙĦÙģ":7970,"Ø´ÙĥÙĦØ§Øª":7971,"ĠÙĪÙĦÙĪ":7972,"Ġ130":7973,"ĠØ§ÙĦÙħØ§Ø¦Ø©":7974,"ĠØ§ÙĦØ¥Ø®ÙĪØ§ÙĨ":7975,"Ø£ØµÙĦ":7976,"ĠØ§ÙĦÙħØ§Ø¬Ø³ØªÙĬØ±":7977,"ĠØ§ÙĦØ¬Ø§ÙĨ":7978,"ĠØµÙĬØ¯":7979,"ØªÙĬØ§Øª":7980,"ĠØ²ÙĬØª":7981,"ĠØ£Ø¨ÙĬØ¶":7982,"Ø²ÙĦØ©":7983,"ĠØ§ÙĦÙĤÙħ":7984,"ĠÙħØ¹Ø§ÙĦØ¬":7985,"ĠÙĪØ¨ÙĦØºØª":7986,"ÙĤÙĪÙħ":7987,"Ø§Ø¬Ø¦":7988,"ĠØ§ÙĦÙħØ¹Ø§ÙĦØ¬Ø©":7989,"Ġ1932":7990,"ĠØ§ÙĦØªÙĪØ§ØµÙĦ":7991,"ĠØ§ÙĦØªØ®Ø·ÙĬØ·":7992,"ØªØ¯Ùī":7993,"ĠØ¬Ø³Ø±":7994,"ĠÙĪØªØ¬":7995,"ÙĪØ¶ÙĬØŃ":7996,"ĠÙģØ¥Ø°Ø§":7997,"ĠÙĩØ¬":7998,"ĠÙĤÙĪÙī":7999,"ĠØªØ³Ø¹Ø©":8000,"ĠÙĪØ§ÙĦØ£Ùħ":8001,"ĠØ§ÙĦÙĪØ¬ÙĪØ¯":8002,"ĠØ§ØŃØª":8003,"Ġ1921":8004,"ĠÙĦØŃÙħØ§ÙĬØ©":8005,"ĠØŃØ§Ø¬":8006,"ĠØªØªØ¹ÙĦÙĤ":8007,"ĠØ§ÙĦÙħÙĤØ§Ø·Ø¹Ø§Øª":8008,"ÙĪØŃÙĬ":8009,"ĠÙģØ®":8010,"ĠØ£Ø¨Ø¯":8011,"Ø§ØŃÙģ":8012,"ĠØ§ÙĦÙĤÙĪØ§Ø¹Ø¯":8013,"ĠØ¬ÙĨÙĪØ¯":8014,"Ø²ÙĬØ§":8015,"ĠØªØŃØµÙĦ":8016,"ĠØ§Ø³ØªØ¨Ø¯Ø§ÙĦ":8017,"ĠØ§ÙĨØ·ÙĦØ§ÙĤ":8018,"ĠØ§ÙĦÙĥØ§Ø«ÙĪÙĦÙĬÙĥ":8019,"ĠØ§ÙĦØ±ÙĤÙħÙĬØ©":8020,"ĠÙĥØ±Ø¨":8021,"ĠØ´Ø¨Ø§Ø·":8022,"ĠØ£Ø´Ø§Ø±":8023,"ĠØ§ÙĦÙħÙĬØª":8024,"ĠØ¯ÙĬÙĥ":8025,"ĠØµØ¨":8026,"ĠÙĤØ¯ÙĬÙħØ§":8027,"Ø±ÙĤØ§Ø¡":8028,"ĠØªÙħÙĬ":8029,"ĠØ¬Ø±Øª":8030,"ÙĦÙĥÙĬ":8031,"ĠÙĦÙĦØ°":8032,"ĠØ§ÙĦØ¨ÙĪØª":8033,"ÙĬØªØ´":8034,"ĠÙĦÙĦØ¹Ø¯ÙĬØ¯":8035,"ĠØ¬ÙĪØ²ÙĬÙģ":8036,"ĠØ§ÙĦØªØ®ØµØµ":8037,"ÙĪØ§Ø¯Ø«":8038,"ĠØ§ÙĦØ£ÙĩÙĦÙĬ":8039,"Ġref":8040,"ĠÙĦÙĦØ¨ÙĨ":8041,"ÙĪØ§Ø±Ø²Ùħ":8042,"ĠØ§ÙĤØªØ±ØŃ":8043,"ĠØµØ¯Ø§Ùħ":8044,"ĠÙĪØ§ÙĦØŃØ±":8045,"ÙĥØ±Ùħ":8046,"ÙģÙĪØ¸":8047,"ÙĥØ´Ùģ":8048,"ĠÙħØ¹Ø§ÙħÙĦ":8049,"Ø¹ÙĦØ§ÙĤØ©":8050,"ĠØªØ´ÙĬ":8051,"ĠØ¹Ø§Ø¦ÙĦØªÙĩ":8052,"ĠØ£ÙĦÙĬ":8053,"ĠØ§ÙĦÙħØ£":8054,"ØºÙĪÙĦ":8055,"ÙĪØ±ÙĩØ§":8056,"ĠØ§Ø³ØªÙĨ":8057,"ĠØ§ÙĨØªØµØ§Ø±":8058,"Ø§Ø²ÙĨ":8059,"ĠØ²Ø¹Ùħ":8060,"Ġ1923":8061,"ĠØ£ÙĦÙħØ§ÙĨÙĬ":8062,"ĠØ¨Ø£Ø³":8063,"ĠØ§ÙĦØ³Ø§ØŃØ©":8064,"ĠØ§ÙĦÙħØ´Ø§Ø±Ùĥ":8065,"ĠØ§ÙĦØªØŃÙĦÙĬÙĦ":8066,"ĠØ§ÙĦØªØ¬Ø±Ø¨Ø©":8067,"ĠÙĨØ´Ø£Øª":8068,"Ø£ÙĨÙĩ":8069,"ĠØ¨Ø¨ÙĨØ§Ø¡":8070,"ĠØ¨Ø§Ø¹ØªØ¨Ø§Ø±Ùĩ":8071,"ĠØªÙĪØŃÙĬØ¯":8072,"ĠÙħÙĨØ§Ø®":8073,"ĠÙĪØ§Ø³ØªØ®Ø¯Ø§Ùħ":8074,"Ø¨ÙĨØ§Ø¡":8075,"ĠØ§ÙĦØ¬ÙĬÙĪØ´":8076,"Ø¦ÙĦØ©":8077,"ĠØ§ÙĦÙĪØ§Ø¶":8078,"ÙĤØ±Ø£":8079,"ĠØ¹Ø´Ø±ÙĬÙĨ":8080,"ÙĦÙĤØ§Ø¨":8081,"ĠÙģØŃ":8082,"ÙĬÙħØ±":8083,"Ø§Ø¹Ùħ":8084,"ÙĦÙģØª":8085,"ĠØ§ÙĦÙĪÙĬØ¨":8086,"ĠØ§ÙĦÙħØ¹Ø§ÙĦØ¬":8087,"ĠÙĩØ±Ø¨":8088,"ĠØ§ÙĦØ«ÙĪØ§Ø±":8089,"ĠØ¶Ø§Ø¨Ø·":8090,"ĠØªØ±Ø¨Ø·":8091,"Ø§ÙĩØ¯ÙĬÙĨ":8092,"ĠØ§ÙĨØªÙĤ":8093,"ĠØ¹ÙħÙĩ":8094,"ĠÙĪÙĨÙĤÙĦ":8095,"ĠÙĥÙĤ":8096,"ĠØ§ÙĦÙĤÙĪÙħ":8097,"ĠØ§ÙĦÙģÙĪØ±":8098,"ĠØ§ÙĦÙĪØ«Ø§Ø¦ÙĤ":8099,"ĠØ¹Ø§ÙħÙĬÙĨ":8100,"ĠÙĬÙĪØ±ÙĪ":8101,"ĠÙĤØ¶Ø§ÙĬØ§":8102,"ĠØ§ÙĦÙħØªØŃØ±ÙĥØ©":8103,"ĠØªØ·Ø¨ÙĬÙĤØ§Øª":8104,"ĠÙģØŃØµ":8105,"ĠØ¨ÙĬØ²":8106,"ĠØ§ÙĦÙģØ±Ø¹":8107,"ĠÙĪÙĬÙĤØ¹":8108,"ĠØ§ÙħØªØ¯Ø§Ø¯":8109,"Ø±ÙĬØ§Ø¶Ø©":8110,"ØµØ§Ø¨Ø§Øª":8111,"ĠØ§ÙĦØªØŃØªÙĬØ©":8112,"ĠØ§ÙĦÙĩÙĪÙĦÙĨØ¯ÙĬ":8113,"ØªØ¶Ùħ":8114,"Ø¯ÙĬÙĬÙĨ":8115,"ĠØ§ÙĦØ¨Ø®":8116,"ĠÙĪÙĪØµÙĦ":8117,"ÙĦÙĬØª":8118,"ĠØ¨ÙĨØ¸Ø§Ùħ":8119,"ĠØ§ÙĦØ²Ø¬Ø§Ø¬":8120,"ĠØ§ÙĦÙħØ³ØªÙĤÙĦØ©":8121,"74":8122,"our":8123,"ĠØ¯Ø±Ø¨":8124,"ĠØ§ÙĦÙĪØ²ÙĬØ±":8125,"ĠØ§ÙĦØŃÙĨ":8126,"ÙĪÙģÙĬØªØ´":8127,"ÙĬØ¬Ø¨":8128,"ĠÙĪÙĤØ¨ÙĦ":8129,"Ø£Ø³Ø³":8130,"Ġ250":8131,"ĠØ§Ø´ØªÙĩØ±":8132,"ÙĪÙĤØ¹Ø©":8133,"ĠØ§ÙĦÙħÙĤØ§Ø¨ÙĦ":8134,"ĠØ¨ÙĨØŃÙĪ":8135,"ĠÙĪØ§Ø¯":8136,"ĠØ§ÙĦØ£ÙĦÙģ":8137,"ĠØ´Ø±ÙĤØ§":8138,"ip":8139,"Ø¹ÙĬÙĨØ§Øª":8140,"ĠØµØ¯ÙĬ":8141,"ĠØ£ÙĦÙģØ§":8142,"ex":8143,"91":8144,"Ø¯ÙĩØ±":8145,"Ġfor":8146,"ĠØ§ÙĦØ§Ø¬":8147,"ĠÙħÙģØ±":8148,"Ġ1925":8149,"ĠÙĪÙĬÙģ":8150,"Ø²Ùĩ":8151,"Ø³ÙĦØŃ":8152,"ÙĬØ¹ÙĪØ¯":8153,"ÙĦØ³ÙĪÙģ":8154,"ĠØ§ÙĦØ¥ÙĤÙĦÙĬÙħÙĬØ©":8155,"ĠØ§ÙĦØ¯ÙĪØ§Ø¦Ø±":8156,"ÙĬØ³ÙĪÙĨ":8157,"ÙĪØ§ÙħØ±":8158,"ÙĪØ¶ÙĪØ¹Ø§Øª":8159,"ĠØ§ÙĦÙĥØ§Øª":8160,"Ø§ÙĥØ©":8161,"ĠØ¥ÙĨØ³Ø§ÙĨ":8162,"ĠØ§ÙĦØ£Ø¯ÙĪØ§Øª":8163,"ĠÙĪØ§ÙĦØ«Ø§ÙĨÙĬ":8164,"Ø±Ø¬Ø§Ø¹":8165,"Ġ1914":8166,"ĠØ§ÙĦØ´Ø¹Ø±Ø§Ø¡":8167,"Î¿":8168,"Ø®ÙĦØ§Øµ":8169,"Ø±Ø¬Ø§ÙĦ":8170,"ÙĬÙħØ§":8171,"ĠØ§ÙĦÙħÙĬØ¯":8172,"ĠØªÙĪÙĬ":8173,"ÙĪÙĦØ§ÙĨ":8174,"Ø¦ÙĦ":8175,"ØªØŃØªÙĪÙĬ":8176,"ĠØ§ÙĨØ¹":8177,"ice":8178,"ĠÙĬØ¬ÙħØ¹":8179,"ĠÙĤÙĬÙĦ":8180,"ĠØ¹ÙĨÙĩÙħ":8181,"ĠØ§ÙĦÙĬÙħÙĬÙĨ":8182,"ĠÙħØ¹Ø§ÙĬÙĬØ±":8183,"ĠÙĪØ±Ø¯Øª":8184,"Ø§Ø¯Ø±Ø§Øª":8185,"ĠÙĨØ§Ùģ":8186,"ĠØ§ÙĦØ¨Ø±ÙĬØ¯":8187,"ĠØ¨Ø§ÙĦØ¶":8188,"ĠØ¹Ø¸Ùħ":8189,"ĠØ§ÙĦØ´Ø§Ø¨":8190,"ØªÙĤÙĪÙħ":8191,"ĠØ¢Ø®Ø±ÙĪÙĨ":8192,"ĠØŃØ¸":8193,"ĠÙħØ´Ø§ÙĩØ¯":8194,"93":8195,"av":8196,"rong":8197,"ĠÙħØªØ¨":8198,"Ø¶Ø±Ø§Ø±":8199,"Ø³Ùī":8200,"ĠØ¨Ø§ØŃ":8201,"ĠØ¨Ø¯ÙĪØ±Ùĩ":8202,"ĠØ§ÙĦØ´Ø§Ø±Ø¹":8203,"ĠÙĦÙĪÙĬ":8204,"ĠØ§ÙĦØ³ÙħØ§":8205,"ÙĪØ±ÙĬØ³":8206,"ĠØ§ÙĦØ§Ø³ØªØ¹Ùħ":8207,"ĠØ£ÙĬÙĦÙĪÙĦ":8208,"ĠØ§ÙĦØ±ØŃÙĦØ©":8209,"ĠØ§ÙĦÙĨØ³Ø¨Ø©":8210,"ĠØ§Ø¹ØªÙĤØ§ÙĦ":8211,"ĠÙĦÙĨØ¸Ø§Ùħ":8212,"Ø±ÙĬØ¹":8213,"Ø§Ø¨ÙĪÙĨ":8214,"Ø§Ø¶Ø¹":8215,"ĠØ£Ø´Ø¬Ø§Ø±":8216,"ĠØ³Ø±Ø¹Ø§ÙĨ":8217,"ĠÙĤØ¨ÙĪÙĦ":8218,"ĠØ£Ø®Ø°Øª":8219,"ĠØ£ØµØ¯Ø±Øª":8220,"ĠØ§ÙĦÙĨØ§Ø¬":8221,"ĠØ³ÙģÙĨ":8222,"ĠØªØŃÙĥÙħ":8223,"ĠØªÙĬØ§Ø±":8224,"ĠØ§ÙĦØ¬Ø¨ÙĦÙĬØ©":8225,"ĠØ§ÙĦØ²ÙħØ§ÙĨ":8226,"ĠØ³ÙĨØªÙĬÙĨ":8227,"ĠØ§ÙĦÙĦÙĪØ§Ø¡":8228,"Ø¹Ø§Ø±Ø¶":8229,"ĠØ§ÙĦØ¹Ø§Ø¯ÙĬ":8230,"ĠÙħØ§Ø±ÙĬØ§":8231,"ĠÙģÙĩØ¯":8232,"ĠØ§ÙĦØµÙĦØ¨":8233,"ĠØ³ÙĨÙĪÙĬ":8234,"ĠØ§ÙĦØªÙħÙĬÙĬØ²":8235,"ĠØ¨Ø¯Ø±Ø¬Ø©":8236,"ĠØ§ÙĦØ¥Ùģ":8237,"ĠÙĪØªØ³Øª":8238,"ĠÙħØ¤Ø®Ø±Ø§":8239,"ĠØ¬ÙĨÙĪØ¨Ø§":8240,"ĠÙĪØ£ÙĩÙħ":8241,"Ø³ÙĨÙĪØ§Øª":8242,"ĠÙĪØ²ÙĪØ¬":8243,"ĠÙĬØ¬Ø±ÙĬ":8244,"ĠÙħØŃÙĬØ·":8245,"ĠØºÙĬØ§Ø¨":8246,"ĠØ§ÙĦÙħÙĨØ§Ø²ÙĦ":8247,"Ø·Ø±Ø¯":8248,"ĠØ¨Ø¶Ø¹Ø©":8249,"ĠØ¨Ø²":8250,"ĠØ£ÙĥØ§Ø¯ÙĬÙħÙĬØ©":8251,"ĠØ¨ÙĨÙĪ":8252,"ÙĥÙĬØ¯":8253,"ĠÙħÙĤØ¯Ùħ":8254,"ĠÙĪØ§ÙĦØ¯ÙĩØ§":8255,"Ø°Ùĥ":8256,"ĠÙħØ¹Ø§Ø±Ùĥ":8257,"ÙĪÙĥÙĬÙĪ":8258,"ĠØ®Ø²":8259,"Ø¹ÙħØ§ÙĦÙĩ":8260,"ĠØ§ÙĦØ£ÙģØ±ÙĬÙĤÙĬ":8261,"ĠØ§ÙĦØ¨ÙĬØ²ÙĨØ·ÙĬ":8262,"ib":8263,"ĠÙĦÙĬØ´":8264,"ĠÙĨØ§Ø¯":8265,"ĠØ§ÙĦÙħØ±ÙĥØ¨Ø©":8266,"ĠØ§ÙĦØ·ÙĪÙĦ":8267,"ĠØ§ÙĦØ¬Ø§ÙħØ¹ÙĬØ©":8268,"ĠØ±Ø³ÙĪÙħ":8269,"ĠØ§ÙĦØ´Ø¤ÙĪÙĨ":8270,"ĠØ§ØŃØªÙħØ§ÙĦ":8271,"ĠÙĦÙĤØ§Ø¡":8272,"ĠØ§ÙĦÙħØ´Ø±ÙĤ":8273,"ĠØ§ÙĦÙħØ¹ÙĨÙī":8274,"ĠØ§ÙĦØªÙĨÙģØ³":8275,"ĠÙĦØ¯Ø¹Ùħ":8276,"Ø·Ø§Ø¬":8277,"ĠÙĬØªÙħØªØ¹":8278,"ĠÙĥÙĬÙĦÙĪÙħØªØ±Ø§":8279,"ĠÙħØ®Ø±Ø¬":8280,"ØµØ§Ø¯Ø±":8281,"Ø¸ÙĩÙĪØ±":8282,"ĠØºÙĬ":8283,"ĠÙĪØ¥Ø¹Ø§Ø¯Ø©":8284,"Ġ1929":8285,"ĠØªØ¹Ø±Ø¶Øª":8286,"ĠÙĦØ§Ø®":8287,"ĠÙĩØ§Ø¬Ø±":8288,"Ø§Ø²ÙĬÙĦÙĬ":8289,"ĠØ§ÙĦØµØŃÙĬØŃ":8290,"ĠØ¹Ø§Ø¦":8291,"ĠØªÙĬØ±":8292,"ĠÙĬØ±Ø¨Ø·":8293,"ÙĪÙĦÙĬØ¯":8294,"ÙĬÙĦØ§ÙĨ":8295,"ÙĤØ¯Ø§Ø±":8296,"ĠØªØ¬Ø§Ø±Ø©":8297,"ĠÙħØµØ±ÙĬØ©":8298,"ĠÙĨØ§Ø±":8299,"ĠÙħØ¹ØªÙħ":8300,"ĠÙĬØªØ¬Ø§ÙĪØ²":8301,"ĠÙĦØ¹ÙĦØ§Ø¬":8302,"ĠÙĬØªÙħÙĬØ²":8303,"ĠÙĪØ¨Ø·":8304,"ĠØ¨ØªØ´":8305,"ĠØ§ÙĦÙĥØ±Ø¯":8306,"Ø¨ÙĦØ§Ø¡":8307,"ĠÙĤØ±ÙĪÙĨ":8308,"ĠÙĪØ§Ùģ":8309,"ĠØ§ÙĦØŃÙģ":8310,"ĠÙħØ¹Ùħ":8311,"ĠØ§ÙĦÙĩØ§Ø¯Ø¦":8312,"ÙĤÙĬØ¯":8313,"ĠØ§ÙĦÙģØ§Ø·":8314,"ĠØ§ÙĦØ±Ø§ØŃÙĦ":8315,"ĠØ¬ÙĬØ¯Ø§":8316,"ĠØ§ÙĦØ±ÙĪØ³":8317,"ĠØ·Ø§Ø¦Ø±":8318,"ĠØ¹Ø´Ø±Ø§Øª":8319,"ĠÙĦÙĨÙĤÙĦ":8320,"ĠÙĬØ¤Ø«Ø±":8321,"ĠØ³ÙĨØª":8322,"ĠØ£Ø¹ÙĤØ§Ø¨":8323,"ĠÙħÙĨÙģØµÙĦØ©":8324,"ĠØ´Ø§Ø±ÙĦ":8325,"Ø¬Ø¯ÙĬØ©":8326,"ĠÙĦØ£ÙģØ¶ÙĦ":8327,"Ø¨Ø¯ÙĦ":8328,"ĠØ¸ÙĦØª":8329,"ĠØŃÙĦÙģ":8330,"ĠØ§ÙĨØªÙĩÙī":8331,"ĠØ§ÙĦØ§Ø¹ØªØ±Ø§Ùģ":8332,"Ø³Ø·ÙĨØ·ÙĬÙĨÙĬØ©":8333,"ĠØ¹ÙĪØ¯ØªÙĩ":8334,"Ø§Ø¯ÙĬÙħÙĬ":8335,"ĠØ§ÙĦÙħØŃØªÙħÙĦ":8336,"ĠØ§ÙĦÙħØ¹ÙħØ§Ø±ÙĬØ©":8337,"67":8338,"ÙĤÙĪØ¯":8339,"ĠÙĤØ§Ø¹Ø©":8340,"ĠÙħÙĨØµÙĪØ±":8341,"ĠÙħÙĦØŃ":8342,"ĠØ¹Ø§ÙĦÙħÙĬØ§":8343,"ĠÙĪØ§ÙĦØ«ÙĤØ§ÙģØ©":8344,"px":8345,"Ø¨ÙĪØ±Øº":8346,"ĠÙĤÙĪÙĦÙĩ":8347,"ĠÙħØ¹Ø§ÙĦÙħ":8348,"ĠØ§ÙĦÙħÙĨØ®ÙģØ¶Ø©":8349,"ĠÙĪØ¹ÙĬÙĨ":8350,"ĠØ§ÙĨØªØ®Ø§Ø¨":8351,"81":8352,"ĠÙģÙĨØ§ÙĨ":8353,"ĠØ¨Ø±Ùĥ":8354,"ĠÙĬØ¨ÙĤÙī":8355,"ĠØ§ÙĦØ¥Ø¹":8356,"ĠØ¨Ø§ÙĦÙĤØ§ÙĩØ±Ø©":8357,"ĠØ§ÙĦØ³ÙĬÙĨÙħØ§Ø¦ÙĬ":8358,"Ø¨Ø«":8359,"ĠÙĪØ®Ø·":8360,"Ø¸Ø±Ø§":8361,"ĠØ³Ø±ÙĬØ¹":8362,"ĠØ§ÙĦÙĤØ§Ø¯Ø©":8363,"ĠØ±Ø¦":8364,"ĠØ§ÙĦÙħÙħØ«ÙĦØ©":8365,"83":8366,"ĠÙħØªÙħÙĬØ²":8367,"ĠÙĨØŃ":8368,"ĠÙĦÙĦØŃÙĥÙĪÙħØ©":8369,"ĠÙĤØµÙĬØ¯Ø©":8370,"ĠÙĦÙĦØ§ÙĨØª":8371,"Ø§Ø¬Ø¦ÙĬÙĨ":8372,"ĠØ³ÙĨØªÙĬ":8373,"ĠØ§ÙĦÙĤÙĦÙĬÙĦ":8374,"ÙĬØªÙĥÙĪÙĨ":8375,"ĠØ§ÙĦÙħØ®Ø§Ø¨Ø±Ø§Øª":8376,"ĠØ§ÙĦØ¹Ø§Ø¯Ø©":8377,"ÙĨÙĬÙĪÙħ":8378,"ĠØ§ÙĦØ¥ÙĨØ¬ÙĦÙĬØ²":8379,"ĠØ³Ø§ÙģØ±":8380,"Ø§ÙĤØ¶":8381,"ĠØ§ÙĤØªØµØ§Ø¯ÙĬØ©":8382,"Ø¯ÙĬÙĩØ§":8383,"ĠØ§ÙĦÙħØ¹Ø§ØµØ±Ø©":8384,"Ø²ÙĬØ§Ø±Ø©":8385,"ĠÙĦØ£Ø³Ø¨Ø§Ø¨":8386,"ĠØ§Ø¶Ø·Ø±Ø§Ø¨":8387,"Ø¹ÙĬØ§ÙĨ":8388,"ĠØ§ÙĦØ¹ÙħØ±ÙĬØ©":8389,"ĠÙĪØ§ÙĦØ¯ÙĬÙĨ":8390,"ÙģÙĬØ²":8391,"ĠØ¶ÙĪ":8392,"ĠØ£ØŃÙĬØ§ÙĨ":8393,"ĠÙģØ±Ø§ÙĨÙĥ":8394,"ĠØ¨Ø§ÙĦØ¹ÙħÙĦ":8395,"ĠÙĥØ±Ø¯":8396,"ĠØ§ÙĦÙĤØ§Ø¶ÙĬ":8397,"ĠØ§ÙĦÙħÙĨØ§Ø³Ø¨Ø©":8398,"ĠÙĦØ¥Ø¹Ø§Ø¯Ø©":8399,"ØµØ¯Ø±Øª":8400,"ĠÙĤØ§ÙĦØª":8401,"ĠØ§ÙĦÙħÙĩØ¯ÙĬ":8402,"ĠØ§ÙģØªØªØŃ":8403,"Ø§ÙĦØ§Ø³Øª":8404,"ĠØ¨Ø¹Ø¯Ø¯":8405,"ÙħØ«Ø§ÙĦ":8406,"ĠÙĪØ§ÙĦØªØµ":8407,"Ġu":8408,"ĠÙĬØªØ±Ø§ÙĪØŃ":8409,"ĠØ§ÙĦØ¬ÙħØ§ÙĦ":8410,"ĠÙĪÙĤÙĪØ¹":8411,"Ġstrong":8412,"ĠØ§ÙĦÙħØ¨Ø§Ø±ÙĬØ§Øª":8413,"ĠØ¨ÙĦØ§Ø¯Ùĩ":8414,"Ø§ÙĦØªÙĩØ§Ø¨":8415,"ĠÙĬØ·ÙĦØ¨":8416,"Ġ54":8417,"84":8418,"ĠØ³ÙĬÙħ":8419,"ĠØ§ÙĦØ¹Ø¶ÙĦØ§Øª":8420,"ĠØ¨ØªÙĤØ¯ÙĬÙħ":8421,"ĠÙĬØ®Ø±Ø¬":8422,"ĠÙĪØ§ÙĦØªØ§Ø±ÙĬØ®":8423,"ÙĩÙĬØ¦Ø©":8424,"ĠØ¥Ùĥ":8425,"ĠØ¹Ø¯Ø¯ÙĩÙħ":8426,"ÙĬÙĦÙĩ":8427,"ĠØ¨Ø£ÙĥÙħÙĦ":8428,"Ø§ÙĦØ±ØºÙħ":8429,"ĠØ§ÙĦØ§ÙĨØªØ®Ø§Ø¨ÙĬØ©":8430,"ĠØ§ÙĦØ®ÙħØ³Ø©":8431,"ĠÙħØ¤Ø³":8432,"org":8433,"ĠØ°ÙĥØ±Øª":8434,"Ø·Ø¨ÙĬØ¹Ø©":8435,"ÙĬØ¦Ø©":8436,"ĠØªØµÙģ":8437,"ĠÙĦÙĦØªØ¬":8438,"ĠØ¨Ø§ÙĦØ³ÙĬ":8439,"ĠØ§ÙĦØµØ¹ÙĬØ¯":8440,"ĠØ®Ø·Ø§Ø¨":8441,"ĠØ£Ø³Ø±Ø¹":8442,"ĠØ¨ÙĪØ¨":8443,"Ø´ÙĪ":8444,"ĠØ§ÙĦØ±ÙĬØ§Ø¶Ø©":8445,"ĠØºØ§ÙĦØ¨ÙĬØ©":8446,"ØªØ¯Ø©":8447,"ĠÙĦØ³ÙĬ":8448,"ĠØ§ÙĦÙħÙĪÙĤÙģ":8449,"ĠØ±Ø¹Ø§ÙĬØ©":8450,"ĠØ§ÙĦØ£Ø¯ÙĨÙī":8451,"ĠØ§ÙĦØ¨ÙĬØ²ÙĨØ·ÙĬØ©":8452,"Ø®ØµÙĬØ§Øª":8453,"ĠØ§ÙĦÙħØŃÙĪØ±":8454,"ĠØ§ÙĦØ¢ÙĦÙĩØ©":8455,"Ġ41":8456,"ÙĥØ´Ø§Ùģ":8457,"ĠØ¬ÙĪØ¯Ø©":8458,"ĠØ®ÙĦÙĬÙĦ":8459,"ĠØ§ÙĦÙħÙĪØ±":8460,"ĠÙĦÙĦØªØ¯":8461,"ÙĬØ±ÙĩØ§":8462,"ĠØ§ÙĦØªØ±ØªÙĬØ¨":8463,"ĠØ¹Ø¯ÙĨ":8464,"ĠØ§ÙĦØ£ØŃØ¯":8465,"ĠØ§ÙĦÙĨØ¸Ùħ":8466,"Ø¦ÙĬØ§":8467,"ĠØµÙĤÙĦÙĬØ©":8468,"ĠØ£Ø«Ø¨Øª":8469,"ĠÙĪÙĦÙĤØ¯":8470,"ĠØ£Ø³ÙĪØ¯":8471,"ĠÙĪØªØ³ÙħÙī":8472,"ĠØªØ´Ø®ÙĬØµ":8473,"ĠØ§ÙĦØ¨Ø±ÙħØ¬ÙĬØ§Øª":8474,"Ġ43":8475,"ĠØŃÙħØµ":8476,"ĠØ§ØºØªÙĬØ§ÙĦ":8477,"ÙĪØªØ³":8478,"ĠÙħÙĥÙĪÙĨØ©":8479,"ĠØªØ¯ÙģÙĤ":8480,"ĠÙĪØ§ÙĦÙģØ±":8481,"ĠÙĦÙĦØ¨ÙĦØ§Ø¯":8482,"ĠØ§ÙĦØµØ¨":8483,"ity":8484,"ĠØªØ¹ÙĦÙĬÙħÙĩ":8485,"ĠØ§ÙĦØ®ØµØ§Ø¦Øµ":8486,"ĠØŃÙĦÙĤØ§Øª":8487,"ĠØ§ÙĦØªÙĪØ±":8488,"ĠØ±Ø§Ùģ":8489,"ĠØ±Ø¨Ø¹":8490,"ĠØ²Ø§ÙĪÙĬØ©":8491,"ÙĪÙĥØ§":8492,"ĠØ£ÙħÙĩ":8493,"ĠØ§ÙĦØ£ÙĨØ³Ø¬Ø©":8494,"ĠØ§ÙĦØ¸Ø§ÙĩØ±Ø©":8495,"Ø§ÙħØ³":8496,"ĠØ§ÙĦØºÙĨØ§Ø¡":8497,"ĠØ§ÙĦØ¬ÙĨØ§ØŃ":8498,"ĠØªØ±ÙĬ":8499,"ĠØ§ÙĦØ£Ø´ÙĥØ§ÙĦ":8500,"Ø¤Ø§Ø¯":8501,"ĠÙĪÙĪÙĦ":8502,"ÙĪÙģØ§Ùĥ":8503,"ĠØ£Ø²ÙħØ©":8504,"Ø¹ÙĪØ©":8505,"ĠÙĪØ¸ÙĦ":8506,"ĠØµÙĦØ§Ø©":8507,"ĠØ§ÙĦÙĤØ±ÙĨÙĬÙĨ":8508,"ĠØ·Ø¨ÙĬØ¨":8509,"ĠÙħØ§Ø¦Ø©":8510,"ÙĦÙĬÙĩØ§":8511,"ĠÙħÙĬÙĥØ§ÙĨ":8512,"ĠØ§ÙĦØŃÙħÙĬØ¯":8513,"ĠØªØ±Ø¨":8514,"ĠØªØ¨ÙĬÙĨ":8515,"ĠØ¥ÙĨØ¬Ø§Ø²":8516,"ĠØ§ÙĦØ¬Ø°":8517,"Ø§Ø´ØªØ±Ø§Ùĥ":8518,"ĠØ§Ø¨ØªØ¯Ø§Ø¡":8519,"ĠØ§ÙĦÙħÙĩØ§Ø¬Ø±ÙĬÙĨ":8520,"age":8521,"ĠÙĦÙĦØ¹ÙĦÙĪÙħ":8522,"ÙĪØ²ÙĨ":8523,"ĠØ§ÙĦØ²Ø±Ø§Ø¹ÙĬ":8524,"ÙĪØ¨Ø±Ø§":8525,"ĠÙĪØ§Ø¬Ùĩ":8526,"ĠØ·ÙĪÙĬÙĦØ§":8527,"ĠØ¨Ø§ÙĦÙħØ¹":8528,"ØªØªÙħÙĬØ²":8529,"ÙĥÙĬÙģ":8530,"ĠÙĦÙĦÙħØ³Øª":8531,"lass":8532,"ĠÙĪØ¹Ø´Ø±ÙĬÙĨ":8533,"ĠÙĬÙĨØ¸Ø±":8534,"Ġ1924":8535,"ĠØ§ÙĦØ³Ø¬":8536,"ĠØ£ØŃÙĬØ§Ø¡":8537,"ĠØ¬Ø¨ÙĩØ©":8538,"ĠØ§ÙĦØ¢Ø´":8539,"Ø§Ø±Ø¦":8540,"ÙĪØ¶Ø§Ø¹":8541,"ĠØ¥ØµØ§Ø¨Ø©":8542,"ĠØ§ÙĦÙħØªÙĪØ³Ø·Ø©":8543,"ord":8544,"ÙĤÙĪØ³":8545,"ØµØ§":8546,"ĠØ§ÙĦÙĥÙĪÙĦ":8547,"ĠØ§ÙĦØ±Ø´ÙĬØ¯":8548,"ĠØ±ÙĪØ³":8549,"ĠØ§ÙĦØ¬Ø§Ùĩ":8550,"ĠØºØ§ÙĬØ©":8551,"Ø¯Ø±Ø§Ø¦ÙĬØ©":8552,"ĠÙĨÙĪØ§Ø©":8553,"ĠØ§ÙĦÙĩØ§ØªÙģ":8554,"ĠØ¨Ø±Ø¦Ø§Ø³Ø©":8555,"ÙįÙĳ":8556,"ĠØ§ÙĦÙģØ±ØµØ©":8557,"ÙĤØ§ÙģÙĬØ©":8558,"ØµÙĬØ¯":8559,"Ø«Ø§ÙģØ©":8560,"ĠÙħÙĪØ¬Ø©":8561,"ĠØ§ÙĦØµÙĦØ¨Ø©":8562,"ĠØ¨Ø¢":8563,"ĠÙħÙĨØ®ÙģØ¶":8564,"ĠÙĦØ§Ùģ":8565,"Ġ#":8566,"Ø£ÙĩÙĦ":8567,"ĠØ§ÙĦÙħØ¯Ø±Ø¨":8568,"Ø¶Ø§Ø¦Ø¹":8569,"ÙĪØªØ©":8570,"ĠØ¹ÙħÙĦØª":8571,"ÙĪØ±Ø§ÙĤ":8572,"Ø§Ø³Ø±":8573,"ame":8574,"ĠÙĪØ¹Ø§Ø¯Ø©":8575,"ÙĩØ±ÙĬØ©":8576,"Ġ1928":8577,"ĠØ§ÙĦÙħØ°ÙĥÙĪØ±Ø©":8578,"Ø£Ø±":8579,"ĠØ§ÙĦØªØ¹Ø±Ùģ":8580,"ĠØ¢Ø¯Ùħ":8581,"Ø±ÙĬØ¬ÙĬØ§":8582,"ĠÙĪØŃØ±":8583,"ĠÙĪÙĥØªØ§Ø¨":8584,"ĠØ°Ø§ØªÙĩØ§":8585,"ĠØ§ÙĦØ£ÙĨØ¯ÙĦ":8586,"Ø§Ø³ÙģØ©":8587,"ĠØ§ÙĦØ¹Ø¯ÙĦ":8588,"ĠØ§ÙĦÙģØ±Ø§Øº":8589,"Ø·ÙĪØ¹":8590,"ĠØ§ÙĦØ£ÙħÙĬØ±ÙĥÙĬØ©":8591,"ĠØ¹Ø§Ø¯Øª":8592,"ĠÙĩÙĥØª":8593,"ĠÙĦØªØ·ÙĪÙĬØ±":8594,"ĠØªØ¬Ø§Ø±ÙĬ":8595,"ĠØ§ÙĦØ¹ÙĨØµØ±":8596,"ack":8597,"ĠØ§ÙĦÙĨØ³Ø¨ÙĬØ©":8598,"ĠØ§ÙĦÙĨØŃØ§Ø³":8599,"ĠØ§ÙĦØ¨ÙĬØ±":8600,"ĠØ§ÙĦÙĥÙĪØ§ÙĥØ¨":8601,"Ø¯Ø§Øª":8602,"ĠØ§ÙĦØŃØ±ÙĥØ§Øª":8603,"ÙĬÙĦÙĬÙĨ":8604,"ĠÙħØ³Ø§Ø¡":8605,"ĠÙĪØ§ÙĦØ§Øª":8606,"ØºÙĨÙĬ":8607,"ĠØ´ÙĬÙĥ":8608,"ÙĥÙĦÙģ":8609,"ĠØ«Ø§ÙĨÙĪÙĬØ©":8610,"Ø·ÙĦØ¹":8611,"ĠÙħØ¤Ø³Ø³Ø§Øª":8612,"ÙħØ§ÙħØ§Øª":8613,"ØªØªÙĥÙĪÙĨ":8614,"Ġ00":8615,"ĠÙĦØ£Ø³":8616,"ĠØ§ÙĦØ£Ø¯ÙĦØ©":8617,"ĠØ§ÙĦÙĬØ³Ø§Ø±":8618,"ĠØ§ÙĦÙħÙĨÙĤ":8619,"ĠØªØ³ØªØ¹ÙħÙĦ":8620,"ĠØ£Ø·Ø±Ø§Ùģ":8621,"ĠØ§ÙĦÙħØ³Ø¨":8622,"ĠÙħÙĨÙĤ":8623,"ĠÙĬÙĤÙĪØ¯":8624,"Ø«ÙħØ§ÙĨÙĬ":8625,"ĠØªØ§ÙĬÙħ":8626,"ĠØ§ÙĦØ¥ÙĬÙħØ§ÙĨ":8627,"ĠÙĪØ¹Ø´Ø±ÙĪÙĨ":8628,"ĠØ§ÙĦÙħØ¹Ø§ÙĦÙħ":8629,"ĠØ³Ø¨Ø§ÙĤ":8630,"ĠØ§ÙĦØŃÙĤØ¨Ø©":8631,"ĠÙĪØ±ÙĬ":8632,"ĠÙĪÙĬÙĪ":8633,"Ø¸ÙĩØ§Ø±":8634,"ĠØªØ±ØªØ¨Ø·":8635,"ĠØ§ÙĦÙħÙĨØ§Ø¹Ø©":8636,"Ø°Ø§ÙģÙĬ":8637,"ĠØ§ÙĦÙħÙĪØ§ÙģÙĤØ©":8638,"ĠÙĦØŃÙħ":8639,"ĠÙĥÙĪÙĦÙĪÙħØ¨ÙĬØ§":8640,"64":8641,"ĠØ³ÙĪØ±":8642,"ĠÙħØªÙĥ":8643,"ĠÙħÙĩØ¯":8644,"ÙĪØ¨Ø§ÙĨ":8645,"ØªØ§Ø¨Ø¹":8646,"Ø¬ÙĨØ¨":8647,"ÙĬØ·Ø§ÙĦÙĬØ§":8648,"ĠØ§ÙĦØªØ¯Ø®ÙĦ":8649,"ÙģØ¹ÙĬØ©":8650,"ĠØ±ÙĬØ¯":8651,"ĠØŃÙĥÙĪÙħÙĬØ©":8652,"ĠÙĤÙĨÙĪØ§Øª":8653,"ÙĩØ±Ø¬":8654,"Ø³Ø±Ø·Ø§ÙĨ":8655,"ĠÙħØ³Ø§Ø¨ÙĤØ©":8656,"ĠÙħØ´Ø§Ø¨ÙĩØ©":8657,"ĠØŃØ¯ÙĬØ«Ø§":8658,"ĠØ§ÙĦÙħØ·ÙĦÙĪØ¨":8659,"II":8660,"Ø§Ø³ØªØ®Ø¯Ùħ":8661,"ĠÙĪØ¨ÙĨØ§Ø¡":8662,"ĠÙĪÙĦÙĩØ°Ø§":8663,"ĠØ£ØµÙĪØ§Øª":8664,"ĠØ§ÙĦØ´Ø¹Ø±ÙĬØ©":8665,"ĠØ¨Ø§ÙĥØ³ØªØ§ÙĨ":8666,"55":8667,"Ø£Ùī":8668,"ĠØ³ÙĬØªÙħ":8669,"ĠÙĩÙĨØ§ÙĦÙĥ":8670,"ĠØªØŃÙĤÙĤ":8671,"ĠÙĪØ§Ø³ØªØ·Ø§Ø¹":8672,"ĠØ§ÙĦÙĪØ³Ø·ÙĬ":8673,"ĠØ§ÙĦÙħØŃØ±":8674,"ĠÙħØ®Ø·Ø·":8675,"Ø£Ø«ÙĨØ§Ø¡":8676,"ØªÙħØ«ÙĦ":8677,"ĠØ£Ø¨Ø¯Ø§":8678,"ĠÙĪÙĬÙĥ":8679,"ĠØ¹ÙħÙĪÙħ":8680,"ĠØ§ÙĦÙĤØ¨ÙĬÙĦØ©":8681,"ĠÙĪØ§ÙĦØ«Ø§ÙĨÙĬØ©":8682,"ort":8683,"ØªÙĨØ§Ùħ":8684,"ĠØ§ÙĦÙĪØ²Ø§Ø±Ø©":8685,"ĠÙĪØ§ÙĦÙģÙĨ":8686,"ĠØ²Ø§Ø±":8687,"ĠÙĬØ¹Ø§ÙĨÙĬ":8688,"ĠÙħØ¹Ø¸ÙħÙĩØ§":8689,"Ø´Ø¹Ø©":8690,"ĠÙĪØ¬ÙĬØ²Ø©":8691,"ĠØ§ÙĦÙĪØ¸Ø§Ø¦Ùģ":8692,"ĠÙģÙĤØ±":8693,"ĠØ¥Ø³Ø·":8694,"ĠÙĥÙĩ":8695,"ĠØŃÙĬÙĪ":8696,"Ø§Ø¶ÙĪÙĦ":8697,"Ø§Ø´Ùħ":8698,"ĠØ£Ø¹ÙĬØ¯":8699,"ÙĦÙĬÙħØ©":8700,"ĠÙĬØ¹Ø§Ø¯ÙĦ":8701,"ĠØªØªÙĨ":8702,"ĠØ§ÙĦØ¨ÙĪØ³":8703,"ÙĪØ¨Ø§ÙĦ":8704,"ĠØ·Ø¨ÙĤ":8705,"ĠÙħØ±ÙĥØ¨Ø§Øª":8706,"Ø³ÙĦÙħ":8707,"ÙĤØ¯Ø±Ø©":8708,"Ø§Ø·ÙħØ©":8709,"ĠØ§ÙĦØ®Ø³":8710,"ĠØ§ÙĦÙħØ°ÙĥÙĪØ±":8711,"ĠØ§ÙĦØ³Ø§ØŃÙĦÙĬØ©":8712,"ĠÙĪØ³Ø§Ùħ":8713,"Ø¯Ø±ÙĬØ¨":8714,"ĠÙĪØ±ÙĤ":8715,"ØµØ·ÙĦØŃ":8716,"ĠÙĥÙĪØ³":8717,"ĠØ¬ÙĪØ§ÙĨØ¨":8718,"ĠÙħØ³ØªØ´Ø§Ø±":8719,"ĠÙĬØ´Ø§Ø±Ùĥ":8720,"ĠØ³ÙħØŃ":8721,"ĠØ§ÙĦØ£Ø²ÙħØ©":8722,"ĠÙħØ·Ø¨":8723,"ĠØ³Ø§":8724,"ØºØ§Ùħ":8725,"ĠØ§ÙĦÙĪÙĩØ§Ø¨":8726,"ĠØŃÙĪÙĦÙĩ":8727,"ĠØ§ÙĦÙħÙĥØ±ÙħØ©":8728,"ĠØ¨ÙĥÙĦÙĬØ©":8729,"Ø§ØŃÙĤ":8730,"Ø§Ø¨ÙĤØ§Øª":8731,"Ġbr":8732,"ĠØ§ÙĦØ¹Ø¨ÙĬØ¯":8733,"ĠÙħØ®Øª":8734,"ĠÙĪØ§ÙĦØ¬ÙĨÙĪØ¨":8735,"ĠØ£Ø³Ùħ":8736,"ĠÙĬØ¶Ø¹":8737,"Ø±ÙĥÙĬ":8738,"ĠØ§ÙĦØ®ÙĬØ±":8739,"Ø§ÙĦÙħØ¹":8740,"500":8741,"ĠØ§ÙĦÙħØ§Ø¶ÙĬØ©":8742,"ĠØ¥Ø¯Ø§Ø±ÙĬ":8743,"ĠÙħØ§ÙĨØ´Ø³ØªØ±":8744,"ĠØ§ÙĦØ±Ø§Ø¨Ø·":8745,"ĠÙħÙĩØ§Ùħ":8746,"ĠØ·Ø¨ÙĤØ§":8747,"ĠØ´Ø±Ùĥ":8748,"Ø§Ø²ÙħØ§":8749,"ĠÙħØ±Ø§ÙĤØ¨Ø©":8750,"ØµÙĬØ¯Ø©":8751,"ĠÙĪØ²ÙĬØ§Ø¯Ø©":8752,"ĠØ§ÙĦÙģØŃÙħ":8753,"ÙĪÙĦØ¯Øª":8754,"ĠÙħØ±ÙĬÙħ":8755,"ĠØªÙĤÙĦÙĬÙĦ":8756,"ĠÙĦÙĦÙħÙĨØ§Ø·ÙĤ":8757,"ĠØ§ÙĦÙħØ·ÙĦÙĪØ¨Ø©":8758,"ĠØ¯Ø§ÙĪØ¯":8759,"Ø¬ÙĬØ¨":8760,"ĠÙĤØª":8761,"ĠØ§ÙĦØ²Ø¹ÙĬÙħ":8762,"Ø·Ø§Ø¹Ùħ":8763,"ĠØ¨Ø³ÙĬØ·":8764,"ĠØ§ÙĦÙħØ¬ÙĦØ©":8765,"ĠÙĪÙħØ¹Ø¸Ùħ":8766,"Ġy":8767,"Ø¯ÙħØ§ÙĨ":8768,"ĠÙħØ´Ø±":8769,"Ø´Ø¹Ø§Ø±":8770,"ĠØ§ÙĦØ´Ø§Ø¦Ø¹Ø©":8771,"ĠÙģØ±ÙĨØ³ÙĬØ©":8772,"ĠØ¨Ø§Ø¯":8773,"ĠØ§ÙĦÙĨØ³ÙĬØ¬":8774,"ĠØ¨Ø§ÙĦØªØ¹Ø§ÙĪÙĨ":8775,"ĠØ§ÙĦÙĥØ§Ø±":8776,"ĠÙĪØ§ÙĦÙħÙĩ":8777,"Ø·Ø±ØŃ":8778,"ĠØ§ÙĦÙģÙĦØ³Ø·ÙĬÙĨÙĬÙĬÙĨ":8779,"ĠØ£ÙĪØº":8780,"ÙģÙĦØ§Øª":8781,"ĠØ§ÙĦØ±Ø³Ø§Ø¦ÙĦ":8782,"ĠØµØ¹ÙĪØ¨Ø©":8783,"ĠØ¨Ø§ÙĦÙħØ³":8784,"ĠØ§ÙĦØµØŃØ§Ø¨Ø©":8785,"ĠØ¨Ø§Ø±Ùĥ":8786,"ÙģÙĬØª":8787,"ĠØ§ÙĦØªÙĦÙģØ²ÙĬÙĪÙĨÙĬØ©":8788,"ĠÙĨØ§Ø¦":8789,"ĠØ§ÙĦØªÙĥÙĨÙĪÙĦÙĪØ¬ÙĬØ§":8790,"ĠØ§ÙĦØµØ¹Ø¨":8791,"ĠØ§ÙĦÙħØ¹Ø¨Ø¯":8792,"ÙģØµÙĦ":8793,"ĠØ·ÙĬØ±Ø§ÙĨ":8794,"ĠØ§ÙĦØ®Ø´Ø¨":8795,"ud":8796,"ĠÙĦØ¹ÙħÙĦ":8797,"ĠØ§ÙĦØ·Ùģ":8798,"ĠØ£ÙħÙĪØ§ÙĦ":8799,"ang":8800,"ĠØ§ÙĦØ®Ø±ÙĪØ¬":8801,"ĠØ¥ÙĬØ¬Ø§Ø¯":8802,"ĠÙĪØ§ÙĦØ§ÙĨØªØ´Ø§Ø±":8803,"Ø´Ø±ØŃ":8804,"ĠÙĪØ¬Ø²":8805,"ĠØ§ÙĦÙħØ¹Ø§Ø¯ÙĦØ©":8806,"ĠØ§ÙĦØ·Ø±ÙģÙĬÙĨ":8807,"ĠÙĬÙħÙĨØ¹":8808,"Ø£ÙĥØ¯":8809,"ĠØ§ÙĦÙĨÙĪÙħ":8810,"ĠØ§ÙĦØ°Ø±Ø©":8811,"ĠØ§ÙĦÙħÙĨØ§ÙģØ³Ø©":8812,"ĠØ§ÙĦØ¨ÙĥØ§ÙĦÙĪØ±ÙĬÙĪØ³":8813,"ĠÙĪØªØ¨Ø¹Ø¯":8814,"Ø±ÙĬØ¶Ø©":8815,"ĠÙĪÙĤØ¯Ùħ":8816,"ĠÙĪÙĦØ¨":8817,"ĠØ§ÙĦØ¢ÙĦØ§Ùģ":8818,"ĠØ§ÙĦÙĨÙĤØ§Ø·":8819,"ĠØ¨Ø¯ÙĪØ±ÙĩØ§":8820,"ĠØ£Ø¬Ø±ÙĬØª":8821,"ĠÙĤØªØ§ÙĦ":8822,"ĠØ§ÙĦØ²ÙĪØ¬":8823,"ĠÙĪØ¹ÙħØ±":8824,"ĠØªØ§Ø±ÙĬØ®Ùĩ":8825,"ĠØ§ÙĦØ¨ØŃÙĬØ±Ø©":8826,"ĠØ¨Ø¬Ø§Ø¦Ø²Ø©":8827,"ĠØªÙĪØ³ÙĬØ¹":8828,"ĠØ§ÙĦÙĥØ§ÙĦØ³ÙĬ":8829,"Ø´ØªØ§ÙĦØ©":8830,"ÙĪØ§ÙĨØ¦":8831,"ĠØ§ÙĦØ§Ø¹ØªØ¨Ø§Ø±":8832,"Ø§ÙĤØª":8833,"ĠÙĦÙĬØ¯":8834,"ĠÙĩÙĨØ¯Ø³Ø©":8835,"ĠØ§ÙĦØµØ§Ø±":8836,"ĠÙĦÙĦØ£ÙĨ":8837,"ĠØ·ÙĦØ§Ø¨":8838,"ĠÙĪÙĬØ¹Ø¯":8839,"ĠØ§ÙĦÙħØ¤ÙĤØª":8840,"ĠÙħÙħØ±":8841,"ĠØªØ¨Ø±":8842,"ĠØ§ÙĦÙĦÙĬØ¨ÙĬØ©":8843,"Ø§ÙĦØªÙĩ":8844,"ĠØ£ÙĬØ§Ø±":8845,"ĠÙĬØ¹ÙĦÙħ":8846,"ĠÙĤØ§Ø¦Ùħ":8847,"Ø·ÙĦØ§Ø¨":8848,"ĠØ³ØŃØ¨":8849,"ĠÙħÙĬÙĪÙĨ":8850,"Ø§ØªÙĦØ©":8851,"ĠØ¬Ø¯Ø©":8852,"ĠØ§ÙĦØ¬ÙĩØ§Øª":8853,"Ġ57":8854,"ĠØ£ØµÙĬØ¨":8855,"ĠØ£Ø¨ÙĪØ§Ø¨":8856,"ĠØ§ÙĦØ¹Ø§ÙħÙĦÙĬÙĨ":8857,"ĠØ§ÙĦÙģÙĦØ³":8858,"ĠØªØºØ·ÙĬ":8859,"ĠØŃØ§ÙħÙĦ":8860,"ĠØ´Ø§Ø¨":8861,"ĠØ·Ø§Ø¨Ø¹":8862,"ĠØ§ÙĦØµÙĦÙĬØ¨ÙĬØ©":8863,"ĠÙĬØ¹Ø±Ø¶":8864,"ĠØªØŃÙĪÙĦØª":8865,"ne":8866,"ĠØ¨ÙĨÙĬØª":8867,"ĠØ¹ÙĦÙħÙĬ":8868,"Ø¬ÙĦÙĬØ²ÙĬ":8869,"Ø§Ø¶Ø±Ø§Øª":8870,"ant":8871,"ĠØ·Ø±ØŃ":8872,"ĠØªÙĥÙĦÙģØ©":8873,"ĠØ§ÙĦØ£ÙģØ¶ÙĦ":8874,"Ø§ÙĦØªØ¹ÙĦÙĬÙħ":8875,"Ġ800":8876,"ĠÙĪØ§ÙĬ":8877,"ĠØ®Ùħ":8878,"ÙģÙĥØ§Ø±":8879,"ĠØ¹ÙħØ§":8880,"Ø§Ø¦Ø±ÙĬ":8881,"ĠØ§ÙĦØ¨Ø§ÙĦ":8882,"ĠØ§ÙĦØ±Ø¬":8883,"Ø§ÙĨØªÙĤÙĦ":8884,"ÙĪÙħÙĨØ°":8885,"ĠØ§ÙĦØ¨Ø³ÙĬØ·Ø©":8886,"Ð¾":8887,"ĠØ¨Ø¦Ø±":8888,"ĠØ¹ÙĦØ§ÙħØ§Øª":8889,"ĠØ¹Ø±Ø´":8890,"ĠØ¨Ø§Ø³ØªÙħØ±Ø§Ø±":8891,"ĠØªØ¹Ø·ÙĬ":8892,"ĠÙħØ¬Ø¯Ø¯Ø§":8893,"ÙĪÙĬÙĪØ¬Ø¯":8894,"ÙĪØ¹ÙĨØ¯":8895,"ĠØ£ÙĪÙĦØ¦Ùĥ":8896,"ÙģÙĬØ§ÙĨ":8897,"Ø¨Ø§ÙĨÙĬ":8898,"ĠØ¨ÙĪÙĬ":8899,"ĠØ¯ÙĬÙĪØ§ÙĨ":8900,"ĠÙħÙĦÙĥÙĬØ©":8901,"ĠØ§ÙĦØªØ³Ø¬ÙĬÙĦ":8902,"Ø¨ÙĪØ±":8903,"Ø«ÙħØ±":8904,"ĠØŃØµÙĨ":8905,"ĠØ§ÙĦÙħØªÙĤØ¯ÙħØ©":8906,"ĠØ§ÙĦØ¨Ø«":8907,"ĠØ§ÙĦØ¹Ø§ÙħÙĦ":8908,"ĠØªØ£Ø³Ø³":8909,"ĠØ§ÙĦØªØºÙĬÙĬØ±":8910,"ĠÙĪØ¨Ø´ÙĥÙĦ":8911,"Ø³Ø®":8912,"ĠØ¨Ø®Ø·":8913,"ĠØ¨Ø¨Ø·ÙĪÙĦØ©":8914,"ĠØªÙĦØ¹Ø¨":8915,"ĠÙħÙĥØ§ÙĨØ©":8916,"ĠØ¨Ø£ÙħØ±":8917,"ĠØ§ÙĦØ³ÙĪÙģÙĬÙĬØªÙĬ":8918,"ĠØŃØªÙĬ":8919,"ĠØ³Ø§Ø¨ÙĤØ©":8920,"ĠØªÙĨØªØ´Ø±":8921,"ØµØª":8922,"Ø¥Ø°":8923,"ĠØºØ§Ùħ":8924,"ĠØ¬ÙħÙĬÙĦ":8925,"ĠÙħØ¯ÙĬØ±ÙĬØ©":8926,"ĠØ§ÙĦÙħÙĦØ§Ø¨Ø³":8927,"ĠØ§ÙĦØ¨Ø±ÙĪØªÙĬÙĨ":8928,"ĠØ±Ø´":8929,"ĠØ§ÙĦÙĨÙĬÙĪ":8930,"ĠØ§Ø¨Øª":8931,"Ø§ØŃØ¸Ø§Øª":8932,"ĠÙģÙħ":8933,"ĠÙĬØµÙģ":8934,"ĠØ§ÙĦÙħØ±Ø§ØŃÙĦ":8935,"ĠØ§ÙĦÙĩØ±Ùħ":8936,"ĠØ¬ÙĦØ¨":8937,"ĠØ¬Ø°ÙĪØ±":8938,"ĠØŃØ±ÙĪØ¨":8939,"ĠØ§ÙĦØ£ØŃÙĪØ§ÙĦ":8940,"ĠØ§ÙĦØªØ¹Ø±Ø¶":8941,"ĠØ¹ÙħÙĦÙĬ":8942,"ĠØ§ÙĦØŃØ±Ø³":8943,"ĠØ¨Ø¨Ø±":8944,"ĠØ³ÙĬØª":8945,"ĠÙħÙĥÙĪÙĨØ§Øª":8946,"ØºØ§ÙĨÙĬ":8947,"Ø®Ø±ÙĪØ¬":8948,"pla":8949,"ĠØŃÙĤÙĬÙĤÙĬØ©":8950,"ĠØ£Ø³Ø§ÙĦÙĬØ¨":8951,"ĠØ§ÙĦØ¹ÙħÙĪÙħ":8952,"ĠØ§ÙĦÙħØ§Ø±":8953,"ĠÙĬØ°ÙĩØ¨":8954,"ĠØ³ØªØ±":8955,"ĠØ£Ø«Ø§Ø±":8956,"ĠÙĦØ¥ÙĨØ´Ø§Ø¡":8957,"ĠØ§ÙĦØ«ÙħØ§ÙĨÙĬÙĨØ§Øª":8958,"ĠÙĦÙĪØ¬ÙĪØ¯":8959,"ĠØ§ÙĦØ£ÙĬÙħÙĨ":8960,"ĠÙĩÙĬØ¯Ø±":8961,"ĠÙĨØµÙĪØµ":8962,"ĠÙħØ¹Ø§ÙĪÙĬØ©":8963,"ĠØ§ÙĦØ¹ÙĬ":8964,"ĠÙĪØªØ¹Ø¯":8965,"ob":8966,"ĠØ£ÙĪØ¨ÙĦ":8967,"ĠØ¬Ø²ÙĬØ¦Ø§Øª":8968,"ØªÙģØ§Ø¹ÙĦ":8969,"ĠØ§ÙĦØ¥ÙĦÙĥØªØ±ÙĪÙĨ":8970,"ĠÙĦÙĦØ§ØªØŃØ§Ø¯":8971,"ĠØ§ÙĦØ³Ø§Ø¦Ø¯":8972,"ĠØºØ±Ø¨ÙĬ":8973,"ĠÙħØ§Ø±ØªÙĨ":8974,"ØªØ³Øª":8975,"ĠØ¬ÙħÙĦØ©":8976,"ĠÙĦÙħØ¬ÙħÙĪØ¹Ø©":8977,"ĠØ§ÙĦØŃÙĥÙĪÙħØ§Øª":8978,"ĠÙħÙĤÙĬØ§Ø³":8979,"ØªØ±ÙĤ":8980,"ĠØ±ÙĬÙĨ":8981,"ĠØ¥Ø³ÙĦØ§ÙħÙĬØ©":8982,"ĠØªÙĪØ§Ø¬Ø¯":8983,"ĠØªÙħÙĬÙĬØ²":8984,"ĠØ¹ÙħØ§ÙĦ":8985,"ĠÙĪÙĦÙħØ§":8986,"Ø²Ø±Ø¹Ø©":8987,"ÙĪØ±Ùī":8988,"ĠØ§ÙĦØªØŃÙĪÙĦ":8989,"ens":8990,"ĠÙĪØ·ÙĦØ¨":8991,"ĠØ¹Ø§ØµÙħ":8992,"Ø³ØªØ§ÙĨÙĬ":8993,"ÙĪØ¯Ø§ÙĨ":8994,"ĠØ§ÙĦÙħÙĨØ§Ø³Ø¨":8995,"Ø¨Ø·ÙĬØ©":8996,"ĠØ§ÙĦÙĪÙĥ":8997,"ĠØ£ÙĨØµØ§Ø±":8998,"Ø¦ÙħØ©":8999,"ĠØ§ÙĦØ®ÙĦÙģÙĬØ©":9000,"ĠØ§ÙĦÙħØ¹Ø§Ø±Ø¶":9001,"ĠØµÙĨØ¹Ø§Ø¡":9002,"ĠÙģÙĤØ§Ùħ":9003,"ĠØ±ÙĪÙĬ":9004,"ĠÙĤØ±Ø±Øª":9005,"ĠØ§ÙĦØ¯ÙĬØ§ÙĨØ©":9006,"ĠÙĪÙĬÙĤÙĪÙħ":9007,"ĠÙģÙĨÙĬØ©":9008,"ĠØ¨Ø§Ùģ":9009,"Ø°ÙĬÙĨ":9010,"ĠØŃØ±Ø©":9011,"ĠÙħØ±Øª":9012,"ÙģØ§ØªÙĬØŃ":9013,"Ġfont":9014,"ĠØ¨Ø±ÙĪØªÙĪÙĥÙĪÙĦ":9015,"ĠÙħØ¨ÙĦØº":9016,"ĠÙĦØ§Ø¨":9017,"Ø·Ùħ":9018,"ĠØ§ÙĦÙħÙĨØ·":9019,"ĠØ¹Ø¯Ø¯ÙĩØ§":9020,"Ø±Ø¯ÙĨ":9021,"ĠØ³ØªÙĥÙĪÙĨ":9022,"ĠØ§ÙĦÙħÙĩÙĨØ¯Ø³":9023,"ĠØªØ¬ÙħÙĬØ¹":9024,"ĠØ§ÙĦØ«ÙĨØ§Ø¦ÙĬ":9025,"ĠØ§ØŃØªÙħ":9026,"ĠØ§ÙĦØ·Ø±Ø§Ø²":9027,"Ø¨Ø¯Ø§Ø¹":9028,"ĠÙĬÙħØ§Ø±Ø³":9029,"ĠØ±ÙĬØ§Ø¶ÙĬ":9030,"Ø³ÙĦÙħÙĬÙĨ":9031,"ĠÙĪØ£ØŃØ¯":9032,"Ø§Ø¶ÙĦ":9033,"Ø²Ø§Ø¨ÙĬØ«":9034,"ĠØ§ÙĦØ¹ÙĥØ³":9035,"ĠØ¯Ø¨ÙĦÙĪÙħ":9036,"ĠØ§ÙĦØ¢ÙĦØ§Øª":9037,"ĠØ´Ø®ØµØ§":9038,"ĠÙĪØ®Ø§Ø±Ø¬":9039,"ĠÙĪØŃØ¯Ùĩ":9040,"ĠÙĪÙĥØ§ÙĨÙĪØ§":9041,"ill":9042,"ÙĦØ¹Ø§Ø¨":9043,"ĠØ§ÙĦÙĤÙħØŃ":9044,"ĠØ§ÙĦØ¥ØŃ":9045,"ĠØ«ÙĦØ§Ø«ÙĬ":9046,"Ġ1912":9047,"ĠÙħÙĬØ«":9048,"ĠØ§ÙĦÙħØ³Ø§Ø±":9049,"ĠØ¹Ø³":9050,"ØªØ§Ø¨Ø¹Ø©":9051,"ÙħØ§Ø±Ø³Ø©":9052,"ite":9053,"ØŃØ§Ø±":9054,"ĠÙĦÙĦÙħÙĦÙĥ":9055,"ĠÙĦÙĦØ£ÙħÙħ":9056,"ĠÙħÙĦÙĥØ©":9057,"ĠÙĬØ´Ø¹Ø±":9058,"Ġ1927":9059,"ĠØ¬Ùĩ":9060,"ĠØ§ÙĦØ¹Ø¯ÙĪÙī":9061,"ĠÙħØ±ØªØ¨Ø·":9062,"ĠØ§ÙĦÙĦÙħ":9063,"Ø§Ø¯ÙĦØ§Øª":9064,"ĠØ¯ÙĤÙĬÙĤ":9065,"ĠØ¯ÙĤØ§Ø¦ÙĤ":9066,"ĠØ´Ø§Ø¦Ø¹":9067,"Ø³Ø¨Øª":9068,"ĠØŃÙĪÙĦÙĩØ§":9069,"ĠØ£ÙģØºØ§ÙĨØ³ØªØ§ÙĨ":9070,"ĠØ§ÙĦÙĥØ§ÙĦØ³ÙĬÙĪÙħ":9071,"ĠØ°Ø§Ùĥ":9072,"ÙĨÙĪØ¯":9073,"ØŃÙĥÙħ":9074,"ĠØ§ÙĦÙħÙĪÙĦ":9075,"ĠÙĦÙħØ¬ÙĦØ³":9076,"ĠØ¹ÙĨØ¯Ùĩ":9077,"ĠÙħÙħØ«":9078,"ĠØ§ÙĦÙħØ¨ÙĥØ±":9079,"ĠØ£Ø·ÙĦÙĤØª":9080,"Ġ52":9081,"ĠÙĬØŃÙĥÙħ":9082,"ÙĪØ¸ÙĬÙģ":9083,"ĠØ£Ø¨Ø±Ø²ÙĩØ§":9084,"ĠÙĪØ§ÙĦØ·Ø¨":9085,"ĠÙĤØ´ØªØ§ÙĦØ©":9086,"ĠÙĦÙĦÙĤØ±":9087,"ĠØ§ÙĦØ¬Ø§Ø°Ø¨ÙĬØ©":9088,"ĠÙģØ±Øµ":9089,"ĠØªØ¯Ø±ÙĬØ¬ÙĬØ§":9090,"ĠØ¨Ø¹ÙĬØ¯Ø©":9091,"ĠØ¨Ø¯ÙĤØ©":9092,"ĠØ§ÙĦØªØ±ÙĥÙĬØ¨Ø©":9093,"ĠØ§ÙĦÙģÙĥØ±ÙĬØ©":9094,"Ø¯Ø±ÙĬØ³":9095,"ĠÙĦØ³Ø§ÙĨ":9096,"ĠÙħÙĨØ§Ø²ÙĦ":9097,"ĠØ§ÙĦÙħØ¨Ø§Ø´Ø±Ø©":9098,"ĠØªØ¯Ø¹Ùħ":9099,"ĠØ¬Ø±Ùī":9100,"Ø¶Ø§Ø±":9101,"ĠØ¨Ø§ÙĦØ§ÙĨØª":9102,"ĠÙĪÙħÙĨØ·ÙĤØ©":9103,"ĠØ°ÙĥØ±Ùĩ":9104,"ĠØ§ÙĦØ£Ø²ÙĪØ§Ø¬":9105,"ĠÙĪÙĥØ±":9106,"ĠØ§ÙĦØ®ÙĨ":9107,"one":9108,"ĠØ§ÙĦØŃØ¶Ø±ÙĬØ©":9109,"io":9110,"ĠØ§ÙĦÙĤØ³Ø·ÙĨØ·ÙĬÙĨÙĬØ©":9111,"ĠØ¯Ø§Ø®ÙĦÙĬØ©":9112,"ĠÙĦÙĦÙĪØµÙĪÙĦ":9113,"ĠÙĪØ£ÙħØ±":9114,"ĠØ§ÙĦØªÙĨÙģÙĬØ°ÙĬØ©":9115,"ĠQ":9116,"ĠØ§ÙĦØ¥Ø¬Ø±Ø§Ø¡Ø§Øª":9117,"ĠÙĪØ£Ø±Ø³ÙĦ":9118,"Ġ49":9119,"ĠÙħØ²Ø¯":9120,"ĠØ§ÙĦÙħØ´ÙĩÙĪØ±":9121,"ĠØ§ÙĦØ£ÙģØ§Ø±ÙĤØ©":9122,"ment":9123,"ĠØ¨ÙħØªÙĪØ³Ø·":9124,"Ġ84":9125,"ĠØ§ÙĦØ§Ø¹ØªÙħØ§Ø¯":9126,"Ø·Ø¨ÙĬÙĤØ§Øª":9127,"ĠÙĦØ¶":9128,"ĠØŃÙĤÙĦ":9129,"ĠÙĦØªØ®":9130,"ĠØ§ÙĦØ¨Ø±ÙĪÙĨ":9131,"ĠØªØ¬Ø¯":9132,"all":9133,"ĠØ§ÙĦØŃØ¨ÙĪØ¨":9134,"ĠÙĨÙħØ§Ø°Ø¬":9135,"ÙĪÙĤØ§Ø²":9136,"ĠØ§ÙĦÙĤÙĨÙĪØ§Øª":9137,"ĠÙĪØ§ÙĦØªØ¹":9138,"ĠÙĪÙĤØ§ÙħØª":9139,"Ø·ÙĩØ§Ø¯":9140,"ĠØ§ÙĦÙĥØ§Ø±ÙĬ":9141,"ĠØ§ÙĦØ®Ø´":9142,"Ø¤ÙĪØ³":9143,"ĠØ§ÙĦÙħØ³ØªÙĪØ·":9144,"ĠØ§Ø¨ØªØ¯":9145,"ĠÙĤØ±ÙĬØ´":9146,"ÙģÙĬÙħØ§":9147,"ĠØ«ÙĨØ§Ø¦ÙĬØ©":9148,"Ø§Ø±Ø§ØªÙĩ":9149,"ÙģØªØŃ":9150,"ĠØ§ÙĦØ´Ø±Ùģ":9151,"ĠØ§ÙĦÙĪØ¹ÙĬ":9152,"ĠØ£ÙĬØ±ÙĦÙĨØ¯Ø§":9153,"ĠÙĦÙĦÙĪÙĦØ§ÙĬØ§Øª":9154,"ĠØ¨Ø§ÙĦØ²":9155,"ĠØ§ÙĦØ¬ÙħØ§Ø¹Ø§Øª":9156,"ĠØ§ÙĦØªØ·ÙĪÙĬØ±":9157,"ĠÙĦÙĦØ·Ø§ÙĤØ©":9158,"Ø¯ÙĩØ§Ø±":9159,"ĠØ«ÙĦØ§Ø«ÙĬØ©":9160,"ĠÙģÙĩØ±":9161,"ĠØ§ÙĦÙĤØªÙĦ":9162,"Ø§ØŃØ¨Ø©":9163,"ÙĬÙĥØ³":9164,"Ġ1926":9165,"ÙĪØ¯ÙĪØ±":9166,"Ø¬Ø²Ø±":9167,"ĠØ§ÙĦØ§ÙĨØªÙĩØ§Ø¡":9168,"Ø¬ÙĬØ§ÙĦ":9169,"ĠØ§ÙĦØ´ÙĬÙĪØ¹ÙĬØ©":9170,"Ø¸ÙĬÙģ":9171,"ĠØ§ÙĦØ¬ÙĪØ§Ø¦Ø²":9172,"Ø§ÙĬØªÙĩ":9173,"ĠØ¨Ø§ÙĦØ¹Ø¯ÙĬØ¯":9174,"ĠÙħØ§ÙĦÙĬØ©":9175,"ĠØµÙĦØ©":9176,"ĠØ§ÙĦØ±Ø¤ÙĬØ©":9177,"Ø®ÙĦØ§ÙĤÙĬØ©":9178,"ĠØªØ§":9179,"ÙĪØ§ÙĦØ¨":9180,"ĠØ§ÙħØ§":9181,"Ø§ÙĦØªØµ":9182,"ĠØ§ÙĦÙħØ§Ø¯ÙĬØ©":9183,"ĠØ§ÙĦØ£ÙĪØ¹ÙĬØ©":9184,"ĠØ§ÙĦÙħÙĨØµÙĪØ±":9185,"ĠÙħØ±Ø¬":9186,"ĠØ§ÙĦØ¶Ø®ÙħØ©":9187,"ĠÙĥØ§":9188,"ĠÙĨØ§ÙĦ":9189,"ĠØ§ÙĦØŃØ¬Ø±ÙĬ":9190,"ÙĪÙħÙĬØ¯ÙĬØ§":9191,"ĠØªØ®Ø²ÙĬÙĨ":9192,"ĠØ§ÙĦØ¥ÙĬØ¬":9193,"ÙĪØ²Ø©":9194,"Ø§Ø³ÙĬÙĪÙħ":9195,"ĠØ±ÙĬØ§Ø¶ÙĬØ©":9196,"ĠØ£Ø¸ÙĩØ±Øª":9197,"ĠØ§ÙĦØ£ÙĪØ§Ø¦ÙĦ":9198,"Ø±Ø¨ÙĬØ§":9199,"ÙĪÙĦÙĩØ§":9200,"ĠØ¯ÙĪÙĤ":9201,"Ø¹Ø±ÙģØª":9202,"Ø¬Ø¯ÙĦ":9203,"ĠØ§ÙĦØ³Ø¨Øª":9204,"ĠØ§ÙĦÙĤØ°Ø§ÙģÙĬ":9205,"ÙĪØªÙĪÙĨ":9206,"Ø§Ø±ÙĬÙĬÙĨ":9207,"ĠØ§ÙĦØªØ´Ø±ÙĬØ¹ÙĬØ©":9208,"ĠÙĨÙħ":9209,"Ø¸Ùī":9210,"ĠÙĪØªØ§Ø±ÙĬØ®":9211,"ÙĥØ±Ø±Ø©":9212,"ĠØ£ÙħØªØ§Ø±":9213,"ĠÙĤØ¨ÙĬÙĦ":9214,"ĠÙĪØ¯Ø±":9215,"ĠØ¨Ø§ÙĪÙĦ":9216,"ĠØ³ÙĪØ±ÙĬ":9217,"ĠÙĪØ¯ÙģÙĨ":9218,"ĠØ§ÙĦÙħÙĩØ¯":9219,"ĠÙĥØ§Ø³Øª":9220,"ĠØ¨ÙħØµØ±":9221,"Ø¶Ø§ÙģÙĬ":9222,"ĠØ§ÙĦØ§ÙĨØªØ´Ø§Ø±":9223,"ĠØ§ÙĦØ§ØŃØªØ¬":9224,"ĠØ§ÙĦÙĨØ¨Ø§ØªÙĬ":9225,"Ø§ÙĨØ²":9226,"ĠÙħØªØ¹":9227,"ĠØ§ÙĦØ§Ø³ØªÙĤØ±Ø§Ø±":9228,"ĠÙĦØ¥ØŃØµØ§Ø¦ÙĬØ©":9229,"ÙħØ¨Ø±Ø§Ø·ÙĪØ±":9230,"ĠØ§ÙĦÙĤÙĬØ§Ø³ÙĬ":9231,"ĠØ§ÙĦØ´Ø¨ÙĥØ§Øª":9232,"ÙĦØ±":9233,"Ø§ØªÙħ":9234,"Ø·ÙĪÙĬ":9235,"ĠÙĨØ¯":9236,"Ø§Ø³ØªÙĩØ§":9237,"ÙĩØ¯Ø§Ø¡":9238,"ĠØ§ÙĦÙħØ¹Ø§ÙĬÙĬØ±":9239,"Ø²Ø±Ø¹":9240,"ĠØ¨ÙĬØªØ§":9241,"ĠØªÙĩØ¯ÙĬØ¯":9242,"Ø£Ø¯Ùī":9243,"ĠØ£ÙĪÙĥØ±Ø§ÙĨÙĬØ§":9244,"ĠØ§ÙĦØ±ÙĬÙģ":9245,"ØªÙĥÙĪÙĨ":9246,"ĠØ§ÙĦÙĤÙĪÙĬØ©":9247,"ĠÙĦØ¯ÙĬÙĨ":9248,"ĠØ§ÙĦØ¨Ø±Ø¨":9249,"ĠØ§ÙĨÙĩÙĬØ§Ø±":9250,"ĠÙĦÙĦØªØµ":9251,"ĠØ§ÙĦØ¬ÙĦÙĬ":9252,"ĠØ£ÙĥØ¯":9253,"ĠÙĬØ¹ÙħÙĦÙĪÙĨ":9254,"ĠÙĦÙĬÙĦØ¹Ø¨":9255,"ĠØ§ÙĦØªÙĤÙī":9256,"ĠØ§ÙĦØ«ÙĦØ§Ø«ÙĬ":9257,"ĠØ²ÙħÙĦ":9258,"Ø¬Ø§Ø²Ø©":9259,"ĠÙĦØ§Ø³":9260,"ÙĪÙħØº":9261,"ĠØ§ÙĦØ³ÙĦÙħ":9262,"ĠØ³Ø§Ùĥ":9263,"Ø¦ÙĬÙĦ":9264,"ĠØ£ÙħÙĪØ±":9265,"ĠØªØªÙħØªØ¹":9266,"ĠØ§ÙĦÙĨÙĤØ¯ÙĬØ©":9267,"ĠØ³ØŃ":9268,"ĠØ§ÙĦØ¹ÙĬÙĪÙĨ":9269,"ĠØ§ÙĦÙģØ·":9270,"Ø¬Ø¹ÙĦ":9271,"ÙĬØ¯ÙĬÙĨ":9272,"ĠØªØ§Ø±ÙĬØ®ÙĬ":9273,"ĠÙĦÙĪÙĦØ§ÙĬØ©":9274,"ĠÙĪØºØ§ÙĦØ¨Ø§":9275,"62":9276,"Ø§Ø¹Øª":9277,"ĠØ¹ÙĤÙĪØ¯":9278,"Ø§ÙģØ¦":9279,"ĠØ§ÙĦØ´ÙĪØ§Ø±Ø¹":9280,"ĠØ§Ø³ØªÙĩÙĦØ§Ùĥ":9281,"ÙĦØªØ§":9282,"ĠØ±ÙĪÙĥ":9283,"ĠØ§ÙĦÙĨØ´Ø±":9284,"ÙħÙĦÙĬØ©":9285,"ĠÙĦØŃÙĤÙĪÙĤ":9286,"ĠØ§ÙĦÙģØ§Ø±Ø³ÙĬ":9287,"ĠØ§ÙĦØ±ØŃÙħ":9288,"ĠÙĬÙĥÙģÙĬ":9289,"ĠØºØ¶ÙĪÙĨ":9290,"82":9291,"ÙĬØ¯ÙĬ":9292,"ĠØ§ÙĦØ®ÙĬØ±ÙĬØ©":9293,"ĠØ§Ø³ØªØ¹ÙħÙĦ":9294,"ĠØªÙĤØ§Ø±ÙĬØ±":9295,"ĠØªØ±Ø§Ø¬Ø¹":9296,"ĠØ§ÙĦÙĥØ¨Ø§Ø±":9297,"ĠÙĪØ¶Ø¹ÙĩØ§":9298,"ĠÙħØ±ÙĥØ¨Ø©":9299,"ĠÙĪØ§Ø¬ÙĩØ©":9300,"ĠØŃØ¨ÙĬØ¨":9301,"ÙĤØ·Ø§Ø¨":9302,"ĠÙĪÙĬÙĤÙĪÙĦ":9303,"ĠØ³Ø§ØŃ":9304,"ĠØ¨ÙĤÙĬØª":9305,"ĠØ§ÙĦÙĬÙĪ":9306,"Ø§ÙĨØ¬":9307,"ĠÙĦÙĬÙĪ":9308,"ĠÙĦÙĦØ§ØŃ":9309,"Ø¨ÙĬØ§Øª":9310,"ĠØ§ÙĦØ·Ø§ÙĦØ¨":9311,"ĠØ¨Ø±ÙĪÙĨ":9312,"ĠØ£Ø¯ÙĪØ§Ø±":9313,"ĠØ¨Ø·ÙĪÙĦØ§Øª":9314,"ĠØªØ£Ø®Ø°":9315,"Ø§ÙĦØŃÙĬØ§Ø©":9316,"ĠØ§ÙĦØ£Ø¬Ø§ÙĨØ¨":9317,"Ø±ÙĬØªÙĩ":9318,"Ø³ØªÙĨ":9319,"ĠØ§ÙĦØ¥ØŃØµØ§Ø¡":9320,"ĠØ§ÙĦØ·ÙĪØ§Ø±":9321,"ĠØ¶Ø®Ùħ":9322,"ĠØ£ÙĦÙĪØ§ÙĨ":9323,"ĠÙģØªØ§Ø©":9324,"ĠØ³Ø¹ÙĪØ¯ÙĬ":9325,"Ø¨ÙĬØ¯":9326,"ĠÙĪØªØ®Ø±Ø¬":9327,"ĠØ±Ø¹":9328,"ĠØ§ÙĦØºØ±Ø¶":9329,"Ð¸":9330,"ĠØ¨Ø§ÙĦØªØ±":9331,"ÙĬÙĥÙĪØ³":9332,"ĠØ§ÙĦÙħØ¹ÙĬØ´ÙĬØ©":9333,"Ø§ÙĦÙĬÙĪÙĨ":9334,"ĠØ¨ØŃÙĥÙħ":9335,"ĠØ£ØŃØ¯ÙĩÙħØ§":9336,"ĠØ§ÙĦØŃØ±ÙĪÙģ":9337,"ĠÙħÙĪØ³ÙħÙĬÙĨ":9338,"ĠÙħÙĨØ³":9339,"ÙĬÙĨØ²":9340,"ÙĨØ¯Ø³ÙĬÙĨ":9341,"ĠØ³ÙĦØ§ÙħØ©":9342,"Ø°Ø¨Ø©":9343,"ĠØ¥ÙĨØªØ§Ø¬Ùĩ":9344,"ĠØ§Ø´ØªØ±":9345,"ĠØªØ¨Ø§Ø¯ÙĦ":9346,"ĠØªØ¨Ø¯ÙĪ":9347,"ĠØ¬ÙĬÙĪØ´":9348,"ĠØ§ÙĦØ³Ø±ÙĬØ©":9349,"ĠâĢ¢":9350,"Ø±ÙĬØ·Ø§ÙĨÙĬØ§":9351,"ĠÙĦÙĦØ¹Ø¨":9352,"ĠØ´Ø¯Ø©":9353,"ĠØ¨Ø§ÙĦØ¨Ø±":9354,"ÙĢÙĬ":9355,"ÙĩÙĬØ¯":9356,"ĠÙĪØ§ÙĦØ¥Ø³ÙĦØ§Ùħ":9357,"Ø³Ø§Ø·Ø©":9358,"ĠØ§ÙĦØ²ÙħÙĨÙĬ":9359,"ĠØ§ÙĦØ³Ø±ÙĬØ¹Ø©":9360,"ÙĪÙĦØªÙĩ":9361,"ĠÙĦÙĦØ¯ÙģØ§Ø¹":9362,"ĠØ§ÙĦØ±Ø¦Ø§Ø³Ø©":9363,"ØªØ±ÙĪØ¬ÙĬÙĨ":9364,"ĠØ§ÙĦØ³ÙĦØ¹":9365,"ĠØ³ÙĦÙħØ§ÙĨ":9366,"ĠÙħØ®ØªÙĦØ·":9367,"ĠÙħØ§Ø³":9368,"ĠÙĦØ§ØŃØ¸":9369,"ĠØ§ÙĦÙĥÙĪÙĬØªÙĬØ©":9370,"ĠÙĬØªØ¨":9371,"ĠÙĬØªØ±Ùĥ":9372,"Ø±ÙĪ":9373,"ĠÙħÙĬØ¬":9374,"ĠÙĪØ¹Ø¶ÙĪ":9375,"ĠØŃØ¯Ø¯":9376,"ĠØ§ÙĦØ®Ø·Ø±":9377,"ĠÙħØ±ØªØ¨Ø©":9378,"ĠÙĦØ£ØŃØ¯":9379,"ĠØ¹ÙħÙĤ":9380,"ĠÙĥØªØ¨ÙĩØ§":9381,"ØŃÙī":9382,"Ø·ÙĪÙħ":9383,"ĠØ§ÙĦØ¯ÙģØ¹":9384,"Ø³Ø¨ÙĪØ±Øº":9385,"ĠØªØ¹Ø§ÙĪÙĨ":9386,"ĠØªØ·ÙĪØ±Øª":9387,"ĠØ§ÙĦØ¨ØŃØ§Ø±":9388,"ĠØ¥Ø³ØŃØ§ÙĤ":9389,"Ø£Ø´":9390,"ĠØ®ÙĦØ§ÙĦÙĩ":9391,"ĠØ¨ÙĥØ«Ø±Ø©":9392,"ĠØªØ±ÙĥÙĬ":9393,"Ġis":9394,"Ø¨Ø³Ø¨Ø¨":9395,"ĠÙĤØ¶Ùī":9396,"ĠØ§ÙĦØªØ¹ÙĦÙħ":9397,"ĠØ§ÙĦÙģØ±Ø¹ÙĬØ©":9398,"ĠØ§ÙĦÙħØ¤ÙħÙĨÙĬÙĨ":9399,"Ø²Ø§Øª":9400,"ĠØŃØ¸Ø±":9401,"ĠÙħØ°ÙĩØ¨":9402,"Ø¹ÙħØ§ÙĨ":9403,"ĠÙĬÙĩÙĪØ¯ÙĬ":9404,"ok":9405,"Ø¶Øª":9406,"ĠÙĪØ§ÙĦÙģÙĬ":9407,"ÙĪØ±Ø³":9408,"ÙĬÙĦØ¹Ø¨":9409,"ĠØ§ÙĦÙħÙĩØ§Ùħ":9410,"ÙĨÙĪ":9411,"ĠÙĪØ¬ÙħÙĬØ¹":9412,"ĠØ¯ÙģÙĨ":9413,"ĠØ§ÙĦØ¬Ø²ÙĬØ¦Ø§Øª":9414,"ÙĤÙĦØ¹Ø©":9415,"ĠØ§ÙĦØªØ´Ø®ÙĬØµ":9416,"Ø§ÙĩÙĬØ±":9417,"ĠØ§ÙĦÙĩØ§Ø´":9418,"Ø¹ÙħÙĤ":9419,"ÙĥØªÙĦÙĨØ¯Ø§":9420,"ÙĦÙĬÙĨÙĬ":9421,"ĠØªØŃØ¯Ø¯":9422,"ØµØ±ÙĬ":9423,"ĠØ§ÙĦØ³ÙĪØ±":9424,"ĠØ±ÙĪØ§Ø¯":9425,"ĠÙħØ±ÙĪØ§ÙĨ":9426,"ĠØ§ÙĨØªØ´Ø±Øª":9427,"ĠÙĥÙģØ§Ø¡Ø©":9428,"ĠÙĪÙĪØµÙģ":9429,"ØªØ±Ø¬Ùħ":9430,"ÙĬØªÙĩÙħ":9431,"ĠÙĦÙĦØ§Øª":9432,"ĠØ§ÙĦØ¬ÙĬÙĨØ§Øª":9433,"ĠØ§ÙĦØªØ¬Ø§Ø±":9434,"ĠØ¨ÙģØ¹ÙĦ":9435,"ĠØ§ÙĦÙħÙĦÙģØ§Øª":9436,"ĠØ§ÙĦØ±Ø¦Ø§Ø³ÙĬØ©":9437,"ĠØ§ÙĦØ¬ÙĩØ§Ø¯":9438,"ĠØ§ÙĦØ´Ø±Ùĥ":9439,"ĠÙĪØ£Ø®Ø±Ùī":9440,"ĠØ¨Ø¨Ø·":9441,"Ø·ÙĬÙĦ":9442,"Ø®Ø¨Ø§Øª":9443,"ĠØ§ÙĦØ³Ø§Ø®":9444,"ĠØ±Ø§Ø´Ø¯":9445,"ĠØ§ÙĦÙģØ§Øª":9446,"ĠÙĪØªÙĦ":9447,"ĠØ£Ø¯Ø§Ø©":9448,"Ø´ÙĬØ·":9449,"ÙĪÙĦÙĬØ³":9450,"ĠÙĩØ§ÙħØ§":9451,"ÙĪÙħØªØ±":9452,"ĠØ£ÙĪÙģ":9453,"ĠÙĪØ²ÙĬØ±Ø§":9454,"ĠØ§ÙĦÙħÙĤØ¯ÙħØ©":9455,"ĠØ§ÙĦØ¥Ø¨":9456,"Ġ170":9457,"ÙĤÙħØ§Ø±":9458,"ĠÙĦÙĦÙģÙĨÙĪÙĨ":9459,"ĠØ§ÙĦØ¹Ø¨Ø§Ø³ÙĬ":9460,"ĠØ§Ø³ØªÙħØ±Ø§Ø±":9461,"ÙĬÙĦÙĪ":9462,"ĠÙħÙħÙĬØ²Ø©":9463,"ĠÙĪØ§ÙĦÙĩÙĨØ¯":9464,"ĠØ¶Ø±ÙĪØ±Ø©":9465,"ÙĤØµØ©":9466,"ĠØ¨Ø¹ÙĬÙĨ":9467,"ĠØ§ÙĦØ¨Ø§Ø±Ø¯Ø©":9468,"ĠØ§ÙĦØ¨Ø·Ø±":9469,"ĠØ§Ø³ØªØ¹Ø§Ø¯Ø©":9470,"ĠÙħØ³ÙĤØ·":9471,"ĠÙħØ¨ÙĬØ¹Ø§Øª":9472,"Ø§ÙĨÙĩØ§":9473,"ĠØ¯ÙĪÙħ":9474,"ĠØ¬Ø¹ÙĦÙĩ":9475,"ĠÙĪØ¹ÙĦ":9476,"ĠØ«ÙĦØ§Ø«ÙĬÙĨ":9477,"Ø¶Ø§Ø¡Ø©":9478,"Ø¹ÙĪØ§":9479,"ĠÙĥØ§ÙĦÙħ":9480,"ĠØ³ÙħØ§":9481,"ĠØ¨Ø¯Ø¹Ùħ":9482,"ĠØ§ÙĦØŃØ±Ùħ":9483,"ĠØ§ÙĦØ³ÙĨÙĪÙĬ":9484,"ĠÙĪÙĬØ³ÙħÙī":9485,"ĠØ¯ÙĥØªÙĪØ±":9486,"ĠØ·ÙĪÙĥÙĬÙĪ":9487,"ĠÙĪØªØ¨":9488,"ÙħØ§ÙĨÙĬ":9489,"ĠØ¨ÙĨÙī":9490,"ĠÙĪØªØ¶Ùħ":9491,"ĠØ§ÙĦØ´ÙħØ³ÙĬ":9492,"ĠØ±Ø§Ø³":9493,"Ø¬Ø±Ø§Øª":9494,"ĠØ§ÙĦØ§Ø±ØªÙģØ§Ø¹":9495,"ĠØ¨ÙĪÙħ":9496,"ÙĪØ¨Ø§ÙĦØªØ§ÙĦÙĬ":9497,"ĠØ§ÙĦÙħØŃØªÙĪÙī":9498,"ĠÙħÙĥØ§ÙģØŃØ©":9499,"ĠØ´Ø¹Ø¨ÙĬ":9500,"ĠØ¨ÙħØ±Ø¶":9501,"ĠØ´Ø¨ÙĥØ§Øª":9502,"ĠÙħØªÙĦØ§Ø²ÙħØ©":9503,"ĠØ¹Ø§Ø¯ÙĦ":9504,"ĠØ§ÙĦÙħÙĪØ¬Ø§Øª":9505,"ĠÙĥØªØ¨Øª":9506,"ĠØ§ÙĦÙħØ®ØªØµ":9507,"ĠØ§ÙĦØ£ÙħÙĦ":9508,"ÙĪØ±Ø§ÙĨÙĬÙĪÙħ":9509,"ĠÙħØŃÙĪØ±":9510,"ĠÙĪÙĬØ¨":9511,"ĠØ§ÙĦÙħØ±Ø´ØŃ":9512,"ĠØ§ÙĦÙĨÙĩØ§Ø±":9513,"ĠÙĦØ¹Ø¨Øª":9514,"ĠØªØ±Ø¨ÙĬØ©":9515,"ĠØ§ÙĦØªÙĤÙĨÙĬØ§Øª":9516,"ĠÙĩØ¯ÙģØ§":9517,"Ø¨Ø§ØªØ§Øª":9518,"ĠÙĬÙģØ¹ÙĦ":9519,"ĠØ§ÙĦØ§ØªÙģØ§ÙĤÙĬØ©":9520,"Ø§ÙĦØ¨Ø±":9521,"ĠÙĩØ´Ø§Ùħ":9522,"ÙģØ§ÙĬØ§Øª":9523,"ĠØ¯Ø§Ùħ":9524,"ĠØ´Ø§Ø¦Ø¹Ø©":9525,"ĠÙħÙĦØ§ØŃØ¸Ø©":9526,"Ø§ÙĨØ¯Ø±":9527,"ĠÙĦØ³ÙĦ":9528,"ĠØ§ÙĦØŃØ´Ø±Ø§Øª":9529,"ĠØ§ÙĦØ¯ÙĪØ§Ø¡":9530,"ÙĨØ¨ÙĦØ©":9531,"ĠÙĬØŃØ¯Ø¯":9532,"Ø¶Ø§ÙĦ":9533,"ĠØ§Ø®Ø±":9534,"ĠØ¥Ø°Ø§Ø¹Ø©":9535,"ĠØªÙĦÙģØ²ÙĬÙĪÙĨ":9536,"ĠØ§ÙĦÙĩØ¶Ùħ":9537,"ĠØ§ÙĦØµØ±Ùģ":9538,"ØªØºÙĦ":9539,"Ø±ÙĬÙĩ":9540,"ĠÙĨØµÙĬØ¨":9541,"Ġhttp":9542,"Ø¨Ø¤":9543,"ÙĥØ«":9544,"ÙĪØªØ´ÙħÙĦ":9545,"Ø¹ÙĤØ¯":9546,"68":9547,"ĠÙĪØ¬Ø§Ø¡":9548,"Ġ51":9549,"ĠØ§ÙĪ":9550,"ĠØ®Ø³Ø§Ø¦Ø±":9551,"ĠØ£ÙĪØ¨ÙĦØ§Ø³Øª":9552,"Ø§ØªÙĬÙĨ":9553,"Ø§Ø¬Ø§":9554,"ĠÙĩØ¯ÙģÙĬÙĨ":9555,"ĠØ§ÙĦÙħØ´ÙĩÙĪØ±Ø©":9556,"ata":9557,"ĠØ§ÙĦÙĨØ³Ø®":9558,"ĠØ§ÙĦØµØŃØ±":9559,"ĠØ¥ÙĨÙħØ§":9560,"ĠÙĪØºÙĬØ±Ùĩ":9561,"ØªØ²Ø§ÙĦ":9562,"ĠØ¨Ø§Ø¨ÙĦ":9563,"ĠÙĪØ§ÙĦØ£ØŃ":9564,"ØªÙĤÙī":9565,"ĠØ§ÙĨØ¯ÙĦØ§Ø¹":9566,"ĠÙĬÙĪÙģØ±":9567,"ĠÙĦÙĦÙģÙĨ":9568,"ĠØ¬Ø¯ÙĬØ¯Ø§":9569,"ĠÙħØ·Ø±":9570,"ÙĬØ¹ÙĬ":9571,"ĠØ£Ø³ÙĩÙħ":9572,"ĠØ§ÙĦØ·ÙĪØ§Ø¦Ùģ":9573,"ĠØ§ÙĦÙĩÙĪØ§Ø¦ÙĬØ©":9574,"ĠÙħØ§ÙĥØ³":9575,"ÙģÙĤØ§ÙĦ":9576,"ĠÙģÙĬÙĬÙĨØ§":9577,"Ø§ÙĩØ¬":9578,"ĠØ§ÙĦÙħØ¹Ø§ÙĩØ¯Ø©":9579,"ÙĪØ§ÙģØ±":9580,"ĠÙħÙĨØ·":9581,"ĠØ§ÙĦØ¥ØŃØµ":9582,"ĠØ¥ÙĨØªØ±":9583,"ĠØ¹Ø±Ø¶Ùĩ":9584,"ĠÙĪØ§ÙĦÙħÙĨØ§Ø·ÙĤ":9585,"ĠÙħÙģØªÙĪØŃØ©":9586,"ØŃØ±Ø²":9587,"ĠØ¹ÙħÙĦÙĩØ§":9588,"Ø§ÙģÙĬØ§":9589,"ĠØ±ÙħÙĪØ²":9590,"Ïģ":9591,"ĠØ§ÙĦØ¬ØºØ±Ø§ÙģÙĬØ©":9592,"ÙĪÙģØ§Ø©":9593,"ÙĨÙĬÙĥ":9594,"ÙĨØªØ§Ø¦Ø¬":9595,"ĠÙħØ±ØªÙģØ¹Ø©":9596,"à¤":9597,"ĠØ¯ÙĦ":9598,"ÙĦØ§ÙģÙĬØ§":9599,"ĠØ¨ÙĦØ¬ÙĬÙĥØ§":9600,"Ø¬ÙħØ§Ø¹":9601,"ĠÙĦÙĦØ£Ø³Ø±":9602,"ĠØ£Ø³ÙĦ":9603,"ĠØ§ÙĦØ´Ùģ":9604,"ĠÙĪÙĦØ§ÙĬØ§Øª":9605,"ĠØ§ÙĦÙĤÙĬØ§Ø³":9606,"ĠÙĪØ§ÙĨØ¶Ùħ":9607,"ĠØ¨ÙĪÙĥ":9608,"ĠØ§ÙĦØŃØ§ÙĥÙħØ©":9609,"ĠØ±ÙĪ":9610,"ĠØ§ÙĦÙĪØ§ÙĤ":9611,"ĠÙĦÙĦÙħØ³ØªØ®Ø¯Ùħ":9612,"Ø¬Ø¨Øª":9613,"ĠØ§ÙĦØªØ³Ø¹ÙĬÙĨØ§Øª":9614,"ĠØ§ÙĦØ¥ÙĬØ±Ø§ÙĨÙĬ":9615,"ĠÙĩØ¬ÙħØ§Øª":9616,"ĠØ§ÙĦØ¬Ø¯Ø¯":9617,"ĠØ¨ÙħØ¹Ø¯ÙĦ":9618,"ĠØ¨ÙĬÙĪØª":9619,"ĠÙĥÙĪÙĨØº":9620,"ĠØ·Ø¨Ø¹":9621,"ĠÙĪØ§ÙĦØªØ¬":9622,"ĠØ¯Ø¹ÙĪØ©":9623,"ĠØ¨Ø¯Ø§ÙĬØ§Øª":9624,"ĠÙĪØ§ÙĦØ§ØŃ":9625,"ĠØ§ÙĦØµØ§Ø¯Ø±":9626,"ĠÙħØ´ÙĩÙĪØ±":9627,"ĠØ§ÙĦÙĤØ¯ÙħØ§Ø¡":9628,"ĠÙĪØªØ´ÙħÙĦ":9629,"ÙħÙĪÙĤØ¹":9630,"ĠØ¨Ø§Ùħ":9631,"ĠÙĨÙĬÙĦ":9632,"ĠØ§ÙĦÙĤØ±Øµ":9633,"ØŃØªØ§Ø¬":9634,"ĠØ±Ø¬ÙĦØ§":9635,"ĠÙĨØ§Ø¯Ø±Ø©":9636,"ĠØ·Ø§ÙĦ":9637,"Ø¬ÙĦØ¨":9638,"ĠØ§ÙĦÙħØ¹Ø¯Ø©":9639,"ĠØ§ÙĦØ®Ø·Ø£":9640,"ĠÙĦÙĪØµÙģ":9641,"ĠØ¬Ø¹ÙĦØª":9642,"Ø°Ø±Ø§Ø¡":9643,"Ø²Ø²":9644,"ĠÙĪØ§ÙĦØ¹Ø±Ø§ÙĤ":9645,"ĠØ¬ÙĪØ±Ø¬ÙĬØ§":9646,"ÙģÙģ":9647,"ÙĪØ±ØºÙħ":9648,"ĠÙĨØ´Ø·":9649,"ÙĪØ³ÙĬØ¹":9650,"ĠØªØ±Ùī":9651,"ĠØ§ÙĦÙħØ´Ø§ÙĩØ¯":9652,"Ø¹Ø¯Ø©":9653,"ĠØ¯Ø§ÙĨÙĬ":9654,"ÙĪØªÙĬØ©":9655,"ĠØ§ÙĦØ£Ø³Ø·ÙĪÙĦ":9656,"Ø£Ø®ÙĪØ°":9657,"ĠÙĦØªÙħ":9658,"ĠØ§ÙĦÙħØ®ÙĦ":9659,"Ø±Ø¨ÙĬØ¬Ø§ÙĨ":9660,"ĠRe":9661,"ĠØ¨Ø¯Ø±Ø§Ø³Ø©":9662,"ĠÙĬÙĪØº":9663,"ÙĪØ³ÙĬÙĨ":9664,"ĠÙħØªÙĪØ³Ø·Ø©":9665,"ĠÙĪØ§ÙĨØªÙĤÙĦ":9666,"ĠÙĦØ§Ø¨ÙĨ":9667,"Ø£Ø³Ùħ":9668,"ĠØ§ÙĦØ¹ÙĤÙĬØ¯Ø©":9669,"ĠØ§ÙĦØ¬ÙĦÙĬØ¯":9670,"ĠØ§ÙĦÙħØªØ®ØµØµØ©":9671,"ĠØ§ÙĤØªØ±Ø§ØŃ":9672,"ÙĥØ¨":9673,"ĠÙĤØ³":9674,"ĠØ¢ÙĦÙĬØ©":9675,"ĠÙĦØ²":9676,"ĠÙĦÙħØ¤":9677,"ĠÙĪÙĨØ´Ø£":9678,"ĠØ¨Ø¥ÙħÙĥØ§ÙĨ":9679,"ĠØ§ÙĦÙĩØ§Ø¯ÙĬ":9680,"Ø¹ÙĩØ§":9681,"ØªÙĬØ´":9682,"Ø¬ÙħØ§ÙĦÙĬØ©":9683,"ĠØ§ÙĦØ§Ø¶Ø·Ø±Ø§Ø¨Ø§Øª":9684,"Ø³ÙĬØ¯":9685,"ĠØ£Ø³Ø¹Ø§Ø±":9686,"ĠØ§ÙĦØ³ÙĥØ§ÙĨÙĬ":9687,"ĠÙħØ°ÙĥØ±":9688,"ĠÙĪØ§ÙĦØªÙħ":9689,"ĠØ¨Ø§ÙĦØ¹Ø±Ø¨ÙĬØ©":9690,"ĠØªØ¯ÙĦ":9691,"ĠÙĪØ§ÙĦØ§Ø¹":9692,"ĠØ§ÙĦØ´Ø§ÙģØ¹ÙĬ":9693,"ĠØ§ÙĦØ¬Ø¯Ø§Ø±":9694,"ĠØ±Ø¶Ø§":9695,"ĠØ§ÙĦØ¬Ø±ÙĬÙħØ©":9696,"ĠØ§ÙĦÙħØŃØ§ÙĥÙħ":9697,"71":9698,"ÙĨØ§Ø¯ÙĬ":9699,"ĠØ±ÙĪØ§ÙĬØ§Øª":9700,"ĠØ§ÙĦØ£ÙħÙĬØ±Ø©":9701,"ĠØ£Ø¯ÙĨÙī":9702,"ain":9703,"ĠÙĬÙĦØª":9704,"ĠØ§ÙĦØ³ØªØ©":9705,"ĠØ§ÙĦØ¨ÙĪØ±":9706,"ĠØ¨Ø§ÙĦØªÙĨ":9707,"ĠÙħÙħÙĬØ²":9708,"ÙĤØªØ§ÙĦ":9709,"Ø§Ø±Ø¯Ø©":9710,"ĠÙģØ£ØµØ¨ØŃ":9711,"ĠÙĤÙĬØ³":9712,"Ø¯ÙĬØ§Ø¯":9713,"Ø§ÙĩÙĪ":9714,"ĠÙħØŃØ±ÙĥØ§Øª":9715,"ĠÙĪØ§ÙĦÙĦØºØ©":9716,"ÙĩØ±Ø¬Ø§ÙĨØ§Øª":9717,"ĠØ§ÙĦØ§ÙĦØª":9718,"ĠØ¨ÙĬØ¶Ø§Ø¡":9719,"ĠÙĪØ§ÙĦÙĦÙĩ":9720,"ĠÙĪØ£Ø±":9721,"ĠØ§ÙĦØ¨Ø±ÙħØ¬Ø©":9722,"ÙĤØ§ÙĦØ§Øª":9723,"ÙĪØ«ÙĬÙĤ":9724,"ĠØ®ÙĦÙģÙĬØ©":9725,"ĠØ¬Ø§Ø¨Ø±":9726,"Ø¯Ø±Ø§Ø¬":9727,"ĠØ¨ØŃÙĤ":9728,"ĠØ¨ÙĤØªÙĦ":9729,"ĠØªÙģÙĪÙĤ":9730,"ĠØ¯ÙĬØ²ÙĨÙĬ":9731,"ÙħÙħØ§":9732,"Ø§ÙĦØ¯ÙĬÙĨ":9733,"ĠÙĪØ§ÙĦØ®Ø¯ÙħØ§Øª":9734,"ĠØ§ÙĦØ³Ø§ÙĤ":9735,"ĠÙĪØ£ØŃÙĬØ§ÙĨØ§":9736,"ÙĬØŃØªÙĪÙĬ":9737,"ØªØ¹Ø¯Ø§Ø¯":9738,"ĠØ§ÙĦÙħØ¨Ø±":9739,"Ø²Ø§Ø¡":9740,"ĠØŃØ§Ø±Ø³":9741,"ĠØ§ÙĦØªØ§Ø³Ø¹Ø©":9742,"ĠØ§ÙĦØŃØ¬Ø§Ø¬":9743,"art":9744,"ĠØ§ÙĦÙĨÙĤØ§Ø´":9745,"ĠØ§ÙĦØ¬ÙħØ§Ø¹ÙĬØ©":9746,"ĠØ¹Ø¸ÙĬÙħ":9747,"ĠØ§ÙĦÙĥØ§Ø¨":9748,"ĠÙĦÙĩÙħØ§":9749,"ĠØ¹Ø±Ø¶Ø©":9750,"ĠUn":9751,"ĠØ§ÙĦØ£ÙħÙĨÙĬØ©":9752,"Ġ110":9753,"ĠØ³ÙħÙĬØ«":9754,"ĠØ§ÙĦØ®ÙĦÙģÙĬ":9755,"69":9756,"78":9757,"ĠØ³Ø±ÙĬØ©":9758,"ĠÙĨØŃÙĨ":9759,"ĠÙĬØŃÙĤÙĤ":9760,"ĠØ§ÙĦÙħÙħÙĬØ²Ø©":9761,"ØºØ¯":9762,"Ø³ØªØ§":9763,"Ø§ÙĦÙħÙĪ":9764,"ØªÙĨØ§":9765,"ĠØªØ®Ø·ÙĬØ·":9766,"ĠØŃØ§Ø²":9767,"ĠÙĦÙĦØ¨ØŃØ«":9768,"ĠÙĩØ§Ø¦ÙĦØ©":9769,"ĠØ§ÙĦØ¨Ø±ÙĪØªÙĬÙĨØ§Øª":9770,"ÙĪØ§ØªÙģ":9771,"ĠØ§ÙĦØ¯Ø±Ø§Ø³ÙĬØ©":9772,"Ø±Ø¨Ø¹ÙĬÙĨ":9773,"ĠØ§Ø±ØªÙĥ":9774,"enter":9775,"Ø²Ùī":9776,"Ø§Ø¦Ùĥ":9777,"ĠØ§ÙĦØ¬Ø³":9778,"Ø±Ø§ØªÙĬØ¬ÙĬ":9779,"ĠØ§ÙĦÙħØµØ±":9780,"ĠÙĬØ¯Ø±Ø³":9781,"ĠØ¹ÙĨØ¯ÙĩØ§":9782,"ĠØ¯ÙĪØ±Ùĩ":9783,"ĠÙħØ²ÙĬØ¬":9784,"ĠÙĦÙĥÙħ":9785,"ĠØ§ÙĦØ®Ø·Ø©":9786,"ĠØ¨ÙĨØ¬Ø§ØŃ":9787,"ÙĬØ¹ØªÙĤØ¯":9788,"ĠØ§ÙĦØºØ¯Ø©":9789,"Ø§ÙĦØªÙĤ":9790,"ĠØªÙģØ§ØµÙĬÙĦ":9791,"ØŃØ«":9792,"ĠØ§ÙĦÙĪØµ":9793,"ÙĪÙĨØª":9794,"ÙĪØ¯ÙĬÙĪ":9795,"ĠÙĬØ´Ø§Ø±":9796,"ĠÙĦÙĦØªÙĤ":9797,"Ø§ÙĤÙĩ":9798,"Ø§Ø«ÙĦ":9799,"ĠØ£Ø¹ÙĦØ§Ùĩ":9800,"ĠØ¥Ø³Ø·ÙĨØ¨ÙĪÙĦ":9801,"ĠØ§ÙĦØªÙģØ³ÙĬØ±":9802,"ÙĪØ¶Ùī":9803,"ĠÙĬØ±ØªØ¨Ø·":9804,"ĠÙħÙĥØ¹Ø¨":9805,"Ø§Ø²ÙĬØºÙĬØ©":9806,"ĠØ£Ø¸ÙĩØ±":9807,"ĠÙħÙĨØ·ÙĤ":9808,"ÙĥØªØ¨Ø©":9809,"ĠÙħÙĨÙģØµÙĦ":9810,"ĠÙħÙģØªÙĪØŃ":9811,"ĠØŃÙĨ":9812,"ĠØ§ÙĦØªØ®ÙĦØµ":9813,"Ø§ÙĥÙĩØ©":9814,"ØºØ±Ø§Ø¯":9815,"ĠØ¨ÙĪØ§Ø¨Ø©":9816,"Ø§Ø±Ø¯ÙĪ":9817,"72":9818,"ĠØ§ÙĦØ¬ÙĩÙĪØ¯":9819,"ĠØ§ÙĦÙħØŃØ§ØµÙĬÙĦ":9820,"ĠÙģØ¤Ø§Ø¯":9821,"ÙģØ±Ø¯Ø©":9822,"ĠØ§ÙħØªØµØ§Øµ":9823,"Ø§ØªØ§":9824,"ĠØ¥ØªØ´":9825,"ĠØ£ÙĪØª":9826,"ĠØªØ³ÙĦÙĬÙħ":9827,"ĠÙĨÙĤØ§Ø´":9828,"Ġæ":9829,"ÙĪØ¥Ø°Ø§":9830,"Ø·ÙĬØ©":9831,"ĠÙĦÙĦÙħØ¯":9832,"ĠØ§ÙĦØ§ØµØ·ÙĨ":9833,"54":9834,"ĠØ§ÙĦÙĦØ§":9835,"Ø¨Ø²":9836,"ÙĤØ±ÙĬØ©":9837,"ĠÙģØŃØ³Ø¨":9838,"Ø¶Ø¹Ø§Ùģ":9839,"ĠØ£Ø«ÙĬÙĨØ§":9840,"ĠØºØ±Ø¨Ø§":9841,"ÙĤÙĨØ§Ø¹":9842,"ĠÙĥØªÙĦ":9843,"ÙĬØ¨Ø§":9844,"ĠÙħÙĤØ±ÙĩØ§":9845,"Ø´Ø§ÙĦ":9846,"ĠØ§ÙĦØ£ÙĩÙħÙĬØ©":9847,"Ø§Ø¯ÙĪØ±":9848,"ĠÙĪØ¬Ø§ÙħØ¹Ø©":9849,"ĠØ¬ÙħÙĬØ¹ÙĩØ§":9850,"Ø§Ø¸Ùħ":9851,"ĠÙĪÙĬÙĦØ²":9852,"ĠØ¨ÙĪØ¯":9853,"ĠØ§Ø³ØªØºÙĦØ§ÙĦ":9854,"ĠÙĦØ¥Ø¯Ø§Ø±Ø©":9855,"ĠØ§ÙĦÙĪØ§Ø¶ØŃ":9856,"ĠØ¥ÙħØ§Ùħ":9857,"ĠØ§ÙĦØ£ÙĨØ§Ø¶ÙĪÙĦ":9858,"ĠØ§ÙĦØ§Ø®ØªØ¨Ø§Ø±":9859,"ĠÙĪÙĦÙĥ":9860,"ĠØ§ÙĦÙģØ±Ø§Øª":9861,"ĠØ§ÙĦØ£ÙħØ±Ø§Ø¡":9862,"ĠØ£Ø±Ø§Ø¶ÙĬÙĩØ§":9863,"ct":9864,"ĠØ§ÙĦØ³ÙħØ§ØŃ":9865,"ĠØ§ÙĦÙħÙĬÙĨØ§Ø¡":9866,"ÙĬØ²ÙĬ":9867,"ØªØ¯Ø§Ø¯":9868,"Ø¨Ø¹Ø§Ø«":9869,"Ø¨Ø§ÙĦØ±ØºÙħ":9870,"ĠÙĪØ§ÙĦØ´Ø¹":9871,"ĠØŃØ±ÙĥØ§Øª":9872,"ĠØ¨Ø§ÙĦØ£Ø³":9873,"Ø§ÙĥÙĬÙĨ":9874,"Ø¸Ø±ÙĪÙģ":9875,"ÙĪØ£ÙĨ":9876,"ÙĪÙģÙĪ":9877,"ĠØ¨ÙĨØ´Ø±":9878,"ĠÙĪØ£ÙħØ§":9879,"ĠØªÙĨÙĤÙĦ":9880,"Ġclass":9881,"Ø¬Ø§Ø¹Ø©":9882,"ĠÙĨØ§ÙĨ":9883,"ĠØ·Ø§Ø±ÙĤ":9884,"ĠÙħØªØ®ØµØµØ©":9885,"ĠØ§ÙĦØ¹ÙħÙĦØ©":9886,"ĠÙħÙĨØ§ØµØ¨":9887,"ĠÙĨØ³Øª":9888,"Ø¨Ø¯Ø¡":9889,"ÙģØ±Øº":9890,"Ø¯ÙĩÙĪØ±":9891,"ĠØ§ÙĦØ§ÙĨØªØ¯Ø§Ø¨":9892,"NA":9893,"ĠØ§ÙĦØ£ÙĬØ³Ø±":9894,"ĠØ§ÙĦØ³ÙĦØ©":9895,"ĠØ§ÙĦÙĤÙĪÙĬ":9896,"ÙĪØ·ÙĨÙĩ":9897,"ĠØ§ÙĦÙĩÙĪÙĦÙĨØ¯ÙĬØ©":9898,"ov":9899,"ĠÙħØŃÙħÙĬØ©":9900,"ĠÙĦÙĦØŃØ±":9901,"Ø§Ø«ÙĬÙĦ":9902,"ĠØ§ÙĦØ§Ø³ØªÙĬÙĦØ§Ø¡":9903,"ĠØ£Ø¯Ø®ÙĦ":9904,"ĠØ¹Ø²ÙĦ":9905,"Ø§ÙĥØ§Ø©":9906,"ĠPro":9907,"ĠØªØ¬Ø§Ø±Ø¨":9908,"ĠÙĦÙĦÙĨØ¸Ø§Ùħ":9909,"Ø²Ø§ÙĬØ§":9910,"ĠÙĪØ§ÙĨØªÙĩØª":9911,"ÙħØ§Ø¶":9912,"ÙģØ±ÙĬ":9913,"ĠÙĪØ§ÙĦØ§ÙĤØªØµØ§Ø¯ÙĬØ©":9914,"ÙĬÙħÙĬÙĨ":9915,"ĠÙĪØ§ÙĦØ£Ø¯Ø¨":9916,"ĠÙħØ¤Ø´Ø±":9917,"ĠÙĬÙĪÙħÙĨØ§":9918,"ĠØ§ÙĦØ¨Ø±ÙĬØ·Ø§ÙĨÙĬÙĬÙĨ":9919,"Ø£ÙĦÙģØª":9920,"ĠØ¨ÙĤØ¯Ø±":9921,"ĠØ§ÙĦØªÙĪ":9922,"ĠÙĨÙĩØ§":9923,"Ø§ÙĦØªØ³ÙħÙĬØ©":9924,"63":9925,"ÙħÙĪØª":9926,"Ø·Ø§ÙĦØ¨":9927,"ĠØ§ÙĦØ°ÙĩØ§Ø¨":9928,"ĠÙĦÙĦØ¥Ø´Ø§Ø±Ø©":9929,"Ø£Ø¯":9930,"ĠÙĪØ§Ø²":9931,"ĠØ¬ÙĨØ¨Ø§":9932,"ĠØ§ÙĦØªØ±Ø¯Ø¯":9933,"ĠØ§ÙĦØ®ÙħÙĬØ³":9934,"ĠÙĥØ§Ø²":9935,"ĠØŃØ§Ø±":9936,"ĠÙĪØªØ¨ÙĦØº":9937,"Ø¯ÙħØ´ÙĤ":9938,"ĠØ§ÙĦÙħØŃÙĦÙĬÙĬÙĨ":9939,"ĠØ§ÙĦÙħØ±ÙĪØ±":9940,"ĠØ§ÙĦØ³ÙĪÙģÙĬØ§ØªÙĬ":9941,"ĠÙģØ§Ø·ÙħØ©":9942,"ĠØ¨Ø±ÙĪÙĥ":9943,"Ø®Ø¨Ø§Ø±Ø§Øª":9944,"ĠØ§ÙĦÙĤØ³":9945,"ĠÙĪØ¨Ø³Ø¨Ø¨":9946,"ĠÙĬØªØ¹Ø±Ø¶":9947,"ĠÙģØ¹Ø§ÙĦ":9948,"ĠØ§ÙĦØ£ÙĨÙĩØ§Ø±":9949,"ĠÙĦÙĦØŃÙģØ§Ø¸":9950,"ĠÙħÙĪÙĤØ¹ÙĩØ§":9951,"ĠØ§ÙĦÙģÙĬØ²ÙĬØ§Ø¦ÙĬØ©":9952,"ĠØ§ÙĦÙĥÙĪÙĥØ¨":9953,"Ø§Ø¶Ø±Ø©":9954,"ĠØ¬ÙħÙĬÙĦØ©":9955,"ĠÙĦØ¯ÙĪÙĦØ©":9956,"ĠØ§ÙĦÙģÙĬØ±ÙĪØ³Ø§Øª":9957,"Ø§ÙĪÙģ":9958,"ĠÙħØ®ÙĦ":9959,"ĠØŃÙĬÙĪØ§ÙĨØ§Øª":9960,"ĠØºØ±Ø§Ø±":9961,"ÙĥØ§Ø³":9962,"ĠØ§ÙĦÙĨØ§Øµ":9963,"ÙĬØ¹ÙħÙĦ":9964,"ĠÙħÙĪØ³ÙĬÙĤÙĬØ©":9965,"ĠØ§ÙĦØªÙĪØ§Ø²ÙĨ":9966,"ĠÙħÙĤÙĬÙħØ©":9967,"ÙĪÙĦÙħØ§":9968,"ĠØ§ÙĦÙħØ¯Ø®ÙĦ":9969,"Ø¨Ø±Ø§Ø·ÙĪØ±ÙĬØ©":9970,"Ø§ÙħØŃ":9971,"ĠÙħØ¹ØªØ¯":9972,"ĠØ³ØªØ§ÙĦÙĬÙĨ":9973,"Ø§ÙĬØ§Øª":9974,"ĠØ§ÙĦÙħÙħØ±":9975,"ĠÙħÙĤØ§Ùħ":9976,"yp":9977,"Î½":9978,"ĠÙĪØ±ØºÙħ":9979,"ĠÙĪØ¥Ø¯Ø§Ø±Ø©":9980,"ĠÙĪØ¯Ø¹Ùħ":9981,"ĠØ§ÙĦÙħÙĪØ¸ÙģÙĬÙĨ":9982,"ĠØµÙģØ©":9983,"ĠØºØ±ÙĬØ¨":9984,"ÙģØ±Ø§Øª":9985,"ÙĪÙĦØ§ÙĬ":9986,"ĠØ§ÙĦØ¹ÙĬØ´":9987,"ÙĬÙĦØ§Ø¯":9988,"Ø§Ø®Øª":9989,"ĠØªÙĥÙĨÙĪÙĦÙĪØ¬ÙĬØ§":9990,"ĠØ¨Ø±Ø¨":9991,"ĠØ§ÙĦØŃÙĦÙĬØ¨":9992,"ĠØ§ÙĦØ°Ø±ÙĬØ©":9993,"ĠØ¶Ø¨Ø§Ø·":9994,"ĠÙĪØŃØ¯ÙĩØ§":9995,"ĠØ§ÙĦØ¥ÙĨØ³Ø§ÙĨÙĬ":9996,"Î¹":9997,"ĠÙħØ®Ø·":9998,"ĠØ§ÙĦØ£Ø±ÙĤØ§Ùħ":9999,"ĠØ±Ø¬Ø¨":10000,"ĠØ§ÙĦØ¬Ø¨":10001,"eb":10002,"ĠØŃØ°Ùģ":10003,"Ø§ÙģÙĦØ©":10004,"Ø§ÙĥÙĬØ©":10005,"ĠÙģØ¹Ø§ÙĦÙĬØ©":10006,"ÙĬÙĩØ§":10007,"ĠÙĪØ§ÙĦØªÙģ":10008,"ĠÙĨØ²ÙĦ":10009,"ĠØ¯Ùĩ":10010,"ÙĤÙĦØ§Ø¹":10011,"Ø¹Ø¯Ø§Øª":10012,"ĠØ·Ø§Ø¦ÙģØ©":10013,"ĠÙĬÙĨØªÙĤÙĦ":10014,"ĠØªÙĨØªÙĩÙĬ":10015,"ĠÙĬÙĥÙĪÙĨÙĪØ§":10016,"ĠØ£Ø´Ø¯":10017,"Ġ1916":10018,"ĠØ§ÙĦØ¯Ø³ØªÙĪØ±ÙĬØ©":10019,"Ø§ÙĦÙģØ©":10020,"ĠØ¨ÙĥÙĪÙĨ":10021,"ĠØ¹Ø§Ø²":10022,"ĠØ§ÙĦØªÙĪØ³Ø¹":10023,"ĠÙĤÙĦØ©":10024,"Ø§ÙģÙĦ":10025,"ĠÙĪØ¬Ø±":10026,"ĠØ¨Ø§Ø³ÙħÙĩ":10027,"ĠØ§ÙĦØ³Ø¨Ø¹ÙĬÙĨØ§Øª":10028,"ĠØ¨ÙĤÙĬÙħØ©":10029,"ew":10030,"ĠÙĨÙĬØ¬":10031,"Ø§ØŃØª":10032,"ĠØ·Ø¨ÙĬØ©":10033,"Ø£ÙĬØ¶Ø§":10034,"ĠÙĤØ¯Ø±ÙĩØ§":10035,"Ø§Ø±Ø¹Ø©":10036,"ĠØ§ÙĦØºØ°Ø§Ø¦ÙĬ":10037,"Ø§Ø¨ÙĬØ±":10038,"ĠÙħØ´Ø§Ø¨Ùĩ":10039,"ĠÙħÙĦÙĥØ§":10040,"ĠØ§ÙĦØªØ£ÙħÙĬÙĨ":10041,"ĠÙĦØªÙĤØ¯ÙĬÙħ":10042,"ĠØ§ÙĦÙħØ³ÙħÙī":10043,"ÙĦÙĬØ¬":10044,"ĠÙĦÙĦØºØ©":10045,"ĠØ´Ùģ":10046,"ÙĨÙĬÙģØ©":10047,"ĠØ·ÙĪÙĦÙĩØ§":10048,"ĠÙĥÙĦÙģ":10049,"ĠÙĥØ±ÙĬÙħ":10050,"ĠØ§ÙĦØ£ÙĦÙĬØ§Ùģ":10051,"ĠÙĦÙĦØ´Ø±ÙĥØ©":10052,"ĠÙĦØ±Ø¦ÙĬØ³":10053,"ha":10054,"ĠÙĬÙħÙĥÙĨÙĩ":10055,"ĠØ¬Ø¯Ø§Ø±":10056,"ĠØŃØ¯Ø©":10057,"ĠØ§ÙĦÙĨÙĤÙĬ":10058,"ĠØ§Ø²Ø¯Ø§Ø¯":10059,"ĠØ§ÙĦØ´ÙĩÙĬØ¯":10060,"ĠÙħÙĪÙĩ":10061,"ĠØ§ÙĦØµÙĦØ©":10062,"ĠÙĪØ§ÙĦØ³ÙĬØ§Ø³ÙĬØ©":10063,"ĠØŃÙģØ±":10064,"ÙĦÙĬÙģØ©":10065,"ÙĪÙĤØ§":10066,"ĠØ¨Ø±Ø§ÙĪÙĨ":10067,"ĠÙĥØªØ§Ø¨Ø§Øª":10068,"ĠØ§ÙĦØ¹Ø¯Ø§ÙĦØ©":10069,"ÙĪØ§ÙĨÙĬØ©":10070,"ĠØ´Ø±ÙĬØ·":10071,"ĠÙĪØ£Ø¹":10072,"ØªØŃØ§Ø¯":10073,"ØªÙĦØ§Ùĥ":10074,"ĠØ¨ØŃØ§Ø¬Ø©":10075,"ĠØ§ÙĦÙħÙĪØŃØ¯":10076,"ĠØ§ÙĦØ¥ÙĦÙĥØªØ±ÙĪÙĨØ§Øª":10077,"Ġ?":10078,"ĠÙĪØ¬ÙħØ¹":10079,"ĠØ°Ø§ÙĥØ±Ø©":10080,"ĠØ§ÙĦÙĦÙĤ":10081,"ĠÙħØªØªØ§ÙĦÙĬØ©":10082,"ÙĪØ§ÙĦØ¯Ùĩ":10083,"ĠÙĪÙĦÙĬØ§Ùħ":10084,"Ø·Ø±ÙĬÙĤØ©":10085,"ĠØ´ÙĬÙĨ":10086,"Ø¨ÙĬÙĪÙĨ":10087,"ÙĪØ§ØªÙĬ":10088,"ĠØªØªØ¬Ø§ÙĪØ²":10089,"ĠØ¨Ø¥Ø¹Ø§Ø¯Ø©":10090,"ĠÙĪÙĪØ±":10091,"ĠÙĪØ¨ÙĩØ§":10092,"ĠØ¹Ø¶ÙĪÙĬØ©":10093,"ÙĤØ§Ø¦ÙħØ©":10094,"ĠÙħØ¨Ø±":10095,"ĠØ§ÙĦÙĥØª":10096,"ĠÙĪØ§ÙĦØ«Ø§ÙĦØ«":10097,"Ø§ÙĦØ¥ÙĨ":10098,"ÙĦÙĬÙĪÙħ":10099,"ĠØ§ÙĦÙĥØŃÙĪÙĦ":10100,"ÙħÙĨØ§":10101,"ÙħØ¯Ø§Ø¯Ø§Øª":10102,"ĠØ¬ÙĨØ§ØŃ":10103,"ĠØ§ÙĦÙħØ²Ø¯":10104,"ØªÙĪÙĦÙī":10105,"ĠØ²ÙħÙĬÙĦ":10106,"ĠØ®ÙģØ¶":10107,"ĠÙĦÙĦØ¨ÙĬ":10108,"ĠØ¯ÙĬÙĨØ§Ø±":10109,"ĠØ³ØªÙĬÙĨ":10110,"ĠØ¬Ø±Ø§Ø¡":10111,"ĠØ§ÙĦØ¹ÙĤÙĦÙĬØ©":10112,"ĠØ§ÙĦØŃÙĪØ§Ø±":10113,"ÙħÙĦØ¹Ø¨":10114,"ĠØ§ÙĦÙħØ´Ø§Ø©":10115,"ĠØ§ÙĦØ¨Ø§ØŃØ«ÙĪÙĨ":10116,"ĠØµØŃÙĬØ©":10117,"ĠØ¹ØµØ±Ùĩ":10118,"ĠØ§ÙĦÙħØ¤Ø±Ø®ÙĪÙĨ":10119,"Ø´ÙĩØ¯Øª":10120,"ĠÙĦÙĦØªØ¹ÙĦÙĬÙħ":10121,"ĠØ§ÙĦÙģØ§Ø¹":10122,"ĠØ§ÙĦÙħÙĨØŃ":10123,"ĠÙħØµØ§ÙĦØŃ":10124,"ĠØ±ØŃÙĦØ§Øª":10125,"ĠØ¬ÙĬØ¨":10126,"ĠØ´Ø§Ø´Ø©":10127,"ĠÙħØ³ÙĬØ±Ø©":10128,"ĠØªØ¬Ø±ÙĬ":10129,"ĠØ³ÙĬÙĨØ§Ø¡":10130,"ĠØªØ®ÙĦ":10131,"ĠØ§ÙĦØ´Ø§Ø´Ø©":10132,"ĠØ³ÙĨÙĬÙĨ":10133,"ĠÙħÙĪØ«":10134,"ÙĦØŃ":10135,"Ø¬ÙħÙĪØ¹":10136,"ĠÙĪÙħÙĤØ±":10137,"ĠØ§ÙĦÙħØ³Ø§Ø¦ÙĦ":10138,"ĠÙħÙĬÙĦØ§Ø¯ÙĬ":10139,"ĠØ§ÙĦØ¨Ùĩ":10140,"Ø³ÙĬØŃÙĬ":10141,"Ø·Ø¹ÙħØ©":10142,"ian":10143,"Ø¨ÙĤÙĬ":10144,"Ø³ÙĬØŃÙĬØ©":10145,"ĠØ§ÙĦÙĩÙĪÙĬØ©":10146,"ÙĪØ¶ÙĪØŃ":10147,"ØªÙģØ§Ø¡":10148,"edia":10149,"ĠÙĥÙħÙĨ":10150,"ÙĬØ±Øª":10151,"ĠØ§ÙĦØ¹Ø¬":10152,"ĠØ§ÙĦØªÙĤØ§Ø±ÙĬØ±":10153,"ĠÙĨØ³Ø¨ÙĬ":10154,"ĠØ§ÙĦØ¬ÙħØ§ÙĩÙĬØ±":10155,"ĠÙĨØµØ¨":10156,"ĠÙħØ¹Ø§Ø±Ø¶":10157,"ĠÙħØ¹Ø§Ø±Ø¶Ø©":10158,"ÙĨØªØ´Ø±":10159,"ĠØ§ÙĦØ§ØªØŃØ§Ø¯ÙĬØ©":10160,"ell":10161,"ĠØµÙĬØºØ©":10162,"ĠØ§ÙĦØªÙĪØªØ±":10163,"ÙĬØ¯ÙĪ":10164,"ĠØ¨ÙħØ¯":10165,"ĠØ£Ø³Ø¨":10166,"ĠØ§ÙĦÙħÙĦÙģ":10167,"ĠØ§ÙĦÙħØ³Ø§Ø¹Ø¯":10168,"ĠAr":10169,"53":10170,"ure":10171,"ĠØ§ÙĦØ³ÙĥÙĥ":10172,"ĠØ²ÙĨ":10173,"ĠÙħØ³ØŃ":10174,"ĠÙħØ³Ø¹ÙĪØ¯":10175,"Ø§ÙĬÙĬØ³":10176,"ĠØ§ÙĦÙģØ±Ø³Ø§ÙĨ":10177,"ĠØ¯ÙĤØ©":10178,"Ø§ÙģÙĩ":10179,"ÙĬÙĦÙĪÙĨ":10180,"ĠÙĪÙĬØ¹ÙħÙĦ":10181,"ĠÙĪØ§Ø·":10182,"ĠØ¨ÙĥÙħ":10183,"ĠØ§ÙĦÙħØªÙħÙĬØ²":10184,"ĠØ§ÙĦØ¬Ø³Ø±":10185,"ĠÙħØ³Ø§ÙĩÙħ":10186,"ĠØ§ÙĦØ£ØºÙĦØ¨ÙĬØ©":10187,"Ø´Ø¹Ø±":10188,"ĠØ¯Ø§ÙĦØ©":10189,"Ø¬Ø±Øª":10190,"ĠØŃÙĤÙĤØª":10191,"ĠØ§ÙĦÙħÙĥÙĪÙĨØ©":10192,"ĠØ§ÙĦØªÙĦÙģ":10193,"ĠØ§ÙĦØªØºØ°ÙĬØ©":10194,"ĠÙħØ±Ø§Ø¬Ø¹Ø©":10195,"ĠÙĪÙĬØ¹ÙĪØ¯":10196,"ãĤ":10197,"ĠØ§ÙĦØ±Ø¨Ø¹":10198,"ĠØ§ÙĦØºØ±ÙģØ©":10199,"ĠÙĪÙĨØ§Ø¯ÙĬ":10200,"ĠØ£Ø¯ÙĦØ©":10201,"Ġ1911":10202,"ĠØ¯Ø§ÙĨ":10203,"Ø§Ø·Ø±Ø©":10204,"ĠØ§Ø³ØªØ¹Ø¯Ø§Ø¯":10205,"ĠÙĪÙģÙĦ":10206,"ĠØ§ÙĦÙĤÙĬØ§Ø³ÙĬØ©":10207,"61":10208,"ĠÙħØŃÙģÙĪØ¸":10209,"ĠØ§ÙĦØŃØ§Ø¯Ø«":10210,"ÙĪÙģÙĬÙĨ":10211,"ĠÙģØ§Ø²Øª":10212,"ÙĪÙģØ§ÙĥÙĬØ§":10213,"Ø£ÙħÙĬÙĨ":10214,"ĠØ§ÙĦÙĤÙĦÙĬÙĦØ©":10215,"ĠØ§ÙĦØ´Ø§Ùĩ":10216,"Ø±ÙĨØ§":10217,"ĠÙģÙĦØ³ÙģØ©":10218,"ĠØ§ÙĦØ´Ø±Ø¹ÙĬ":10219,"ĠØ¨Ø§Ø±Ø²":10220,"ĠØ§ÙĦØ£ØŃÙĥØ§Ùħ":10221,"ÙĤÙĬÙħØª":10222,"Ġj":10223,"Ø¨Ø§Ø¯Ø¦":10224,"ĠØ§ÙĦÙħÙĨØ¸":10225,"ĠÙĦÙĦÙħØ´":10226,"Ġ53":10227,"ØµÙĨØ§Ø¹Ø§Øª":10228,"ĠØŃÙĥØ§Ùħ":10229,"ĠØ§ÙĦÙĦÙĬÙħ":10230,"ĠÙĬØ¬Ø¹ÙĦÙĩØ§":10231,"ff":10232,"Ø§ÙĨÙĪØ³":10233,"ĠØ§ÙĦØ¹Ø¨Ø±ÙĬØ©":10234,"ÙħÙĦØ®Øµ":10235,"ĠØŃØ¶ÙĪØ±":10236,"ÙĥØ£Ø³":10237,"ĠØ±ØºØ¨Ø©":10238,"ÙĪØ£ØµØ¨ØŃ":10239,"ĠØ¨Ø¹ÙĦ":10240,"ĠØ§ÙĦÙĥÙĪÙħ":10241,"Ø§Ø¦ÙĬÙĬÙĨ":10242,"ĠÙħØ´ØªÙĤ":10243,"Ġ700":10244,"ĠÙĬØ³ØªØ·Ø¹":10245,"ĠØ´ÙĬÙĪØ¹":10246,"Ġ1915":10247,"ĠØªØ§Ùħ":10248,"ĠØºØ±Ùģ":10249,"ÙĪÙĬÙĦØ§":10250,"ĠØ§ÙĦØªØºÙĬØ±Ø§Øª":10251,"ÙħØ±Ø§Ø¬Ø¹":10252,"ĠØ§ÙĦÙĩØ¬ÙħØ§Øª":10253,"ĠÙĪÙĬØ³ØªØ®Ø¯Ùħ":10254,"ĠØ§ÙĦØ³ÙĨÙĪÙĬØ©":10255,"ĠÙģØµÙĬÙĦØ©":10256,"Ø¯ÙĬÙģ":10257,"ĠØ§ÙĦÙĥÙĪÙĨØºØ±Ø³":10258,"79":10259,"ĠÙĪØ§ÙĤØ¹":10260,"ĠØ§ÙĦÙĥØ±Ø¨":10261,"ĠØ¨ÙĬØªÙĩ":10262,"ĠØ£ØŃÙħØ±":10263,"ĠØ§ÙĦØ´Ø±ÙĪØ·":10264,"ĠÙħØ³ÙĬØŃÙĬØ©":10265,"ĠØ§ÙĦØªÙĤØ±ÙĬØ±":10266,"ĠØ¨Ø§ÙĦØ«":10267,"ĠØ¹ÙĦÙĬÙĥÙħ":10268,"ĠÙĪÙĨØ¸Ø§Ùħ":10269,"ĠØ§ÙĦÙģØªØ§Ø©":10270,"Ðµ":10271,"ĠØµØºØ±":10272,"ĠÙħÙĪÙĨØª":10273,"ĠØ¥ÙĬÙĤØ§Ùģ":10274,"ĠØ§ÙĦØªÙĤØ§ÙĦÙĬØ¯":10275,"ØºØ§ÙĦØ¨":10276,"Ø¦ÙĪÙĨ":10277,"ĠØ¬Ø²Ø¦ÙĬ":10278,"ĠØ¨Ø§ÙĦØ¥Ø³Ø¨Ø§ÙĨÙĬØ©":10279,"end":10280,"ĠØ§ÙĦÙħÙĪØ¬Ø©":10281,"ĠÙĪØ§ÙĦØ«ÙĤØ§ÙģÙĬØ©":10282,"ĠÙħØŃØ¯ÙĪØ¯":10283,"ÙħØ¶":10284,"ĠÙĬØ¤ÙħÙĨ":10285,"ĠØªØ¹ÙĬÙĬÙĨÙĩ":10286,"ĠØ¨ÙĦÙĬ":10287,"Ø§ÙĤÙģØ©":10288,"ÙĬØªØ³":10289,"ĠØ²Ø§Ø¯Øª":10290,"ĠØªØ¹Ø§ÙĨÙĬ":10291,"ĠÙĨÙĪØ¹ÙĬØ©":10292,"Ø§ÙĦØªØ±Ùĥ":10293,"Ø¬Ø¨Ø§Ø±":10294,"ĠÙĦÙĦØ¨ÙĦ":10295,"ĠÙĪØ§ÙĦØ¹Ø±Ø¨ÙĬØ©":10296,"ĠØ¨ÙĪÙĦØ³":10297,"ĠØ±Ø¤Ø³Ø§Ø¡":10298,"Ø¨ÙĬÙĥ":10299,"ÙĪØ²Ø§ÙĨ":10300,"ĠÙħÙĤØ¯Ø§Ø±":10301,"ĠÙħØŃØ§ÙģØ¸Ø§Øª":10302,"ÙĦÙħÙĩ":10303,"ĠØªØ¹Ø§Ø¯ÙĦ":10304,"ĠÙĦÙĦÙħØ´Ø§Ø±ÙĥØ©":10305,"Ø±ÙĬØ¹Ø©":10306,"ÙĥØ±Ùĩ":10307,"ĠØ£Ø¹Ø§Ø¯":10308,"ØŃÙĪÙĬÙĦ":10309,"ĠÙģÙĨØ¯ÙĤ":10310,"Ø§Ø¹ØªØ¨Ø§Ø±":10311,"ĠÙĬÙħÙĥÙĨÙĩØ§":10312,"ĠÙĥØ¹":10313,"ĠØ§ÙĦÙĥÙĬØ§ÙĨ":10314,"42":10315,"ĠØ¨Ø§ÙĤ":10316,"ØªØ±ÙĪÙĨ":10317,"ĠØ§ÙĦØ¨ÙĬÙĪØª":10318,"Ø¹ØªÙĤØ¯Ø§Øª":10319,"ĠØ§ÙĦØºØ§Ø²Ø§Øª":10320,"ĠØ§ÙĦØ¹Ø§Ø·":10321,"ĠÙĨØ§Ø¨ÙĦØ³":10322,"ĠØ¬Ø²ÙĬ":10323,"ĠÙĪØ§ÙĦØ£Ø±Ø¨Ø¹ÙĪÙĨ":10324,"ĠØ¥Ø¬Ø±Ø§Ø¡Ø§Øª":10325,"ĠØ§ÙĦÙħØ±Ø§ÙģÙĤ":10326,"Ġ1500":10327,"Ø²ÙħØ§Øª":10328,"ĠØ¥ÙĬØ·Ø§ÙĦÙĬ":10329,"ĠØ§ÙĦØ³Ø§Ø¯Ø§Øª":10330,"ĠØ§ÙĦÙĬÙħÙĨÙĬ":10331,"Ø§ÙĬØ²":10332,"ĠØ§ÙĦÙħÙģÙĩÙĪÙħ":10333,"ĠØªÙĦØª":10334,"Ø´ÙĪØ±":10335,"ÙĪØ³ÙģØ§Øª":10336,"ĠØªØ¬Ø¯ÙĬØ¯":10337,"ĠØ¥ÙĨØª":10338,"ĠØ±Ø§ÙĬ":10339,"ĠØ¨ÙĨØ§Øª":10340,"ĠØ§ÙĦÙħØŃØ·Ø©":10341,"ĠØ§ÙĦØªÙĤØ³ÙĬÙħ":10342,"ĠØŃÙħØ§Ø³":10343,"ĠØ§ÙĦÙĨØ¨Ø§ØªÙĬØ©":10344,"ĠÙĤØ³ÙħÙĬÙĨ":10345,"Ø´Ùī":10346,"ĠØ§ÙĦØ¯ÙĬØ±":10347,"ĠØ§ÙĦÙģØµ":10348,"ĠÙĪØ£Ø³Ø±":10349,"ĠÙĪÙĬØ¬Ø¨":10350,"ĠØ£ØŃÙĥØ§Ùħ":10351,"ĠØ¨Ø§Ø±ÙĬ":10352,"ĠØ§ÙĦÙĥØ¨Ø±ÙĬØª":10353,"ĠÙĭ":10354,"ĠÙģÙĪØ¬":10355,"ĠÙĦØ²ÙĬØ§Ø¯Ø©":10356,"ĠØªÙĤØ§Ùħ":10357,"ĠØ§ÙĦÙĨØ²Ø§Ø¹":10358,"ĠØµØŃÙĬØŃØ©":10359,"ĠÙĬØ¯Ø¹Ùħ":10360,"ĠÙĪØ¶Ùħ":10361,"Ø±ÙĬØŃØ©":10362,"ĠÙĤÙĪÙħ":10363,"ĠØ´ÙħÙĦØª":10364,"ĠÙĦÙĦØŃÙĬØ§Ø©":10365,"Ø¤ÙĦ":10366,"ĠØ§ÙĨØŃ":10367,"ĠØ±Ø¤ÙĪØ³":10368,"ĠÙħØ§Ø¬":10369,"ĠØ¨Ø§ÙĦØ°":10370,"Ø§ØµÙģØ§Øª":10371,"Ø±ÙĨØ¬":10372,"ĠØ§ÙĦÙĦÙĩØ¬Ø©":10373,"ĠØ§ÙĦÙĪØ³Ø§Ø¦ÙĦ":10374,"ĠÙĬØ³Ø§ÙĪÙĬ":10375,"ĠØ³Ø¬":10376,"ĠØ´Ø§ÙĩØ¯":10377,"ĠØ§ÙĦØ±ÙĪÙĥ":10378,"ĠØ«ÙĬ":10379,"ĠÙĪØ±ÙĤØ©":10380,"ĠÙĬØ±Øª":10381,"Ø§Ø³ØªÙħØ±Øª":10382,"ĠØ§ÙĦÙħÙĥÙĪÙĨØ§Øª":10383,"ĠÙħÙĨØ²ÙĦÙĩ":10384,"ox":10385,"ĠØ¬Ø¹ÙĦÙĩØ§":10386,"ĠÙĪØ§ÙĦØ¢Ø®Ø±":10387,"ĠÙĬØ¯Ùĩ":10388,"ĠØ¹ÙĨØ§":10389,"ĠØ§ÙĦÙģØ³Ø§Ø¯":10390,"ĠÙĥØ§ÙĨØ§":10391,"ĠÙħØŃØª":10392,"ĠØ·Ø±ÙĬÙĤÙĩ":10393,"Ø§ÙħÙĬØ°":10394,"ĠÙħØ·Ø§ÙĦØ¨":10395,"ĠØ§ÙĦØ¶ÙĪØ¦ÙĬ":10396,"ĠØªÙĪØ§Ø¬Ùĩ":10397,"ĠØªØ±Ø¬Ø¹":10398,"ÙĥØªØ§Ø¨":10399,"ĠÙĤÙħØ±":10400,"ĠØ§ÙĦØ¯ÙĤÙĬÙĤ":10401,"ĠØ§ÙĦØµÙĬÙģÙĬØ©":10402,"ĠÙĪÙģØªØŃ":10403,"ÙĪØ§Ø±Ø«":10404,"ÙĥØªÙĪØ±ÙĬØ§":10405,"ĠØ¶ÙħÙĨÙĩØ§":10406,"ĠÙĪØºØ±Ø¨":10407,"ĠØ±ÙģØ¶Øª":10408,"ĠØ§ÙĦØ£ÙĩØ§ÙĦÙĬ":10409,"Ø¨ÙħØ§":10410,"ĠØ¨Ø§ØŃØ«":10411,"ĠØ§ÙĦØ³ÙĪ":10412,"ĠÙħØŃØ±":10413,"ĠÙĬØ´ØºÙĦ":10414,"ĠØ´ÙĥÙĦØª":10415,"ĠØ§ÙĦÙĨØ¸Ø±ÙĬØ§Øª":10416,"Ø´Ø®Ø§Øµ":10417,"ĠØ§ÙĦØ¹Ø±ÙĤÙĬØ©":10418,"ĠÙĪÙħØ¬ÙħÙĪØ¹Ø©":10419,"ĠØ¹Ø±ÙĪØ¶":10420,"Ġ1908":10421,"ĠØ¨Ø§ÙĦÙģØ±ÙĨØ³ÙĬØ©":10422,"ĠÙħÙĥÙĨ":10423,"ĠÙĦØªØ¨":10424,"ĠØªÙĦÙģ":10425,"ĠØ§ÙĦØªÙĪØ²ÙĬØ¹":10426,"ĠÙĩÙĪØ¨":10427,"ĠØ§ÙĦØ¥Ø¹Ø¯Ø§Ùħ":10428,"Ø§ÙĥØ´":10429,"ĠØ§ÙĦÙħØ¯ÙĨÙĬÙĬÙĨ":10430,"ĠØ§Ø¬ØªÙħØ§Ø¹ÙĬ":10431,"ĠÙĪØ¯Ø±Ø³":10432,"ĠÙĥÙĦØ§Ùħ":10433,"ĠØ§ÙĨØ®ÙģØ¶":10434,"ĠØ§ÙĦÙħØ§Ø±Ùĥ":10435,"ĠØŃÙĤÙĬÙĤÙĬ":10436,"ĠØ³ÙĪÙĦ":10437,"ĠØ§ÙĦØ±Ø¦Ø©":10438,"ĠØ°ÙĥÙĪØ±":10439,"ĠØ«ÙħØ§ÙĨ":10440,"ĠØ§ÙĦÙħØ³ØªÙĩÙĦÙĥ":10441,"ĠØ£Ø¹Ø·Ùī":10442,"41":10443,"ÙĨØ§ØµØ±":10444,"ÙĬÙĪØ·":10445,"Ø¯ÙĪØ¯":10446,"ĠØ¨Ø¹ÙħÙĦÙĬØ©":10447,"ĠØ§ÙĦÙħØ®Øª":10448,"Ø´ÙĬØ§Øª":10449,"ĠÙħØªÙģØ±Ø¬":10450,"ĠØ³Ø±ÙĬØ¹Ø©":10451,"ĠÙħÙĪØ·ÙĨ":10452,"ĠÙĦØ§Ø¨Ø¯":10453,"ÙĪØ§ÙĨØ©":10454,"ĠØ³ØªØ§Ø±":10455,"ĠÙĬØ§Ø³ÙĬÙĨ":10456,"ĠØ¥ÙģØ±":10457,"ĠØ§ÙĦØªØ§Ùħ":10458,"Ø§ÙģÙĪØ±Ø©":10459,"ĠÙģØ±Ø¹ÙĬØ©":10460,"ĠØ¥Ø¯Ø§Ø±ÙĬØ§":10461,"ĠÙĬØ³ØªÙħØ±":10462,"ĠØ°ÙĥØ±ÙĩØ§":10463,"ÙĨØŃ":10464,"ĠÙħØ®ØªØ¨Ø±":10465,"ĠØ£ÙĨØ´Ø¦Øª":10466,"ĠÙĦØ£ØºØ±Ø§Ø¶":10467,"ĠÙĥØªØ§Ø¨Ø§":10468,"Ø¨ÙĬØ§ÙĨ":10469,"ØŃØ§Ø¯ÙĬØ«":10470,"ĠØ§ÙĦÙħØ¨Ø§Ø¯Ø¦":10471,"ĠÙĦÙħØµØ±":10472,"ÙĩØ¯Øª":10473,"Ġcol":10474,"ĠØ§ÙĦØ«ÙĤÙĬÙĦØ©":10475,"ĠØ§ÙĦÙĨØ®ÙĬÙĦ":10476,"ĠÙħÙĨØ§Ùģ":10477,"ĠØ§ÙĦØ¹Ø§Ø¨":10478,"ĠØ§ÙĦÙĨØ§Ø²ÙĬØ©":10479,"ĠØ§ÙħØ§Ùħ":10480,"ĠÙĪØ·ÙĨÙĬ":10481,"ĠÙ¾":10482,"ĠØ§ÙĦÙĪØ±Ø§Ø«ÙĬØ©":10483,"ĠØŃØ¨ÙĬ":10484,"ĠÙĪØ£Ø¹ÙĦÙĨ":10485,"ĠÙģØ¹Ø§ÙĦØ©":10486,"ĠÙħØ¸ÙĩØ±":10487,"ĠÙĬØµØ¯Ø±":10488,"ĠØ®Ø·ÙĪØ©":10489,"ØªØ£Ø³Ø³":10490,"ĠØ§ÙĦÙħØ®Ø·Ø·":10491,"ĠØªÙĪØµÙĦ":10492,"ĠÙĪØ§ÙĦØ¬ÙĨ":10493,"ÙĦÙĬÙĪØ³":10494,"ĠØ§ÙĦØ®ÙĦÙĤ":10495,"ĠÙĪØ£Ø·ÙĦÙĤ":10496,"Ø³Ø±ÙĬØ©":10497,"ĠØªØªØ£ÙĦÙģ":10498,"ĠÙĪØ§Ø³ØªÙħØ±Øª":10499,"Ø¨ØªÙĩ":10500,"Ø°Ø§Ø¨":10501,"ĠØ§ÙĦÙĤØª":10502,"ĠØ£ÙĪÙĤØ§Øª":10503,"ĠÙĪØ¹ÙĦÙĬ":10504,"ĠÙħØ¯ÙĬØ±Ø§":10505,"ĠØ¥Ø«Ø¨Ø§Øª":10506,"ĠØ§ÙĦØ§ÙĨÙģØ¬Ø§Ø±":10507,"ĠØ§ÙĦÙħØ®ØªØ§Ø±":10508,"ĠØ§ÙĦÙĪØ§ÙĦÙĬ":10509,"ĠØ¨ØºØ±Ø¶":10510,"ĠØ§ÙĦØ¯ÙĩÙĪÙĨ":10511,"ĠØ£Ø¨ÙĦ":10512,"Ø´ØºÙĦ":10513,"Ø£Ø¨ÙĪ":10514,"Ġ1900":10515,"ĠØ¨ÙĦØ§Ùĥ":10516,"ĠÙħÙĬÙĥØ±":10517,"ry":10518,"ĠØ§ÙĦØªÙĪØ¬ÙĬÙĩ":10519,"ĠØ£ØºÙĦØ¨ÙĬØ©":10520,"ĠÙħÙĥØ«":10521,"ĠØ¬Ø¯ÙĪÙĦ":10522,"ĠØ§ÙĦØ¬Ø§ÙĨØ¨ÙĬØ©":10523,"ĠÙĬØ¨ØŃØ«":10524,"ĠØªÙħØ«Ø§ÙĦ":10525,"ĠØ¨Ø¹Ø«Ø©":10526,"ĠØ³ØªÙĬÙģÙĨ":10527,"ĠØ¨ÙĬØ³":10528,"ĠØ³ÙĪÙĨ":10529,"ÙĬÙħØ§Øª":10530,"ĠÙģØ¶Ø§Ø¡":10531,"ĠØ§ÙĦÙħÙĬØ²":10532,"ĠØ§ÙĦØµÙĪØ§Ø±ÙĬØ®":10533,"Ø¬ÙħÙĪØ¹Ø§Øª":10534,"ĠØ£Ø¯Ø±Ùĥ":10535,"Ġ98":10536,"ĠØ®Ø·ÙĬØ±Ø©":10537,"ĠÙĥØ§ÙħØ¨":10538,"ĠÙĥÙĩØ±Ø¨Ø§Ø¦ÙĬ":10539,"Ġ$":10540,"ĠØ§ÙĦØ¹Ø¨Ø§Ø³":10541,"ĠØ¨Ø§ÙĦÙħÙĨØ·ÙĤØ©":10542,"73":10543,"ÙĪØ°ÙĥØ±":10544,"ĠØ£Ø®Øª":10545,"Ø´Ø¹Ø§Ø¹":10546,"ĠØ§ÙĦØ§Ø³ØªØ¹ÙħØ§Ø±ÙĬØ©":10547,"'s":10548,"ĠØ§ÙĦÙħÙĤØ±Ø±":10549,"ĠØ§ÙĦØªÙĪØŃÙĬØ¯":10550,"Ø¹Ø¯ÙĬÙĨ":10551,"ĠÙħØªØ³Ø§":10552,"ĠØ£ÙĪÙĦÙħ":10553,"ÙĬÙĥÙĪÙĨ":10554,"Ø§ÙħÙī":10555,"ĠØ¯Ø§Ø¦ÙħØ©":10556,"ĠØ§ÙĦØ´Ø§Ø·Ø¦":10557,"ĠØ·ÙĬØ¨Ø©":10558,"ÙĨØ´Ø£ØªÙĩ":10559,"ĠØ§ÙĦÙĪÙĥØ§ÙĦØ©":10560,"ĠÙħØµÙģ":10561,"ĠØ§ÙĦØ§Ø³ØªØ«ÙħØ§Ø±":10562,"ĠØ§ÙĦØ§ØŃØªÙģØ§ÙĦ":10563,"ĠØ§ÙĦÙĨØ¨ÙĦØ§Ø¡":10564,"ÙĪØ±ÙĬØª":10565,"ĠÙĬØ¹Ø¨Ø±":10566,"ÙģÙĦÙĪÙĨ":10567,"ĠÙĬØ¬ÙĪØ²":10568,"Ø³Ø¨Ùĩ":10569,"ĠØ³ÙĦØ·":10570,"ĠØ´ÙĬÙĪØ®":10571,"ĠÙħÙĥØ§ÙĨÙĩ":10572,"ĠØ§ÙĤØªØµØ§Ø¯ÙĬ":10573,"Ø§Ø¹Ø¯Ø§":10574,"ÙĤØ§Ø¶":10575,"ĠØŃØ§Ø¯Ø«":10576,"ĠØ§ÙĦØ¹Ø§Ø´Ø±Ø©":10577,"ĠØ§ÙĦØŃÙĥÙĪÙħÙĬ":10578,"ĠØ§ÙĦØ±ÙĬÙģÙĬØ©":10579,"ĠÙĨÙĪØ¹ÙĩØ§":10580,"ĠDe":10581,"ĠØ§ÙĦÙħÙĬÙĥØ±":10582,"ĠØªØ³ÙħÙĬ":10583,"ĠØ§ÙĦØµØ§Ø¯Ø±Ø©":10584,"ĠØ§Ø³ØªØ¬Ø§Ø¨Ø©":10585,"ÙĪÙĥÙĪÙĦØ§Øª":10586,"ĠÙħØ³ØªØ¹ÙħØ±Ø©":10587,"ĠÙĦÙĦØ³ÙĨØ©":10588,"ĠÙĪØ®Ø±Ø¬":10589,"ĠØ§ÙĦØªØ¬ÙħØ¹":10590,"ĠÙħØ´Ø§ÙĩØ¯Ø©":10591,"ĠØ§ÙĦØ£ÙĨÙģ":10592,"ĠEn":10593,"ĠØ§ÙĦØµØŃÙģÙĬ":10594,"ØµÙĬØ±":10595,"ĠÙĥØ¥":10596,"Ø¯ÙĬØ¯ÙĬ":10597,"ĠØ£ÙĨÙħØ§Ø·":10598,"ĠØ§ÙĦÙĦÙģØ¸":10599,"ĠØªØ´Ùĥ":10600,"ĠØ¨ÙħØŃØ§ÙģØ¸Ø©":10601,"ĠØ§ÙĦØ§ÙģØªØ±":10602,"ÙħØ¯ÙĬÙĨØ©":10603,"ØªØ£ÙĦÙģØª":10604,"ĠØ¯ÙĪØ±Ø§ÙĨ":10605,"ĠØ§ÙĦØ¥ÙħØ§Ø±Ø©":10606,"ĠØ§Ø¬ÙĦ":10607,"ĠØ¥Ø¨Ø§ÙĨ":10608,"ĠØ§ÙĦØ³ÙĩÙĦ":10609,"ÙĪØ¯ÙĪ":10610,"Ø£ÙĨÙĩØ§":10611,"ĠØ§ÙĦØ£ÙħÙĪÙĬ":10612,"ĠØ§ÙĦØªÙĤØ¯":10613,"ĠØªØŃØ¯ÙĬØ«":10614,"ĠØ§ÙĦÙħØ¤Ø³":10615,"Ġ99":10616,"Ġpro":10617,"ĠÙĥÙĩØ±Ø¨Ø§Ø¦ÙĬØ©":10618,"ĠØ§ÙĦØµÙĩÙĬÙĪÙĨÙĬØ©":10619,"ÙĥØ§ÙģØŃØ©":10620,"ĠÙĦØ¹ÙħÙĦÙĬØ©":10621,"ĠÙĥØ¯":10622,"ĠØ§Ø³ØªÙĤØ±Ø§Ø±":10623,"ĠMar":10624,"ĠÙĬÙĩØªÙħ":10625,"ĠÙĪØ§ÙĦÙĥØ±":10626,"ĠÙĪØ§ÙĦØ¬Ø±":10627,"ĠÙĦÙĦÙĤÙĬØ§Ùħ":10628,"ĠØ´Ø¨ÙĬ":10629,"ĠÙħØŃØªÙĪÙī":10630,"ĠØ§ÙĦØ³ÙĬØ§Ø³Ø§Øª":10631,"ÙĪØ§Ø¯ÙĬ":10632,"Ø§Ø³ÙĥØ§":10633,"ĠØ²ÙħÙĨÙĬØ©":10634,"ĠÙĪØ£Ø®ÙĬØ±Ø§":10635,"Ø£ÙĥÙĬØ¯":10636,"ÙĩÙĪØ©":10637,"ĠØ§ÙĦÙħØ¦Ø©":10638,"ĠÙĬØ®Øµ":10639,"ĠØ§ÙĦØŃØµÙĨ":10640,"Ø±Ø¨Øª":10641,"ĠØ§ÙĦØ¥ÙħØ¨Ø±Ø§Ø·ÙĪØ±ÙĬ":10642,"ith":10643,"ĠØ§ÙĦØ·Ø§Ø¨Ø¹":10644,"ĠØ¨ÙħÙĤØ¯Ø§Ø±":10645,"ĠØ§ÙĦØ§Ø®ØªÙĦØ§Ùģ":10646,"ĠØ§ÙĦÙħØ±ÙĥØ¨":10647,"ĠØ§ÙĦÙĤØ¶Ø§Ø¦ÙĬØ©":10648,"ĠØ§ÙĦØ¨Ø¶Ø§Ø¦Ø¹":10649,"ÙĦÙģØ§ØªÙĩ":10650,"ĠÙĬÙĤØ¨ÙĦ":10651,"ĠØµØ±ØŃ":10652,"ĠØ§ÙĦØ¨Ø®Ø§Ø±ÙĬ":10653,"Ø³ÙĬÙĦ":10654,"ĠØ§ÙĨÙĤÙĦØ§Ø¨":10655,"ĠØ§ÙĦÙħÙħØªØ¯Ø©":10656,"Ø£ØŃØ¯":10657,"ĠÙĪÙħØ¯ÙĬÙĨØ©":10658,"Ø±ÙĬØ¯Ø¬":10659,"Ø§ÙĦÙĤØµØ©":10660,"ĠØ£ÙĦÙĥØ³ÙĨØ¯Ø±":10661,"ĠØ£Ø¹ÙĦØ§Ùħ":10662,"ĠØªØ±ÙĥØ²":10663,"ĠØ¯Ø³Øª":10664,"ĠÙĪØ£ÙĥØ¨Ø±":10665,"ĠÙĪÙĥØ«ÙĬØ±":10666,"ĠÙħØ³ØªÙĪØ·":10667,"ĠØ¨Ø·Ø§ÙĤØ©":10668,"Ø±Ø¨ÙĪÙĦ":10669,"ĠÙĪØ£ÙĪØ±ÙĪØ¨Ø§":10670,"ĠÙĪØ±ÙģØ¶":10671,"ĠØªØ£ÙħÙĬÙĨ":10672,"Ø³Ø¬ÙĦ":10673,"ĠØ¥ÙĬØ²":10674,"ĠØ£ÙĪØ§ÙħØ±":10675,"Ø³Ø¨ÙĬØ±":10676,"ĠØ§ÙĦØ³Ø±ÙĬØ§ÙĨÙĬØ©":10677,"ĠØ§ÙĦØµÙĪÙħØ§ÙĦ":10678,"ĠØªØ¹Ø¨":10679,"ĠØªØ³Ø§ÙĪÙĬ":10680,"ĠØ§ÙĦØ±ÙħØ²":10681,"ĠØªØ³Ø¹":10682,"ĠØ£Ø±ÙĬ":10683,"ĠÙĬÙĪØ§Ø¬Ùĩ":10684,"ĠØ§ÙĦØ£Ø¯ÙĬØ§ÙĨ":10685,"ĠØŃÙħØ§Ø©":10686,"ĠØ§ÙĦØ¨Ø·ÙĦ":10687,"Ø¤ÙĥØ¯":10688,"ĠØªØŃÙĬØ·":10689,"ÙĪØ§ÙĦÙī":10690,"ĠÙħÙĪØ³ÙĬÙĤÙĬ":10691,"ĠØ§ÙĦØ§Ø¹ØªÙĤØ§Ø¯":10692,"ĠØŃÙĬÙĪØ§ÙĨ":10693,"ĠØ³ÙĬØ§Ø³Ø§Øª":10694,"Ø³Ø§Ø¹":10695,"ĠØ¥ØºÙĦØ§ÙĤ":10696,"ĠÙĪØ£Ø¨":10697,"Ø§ÙĦÙĪÙĨ":10698,"ØµØµ":10699,"ĠÙĪÙħØ¯Ø±Ø³Ø©":10700,"Ġ1913":10701,"ĠØ§ÙĨØªØ®Ø¨":10702,"ØŃÙĤÙĤ":10703,"Ø³ØªÙĪÙī":10704,"ĠØ§ÙĦÙħØŃØªØ±":10705,"ØµÙħ":10706,"ØºØ§ÙĦØ¨Ø§":10707,"ĠØ§ÙĦÙħÙĨØ·ÙĤ":10708,"ĠÙħØªÙī":10709,"ĠØ§ÙĦØ£ÙħØ§ÙħÙĬØ©":10710,"Ø¨ØªØ©":10711,"ĠØ§ÙĦÙħØ®Ø¯Ø±Ø§Øª":10712,"ĠØŃÙĦÙĪÙĦ":10713,"ĠÙħØ³Ø¤ÙĪÙĦÙĬØ©":10714,"Ø§Ø±Ø¹ÙĬÙĨ":10715,"ĠØ¥Ø´Ø±Ø§Ùģ":10716,"ĠÙĩØ¬Ø±Ø©":10717,"ĠØ±ÙĬÙģ":10718,"ĠÙĪØ£ÙĤ":10719,"ĠØ§ÙĦÙħØªØ§ØŃØ©":10720,"ĠØ¯ÙĪØ±Ø§Øª":10721,"ĠØŃØ³ÙĨÙĬ":10722,"ĠØ§ÙĦØªÙĪØ¬Ùĩ":10723,"ĠØ§ÙĦØ¬ÙĦÙĬÙĦ":10724,"ĠØºØ°":10725,"ĠØ¨ØªÙĩÙħØ©":10726,"ĠØ£Ø®ÙĬØ±Ø§":10727,"ØªÙĤØ©":10728,"ĠØ¬Ø¯Ø±Ø§ÙĨ":10729,"ĠØ´ÙĩÙĪØ±":10730,"Ø³ØªÙĩ":10731,"ĠØ§ÙĦØ¥ÙģØ±":10732,"ÙĪØ¬Ø¯Øª":10733,"ĠÙħØ²ÙĬØ¯":10734,"ĠØ®Ø§ÙĦ":10735,"ĠÙĦÙħØ´":10736,"ĠØªÙĤÙĪÙĬÙħ":10737,"ĠØ¬ÙĨØ±Ø§ÙĦ":10738,"ĠØ§ÙĦØ¨ÙĨØ¯ÙĤÙĬØ©":10739,"ĠØ§ÙĦØ§ÙĨØ³ØŃØ§Ø¨":10740,"ĠÙħØ¹Ø§Ø¯ÙĦØ©":10741,"ĠØ£ØµÙĦØ§":10742,"Ø´ÙĥØ§ÙĦ":10743,"ĠÙĪØ§ÙĦÙĬØ§Ø¨":10744,"ĠØ³ÙĤØ·Øª":10745,"ĠØ§ÙĦØ¨Ø±Ùĥ":10746,"ĠØ§ÙĦÙħØ¹Ø§Ø±Ùģ":10747,"ĠØ§ÙĦÙħØ³ØŃ":10748,"Ġ125":10749,"ĠØ´ÙĪØ§Ø±Ø¹":10750,"ĠØ¨Ø£ÙĨÙĩÙħ":10751,"ĠÙħØ¹Ø¸ÙħÙĩÙħ":10752,"ĠØµÙĬØ§ØºØ©":10753,"ÙĬØ¡":10754,"ĠØªØ§Ø±":10755,"ĠÙħØ¹ÙĬÙĦØ§Øª":10756,"Ø§Ø®Ø±Ø©":10757,"ĠØ§ÙĦÙħØ³ÙĦÙħ":10758,"ĠÙĬÙĤÙĪÙħÙĪÙĨ":10759,"Ø²ÙĬÙħØ§Øª":10760,"ĠÙħØ§Ø²":10761,"ĠØ§ÙĦÙħÙģØ§ÙĪØ¶Ø§Øª":10762,"ĠØ§ÙĦÙĨØ¨ÙĪÙĬ":10763,"ĠØ¨Ø§ÙĦØªØ¯":10764,"ĠÙĪØªÙħÙĥÙĨ":10765,"ĠØ¬Ø§ÙħØ¹Ø§Øª":10766,"ĠØ§ÙĦÙħØªØ¨ÙĤÙĬØ©":10767,"49":10768,"ÙĨØªÙĬØ¬Ø©":10769,"ĠØªØ¬Ùħ":10770,"ĠÙĪÙĬØ¹Ø±Ùģ":10771,"ĠÙĪÙĥÙħØ§":10772,"ØºØ±Ø§Ùħ":10773,"ĠØ§ÙĦÙħÙĪØ§Ø¶ÙĬØ¹":10774,"ĠØ§ÙĦØ¹Ø±ÙĪØ¶":10775,"ĠØ¥ÙĦÙĬØ²Ø§Ø¨ÙĬØ«":10776,"ÛĮØ©":10777,"ĠØªÙĪÙĦÙĬØ¯":10778,"ĠØ¨ÙĪØ²":10779,"ĠÙĪØŃÙĦ":10780,"Ġ58":10781,"ĠØ±ÙĬØ§Ø¶Ø©":10782,"ĠÙĦØ¢Ø®Ø±":10783,"ĠÙĦØ¶ÙħØ§ÙĨ":10784,"ĠØ§ÙĦÙĤØµÙĪØ±":10785,"ĠÙĪØ§ÙĦØªØ³":10786,"Ø¨ØªÙĪÙĨ":10787,"Ø²ÙĪØ¬Ø©":10788,"Ø£ÙĦÙĬÙģ":10789,"Ø±Ø¨Ø§Øª":10790,"ĠØ§Ø³ØªØ±":10791,"ĠØ¥ÙĨØ³":10792,"ft":10793,"ĠØ¨Ø§Ø¨Ø§":10794,"Ġ1905":10795,"ĠØªÙĬÙĨ":10796,"ĠØ§ÙĦÙĨÙħØ§Ø°Ø¬":10797,"ĠÙħÙĪØ³ÙĪØ¹Ø©":10798,"ĠØ§ÙĦÙĨØ¬Ùģ":10799,"ĠØ§ÙĦØ£ÙħØ§ÙħÙĬ":10800,"ĠÙĦÙĦØŃØ±Ø¨":10801,"ĠØ§ÙĦØ¨Ø·ÙĪÙĦØ§Øª":10802,"ÙĪØ°ÙĬØ©":10803,"omp":10804,"ĠØ¥ØŃÙĬØ§Ø¡":10805,"Ø´Ø±ÙĬØ©":10806,"Ø¬Ø¨Ø§ÙĦ":10807,"ĠØ§ÙĦØ±ÙĤÙħÙĬ":10808,"ĠÙĬÙĩØ¯Ùģ":10809,"ĠØ¨ÙĤÙĪÙĦÙĩ":10810,"ĠØ´Ø±Ø·Ø©":10811,"ĠØ§ÙĦÙħØ®Ø§Ø·Ø±":10812,"ĠÙĪØ§ÙĦÙģØ±ÙĨØ³ÙĬØ©":10813,"ĠØ§ÙĦØ³Ø¨Ø¹ÙĬÙĨÙĬØ§Øª":10814,"ĠØ¨ÙĪØ±Øª":10815,"ĠØªØ¹Ø¨ÙĬØ±":10816,"ĠÙĪÙĬØ²":10817,"ĠÙģØ¦Ø§Øª":10818,"ĠÙħÙĨØ§ÙģØ³":10819,"ĠØŃØ§Ø¯Ø«Ø©":10820,"ĠØ§ÙĦØ«ÙĤØ©":10821,"ĠÙĪØ£ÙĨÙĩØ§":10822,"ĠØ§ÙĦÙĩÙĨØ¯Ø³ÙĬØ©":10823,"Ø§ÙĦÙĪØµÙģ":10824,"ĠØ§ÙĦØ±Ø§Ø¯ÙĬÙĪ":10825,"ĠØ§ÙĦØµÙĪØªÙĬ":10826,"ĠØ§ÙĦØ´Ø¹ÙĪØ±":10827,"Ø¸Ø¨ÙĬ":10828,"ĠÙĪØ£Ø±Ø¨Ø¹ÙĪÙĨ":10829,"ØŃØ±Ø§Ø±":10830,"ĠØ¨ØªØ·ÙĪÙĬØ±":10831,"ÙģÙĦØª":10832,"ĠØ§ÙĦØ±ÙĥØ§Ø¨":10833,"ĠØ§ÙĦØ·ÙĪØ§Ø±Ø¦":10834,"ĠÙĪØ§Ø«":10835,"ĠÙĬØ«":10836,"ĠØ§ÙĦÙĦØ§Ø¬Ø¦ÙĬÙĨ":10837,"ĠØ¯ÙĪØ±ÙĩØ§":10838,"46":10839,"ØŃØ³ÙĨ":10840,"ĠØ§ÙĦÙħØ§ÙĨ":10841,"ĠÙĩØ§Ø´Ùħ":10842,"Ø³ØªÙĬ":10843,"ÙĪÙģØ§Øª":10844,"ĠØ§ÙĦÙħÙĨØ³":10845,"ĠSp":10846,"ĠØ§ÙĦØ¸ÙĩØ±":10847,"ĠÙĨØ¬ÙĬØ¨":10848,"ĠØ¬ÙĬØ´Ùĩ":10849,"ĠØ§ÙĦØ§Ùĩ":10850,"ĠÙĪÙħØ§Øª":10851,"ĠÙĪØŃÙĥÙħ":10852,"Ø·Ø±Ùģ":10853,"ĠÙĨØ³Ø§Ø¡":10854,"ĠÙĪØ¬ÙĪØ¯Ùĩ":10855,"ĠÙĪØ£ØŃÙħØ¯":10856,"ĠÙģÙĪÙĦØª":10857,"ĠÙĬÙĩÙĪØ¯":10858,"ĠØ§ÙĦÙĬÙĪØ±Ø§ÙĨÙĬÙĪÙħ":10859,"ĠØ®Ø³Ø§Ø±Ø©":10860,"ÙĨØ¸":10861,"ĠÙģÙĩ":10862,"ĠØ¨Ø®ØµÙĪØµ":10863,"ĠØªÙĪØ³Ø¹":10864,"ĠÙĬØ¹Øª":10865,"Ø¹ÙħÙĦØ©":10866,"ĠÙĪÙħØ¹Ùĩ":10867,"ĠØ§ÙĦØ«Ø¯ÙĬÙĬØ§Øª":10868,"ĠØ§ÙĦÙħØ³Ùħ":10869,"Ø§ØªØ°Ø©":10870,"ØªØ¨Ø§Ø³":10871,"ĠÙĨÙĬÙĪØªÙĨ":10872,"ÙĪØ§ÙĥÙĩ":10873,"ĠÙĦÙĬÙħ":10874,"ÙĪÙĦÙĨØ¯Ø§":10875,"ĠØ´ÙĤ":10876,"Ø¨Ø±ÙĬÙĨ":10877,"ĠØ§ÙĦØ´ÙĩØ§Ø¯Ø©":10878,"ÙĩØ¯Ø¯":10879,"ĠØ§ÙĦØ±Ø·ÙĪØ¨Ø©":10880,"ĠØªÙĨÙħÙĪ":10881,"ĠÙħÙĪØ¹Ø¯":10882,"ĠÙĬÙĪÙħÙĬ":10883,"ory":10884,"ĠÙĥÙĦÙĬØ§Øª":10885,"ĠØ§ÙĦØ¨ÙĨÙĬ":10886,"ÙĦÙĬÙģØ²ÙĬ":10887,"ĠØ§ÙĦØ¨Ø§Ø±Ø²Ø©":10888,"ĠØ§ÙĦÙĬØ±":10889,"Ø´ÙĥÙĦØª":10890,"ÙħÙĬÙĨÙĬØ§":10891,"ĠØ§ÙĦÙħØ³ØªØ¹ÙħØ±Ø§Øª":10892,"ÙĬØªÙĪÙĨ":10893,"ĠØ§ÙĦÙĤØ±Ø§Ø±Ø§Øª":10894,"ĠØ§ÙĦØ¥Ø±ÙĩØ§Ø¨":10895,"ĠØ¨Ø§ÙĦØ³ÙĦ":10896,"ĠØªØ¬ÙĨØ¨":10897,"43":10898,"ĠÙģÙĬØªÙĨØ§Ùħ":10899,"ĠÙĬÙħÙĬØ²":10900,"ÙĬÙĨÙĬÙĩ":10901,"ĠØ§ÙĦØ¹ÙĨÙĪØ§ÙĨ":10902,"ĠØ´ÙħØ§ÙĦÙĬ":10903,"ÙĨØ¯ÙĪÙĨÙĬØ³ÙĬØ§":10904,"ĠØ¨ÙĪØ³Ø·":10905,"ĠÙĦÙĦØ·Ø¨":10906,"ĠÙĦÙĦÙģØ±ÙĬÙĤ":10907,"Ø§ÙĩØ©":10908,"ĠØ§ØªØ¨Ø§Ø¹":10909,"ĠÙĬÙĪÙĨØ³":10910,"ĠÙĪØ§ÙĦØ³Ø¨":10911,"ĠØ¬Ø¯Ùĩ":10912,"ĠØ§ÙĦÙĤÙĪÙĤØ§Ø²":10913,"ĠÙħÙĪØ§ÙģÙĤØ©":10914,"ĠÙĪØªÙĤØ¯ÙĬÙħ":10915,"ĠÙĦØ´Ø±":10916,"ĠÙħÙĪØ§Ø·ÙĨ":10917,"ĠØ§ÙĦØ£Ø¹ØµØ§Ø¨":10918,"ĠØ§ÙĦØ¸Ø§ÙĩØ±":10919,"ĠØµØ¯ÙĬÙĤÙĩ":10920,"ĠØ¨Ø´Ø§Ø±":10921,"Ø¶Ø¬":10922,"ÙĪÙĩØ§ÙĨ":10923,"ĠØ£ØŃØ³ÙĨ":10924,"ĠÙĥÙĬÙħÙĬØ§Ø¦ÙĬ":10925,"ĠÙĨØ§ÙĤ":10926,"ĠØ¨ÙĦØºØ©":10927,"ĠØªØ¬Ø§Ø±":10928,"ĠÙĪÙĦÙħØ¯Ø©":10929,"ĠØªØ£Ø³ÙĬØ³ÙĩØ§":10930,"her":10931,"ĠØ§ÙĦØ£ÙĪØ¶Ø§Ø¹":10932,"ĠÙĪØ§ÙĦØ¨ØŃØ«":10933,"ĠØ§ÙĦØ¹Ø·":10934,"ĠØ¨ØŃØ±ÙĬ":10935,"ĠØªØ±Ø´ÙĬØŃ":10936,"ĠØ´Ø¹Ø±Ùĩ":10937,"ĠØ§ÙĦØ´Ø¯ÙĬØ¯Ø©":10938,"ÙĪØ£ÙĬ":10939,"ĠØ§ÙĦÙħÙĬØ¯Ø§ÙĨ":10940,"ĠØ§ÙĦÙħØ¹ÙĦÙħÙĬÙĨ":10941,"ĠØªØ¬Ùĩ":10942,"ĠÙħÙĦØ§Ø¨Ø³":10943,"ÙĬÙħÙĬØ§Ø¡":10944,"ĠÙĥÙĪÙĬÙĨ":10945,"ĠØ§ÙĦØ£Ø°":10946,"ĠÙħØŃÙĦÙĬ":10947,"ĠØ¨Ø¬ÙĪØ§Ø±":10948,"ĠÙĪØ£ÙħØ±ÙĬÙĥØ§":10949,"ĠÙĨØ§Ø¬ØŃØ©":10950,"ĠÙĬØªÙĦ":10951,"ĠØ§ÙĦØ¢ÙĦØ©":10952,"ĠØ§Ø¹ØªÙĨ":10953,"ĠÙĬØ¯ÙĪØ±":10954,"Ø«Ø§":10955,"ĠØ§ÙĦØ´Ø§ÙĬ":10956,"ĠØ§ÙĦÙģØ¯Ø±Ø§ÙĦÙĬ":10957,"ĠØ¨Ø¬Ø±":10958,"Ø®Ø±Ø¬Ùĩ":10959,"ÙĪÙĥÙĪØ²":10960,"ĠÙĪØ³ÙĪØ±ÙĬØ§":10961,"Ġ1910":10962,"ĠÙĦÙĦØ´Ø¨Ø§Ø¨":10963,"ĠØ§ÙĦØ®Ø±Ø·ÙĪÙħ":10964,"ĠÙĪØªØ¹Ø±Ùģ":10965,"ĠØºÙĨ":10966,"Ø§ÙĩØ±ÙĬ":10967,"ĠØ¨Ø§ÙĦÙħÙĤØ§Ø±ÙĨØ©":10968,"ĠÙĪØ§ÙĦØ¨ØŃØ±":10969,"ĠÙĩÙĥØªØ§Ø±":10970,"ÙģÙĦÙĪÙĨØ²Ø§":10971,"ĠØ§ÙĦØ¬ÙĬÙĨ":10972,"ĠØ§ÙĦØ¹ÙħÙĪØ¯":10973,"ĠØ§ÙĦÙħØŃØ¯ÙĪØ¯Ø©":10974,"ĠØªØ§ÙĬÙħØ²":10975,"Ø¶Ø¹Øª":10976,"Ø§ÙĩÙħØ§":10977,"ĠØªØªÙĪØ§Ø¬Ø¯":10978,"ĠØ§ÙĦØ¬Ø±Ø§ØŃØ©":10979,"ge":10980,"Ø·ÙĬÙģ":10981,"ĠØ§ÙĦØ¹Ø¨Ø¯":10982,"ĠÙħØ¨ÙĨÙĬØ©":10983,"ĠØ°Ø§ØªÙĬØ©":10984,"ĠØµÙĨØ§Ø¹ÙĬØ©":10985,"ÙĨØ¨Ø°Ø©":10986,"ĠØ§ÙĦÙħÙĬÙĥØ§ÙĨÙĬÙĥÙĬØ©":10987,"ĠØ´ÙĬÙĥØ§ØºÙĪ":10988,"ĠÙĩØ§Ø¬Ùħ":10989,"ĠÙĦÙħØ±ÙĥØ²":10990,"ĠØ§ÙĦÙħØ³Ø£ÙĦØ©":10991,"ĠÙĬØŃØ¨":10992,"ĠØ¨Ø£Ø³ÙĦÙĪØ¨":10993,"Ġ96":10994,"ÙĪÙĬÙĤÙĪÙĦ":10995,"ĠÙĨØ§Ø¨ÙĪÙĦÙĬ":10996,"ÙĤÙĬØ¨Ø©":10997,"ĠØ¨Ø¥ÙĨØªØ§Ø¬":10998,"ĠØ§ÙĦØµÙĬØºØ©":10999,"ĠØ«ÙĤØ§ÙģÙĬØ©":11000,"ĠØ¹ÙĬÙĪÙĨ":11001,"ĠÙĦÙĬÙĥ":11002,"ĠØ§ÙĦØ¨Ø§Ùĥ":11003,"ĠØ§ÙĦØ±ÙĩØ¨":11004,"ĠØµÙģØ§Øª":11005,"ĠØ¨Ø³ÙĦ":11006,"ĠØ§ÙĦØ¬ÙĪÙĦØ©":11007,"ĠØµØ¹Ø¨":11008,"ĠØ§ÙĦÙĦØ¨":11009,"ĠØªØŃØ±Ùĥ":11010,"ĠØ§ÙĦØ£Ø¯ÙĪØ§Ø±":11011,"ĠÙĩØ¶Ø¨Ø©":11012,"ĠÙħÙħØªØ§Ø²":11013,"Ø§ÙĦØ¬ØºØ±Ø§ÙģÙĬØ§":11014,"ĠØ§ÙĦØ³Ø§Ø¨ÙĤÙĬÙĨ":11015,"ÙĪÙĨØ³ÙĪ":11016,"ĠÙĬØ¨ÙĤ":11017,"ĠØ§ÙĦØŃÙĦÙĤØ§Øª":11018,"ĠÙħØ³ØªÙħØ±Ø©":11019,"ÙĪØ§ÙģÙĦ":11020,"Ø¹ØªÙĩ":11021,"Ø§ÙħØ¹Ø§Øª":11022,"ĠØ§ÙĦØ¥Ø®":11023,"ĠØªØ´Ø§Ø±Ùĥ":11024,"ĠÙĪØ§ÙĦØªÙĨÙħÙĬØ©":11025,"Ø¶Ø§Ø±Ø©":11026,"ĠØ§ÙĦØªØ§Ø¬":11027,"ĠØ¬ÙĦØ§ÙĦ":11028,"ĠØ¨ÙĨÙĤÙĦ":11029,"ĠØ§ÙĦÙĨÙħØ³Ø§ÙĪÙĬØ©":11030,"ĠØ§ÙĦØ§Ø«ÙĨÙĬÙĨ":11031,"ĠØ§ÙĦØŃØ§Ø±Ø«":11032,"ĠÙĬØ¯ÙģØ¹":11033,"Ø¹Ø¯Ø§Ø¡":11034,"ĠÙģØ±Ø·":11035,"ĠØ§ÙĦØ§ÙĨÙĤÙĦØ§Ø¨":11036,"Ø§ÙĬÙģ":11037,"ÙĥÙĪÙħ":11038,"ĠØ§ÙĦØ²ÙħÙĨÙĬØ©":11039,"ĠØ§ÙĦÙħØ«ÙĦØ«":11040,"Ø³Ø®Ø©":11041,"ĠÙħØ®ØµØµØ©":11042,"Ø®ÙĬÙĦ":11043,"ĠØ¨Ø§ÙĦØªØ¬":11044,"ÙĩØ±Ø¨Ø§Ø¡":11045,"ĠØ§ÙĦÙĤØ§ÙĦØ¨":11046,"ĠØ£Ø¨ÙĪØ¸Ø¨ÙĬ":11047,"ĠØ¥ØŃØµØ§Ø¡Ø§Øª":11048,"ĠØ§ÙĦØ£Ø¶":11049,"Ø§ÙĤØ·":11050,"ĠØ§ÙĦØ±Ø®":11051,"ÙĪÙģÙĨØª":11052,"Ø³ÙĬØ¨":11053,"ĠØ§ÙĦÙħØªÙĥ":11054,"ĠÙĬÙĤØªÙĦ":11055,"ĠØ§ÙĦØ³ÙĬØ§Ø³ÙĬÙĬÙĨ":11056,"Ø¹ÙĪØ¨Ø©":11057,"ĠØ§ÙĦØ¨ÙĦØ¯ÙĬÙĨ":11058,"ĠØªØµÙĪØ±":11059,"ĠØŃØ¶Ø§Ø±Ø©":11060,"ÙĦÙĪØ§ÙĨ":11061,"ĠØ§ÙĦØ¥Ø¨ÙĦ":11062,"ĠÙĪÙĥØ§ØªØ¨":11063,"ĠØ¨Ø±ÙĪØ³ÙĬØ§":11064,"ĠÙĬØ±ØºØ¨":11065,"ĠÙĦÙĦÙħÙĨØ·ÙĤØ©":11066,"ĠÙĪØ§ÙĦÙģÙĨÙĪÙĨ":11067,"ÙĢØ§":11068,"ĠÙħÙĩÙĨØ©":11069,"ĠÙħÙĪØ¬Ø§Øª":11070,"ÙĪØºØ±Ø§ÙģÙĬØ§":11071,"ĠÙħÙĨØ§Ø³Ø¨":11072,"ĠØ§ÙĦØ±Ø§Ùģ":11073,"ĠØ¨Ø§Ø±Ø²Ø©":11074,"ĠØ¨Ø§ÙĦØªØ§ÙĦÙĬ":11075,"ĠØ§ÙĦÙĤØ§Ø¯Ø³ÙĬØ©":11076,"ÙĪØ§ÙĨØª":11077,"Ø·ÙĬÙĨ":11078,"Ø§ÙģÙĬØ±":11079,"ĠÙĪØ¶Ø¹Ùĩ":11080,"ĠØµØ¯ÙĪØ±":11081,"Ø¹ÙĬØ§":11082,"ĠÙħÙĪÙĤ":11083,"ĠØ§ÙĦØ¹Ø°Ø±Ø§Ø¡":11084,"Ø¸ÙĨ":11085,"ĠÙħØ³Ø§":11086,"ĠØ¬Ø²Ø¦ÙĬØ§":11087,"ĠÙĦØªØŃØ±ÙĬØ±":11088,"ĠÙĦÙĦØ±Ø¦ÙĬØ³":11089,"ØªØªÙħ":11090,"ĠÙģØ§ÙĨØª":11091,"ĠÙĪØ§ÙĦØ«ÙĦØ§Ø«":11092,"ĠØ§ÙĦØ¹ÙĤÙĪØ¯":11093,"ĠØ§ÙĦØ¥Ø´Ø¹Ø§Ø¹":11094,"ÙĤØ·Ø©":11095,"ĠØ§ÙĦØ£ÙĤØ§ÙĦÙĬÙħ":11096,"ÙĪØ³Ø§Ø¦ÙĦ":11097,"Ø§ÙĨÙĬØª":11098,"ÙĪÙĨØªÙĬØ¬Ø©":11099,"ĠÙĪØ£ÙĦÙħØ§ÙĨÙĬØ§":11100,"ĠØ§ÙĦØ¹Ø¨Ø§Ø³ÙĬØ©":11101,"ÙĩØ§ÙĬ":11102,"ĠØ±ØµØ¯":11103,"ĠÙĪØ£ÙĤØ§Ùħ":11104,"ĠÙĪØ±Ø¬Ø§ÙĦ":11105,"ĠØŃÙĤØ¨Ø©":11106,"ĠØ§ÙĦÙĤØ·Ø¨ÙĬØ©":11107,"ĠÙĪØ§Ø¹ØªØ¨Ø±":11108,"ĠØ³Ø§ÙĩÙħØª":11109,"ÙĪÙĤØ±Ø§Ø·ÙĬØ©":11110,"ma":11111,"ĠØ³Ø¹Ø©":11112,"ĠØ§ÙĦØ¯Ø§Ø¦Ùħ":11113,"ĠØ§ÙĦÙħØ³Ø§Ø¨ÙĤØ©":11114,"ÙħØ³ÙĬÙĨ":11115,"ĠÙĤØ±Øµ":11116,"ĠØ§ÙĦØµÙģØŃØ§Øª":11117,"ĠØ§Ø¶Ø·Ø±Ø§Ø¨Ø§Øª":11118,"ĠØ§ÙĦØ¶ÙĪØ¦ÙĬØ©":11119,"ĠØªØªÙģ":11120,"ĠÙĪØ§ÙĦÙħÙĪØ§Ø¯":11121,"ÙģØ±Øª":11122,"ĠÙĩØ§Ø¯":11123,"ĠØ§ÙĦÙħØ¹Ø±Ø¶":11124,"ĠØªÙĪØ¬":11125,"ÙĪØ±Ø²":11126,"ĠØ£ÙħØ«ÙĦØ©":11127,"ÙģØ¹ÙĪÙĦ":11128,"ĠØ¨ØªØŃØ¯ÙĬØ¯":11129,"ĠØ§ÙĦÙĪÙģØ§Ø©":11130,"ĠØ§ÙĦÙĩÙħ":11131,"ĠÙģØ±ÙĬØ¯Ø©":11132,"ĠÙĥÙĢ":11133,"Ø³ÙĬÙĬÙĨ":11134,"ĠÙħÙĪØ§Ø¶ÙĬØ¹":11135,"ĠØ§ÙĦØµÙĦÙĬØ¨ÙĬÙĬÙĨ":11136,"ÙĨÙĬÙģØ§Øª":11137,"ÙģÙĤØ©":11138,"ĠØŃØ§Ø³ÙĪØ¨":11139,"Ø¬ÙħÙĩÙĪØ±":11140,"ĠØ§ÙĦÙħØ³Ø¤":11141,"ĠØ¨ØŃØ¯":11142,"Ø¬Ø§ÙħØ¹Ø©":11143,"ĠØ§ÙĦÙħØ±ÙĬØ®":11144,"ĠØ¯ÙĬÙģ":11145,"ÙĪÙħÙĨÙĬÙĪÙħ":11146,"ĠÙģÙĩÙĨØ§Ùĥ":11147,"ØµØ§Ø¯":11148,"ĠØ³ÙĪØ¨Ø±":11149,"ĠÙĪØŃÙĪØ§ÙĦÙĬ":11150,"ĠØµØŃÙģÙĬ":11151,"ign":11152,"ĠØ§ÙĦØ³Ø§Ø¦Ø¯Ø©":11153,"ĠØªÙħÙĪÙĬÙĦ":11154,"Ġ3000":11155,"ÙĪØ§Ø±Ø¨":11156,"ĠØ§ØªØ¬Ùĩ":11157,"ĠÙĬØ¤ÙĥØ¯":11158,"ĠØ§ÙĦØ¥Ø³ÙĥÙĨØ¯Ø±":11159,"ĠØ§ÙĦÙħÙĤØ·":11160,"ĠÙĦÙĦØ¬Ø¯ÙĦ":11161,"Ø±ÙĨØª":11162,"ĠØ¯Ø±ÙĪØ³":11163,"ĠÙĪÙģÙĬÙĩ":11164,"ĠÙĦØŃØ²Ø¨":11165,"Ø«ÙĬÙĪØ¨ÙĬØ§":11166,"ĠØ¹Ø±ÙĤÙĬÙĨ":11167,"Ø¤Ø³Ø§Ø¡":11168,"ĠÙĪÙĦØ¹ÙĦ":11169,"ÙĪØŃÙĬØ©":11170,"ĠÙĪØ±Ùħ":11171,"ĠÙĪÙĦÙĬØ³Øª":11172,"ĠØ§ÙĦÙħØ³Ø§ÙĪØ§Ø©":11173,"Ø§ÙĦØ²":11174,"ØºØ§Ø¯Ø±":11175,"Ø±ÙĥØ¨":11176,"ÙĪÙĬØ¨ÙĦØº":11177,"ØªØŃÙĪÙĦ":11178,"ØµÙĦØ¨":11179,"ĠÙĪØ§ÙĦØ´Ø¹Ø±":11180,"ich":11181,"ĠØ§ÙĦØ¯ÙĪØ±Ø§ÙĨ":11182,"ĠÙħØ®ØªÙĦØ·ÙĬÙĨ":11183,"se":11184,"ĠØ§ÙĦÙħØ¹ÙĦ":11185,"ĠÙĩÙĥØ°Ø§":11186,"ĠØ®ÙĦÙĬØ©":11187,"ØªÙħØ§Ùħ":11188,"ÙĪØªØ¹Ø¯":11189,"ĠØ§ÙĦÙħØªØ¸Ø§ÙĩØ±":11190,"ĠØ§ÙĦØŃÙĥÙĬÙħ":11191,"ĠØ§Ø«ÙĨØ§ÙĨ":11192,"ĠØ§ÙĦÙĪØ±ÙĤ":11193,"ĠØ§ÙĦØ¨Ø¹Ø«Ø©":11194,"Ø§Ø·Ø¨":11195,"ĠØ²ÙĬØ§Ø¯":11196,"ĠØ§ÙĦÙħØ³Ø¤ÙĪÙĦÙĬÙĨ":11197,"ĠØ§ÙĦÙģØ¹ÙĦÙĬ":11198,"Ø´ÙĬÙģ":11199,"ĠØ«Ø±":11200,"ĠÙĪØ¥ÙĨØªØ§Ø¬":11201,"ĠÙĪØµÙģÙĩ":11202,"ĠØ§ÙĦØ§Ø²":11203,"ĠØ¨Ø¶Ø¹":11204,"ÙģØªØ§ØŃ":11205,"Ġ88":11206,"ĠØ³ÙĦØ·Ø§Øª":11207,"ĠØ³ØªØ§ÙĨ":11208,"ĠÙĪÙĬØ±Ø¬Ø¹":11209,"ĠÙģØ¯":11210,"ĠØ£Ø³ÙĦØŃØ©":11211,"ĠØ£ÙĨØ¯":11212,"ÙĪÙģØ³ÙĥÙĬ":11213,"ĠØ«Ø¨Øª":11214,"ĠØ§ÙĦØªØ¹Ø¯ÙĬÙĦ":11215,"ĠÙĦØªØŃØ³ÙĬÙĨ":11216,"Ø§ÙĥØªØ¦Ø§Ø¨":11217,"ĠÙģØ§Ø´":11218,"ĠØ§ÙĦØªÙĥÙĪÙĬÙĨ":11219,"ĠØ¥ÙĨÙĩØ§Ø¡":11220,"Ø«ÙħØ§Ø±Ø§Øª":11221,"ĠÙĦÙĬØªÙħ":11222,"ĠØ§ÙĦØ¹ÙĦØ§ÙħØ§Øª":11223,"ĠØ§ÙĦØ¬ÙħØ§Ø¹ÙĬ":11224,"ĠÙħØ¹Ø§ÙĨ":11225,"ĠØ§ÙĦØ°ÙĥØ§Ø¡":11226,"ĠØŃØµØ§ÙĨ":11227,"ext":11228,"Ø®Ø§Ø¶":11229,"ĠØ§ÙĦØªÙħÙĪ":11230,"ĠØ§ÙĦØ¥ÙĨÙĥÙĦÙĬØ²ÙĬØ©":11231,"ĠØ¨Ø¨Ø³Ø§Ø·Ø©":11232,"ĠØ§ÙĦØ«ÙħØ§ÙĨÙĬÙĨÙĬØ§Øª":11233,"ĠÙĨØ§Ø¦Ø¨Ø§":11234,"Ø°Ø§Ø¹Ø©":11235,"Ø¢Ø«Ø§Ø±":11236,"ØŃÙĪØ§ÙĦÙĬ":11237,"ĠØ§ÙĦÙĥÙĨØ¯ÙĬ":11238,"ĠØ§ÙĦØ«ÙĤØ§ÙģØ§Øª":11239,"ĠÙĦÙĦØ§Ø³ØªØ®Ø¯Ø§Ùħ":11240,"ĠØ§ÙĦÙĪÙģØ¯":11241,"ĠÙħÙĪÙĦØ¯":11242,"ÙĪÙĨÙĬÙĨ":11243,"ĠÙĪØ§ÙĦØ´Ø±ÙĤ":11244,"ĠÙĩÙĪÙĨØº":11245,"ĠØ®Ø¶Ø±":11246,"Ø§ÙĩÙĦ":11247,"ĠØ§ÙĦÙħØ³ØªØ´Ø§Ø±":11248,"ĠØªØ±ØªÙģØ¹":11249,"ĠØ§ÙĦÙħÙĩØ§Ø¬Ùħ":11250,"ĠØ§ÙĦØµØŃÙĬØŃØ©":11251,"ĠÙĤØ¨Ø±Øµ":11252,"ĠÙħÙĪØ§Ø±Ø¯":11253,"ÙĪØ²Ø±Ø§Ø¡":11254,"ĠÙĤØ§ÙĨÙĪÙĨÙĬØ©":11255,"ĠÙħÙĨØ¯":11256,"ĠØ§ÙĦØ¥Ø·Ø§Ø±":11257,"ÙĬØ§ØªÙĬ":11258,"ĠØ§ÙĦØ³ÙĬØ§Ø¯Ø©":11259,"ĠÙĦÙĬØ±":11260,"ĠØªØ±ÙĬØ¯":11261,"ĠÙĪØ§ÙĦØ¨ÙĨ":11262,"ĠØ³ÙĬØ§ÙĤ":11263,"ĠØ´ØªØ§Ø¡":11264,"ÙĪØªØ´ÙĬ":11265,"ÙĢØ±":11266,"Ø§ÙĨØ¯ÙĪ":11267,"Ø§ÙĨÙħ":11268,"ĠØ³Ø§Ø¦Ø±":11269,"ĠÙħØ¹ÙĤØ¯Ø©":11270,"ĠØ¨ÙħØ¯Ø±Ø³Ø©":11271,"ĠØ¹ÙĤÙĦ":11272,"Ø§Ø¦ÙĥØ©":11273,"ĠØ§Ø¹ØªÙĤØ¯":11274,"ĠØ§ÙĦØ£ØµÙģØ±":11275,"ÙĨØ¸Ø§Ùħ":11276,"ĠÙĥÙĦÙĬÙĨ":11277,"ĠØ¨Ø±ÙĦÙħØ§ÙĨ":11278,"ĠØ§ÙĦØ±ÙĬØŃ":11279,"ĠÙĦØ¬Ø§ÙħØ¹Ø©":11280,"Ø¹ÙĪÙħØ©":11281,"ĠØ¹Ø²ÙĬØ²":11282,"ĠÙĬÙģØ¶ÙĦ":11283,"ĠØ¥ØŃØ¯Ø§Ø«":11284,"ĠÙĪØªÙĪØ¬Ø¯":11285,"ÙĪØªØ§Øª":11286,"ĠØ¶ÙħØ§ÙĨ":11287,"ĠÙĪØ§ÙĦØªØ´":11288,"ĠØ¶ÙĪØ¦ÙĬØ©":11289,"Ø§ÙĬØ´":11290,"ĠÙĥÙĬØ¨":11291,"ĠÙĪØ«Ø§Ø¦ÙĤ":11292,"ÑĢ":11293,"Ø®ÙĬØ±Ø©":11294,"ĠÙĪØ§ÙĦØ§ØªØŃØ§Ø¯":11295,"ĠØ§ÙĦÙĦØ§Ø³":11296,"ÙĦØ¨ÙĬÙĨ":11297,"ĠØ´Ø¹Ø¨Ø§ÙĨ":11298,"ĠÙħØ¬Ø±Ùī":11299,"ĠÙĪØ²ÙĪØ¬ØªÙĩ":11300,"ĠÙĤØ§Ø±Ø©":11301,"ĠØ§ÙĦØ³Øª":11302,"ĠØ§ÙĦØ³Ø§Ùħ":11303,"ĠØ§ÙĦØ¥Ø´Ø§Ø±Ø§Øª":11304,"ĠÙħØ´ÙĩØ¯":11305,"ĠØ¯ÙĬÙĨÙĬ":11306,"ĠØ§ÙĦØµÙģØ§Øª":11307,"ÙħØ§ÙĦÙĬØ©":11308,"ĠØ§ÙĦÙħØ´ØªØ±ÙĬ":11309,"ĠÙħÙĩÙĨØ¯Ø³":11310,"ĠØ§ÙĦØ³ÙĦÙĬÙħ":11311,"ĠÙĬØ±ÙģØ¶":11312,"Ø±ÙģØª":11313,"Ø¯ÙĤ":11314,"ĠØ¨Ø§Ø²":11315,"ĠØ§ÙĦÙħØ³Ø±ØŃÙĬ":11316,"ĠØ³ÙĬØ±Ø©":11317,"ÙĪØ±Ùħ":11318,"ĠØ§Ø³ÙĥØªÙĦÙĨØ¯Ø§":11319,"ĠØ§ÙĦØ¨Ø¯Ø¡":11320,"ÙĪÙĬØ¹Ø¯":11321,"ĠØ§ÙĦØ±Ø¯":11322,"ĠØ§ÙĦØ°Ø§Øª":11323,"Ø§ÙĦÙħØ¤":11324,"ÙĤØ±Ø§Ø¡":11325,"ĠÙĬÙĤØµØ¯":11326,"ĠØ§ÙĦØ³Ø¨Ø¹Ø©":11327,"Ø§ÙģØ±ÙĬÙĨ":11328,"ĠØªÙĦÙħÙĬ":11329,"ĠØ§ÙĦØªÙģØ§Ø¹ÙĦØ§Øª":11330,"ĠØºØ§ÙĦ":11331,"Ø³ÙħØ§ØŃ":11332,"ĠØªØªØŃØ¯Ø«":11333,"ĠØªØ®Ø¶Ø¹":11334,"ÙĦÙĬØ·":11335,"ĠØ§ÙĦÙĥØ§Ø¦ÙĨ":11336,"ÙĤØ¯Øª":11337,"ÙĬØ¹Ø§Ø¨":11338,"ĠØ§ÙĦÙĨØ¨ÙĪÙĬØ©":11339,"ĠØ§ÙĦØ¨ÙĪØ³ÙĨØ©":11340,"ĠØ§ÙĦØ§Ø¶":11341,"ĠØ¨Ø²ÙĬØ§Ø¯Ø©":11342,"Ø§ÙĨØ¶Ùħ":11343,"ĠØ§ÙĦØ³ØªÙĬÙĨØ§Øª":11344,"ÙħØ§Ø±Ø©":11345,"ĠØ¨Ø§ÙĬØ±":11346,"Ø¶Ø§Øª":11347,"ĠØ§ÙĦÙĥÙĪÙģØ©":11348,"Ø§Ø·Ùģ":11349,"ĠØ§ÙĦØ¢ÙĦÙĬ":11350,"ĠÙĬØªÙĪØ§Ø¬Ø¯":11351,"Ø§ØºÙĨ":11352,"ĠÙĪØ´Ø±ÙĥØ©":11353,"ĠØ§ÙĦØªØ³Ø¹ÙĬÙĨÙĬØ§Øª":11354,"ĠØ§ÙĦØªÙĦÙģØ²ÙĬÙĪÙĨÙĬ":11355,"ah":11356,"ĠØ¹Ø¯ÙĦ":11357,"ĠØ¶ÙĬ":11358,"Ø´ÙĬØ¡":11359,"ĠØ§ÙĦØ«Ø§ÙĨÙĪÙĬ":11360,"ĠØ¨ØªØ£Ø³ÙĬØ³":11361,"ĠÙģØ£Ø±Ø³ÙĦ":11362,"ĠØ¨Ø§ÙĦØ¯ÙĪØ±ÙĬ":11363,"ĠÙģÙĪÙĥØ³":11364,"ĠØªØ°":11365,"Ø§Ø¹ØªÙĩ":11366,"ĠØ§ÙĦÙħØŃØªÙĦØ©":11367,"ĠÙĥØ«Ø±Ø©":11368,"ÙĪØ§ÙģØ°":11369,"ĠØ¹Ø¯ÙĬ":11370,"ĠØªÙĪÙĦÙĬ":11371,"ĠÙĪØ§ÙĦØ£Ø±":11372,"ĠØ§ÙĦÙħØ³ØªÙĪÙĬØ§Øª":11373,"ĠØªÙĨÙħÙĬØ©":11374,"ĠÙĪØ¥Ø®Ø±Ø§Ø¬":11375,"Ġ135":11376,"ÙħÙĦÙĪÙĥØ©":11377,"Ø§Ø³ÙħØ©":11378,"ĠØ§ÙĦØ¬ÙĨØ©":11379,"ĠÙĪØªØ³ØªØ®Ø¯Ùħ":11380,"Ø³Ø·ØŃ":11381,"ĠÙĬØªÙĨØ§ÙĪÙĦ":11382,"ĠØ«ÙĦØ«":11383,"ÙĬÙĨÙĩ":11384,"ĠØ§ÙĦØ«ÙĪØ±ÙĬ":11385,"ĠØ³ÙĦØ·ÙĨØ©":11386,"ĠØ§ÙĦØ³ØªÙĬÙĨÙĬØ§Øª":11387,"ĠØ£ÙĪØ³Ø¹":11388,"ØªÙħØªÙĦÙĥ":11389,"ĠØ§ØªÙĩÙħ":11390,"ĠÙĦØŃØ¸Ø©":11391,"ĠÙĤØ§ÙĨÙĪÙĨÙĬ":11392,"ĠØ´ÙĬØ¯":11393,"Ø§ÙĨØªÙĬ":11394,"ĠÙĪÙĥØ£Ø³":11395,"ĠØ§ÙĦØŃÙĥØ§Ùħ":11396,"ĠØ¬Ø§ÙĥØ³ÙĪÙĨ":11397,"Ø£Ø¨":11398,"ĠØ³ÙĦÙģ":11399,"ĠØ§ÙĦØŃØ´":11400,"ÙĪÙĤØ§Ùħ":11401,"ĠÙħØ³ÙĦÙħØ©":11402,"ÏĤ":11403,"ĠÙħØ³Ùħ":11404,"ĠÙģÙĨÙĬ":11405,"ĠØªØªØ±":11406,"ĠÙĤØ§Ø±":11407,"Ø§Ø¦Ø±ÙĬØ©":11408,"ĠØ¨Ø±Ùħ":11409,"ĠÙĪØŃØ§ÙĪÙĦ":11410,"ĠØ§ÙĦØªØ¹Ø¯ÙĬÙĦØ§Øª":11411,"ĠØ¹ÙĦÙĬÙĨØ§":11412,"ĠØ§ÙĦÙĦÙĬØ¨ÙĬ":11413,"ĠÙģÙĦØ³Ø·ÙĬÙĨÙĬ":11414,"Ø¬ÙĪØ¡":11415,"ĠØªÙĤÙĬ":11416,"ĠÙĤØµÙĪØ±":11417,"ĠØ§ÙĦØŃØ§Ø¯Ø«Ø©":11418,"ĠÙĪØ¹Ø§ÙĦÙħ":11419,"ØŃÙĪØ§Ø°":11420,"ĠÙħØ±ÙĥØ²ÙĬØ©":11421,"ĠÙģØ¹ÙĦØ§":11422,"ĠØªÙĨØªÙĤÙĦ":11423,"ĠØ³ÙĥÙĪØª":11424,"ĠØ§ÙĦØ¨ØµØ±ÙĬ":11425,"ĠÙĦÙĪØŃØ§Øª":11426,"ĠØ§ÙĦØ£Ø¨Ø±":11427,"ĠÙĦÙĦÙħÙĦ":11428,"ĠØ§ÙĦØ«ÙĨØ§Ø¦ÙĬØ©":11429,"ĠØ§ÙĦØ§ØŃØªØ±Ø§ÙģÙĬØ©":11430,"ĠÙĦÙĤÙĬØ§Ø³":11431,"ĠØŃØ§Ø¯":11432,"ĠØ§ÙĦØ¬ÙĪÙģÙĬØ©":11433,"ĠØ§Ø³ØªØ¯":11434,"ĠÙĪØ¨ÙĨÙĬ":11435,"ĠÙħØ³Ø§Ø¬Ø¯":11436,"ĠÙĪØ¹ÙĬ":11437,"ĠØ¥Ø¯Ø±ÙĬØ³":11438,"ĠÙĨÙģØ³ÙĬ":11439,"ĠØªÙĪÙģÙĬÙĤ":11440,"Ø±ÙĩØ§":11441,"ÙĪÙĦÙĬØª":11442,"ĠØªØªØºÙĬØ±":11443,"ÙĪÙĦÙĬØ§ÙĨÙĬ":11444,"ĠØ§ÙĦÙĤØ§Ø¨ÙĦØ©":11445,"ĠÙħØ¤ÙĦÙģØ§ØªÙĩ":11446,"ĠØ£Ø¶Ø§Ùģ":11447,"ĠÙħÙĤØ¨":11448,"Ġ72":11449,"ĠÙĦØŃÙĦ":11450,"Ø°Ø¨ØŃØ©":11451,"ĠØ¬Ø§ÙĨØ¨ÙĬ":11452,"Ø§Ø³Ø§ÙĨ":11453,"Ø¨ÙĬØ§Ø¡":11454,"ĠØ¶ÙħØª":11455,"ĠØ£Ø³ÙĪØ§ÙĤ":11456,"ĠØ¥ÙħØ¨Ø±Ø§Ø·ÙĪØ±ÙĬØ©":11457,"ĠÙĪÙħÙĩ":11458,"ĠÙħØ±ØªÙģØ¹":11459,"ĠÙħØ¨Ø§Ø±":11460,"ĠÙħØ¤ÙĦÙģØ§Øª":11461,"ĠØ§ÙĦÙĥÙĩØ±ÙĪÙħØº":11462,"ber":11463,"ÙĦØ°Ø§":11464,"ÙĪØ§Ø´":11465,"ØªÙĤØ¯Ùħ":11466,"ĠØŃÙĬÙģØ§":11467,"ĠØ§ÙĦØŃÙĪØ¶":11468,"ĠÙħØªØ®ØµØµ":11469,"ĠÙĦØŃØ±ÙĥØ©":11470,"ĠØ§ÙĦØ£Ø±Ø²":11471,"Ø§Ø±Ø¨ÙĬÙĨ":11472,"ĠØ§ÙĦØªØ´ÙĥÙĬÙĦ":11473,"Ð½":11474,"ĠØ´Ø±ÙĬÙģ":11475,"ĠÙģÙĨÙĪÙĨ":11476,"ĠØ®Ø§ØµÙĬØ©":11477,"ĠØ¨Ø¯Ø¡Ø§":11478,"ĠØ§ÙĦØ³ÙĪÙĬØ¯ÙĬØ©":11479,"ĠÙĬØ±Ø¯":11480,"ĠØ§ÙĦØŃØ¸":11481,"ÙģÙĬÙĤ":11482,"ĠØ§ÙĦÙģÙĬØ±":11483,"ÙĩØ±Ø§Øª":11484,"ĠÙħØ¶Ø§Ø¯":11485,"ĠØ§ÙĦØªÙĥÙĨ":11486,"ĠØ§ÙĦØ£Ø³ÙģÙĦ":11487,"ĠØ§ÙĦÙħØ²Ø§Ø±Ø¹":11488,"ØªÙĥØ§Ùĥ":11489,"Ø¯Ø®ÙĦØª":11490,"ĠÙĥÙħØ±":11491,"ĠØŃØ±Ùĥ":11492,"ĠØ¬Ø³Ø¯":11493,"ĠØ§ÙĦØŃÙħØ§Ùħ":11494,"Ø§ØºÙĬ":11495,"ÙĥØ±ÙĬØ§":11496,"ĠØ§ÙĦØ§ÙĤØªØ±":11497,"ĠÙģØ±Ø³Ø§ÙĨ":11498,"ĠÙĥØ±Ø¦ÙĬØ³":11499,"ĠØ¥Ø³Ø¨Ø§ÙĨÙĬ":11500,"ĠØ§ÙĦÙħØ¹ØªÙħ":11501,"ĠØªØ´ØªÙĩØ±":11502,"ĠØ¯Ø§Ø®ÙĦÙĬ":11503,"man":11504,"ÙĥÙĪÙĦ":11505,"ĠØ£Ø¹Ø¶":11506,"ĠÙĦÙĦØ³ÙĦØ§Ùħ":11507,"ĠØ£ÙĨØ´Ø·Ø©":11508,"ĠØ´Ø§ÙħÙĦ":11509,"ĠØ§ÙĦÙĨØ§Ø±ÙĬØ©":11510,"ÙĥØ±ÙĬÙĨ":11511,"ÙĢÙĨ":11512,"Ø£ÙĨØ§":11513,"ĠØ§ÙĦØ²Ø±ÙĤØ§Ø¡":11514,"ĠØªØ²Ø§ÙĬØ¯":11515,"ĠØ§ÙĦØ§Ø±ØªØ¨Ø§Ø·":11516,"ĠÙħØµØ¨":11517,"ĠØªØ³ÙĦ":11518,"ĠØ§ÙĦÙĤØ·Ø±":11519,"Ø´Ø±Ø·Ø©":11520,"ĠØ§Ø³ØªØ¦":11521,"ĠÙħÙĪØ§Ø·":11522,"ĠØ³ÙĬØ³":11523,"ĠØ¬ÙĪÙĬ":11524,"Ø§ØŃÙĤØ§":11525,"ØªÙģÙĦ":11526,"ĠØ§ÙĦØ¨Ø±ÙĦÙħØ§ÙĨÙĬØ©":11527,"ĠØ§ÙĦØ§Ø®ØªÙĦØ§ÙģØ§Øª":11528,"Ø§ÙĦØ¹Ø¯ÙĬØ¯":11529,"ĠØ§ÙĦÙħÙĨØ²ÙĦÙĬØ©":11530,"ĠØªØ§Ø¬":11531,"Ġ62":11532,"Ġ09":11533,"ĠØ§ÙĦÙĩÙĨÙĪØ¯":11534,"ĠØ´Ø®ØµÙĬ":11535,"ĠØ¹Ø±Ø§ÙĤÙĬ":11536,"ĠØ§ÙĦØ±Ø¨Ø§Ø·":11537,"ĠØ§ÙĦØŃØ¶Ø§Ø±Ø§Øª":11538,"ĠØ£Ø¬ÙħÙĦ":11539,"ĠØ§ÙĦØ´Ø±ÙĬØ§ÙĨ":11540,"Ġan":11541,"ÙĪØ°ÙĦÙĥ":11542,"ÙĪÙĤØ¹Øª":11543,"ĠØ¨ØªÙĦÙĥ":11544,"ĠØ§ÙĦØ¥ØºØ±ÙĬÙĤÙĬØ©":11545,"Ġus":11546,"ĠØ¨ÙĬÙĪ":11547,"ĠØªØ¶Ø¹":11548,"ĠØµØ±Ø¨ÙĬØ§":11549,"ĠØ§ÙĦØ¸ÙĩÙĪØ±":11550,"ĠØ§ÙĦÙħØ´Ø§Ø±ÙĥÙĬÙĨ":11551,"ĠØ§ÙĦÙģØŃØµ":11552,"ĠØ§ÙĦÙĪØ§Ø³Ø¹Ø©":11553,"ØªØµØ§Ø¨":11554,"ink":11555,"ĠÙĥØ§ÙħÙĦØ§":11556,"ĠÙĪÙĥØ°Ø§":11557,"ĠØŃÙĬØ§ØªÙĩÙħ":11558,"ØªØ·ÙĪØ±":11559,"ÙĥØ§Ø«Ø±":11560,"ĠØ¨Ø§Øº":11561,"Ø®Ø±ÙĬ":11562,"ØªØ¹Ø±Ø¶":11563,"ĠÙħÙĦÙģØ§Øª":11564,"ĠÙĪØ§ÙĦÙĬÙĪÙĨ":11565,"ĠØ³ÙģÙĬØ§ÙĨ":11566,"ĠÙĪØªÙĤØ¯Ùħ":11567,"ÙĪÙģØ§ÙĨ":11568,"Ø«ÙħØ§ÙĨÙĬØ©":11569,"Ø§ÙĥØªØ´Ùģ":11570,"ÙĨØ´Ø±":11571,"ĠÙĪØ§ÙĦÙħØºØ±Ø¨":11572,"Ġ01":11573,"ĠØ¥Ø¯Ø§Ø±ÙĬØ©":11574,"ĠØ§ÙĦØªØ®ØµØµØ§Øª":11575,"ÙĦÙĬØŃ":11576,"ÙĦÙĬÙĤØ§Øª":11577,"ĠÙĪÙĦØ§Ø¯Ø©":11578,"ĠÙĪÙĬØ¹ØªÙĤØ¯":11579,"ĠÙĥØ§Ø«ÙĪÙĦ":11580,"ĠØ³ÙĤØ·":11581,"ĠØ¬ÙĪØ§ÙĨ":11582,"ĠØ§ÙĦØ³ÙĪØ¨Ø±":11583,"ĠØ§ÙĦØ¯ÙĦÙĬÙĦ":11584,"ĠØ§ÙĦØ®Ø¶":11585,"ĠØ§ÙĦØ·ÙĪØ±":11586,"ĠØ¥ÙĨØ¬ÙĦÙĬØ²ÙĬ":11587,"ĠÙĦØ§Ø±":11588,"ĠÙĦØ¨ÙĦ":11589,"ĠÙħÙĤØ§Ø¹Ø¯":11590,"ĠØªÙĦÙģØ²ÙĬÙĪÙĨÙĬ":11591,"ĠØ£ÙĨØ¬ÙĦÙĪØ³":11592,"ĠØ±ÙĬÙħ":11593,"ĠØ§ÙĦØ¯ÙĤØ©":11594,"ØªØ¨Ùĩ":11595,"ĠØ§ÙĦØ£Ø³Ø§Ø·ÙĬØ±":11596,"ĠÙģØ±ÙĬÙĤÙĩ":11597,"ĠØ¬ÙĪÙĨØ²":11598,"ĠÙħØ¤Ø³Ø³ÙĬ":11599,"ÙĪÙĬØ³Øª":11600,"ĠØ§ÙĦØ®ÙĦÙĬÙĦ":11601,"ĠÙĪÙħØ®":11602,"ĠÙģÙĦÙĪØ±ÙĬ":11603,"ĠØªÙĪØµ":11604,"ĠØ§ÙĦØŃÙĤÙĦ":11605,"Ø§ÙģØ¦Ø©":11606,"ĠÙħØŃØ§ÙĥÙħ":11607,"ĠØ£Ø¨Ø¹Ø¯":11608,"ĠÙĦÙĦÙĨØ§Ø¯ÙĬ":11609,"ÙĪÙĨÙĬÙĪÙħ":11610,"ĠØ¥Ø³ÙĤØ§Ø·":11611,"ĠØºØ±ÙĬÙĨ":11612,"Ø§ÙĦÙħÙĪØ¦ÙĦ":11613,"ØµØ§Ø±Ø§Øª":11614,"ĠÙĤØ§Ø¹":11615,"ĠØ§ÙĦØ·ÙĬØ¨":11616,"ĠØ§ÙĦØ·ÙĬØ§Ø±":11617,"ØªØŃÙĤ":11618,"ĠØ§ÙĦØ²Ø¨ÙĬØ±":11619,"ĠÙĪØªÙĨØ¸ÙĬÙħ":11620,"ĠØ§ÙĦÙģÙĦÙĥÙĬØ©":11621,"ĠØ§ØŃØªÙĦØª":11622,"ÙĨØ´":11623,"Ø³ÙĥÙĪ":11624,"ĠØ¨Ø¹Ø±Ø¶":11625,"ĠØ§ÙĦÙħØ¯Ø§ÙģØ¹":11626,"ĠØ§ÙĦÙħÙħØ§Ø±Ø³Ø©":11627,"ĠØ§ÙĦØªØ±ÙģÙĬÙĩ":11628,"ĠØ£ÙĪØ±ÙĪØ¨ÙĬØ©":11629,"ÙĦØ²Ø§ÙĦ":11630,"ĠÙĥØ§Ø±ÙĦÙĪØ³":11631,"ĠÙģØ´ÙĦØª":11632,"Ø±Ùĩ":11633,"ÙģØ³ÙĬ":11634,"ĠÙģØ³ÙĬ":11635,"ĠØ®ÙĪØ§Øµ":11636,"ĠØ¨ÙĤØ§Ø¡":11637,"ĠÙĪØ§Ø³ØªØ®Ø¯Ùħ":11638,"ÙħÙħØ©":11639,"ĠØ§ÙĦÙģØ¬":11640,"ØªØ±Ø§Ùħ":11641,"ĠØªØµÙĨØ¹":11642,"ĠØ§Ø´ØªÙĩØ±Øª":11643,"ĠØ§ÙĦØ¥Ø³Ø¨Ø§ÙĨ":11644,"ĠØ£ØªÙī":11645,"ĠØ§ÙĦØ¬ÙĪØ§ÙĨØ¨":11646,"ĠØ§ÙĦØ°Ø±Ø§Øª":11647,"ĠÙĬÙĤØ¶ÙĬ":11648,"ĠØ§Ø¨ÙĨØªÙĩ":11649,"Ø³ÙĬÙĨÙħØ§":11650,"ĠÙĬØ¯Ø¹ÙĪ":11651,"ire":11652,"Ø§Ø³Ø·":11653,"ĠÙĪÙĬÙĤØ§ÙĦ":11654,"ĠØ§ÙĦØ¨ÙĬØ¦ÙĬ":11655,"ĠØ§ÙĦØ®Ø·ÙĪØ©":11656,"ĠÙħØ¶Ø§Ø¹":11657,"ĠØ§ÙĦØ£Ø¨Ø¬Ø¯ÙĬØ©":11658,"ĠØ§ÙĦØ§Ø·":11659,"ØµÙĪØ¯":11660,"ÙĥÙĦÙĬÙĨ":11661,"Ø³Ø·ÙĪ":11662,"ĠØ§ÙĦÙħØ´ÙĩØ¯":11663,"ØªÙħÙĬÙĬØ²":11664,"Ø³Ø·ÙĨØ·ÙĬÙĨ":11665,"ĠØ¹Ø§Ø±Ø¶":11666,"ĠØ³Ø§Øª":11667,"ĠÙĩØ²ÙĬÙħ":11668,"ØºØª":11669,"ĠØ±ÙĬÙĥ":11670,"ted":11671,"ĠÙĦÙĦØ³ÙĬØ§Ø±Ø§Øª":11672,"ĠÙģØ±Ø§ÙĨØ³ÙĬØ³ÙĥÙĪ":11673,"ĠØ§Ø°":11674,"ĠØ§ÙĦÙħØ®ØªØ¨Ø±":11675,"ĠÙĤØµÙģ":11676,"ĠØ±ÙĬØ³":11677,"ĠØ´Ø§Ø·Ø¦":11678,"ĠØ§ÙĦØ·ÙĤØ³":11679,"Ø³ØªØ±Ø§":11680,"ĠØ±ÙģØ¹Øª":11681,"ĠÙĨÙĥ":11682,"ĠØ´Ø§ÙħÙĦØ©":11683,"ĠÙħØ¹ÙĬ":11684,"ĠØ§ÙĦØ¯Ø±ÙĪØ²":11685,"ĠØ§ÙĦØ¨Ø·ÙĨ":11686,"ĠÙĪØªØ±ÙĥÙĬØ§":11687,"ide":11688,"ĠØŃØµØ©":11689,"ĠØ§ÙĦÙĤØ¯Ø±":11690,"ĠØ£Ø³Ø¯":11691,"ĠØ£Ø¯Ø¨":11692,"ĠØ§ÙĦØªÙĨØ§Ø³":11693,"ĠØ§ÙĦØ¬ÙĨÙĬÙĨ":11694,"sp":11695,"ĠØ§ÙĦØ´ÙĬØ´":11696,"ĠØ§ÙĦØ¢Ø±":11697,"ĠØ§ÙĦØ«ÙĦØ§Ø«ÙĬÙĨ":11698,"ĠØ§ÙĦØ£ØºØ°ÙĬØ©":11699,"Ø±ÙĥØ¨Ø§Øª":11700,"Ø§ØµÙģØ©":11701,"ÙĪØ§ÙĪÙĬÙĨ":11702,"ÙĪÙĥÙħØ§":11703,"ĠÙĦØ¬Ø§Ø¦Ø²Ø©":11704,"ĠØŃØ§ÙĪÙĦØª":11705,"ĠÙĥÙĪÙħÙĬØ¯ÙĬ":11706,"ĠÙĤÙĦÙĤ":11707,"ÙģÙĦØ§Ø·":11708,"ĠØ¨Ø£Ø³ÙħØ§Ø¡":11709,"ĠØ¨ÙĥØªØ§Ø¨Ø©":11710,"ĠØ§ÙĦØ¹ÙħÙĪÙħÙĬØ©":11711,"ĠØ§ÙĦÙħÙģØªØ±Ø¶":11712,"Ø§ÙĦØ§ÙĤØªØµØ§Ø¯":11713,"ÙĩØ§Ø¨ÙĬØ©":11714,"ĠØ¬Ø°Ø¨":11715,"Ø¨Ø±Ø¬":11716,"ĠØ§ÙĦØ£ÙħØ¹Ø§Ø¡":11717,"ÙĪØ£ÙħØ§":11718,"ÙĬÙĪÙĨØ§Øª":11719,"ĠØ¶Ø¹ÙĬÙģØ©":11720,"ĠØ°Ø±Ø©":11721,"ĠÙħØ±Ø´ØŃ":11722,"Ø¹Ø·Ùī":11723,"Ø¨Ø¨":11724,"ĠØ§ÙĦØ·Ø§Ø¦ÙģØ©":11725,"ĠØ£ÙĬÙĪØ¨":11726,"ĠØ¢ÙħÙĨ":11727,"ĠØªØ³ØªÙħØ±":11728,"ĠÙħØ®ØªØµ":11729,"ĠØ§ÙĦØµØ§Ø±ÙĪØ®":11730,"Ø§ÙĦØ§ÙĨØª":11731,"ĠØ§ÙĦØªÙĥÙĦÙģØ©":11732,"ÙĨØ¯Ø§Øª":11733,"ĠÙĦØ¹Ø§Ø¦ÙĦØ©":11734,"ĠÙĨØ´Ø±ÙĩØ§":11735,"ĠÙĦÙĪØ¶Ø¹":11736,"ĠÙĥÙĪÙĬØªÙĬ":11737,"ĠØ§ÙĦØ¨Ø°ÙĪØ±":11738,"ÙĬØ³Ø§":11739,"ĠÙĪØ¹Ø§Ø´":11740,"ĠÙħØ¨Ø§ÙĨÙĬ":11741,"ĠØ§ÙĦÙĤØ±Ùħ":11742,"ĠØªØ´Ø±":11743,"ĠÙĨØªØ¬":11744,"ĠØ¯ÙĬÙĪ":11745,"ÙĬØ¹ØªÙħØ¯":11746,"ĠØ¶Ø¨Ø·":11747,"Ø¹ÙħØ§Ø±Ø©":11748,"ĠØ£ÙĪÙĦÙĬ":11749,"ØªØ¯ÙĪØ±":11750,"ĠØ§ÙĦØŃÙĥÙħØ©":11751,"ĠØ¹Ø¨Ø§Ø¯Ø©":11752,"ĠÙĪØµÙĬ":11753,"ĠØ§ÙĦØµØŃÙĬÙģØ©":11754,"ĠØ§ÙĦÙģÙĬÙĨ":11755,"ĠÙĬÙĩÙĪØ¯ÙĬØ©":11756,"ĠÙĪØ§Ø±ØªÙģØ§Ø¹":11757,"ĠØ§ÙĦØ¨ÙĪØªØ§Ø³ÙĬÙĪÙħ":11758,"ĠØ£Ø¬Ø¯":11759,"Ø§ÙħÙĬÙħ":11760,"ĠØ§ÙĦÙĤÙħØ©":11761,"ÙĬØªØ§Ø±":11762,"ĠØ¢Ø±Ø§Ø¡":11763,"ĠØ¹ÙĦÙħØ§":11764,"ĠØ¹ÙĦØ§ÙĤ":11765,"ĠØ¬ÙĪÙĨØ³ÙĪÙĨ":11766,"ĠØ§ÙĦØ¥Ø¹ÙĦØ§ÙħÙĬØ©":11767,"ĠÙĦÙĨÙģØ³Ùĩ":11768,"ĠØ§ÙĦØµÙĪÙģÙĬØ©":11769,"ĠØ§ÙĦØºØ´Ø§Ø¡":11770,"ĠÙĬÙĤÙĦÙĦ":11771,"ĠØ§ÙĦÙĦØ§Ùĩ":11772,"ĠØ§ÙĦÙĪØ§Ø¬":11773,"ĠÙĪØ§ÙĦÙħÙħÙĦÙĥØ©":11774,"ĠÙĪØ§ÙĦØ¹ÙĦÙħ":11775,"ĠØ§ÙĦØ£Ø´ÙĩØ±":11776,"ĠLe":11777,"Ġ1906":11778,"ĠØ§ÙĦØ´ÙĩØ¯Ø§Ø¡":11779,"ĠØ§Ø³ØªÙĪÙĦÙī":11780,"ĠÙħØ´ÙĩÙĪØ±Ø©":11781,"ĠØªØ§Ø±ÙĬØ®ÙĬØ§":11782,"ĠØµÙĨÙģ":11783,"ĠØ§ÙĦÙģÙĤØ±Ø§Ø¡":11784,"ĠÙħÙģÙĬØ¯Ø©":11785,"ØµÙĦØª":11786,"ĠÙħØŃØ³ÙĨ":11787,"ĠØ§ÙĦØ§Ø³ØªÙģØ§Ø¯Ø©":11788,"Ġ08":11789,"ĠØ¬ÙĨÙĪØ¨ÙĬ":11790,"ĠØ§ÙĦÙĤÙĬØµØ±":11791,"Ø§ÙĦÙĬÙĦ":11792,"ĠØ±Ø§Ø¦Ø¯":11793,"ĠÙĩØ°ÙĬÙĨ":11794,"ĠØ£Ø¨ÙĪÙĩ":11795,"ÙĪÙĦÙĬÙĪÙĪØ¯":11796,"ĠÙħÙĬÙĦØ§":11797,"ĠØ§ÙĦØ£Ø±Ø¨Ø¹Ø§Ø¡":11798,"ĠØ§ÙĦÙĨØ±ÙĪÙĬØ¬":11799,"ug":11800,"ĠØ§ÙĦØŃØ§Ø¯":11801,"ĠØ§Ø³ØªÙĤØ¨Ø§ÙĦ":11802,"ĠÙħÙĤØ§ØªÙĦ":11803,"ĠØ§ÙĦÙħØŃÙħÙĪÙĦØ©":11804,"ØŃØ¶":11805,"ĠÙĥÙĬÙħ":11806,"Ø£ÙĥØ«Ø±":11807,"ØºÙī":11808,"ĠØ§ÙĦØ´Ø§Ø¦Ø¹":11809,"ĠØµÙħ":11810,"Ø¹Ø¨ÙĬØ©":11811,"ĠØ§Ø®ØªØµØ§Øµ":11812,"ĠÙĦÙĦØ¹Ø§ÙĦÙħ":11813,"ĠØ£ÙĬØ¯":11814,"ĠÙĦØµÙĨØ§Ø¹Ø©":11815,"ØªÙĦØ·Ø©":11816,"ore":11817,"Ø¹ÙĪÙħ":11818,"ÙĪÙĤØ§Ùģ":11819,"ĠÙĪØ£Øµ":11820,"ĠØ§ÙĦÙħØ³ØªØ´ÙģÙĬØ§Øª":11821,"ĠØ£Ø³Ø³ÙĩØ§":11822,"ĠØ§ÙĦØ²ÙĬØ§Ø¯Ø©":11823,"ĠØªÙħÙĨØ¹":11824,"ĠÙĦÙĤÙĬ":11825,"ĠÙĪØ§ÙĦÙģØ¶":11826,"Ø§Ø·Ø¦Ø©":11827,"ĠÙĬØŃÙĪÙĬ":11828,"Ø¹Ø§Ø¯Øª":11829,"Ġen":11830,"ĠÙĬØªØ³Ø¨Ø¨":11831,"ĠØ§ÙĦØ¹ÙħÙĦØ§Ø¡":11832,"ĠÙģÙĤØ¯Øª":11833,"Ø¨Ø¹Ø¯ÙĩØ§":11834,"ĠÙĦØªØ´ÙĥÙĬÙĦ":11835,"ĠØ£Ø³ÙĬ":11836,"ĠÙĩÙĦØ§ÙĦ":11837,"ĠØ¬Ø§Ùĩ":11838,
[...]
