#version: 0.2 - Trained by `huggingface/tokenizers`
Ġ t
h e
Ġ a
i n
Ġt he
e r
o n
r e
Ġ o
Ġ s
Ġ w
e d
n d
a t
i s
o r
e n
i t
a n
Ġ f
Ġ c
a r
Ġo f
Ġ in
e s
a l
Ġ b
a s
in g
Ġa nd
Ġ p
o u
i c
Ġt o
Ġ m
i on
Ġ h
Ġ d
l e
r o
Ġ T
Ġ S
i l
en t
Ġ A
Ġ C
Ġ re
s t
Ġ 1
o m
e l
a m
Ġ l
Ġ I
Ġt h
Ġw as
Ġ n
a d
o l
a c
Ġ M
Ġ e
e t
Ġ on
e c
u r
Ġ B
ĠT he
Ġf or
Ġ H
i d
i v
l y
Ġ "
Ġ g
Ġ is
Ġ he
i m
o t
i r
i g
at ion
u t
o w
u s
Ġ P
Ġa s
t er
Ġ 2
a y
â Ģ
it h
Ġs t
c h
Ġw ith
e m
v er
u n
Ġ R
Ġ D
Ġb e
Ġ1 9
Ġ (
Ġ F
c e
u l
Ġ L
a nd
c t
Ġb y
Ġw h
Ġ W
er s
Ġa l
Ġa t
Ġ G
Ġ N
t h
is t
Ġa n
a g
Ġth at
Ġ2 0
ro m
o s
he r
a in
' s
Ġc on
Ġ J
u m
a v
Ġ r
Ġ E
Ġ it
es t
r i
Ġh is
Ġf rom
o p
ĠI n
Ġ O
Ġc om
o d
Ġp ro
o c
i f
il l
l d
Ġ v
a b
a p
ar t
it y
re s
at e
i es
u d
b er
a k
al l
e w
ig h
o re
Ġd e
Ġo r
ar d
or t
Ġ y
u p
e ar
Ġ K
Ġa re
an t
ic h
Ġ U
es s
ou r
q u
at ed
er e
Ġs e
i p
i an
u b
Ġp l
s e
Ġc h
Ġe x
ĠH e
i a
iv e
g h
Ġw ere
g e
o v
on g
r ou
ĠS t
Ġ20 1
ec t
am e
el l
n t
Ġ le
m ent
ar y
as t
i al
Ġs h
u st
re d
Ġ k
Ġwh ich
Ġh ad
Ġhe r
Ġs p
Ġt r
ĠC h
ac k
igh t
o st
in e
Ġ âĢ
e p
or d
av e
s o
u c
Ġ20 0
is h
Ġn ot
t her
o k
Ġ Ċ
Ġ V
ĠI t
Ġcom p
ic al
âĢ Ļ
p p
or k
ion s
o g
Ġ un
u e
ou s
Ġw he
m er
c l
ir st
0 0
Ġal so
ou ld
Ġh as
t e
u re
r a
om e
i e
Ġc l
ag e
f f
id e
he d
f ter
Ġf irst
Ġ us
Ġb ut
as s
Ġa r
ow n
r y
i re
ig n
i z
Ġre s
Ġthe ir
ou t
ic e
an s
er v
Ġ1 8
ou nd
Ġ j
Ġcon t
on d
u nd
p er
t o
w o
ĠT h
Ġh ave
Ġwh o
Ġa b
r it
at er
Ġon e
Ġit s
em ber
r ic
Ġa d
ĠU n
Ġp art
Ġs he
" ,
im e
ou nt
an g
ac t
a re
âĢ Ŀ
ĠâĢ ľ
Ġth is
al ly
ac h
ac e
l ow
re e
it ion
p l
m an
Ġt e
ul t
Ġa g
Ġa pp
k e
Ġy ear
r u
p ort
en ce
cl ud
) ,
en s
Ġa c
ation s
w n
o ver
i b
Ġpl ay
Ġm an
p t
Ġ up
Ġo ut
Ġbe en
ĠA l
Ġ 3
or n
Ġb ec
le ct
Ġt wo
l and
Ġ Y
Ġp er
Ġ ro
f er
ation al
i le
ad e
on e
ar k
a il
am p
Ġo ther
Ġh im
Ġy ou
" .
Ġin clud
Ġre c
in d
o ol
Ġo ver
n g
Ġ en
Ġthe y
ol d
il d
an ce
or y
Ġs c
o in
Ġm e
Ġw ork
ur ing
) .
ou gh
ter n
at es
el y
a w
Ġk n
e nd
T he
Ġal l
f or
Ġa fter
i ed
as ed
Ġd is
Ġin to
u g
Ġ im
u ch
ub l
Ġn e
Ġ19 9
t ed
ĠA r
ent s
it e
it ed
Ġcom m
w e
ab le
o od
Ġof f
an c
or s
ĠO n
t s
res s
o ok
ur n
ĠA s
Ġe v
Ġd es
âĢ ĵ
is s
Ġw ould
ch ool
on s
Ġt ime
o y
w ard
Ġp r
ak e
at h
Ġw e
as e
Ġn ew
h ip
Ġ und
os e
rou gh
ing s
ĠS he
Ġc an
l es
ĠM ar
w ay
iv ers
Ġwhe n
v el
Ġp re
g an
o b
Ġ 4
Ġl oc
Ġs erv
ct ion
Ġm ore
Ġund er
ic k
Ġs o
Ġs ec
ĠL e
Ġd o
i ous
f t
in al
h n
Ġag ain
Ġb et
e y
ĠN ew
Ġfor m
ot h
Ġc ol
Ġthe m
il y
rou nd
re n
ĠC om
Ġ19 8
i o
an k
is hed
Ġb u
mer ic
il m
Ġwhe re
Ġcon s
ou th
or ld
Ġon ly
Ġab out
Ġ qu
Ġthe re
as on
p e
Ġre g
Ġg r
ol low
c ess
Ġa ct
ri b
Ġyear s
. "
en c
Ġ 5
Ġf e
d u
f ore
in ce
a us
we en
re at
Ġthe n
a id
u al
Ġre t
or th
Ġth rough
er ed
a h
ĠTh is
r al
for m
r am
Ġst ud
ĠA meric
Ġm ost
l l
Ġp ubl
Ġin d
Ġe ar
Ġs up
Ġp e
Ġat t
r on
Ġf ound
t on
Ġs ome
Ġm ade
ou n
Ġ19 7
Ġte am
Ġd uring
Ġf am
a u
en er
Ġin ter
Ġd ec
id ent
i ke
Ġre m
Ġc ent
i x
ul ar
Ġas s
Ġs ub
ou se
Ġbet ween
ĠR e
oc k
a ir
ver y
v e
Ġre l
Ġm ov
1 9
Ġth ree
is ion
Ġre le
Ġf ilm
Ġ 6
Â ł
ic s
Ġp ol
Ġf ollow
p r
d uc
at ing
ic t
ol og
Ġth an
ĠS h
e ver
ivers ity
Ġsp ec
a z
an n
Ġc o
he s
Ġm y
an y
he n
Ġus ed
. âĢĿ
i el
Ġg o
p en
Ġe nd
Ġl ater
Ġb ack
Ġs uch
at ive
em ent
Ġs y
rou p
i k
l ed
a j
it ies
al s
Ġn um
iv ed
Ġa m
Ġp res
over n
Ġ19 6
Ġb l
t en
Ġsec ond
in n
Ġp op
Ġd ist
if e
o ot
t le
ot her
Ġc all
Ġ ent
Ġbe fore
Ġw ell
Ġf l
Ġkn own
ĠC ol
Ġbec ame
Ġe lect
ter s
op le
ĠI nd
at her
am es
Ġin c
p h
j ect
i et
Ġbe ing
c c
Ġs chool
if ic
ĠJ o
ro s
s on
i er
Ġin v
Ġn o
er m
el f
Ġpro v
ĠUn ited
ar g
Ġde f
Ġm us
Ġse ason
ire ct
Ġs m
Ġ Z
ĠA n
em b
Ġd id
Ġs et
al e
ĠA t
b all
t ing
Ġp os
vel op
ĠUn iversity
Ġb r
ur y
Ġf our
Ġw ill
Ġagain st
as h
t il
Ġman y
in es
Ġtr ans
Ġc ould
e b
ar s
Ġan y
Ġ19 4
Ġs er
Ġ 7
t ain
Ġwh ile
Ġac c
Ġrec ord
Ġs ur
o ber
Ġm ay
Ġo wn
t y
b um
ĠF r
iv er
ĠAmeric an
Ġinclud ing
d er
Ġs aid
ay s
Ġb ro
ar ri
ĠP ro
ĠA fter
oun c
Ġex p
Ġ ed
ĠC on
le y
h y
ow ever
is e
ep t
Ġar t
Ġle ad
Ġad d
Ġun til
ĠS c
it s
ĠE ng
Ġc ount
ĠC l
ion al
Ġpe ople
er n
in k
i red
Ġ1 7
Ã ©
Ġsh ow
Ġb oth
u res
iel d
Ġs ing
en n
ĠF or
un e
ist s
Ġ19 5
Ġal bum
Ġe m
e k
ro w
a red
ow er
i am
Ġin st
Ġf in
in a
i ew
Ġs ign
Ġre p
ric t
aus e
Ġ 8
Ġh igh
in s
f ul
Ġg roup
iz ed
Ġfam ily
Ġst art
Ġm ain
00 0
Ġre ce
e x
Ġw rit
Ġn ame
ĠM ay
ĠS p
ur ch
Ġ est
st em
Ġc ap
ĠI s
Ġl ong
Ġde velop
Ġm ed
ag ue
v en
Ġhe ad
Ġd if
u ally
Ġse ver
am ed
ver s
Ġm et
Ġnum ber
is m
ĠH is
Ġo per
Ġc re
ul l
Ġo pen
Ġm od
ĠThe y
Ġm in
Ġ 9
ĠCom m
Ġm on
ur al
Ġd irect
v ed
overn ment
Ġ1 0
ĠB r
Ġor ig
ak ing
Ġplay ed
ĠJ an
ĠW h
r ap
Ġbu ild
te nd
Ġrele ased
ĠSt ates
Ġare a
er man
s h
Ġm at
ĠJo hn
ĠâĢ ĵ
Ġl ike
Ġ Q
Ġw on
an ge
ul ation
Ġcall ed
us s
ain ed
Ġch ar
Ġs ong
Ġr un
Ġs ame
ros s
ĠW orld
Ġb el
ir d
Ġ1 6
Ġcomp le
p ed
iv es
Ġ1 5
Ġo b
ut ion
ĠD e
ar l
im es
os ed
Ġg ener
a x
in c
ĠA ust
ĠJ u
ant s
is ter
ĠN ational
ers on
Ġcont in
Ġpro g
Ġser ies
Ġret urn
Ġoff ic
Ġan n
Ġj ust
Ġsever al
Ġdes ign
Ġ19 3
Ġthe se
ĠT r
Ġd own
ar m
ĠThe re
Ġh ist
Ġs uc
ar n
Ġde p
Ġwh at
our n
ĠB rit
u ro
Ġv ar
el s
Ġg u
Ġc ur
Ġin t
Ġ if
Ġa round
Ġn ow
Ġim p
iv ing
Ġsy stem
ĠC ount
Ġfe at
Ġcon st
ĠA d
ib le
ut h
is ed
ug ust
u ary
m y
Ġc ity
Ġh and
ĠB l
u es
Ġbe gan
Ġus e
ain s
ce pt
Ġn ear
ĠP r
Ġch ild
t he
ial ly
Ġear ly
x t
Ġto ok
et s
Ġmus ic
Ġg ame
b y
2 0
aj or
Ġfollow ing
id ed
ĠN ov
Ġpubl ic
Ġst ate
ept ember
en g
ĠS chool
Ġpro du
ov e
Ġd r
Ġs ince
ut e
ĠA ugust
Ġa ir
u ed
re nt
Ġto wn
a i
iss ion
ĠD ec
il t
it al
Ġin s
en e
ĠS outh
Ġsm all
Ġres p
oc i
p or
i ent
Ġdis c
f ess
duc ed
ĠS eptember
Ġp h
v ent
ĠC an
u red
om an
ab l
Ġe ach
al k
b r
ĠMar ch
Ġor gan
ĠJ une
ĠG erman
Ġpl ace
ct ober
i or
ĠW ar
au gh
Ġp ass
il ity
ĠB e
Ġb ook
ru ct
Ġh ouse
Ġst r
Ġal ong
Ġfor mer
ĠO r
ical ly
Ġl and
av ing
ĠJan uary
ac ed
Ġ1 2
ĠJu ly
Ġc are
c es
Ġe ff
Ġp oin
ic ip
ĠP h
om et
Ġp rom
pr il
ĠY ork
Ġj oin
Ġhe ld
tern ational
i um
ĠAl l
ĠO ctober
re t
. .
Ġr ight
Ġth ough
Ġdif fer
om en
an e
oot ball
Ġs im
Ġhe l
Ġh ome
Ġcomm un
le ge
Ġin f
Ġsup port
ĠG r
ĠA pril
o ard
Ġg overnment
r ist
c on
ĠC ent
Ġcl ass
Ġloc ated
ment s
Ġo cc
Ġw orld
amp ions
al es
ĠP l
Ġ '
uc k
Ġprog ram
ĠE uro
Ġv ill
Ġb and
o x
Ġo ld
Ġl ast
ag es
Ġle ft
ĠNov ember
Ġres ult
Ġpop ulation
Ġcomp et
p le
olog y
emb ers
Ġbec ause
ĠDec ember
r act
b le
Ġ -
c k
res ent
1 8
Ġst ill
Ġt it
ro p
a f
ĠA nd
ĠS e
ar ge
ĠCount y
Ġl ook
or m
ĠN orth
Ġn amed
at ely
Ġs l
ĠG e
ward s
ic es
ĠH owever
Ġd ay
Ġm ajor
Ġsuc cess
er y
Ġc our
Ġ $
ain ing
Ġcomp any
Ġev en
os s
Ġloc al
Ġcl ub
Ġl it
ĠAust ral
Ġa ge
g et
Ġb us
le v
a e
Ġdes c
Ġ201 0
Ġl ife
s elf
ĠM us
Ġre st
ĠBrit ish
l ing
Ġapp ear
m in
ent ly
ĠAs s
Ġm ember
Ġpol it
ore d
ect ion
n e
Ġc ar
Ġest abl
m ed
Ġe very
Ġrece ived
m p
iv al
Ġ1 1
Ġserv ed
eb ru
ĠC ity
i ence
ebru ary
ill ion
Ġre f
Ġ1 4
in ess
Ġt urn
t al
Ġkn ow
Ġst ation
Ġm embers
ĠEuro pe
th ough
Ġex t
Ġf inal
ec hn
Ġl ine
Ġc r
Ġt ri
Ġev ent
ĠH er
Ġ1 3
on y
Ġm ake
Ġg et
od y
Ġ19 2
b orn
Ġb orn
h am
ĠF ebruary
Ġen g
' t
Ġ very
Ġsing le
un g
v iew
he st
at s
Ġw ay
ear ch
Ġt erm
Ġl ist
y l
le t
Ġbu ilt
er g
Ġcon c
ar r
ian s
Ġapp ro
ĠA m
at or
Ġ201 1
id es
il it
re w
ĠP ol
Ġd et
ampions hip
re en
Ġre port
Ġchar ac
Ġwith in
? âĢĿ
arri ed
ord ing
ĠW ill
Ġre fer
Ġth ose
ot t
Ġl arge
is on
ĠU S
Ġs ix
Ġb ased
Ġm uch
Ġan other
Ġcont ro
Ġne ed
is c
Ġinclud e
ad y
Ġt y
al ity
Ġm ark
Ġs oc
u ff
Ġn orth
ĠG u
Ġ201 2
ect ed
if ied
ri end
iv en
Ġf ive
Ġl aw
c hed
ĠK ing
a im
c om
iet y
Ġcon f
in ed
Ġp erson
Ġcons id
ĠB ro
ĠLe ague
ĠSt ate
ĠD uring
Ġ( "
Ġde ath
as ter
Ġst and
qu e
og rap
ĠE d
at ic
Ġre qu
m e
Ġc amp
Ġpres ent
d ay
Ġal low
it ions
ĠC o
Ġcent ury
ĠCan ad
ak es
Ġbuild ing
Ġc ame
s p
ĠCh rist
Ġto p
Ġd ue
ĠC al
Ġn ational
ĠI I
Ġspec ies
er t
Ġ201 4
iv ely
Ġpro fess
iv ision
, âĢĿ
ĠW hen
ĠA f
Ġvill age
Ġ201 3
Ġdiffer ent
i od
Ġcur rent
Ġpubl ished
Ġd ied
Ġs ide
on t
Ġ200 9
Ġw ater
Ġde b
Ġb re
Ġ200 8
Ġle g
n ess
il le
al y
ĠW est
Ġsh ort
Ġad v
Ġ19 1
ĠR ep
ie f
Ġmov ed
as k
Ġ .
at ure
ren ch
Ġdesc rib
Ġinclud ed
Ġl arg
ubl ic
o or
ĠM an
Ġd em
al th
v ious
Ġpro t
Ġre pl
Ġs outh
er ing
Ġ vers
re et
Ġth ird
Ġv al
od e
Ġw ant
Ġc over
Ġ201 5
Ġrep resent
h ing
Ġp ower
Ġm en
Ġman ag
ĠC ar
Ġchild ren
Ġf ootball
l ish
Ġb est
ur g
s ide
id d
al f
Ġw ent
Ġv is
Ġo pp
Ġt ake
ĠM in
Ġa v
om in
Ġf ew
n er
Ġ &
Ġs k
ec h
iz e
g r
ac es
ĠM c
a ff
Ġf ather
Ġ el
ord s
Ġar r
Ġs on
inn ing
Ġinc re
Ġ201 6
Ġ200 6
es tern
Ġg l
Ġp ost
Ġh um
ul a
uth or
ĠA b
Ġ200 7
ĠGe or
âĢ Ķ
enc y
iz ation
y ing
ĠD ist
Ġc or
ĠE l
ĠS w
st it
ĠW e
Ġex per
Ġp ar
ard s
id ge
Ġstart ed
Ġper form
tend ed
Ġl ed
ĠF rench
ĠE x
Ġtr ad
enc es
y n
ĠEng lish
w ork
Ġper iod
Ġk ill
Ġbe g
Ġsh ould
Ġof ten
Ġadd ition
o ad
Ġe p
ounc il
es e
Ġpos s
ed er
ap an
ang u
Ġy our
Ġis s
Ġim port
Ġ2 5
Ġex pl
Ġne xt
m s
Ġs w
Ġl a
ĠRe g
Ġse e
s c
Ġs it
ap p
Ġcare er
ĠB y
Ġp at
Ġle vel
ĠF l
et er
Ġb at
Ġbe h
ĠH igh
Ġas k
Ġf act
ĠCol lege
Ġ19 0
Ġpro ject
Ġmon th
Ġe qu
Ġc rit
Ġann ounc
ĠB ar
Ġsp e
v es
p ar
ond on
Ġorig inal
Ġed uc
Ġl ate
Ġam ong
Ġt w
Ġ201 7
c hes
ĠP art
Ġf ore
p s
e e
Ġw omen
Ġatt ack
ĠY ou
Ġ es
ĠP ar
Ġs old
Ã ¡
Ġg ood
ra ft
Ġor der
Ġyou ng
ron t
Ġh ow
an a
art ment
ac hed
ur s
Ġs omet
" )
Ġcount ry
Ġserv ice
Ġbus iness
ĠWill iam
ĠP ark
Ġa way
Ġn on
Ġsh ip
ing ton
Ġw ar
Ġ3 0
ĠR uss
ĠP res
ĠJ apan
Ġp ort
ĠL ondon
Ġwe ek
Ġf ind
Ġw in
at a
Ġne ver
ad u
ĠS y
ĠAf ric
f ord
ĠA ir
Ġapp e
Ġ <
Ġ X
, "
um b
rib ut
ĠS ec
ĠR iver
ad em
Ġcol lect
ĠW ith
l u
em pt
Ġa ff
um ent
ĠOn e
os p
Ġch ang
ĠDist rict
al d
le g
Ġbec ome
ilit ary
Ġm illion
ĠCom p
Ġre al
l ine
Ġpre vious
Ġtit le
y le
Ġg reat
Ġf riend
Ġinv ol
as es
Ġ201 8
Ġh aving
Ġe y
il ar
Ġf ac
Ġp ain
1 0
ĠT e
Ġg iven
ri es
ap e
Ġg ames
in o
pl oy
he l
Ġtr ack
z e
Ġestabl ished
ist r
Ġs ol
ru ction
Ġ18 9
Ġdist rict
Ġro le
on es
Ġhist ory
Ġm ag
c ed
ĠA cc
n a
he m
u k
ur ther
en se
Ġd el
Ġcharac ter
a ul
Ġr ad
ent ion
e ad
ar a
Ġf ield
o f
Ġt echn
Ġcomm on
m it
Ġeff ect
Ġwith out
ĠD av
ĠC or
ĠA ng
l er
um mer
Ġf re
ep end
ak en
Ġwork ed
Ġa ward
b e
Ġa uthor
Ġhel p
o le
ĠM ed
o on
ĠS oc
Ġvar ious
lev ision
h at
Ġreturn ed
Ġorig in
Ġ2 4
r an
Ġd on
Ġin it
ĠThe se
Ġpro cess
re g
e v
Ġto tal
Ġle t
av y
con om
ro te
ĠH ar
Ġst at
re st
Ġv ot
ĠD r
or ies
Ġannounc ed
Ġm arried
et h
ric k
Ġpro p
anc es
Ġspec ial
Ġus ing
Ġact iv
Ġs ent
Ġcommun ity
Ġcl aim
Ġstud ents
ĠEng land
Ġjoin ed
Ġf un
ĠH ouse
oci ation
Ġf em
Ġh owever
l in
c ent
ĠB ut
Ġapp oin
Ġr ound
ener al
iv id
Ġar ch
Ġc ult
Ġt imes
ec ut
ĠCh ampionship
Ġplay er
Ġcontin ued
ir l
am ent
er r
du ct
ab ly
Ġpro duced
Ġprom ot
ir c
ĠC up
i ber
ĠPh il
Ġcre ated
l ess
get her
Ġto gether
Ġ ,
Ġl ight
Ġf ull
Ġdo es
Ġg en
ab or
is ing
Ġdeb ut
Ġ200 5
Ġdef e
her n
Ġdevelop ment
Ġhist or
re am
Ġl angu
Ġb ody
ĠN o
ĠS an
ra w
el t
Ġh old
s k
n ing
are nt
Ġpos ition
l ic
ĠD ep
ĠIn ternational
c ast
Ġgener al
ĠE n
h old
Ġ18 8
op s
Ġd ays
Ġopen ed
ĠS up
est ed
ug g
Ġt em
Ġdescrib ed
ĠM e
Ġbro ther
Ġpop ular
ĠE ast
Ġh alf
Ġ2 1
Ġh ig
ĠR es
Ġwrit ten
Ġpart ic
Ġhim self
way s
d e
ĠInd ian
om b
ĠG l
as tern
Ġc le
ot s
Ġw rote
for man
am b
us ed
ĠF rom
ur b
Ġs ay
ort hern
Ġl ost
at ch
Ġin form
it her
Ġpr im
o ff
ol l
our s
land s
Ġh ost
oy al
og n
Ġcontro l
se qu
Ġpr act
Ġ200 0
m ost
= "
c o
Ġp ut
ĠAcc ording
min istr
st er
ĠR ec
Ġpolit ical
Ġro ad
Ġatt empt
ru g
Ġsim ilar
Ġbel ie
Ġs qu
Ġth ink
and er
al t
ou ther
ri pt
iv il
Ġa ver
est s
Ġst ory
5 0
Ġme et
Ġto o
ĠCh urch
Ġpoin t
Ġro om
amp le
Ġimport ant
e ep
Ġch urch
Ġs ite
outher n
t i
op e
Ã ³
ir on
ĠS er
Ġr ail
ĠPres ident
Ġint ro
Ġp ri
Ġprodu ction
ivid ual
Ġgo ing
Ġl im
ĠM ich
ĠA g
augh ter
Ġ200 4
Ġ1 00
Ġ18 6
Ġwork s
Ġac ross
Ġep is
Ġmat ch
hy s
ĠA c
Ġappe ared
ort s
Ġm aking
ĠL a
ĠE m
Ġcom b
Ġ2 2
Ġl ess
it or
er tain
Ġof fer
Ġvers ion
Ġm other
Ġconsid ered
n ow
Ġreg ion
Ġg row
ĠR oman
Ġm ilitary
Ġpart icip
ĠInd ia
le x
Ġpro per
ell ow
Ġoffic ial
Ġv iew
Ġcon n
ĠAustral ia
ag ed
Ġn ight
S t
Ġv ide
ac y
Ġf urther
ĠM on
Ġm ust
et work
Ġelect ion
ad es
in ation
ĠSt reet
Ġ 0
ĠP e
Ġte levision
o ice
im ent
Ġg round
1 7
ĠC ouncil
Ġg ave
Ġd est
if orn
Ġbro ad
un icip
Ġind ust
ĠP er
Ġother s
ĠRep ublic
ĠAr my
Ġl ow
ĠEurope an
Ġ [
Ġw ife
Ġper forman
re m
Ġeng ine
Ġb as
Ġ2 3
Ġ ident
ree k
ĠFr ance
Ġwork ing
Ġsur v
e um
h a
Ġc aus
Ġpart y
Ġfound ed
ĠAr t
ĠS m
Ġv ol
u it
h ic
Ġin ternational
iforn ia
ĠA ct
Ġind ividual
2 00
Ġ ide
he re
i us
Ġpr iv
ke y
Ġon ce
il es
it ing
ĠS ch
id ing
Ġlit tle
Ġrecord ed
Ġpartic ular
ĠD es
oc r
t ion
Ġ18 7
u el
Ġdid n
Ġhe re
n ey
1 2
ĠCal ifornia
ĠPart y
Ġinv est
h ib
Ġp o
Ġinf lu
b or
at t
Ġm ult
ap er
Ġbl ack
Ġsoc ial
Ġthough t
ish ing
Ġres earch
ĠG eneral
ic a
Ġf ront
Ġs ound
y ear
ic o
Ġe ast
ĠWh ile
f ield
Ġro ck
ĠAmeric a
Ġoff ice
ĠN or
Ġc ase
Ġprofess ional
Ġform ed
Ġm id
ĠCh ar
ĠC our
Ġs aw
Ġf ire
Ġre ad
in t
Ġe conom
Ġhum an
ĠJ ames
Ġt en
e f
it te
am a
one y
ill s
d om
ol ution
id ence
er a
r ing
im ately
ĠD ivision
ell s
Ġex ist
idd le
olog ical
ate g
Ġl iving
Ġsign ed
ĠH ol
Ġf und
us h
Ġare as
Ġl ive
ĠQ ue
Ġgr adu
Ġf ail
Ġtrad ition
v ille
ĠP ort
Ġex ample
Ġw est
Ġse en
av es
Ġav ail
Ġ2 6
Ġelect ed
Ġst ruct
ĠV al
ĠCanad a
Ġdevelop ed
Ġre n
Ġh on
Ġappoin ted
Ġaver age
Ġf ree
Ġh ous
Ġtr av
Ã Ń
.. .
Ġse lect
Ġ2 8
a ign
Ġt our
ĠTh om
Ġty p
Ġstr ong
1 6
m a
1 5
Ġcon d
Ġrele ase
ĠB at
ĠS ome
Ġe le
ers hip
Ġv ict
ĠGeor ge
Ġcol l
ĠM or
Ã ¼
s hip
Ġfollow ed
B C
Ġm ot
Ġd iv
Ġ2 7
Ġcom e
Ġal though
Ġreport ed
Ġem ploy
Ġt aken
b s
Ġpres ident
Ġey es
Ġa ut
ens us
ĠB el
fer ence
w h
i ol
Ġprodu ct
Ġm ar
Ġ200 3
Ġplay ing
Ġn ov
Ġrec ogn
Ġform ula
g ed
p ite
an ish
Ġde g
a el
ĠR ober
Ġ199 0
Ġf ace
ip p
and ed
Ġteam s
Ġf oc
Ġrel ations
u le
Ġf all
Ġask ed
Ġm ater
Ġre view
ly mp
Ġr a
ĠAss ociation
Ġcont ract
Ġe ight
ro wn
ĠP al
st and
Ġbeh ind
Ġg ot
Ġsuccess ful
g er
Ġo ur
ĠM y
th ing
ĠR ich
Ġor d
ĠL ou
ress ed
a ut
Ġc ross
it ive
Ġre d
ĠQ u
Ġc ast
Ġpoin ts
an ia
Ġpro duc
Ġab le
Ġw ind
Ġsign ific
ain t
ough t
Ġde v
ĠO lymp
l i
ĠR oyal
ud d
Ġc e
Ġst op
Ġr ace
ĠT o
ib r
Ġmod ern
Ġh y
Ġd aughter
Ġmonth s
Ġs uff
ĠUn ion
Ġfin ished
Ġev ents
ou te
Ġh ard
ell ing
ar i
Ġavail able
Ġvide o
Ġla un
Ġse par
Ġr ank
ĠA nt
Ġf ight
Ġserv ices
ĠM al
ce ed
ag o
Ġcl ose
ĠGerman y
Ġind epend
Ġco ach
il i
r is
stit ute
Ġp ast
m ing
et t
u f
Ġc ost
ol ic
ens ive
e al
Ġpl an
Ġdirect or
ourn al
Ġ200 2
ĠH all
Ġpro ble
Ġme an
st r
at ors
ap s
ĠD em
Ġre v
Ġbec om
ĠâĢ ĺ
ut es
i ec
Ġ200 1
ĠP aul
T h
it ect
Ġag re
Ġeduc ation
Ġ198 0
Ġv e
ĠA ward
itte e
C h
ĠAustral ian
ĠP at
ĠR oad
wo od
est ival
ĠS en
em ents
Ġrem ained
nd er
ĠDav id
Ġ201 9
Ġad ministr
Ġen c
Ġr ul
Ġlangu age
Ġb ase
Ġd am
3 0
Ġent ire
t t
Ġcl os
he ad
ro y
Ġst yle
Ġs il
i j
Ġass ist
ign ed
ist ic
Ġf ar
Ġe ver
her s
ĠJ ack
ĠR ed
1 4
Ġle ast
Ġre ached
Ġk eep
Ġperform ed
ĠN e
arl iam
h an
air s
Ġb o
Ġc ou
Ġcurrent ly
ch ie
en ed
Ġcamp aign
pl ay
ĠAl though
Ġwh ite
Ġt re
Ġse em
Ġe ither
Ġc irc
Ġ2 9
ĠM ary
Ġhouse hold
ĠComp any
rough t
f ic
Ġreg ular
ber t
arliam ent
Ġmark et
Ġdisc over
Ġturn ed
ĠJ os
ĠH en
c le
Ġfeat ures
a ur
Ġp hys
ĠCour t
ent ial
. ,
Ġal most
k m
Y ou
w est
Ġimp ro
Ġs ugg
Ġsong s
il ies
Ġdesign ed
ific ation
Ġs our
Ġfe el
re ad
ĠN ot
Ġthrough out
Ġinform ation
Ġcomple ted
v al
Ġf low
Ġmater ial
at ural
ĠS am
op h
Ġm unicip
ĠFr anc
Ġle ague
k s
Ġh it
enc ed
Ġg irl
er ous
Ġup on
ĠO ff
ĠM o
ight s
an ch
ĠI f
Ġconst ruction
um p
Ġc he
ud e
Ġlarg est
Ã ¶
Ġp ress
Ġinclud es
ĠS ince
c raft
ĠB er
p ro
ĠP ri
is l
Ġac qu
h od
1 3
Ġse ven
ĠM ex
ar ter
Ġw alk
ecut ive
eder al
Ġadd ed
t ime
Ġd oc
ĠCent ral
Ġ197 0
ĠH ist
st on
Ġab ove
Ġd ou
ĠCh ina
i que
ac ing
Ġevent ually
Ġm ount
w are
ĠSt ud
re y
s el
Ġlead ing
osp ital
Ġan im
Ġorigin ally
Ġl ab
m en
Ġs at
ra z
Ġinvol ved
i ers
Ġsignific ant
Ġtr aining
Ġso on
Ġle arn
Ġfeat ured
as ing
adem y
ig r
Ġp ur
Ġplay ers
Ġp ark
Ġass oci
Ġstud y
Ġfor ces
il ities
ĠIs land
ash ington
ri an
Ġac cess
C A
Ġkill ed
ĠG od
ĠF irst
p ect
az ine
at ter
Ġdec ided
Ġ5 0
Ġb ank
re ady
ĠR ail
Ġb oard
ĠM art
ec k
ĠU K
Ġph ot
ĠM ag
y a
ourn ament
Ġrel ig
ĠA lex
if f
ĠDep artment
ĠBl ack
Ġw id
Ġ z
Ġcons ist
med i
o res
Ġm iss
Ġqu al
it z
ab ility
Ġ( )
ou l
ak er
Ġsit u
Ġw oman
Ġch ange
Ġf ig
Ġschool s
ĠSt e
c he
Ġresp ons
g es
Ġrad io
Ġqu est
b urg
and s
v iron
Ġdirect ed
Ġgroup s
Ġt est
eng th
p ly
ĠIt s
Ġsomet hing
erg y
ĠC ap
Ġb rought
Ġgo al
s y
Ġ199 9
as ons
Ġac cept
ĠCl ub
g in
ĠCent er
ĠM ount
Ġus ually
Ġepis ode
1 1
Ġl ove
ĠIt al
ĠT own
it ch
at ory
Ġf av
ĠS l
r ay
Ġn etwork
Ġpriv ate
ĠJ ew
Ġst ri
ĠV ir
ines e
ach ing
Ġlit er
t r
g o
ĠG roup
ĠW ashington
ress ion
ĠJ e
os ition
om m
ĠAng el
Ġinter est
Ġaward ed
Ġbet ter
ĠO ther
ĠB ay
ber g
Ġt er
Ġf r
Âł m
Ġperforman ce
Ġst age
Ġcon duct
Ġhe alth
ĠPro v
Ġprov ided
ok e
Ġsub sequ
Ġwant ed
Ġd i
ĠM ad
Ġrepl aced
ĠC ong
ar ies
ĠL aw
Ġal ready
Ġsub ject
Ġcour t
ĠTh at
Ġm em
ĠC ath
mer c
inc ip
Ġcount ries
Ġcap t
ĠD on
Ġt reat
ĠIn stitute
ĠS im
ict ion
ĠChrist ian
Ġpl aced
Ġout side
Ġst e
Ġr ather
Ġpl ant
Ġst re
b ack
id s
Ġst ated
Ġr ange
Ġresp ect
Ġl ik
ĠW estern
Ġc and
Ġto ld
Ġt ou
Ġc op
Ġdec l
ar ing
Ġw all
Ġin j
Ġp ay
Ġqu ick
Ġpol ice
Ġl o
Ġa ud
Ġa p
il ed
ar ian
Ġg un
id a
ĠThom as
h ood
Ġ ill
Ġmod el
Ġst ep
Ġm ight
ĠT ur
p ec
Ġtrans fer
s w
ĠM iss
Ġcol lege
Ġt aking
Ġde al
Ġst ates
Ġp arent
overn or
Ġval ue
Ġposs ible
ĠRober t
Ġen ough
Ġlook ed
Ġc ut
ic y
un k
b and
Ġa chie
Ġ199 8
an i
at ives
Ġcent ral
ĠSoc iety
b oard
ĠM r
Ġappro x
Ġg ive
Ġ196 0
Ġc ivil
Ġarch itect
er c
ĠT V
Ġocc ur
Ġar g
ic ated
ut ure
Ġc reat
n ed
Ġp ot
Ġinst ead
Ġc at
Ġf if
Ġcompet ition
Ġf elt
ar ily
ĠI r
Ġbook s
Ġnov el
ĠRuss ian
ĠCanad ian
Ġcon v
anc ed
ĠM ark
Ġ18 5
ĠChar les
I n
Ġl oss
ĠâĢ Ķ
Ġshow s
Ġconst it
Ġcent er
Ġs ize
Ġb ig
ĠT ex
ĠMin ister
Ġdeg ree
Ġdo or
ĠJapan ese
al a
ĠS erv
al ed
Ġ ver
Ġfour th
Ġal ways
ĠAfric an
f ace
Ġs em
ĠMus ic
ĠCh inese
r up
Ġt alk
Ġse x
Ġv iol
Ġto wards
ĠG reat
ĠL at
ĠComm un
Ġt ro
Ġcap ital
Ġ18 4
e g
Ġb ur
Ġsp ace
ĠSc ott
ĠAc ademy
Ġob s
viron ment
Ġcour se
Ġprov ide
Ġre b
ĠC am
ĠGr and
ĠLou is
augh t
ĠB o
is es
ct or
ĠItal ian
Ġw a
Ġb i
un t
Ġfor ce
at re
Ġchang ed
Ġ199 6
Ġes c
Ġre ve
ĠV ict
Ġb ar
Ġbre ak
b ed
Ġh om
Ġg old
od es
Ġar m
Ġfam ilies
id ae
ĠS k
ap t
Ġintro duced
ĠDem ocr
im ate
Ġr iver
ur ity
ĠS al
Ġob ject
ow s
ĠM ac
Ġ Ã
Ġm oney
en a
Ġ4 0
ann el
ol f
v ing
Ġ199 7
Ġty pe
pec ially
ĠS ing
erv e
ĠWh ite
Ġme as
Ġfem ale
ĠM et
ell ed
Ġm ass
Ġd raw
Ġcl osed
Ġf arm
Ġm ix
Ġcrit ic
Ġwh ose
Ġs en
Ġk ey
Ġair craft
Ġrelations hip
Ġart ic
ĠSp anish
i ation
19 9
ĠJ ust
Ġmov e
Ġ3 1
Ġp urch
Ġcomp an
y s
Ġw ood
Ġacc ount
um e
Ġj ud
Ġst ay
merc ial
Ġright s
ish op
Ġr an
Ġpart s
Ġsc ored
Ġcont ribut
Ġat tended
o o
Ġpl ann
ĠR ad
Ġc ertain
n ot
Ġits elf
Ġmet hod
Ġf ood
pl es
Ġb oy
ir m
ĠAfric a
l ier
or ing
m on
ov ed
av al
Ġne igh
ra el
ĠMich ael
ĠFr ank
Ġinst it
Ġpro b
h i
Ġocc up
l ike
u z
ĠG reen
Ġhand s
Ġm om
ĠE ar
ĠC ons
Ġsp ent
Ġallow ed
op tion
Ġbroad cast
ĠP enn
Ġb all
ut er
ĠG old
Ġp red
Ġd er
un n
sh ire
Ġc y
Ġh or
ĠT om
Ġcand id
ĠD an
r d
Ġo pt
g y
Ġc ensus
ec ess
ĠH am
ĠW il
ist ry
ro ad
m ar
ĠM ost
i qu
Ġn orthern
ord er
Ġpre m
Ġne g
Ġa ction
ĠL ake
Ġbeg inning
" ),
Ġfre qu
k a
Ġstud io
re land
ir th
Ġcomm and
Ġreg ard
ĠT wo
Ġ199 5
ep h
i res
Ġst ar
Ġgr and
Ġhe art
Ġd one
os ing
Ġconc ern
ĠHen ry
oun ter
as c
Ġend ed
Ġs ection
Ä ģ
Ġfilm s
Ġme ans
Ġd ata
Ġact ive
Ġk ing
Ġs us
Ġapprox imately
Ġt ax
Ġv ia
ov iet
Ġes pecially
Ġtrav el
Ġlist ed
Ġp ers
Ġdet erm
Ġde ep
Ġs outhern
ri a
Ġwrit ing
Ġ199 4
Ġv oice
Ġ199 2
Ġcle ar
ĠF ollow
Ġl ower
Ġbuild ings
ic ian
Ġex cept
ograp hy
uf act
ĠP et
Ġmov ement
ĠVir gin
Ġex c
Ġbel ow
Ġis land
ain e
Ġc al
ĠPar is
l im
ĠF ilm
Ġd ark
Ġw inning
Ġmain tain
m b
y r
Ġun its
Ġrun ning
on a
Ġs elf
ĠP eter
" >
ĠVict or
Ġd ivision
inn er
Ġrun s
o id
id ents
Ġprevious ly
c y
it es
ĠM ont
Ġdefe ated
< /
Ġdest roy
Ġl ength
ĠT or
Ġex hib
ĠKing dom
n own
Ġs ummer
Ġan c
Ġco ast
ed y
Ġch art
ĠFollow ing
ĠCath olic
ibr ary
Ġorgan ization
l am
Ġim m
Ġch ampionship
Ġbl ock
oin t
ĠH ill
ĠM at
Ġindust ry
om p
Ġwh om
Ġbat tle
ir t
he t
Ġf uture
Ġse at
ab it
emb ly
2 5
Ġs n
ol k
end ing
Ġmed ia
all ed
Ġn atural
ĠC amp
o ch
I I
ĠTex as
ar ch
? "
re l
ĠSm ith
ĠIs rael
Ġinvest ig
Ġown ed
Ġfoc us
Ġm ur
cl us
ist an
if t
y m
Ġsur round
ĠD irect
Ġs ch
ĠComm ission
Ġrepresent ed
ut y
Ġset t
Ġs af
Ġplay s
op er
ag on
Ġc red
in ent
u x
ens ion
ĠI m
ĠMus eum
ect or
Ġhig her
fic ult
du ction
Ġear lier
f it
Ġsomet imes
Ġpr incip
ĠF ootball
Ġt ournament
Ġrequ ired
ĠM el
Ġfun ction
ip s
ĠSec ond
Ġacc ording
Ġent ered
Ġh ot
Ġconst ruct
Ġdoc ument
Ġso ft
Ġn omin
Ġar my
b ased
ĠK ore
Ġmin utes
Ġperson al
Ġh us
ĠA pp
Ġl ived
ĠAr ch
ad a
ri al
Ġpr ison
Ġsystem s
Ġex am
ĠF in
ret ary
ĠD o
ĠS oviet
ĠRich ard
Ġw ord
Ġj ob
yl v
Âł km
Ġe as
Ġdif ficult
Ġp iec
Ġle ave
Ġ199 3
le br
Ġw ide
Ġk ind
ĠB en
ask et
Ġprim ary
ĠM any
Ġ199 1
Ġold er
an o
in i
Ġart ist
Ġcom mercial
Ġd ro
Ġpass ed
ort un
ĠD ay
Ġlead er
Ġnot ed
Ġstruct ure
ĠS o
g round
Ġtrans l
I t
Ġj ournal
Ġcomple x
ib ility
Ġim medi
Ġth ings
por ary
i ences
as ion
Ġte ac
ĠSw ed
Ġtradition al
ur t
ĠCh ic
Ġb ene
i os
it a
Ġproper ty
ĠComm ittee
ĠS ant
Ġgener ally
Ġopen ing
S A
um n
le ment
Ġ" "
Ġhig hest
Ġlong er
ro l
Ġh ours
ĠCar ol
Ġto day
he ast
ĠTr ans
ĠI reland
ĠG overnment
Ġkn ew
ĠY ear
ĠIn ter
Ġfin anc
Ġth us
Ġpl at
or por
ĠL os
Ġindepend ent
u ke
Ġstud ied
ĠRe v
ro ll
Ġfin ally
Ġab s
ĠB est
Ġ195 0
Ġstand ard
Ġin tern
ĠC r
ĠR ock
Ġman ufact
in ct
Ġw ords
Ġr oute
Ġmult ip
ĠK h
ĠZ eal
Ġsh ot
Ġd ate
Ġmag azine
ĠRec ords
Ġ Â
Ġ #
if y
ĠF ore
ly ing
Ġoper ations
Ġp ick
Ġstud ies
Ġl ack
Ġpract ice
or ial
Ġstud ent
Ġcount y
Ġins ide
l ant
Ġd en
ĠR ob
Ġcollect ion
Ġan aly
Ġrail way
p ing
ĠZeal and
er ry
Ġh ap
Ġset tle
ĠD el
ĠFl or
sy ch
Ġhus band
ĠCong ress
ot a
k nown
it ar
4 0
ĠB oard
ro om
Ġst aff
Ġan ti
Ġch air
Ġnum erous
ĠCon t
l a
Ġinc ome
Ġm ind
Ġth reat
N A
ĠF estival
Ġl ay
6 0
Ġd ram
Ġcont ains
Ġle aving
arri age
Ġbr ing
Ġra ised
Ġfor ced
w ell
end ed
Ġcompan ies
ad ium
Ġappear ance
Ġnew sp
ent y
Ġdis p
e es
Ġe mer
a ult
Ġrel ated
c her
" ).
Ġapp lic
Ġpur p
Ġlaun ched
Ġloc ation
erv ed
ĠG re
sel ves
ust om
ĠM a
Ġiss ues
g en
Ġre ally
ri ef
ĠC ast
ĠG reek
Ġcaus ed
iz ing
ĠB ur
Ġbecom ing
ut ch
Ġquick ly
on n
Ġl ink
Ġg e
Ġtrans port
ĠS ir
Ġter rit
ad o
Ġincre ased
Ġs low
Ġcomm ission
Ġper cent
Ġ198 9
Ġpri or
Ġcomple te
mit ted
z a
ĠB u
Ġthem selves
m ark
Ġy et
âĢ ¦
Ġdec ision
ĠP ac
Ġparent s
hest er
ĠPl ay
ĠN avy
ĠAngel es
Ġnew s
is k
ven ue
ĠE v
Ġfam ous
ĠE duc
Ġm ission
ĠFor ce
ĠAr ts
us e
Ġterm s
Ġse a
Ġv oc
ĠH ow
pp ed
ur a
et her
o e
Ġf le
ĠBro wn
Ġide a
ĠChic ago
ed s
Ġ er
Ġve hic
Ġen vironment
ul ated
Ġce lebr
Ġsc ient
Ġw estern
ĠL ater
ĠL ord
Ġn orm
Ġneed ed
Ġd ig
ĠIt aly
Ġs ister
Ġhap pen
Ġins p
Ġfore st
Ġtr ain
Ġdisc uss
Ġweek s
Ġsup er
Ġob tain
act ion
am s
ĠM il
um ents
it iz
ĠMex ico
Ġat tend
Ġ198 8
rib ution
Ġmeet ing
Ġsen ior
ĠSc ot
orn ing
Ġmajor ity
Ġvict ory
Ġcharac ters
Ġ ens
ol a
8 0
Ġsc ore
ĠF ound
Ġbl ood
ĠThe ir
ĠC arl
Ġhel ped
Ġselect ed
ĠL it
ylv ania
in ary
e en
d en
ig an
Ã ¢
ĠB et
Ġwho le
Ġgo als
ĠS aint
Ġassoci ated
Ġann ual
ĠG o
Ġt akes
Ġun it
Ġaddition al
Ġcre ate
ĠHist or
Ġmin or
ĠP arliament
re me
Ġconsid er
Ġb ox
l or
ill ed
T V
ail s
Ġsch ol
Ã ¤
Ġmus ical
Ġmost ly
b ers
Ġfeat ure
Ġp en
ank s
Ġgr ant
Ġmat ches
Ġoffer ed
b l
Ġcon cept
ĠAr ab
Ġde ad
Ġe t
Ġcent re
Ġequ ip
ĠO l
Ġm iddle
Ġam ount
il s
Ġmanag er
Ġen ergy
stand ing
ĠGeor g
s is
Ġm ention
Ġinter view
Ġfl oor
Ġsing er
Ġrem ains
Ġfriend s
Ġre ason
ograp h
in et
Ġret ired
Ġart ists
ĠSup er
Ġwrit er
r ight
os es
Ġ18 3
Ġactiv ities
asket ball
Ġprogram s
Ġtr ade
om a
Ġtri ed
l it
Ġev idence
ech an
w rit
Ġchang es
Ġlim ited
Ġp ul
Ġc anc
ĠR o
u ge
Ġt able
Ġparticular ly
ver t
Ġl ines
Ġt rib
Ġn ames
Ġbelie ved
A r
ĠM ass
and a
Ġleg al
ĠO ld
Ġrem ain
ĠE mp
ĠVirgin ia
Ġsh own
ic ation
id er
te en
Ġs um
ĠS qu
Ġsay ing
Ġd om
Ġte xt
or al
W hat
ing u
Ġmunicip ality
c ript
Ġatt ract
Ġb irth
Ġwas n
is ions
Ġc arried
ric ult
Ġgen us
F L
Ġlarg er
Ġiss ue
h ouse
Ġin n
Ġpre vent
er o
Ġ198 7
Ġvis it
Ġsupport ed
Ġan t
Ġeconom ic
Ġrelig ious
Ġinit ially
Ġoper ated
Ġsc ience
Ġquest ion
ĠL iber
ĠOlymp ics
Ġnear ly
Ġm akes
ĠAn n
Ġr ap
ch ange
Ġhe avy
Ġsqu ad
Ġsc reen
em s
Ġn ine
w ide
ĠM ill
ir it
Ġfail ed
on se
Ġclaim ed
Ġb ound
a res
Ġbel ong
s ylvania
Ġoffic er
Ġch ief
und red
ad d
Ġ198 6
Ġw at
d own
2 1
Ġqu arter
ou d
Ġcompet ed
ĠB raz
Ġserv ing
ron ic
Ġm ach
ĠU p
Ġd ed
Ġfe et
ĠS ummer
Ġc orn
ĠE r
ent h
i Ä
ĠW omen
ĠN orthern
W e
Ġresult s
Ġch all
ĠProv ince
ĠLe g
ĠW ales
Ġestabl ish
Ġexper ience
Ġfor ward
ĠIr ish
Ġmed ical
ĠPenn sylvania
Ġed ition
av en
Ġan g
ĠFlor ida
Ġ198 4
Ġcoll abor
Ġb rief
ail ed
Ġmanag ement
ĠB ill
Ġincre ase
ĠC he
ir ing
Ġad op
Ġr ate
Ġrefer red
ĠVal ley
Ġpo et
f ect
Ġun iversity
Ġsur face
Ġprob ably
ri ed
ĠSt r
ĠDes pite
ĠAt lant
Ġconn ect
Ġt ell
ac hes
2 4
Ġarr ived
ĠC D
Ġcom ing
ous ly
2 3
amp ion
ĠW ood
Ġs ays
Ġto w
Ġpresent ed
port s
ĠK n
Ġsubsequ ently
Ġm er
Ġinst r
Ġar rest
Ġcult ure
Ġp le
ĠF ort
ul f
st e
at ively
Ġfor t
Ġp oor
Ġear ned
Ġ198 5
Ġc ases
v a
i ents
ĠPro fess
Ġsp orts
ĠRuss ia
Ġgu itar
Ġb ad
t a
A meric
az z
ĠI ran
ĠCh ief
Ġmanag ed
ĠP re
Ġstart ing
erv ation
ĠBat tle
er em
Ġal tern
un ior
ĠO per
oc key
Ġrem aining
Ġmom ent
ĠBraz il
ian ce
inal s
ĠM ur
ĠO ver
Ġf oot
ĠJos eph
Ġus es
Ġar ms
Ġvar iety
Ġo p
Ġtro ops
ĠS ur
Ġsus p
k en
Ġed itor
Ġcomp osed
Ġspec ific
Ġt arg
i en
Ġform s
ĠO h
ic an
ĠH ot
Ġdem on
Ġindividual s
i y
od d
ĠEduc ation
ĠJ im
ĠC at
Ġl if
Ġstat us
Ġpol icy
F A
ĠT echn
Ġind ic
Ġf ederal
ĠCh ap
Ġmov ie
Ġfore ign
b ur
ĠU nder
Ġcar ry
ol s
Ġfinanc ial
ab b
Ġmean ing
ĠD en
ire ction
ell a
Ġcover ed
Ġn ation
Ġprov ides
Ġb ed
ĠCol umb
Ġin te
Ġc ustom
Ġtou ch
Ġcons ists
Ġph il
it ation
ĠChampionship s
led ge
Ġad j
ar ters
Ġc ell
ĠB oth
Ġsepar ate
Ġe astern
et te
Ġh ospital
Ġs le
Ġproble ms
A l
Ġatt ention
7 0
A n
g ing
Ġappear s
Ġn ecess
ear s
is ation
ĠS ar
ĠS outhern
b on
Ġs ure
Ġl ives
a o
Ġcre w
Ġm ale
Ġplat form
in ter
Ġmed al
p art
ut ions
Ġrec ent
i ant
ĠM ore
ĠPac ific
Ġany thing
im um
Ġlab el
ĠP ublic
it ude
l ight
ĠG ames
2 2
Ġl og
Ġse asons
u a
t ies
u ing
ĠR os
Ġrequ ire
Ġresp onse
Ġhous es
Ġ198 3
Ġhe ard
Ġsome one
Ġthe ory
Ġm arriage
Ġover all
Ġsour ce
ĠMart in
Ġsoc iety
B A
Ġcomp os
ĠB us
Ġtem per
Ġal one
Ġbr idge
ĠSp ain
ĠServ ice
Ġcol on
Ġse qu
Ġmain ly
ĠH aw
ĠB ank
ill a
Ġreg ional
Ġst ations
isc o
ot e
Ġl atter
ag ing
Ġarr ang
Ġp aper
Ġc ouncil
ĠCl ass
Ġp il
Ġ198 2
ail y
Ġtr ying
m ond
Ġsh oot
p ut
Ġnear by
c er
Ġdep art
Ġc ause
Ġl ot
Ġleg isl
r ast
ĠS un
Ġrecord ing
Ġl ic
Ġk ept
Ġdes pite
Ġacqu ired
Ġ6 5
Ġwhe ther
Ġest im
urb an
ĠM ic
Ġwh y
Ġch arg
ĠThe n
Ġf irm
Ġsqu are
Ġsuc ceed
Ġpl ans
ob al
Ġdirect ly
b ury
ust r
Ġb omb
et ic
k y
ĠS il
ĠQue en
ĠAn other
Ġtrack s
ĠW ork
Ġnot hing
ĠJew ish
uc le
ess ion
ard en
g l
Ġch ap
Ġ193 0
ĠL uc
at o
Ġmov ing
Ġrespons ible
Ġprop osed
Ġ194 0
um ed
Ġgradu ated
in ing
Ġinflu ence
c a
Ġh op
ĠAss embly
Ġlook ing
Ġsp read
Ġtechn ology
Ġp ath
ĠO ut
Ġdis s
Ġlik ely
ar io
Ġ6 0
im b
Ġpart n
ĠB oy
Ġdep artment
m ore
Ġn ative
Ġship s
ĠL and
Ġprot ect
Ġw or
ĠBrit ain
ig er
Ġ197 2
Ġ197 9
ĠA wards
ip l
ĠF red
Ġdiscover ed
Ġh air
Ġn ature
b an
ur ies
ian a
um an
Ġmultip le
ĠMc C
Ġserv e
Ġg rew
Ġwe bs
Ġc itiz
Ġact ually
ĠB ook
Ġdo ing
Ġan sw
vent ion
ab les
Ġimmedi ately
ĠDirect or
Ġf ell
it t
Ġ194 5
st ant
ens ity
ĠPol and
ĠT imes
Ġ =
m ission
ĠP ak
19 8
b re
ĠM od
ul ly
ĠS ub
Ġcom ment
Ġoper ation
ĠT w
im in
lect ion
ĠSc ience
Ġproble m
Ġd u
Ġh all
Ġvot e
Ġpe ak
Ġwe ap
Ġ i
k r
ĠS pr
Ġsh are
Ġincre asing
Ġc ateg
Ġac adem
Ġspe ed
ĠS a
ĠRail way
Ġh undred
Ġher self
Ġcond itions
Ġpromot ed
Ġem b
ĠJ ud
ĠEmp ire
ĠA re
2 7
Ġp ow
ĠP an
and on
Ġcontin ue
Ġorgan iz
Ġf ellow
ĠI ll
Ġc ities
Ġg as
ce nd
Ġe th
Ġ197 6
ĠG overnor
Ġconstruct ed
it an
) ;
Ġhistor ical
Ġ197 4
2 6
Ġd irection
ĠO f
at i
Ġto ward
Ġcom es
Ġpass eng
Ġex tended
Ġ198 1
Ġs ens
ĠB ig
ap ed
Ġg iving
ĠIn c
Ã ¨
ĠDemocr atic
Ã³ n
Ġm ess
em porary
al i
S h
Ġl ies
Ġm echan
Ġp sych
Ġproduct s
Ġsc hed
v ement
ers ey
Ġrecord s
it ted
Ġ196 8
Ġth ing
ent al
Ġm aster
Ġlevel s
j oy
ĠF re
ĠH el
Ġm orning
ĠD utch
2 8
ist ed
Ġd omin
o ir
per or
c ol
Ġspe ak
Ġdis play
Ġfif th
ĠM os
Ġst reet
ĠSp ec
Ġd rug
Ġhon or
s s
Ġo il
ĠRad io
Ġst ood
Ġth r
Ġal leg
Ġnum bers
ĠRes earch
Ġ ess
Ġcap ac
Ġ197 8
Ġun ivers
ĠJ ul
Ġhousehold s
Ġfem ales
ĠM er
Ġ19 20
Ġproduc er
ĠÂ £
ad or
Ġdou ble
ad ed
Ġ197 5
l o
ra f
ĠAr g
ing er
Ġin h
Ġiss ued
Ġinc orpor
un ction
Ġtr ue
ĠSt ep
ĠG ar
Ġele ments
ĠDe f
ĠH a
c hest
ĠV ol
N o
Ġre ach
ĠPro g
ĠC ur
2 9
Th is
Ġsc ene
Ġs al
Ġg reen
ĠEar th
ĠE astern
ĠCon ference
ĠAl so
ĠT our
Ġcou ple
ĠLat in
Ġdis e
Ġprim arily
R A
Ġopp ortun
Ġm erg
ĠB ow
n y
ar row
ic ed
Ġsold iers
Ġcult ural
r id
Ġcont act
Ġb order
Ġa im
Ġyou th
Ġtransfer red
ĠEd ward
ĠLe e
ant ry
Ġsup p
Ġneigh bor
Å į
Ġord ered
Ġst ories
ĠCarol ina
ĠB re
ost on
g ian
ĠM iddle
Ġres idents
Ġw atch
Ġg re
ĠC le
ĠB ob
Ġappear ances
Ġ18 0
ĠCh arl
gy pt
ec ause
i as
res p
Ġanc ient
Ġc ounter
ĠPe ople
Ġ197 3
w an
Ġnewsp aper
Ġf ast
ĠM ah
m et
Ġmed ian
en ant
Ġelect ions
Ġcol or
Ġreve aled
Ġdemon str
ĠL ine
ound s
Ġpl aces
en ing
Ġp ack
Ġ197 7
br idge
k i
ight ly
Ġstre ng
iÄ ĩ
Ġrem oved
Ġhigh ly
end er
por ation
Ġst ars
Ġsec urity
Ġagre ed
Ġ ult
H e
ĠS ol
Ġam b
Ġ4 5
h ol
Ġp ra
ĠWh at
Ġprofess or
ĠT er
us hed
ĠD ou
Ġsmall er
ĠS at
Ġaut om
ĠA v
L e
Ġp an
ful ly
w a
Ġpolit ician
Ġlet ter
Ġinit ial
n am
C C
Ġapp l
Ġbelie ve
Ġ197 1
Ġprodu ce
Ġbl ue
ĠII I
ĠScot land
Ġc hem
ĠS und
Ġser ious
ag n
ĠSoc ial
ĠC ro
Ġin tended
Ġcon ver
et y
ĠIs lam
Ġst one
ĠL ong
or a
ĠB as
Ġp urs
ic ient
h ar
Ġ196 9
Ġparticip ated
ĠPr ince
Ġmus eum
Ġcomp uter
g a
ĠT ri
w ar
Ġre pe
ĠC reek
ra ight
y an
Ġprov ince
ell ig
Ġb it
Americ an
Ġen em
! âĢĿ
Ġon to
Ġfav or
Ġplann ed
Ġ3 5
Ġcomple t
Ġdist ance
Ġdou b
ĠPort ug
Ġr aces
ĠYou ng
ast ic
ĠE ll
en es
ĠThe atre
ress ive
ĠE gypt
ul ations
ĠW al
rug g
Ġnot able
Ġfollow s
Ġoffic ially
Ġact or
A S
Ġst ore
y ard
Ġoffic ers
ĠM u
ab eth
Ġr ule
Ġhead qu
i ated
ist ics
m ir
Ġbe aut
Ġ196 7
on ic
b our
am ily
Ġadministr ative
Ġproject s
Ġbas is
Ġm iles
n o
Ġdiv ided
ĠC ivil
Ġen joy
ĠDe v
g ar
Ġpar ish
ĠCon n
Ġprom inent
ug by
c el
ans ion
y e
ĠJ ones
Ġab ility
Ġun s
is her
os op
Ġme ant
ĠFound ation
Ġfig ure
ĠG all
u an
is ters
Ġp ict
Ġmet al
Ġprem i
ĠE ach
ĠM ajor
Ġgrow th
Ġb ird
Ġmat ter
Ġtr aff
ic ations
ĠJ ac
9 0
ent r
Ġstr ateg
ĠWilliam s
Ġro ll
Ġphys ical
Ġ ut
ĠCo ast
Ġbe at
ĠB oston
Ġp al
ans as
Ġcandid ate
ĠBe fore
it led
Ġpot ential
Ġh app
Ġrec over
cl ass
B S
Ġcould n
ĠBro ad
ors hip
19 7
Ġb asketball
ap h
ĠE lect
ian o
Ġexp ected
Ġtw enty
Ġtr y
Ġrec ently
anc y
ie ut
av ed
Ġren amed
Ġdestroy ed
ĠOr der
Ġcamp us
bur gh
ĠFranc isco
Ġc ard
o z
Ġr are
Ġpre p
Ġpos itive
aw a
ĠD i
velop ment
ĠSec retary
Ġat h
Ġch annel
ĠSer ies
Ġm outh
ĠG al
ĠIn f
ĠB ul
Ġconduct ed
Ġse ek
Ġalong side
ĠK ent
i ro
ap ers
k in
ĠR am
Ġlaw s
ĠMus lim
Ġs earch
ĠU kr
Ġ196 4
ĠL ab
Ġpurch ased
Ġcap tain
if ying
Ġup per
ĠT y
. )
ound ed
ce an
ad el
ĠM em
ribut ed
Ġwebs ite
ib ly
Ġcomplet ely
d ney
Ġpe ace
Ġmount ain
ĠH ung
r ance
Ġeffect s
Ġeff orts
oc ated
ĠTe am
Ġchar ge
Ġdefe at
ĠK e
ĠAd d
our ces
3 5
Ġpre c
Ġ /
iz es
Ġget ting
Ġth ous
ay a
r ad
Ġle aves
ri e
ĠP rem
ĠB BC
Ġsim ply
Ġded icated
ĠPhil ipp
ĠSt ation
ĠCent re
ĠM ot
Ġsp ot
ĠF our
Ġd ance
' m
Ġpres ence
ob ile
ĠB C
s en
ĠNew s
ĠJohn son
ĠMich igan
ĠRepublic an
Ġst rugg
Ġcommon ly
Ġcapac ity
ir med
Ġbeh av
Ġappro ach
Ġimp lement
Ġaccept ed
Ġw ear
Ġtyp es
Ġhistor ic
ĠH on
Ġsol o
re ct
Ġactiv ity
Ġref lect
ĠAs ian
Ġre form
ĠL y
Ġpr in
Ġte nd
Ġcan not
Ġtarg et
ĠSen ate
A A
cl es
ĠSt an
ĠAs ia
ĠM ax
ĠW ind
Ġwith d
ĠM en
ĠOh io
st one
ĠS and
Ġent er
Ġoff ers
Ġwork ers
ĠSe a
ister ed
a ith
Ġimp act
Ġ196 5
ag ement
ĠEl iz
Ġs ense
ph y
Ġse nd
Ġ ice
r ich
Ġ194 4
Ġtreat ment
il ly
4 5
ĠO pen
ad ing
Ġb ow
res h
Ġartic le
Ġst raight
el a
Ġass igned
Ã §
hen s
Ġshow ed
Ġ196 6
Ġg ained
b ook
Ġp un
Ġsettle ment
Ġr ac
Ġhous ing
Ġqu ality
ĠA venue
Ġe lev
Ġad ult
s et
ag er
Ġpro te
Ġ ir
Ġwid ely
ak a
ub e
ed om
ang er
ac hel
ieut enant
Ġbr anch
ĠA z
err or
Ġknow ledge
al og
ĠScott ish
Ġfac ilities
Ġmur der
Ġr at
Ġthere fore
al le
ĠT im
Ġsec ret
Ġadop ted
ĠHe alth
d ro
um ber
ir a
is er
ĠEng ine
ĠColumb ia
Ġw ild
ĠPol ish
or ation
ĠC ross
ĠB orn
enc ies
Ġdecl ared
Ġcapt ured
c an
ant ly
or ough
ĠSy dney
Ġag ricult
pt ion
ĠJack son
ĠH y
Ġserv es
j a
ĠSy stem
Ġfeat uring
Ġrecogn ized
ĠSt ar
ĠO x
Ġc oin
du ce
Ġconc entr
Ġf ix
ĠOff ice
Ġon line
ar p
Ġorgan ized
in em
Ġsil ver
il ing
Ġenc our
Ġmention ed
Ġsy mb
Ġest ate
en ge
il a
Ġw inner
b o
Ġm ic
is hes
Ġoccur red
Ġpress ure
os en
ĠP ost
Å Ĥ
ĠH u
Ġadministr ation
Ġsuff ered
Ġlarg ely
ge nd
ĠT op
ĠCor ps
g reg
ĠV an
Ġequip ment
ĠTh ree
ĠR ay
Ġform at
p an
Ġelect ric
m as
Ġper man
Ġdist inct
e z
Ġr ural
Ġ8 0
Ġh ol
Ġr out
Ġp aid
ĠM id
Ġn ucle
igh ter
Ġp it
ĠN ow
Ġrespect ively
g u
ĠT em
Ġassist ant
ĠS ever
Ġcontro ll
Ġsp lit
f ort
Ġlead ers
ĠAs h
Ġc ars
Ġcont ent
Ġsur pr
resp ond
Ġagre ement
ĠW all
Ġt aught
Ġab andon
Ġsitu ation
Ġro les
Ġdro pped
rick et
ĠGeorg ia
it ness
ste in
it age
ĠK enn
ĠD is
Ġtyp ically
r as
Ġgrow ing
ĠH arr
Ġoper ating
Ġestim ated
Ġc erem
Ġfl ight
h o
cl aim
Ġex ecutive
Ġp et
Ġcomp ared
Ġeff ort
Ġacadem ic
ig a
Ġvar i
Ġm ill
w in
Ġevery thing
ĠSh ow
w ith
Ġsp irit
Ġsh op
Ġcomb ined
im a
Ġm ax
h aps
Ġd yn
ĠHe ad
ĠT am
Ġrul es
ord in
ab y
Ġpurp ose
eder ation
Ġinte gr
Ġt ells
ĠPro t
av a
k o
ĠL u
ĠT re
Ġacc omp
i ate
Ġclub s
Ġtw ice
Ġact ing
Ġcontin ues
ĠB ecause
on ents
Ġse vent
Ġc am
arr ing
N ew
Ġown er
Ġgl ass
ĠE st
ect s
Ġw r
ent ed
Ġterrit ory
ĠJ es
Ġlangu ages
Ġbecom es
ul pt
Ġs uit
Ġb urn
et ts
ĠB ern
Ġs u
ĠB al
od ies
rop ical
ric s
Ġpul led
enn is
b a
ĠProfess or
Ġsem i
Ġsour ces
ra wn
Ġ( ,
Ġcitiz ens
ĠV iet
Ġ Å
us ion
ĠF e
I S
r ical
ic ted
p ass
ourn e
Ġt ree
ot ed
Ġresult ed
ion e
Ġsugg ested
Ġcommun ities
Ġdram a
Ġinter p
Ġs ales
ĠJ ersey
or ter
Ġreview s
Ġschol ars
h u
Ġm ut
Ġmix ed
ĠAlex ander
Ġtit led
Ġbur ied
ĠH ospital
m iss
Ġalbum s
ĠR ome
Ġdam age
A C
ol ved
Ġhe av
Ġqu ite
7 5
Ġb al
Ġg ives
s es
D on
Ġ194 2
Ġl osing
ro g
al ing
on to
l ict
Ġ196 3
Ġ196 2
Ġcon clud
ct ions
Ġ !
Ġt ask
y er
Ġtr ust
ĠO tt
Ġrem ember
Ġcontro vers
Ġ era
Ġteac her
Ġcond ition
ĠA p
Ġgo es
Ġwe ight
b it
Ġgre ater
Ġsurround ing
Ġfin ish
Ġa wards
am ber
k er
ĠBro ok
per ial
Ġd ensity
ĠL i
Ġnew ly
ric ts
Ġpos itions
ĠVictor ia
Ġhold ing
Ġm ales
Ġstop ped
Ġ194 8
à ¤
Ġcon ference
ĠW ater
ĠC ard
Ġindust rial
Ġepis odes
ĠF ederal
ĠAl bert
Ġsing les
ino is
ĠC y
ĠBer lin
Ġr isk
ĠA th
Ġ17 9
Ġl abor
Ġrec omm
ĠG ood
ĠF C
Ġexp anded
ter y
ĠArg ent
ild ing
ĠS ong
ach us
ĠO s
z y
ĠAnd rew
Ġc ab
in ity
Ġn arrow
ĠEliz abeth
ĠK ong
ĠHistor ic
Ġres ident
rop ol
if orm
Ġsup pl
Ġhost ed
ic ine
ĠC E
Ġ7 0
on ia
Ġf ully
Ġre duced
ĠCor poration
Ġrece ive
wh ich
iv ity
Ġbro ke
Ġpat tern
Ġtri al
Ġret ire
Ġw ing
ut ed
Ġsett led
Ġl y
Ġfight ing
Ġdef in
Ġfootball er
Ġt rou
k ins
Ġsp ring
Ġlead ership
Ġident ified
Ġprov iding
l oad
Ġpl ants
' d
Ġy ards
5 00
ĠV er
Ġadd ress
Ġpart ies
Ġmot or
c hen
ĠF ield
Ġch ampion
ir ty
r or
ed d
ĠDan iel
sk i
3 3
ĠAm ong
ĠPr ime
Ġresp ond
on ent
Ġ194 1
ĠBl ue
Ġcor respond
Ġjoin t
if ul
Ġpain t
Ġcrit ical
Ã ±
ĠM as
Ġcorn er
ĠK en
m ad
Ġst ream
Ġsp ons
Ġaff ili
udd en
Ġv ess
Ġgrant ed
ĠA ri
od ay
ĠC orn
Ġf air
ack s
! "
Ġsitu ated
ĠDe velopment
ĠIll inois
ĠBr ig
Ġun ion
Ġmod els
Ġdr ive
ĠOlymp ic
Ġyoung er
ĠJe ff
th ur
Ġmunicip al
Ġtit les
Ġun c
Ġ194 6
un te
ĠB ang
ĠR og
Ġear th
ĠH ong
Ġseem ed
ĠJ r
ĠCap tain
ĠL ove
om ew
Ġco al
19 6
Ġd og
Ġnomin ated
ĠUn ivers
Ġun ique
n es
Ġhor se
Å ¡
ĠIs lands
Ġcon vers
ĠM inn
Ġresult ing
Ġdig ital
Ġs ides
ĠT ay
T A
Ġfl ag
y al
Ġ9 0
Ġb ott
Ġ194 3
Ġtre es
Ġsugg est
Ġorganiz ations
ĠB a
em et
b ec
Ġcre ation
Ġtraff ic
Ġ196 1
Ġp air
ĠP en
Ġt im
ist ance
ter ed
Ġsex ual
uck y
Ġel se
Ġdr ink
Ġl ibrary
Ġv ac
ĠB ishop
achus etts
Ġ urban
Ġim age
ĠJust ice
Ġbeg ins
Ġpiec e
ĠV ill
Ġgirl s
Ġh ar
ĠLit tle
Ġrec on
Ġre ject
Ġvot es
Ġsim ple
Ġs we
Ġ195 6
Ġnecess ary
ĠL ike
ĠD et
Ġs ect
ĠR oute
ĠD am
' re
ĠK ar
Ġrank ed
Ġinstr ument
Ġr ain
Ġconf irmed
Ġdo ctor
row d
ĠR aj
ĠQue ens
ĠCh ild
Ġconn ected
re c
Ġcont est
i ot
form ation
Ġimm igr
a un
Ġmark ed
Ġb ought
Ġch o
ĠE ven
A nd
ĠT ro
Ġbe y
Ġmin ister
ĠMass achusetts
ĠUS A
Ġnorm al
Ġch osen
Ġhappen ed
Ġref used
Ġsc oring
ĠMin istry
Ġallow s
in clud
Ġ193 9
Ġc arri
Ġneed s
Ġclaim s
Ġcont emporary
ĠC z
Ġobtain ed
Ġsl ightly
Ġcol umn
n ce
erv ative
Ġallow ing
ĠD uke
Ġperforman ces
el d
ĠComm on
o h
om s
ap ped
hem at
ĠL ife
Ġrap id
Ġpain ting
ĠD ar
emet ery
Ġcomp l
n ic
ĠH ind
Ġbey ond
Ġconstit u
Ġappl ied
Ġprov inc
M A
ĠJ on
Ġ194 7
Ġdist ribution
est ic
stit ution
Ġp arliament
Ġattack s
Ġex act
adel ph
ĠGu ard
Ġte aching
B l
ĠOff ic
b ourne
ĠPak istan
im s
Ġh abit
w w
Ġ4 4
Ġsucceed ed
Ġs and
Ġche ck
Ġse ats
l ers
ĠB ase
Ġst ock
Ġliter ature
i at
Ġclass es
a wn
ĠH or
Ġbeg in
ĠW ild
Ġl iber
Ġsoft ware
Ġsp ort
Ġc ry
Ġsh all
Ġsc ulpt
d iv
in y
ĠL ady
Ġcons um
Ġ *
u ous
ul es
Ġf ine
Ġpower ful
ĠU l
Ġ195 8
ĠSup reme
Ġg overn
Ġexper iment
Ġn ort
Ġbrother s
Ġf ish
a ug
ĠO k
ĠM ike
Ġsecond ary
on om
ĠL ew
ĠJo e
ĠW ay
ĠM ir
Ġ195 9
ash ion
Ġachie ved
Ġanaly sis
g al
ĠF I
ĠEn ter
Ġofficial s
ur er
Ġfac ility
am in
Ġc ells
Ġdise ase
ĠHigh way
Ġsup ply
Ġass ociation
Ġhe ar
Ġf ought
Ġform ation
se e
ra q
3 6
Ġsit es
olog ist
om er
ĠTh rough
ĠKore a
ron ze
adelph ia
3 8
Ġfe ed
Ġstand ing
Ġ3 2
Ġcom edy
Ġgu ard
ath an
ĠP op
Ġf estival
Ġv an
Ġun able
ĠEx p
Ġocc asion
ĠB ol
Ġb ul
Ġreturn ing
Ġmem ory
Ġmag n
ĠG h
Ġex tend
v is
Ġhold s
Ġacc ident
r ig
ĠF ar
Ġ3 6
Ġconc ert
n el
Ġ5 00
Ġbr and
ĠC op
Ġinj ury
Ġchall eng
Ġro of
Ġlaun ch
ĠO nt
g g
ĠJe an
Ġc aught
Ġcont ain
ĠB ell
ĠN ether
Ġmeas ure
ĠTor onto
ĠAl b
Ġd ial
Ġfig ures
Ġcomm ittee
Ġw ays
Ġapp arent
Ã¡ n
Ġunder stand
ĠBr idge
Ġheadqu arters
ak h
ĠSwed ish
out heast
ellig ence
ĠS her
ĠA k
man n
Ġreport s
Ġvers ions
w estern
ĠRev olution
ru it
ĠR el
ĠW at
E C
ĠSpec ial
ĠSt adium
ĠHar v
Ġ195 7
Ġphil osop
i h
w ater
Ġext ra
Ġg one
Ġadv anced
ĠL ibrary
ĠD un
ĠP ress
M S
Ġdesign ated
Ġauthor ities
re al
ĠH un
Ä ±
Ġact ress
ĠProg ram
Ġrel atively
Ġm is
anc ing
ĠG ame
Ġrest aur
Ġexist ing
ult y
g n
ur d
tal ion
Ġc ode
Ġdef ined
Ġtr ains
V D
Ġs ons
ĠN etwork
Ã ¸
Ġl ake
Ġwall s
pt on
Ġport ion
Ġpro ceed
ĠPol ice
f l
P A
Ġj ourn
igh th
Ġtow er
u er
Ġscient ific
ĠSever al
ĠOx ford
ĠF le
Ġsle ep
Ġthem e
im inal
chest ra
ĠCon f
ĠAir port
ĠPhil adelphia
Ġanim als
3 4
ĠOnt ario
ou red
Ġauthor ity
Ġconf lict
Ġf ans
3 9
ac ement
o es
id ay
Ġsurv ey
Ġsub s
F C
Ġdes cend
ul ed
Ġreg ions
orn ey
ot y
ĠF ox
Ġopp osition
Ġold est
ĠC a
Ġaud ience
el ve
ĠM aster
Ġath let
Ġr ing
" ;
E S
Ġ195 2
Ġmach ine
all s
ul ate
ĠAr m
Ġdis app
im al
Ġbre ath
Ġpart ner
Ġcreat ing
I s
Ġattack ed
Ġinsp ired
Ġst orm
Ġmaterial s
ĠCh ris
Ġed ge
Ġsaf ety
it ors
Ġfrequ ently
Ġro b
ast y
e ed
ĠEm peror
Ġey e
Ġfound er
Ġent itled
ĠU r
se x
ĠCh air
Ġy ellow
3 7
ĠSant a
Ġw ond
Ġ195 5
Ġarrest ed
ĠR od
ĠL im
con t
w ing
ĠAtlant ic
Ġs un
Âłm m
ak ers
Ġt al
Ġbro wn
Ġvill ages
Ġele ment
Ġph one
ĠF air
Ġb ill
Ġtem ple
Ġa ired
Ġfl ood
Ġact ions
Ġas pect
Ġ194 9
ĠS us
ĠB udd
Ġ6 4
ĠN az
Ġg overnor
ig g
ov a
U n
Ġe c
ip ped
Ġad vert
er land
ĠK r
ri f
ell er
ĠV en
Ġsc ript
Ġwin ter
if ically
ang ing
cent ury
Ġk ick
Ġcrit ics
Ġcover s
ĠM ain
Ġdist ricts
Ġfoc used
w ise
ĠRep resent
Ġsh ut
v in
ĠI raq
ĠFore st
we ight
ĠReg ister
ĠN ations
ĠS pe
ĠK el
Ġet c
Ġattempt ed
ĠInd epend
Ġch ance
Ġwind ow
Ġag o
Ġd aily
Ġsh ared
j i
Ġvis ited
Ġsix th
s m
Ġ iron
Ġ Î
Ġprincip al
ĠG i
Ġcomm ander
ou ri
Ġ195 4
Ġprot ection
4 7
Ġlo an
Ġs urn
d a
ik i
Ġt all
ĠA ff
ĠIn tern
w orth
ĠNether lands
Ġgu est
ĠS ports
Ġc old
ĠB and
Ġchair man
Ġsy n
ĠWil son
Ġv en
Ġtown s
Ġal t
ĠH ay
ĠSer b
Ġw arn
Ġc ert
ĠCast le
Ġset s
Ġc rowd
b ro
Ġpro f
Ġun known
Ġav oid
Ġr ough
ĠU N
ĠCol on
Ġattempt s
re p
are t
Ġro yal
Ġthe atre
Ġcop ies
Ġ Ð
Ġstreng th
1 00
Ġhe ight
o is
Ġenem y
Ġ195 3
al so
Ġdeterm ined
Ġpolit ics
Ġm ile
Ġwalk ed
Ġdel iver
er al
Ġwrit e
i ary
il ton
ĠTur k
ĠD ue
Ġb illion
ĠBet ween
Ġill ustr
os l
om ot
v an
Ġar ts
te xt
Ġex change
Ġem ot
Ġ< /
Ġcomb at
ĠHist ory
Ġesc ape
L A
Ġneighbor hood
Ġm ine
Ġterm in
f riend
Ġcle an
Ġh our
er b
ĠH ome
Ġf resh
ĠTay lor
4 8
ograp hic
av el
l aw
ĠN ic
he im
Ġset ting
Ġeffect ive
Ġpro s
Ġro t
% )
Ġadv ant
Ġpublic ation
Ġpiec es
Ġc art
a ver
ĠMar c
ut ional
Ġfield s
Ġag ent
Ġst arring
ĠMar sh
Ġw arm
hed ral
Ġb ass
Ġdep end
Ġoccup ied
Ġre ady
Ġexp ress
oth ing
ĠKore an
ann a
ill ing
Ġemploy ed
Ġsubsequ ent
ĠSwed en
ĠPrem ier
Ġs udden
as y
Ġany one
E R
Ġrefer ence
Ġcr ime
rup t
ĠM un
Ġdoes n
Ġch oice
ĠInd ust
Ġpromot ion
Ġhigh way
Ġconsist ed
Ġhot el
Ġperform ing
ren ce
Ġmethod s
Ġex clus
ĠL oc
ur ance
em an
ig en
ĠC ub
se y
Ġl aid
H L
Ġres c
Ġdist ingu
st ead
Ġre asons
Ġ _
Ġappro ved
ĠT oday
Ġshort ly
Ġexist ence
Ġte le
Ġport ray
Ġre act
Ġfund ing
l an
Ġopp osed
Ġb ud
ĠCz ech
Ġlearn ing
st ruction
Ġwr ong
Â ²
ph as
b u
is f
Ġair port
Ġpre par
Ġres ources
Ġfl at
Ġrece iving
Ġv on
Ġ195 1
Ġext ensive
Ġsp ect
ĠOn ce
5 5
Ġnot es
Ġseem s
d d
Ġbase ball
ĠA ut
Ġent rance
ĠB ir
ĠAnt on
Ġs omew
ain ts
es h
or ph
ĠTh ough
v est
Ġel imin
ĠM ov
ly n
Ġ19 18
ĠE nd
Ġvehic les
C O
rop ri
3 1
c ome
iqu es
S p
ĠP ers
ĠA h
Ġh arm
am m
idd en
an z
Ã© e
ĠB h
ay er
Ġhe ro
ĠReg iment
ill ery
Ġeconom y
ĠN ick
Ġend ing
ĠH al
Ġvoc al
u ct
Ġweap ons
ropol itan
Â °
Ġgl obal
Ġformer ly
ĠE conom
ĠN ight
Ġval ley
ĠL ight
Ġneg ot
an th
Ġlet ters
ĠBr ad
ra ham
Ġcommission ed
ĠAt t
I A
4 9
ĠE p
Ġcal c
Ġback ground
Ġf aced
Ġbas ic
ly wood
ĠH uman
wh ile
ĠOr ig
M y
in th
ĠSte ve
ĠBus iness
ĠMed ia
Ġ193 6
Ġn ob
Ġend s
ĠD ie
c hers
d r
Ġent ry
ĠAdd ition
Ġk il
Ġvehic le
Ġsp ok
Ġ |
Ġ( ;
l s
ĠE arl
ĠAth let
Ġgun s
Ġdem and
Ġa head
' ,
Ġ193 8
ĠTechn ology
p et
Ġsk in
Ġexp ansion
4 6
Ġsurn ame
' .
ĠBe ach
Ġf ear
ure au
Ġ â
ĠTown ship
ĠG reg
ĠComm and
3 2
Ġcont rast
Ġartic les
in er
Ġcall s
i enn
ĠK ir
Ġinv ited
ĠT ra
a is
ĠT al
Ġeas ily
im ens
Ġwe alth
Ġex ecut
Ġfound ing
ĠG irl
Ġp up
Ġd ipl
ot hes
Ġinh abit
Ġ ign
Ġv irt
Ġread ing
ĠCommun ity
Ġcast le
Ġre ar
ak ed
Ġp age
Ġs ought
b ell
Ġon es
Ġle ct
B ill
ĠAre a
Ġfind s
ades h
st ream
g est
Ġevery one
Ġsy m
os a
Ġconver ted
ĠT ime
Ġa uth
Ġarchitect ure
Ġfav our
ĠU s
Ġapplic ation
A ll
Ġengine ering
ol n
ĠMex ican
ĠDav is
ĠReg ion
ĠStep hen
Ġperman ent
Ġland s
ĠR om
Ġinstit utions
ĠOr gan
Ġdef ense
og ue
ĠC ult
Ġv ent
ul s
ĠW alk
Ġmax imum
ow nt
out s
Ġk iss
um es
ĠG en
Ġheav ily
ony m
ĠCol or
Ġcontribut ed
ĠAb b
ĠH an
Ġoffic es
os ite
Ġplann ing
ock ed
ĠT enn
ĠMount ain
ĠE s
Ġext rem
Ġdocument ary
m outh
sk y
ann ing
Ġpass ing
ag a
am ing
Ġp ull
Ġ3 8
Ġm ist
Ġworld wide
ĠR h
Ġcanc er
Ġcons ult
Ġabandon ed
Ġd ry
Ġhead ed
os h
c ow
ut ies
Ġinst ruct
re es
Ġr ise
Ġretire ment
Ġcent uries
ag an
T hat
Ġro w
ĠAd ministr
Ġim pl
Ġcont aining
Ġspe ech
Ġ ...
iv als
Ġsh ape
or row
Ġr acing
Ġim ag
ĠAr thur
n s
ĠN A
Ġocc urs
Ġsecond s
Ġopportun ity
ĠL ind
ar ia
ĠM anc
ra h
Ġs ac
Ġre aching
Ġgr ade
Ġpre fer
Ġf uel
ĠB ad
es ter
Ġref ers
Ġw rest
inn ers
ip e
Ġl oad
CA A
Ġaltern ative
S c
Ġact s
or gan
re te
ĠF urther
Ġpow ers
Ġdevelop ing
Ġm igr
Ġult imately
Ġb es
Ġprov ed
el le
writ er
Ġper fect
Ġh un
ĠT est
er ick
ĠS ab
ĠSh ort
Ġbro ken
ĠO b
Ġtr ail
Ġo x
h r
in son
Ġent ertain
ĠW ell
Ġsuccessful ly
ĠS om
Ġcl imate
ĠC irc
ĠMar ia
Ġc as
os is
Ġcont ained
Ġocc as
ur ches
Ġw orth
ĠM P
Ġconn ection
ĠP ower
ĠF ord
um s
Ġh ope
Ġbo at
ĠFranc is
ĠSt and
Ġentire ly
for mer
us es
ĠUp on
ĠPri or
Ġprop os
ĠP o
ĠOn ly
Ġ3 4
Ġloc ations
Ġem phas
e lect
Ġ17 8
Ġmin ute
D S
Ġpil ot
Ġproper ties
Ġ193 7
U S
id ers
ĠInd ones
Ġstruct ures
Ġrepresent ing
J o
ĠIn t
ĠL t
ĠJ er
Ġb odies
m es
Ġfin ishing
Ġord ers
Ġdef end
ĠAmeric ans
l ong
ec e
ĠR oss
ĠAl f
Ġder ived
l ife
h ire
a ud
ĠW el
Ġcaus ing
Ġmet res
ĠK im
Ġth row
Ġfle et
O S
ĠLeg isl
Ġfund s
Ġexp ression
Ġgener ation
Ġd ream
ĠBro ther
Ġexper i
Ġ19 19
Ġa ware
Ġf illed
Ġposs ess
Ġstart s
Ġequ al
p ool
Ġhe at
g ment
z en
Ġm el
Ġident ity
m un
P S
ĠFor m
Ġfun ctions
we gian
' ll
Ġqual ified
uc cess
ĠChap ter
Ġap art
Ġste el
Ġad apt
ĠPri ze
ĠPro ject
Ġly rics
Ġ rom
Ġsw im
Ġfeel ing
Ġ3 3
Ġtemper ature
ran ch
ar ry
9 9
' ve
achel or
Ġanim al
Ġpl ot
ĠMel bourne
ĠAb out
Ġpol ic
ĠE very
ĠP it
Ġide as
Ġs ust
ĠMar g
Ġmult i
ĠSl ov
ĠJew s
ĠSpr ing
Ġclos ely
Ġtw elve
Ġbott om
Ġtouch down
ag h
Ġpr ice
Ġcomp ar
ol ished
ĠChrist mas
Ã £
ĠSund ay
Ġdec ades
ĠBar b
a fter
Ġth ick
Ġjud ge
Ġdom estic
ĠD VD
Ġsupport ing
Ġs ave
Ġexp ressed
Ġhum ans
Ġn arr
Ġcor rect
Ġt or
ĠD or
Ġinflu enced
ĠJ ournal
Ġ3 7
Ġst adium
e ke
az e
ĠF ederation
A R
ĠSqu ad
ind er
ap ore
Ġ191 7
ĠHol y
ĠG ro
ĠK han
Ġvol ume
Ġtechn ical
t ical
ĠCh annel
ad er
ian g
4 4
Ġdr iver
ĠLew is
Ġdec or
ĠMed ical
im ents
Ġform al
i i
ĠB or
re f
Ġband s
Ġde ploy
Ġcy cl
ĠJ unior
Ġop in
Ġincorpor ated
Ġrequ est
Ġprog ress
Ġg ets
pl ace
ap es
Ġcall ing
ĠK al
Ġsp oke
Ġb ronze
ĠH art
ĠF ire
ĠMos cow
Ġr ival
Ġre in
ĠTr ust
Ġmaintain ed
% .
f all
Ġmay or
Ġh ired
c ious
ĠL et
Ġgr ad
ĠB alt
Ġmot ion
ĠB arn
ĠN ap
Ġinc ident
le ts
ĠAn th
ĠS ix
inc oln
L a
Ġpartn ership
Ġf ashion
Ġqu ant
Ġd iam
Ġs ector
Ġfail ure
Ġn eck
Ġeng aged
Ġhy dro
Ġappoin t
tr ack
Ġboy s
Ġim pr
ĠS av
ak i
ak s
ole c
Ġalleg ed
Ġhy p
Ġtown ship
Ġopp osite
Ġ193 5
ĠN ative
Ġg all
r im
ĠJes us
Ġnucle ar
ĠTh us
ĠK at
Ġquest ions
Ġregard ing
Ġun f
ĠW ars
Ġc ru
Ġmy self
u ation
I C
ant ic
Ġd ress
w ick
Ġeduc ated
6 5
ĠNor wegian
Ġch ose
ĠT a
Ġtr ained
ĠE P
Ġ191 4
Ġestablish ment
ĠP ier
Ġrepe ated
p ur
Ġeduc ational
A F
Ġrelig ion
Ġmer ch
Ġsc ale
ĠCam bridge
Ġcateg ory
Ġeven ing
Ġag ed
Ġimport ance
Ġkill ing
ab ad
Ġre ign
Ġs ail
Ġcerem ony
oc ese
e qu
Ġcompos er
Ġsched uled
es ota
Ġaccomp an
Ġres ear
ĠCount ry
ĠNor way
Ġliter ary
Ġarg ued
ĠGold en
ac ent
Ġinter s
Ġso le
ues e
Ġinvestig ation
Ġintern al
ask a
Ġun cle
Ġobs erved
Ġbr ain
ĠG er
Ġbrief ly
ke ep
Ġposs ibly
Ġpass es
en z
ĠT ony
ĠJac ob
Ġk it
b ut
ĠL abor
Ġw itness
ĠSt ock
Ġph ase
Ġsupp osed
Ġf olk
Ġf aith
Ġvol unte
Ġprogram me
ow a
Ġmerg ed
ĠS u
Ġ )
am i
Ġcons ecutive
un ch
19 5
f ather
Ġa id
Ġproduc ing
Ġslow ly
ĠWe ek
Ġspec ifically
es c
ik a
Ġm oth
ĠB all
Ġinst all
ĠPhil ip
Ġdec re
Ġ193 3
Ġres igned
ver se
Ġstand ards
und er
ownt own
Ġd rop
Ġrecogn ition
ur ation
ost er
Ġa st
Ġenvironment al
Ġh ur
ĠM ilitary
Ġle gend
Ġper haps
Ġpat ients
ĠP ass
ord ers
ot ic
ĠManc hester
Ġviol ence
ĠViet nam
Ġpromot e
Ġbeaut iful
Ġvot ed
Ġsk ills
Ġ3 00
y o
ĠMinn esota
Ġpol y
Ġthink ing
our ce
Ġhom es
Ġst ating
Ġexp ect
ĠP ope
j an
Ġ19 00
re ll
l ines
Ġinhabit ants
ĠG il
st ate
ĠK ansas
ĠSt one
ĠSing apore
Ġindepend ence
Ġm arg
ĠS em
t hen
Ġm ent
Bill board
Ġb rick
p son
Ġ192 9
ĠD er
Ġst ret
Ġimpro ve
ĠWh it
w ich
Ġin aug
Ġcollect ed
C l
ĠB i
ĠQueens land
Ġreg istered
ĠPhilipp ines
al o
Ġpasseng er
ĠLe on
Ġg ain
ĠMem orial
er ts
ons in
ĠB ureau
9 5
us hing
Ġsc enes
ro c
ĠT ok
tain ment
ut ation
Ġbehav ior
ĠH ou
Ġvis ual
Ġfound ation
Ã º
ĠC ape
ĠL incoln
Ġjoin ing
Ġlearn ed
isc onsin
li est
ĠC ensus
ĠSc iences
el ess
ess ee
Ġsm ile
Ġc up
Ġrepresent ative
Ġstri ke
Ġcandid ates
ĠCl ark
Ġregard ed
Ġem p
Ġstat ement
reg on
Ġf ram
Ġbel ief
Ġc hest
ĠSim on
Ġro se
Ġwe ather
ĠT urn
Ġlim it
ĠMal ays
Ġre ality
Ġs an
Ġinst alled
k ing
Ġd oll
as hed
he red
ĠT ai
Ġ192 8
ate ur
ĠC as
ĠJan e
Ġ193 4
ĠH o
Ġshe ll
Ġs ell
Ġcl in
Ð µ
Ġadvant age
Ġc atch
ac ter
Ġprogram ming
Ġc ore
Ġneg ative
Ġtri p
Ġclass ical
Ġn or
b oy
ĠMiss ouri
Ġwould n
ut s
Ġjournal ist
Ġf at
is a
Ġsign al
ĠU t
Ġsaf e
ĠStud ies
Ġstand s
Ġconclud ed
Ġview s
Ð ¾
ĠB ru
Ġcompet e
ĠV o
k es
ĠS ri
it i
ĠN CAA
iv ered
ĠMr s
Ġj unior
Ġemploy ees
Ġeth nic
Ġl at
ĠW isconsin
Ġchem ical
ĠMill er
S R
il ation
tern al
Ġd ates
Ġs ort
Ġ4 8
Ġturn s
Ġbud get
ĠE th
Ġact ual
T C
7 6
ĠLab our
ĠG ab
ic i
w here
Ġc ool
ivers ary
Ġbird s
Ġex erc
um in
ick s
Ġprote in
7 8
ĠAust ria
Ġimpro ved
Ġinter act
ĠF ree
Ġv ice
ect ive
Ġexhib ition
Ġdescrib es
ĠL o
S P
ec ution
Ġtr uth
Ġadv ance
ĠF inal
Ġr ich
Ð °
4 2
ĠColor ado
Ġclos er
ĠPortug uese
Ġtrans form
ĠB os
Ġar med
Ġsurv ived
ĠTur key
ĠW eb
Ġre action
sp ec
ĠF inn
Ġsub stant
Ġcontroll ed
z ona
ĠF ellow
Ġh ockey
g ers
Å «
ĠTenn essee
Ġprofess ion
ĠC ab
ĠAd am
Ġleg s
Ġm ort
Ġsup por
ĠBar on
Ġgradu ate
Ġconsist ing
Ġland sc
Ġ191 0
om ing
ann ed
Ġk id
Ġfl u
Ġeng ines
Ġlead s
it o
ĠR ose
Ġ15 0
Ġ ille
Ġh ill
Ġs ale
Ġcaus es
Ġplay off
for c
Ġstay ed
6 6
Ġsing ing
Ġcon sequ
ism s
Ġad ap
itz erland
H ow
Ġwat ers
Ġgreat est
or i
Ġit ems
Ġinit i
Ġdet ails
Ġemer g
ĠM unicip
ĠN FL
ar o
Ġ7 5
Ġd rawn
ent ially
Ġpaint ings
Ġ4 9
k ed
Ġh uge
Ġoper ate
Ġloc omot
ĠO regon
Ġd raft
Ġfre edom
Ġcost s
Ġansw er
Ġmat hemat
r un
ĠH ard
Ġ192 4
Ġco oper
Ġinter ested
ograp her
Ġg od
Ġcor por
Ġv ir
Ġ4 00
ĠV ice
ĠM att
ĠW inter
at tle
Ġaff ected
ra it
D A
Ġpoet ry
Ġrul ed
Ġexp ed
ĠP oint
4 1
ĠIndian a
ĠT en
ĠG ord
ĠPl aces
Ġcr iminal
Ġw ins
and y
Ġw ings
Ġfl o
ĠR on
o oth
. âĢĻ
Ġ193 2
Ġshow ing
ubl in
Ġsol id
ag ues
f e
ad ow
ĠTurk ish
Ġprep ared
Ġval ues
ĠHar ry
Ġd ie
Ġf lying
ĠMary land
ĠSt at
Ġd uty
g or
Ġselect ion
Ġinj ured
Ġpar alle
un a
clus ion
ĠAff airs
Ġsymb ol
Ġdr iving
ell o
Ġcour ses
Ã£ o
Ġobject s
an es
ut her
ĠLiber al
Ġc ricket
Ġdis miss
b ox
ant on
z z
Ġreb u
Ġrem ark
l ig
Ġapplic ations
Ġj ur
ĠB ah
Ġ192 2
Ġpick ed
Ġpra ised
Ġus ers
n ight
ock s
el er
adu ate
Ġres erve
ol i
Ġs oul
Ġinter ior
iv a
Ġinter ests
Ġb le
ĠO cean
Ġexpl ained
in ally
ol is
Ġparticip ate
ro ke
Ġre duce
Ġwe ak
ĠTem ple
ĠW rit
al ty
Ġroom s
Ġad mitted
Ġa x
O h
or age
olog ies
Ġfact ory
Ġpict ure
ed ing
Ġp ool
Ġpurch ase
Ġen roll
ĠSw itzerland
Ġr ugby
Ä «
ĠN iger
Ġ192 7
Ġste am
own ed
Ġtechn iques
Ġ id
Ġb ond
Ġregular ly
as ure
Ġf iction
Ġstre ets
over ty
ĠMc G
Ġass ess
at ures
Ġeas y
Ġm and
Ġd ivers
om y
e ast
ĠF er
Ġroad s
Ġsy nt
Ġf ranch
Ġqu iet
ĠA uthor
ĠA st
Ġnort heast
ic ide
angu age
Ġres erv
ĠD u
Ġag ency
Ġ193 1
ol as
Ġjourn ey
Ġh ors
Ġc rown
s pe
Ġear liest
Ġcomb ination
ĠAri zona
Ġtr uck
Ġgr ass
Ġdipl om
Ġch ain
Ġass umed
ĠInf antry
Ġtyp ical
M ar
go ing
Y es
ĠEx ecutive
ic it
ic ians
Ġst ores
Ġacc used
Ġ192 1
Ġsh if
Ġres idence
j e
b ar
Ġbu y
Ġoper a
ac he
ĠG ram
Ġ191 2
T r
ĠB on
8 5
eke nd
ook ing
Ġperson nel
Ġwe b
he astern
h ist
S he
Ġground s
7 7
Ġagricult ural
Ġdist ributed
Ġwa iting
Ġwind ows
Ġad vent
Ġim ages
Ġinv asion
em ic
Ġdev ice
ĠMan agement
Ġt ick
Ġshe l
Ġunder standing
ĠI d
ĠY our
Ġcirc um
Ġn ick
includ ing
Ġac id
ĠJ am
l ah
ang a
Ġsubs id
ĠHam ilton
Ġt ropical
are n
ĠI V
ĠHow ard
Ġr aid
Ġkil omet
Ġcomm it
Ġf ly
gh an
Ġadj acent
Ġintro duction
ĠJ ess
Ġmic ro
Ġun us
ĠM ember
ord an
Ġrev olution
Ġgr aph
Ġc od
Ġsect ions
ĠMed al
ruct ure
Ġbene f
Ġm ap
ĠF M
ĠMag azine
Ġmiss ing
Ġco ordin
od ox
Ġres istance
ĠJ ay
Ġcon vent
ĠB eng
Ġf it
Ġdesc ript
Ġatt ached
ter m
ot o
Ġg arden
Ġdiffer ence
Ġsup erv
Ġcom ic
Ġanc est
we alth
omm od
ĠIslam ic
Ġcarry ing
Ġ192 5
ĠR oy
S o
Ġpremi ered
Ġp ione
Ġis lands
Ġcomm itted
het ic
ĠB urn
Ġs elling
Ġ3 9
he me
Ġn odd
ur day
Ġmusic ians
ĠBrig ade
Ġext ension
Ġt ail
ang ed
ĠFore ign
Ġhistor ian
ĠAl i
Ġwrit ers
Ġexperi enced
ĠD own
ĠN ich
Ġg ene
ang es
ĠSec urity
ĠAr men
Ġj azz
as er
ĠSw iss
qu es
augh ters
A s
ĠCro at
Ġoper ates
Ġbusiness es
ĠTe levision
ĠW y
Ġ192 3
ĠD omin
Ġturn ing
Ġconstitu ency
Ġwat ched
p oint
Ġequ ival
ik h
v ant
ĠB ab
Ġtri es
ang ers
Ġ191 5
Ġrem ov
ĠSqu are
Ġsevent h
ĠSt aff
Ġb an
az a
Ġpain ted
Ġshould er
Ġ191 6
Ġch urches
D o
Ġlic ens
Ġmed ium
ĠMe an
el ine
I T
Ġdebut ed
d am
ĠJo h
ĠR ural
Ġmess age
Ġe at
Ġ :
ĠT s
I N
ĠServ ices
Ġgood s
il st
Ġsm iled
ĠS um
ag u
Ġdec ade
Ġcharg es
Ġexam ples
ĠG ib
Ġengine er
ĠAb d
D P
Ġrail road
ĠEngine ering
Ġ192 6
Ġdesign s
Ġsub urb
Ġcharg ed
duc ing
d on
/ /
Ġun iform
k h
Ġexp and
ĠUkr ain
Ġrepl ace
Ġdel ivered
anc hes
ĠO t
ic ial
Ġf ired
ĠH ur
ĠEar ly
Ġbig gest
Ġen l
ĠWal ter
Ġextrem ely
r ac
Ġis ol
ol t
Ġnorth west
ab led
ĠH ere
Ġsec retary
Ġadv oc
B e
Ġr ating
app ing
ĠPal est
Ġother wise
Ġv o
Ġtr a
Ġw ave
Ġthe at
Ġe gg
Ġpresident ial
Ġphilosop hy
ug ar
Ġm ir
Ġreject ed
Ġz one
ĠMar ine
ĠL es
Ġpro ced
ĠL ieutenant
ĠD al
Ġwa it
E l
Ġcapt ure
Ġreg iment
Ġpol l
ie val
Ġass ault
ic ate
ro it
ĠDie go
enn y
ĠBu ilding
Ä į
ann y
Ġw ounded
res ents
ĠTrans port
ĠGre ece
ĠPr im
Ġdeterm ine
u v
Ġhead s
Jo hn
Ġnot e
ĠRe view
ĠAn ne
ĠFor ces
ĠL ow
Ġcomp osition
6 8
ĠT el
Ġs now
ĠB rian
Ġteac hers
claim ed
a ired
Ġacc ommod
Ġthous ands
Ġacc ur
ĠR em
Ġbat t
Ġde leg
av ia
Ġsp r
og ether
ĠP ot
ĠF ame
ĠKent ucky
Ġf ing
Ġnot ably
ĠF ront
Ġt error
Ġdam aged
ch ing
Ġown ers
se ason
Ġdeg rees
r ine
wh o
Ġres emb
ĠEnter tainment
unn el
ĠN aval
Ġsit ting
Ġp iano
Ġp ed
Ġlook s
Ġs ession
Ġmar ine
ĠAnd erson
ĠDou gl
ĠP a
ag en
Ġhapp y
ĠM it
ĠHol lywood
: //
ĠIsrael i
ĠZ h
Ġd rew
ĠK ey
ob e
ĠO ak
Ġm o
at ically
ĠD iv
Ġpurp oses
4 3
Ġcour ts
Ġpri ze
Ġpri est
Ġw ants
Ġsepar ated
Ġpasseng ers
Ġarr ival
Ġdep th
Ġc inem
Ġrep resents
Ġint elligence
ĠSquad ron
Ġb ag
Ġresident ial
ĠIntern et
Ġdis pl
Ġelect ronic
ĠK a
Ġaccompan ied
ĠHe art
Ġr ub
b urn
ĠF amily
the w
ay ed
ĠCol omb
Ġrel ief
ĠBow l
ĠH ockey
Ġb ot
ro t
ĠR en
Ġdoc uments
Ġst y
ĠA ud
ĠHou ston
ĠL ist
Ġref uge
Ġsur g
ar on
or ry
ist ol
Ġwood en
ĠI S
ile y
ĠD ur
on ly
Ġrac ial
Ġp overty
Ġfind ing
I f
t ure
ad i
Ġret ained
Ġapp ropri
p es
Ġstar red
le vel
Ġst ages
7 9
k now
Ã¼ r
Ġp ushed
Ġa w
Ġsequ ence
R C
ars h
Ġs ight
ĠCommon wealth
Ġpl ate
Ġup d
Ġfact ors
Ġco ff
Ġh am
Ġus er
Ġchall enge
ĠR a
R e
ill er
Ġs ed
ĠAr k
Ġobs erv
ĠV is
Ġd uties
Ġnodd ed
ast s
o a
Ġrespons ibility
Ġvoc als
ĠN at
Ġcon qu
ren e
ĠMiss iss
en h
Ġm olec
arg o
Ġren ov
ĠAddition ally
us al
ing ly
Ġcap able
Ġlaw yer
ĠIm perial
d ale
ĠW olf
ce ived
ĠPat rick
Ġcollabor ation
Ġshoot ing
ĠDo ctor
_ _
ĠSen ior
pp er
Ġte en
Ġover l
ĠA D
ĠBel g
Ġfix ed
Ġinvest ment
Ġcr is
ĠMay or
Ġsat isf
iam i
ĠB uck
ĠAll en
Ġin her
Ġdo ct
ĠCol l
ĠF und
Ġcred ited
ĠK u
d es
Ġb ishop
r um
h us
ipp i
ĠHot el
ĠConn ect
Ġsee ing
Ġv ary
ĠA le
ĠE ric
8 6
Ġtrans ition
Ġreturn s
Ġn one
ust ed
Ġrest ored
St ar
ĠS ound
ĠReg ional
Ġres ign
ust er
Ġth irty
Ġcommun ication
d o
ĠH ans
ĠQue bec
om pl
ÃŃ a
st an
Ġstep s
Ġfr ame
Ġpers ons
p o
d i
ast e
th odox
u ly
ĠRe al
Ġret ail
Ġman ner
cept ion
Ġrec ip
ĠF arm
P r
Ġv eter
Ġhelp ing
19 0
Ġwhe el
ĠH ills
Ġd ating
a ire
os ure
ham mad
Ġenc ounter
Ġh its
ĠL anc
Ġsubject s
ĠUkrain ian
Ġb aby
ĠN ik
ins ula
ĠVill age
Ġ4 2
Ġoffer ing
ex t
ĠFred erick
ĠIn stead
ev in
ĠM erc
Ġarrang ed
Ġm ilit
Ġtalk ing
Ġmembers hip
Ġcover ing
Ġf an
ĠG ri
Ġcomp ut
ĠR oc
rom e
Ġsignificant ly
Ġl iqu
og en
Ġsugg ests
Ġ191 1
ac c
iet ies
Ġinstit ution
ĠChair man
Ġc ous
Ġ191 3
Ġrout es
Ġstr uck
Ġuns uccess
ard ens
ĠA M
ĠB ry
ol es
ind ing
ĠAl ab
Ġg rown
raf ted
k ay
i able
uer to
ĠR yan
Ġren ew
v ements
ĠR un
ĠGord on
ĠLt d
ang el
j o
Ã³ w
Ġhad n
Ġinn ov
ĠR et
og an
ific ations
Ġt ank
ic on
Ġcred it
et ime
b ody
P h
Ġfor g
Ġcritic ized
Ġcontribut ions
ĠD anish
ol y
Ġdefe ating
Ġconv inc
A M
Ġdiv or
Ġs outheast
rent ly
Ġens ure
A P
ĠAdministr ation
ĠArgent ina
igen ous
au x
st ances
n ers
Ġcol our
ĠH ug
p a
Ġcl im
Ġ Ä
Ġw ine
Ġplan et
Ġpopular ity
I V
Ġ189 0
ad s
Ġrestaur ant
Ġj ump
ĠSar ah
ish ment
Ġbring ing
Ġl ips
Ġmeas ures
6 4
ol ly
ĠCl in
ĠD ick
Ġprot ected
av ig
Ġa er
ĠPl an
Ġgr ab
ĠTh ird
Ġem pt
ĠGr ant
ĠCh ile
Ġg ather
ac her
lah oma
Ġfact or
Ġra ise
ĠSil ver
Ġsever e
T S
ĠS el
ĠJ ordan
Ġ5 5
id el
Ġacc ompl
ĠB ou
Ġmusic ian
ĠA C
ic ut
Ġsurround ed
Ġp hen
Ġwe ekend
ĠPri x
Ġpre ced
ĠDet roit
o en
Ġopt ion
Ġexpl os
B I
rel ated
an ed
Ġaspect s
h ab
Ġassist ance
ĠGall ery
Ġflow ers
8 8
M an
ĠD ublin
Ġpubl ishing
ĠDes ign
Ġsouth west
F or
ell ite
ĠAn na
Ġfranch ise
Ġg ang
ĠMo ore
Ġexact ly
Ġinvol ving
ĠCommun ist
6 7
Ġtransl ated
Ġcomp r
ĠSam uel
Ġt ied
ist ant
Ġv ision
Ġcross ing
Ġut il
iss ance
ĠMean while
e lection
Ġclass ic
ĠDougl as
Ġbe ar
Ġcon text
Ġneigh bour
Ġ190 8
Ġve get
Ġrele g
Ġch ampions
Ġpain ter
Ġsp end
er ies
ĠCE O
Ġpolic ies
h ost
aval ry
Ġn aval
Ġd aughters
od ge
Ġcy cle
ĠAlab ama
ĠHarv ard
ĠAd v
f ound
ar ant
ot te
ĠB art
m ers
Ġrough ly
ĠD ave
Ġsomew hat
Ġexcept ion
Ġdef ensive
Ġdiffer ences
Ġmy th
ĠY outh
ĠC emetery
Ġdev ices
Ġdem ocr
ĠI owa
ĠE c
uz z
il k
ĠAl bum
edd ing
Ġinterp ret
Ġarch ae
ĠAnth ony
Ġfac ulty
Ġopin ion
Ġm obile
Ġcom fort
ĠRepresent atives
6 9
e or
Ġw inners
Ġpoin ted
ĠR y
in ch
bor ough
ĠHarr is
ĠMod ern
Ä ĥ
Ġann iversary
Ġthe ater
ĠHaw ai
ĠP uerto
Ġauth ors
ĠL yn
Ġsol ution
in burgh
ĠDe an
Ġrequ ires
T O
Ġb are
Ġflow s
Ġconcern s
ĠChild ren
Ġpl ane
Ġappear ing
ang erous
rap h
ĠV ienn
The re
com ing
um a
Ġmed icine
ĠLouis iana
Ġprovinc ial
Ġschol ar
Ġlegisl ation
b ass
ĠOffic er
Ġsur re
Ġs am
E E
Ġorgan isation
Ġrel ative
ri x
Ġmet ers
Ġmar ry
Ġmin ing
r ons
ĠAf ghan
B ut
Ġinst ance
Ġlink ed
ĠS in
c ar
ĠM and
ĠRail road
Ġr ates
Ġt ur
Ġmur d
Ġfr ag
Ġland ing
Ġwalk ing
Ġfall s
rib ute
over s
ĠT ournament
st ar
ĠSt ew
ĠOk lahoma
ĠR ick
ĠSp ace
Ġunivers ities
Ġcomm une
ĠM iami
Ġadap ted
ĠMat thew
m osp
ĠComm ander
ĠCh art
ĠTai wan
ĠDen mark
Ġt ack
ĠBr un
Ġnov els
hy th
id ges
ĠP ear
ĠOtt oman
Ġr u
ĠJu an
) "
Ġnick n
ĠMor gan
iec e
ĠS on
ot ten
Ġmount ains
Ġhors es
Ġre nt
ĠPh ill
ĠN a
Ġen h
ĠC ost
ĠIn n
i ac
ĠP ict
ĠMount ains
Ġd owntown
Ġthreat ened
cript ion
Ġprot est
us cript
ĠN Y
ĠDep uty
ĠCo oper
ĠBelg ium
. '
el and
Ġreal ized
oy d
Ġphot ograph
Ġking dom
N e
Ġconcern ed
ĠB erg
Ġf ur
ĠW in
Ġimpr ison
Ġbr anches
Ġp apers
hes s
ĠR ey
d ie
Ġsudden ly
Ġsuccess or
Ġcolon ial
ĠT reat
ant e
el son
ĠL ank
ĠMississ ippi
Ġstep ped
Ġbr ig
Ġexper t
ather ine
Ġclass ified
ĠF ive
Ġ( ),
w en
ĠCon stitution
ĠMc K
m m
Ġweek ly
Ġrep utation
Ġbank s
Ġkeep ing
ist a
Ġconst ant
ph one
ĠD C
ĠCon c
ĠP ap
ene z
l ad
p ir
Ġ ]
arn er
ĠK am
Ġmiss ed
ĠG ulf
Ġparalle l
Ġse ed
ĠK arl
Ġachie ve
ĠEd inburgh
ĠB ack
Ġsec ure
ĠE ag
Ġbene fit
Ġspirit ual
c ons
Ġan th
Ġal co
Ġup gr
ĠG erm
ĠMont real
Ġtechn ique
ow ed
Ġchild hood
ĠBrazil ian
Ġadd ing
ard o
Ġmass ive
7 2
Ġpract ices
ĠRober ts
enc ing
Ġaff ect
Ġown ership
Ġexist ed
Ġact ors
W ell
Ġask s
st ruct
O n
im ore
ĠS R
ĠBat talion
Ġf old
ĠL iver
ĠRes erve
pro fit
ĠBase ball
ĠKel ly
Ġpublic ations
Ġwear ing
Ġst orage
Ġthous and
ĠPol it
ĠPal ace
Ġsc heme
Ġdiv isions
ĠN ev
Ġequival ent
G eneral
Ġent ering
e ff
Ġd ies
ĠC are
Ġvict ims
ĠL in
Ġrec ru
ut t
Ġdo ors
ĠTam il
er k
ĠUkr aine
pect ive
Ġso il
Ġform ally
Ġstud ying
Ġrepl ied
el lect
in ian
9 8
Ġte ach
Ġprison ers
Ġrequire ments
ĠExp ress
Ġcris is
ag g
S C
all as
if er
ĠDis ney
Ġref ere
ĠH amp
ĠL ive
ili ar
ĠTer rit
m ate
it er
Ġdep os
Ġprom pt
Ġcar bon
ate ver
ĠOr chestra
ac le
ig ious
Ġpeak ed
amp s
Ġform ing
Ġ x
Ġm ental
Ġtest ing
e enth
u i
ĠAust rian
Ġrepl acement
6 2
ĠR ugby
Ġw et
f rom
Ġg ender
mir al
ĠAl an
Ġ188 0
ĠIndepend ent
ĠC ow
or ia
Ġjur is
ĠSat urday
ĠSe e
s ch
ĠEr n
C on
5 8
ĠPit ts
Ġcam era
Ġpre t
ĠU C
Ġincreasing ly
Ġconsider able
Ġc ards
ĠColon el
d oor
Ġun p
iv ated
Ġcou ples
ac on
Ġfing ers
Ġcoast al
ew ay
Ġclear ly
ew ork
Ġob vious
ĠSh ah
Ġ190 5
ĠConnect icut
ĠMarg aret
Ġhost s
Ġt ie
Ġnot ice
Ġcelebr ated
Ġdecl ined
ĠA ge
ĠAtlant a
Ġtransl ation
ĠWel sh
ĠD ig
D e
Ġf al
ĠN ag
ĠAss oci
Ġspok en
Ġcompet itions
Ġtem porary
as ters
" :
Ġsquad ron
Ġl ose
ur i
ĠE le
E n
Ġadv is
ĠAnton io
ĠA BC
ĠPr in
b al
) :
Ġcomp onents
ĠUn like
Ġvisit ors
Ġover se
Ġind icated
Ġweap on
Ġjust ice
Ġme ets
Ġb ath
Ġear n
Ġstrong ly
Ġap artment
Ġinstr uments
Ġcritic ism
in tend
Ġf ruit
E A
Ġvis ible
Ġf ict
Ġ190 6
he w
um ped
Ġexper iences
Ġconc rete
Ġdi agn
Ġf er
Ġbr ight
Ġchart s
Ġappoint ment
ĠSk y
Ġbe ach
le te
ĠC arn
I P
Ġabs or
ĠL am
ĠI ron
ens es
un es
Ġf ishing
ex p
ĠR ights
ol id
Ġoccup ation
ounc ed
II I
Ġdraw ing
ten ance
ĠLa ure
Ġre nd
Ġwh is
ĠP C
Ġdeb ate
Ġchang ing
M ay
Ġw el
ĠC rown
ĠR ow
vel and
ĠC ru
ĠF A
Ġinflu ential
ol ph
Ġele ven
r at
Ġthe ore
us ing
ĠK evin
t ic
t an
Ġsh ook
m ina
I nd
em or
Ġt ight
P ro
Ġcover age
ĠAlex and
Ġstrateg y
Ġmov ements
Ġcol leg
Ġ190 7
Ġt elling
Ġdes ire
Ġass ass
ĠKenn edy
ĠB an
ret t
Ġr if
Ã© s
ĠLaw rence
Ġexped ition
A d
n old
Ġprocess es
Ġp itch
ĠW he
Ġapparent ly
Ġforest s
ĠC ook
em en
ĠD NA
Ġmed ieval
Ġpl us
Ġman uscript
ĠP hys
Ġ4 1
st ory
Ġd ated
7 1
Ġf iled
c alled
Ġoccas ions
Ġthe rap
ĠStud ios
re hens
t op
6 3
Ġguitar ist
Ġenjoy ed
Ġdep uty
ĠWalk er
Ġspe aking
ĠK az
ed ia
Ġsy nd
Ġh ung
ĠC ass
Ġpo em
7 4
Ġmark ets
ĠPortug al
ĠLiver pool
ĠS port
Ġn ations
Ġann ually
Ġpropos al
Ġher itage
5 9
ĠN ever
Ġac know
Ġwatch ing
Ġlast ed
ĠVienn a
ĠB es
Ġrapid ly
ud i
ĠT rib
os m
ĠH ell
c i
Ġt ennis
ĠCle veland
Ġcross ed
Ġal ive
Ġdyn asty
ĠF il
Ġaccount s
anc er
Ġcho ose
it ter
ĠA y
Ġ190 9
and o
ĠSe attle
Ġass embly
ri k
Ġw ick
Ġvess els
oc ol
ĠMic ro
n i
ib l
Ġsh ore
A m
L C
Ġoff ensive
Ġc ited
Ġin ner
am ic
ĠMet ropolitan
W h
ĠHer itage
b el
6 1
Ġev olution
Ġpro hib
Ġkit chen
Ġqual ifying
pp ing
aster y
op her
Ġsuff icient
Ġwithd raw
ĠE ver
Ġoccasion ally
Ġhe aring
en ch
ĠD eb
Ġout put
ĠY ug
are st
igh ters
Ġfilm ed
Ġtre ated
Ġhundred s
Ġcontin uing
est yle
Ġf il
Ġel der
Ġunus ual
ĠF ern
Ġact ed
er ted
Ġrece pt
Ġg ar
Ġexc ell
ĠTok yo
Ġv ic
Ġmake up
Ġloss es
ĠWh o
Ġsign ing
rib ed
h ard
ig e
Ġev al
Ġw orship
Ġaff airs
C an
r m
Ġart illery
Ġgradu ating
Ġf urn
ĠK ings
rast ructure
Ġ Ġ
Ġpre gn
Ġden ied
ĠLoc al
ĠPet ers
Ġrecord ings
ĠMalays ia
5 2
Ġp ure
Ġass ign
ĠWith in
ĠH op
Ġrepl acing
Ġtravel ed
Ġ urg
ĠLegisl ative
Ġn et
Ġte x
Ġmem orial
Ġpr ime
Ġat mosp
and om
Ġext ens
- -
aw are
Ġattract ed
it als
bre ak
ĠP un
mer ce
ov es
Ġappe al
Ġfall ing
ĠF ac
er on
O R
ĠP ed
ĠAg ency
ĠB ush
or f
Ġto ols
Ġsur f
ĠLe v
Ġsurv iving
ĠL ane
Å Ł
ym n
Ġne ut
Ġround s
ab el
Ġunder ground
ack ed
t own
ĠOper ation
P l
ĠB ud
l ock
Ġbeg un
P C
ĠIndones ia
ĠD ark
0 8
r ated
hip s
Ġint ention
ĠM aur
Ġg rey
Ġne ither
Ġappro val
og y
" "
ĠH and
ĠHis pan
ĠK er
ograph ical
m us
c ing
Ġart istic
ĠCons ervative
E x
ĠO d
Ġvess el
Ġ190 4
Ġcomple tion
Ġsk y
ĠF al
Ġmanufact uring
per ed
Ġpr int
Ġbound ary
Ġp ric
S e
Ġg ate
ĠAll iance
Ġh urt
ĠHung arian
Ġuse ful
Ġl ap
Ġsound s
ĠP ow
ĠM ond
ĠOrig inally
Ġse es
Ã ¥
ĠU pper
ct ic
ĠBe at
ult an
Ġr ivers
ĠRog er
Ġlic ense
h and
ĠBalt imore
Ġn om
ĠS oon
ĠCon vention
0 9
ĠS ud
Ġh at
ph a
ĠN ob
Ġemerg ency
ĠIn it
ming ham
Ġsub mar
rap ped
Ġd angerous
Ġelimin ated
at in
ĠU nt
Ġcompet ing
r ation
le ased
ri p
Ġmag ic
Ġwh ilst
ament al
ant asy
Ġmod ified
ĠT it
Ġm ob
Ġille gal
Ġcous in
pr ise
ĠAl ong
Ġre un
Âłm illion
Ġdescrib e
ĠJ ason
ul ating
ĠDef ense
v ey
Ġr ide
in ction
ĠG arden
Ġsound track
ĠT ar
ĠV ar
g ress
ĠCo le
ess ions
se a
ater n
g un
% ,
rup tion
Ġatt orney
ĠC rit
Ġc rop
Ġw ides
iz on
Ġs ter
Ġl oyal
ĠHon or
ap olis
ĠHung ary
g ow
Ġ187 0
Ġemer ged
Ġamong st
Ġf led
Ġpan el
M P
b ishop
Ġsp ending
ov iÄĩ
ĠB ull
Ġgreat ly
Ġeffect ively
Ġrespond ed
Ġl ists
8 9
Ġt act
Ġw edding
e ah
ĠC all
ĠD a
Ġsuppl ies
ĠS i
ĠL ang
Ġst ress
Ġf est
Ġfrequ ency
ie ge
ĠOr thodox
Ġl augh
ĠJud ge
ĠE vent
b ra
Ġfinal s
ĠR ub
Ġmed als
Ġrest rict
Ġhabit at
Ġcr ash
ĠOper a
ĠAust in
Ġw ish
for ce
Ġmeet ings
ĠR ap
Ġcontrovers ial
7 3
Ġcirc uit
Ġis n
Ġ190 2
Ġinvol vement
Ġequip ped
ĠB eck
or ig
Ġdec line
S S
ĠV inc
Ġed ited
ĠC hen
ĠD isc
ĠM oon
Ġag ree
Ġmon ument
the less
Ġ190 1
ĠSen ator
Ġdistingu ished
Ġjuris d
Ġam ateur
ĠAg ain
ĠL as
f inals
ĠSchool s
ĠM ission
ĠCamp bell
ĠL ower
ĠBang l
O N
ract ion
Ġ5 2
iel der
E T
Ġexecut ed
ĠSing h
Ġchap ter
Ġcollect ions
Ġhon our
ĠM eth
ĠStew art
ell i
ĠConf eder
ĠB uff
Ġfac ing
ĠM ach
Ġvis iting
Ġbatt les
p at
Ġpat ient
Ġ4 3
W ill
ĠCat hedral
ĠR io
ĠP A
Ġsuff ering
p read
ĠD ream
b ach
b i
Ġ1 20
ann e
Ġcoff ee
Ġnorm ally
ar c
ĠNaz i
Ġrecomm end
oss ible
Ġsu icide
Ġdep ending
Ġt one
Ġdr ag
ĠYug osl
Ġnegot i
Ġsh ares
ĠCar ter
ĠN ep
Ã ®
ay an
Ġmin imum
ĠRuss ell
ph ony
ĠPe ace
Ġcount ies
s ec
or er
ĠFin ally
ĠN on
O r
Ġ190 3
Ġswe et
ĠBru ce
ĠFin land
ĠW ard
v o
Ġwhere as
Ġl in
Ġnomin ation
in ations
ia h
w all
5 1
ri ent
Ġmod e
Ġbe et
5 4
Ġcol le
Ġel d
ĠS af
ĠC re
ĠF ather
Ġpr on
ĠCh all
ĠBrother s
ab ilities
ĠN ash
Ġint ellect
Ġentertain ment
ĠN ort
Ġt ests
ial s
Ġex ists
z h
Ġch amber
ĠY an
Ġpen alty
Ġt urb
ĠD yn
gr aduate
ĠAnd re
Ġsw itch
ĠCh ampions
Ġnewsp apers
ap pe
H S
il ty
ĠK y
ĠJim my
ĠFle et
Ġe ighth
ane an
ĠGl as
Ġcontrovers y
ĠAthlet ic
Ã «
Ġdesign er
Ġag greg
Ġrecomm ended
Ġf ile
Ġdisc ip
ĠP ur
Ġelev ation
w ords
aw ay
ĠGl obal
ĠSh an
ok ed
Ġdefin ition
ÃŃ n
ĠThom pson
ĠBroad way
ĠFrank lin
sh aped
ch a
ĠPitts burgh
Ġinf antry
ĠAd ams
ent le
Ġrep ro
Ġfriend ly
Ġrec re
hy l
ĠEn vironment
Ġappro ached
Ġth ro
ĠMark et
Ġmod er
Ġcustom ers
est one
ĠBir mingham
se ud
Ġh ip
m ates
Ġl ob
ĠG ene
ic op
ĠL l
Ġjob s
ĠP as
Ġint ent
Ġinj uries
p erson
c op
ot ton
Ġimmedi ate
Ġgrad ually
5 3
G B
M us
ĠI l
ĠL ith
ĠShort ly
Ġblock s
Ġmiss ions
Ġus ual
le ton
Ġcomp ilation
i ors
ult ane
Ġremain der
on na
" -
ĠAuthor ity
Ġgen re
Ġresc ue
O C
ĠF el
ĠP le
ĠNot able
Âł k
th a
am ents
ĠO p
Ġafter wards
Ġse gment
ĠCh amber
ĠD allas
ĠR ound
Ġcomm anded
Ġvers us
Ġass emb
ĠH it
ide o
Ġgu y
ĠS et
ĠS n
Ġcas ual
ĠMet ro
F M
ĠN elson
is ition
m aster
am an
Ġt err
ear ing
ann els
Ġdon ated
Ġlandsc ape
Ġcomm emor
ĠCh ampion
c m
or us
Ġchampionship s
Ġmat ters
Ġmain tenance
Ġencour aged
Ġportray ed
E D
ĠMar ie
Ġpro port
it ched
ĠLit er
oty pe
ĠLe ban
z o
Ð ¸
Ġunder t
Ġ5 1
Ġparticip ation
Ġpost ed
Ġexpl ain
ĠDon ald
Ġdepart ure
f ire
te enth
Ġwides pread
ĠN orm
ĠH orn
l as
Ġprin ted
ol o
ĠVictor ian
Ġdirect ors
ĠAlf red
Ġtrad ing
ĠSy m
d y
Ġv ast
ĠJos h
hyth m
Ġl oved
che ll
Ġempt y
] ]
ĠWind ows
u y
t ra
ĠMor ris
Ġcomp lic
Ġpret ty
Ġthem es
Ġyoung est
ĠEn ergy
5 6
n oon
ĠMarsh all
Ġmov ies
ĠMic hel
st ic
Ġval id
Ġph r
ot es
Ġ4 7
Ġmarket ing
Ġkn ock
Ġsurg ery
ĠB ible
ath y
Ġelect oral
Ġbo ats
Ġag ents
ĠW right
Ġabs ence
ĠS uch
Ġ4 6
Ġext ent
ĠPat ri
ĠJ enn
Å Ħ
Ġrelationship s
Ġdom ain
Ġn inet
ĠHind u
Ġsurpr ise
W hy
Ã ´
usal em
ĠV ik
ock et
Ġsh r
Ġad min
ĠO ur
Ġdiscover y
ĠB ed
Ġinters ection
Ġpop ulations
Ġel ig
Ġm art
ĠN BC
Ġtrou ble
Ġposs ibility
Ġo dd
Ġlong est
Ġstrugg le
apt ist
e o
ĠJoh ann
Ġc able
ĠV enez
ĠKn ight
ĠT ig
Ġfict ional
Ġr ising
Ġp ale
Ġb low
Ġopportun ities
le ans
Ġcl othes
ou ver
on i
Ġan ch
ĠK it
ur ally
Ġth in
Ġbre aking
os ph
ĠF all
orpor ated
ĠW ol
ĠInd ians
Ġconc erts
Ġsoc cer
u ated
ren a
ĠH old
Ġcl oud
cast ing
Ġy ield
id ency
olog ists
Ġsupport s
Ġchap el
ĠB illy
ar at
Ġc ul
Ġunder st
or g
Ġcent ers
Ġsign s
Ġdoub t
Ġvide os
s uch
c ase
o om
Ġex ceed
at hered
Ġwrit es
ud es
i op
ail and
ĠL ib
ed ed
9 2
ĠUnt il
Ġres olution
Ġsil ent
ĠC BS
u h
Ġperiod s
Ġbenef its
Ġte eth
Ġemploy ment
ĠA T
Ġcol ony
Ġtrib e
ĠL uke
Ġarchitect ural
Ġapp ly
ation ally
Ġdrug s
Ġsat ellite
ĠHe nd
ĠProt est
ĠCharl ie
Ġcop y
Ġland ed
ĠJ ose
st al
ĠIn vest
st yle
5 7
ab s
Ġproduc ers
Ġnetwork s
Ġth rew
ĠIn formation
ick ing
Ġsurv ive
ĠRob inson
so ft
ĠBoy s
ĠS ac
u j
G r
C ol
ĠW hy
Ġinstrument al
m i
ĠA round
Ġatt ributed
b ound
Ġa f
Ġexp osed
ace ae
ann er
Ġdr iven
Ġagricult ure
forc ement
ĠAg ricult
9 6
Ġdiam eter
Ġex ternal
anc ell
Ġmov es
av an
Q u
ĠH aving
ĠM ack
Ġdest ruction
Ġsuppor ters
Ã© t
l on
Ġclaim ing
r in
G A
Ġadapt ation
Ġtransport ation
Ġag encies
keep er
as ant
Ġgrand father
Ġgu ess
Ġhe ll
Ġt unnel
Ġfem in
a uc
ĠBrook lyn
ĠS omet
Ġtou red
ĠOr leans
Ġaim ed
Ġbal ance
al ia
Ġ +
ĠHispan ic
e an
Ġmount ed
Ġpres erved
ĠPro duct
Ġcomment ed
Ġrepresent ation
Ġpass age
om es
Ġstr ing
Ġcl imb
Ġill ness
Ġseek ing
f am
Ġdef ending
Ġcharacter istics
9 7
Ġs ick
Ġcon vention
Ġknow s
Ġven ue
Ġcont ested
m od
or ous
Ġbelong ed
ach t
ĠP ubl
Ġask ing
Ġcreat ive
ĠVo iv
ĠD ak
ĠMur ray
ĠArch itect
Ġadv ice
Ġreg ime
* *
us c
it err
Ġnot iced
Ġst able
Ġadvert ising
ĠH um
as a
Ġpred omin
Ġins urance
ĠK l
Ġsim pl
Ġrul ing
ious ly
Ġbeh alf
Ġdet ail
ĠRoman ia
Ġsusp ended
Ġcompet itive
ĠV ic
ric ane
Ġast ron
á »
Ġcorpor ate
Ġfrequ ent
Ġsched ule
og s
Ġb on
Ġview ed
Ġst rict
Ġt on
Ġcab inet
Ġ189 8
Î ±
Ġer ected
ĠCh and
ĠPrin cess
Ġsent ence
Ġaud io
ĠArk ansas
ĠBe g
ĠI mp
ine a
Ġrecover ed
Ġend emic
Ġpal ace
ob a
Ġliqu id
oun sel
Ġindic ate
ĠA P
Ġsold ier
e h
Ġsubstant ial
m at
ĠGerm ans
ĠÃ ī
ch i
ĠH ad
ĠM ong
Ġdet ailed
ĠPl ace
Ġparliament ary
Ġremember ed
s he
ĠStan ley
m und
ric ted
Ġinf rastructure
Ġcateg ories
Ġfam iliar
ĠG raham
Ġw ars
Ġpercent age
ro ck
ĠDer by
Ġab road
ĠV eg
on ian
Ġev il
Ġclass ification
ĠTr aining
sp an
Ġd ub
Ġrepresent atives
ici ency
Ġdescript ion
ĠNor man
Ġdec ide
Ġclos ing
i est
ĠUt ah
Ġg ro
ĠJer usalem
odes hip
ĠCan al
Ġattend ing
Ġ186 0
iterr anean
be an
ark s
Ġstat ue
ort ed
Ġd a
ov o
ĠSt ev
Âł âĢĵ
ĠChrist opher
rou s
ĠN BA
Ġfif teen
Ġman age
Ġtal ent
Ġident ify
l ik
Ġphen omen
m ont
ĠU E
ĠTh ailand
port ed
ĠF riend
ĠAnd y
Ġgovernment s
Ġdem olished
l ie
ud a
Ġrank ing
p ers
Ġb id
f are
Ġrat io
iven ess
Ġin duct
ĠI b
iv ation
Ġtrib es
Ġc ash
ĠJohn ny
ĠMed icine
d in
l en
Ġcircum stances
appe ared
Ġinn ings
Ġdomin ated
ĠT ower
Ġhand ed
ĠRich mond
ĠEgypt ian
Ġpred ecess
Ġt ort
ĠW rest
Ġplatform s
ter ior
Ġrem ove
Ġmon itor
Ġabs ol
Ġparticip ants
Ġd at
ĠB enn
ĠCar ib
ĠThe ater
Ġthr one
Ġalco hol
Ġre ven
Ġvot ing
Ġoper ational
ĠA ld
Ġwork sh
ĠC her
Ġrank s
Ġdeath s
A t
ri el
ĠâĢ ¢
Ġo cean
Ġl ieutenant
Ġcont ribution
Ġinv ent
Ġthough ts
Ġres iding
Ġh al
Ġsty les
ww w
Ġob lig
Ġce ased
ĠK o
Ġposs ession
ĠCon stant
ĠVoiv odeship
ĠP y
Ġwond er
Ġgu ilty
Ġpict ures
Ġex cess
ig s
anc ouver
is b
ĠJos Ã©
Ġext reme
act ive
ĠGlas gow
and al
c ut
Ġl ie
ĠF ried
ĠVenez uel
Ġmathemat ics
Ġtem por
uss ian
Ġch annels
Ġdeb t
L et
Ġpat rol
og a
Ġassoci ate
ul um
ĠPort land
Ġappropri ate
ch o
ĠMeth od
Ġpo ems
Ġs aved
Ġsp aces
Ġadult s
re ck
Ġout er
Ġro ots
Ġproduc es
ir ation
r ank
Ġsm ooth
Ġto m
r idge
ĠC arm
ĠA R
ist ical
ro v
Ġview ers
it ure
ĠTh ose
ram a
Ġperson ality
Ġbe ating
Ġfle w
Ġspons ored
ge on
Ġterrit ories
à ¸
ĠMov ement
Ġr um
l ater
Ġdef ence
ĠA I
Ġten ure
ĠG ill
ĠBel gian
Ġb orders
Ġprincip les
Ġpublic ly
i Ã³n
Ġcomp onent
Ġcl othing
Ġ189 9
Ġ[ [
ĠYork shire
u able
iss ue
ĠHe b
op al
ĠE qu
op les
Ġdiscuss ed
ĠFI FA
h ow
Ġrele ases
Ġreported ly
ĠM aj
Ġprocess ing
ar th
Ġcharacter ized
Ġb ay
Ġcred its
c ell
st ers
ĠD ub
ĠC er
ĠPh oen
Ġsim ultane
Ġdro ve
ĠR ud
9 4
Ġswim ming
ĠW W
Ġcon fer
act s
Ġrebu ilt
ĠG a
z er
ĠTr ade
ew here
Ġn erv
Ġintegr ated
ĠFinn ish
ĠR ico
W est
Ġbroadcast ing
iv ate
Ġsec ured
Ġdu o
Ġw ire
Ġdesc ent
f inal
Ġn urs
Ġdisc ont
ĠD J
ĠB achelor
9 3
oc a
Ġdisplay ed
rup ted
Ġhop ed
p m
ĠC ra
ĠV e
Ġhand le
Ġconstit ution
n ia
ĠMed iterranean
ĠTreat y
as i
Ġpartn ers
ĠS ax
Ġmerch ant
ĠR ol
Ġar c
Ġrel ocated
Ġfeel ings
Ġscient ists
ĠSim ilar
ous es
h our
inn ed
od ed
ĠI an
ĠWork s
Ġcon j
ab il
Ġg ay
Ġsent enced
Ġconvers ation
ĠBangl adesh
Ġconcentr ation
Ġtrans mission
Ġind igenous
Ġpart ly
Ġburn ed
ĠHamp shire
Ġpart ially
ĠT ob
ĠV ancouver
ĠThere fore
ĠB asketball
ĠD ance
Ġfal se
Ġdec ides
âĢĿ .
ĠM ess
Ġcon greg
Ġcons ervative
ird s
Ġg iant
em ed
S T
Ġfor th
et a
Ġfund ed
ĠFr iday
O ne
Ġt ribut
b ing
j amin
Ġd ual
Ġelect ron
ĠTro phy
b ow
ple ment
Ġbes ide
Ġpar am
Ġapp rec
ij ing
Ġn avig
ir i
Ġhigh light
u its
ĠN ord
ĠDel hi
et ers
Ġfac ilit
Ġpers u
Ġf ill
8 4
Ġh idden
ill o
us k
it able
Ġexperiment al
x ual
ĠMuslim s
h igh
ĠCap ital
N ot
Ġcirc le
Ġin put
Ġvol umes
ĠE mer
M E
Ġafter noon
ĠMil an
ĠGri ff
p ent
Ġresear chers
if ies
0 7
Ġj unction
ĠL uther
Ġtre nd
ĠAfghan istan
Ġle af
I D
Ġmay be
ĠW a
ĠUn it
Ġliber al
ĠHun ter
ĠW arner
ĠGirl s
Ġass ets
M L
Ġbene ath
Ġcol ors
Ġpubl isher
Ġf ab
Ġth ir
ĠEv ans
ĠN eb
ark ed
Ġdown load
Ġto t
Ġfl ash
ĠC hel
Ġdec isions
Ġexpl o
f oot
op es
Ġacknow led
Ġab use
ĠLim ited
ro se
Ġwill ing
Ġreve als
Ġsh ift
ĠR ain
8 7
Ġ189 6
er ia
ĠMot or
Ġav o
Ġun less
Ġpurs ue
arch y
Ġp or
Âł cm
Ġb acter
Ġimp ossible
ang le
Ġchar ity
row s
Ġper mission
ĠBern ard
Ġbeaut y
r Ã©
Ġ189 5
Ġsw ord
ĠW ing
Ġf oss
Ġear ning
Ġf inger
2 000
N C
D r
M C
Ġsett lers
Ġd inner
A b
Ġcontin u
Ġm or
Ġorgan ised
hat tan
ĠN am
Ġcan n
ĠGr ay
Ġaffili ated
art ing
Ġintellect ual
Ġsp ell
Ġrep air
Ġcivil ian
ĠGu y
Ġpremi ere
Ġt orn
as p
ĠD raft
iv an
ener ation
ĠR ena
ĠRoman ian
sequ ently
ĠG or
Ġr iding
ĠPlay er
ok ing
ĠG ary
ĠUE FA
Ġs orry
Ġsynt hes
ĠF itz
ra id
Ġrom antic
ĠE nt
ĠWar ren
atter ed
y t
Ġr ated
Ġgener ated
cl osed
un c
ĠF ood
Ġpro fit
ĠL ud
Ġsuper ior
od a
G ood
Ġathlet es
Ġdeploy ed
our se
ĠN i
rep rene
ĠM ort
Ġdismiss ed
ĠH ud
f olk
z es
Ġ1 000
Ġlim its
ĠM ans
ĠE xt
ĠG on
min ute
Ġco at
Ġs isters
Ġ189 7
ĠThrough out
n et
ir ates
Ġret reat
Ġimplement ed
ĠC ricket
ĠDef ence
erb ai
ĠMad rid
ab out
Ġg athered
ot al
f ast
born e
Ġrun ner
ĠP rom
9 1
ĠB omb
Ġc ook
Ġlight s
Ġput ting
Ġexp ensive
ar an
Ġpat ron
z i
Ġhun ting
ix ed
Ġ25 0
ĠC hem
Ġwas te
Ġimmigr ants
h ill
ag re
Ġprov ision
ĠLank a
ĠG rey
Ġcon clusion
Ġ5 4
ĠM uch
0 5
onym ous
ĠBr istol
ip h
le m
it ual
Ġdiscuss ion
ĠMit chell
Ġunder w
Ġb orough
ĠInit ially
arm a
arg ed
ar v
ĠS A
Ġinterp re
Ġ ur
ĠAn y
Ġf ighter
Ġm al
u gh
Ġopp onents
elect ed
Ġfarm ers
Ġlink s
Ġrest oration
Ġterm inal
ĠA qu
Ġsubsid iary
Ġsy mp
ĠFl ore
ĠSe ven
ĠS hip
ug hed
Ġcommun ications
P R
Ġelect rical
Ġanim ated
ob i
Ġinaug ural
Ġess ential
am o
Ġd im
The y
ĠMu hammad
Ġinvol ves
we et
Ġtour ing
Ġc argo
ur ers
ĠL ast
inc orporated
ĠBar ry
ĠDe ath
ĠPark er
ĠH as
ĠStud ents
end ment
ab et
ĠMar s
Ġp ages
ĠHarr ison
f ielder
Ġopp onent
ĠCharl otte
com mun
ĠR and
Ġgr ave
ĠI v
Ġhousehold er
Ġd rafted
Ġs ailed
Ġth anks
Ġpro ve
Ġjud ges
Ġbusiness man
ĠM i
Ġsol ar
Ġconf used
Ġtex ts
Ġcomp ens
Ġcl ock
ĠSe ason
Ġdep ict
eng er
Ġloc ally
Ġla ughed
Ġtim ber
Ġdes k
Ġc emetery
Ġlicens ed
ĠK on
Ġre venue
Ġrare ly
Ġrock s
Ġm ines
az ines
ond s
Ġsh ock
Ġn inth
Ġr andom
ĠSerb ian
Ġdivers e
Ġlist en
ĠCarl os
Ġprovinc es
Ġprincip le
Ġsuit able
Ġfavor ite
Ġbelie ves
Ġn ose
8 2
Ġst im
Ġsust ain
ĠW here
ink ing
m other
ul u
ĠCommun ications
Ġdoll ars
ĠLat ino
Ġs ugar
ĠN HL
ac re
Ġestabl ishing
8 1
ul i
Ġs essions
Ġvot ers
Ġsp ir
sc ale
ul us
end ar
oc ation
Ġexclus ively
ĠM aine
ĠB aker
Ġhel icop
Ġpre st
ash i
ĠS S
Ġ189 3
rehens ive
Ġrel ation
Ã ł
ing ham
Ġlat est
Ġsp in
ĠSc ient
ĠSerb ia
ĠE U
Ġincre ases
ĠN atural
ĠTe le
f ers
Ġwor st
cast le
st ad
ĠEvent ually
Ġansw ered
Ġch ronic
il er
ĠCon struction
Ġtermin us
Ġcons ervation
Ġman if
Ġfocus es
f ish
ĠM other
Ġrequ ested
Ġisol ated
Ġeld est
th at
ĠBook s
ig hed
ĠWay ne
Ġ188 9
Ġpattern s
z ant
Ġre aches
Ġunsuccess ful
Ġr ib
ap se
Ġcomple ting
Ġto ol
Ġinit iated
ĠF alls
f low
ĠMan hattan
8 3
ĠF ine
ĠArab ic
id al
res ident
Ġlif ted
ĠM all
ug s
Ġexc av
Ġt ill
at on
Ġviol ent
ĠA S
Ġcat tle
Ġconnect ing
ant ed
Ġ5 3
est y
ĠG mina
Ġs ang
ĠAl ice
up er
ĠSt ory
Ġthro at
ĠFurther more
ĠBe ijing
T E
ĠIn s
b les
Ġdr ummer
ĠR abb
ol ar
ĠAz erbai
ag ar
Ġmark s
Ġarg ument
Ġesc aped
str ong
Ġwithd rew
Ġr ig
Ġf itted
oc c
ĠT an
ĠM ason
Ġs alt
gor ith
Ġknow ing
Ġv ul
ĠA rena
Ġ" ",
ann ah
ĠF ace
Ġf aces
ĠCons erv
Ġaut onom
Ġp od
Ġwh atever
Ġ189 2
Ġlow est
b at
Ġhous ed
j ab
ke e
ĠS id
Ġdemonstr ated
Ġim perial
Ġunderst ood
Ġtrad ed
Ġqual ify
Ġscholars hip
Ġshop ping
ĠT ogether
ĠZ one
ĠAd ela
Ġsub t
Ã© n
Ġarrang ement
Ġiniti ative
Ġ188 5
ĠAtt orney
ĠOrgan ization
iv ia
m o
Ġ18 50
ĠR angers
ĠGr ade
Ġtrad itions
ĠRoman ized
Ġl oud
Ġover s
Ġassist ed
ĠCarib bean
Ã¶ r
Ġegg s
B M
Ġ189 4
3 00
ens on
0 6
ĠClin ton
Ġwealth y
ĠB urg
u ction
Ġpract ical
arri ors
b ul
Ġhe ir
ĠM ak
rou d
Ġbelong ing
Ġche ek
Ġw ore
un ct
ĠSte el
Ġm erc
ĠSal v
ĠPers ian
ĠR est
Ġ5 6
h um
Ġsub stitute
ĠK now
ĠTh or
ĠEconom ic
Ġide al
ĠS eb
ĠM embers
Ġelectric ity
Ġtw in
Ġcons cious
it ely
Ġst em
ĠCl ar
ash words
h t
ĠOr ange
ĠBen jamin
Ġgu ests
ĠB aptist
Ġhor ror
Ġthere after
ĠRec ord
Ġpark ing
Ġcontin uous
Ġg olf
Ġcon fess
ĠRe form
ĠC arr
Ġan alog
Ġem igr
inent al
ang ular
umb ent
Ġmarg in
Ġhel ps
Ġl ad
ĠJ ama
I L
Ġsh arp
ic ts
ancell or
Ġindic ates
ĠC art
ĠN ear
gr ade
Ġprefer red
Ġent hus
Ġre ct
Ġt anks
Ġall iance
ĠB ox
Ġrad ical
Ġstrateg ic
ol en
Ġchar ter
Ġstreng then
Ġev ac
Ġgu ide
ĠCommission er
Ġun like
ash a
ĠG oth
ens is
Ġdisp ute
Ġcoal ition
Ġhonor ary
av i
room s
Ġvict im
Ġst om
ic ing
Ġpl ain
Ġmerg er
Ġon going
S m
Ġdev oted
Ġb oot
arri er
ro ph
Ġcoach ing
ĠNich olas
ĠT ol
Ġbound aries
Ġtreat y
Ġbl ind
ĠG un
ĠPr incip
B r
Ġcamp s
le b
ĠNiger ia
ĠSing les
Ġinterest ing
Ġlab our
ĠK an
ĠIs a
Ġ els
Ġmach ines
over e
Ġdomin ant
Ġp ip
Ġal ter
ten se
Ġreg ulations
Ġtrav elled
m aking
R S
Ġg ift
an ing
Ġf ault
ib ilities
ĠAss istant
Ġ189 1
Ġoper ator
Ġminor ity
Ġdec k
le ep
ĠR ic
n ik
Ġsub mitted
Ġf aster
ĠD h
Ġg ross
Ġab st
ĠGre ater
Ġmag azines
uk i
Ġme at
Ġl ying
Ġbirth day
ĠTr inity
Ġem peror
qu ir
Ġsym pt
el ing
Ġind ex
ĠB ra
raf ts
ĠV erm
ag ers
Ġmechan ism
ĠAll ied
Ġels ewhere
Ġsl aves
Ġsculpt ure
ĠCent ury
ĠG et
f ly
D C
Ġsurpr ised
ĠPar ish
ann on
ĠApp le
ic le
ĠP sych
c ribed
Ġ186 5
ĠPhoen ix
ĠHawai i
Ġconcern ing
Ġ188 8
ĠBeng al
Ġv s
Ġpro sp
l ar
ĠPro p
Ġser ial
pl ed
Ġorigin ated
Ġfor ty
Ġp ill
ĠT ib
now iki
Ġnob le
st ance
ĠAbb ey
Ġintern ationally
Ġcr imes
Ġfif ty
Ġmunicipal ities
Ġr itual
m n
ĠO bs
ak ia
ĠF err
Ġrecogn ised
Ġun incorporated
ĠSy ria
0 1
Ġmon astery
Ġsurv iv
Ġmechan ical
Ġst ared
Ġexerc ise
ĠC ry
y gen
Ġgrow s
ep hew
ĠDe ad
az ing
Ġsh ield
Ġgr av
ĠK um
Ġdis appeared
Ġm ac
Ġacc ord
Ġ ;
Ġgu arant
Ġ186 4
Ġinform ed
ir ts
ĠChrist ians
Ġdeliver y
Ġfall en
Ġconf ig
ĠR acing
ĠB ron
Ġdiscont in
ĠS C
ĠStand ard
ĠT un
ĠCult ure
ĠS ection
Ġlocomot ives
Ġt ong
ĠGu inea
ĠN ation
Ġor chestra
ĠTr ump
Ġmanufact ured
Ġconvent ional
ĠGr ace
Ġcom ed
Ġfe e
Ġ186 1
ĠCur rently
Ġal gorith
st ery
ĠS ultan
de f
ĠBr anch
Ġre duction
Ġjurisd iction
Ġkey board
ĠCl ay
Ġearth qu
Ġst uff
w inning
emb le
Ġconnect ions
N S
Ġphys ics
aj a
on ies
ĠJon athan
ro id
et on
Ġd iver
ĠTurn er
Ġtradition ally
L S
c are
Ġdepart ed
Ġproduct ions
Ġshif ted
Ġbat talion
Ġfun eral
ir k
Ġorgan is
ĠBy zant
Ġ err
is p
Ġprom ised
ĠAdela ide
Ġf ulf
Ġtri als
ĠN athan
ĠFr ances
Ġr id
ĠBroad casting
ĠIran ian
Ġk m
Ġvent ure
Ġsettle ments
ur u
el ed
Ġattempt ing
ov en
Ġpass ion
Ġphotograph s
Don ald
Ġprom ise
Ġsignific ance
Ġt ub
on ed
Ġdr ivers
Ġb anned
Ġrespect ive
ĠM es
Ġindust ries
ĠPen insula
Ġactiv ist
Ġtemper atures
g ate
Ġpl acing
ĠShe l
Ġh ide
Ġmanufact urer
Ġstri p
ty pe
ĠW ang
Ġb oss
ĠI van
ĠJ azz
m its
tr ans
ah a
s a
ĠI C
Ġextens ively
iz z
in os
Ġelig ible
Ġdoub les
ĠL ore
ĠC A
Ġident ical
g roup
ĠV el
ĠMicro soft
ĠUnivers al
ier ra
medi ate
Ġcanc elled
ĠCub a
Ġlay er
Ġ9 5
Ġcond em
Ġfest ivals
Ġj ury
ames e
ĠGr an
ĠC H
Ġexcell ent
Ġpric es
Ġp ush
ĠC ob
Ġw orn
ĠOl iver
ĠE ug
ĠW as
op p
um ps
ĠTra il
Ġ186 2
Ġed itions
ĠP ad
Ġra ising
Ġgen etic
Ġreb ell
Ġbelong s
iet h
Ġconvinc ed
Ġt ens
Ġorig ins
0 4
Ġnegoti ations
Ġkid n
Ġn am
Ġ6 00
ĠM ales
Ġprop ag
au ge
Ġstr ange
is hers
Ġno ise
Ġeff icient
Ġ186 3
ĠM A
Ġwid er
Ġoverse as
Ġphot ography
Ġacc eler
Ġcon gress
Ġsend ing
ĠPr adesh
ĠS r
J ust
Ñ Ģ
enc er
Ġpromot ing
ĠM aced
ol ia
Ġp y
ĠArch bishop
Ġinflu ences
Ġsh irt
ĠSp irit
Ġrest ricted
Ġenem ies
Ġtrans mit
Ġout standing
ix on
ĠVinc ent
ĠH ope
Ġatmosp here
Ġ188 7
Ġn ut
app y
Ġexpl an
ack et
ĠMon te
ĠN S
Ġclin ical
ĠH ig
Ġc ave
W hen
Ġwrest ling
ĠD om
ĠSt ill
ortun ately
Ch rist
Ġdr um
ĠS ign
Ġgrab bed
G u
Ġwarn ing
t wo
Ġt ies
f amily
ĠC ad
20 10
Ġmanag ing
ĠHud son
Ġplayoff s
ĠYear s
Ġk ids
Ġexpl ains
Ġlegisl ative
Ġfl ights
Ġind eed
ĠAd vent
Ġj u
b es
over ed
Ġl ibr
Ġphot o
ĠK os
Ġrel ie
ĠBr isb
Ġunivers e
Ġimplement ation
Ġexhib ited
Ġcon ven
Ġconstit utional
m aker
al g
Ġr anging
ĠYou T
ĠC atherine
Ġsc r
ĠI ce
ĠJ un
Ġex ha
an im
oth y
Ġthe rm
Ġcoll aps
ĠBrisb ane
Ġdef ended
ett a
ĠKir k
Ġdrink ing
ĠN ar
Ġm ask
ĠPer u
Ġh ole
Ġcinem a
enn ial
ĠAlbert a
Ð ½
elt a
ĠW or
Ġw ard
Ġsus pect
Ġlin ear
p ower
ĠN et
Ġconvers ion
Ġev olved
w as
Ġwind s
Î ½
ol ition
Ġt ag
ĠElect ric
0 3
ort ion
Ġmurd ered
Ġ5 7
Ġprepar ation
let t
ĠComm ons
ĠC inc
ĠD aily
ĠE ston
Ġcertain ly
work s
ip per
Ġre organ
Ġinterview s
Ġarr iving
Ġrem ote
Ġdist urb
u art
Ġopt ions
ĠJ erry
Ġst eep
Ġrec alled
ach ment
Ġh ills
p re
f our
yl er
ist ing
Ġex clud
former ly
Ġemot ional
or ious
ley ball
Ġab oard
Å ¾
Ġaccess ible
Ġcoin c
Ġpup ils
ond er
b led
Ġbut ter
ĠT ak
E d
ĠStud io
Ġd anger
ĠFre edom
Ġac res
Ġ6 6
ĠBar cel
om ic
ĠHeb rew
Ġre pr
Ġb ases
Ġun com
Ġsc ores
Ġw er
ĠCom ple
Ġt ons
Ġsl ave
f eld
fam ilies
Ġmom ents
en berg
ĠPier re
l anguage
ul ous
ĠMun ich
ĠProtest ant
Ġtop ics
Ġdem anded
arr ison
Ġcolleg es
Ġgold en
Ġcampaign s
Ġsh ops
Ġdist ribut
Ġf asc
ra ud
ĠS ad
Ï Ħ
ĠSpr ings
Ġacqu isition
el i
Ġsusp ic
vent h
f ree
Ġparticip ating
ie v
ĠCl are
ĠMas ters
it ime
Ġm oral
Ġbat tery
Ġcap s
W A
ĠBarb ara
ĠWrest ling
Ġg ast
im p
Ġcan al
ĠC ase
Ġintern et
Ġâ Ĥ
g ame
Ġdescrib ing
ĠBes ides
ĠCra ig
Ġbi ological
ĠColl ins
iss ions
c ient
Ġmain stream
Ġaff air
ĠAng lo
ĠDemocr at
ar us
Ġcat alog
ĠLl oyd
Ġdep ression
cel and
Ã Ł
ĠAt hens
ac o
Ġinher ited
Ġexp osure
est on
Ġass um
Ġy ard
Ġneut ral
ĠSocial ist
er ior
Ġsw itched
ĠV as
ĠC P
os y
mon th
re leased
ĠN av
Ġ188 6
br id
f a
ĠT ang
nd a
ĠF isher
Ġcontribut ing
Ġcr uc
ĠSoc cer
Ġg ear
ĠT u
inn ati
ĠPhilipp ine
ĠF act
Ġenroll ed
Ġprot ests
ĠL ate
at ar
Ġpers pective
ĠNov a
Ġunc ertain
Ġsub sc
Ġ5 8
Ġg al
ourn aments
ĠYouT ube
Ġspecial ized
ĠL ad
Ġpet ition
as hes
Ġconv icted
Ġt ip
ĠPun jab
elf are
ĠCont rol
Ġprote ins
h aw
Ġfarm ing
Ġag es
ĠF ab
ad ers
Ġres umed
ĠM alt
ur st
ab a
Ġex ecution
ĠSer ge
ĠP ant
Ġtrib ute
Ġa qu
ĠU g
ĠAl aska
Ġmeas ured
Ġdem ands
Ġb ench
Ġtick et
Ġtax es
ract ed
Ġo kay
ue z
v i
Ġbare ly
Ġinsp iration
sc ar
hol m
Ġfriend ship
ĠCo al
Ġs av
ĠM ind
ĠLe eds
ĠDemocr ats
Ġ188 1
Ġbel t
Ġdat ab
A re
ĠSym phony
Ġn ephew
od ore
ĠBul gar
Ġout break
ĠB ey
Ġdis ch
Ġlocal ity
Ġb ull
Ġhead ing
out heastern
Ġrep orter
Ġfund amental
ĠL P
Ġpl astic
ĠR AF
Ġcorrespond ing
Ġn ice
ol ve
ĠRe f
Ġ8 5
Ġreport ing
Ġshould ers
ĠC O
Ġper mitted
Ġm os
ĠGl en
Ġs in
ĠMunicip ality
Ġvis its
Ġdecor ated
anc he
ĠB eth
it is
Ġ7 2
le e
M on
Ġc ow
ĠB arr
ĠC ode
Ġport rait
0 2
ĠA ber
Ġaff ord
Ġarr ive
Ġd iet
uk a
Ã¨ re
v ision
Ġ188 4
ic ity
he nt
ĠBr and
ounc ill
Ġcooper ation
M I
Ġ5 9
Ġcop per
E ng
i ya
ĠV I
e ing
Ġstom ach
ĠP il
ĠAl t
Ġdifficult ies
G erman
Ġgradu ation
r ane
Ġbeet le
Ġcollabor ated
ip er
g ments
oy s
ĠU nd
Ġresign ation
Ġdesign ation
ĠG ard
Ġh ang
ĠSm all
Ġver tical
b us
Ġpow ered
Ġwor se
Ġcarri es
om on
Ġs ample
og le
Ġd ressed
raz y
Ġc a
ĠC elt
Ġcert ified
ap ing
ĠNor folk
ĠFor mer
Ġexclus ive
ĠChristian ity
ĠBarcel ona
Ġc avalry
ĠTig ers
or ic
Ġinduct ed
it arian
Ġro ot
Ġcolumn s
Ġdifficult y
ĠColomb ia
ĠF if
ess ed
ĠCinc innati
Ġinterpret ation
iss a
ris es
Ġserious ly
Ġpro of
l ength
ĠPh D
Ġfilm ing
Ġrece ption
Ġaware ness
Ġrefer ences
Ġc yl
Ġf ro
Ġdist inction
ĠBuff alo
ĠTerrit ory
ĠS ig
ĠSec ret
ific ial
R I
ĠChall enge
Ġin tense
Ġ8 00
Ġdep icted
ĠL ag
ĠH em
Ġg aze
ĠAd miral
Ġge omet
R T
Ġyour self
Ġc ock
Ġsimultane ously
Ġl ip
ĠPict ures
Ġdis b
ĠL is
Ġfram ework
ĠRep ort
Ġal ien
Ġhe nce
Ġgall ery
ĠNe g
Ġf ighters
Ġcomp ound
s ub
Ġb ell
ĠC amb
Ġchalleng es
Ġtarg ets
ow ski
H z
ay ing
ĠSt ars
ĠW es
ĠR idge
e le
com pass
Ġcontrol s
Ġphr ase
ĠS aints
id o
Ġdet ect
ĠOb ama
ĠV lad
Ġin hib
ĠBob by
20 11
Ġst ick
Ġst ops
ĠI celand
Ġcomm enced
Ġqu een
Ġmer ely
Ġaccomp any
Ġm ad
ĠDak ota
ĠF ull
ĠBl ues
Ġdepart ments
ĠCult ural
Ġag g
Ġsh aring
Ġang ry
ĠVeg as
Ġv el
ĠK ap
Ġlik ed
ĠSh ar
Ġent ers
Ġgr ades
Ġang le
ĠProv inc
ĠArmen ian
ĠR oll
Ġdistinct ive
Ġcap ita
az on
4 00
Ġc ir
ĠSa udi
Ġ( ).
f ront
Ġinter cept
Ġrece ives
Ġw aves
Ġeas ier
at ers
av id
ĠT erry
ĠSpe ed
ĠSystem s
ĠH amb
Y eah
Ġinst ruction
Ġrele vant
Ġsequ el
Ġsum mit
ĠRog ers
Ġl ingu
ĠMay be
Ġm aps
ĠM om
ig o
ĠG ate
Ġwrit ings
Ġreleg ated
Ġp seud
Ġ188 2
R O
ĠB ak
Ġup set
ĠT ech
Ġte a
ĠB orough
Ġt ears
ber ry
os oph
Ġprep are
ĠM S
ĠBudd hist
Ġamb ass
ĠBr ight
n an
ipp ing
200 7
Ġre vers
ad ition
200 8
Ġsk i
Ġautom atic
Ġmin i
Ġsk et
Ġinh ab
r ain
ster dam
ĠMunicip al
Ġb one
art ed
Will iam
ĠA ction
Ġdeep ly
Ġcross es
ĠConfeder ate
Ġbre ast
re z
Ġhistor ians
al an
ĠNap ole
Ġsil ence
B est
ĠDig ital
ĠS oph
Ġcoin s
Ġpe oples
Ġs ung
ĠUr ban
re ts
ĠNev ada
ĠAd vis
Ġm ilk
ĠR ot
Ã ª
Ġcut ting
Ġhy per
Ġdram atic
Ġp ressed
ĠPer ry
oin ted
rop od
ol ves
Ġfin ance
Ġfe els
ra its
Ġres id
ĠAl ban
Î ¿
Ġcons olid
Ġg entle
ĠJeff erson
ach i
ĠR ing
ep s
ĠDi ocese
Ġus age
ĠProfess ional
ose xual
Ġemphas is
Ġel abor
osp el
ĠS now
ond a
Ġcharacter istic
Ġobject ive
ĠR hod
Ġfab ric
ĠDen ver
er as
ch ild
ĠHel en
Ġtor ped
Ġent reprene
ĠD iam
È Ļ
Ġ9 9
ir ms
ĠBl ock
Ġquarter back
ĠSt orm
al am
Ġphys ician
? âĢĻ
ĠY ang
Ġde emed
Ġb achelor
Ġr hythm
ĠR al
Bl ack
o ons
ĠB ath
ĠMin or
ĠR ac
Ġs oph
ath on
v ol
Ġl ady
ĠM ult
ĠAnt ar
Ġre ward
Ġsubmar ine
ĠL iving
g arian
osp itals
ĠCirc uit
Ġen compass
iv ic
Ġs ad
Ġcarri er
ĠCom ics
ĠArgent ine
ĠIndust rial
Ġpro l
Ġrecover y
Ġz ero
Ġt ournaments
ĠR u
Ġre ducing
Ġrel ax
Ġspe aker
Ġcomp rises
ĠKe ith
ĠL en
F F
Ġrestaur ants
or p
ĠS ah
H A
Ġd ancing
Ġne uro
Ñ ģ
Ġt enth
Ġcle ared
Ġbehav i
ĠPl ant
Ġloc k
for ced
200 9
unn y
Ġval uable
Ġas h
v et
gh ai
Ġp airs
Ġcompar ison
ĠQ ual
ĠSur vey
B O
Ġm ail
af e
Ġsympt oms
Ġsuppl ied
ĠJ a
Ġtong ue
ĠNep al
Ġt ested
Ġfor cing
Ġlegisl ature
ĠClass ic
Ġattend ance
en os
Ġattack ing
ĠS ony
d isc
Ġess entially
ĠCh i
ĠM az
ĠNew castle
Ġdog s
ĠC old
Ġcou p
Ġ error
im ir
Ġor n
Ġindic ating
Ġamount s
ĠHu gh
ĠRob in
Ġtechn ologies
ĠG round
Ġelement ary
Ġm amm
Ġsp ots
or o
Ġun n
Ġcoll apse
ĠB ert
Ġtalk s
it ic
Ġnarr ative
ĠBl ood
ĠC S
ĠP ay
ĠC urt
Ġprom in
Ġne arest
Ġcomp iled
Ġdr ums
Ġtravel ing
Ġdiplom atic
Ġant icip
Ġtr uly
ĠJ oy
Ġpart ial
Ġas ide
ling ton
ĠDr ive
ac les
ĠC hester
Ġt u
Ġinter change
ĠMond ay
Ġcl an
Ġpredecess or
vel t
Ġg ardens
f ive
Ġdes ert
Ġpo ison
p op
Ġco ached
ĠN ext
ĠT ag
Ġtour ist
Ġsc en
Ġdisb anded
stit utional
Ġen forcement
Ġmin istry
Ġ188 3
Ġv amp
y cl
Ġfl ank
Ġover w
ĠMod el
r aska
og g
writ ten
Ġf lex
ĠKen ya
P ar
Ġgu ards
iff s
ick ed
Ġj ail
ĠComp et
Ġhon ors
n ew
ou ch
oc ent
ov ich
ĠGab riel
ĠFr an
ĠE sc
Ġab ilities
tt p
Ġl es
c ia
Ġend ors
er ic
Ã ¦
ĠIn sp
ĠL ions
all ing
Ġs iege
Ġass ists
Ġappro aches
D ec
ans k
ĠFac ulty
s ong
ĠMag n
el ia
r av
ren cy
ĠR ivers
Ġbrig ade
ĠIndust ry
ĠF em
Ġreflect ed
ik o
Ġdis aster
ĠP ack
Ġsc re
ĠAzerbai jan
Ġcl ar
Ġ187 6
Ġh orn
Ġdescend ants
ĠSus an
Ġwor ry
Ġth ank
Ġout door
ĠC N
Ġbon us
ĠSt re
vious ly
il ia
Ġtempor arily
en ia
Ġann ex
200 6
Ġg if
Ġrecip ient
ish ops
Ġdiss olved
ĠS ic
ĠH om
h or
Ġpred ict
Ġ187 1
Ġord inary
Ġph arm
ĠE lement
ĠHar bor
w ings
Ġ6 2
Ġburn ing
Ġex it
Ġg ap
Ġb ats
Ġdise ases
ĠAm sterdam
ĠHol land
E N
Ġw ake
aw s
abl ished
Ġremov al
T o
Ġwid ow
ific ate
ke ley
ĠWars aw
ij i
Ġorgan ic
em pl
iz er
Ġaf raid
Ġvari able
ĠO m
ĠPol icy
Ġhor izon
ĠNever theless
Ġvolunte ers
w ig
ro d
ĠK ath
à ®
Ġor ange
rib le
Ġcom ments
ĠW ed
Ġcitiz en
ĠB ot
Ġexper iments
ĠCroat ia
ĠEth iop
av or
Ġpre v
et ary
ĠSe an
ĠM end
Ġan ger
Ġext inct
ĠMad ison
Ġpit ched
Ġgl anced
ĠB ased
Ġeconom ics
ok es
Ġt um
Ġarr ives
Ġmid fielder
l ia
Ġmonth ly
hel m
Ġroll ed
at us
ĠEx per
ĠMor oc
ces ter
ĠH ob
Ġhop ing
ĠB uch
our t
J an
ĠEd wards
ĠS alt
ĠHistor ical
Ġrefer ring
Ġvul ner
em ploy
Ġdeal ing
ĠW oman
ĠMur phy
ull ivan
Ġaltern ate
Ġcomp rehensive
Ġ" [
Ġrif le
amp a
Ġtrav els
ĠC inem
200 5
Ġsem if
ĠA aron
ann i
ov ing
Ġthe ories
ĠCam eron
Ġdel iber
Ġbus es
ĠS ide
ĠK ay
Ġmy ster
h is
zy me
Ġconnect s
Ġimpro vements
Ġrecogn ize
Ġreg ul
ĠB rew
Ġstud ios
ĠL ock
ĠPeters burg
Ġ6 3
Ġkilomet ers
ĠSh aw
ĠP S
l og
Ġspeak ers
Ġexpl icit
ĠHit ler
we ek
Ġconsist ent
Ġgr an
ĠSong s
imens ional
g om
âĢĿ ,
Ġfail ing
Ġdel ayed
Ġj ew
ĠB av
Ġto x
en burg
p ow
Ġrul er
Ġnickn ame
Ġbus y
Ġconsid ering
ĠC ov
Ġpro x
Ġrec ur
Ġp ian
Ġfe ud
Ġcollect ive
Ġg host
Ġcor ps
ĠCost a
Ġle aned
Ġ184 0
ĠY ale
Ġinc umbent
Ġman ip
Ġsc ope
Ġox ygen
w er
Ġkn ee
Ġm asc
Ġdes per
id ad
c at
it ated
ĠSte ven
ĠB ald
ĠV ideo
ĠEm ma
Ġlog o
ey er
Ġco aches
Ġ187 8
E P
Ġfl our
Ġbeat en
ĠT on
Ġbr ings
Ġtherap y
Ġh ind
ĠR ight
Ġreg ister
ĠG ot
ĠPolit ical
Ġunder graduate
tt ps
it ary
Ġread ers
ĠL ion
ĠNe il
ĠI T
re ction
Ġbank rupt
i ast
Ġhistor ically
Ġm oon
s er
st own
Ġclos ure
Ġc raft
Ġcomput ers
Ġcor ruption
ff ield
Ġp ink
Ġper mit
W ho
ĠNeb raska
ot ion
Ġst ake
ĠSt uart
ab e
Ġelev ated
Ġaffili ate
Ġv oy
lev ard
Ġpr ince
Ġproced ure
Ġfr ustr
Ġf iring
ĠAthlet ics
ĠP ic
Ġsk ill
ĠGi ants
Ġpros ecut
" '
ĠM ann
Ġt ours
forman ce
ĠPlay ers
Ġf iles
ĠVen ice
ĠD id
Ġnam ely
Ġb orrow
ic ular
Ġem br
l ain
an j
ind ed
our g
Ġn est
pe are
Ġn at
Ġch rom
b ie
Ġfair ly
20 12
Ġchalleng ed
Ġrecru ited
Ġret ain
Ġlif etime
Ġvocal ist
Ġover t
Ġver se
Ġvar iant
Ġpay ment
Ġsusp ected
Ġch oir
Ġcal m
ĠAl ger
Ġgr ap
ĠS ierra
Ġexhib itions
Ġexhib it
Ġbre eding
Ġdis m
a ft
ĠGh ana
ĠS P
ĠAng lic
D F
Ġveter an
Ġ" (
Ġwa ited
Ġl ift
ĠTechn ical
Ġthir teen
ĠâĤ ¬
Ġd ict
Ġ" ".
Ġstrugg led
ack ing
am pton
Ġw ound
Ġ186 7
M e
Ġpost s
ĠAb raham
akes peare
ĠPr inc
ĠY e
ĠMah ar
ĠChap el
Ġconsum ption
Ġstrong er
ose velt
Ġorganis ations
Ġse eds
ĠP ont
Ġsitu ations
Ġadmin istered
Ġpark s
Ġthere by
Ġcontract s
et r
ĠFlore nce
Ġsol utions
Ġor chest
Ġhol iday
Ġc ounsel
includ e
ĠGreg ory
ĠAb u
Ġcasual ties
ur ated
Ġ187 2
Ġrad ar
ĠL an
ĠT as
ĠL arry
Ġacc um
Ġall ies
he ld
Ġcolle agues
ok er
ou stic
Ġab olished
Ġcl ient
Ġsign als
ĠOr d
ĠGon z
Ġcur ric
Ġrat ings
u is
ag ger
Ġ187 5
ĠLu is
ĠWith out
Ġ6 1
c ore
ĠOtt awa
Ġadd ressed
Ġres ort
ĠB und
Ġb ars
Ġd ying
anc ial
L ove
ĠBul garian
ĠL iga
Ġflow er
ĠCamp aign
Ġconsum er
w ord
ag ons
Ġp ole
Ġcelebr ation
ĠZ e
ant a
Ġr ice
Ġlabor atory
ĠE ight
Ġbr idges
Ġlo op
Ġwhis pered
th rough
ĠHer bert
agon ist
ft en
Ġple ase
ĠLeban on
Ġs overe
Ġinstall ation
ĠI P
Ġr is
ĠBulgar ia
Ġper ceived
isc opal
Ġ187 9
Ġhyp othes
Ġt aste
Ġ9 8
Ġcl ients
ĠV ers
ĠPear l
in us
ub s
Ġscient ist
yr ight
Ġsh orter
Ġfocus ing
Ġcab in
red ited
ĠL ear
Ġst eal
Ġ6 8
ĠS oul
Ġadj ust
Ġbl ank
Ġtrans p
ĠLuc as
Ġconf idence
G eor
ĠF u
ĠK rist
Ġcal endar
Ġaim s
art s
if fer
ĠSy rian
reg ular
ĠS z
ĠUl t
om ed
E L
Ġaccur ate
Ã¶ n
Ġpat ent
ĠEd die
ĠG ay
rim ination
le ase
Ġinf l
Ġor bit
k ov
ĠH erman
Ġ7 6
ur se
ĠH av
Ġimprison ed
Ġprevent ed
exp ected
is ons
ĠDel aware
Ġemp ire
, âĢĻ
ĠD ennis
am ics
Ġinter action
Ġprof ile
ĠForm ula
ĠSup port
Ġcare fully
Ġf antasy
ĠE y
Ġbe er
Ġaccommod ate
Ġdocument ed
Ġt ape
ĠRo osevelt
Ġsup plement
Ġcompos itions
orig inal
C D
Ġst ones
Ġgrand son
in f
Ġare na
st s
Ñ Ĥ
ĠTy pe
Ġachie vement
Ġ9 6
Ġextend ing
ĠM ul
Ġe ating
Ġ6 7
l ist
Ġf uck
Ġprogram mes
ĠT ed
as m
Ġ8 2
Ġaggreg ate
Ġreve al
Ġfour teen
Ġsix teen
Ġst ored
ĠHen ri
Ġg aining
ĠCroat ian
ĠK ate
Ġmix ture
ĠJ ake
ĠFil ip
Ġmaintain ing
ĠEx change
ch ief
Ġact ively
ĠTib et
duc es
l ane
only include
Ġ186 6
Ġback ed
ĠM ol
n Ã©e
ĠR at
Ġsh ots
l ights
ok a
Ġgener ations
Ġpe er
un ning
B ig
Ġ186 8
Ġpredomin antly
Ġqu ad
Ġtele phone
ĠP in
Ġchem istry
it ting
Ġab und
" |
Ġpolit icians
Ġto ler
ĠâĢ ¦
ĠMal ay
Ġl ung
m ade
Ġf ib
Ġreform s
ĠHug hes
Ġmem or
Ġprison er
Ġland mark
ĠBer keley
Ġren owned
Ġneighbor ing
Ġex ch
Ġ á
Ġf ame
Ġarchae ological
Ġgu ys
ĠPro duction
ant i
Ġs id
Ġbehavi our
Ġprest igious
.. ."
Ġconc ur
Ġstruct ural
Ġl akes
Ġpregn ant
it ro
Ġ187 4
ĠE sp
Ġfunction al
p ost
Ġt ube
ĠNot e
j oin
ĠS uz
ĠO pp
ĠCo ach
ĠC ond
ĠO il
Ġfoot age
Ġperson ally
ĠHe avy
Ġto mb
Ġ187 3
Ġt iny
Ġsurre nder
ĠR ange
qu is
Ġclos est
Ġbas in
Ġb in
it udes
ĠShan ghai
Ġdef ender
Ġgu id
ĠGo ogle
ĠHamb urg
Ġsust ained
Ġret iring
Ġarg ues
Ġmain land
Ġconcept s
p ine
ĠPed ro
ĠG am
Ġviol in
âĢ¦ âĢĿ
Ġg ymn
199 0
Ġathlet ic
ĠF a
ĠByzant ine
ĠGu ild
Ġal ign
Ġre ver
Ġbroadcast s
Ġun w
ĠP ast
Ġsp ac
Ġr abb
ĠGram my
ĠLe o
Ġart ificial
Ġhard ware
w right
ĠBeg inning
ĠWell ington
Ġc iting
à ¥
Ġearthqu ake
ĠShe ffield
uck land
ĠS Ã£o
Ġdo zen
ĠTre as
Ġcont ribute
ĠVenezuel a
A nt
Ġle ather
Ġp ap
Ġdest ination
or ge
ĠL ux
Ġer up
ĠIndepend ence
Ġcrop s
ĠP el
ĠR ou
r us
wh ite
Âł Â°
Ġre ass
bo at
ist ent
Ġrev ised
Ġpack age
ĠFin ance
Ġpr ayer
ĠTw enty
Ġstat ements
Ġgen es
ĠBut ler
Ġb arr
p iece
ĠGuard ian
ĠGil bert
fect ure
ĠM ath
Ġair line
Ġcat hedral
Ġac ademy
writ ing
Ġfast est
ĠH unt
Ġs hed
Ġimpro vement
Ġvar iation
ĠA x
Ġfew er
ĠSo ft
ch t
m ail
p ic
ĠStan ford
Ġextend s
ĠSh akespeare
Ġeng agement
Ġsusp ension
ĠD anny
ĠY am
is an
Ġdivor ce
Ġcul min
Ġen zyme
Ġleg it
C om
Ġcult ures
ĠHor se
ĠS outheast
ĠTom my
Ġemploy ee
Ġwork er
Ġsl ight
Ġ187 7
ult s
Ġh aven
s or
Ġf ate
in ery
oc al
Ġeng age
Ġvict ories
ĠD oc
c aster
Ġpres erve
Ġeff iciency
Ġrepeated ly
ĠR ace
Ġboard s
ĠO ri
Ġrel uct
Ġbar rel
o j
C S
Ġsh out
St ation
ac co
uss ia
Ġconf usion
Ġreal ize
ĠAm bass
Ġlocomot ive
ĠL anguage
Ġro ster
Ġvirt ual
am ation
h in
ĠM TV
Ġspok es
arter ed
ĠOper ations
Ġreserv oir
ĠSeb ast
as ia
or ient
ĠSom ers
Ġinvestig ate
ag ram
ĠWall ace
200 4
ĠW ells
ĠM ig
ĠRal ph
Ġ6 9
Ġprin ting
Ġl iv
Ġbreak s
ĠMar x
Ġm oll
ĠProt ection
Ġtour ism
ĠProduct ions
ĠLa ura
Ġdispl ays
Ġconcentr ated
in ted
Ġbe am
Ã¼ n
sec ond
Ġpay ing
Ġp ocket
Ġf raud
Ġg est
Ġloc ked
Ġsm art
l ined
al ign
Ġre verse
Ġkn ocked
ĠCol leg
Ġcolon ies
ĠR av
lim inary
ah o
ĠWat son
Ġback ing
ig ation
ĠAlbum s
ĠM ills
om as
arri or
W here
ĠC ork
g ie
ĠB ass
Ġ8 8
te am
Ġav iation
Ġth rown
Ġcut s
ĠB ird
ĠSc ar
Ġg auge
G o
Ġcounter part
Ġmotor cy
Ġfollow ers
ĠO cc
Ġsc ream
ĠMan uel
im m
Ġadvent ure
n amese
ĠT oy
ge bra
Ġ184 8
ĠEag les
Ġpres ents
ĠHar old
ĠA uckland
uc ed
Ġh ook
ĠNash ville
Ġqual ification
Ġsam ples
á º
ĠC ou
ĠYugosl avia
Ġequ ation
Ġship ping
d ist
Ġgl ac
Ġt rem
Ġbad ly
ĠNew ton
Ġpil ots
Ġtouchdown s
iz ard
Ġp ace
Ġb rew
ĠPrim ary
te gr
ĠR achel
Ġunderw ent
Ġdiscontin ued
Ġt issue
on ial
Ġexam ination
h all
Ġdial ect
ie g
Ī Ĵ
min ster
Ġalt itude
if ier
rid or
r ary
spe aking
T e
Ġbro w
ĠCru z
ĠS ut
S outh
Ð¾ Ð
20 13
ĠP rest
Ġgirl friend
Ġmess ages
Ġpione er
Ġdis order
ĠA my
N ov
c ott
av ian
Ġred es
V P
Ġle agues
Ġindepend ently
ĠT ow
ĠJ erem
ĠP ut
Ġdr ain
Ġd ri
gom ery
Ġven ues
Ġbl og
Ġinstit ute
Ġencour age
Ġc otton
Ġport ions
ĠMethod ist
ĠT erm
A ugust
ĠB ened
ĠN y
ĠS ay
Ġtask s
Ġtheat rical
t ar
Ġin ject
Ġdiscover s
Ġ7 7
ĠTh ai
re ated
ĠJ oint
Ġman ages
Ġrel ating
com p
Ġmem ories
l ived
Ġstation ed
Ġimp ressed
Ġencounter ed
Ġbomb ing
ĠPalest ine
ĠG ust
Ġrefuge es
ath a
Ġv ow
ess a
ĠEx am
ĠW u
f r
Ġ7 8
Ġcelebr ate
M r
Ġd ust
ĠD elta
hold ers
Ġst olen
Ġt ent
Ġpl ates
Ġdial ogue
Ġevent ual
o i
o an
ĠP ra
ĠPr ague
ick en
ĠInt elligence
in ts
Ġcommit ment
umb led
Ġpriv ile
Ġupd ated
ĠY u
ĠRhod es
ĠJ ar
Ġrele asing
Ġdec e
Ġshe ep
ugg ed
Ġfor b
Ġmoder ate
is ch
Ġconf lic
ĠMont ana
Ġrun ners
ĠTr av
Ġph osph
ill es
ĠE ld
Ġh ospitals
Ġl ux
Ġperman ently
ĠJ unction
Ġse ized
Ġ186 9
ern ess
d al
Ä Ł
i ability
Ġ7 3
Ġsuccess ion
f ounded
Ġsc iences
Ġconf ron
ĠG w
Ġimp ressive
Ġexper ts
ĠIraq i
ĠIsa ac
Ġw ished
en ess
Ġshel ter
Ġtri ple
Ġc ogn
Ġ18 30
ĠLuc y
ĠPal mer
Ġbelief s
ĠK il
A ng
cent ral
ri fic
ĠP ul
ĠC hes
s ized
ĠM ut
ĠB ent
ter ies
ax y
Ġmus cle
ĠM D
ĠMc M
ĠM ust
Ġen act
Ġsever ely
ĠSecond ary
ĠMo z
Ġel ite
enn e
Ġp unk
Ġprog ressive
Ġliter acy
ĠB ond
Ġobs ervation
Ġr anges
j u
v ia
Ġannounc ement
Ġmiss ile
ĠAr nold
ĠB og
I M
Ġcre ates
Ġbe ars
Ġ20 20
ĠUs ing
Ġor b
ent ieth
ĠElement ary
Ġ9 7
le nd
Ġse gments
Ġple asure
ro e
ag i
Ġautom atically
Ġrenew ed
up s
B E
uck s
Ġrad iation
Ġtransform ed
ĠInter state
Ġflu id
l ink
ĠBe h
Ġvir us
c ount
ĠVerm ont
ĠPhill ips
C P
ah an
Ġnumber ed
ĠH az
op ol
r age
Ġst airs
ĠH at
Ġshe et
um er
um ph
istr ation
i ens
Ġreg ulation
Ġmaintain s
Ġatt itude
Ġ7 4
ĠO bl
Ġb ord
un s
Ġhand ling
Ġrequ iring
Ġm aid
Ġad mit
h anded
Ġh ref
ĠJo an
Ġrem ix
et o
Ġproper ly
Ġsurv ival
Ġpun ishment
Ġsm oke
Î ¹
> </
Ġfre ight
Ġcl ay
ĠCom merce
Ġl unch
Ġlight ing
roll ed
ĠHarv ey
Ġflo ors
Ġt el
ĠÅ ł
arv ae
ĠAv iation
ĠT odd
Ġdepend ent
Ġrev ival
s up
umb ai
ĠCol lection
Ġcustom er
Ġrock et
ĠCh ase
spe ed
Ø §
be at
ĠPer th
amb ers
ĠMont gomery
ĠCD P
Ġunivers al
Ġadvert is
g i
Ġimmigr ation
Ġarrang ements
aur us
add y
> <
it ches
ent ry
rown ed
Ġo rient
ĠW inn
Ġpsych ology
Ġmir ror
ĠAc adem
Ġc ad
ĠCont emporary
Ġs que
__ __
Ã© r
Ġk ings
Ġab b
Ġart work
Ġap olog
op ened
art a
al in
Ġth orough
Ġoverw hel
Ġrebell ion
Ġambass ador
ĠPr ice
c ur
ĠAnglic an
ĠFace book
200 1
ĠN ature
ĠMarc us
ĠInd ies
Ġhop es
Ġcommun ist
Ġmagn etic
ĠP av
ĠT yler
ad ows
Ġdist ant
ĠKer ala
at ra
ĠH us
Ġpat ri
Ġfor get
Ġob sc
S ch
ĠCr ime
ĠSt arting
ĠJ in
ĠTransport ation
Ġprofession als
ĠS ask
ĠJust in
ĠRepresent ative
ĠSw an
Ġath lete
Ġown s
Ġdev ast
ah l
ĠJ en
Ġdevelop ments
Ġpit cher
Ġvar ied
Ġfort ress
B L
Ġsign ature
ĠK ash
Ġdies el
c z
om ber
ĠBou levard
Ġan x
ĠSt ef
Ġun expected
k ar
ĠJul ian
ĠEconom ics
Ġmanufact urers
au kee
P er
ĠL A
ĠNorth west
Ġun anim
ĠM ap
R ed
Ġf ung
ĠÃ ģ
ĠCons ervation
Ġstret ch
ĠC reat
Ġreview ed
az ed
S w
Ġmart ial
Ġw rapped
Ġconst antly
ĠO scar
Ġany way
d ed
qu er
Ġpra ise
Ġce iling
ri en
Ġillustr ated
Ġg ri
Ġc oc
w he
Ġphot ographer
M arch
Ġphot os
ull ah
ĠN AS
ĠF am
ĠRail ways
ai ro
Ġsomew here
v ar
Ġsw ing
Ġbre ad
Ġsac rif
Ġnom ine
book s
ĠS ak
Ġcre am
Ġesc ort
ind a
ĠL ov
ĠVal ent
Ġm it
Ġbed room
Ġgraph ics
les h
ĠViet namese
ish a
Ġ7 1
Ġent r
Ġcongreg ation
Ġwe aken
ting ham
Ġconf ront
Ġ18 00
att a
ĠSp encer
Ġhapp ens
ĠK le
it ol
g ov
Ġm emb
Ġreserv es
Ġrestrict ions
Ġvolunte er
umn i
Ã± a
ĠHe in
Ġres ource
Ġt ut
Ġen abled
itte es
ĠP ros
ĠCelt ic
ĠAr c
Ġvari ations
N ow
6 00
b in
Ġopt im
az i
ĠV ern
ĠO g
arm s
il ian
200 3
Ġstri king
Ġeditor ial
M ad
ip her
n al
ĠErn est
Ã¡ s
Ġpresent ation
ĠRev ival
Ġrefere nd
Ġcon vert
in ated
quir y
ĠLe ader
pen se
ight ing
Ġguid ance
Ġalleged ly
Ġinter vention
f irst
m akers
ĠDe ep
Ġtr am
v y
Ġsepar ation
Ġoccas ional
Ġwor ried
ĠGro ve
Ġsoc ieties
ist ani
ĠComp uter
Ġrequire ment
C o
Ġtribut ary
Ġcirc ulation
ĠSt akes
th al
l iga
ĠGoth ic
omet own
Ġhe m
Ġj umped
Ġcrit eria
L P
ĠLe ad
Ġinv ented
ĠG as
ĠV illa
Ġup coming
Ġcar ved
C ar
Ġp ounds
ĠRe ed
ĠL og
Ġinter face
t n
Ġh iding
ina e
ĠPan ama
Ġs its
Ġcon ce
ĠMan ager
Ġrel atives
ĠCard inal
ĠS or
Ġcivil ians
ĠD ol
w orld
ĠC ec
Ġsh aped
ok o
in ite
ĠPlay Station
Ġm all
au er
Ġsurviv ors
ĠIn g
sw ick
ĠR ah
Ġde als
Ġprov isions
U C
Ġstat istics
Ġhon ored
ĠAn im
ĠS of
ĠB ach
ĠG ra
Ġex terior
Ġanim ation
Ġdr unk
ĠL isa
Ġord ained
ĠA er
Ġmet ropolitan
Ġhe s
Ġo l
Ġany where
ĠSh a
ĠEx pl
Ġcent res
ĠR ams
ĠV ent
over y
Ġal tered
Ġsimilar ly
ĠCab inet
by ter
ĠBenn ett
Ġnerv ous
Ġex ile
ĠP on
Ġsh rug
I nt
Ġm orph
uss ion
z ed
Ġj et
Ġgr ants
Ġf ier
Ġproceed ed
% ),
Ġaud iences
ÅĤ aw
ĠSud an
ĠArab ia
ount ain
p in
ĠCh ang
ign ated
ĠR uth
em a
y ers
Ġarg ue
ap ur
Ġkill s
Ġanth rop
Ġw reck
Ġvo ices
Ġpri ests
ĠEx ped
it us
w aukee
umber land
Ġlo ose
s ed
Ġexplan ation
Ġgovern ing
Ġble nd
Ġwid th
Ġmo ist
m ill
Ġdoct ors
ĠAmbass ador
ĠB ear
Ġneighbour ing
ĠRo om
lin ing
Ġmolec ular
ater al
ub b
lect ed
ĠEs sex
Ġcollaps ed
Ġhy brid
u ros
ĠSte in
Ġdark ness
ast ed
G M
ĠM idd
ĠE C
Ġadvoc ate
Ġfavour ite
Ġsuggest ing
ĠKr ish
Ġl iver
Ġ185 7
U N
ac a
ult ural
Ġex port
d s
Ġaccompl ished
Ġreven ge
Ġ9 2
Ġprepar ing
Ġso ap
ĠC raw
Mus ic
Ġtri o
t z
h ad
Ġproced ures
ĠD og
ĠRay mond
or r
Ġpurs ued
ĠHig her
200 2
to ok
Ġdatab ase
h alf
ĠSl av
sc he
Ġpull ing
b ek
Ġcat aly
Ġsong writer
Ġattract ion
Ġgr ay
Ġto ll
Ġtrans it
Ġliter ally
ĠIndones ian
Ġlist ening
Ġacknowled ged
Ġcan on
Ġfurn iture
Ġelect ro
Ġdisp ers
bor g
Ġr ivals
Ġman ual
oin ts
Ġrest ore
ed a
ĠRena issance
Ġf isher
n ut
ĠD ays
Ġbe aring
Ġv ital
Ġimpro ving
ĠM umbai
ĠBl ake
ĠS yn
f ol
Ġcart oon
Ġlob by
Ġexplos ion
ĠR us
ĠG ener
Ġvar ies
Ġprot otype
Ġspecial ist
Ġign ored
Ġc rick
s ur
Ġs oci
Ġkind s
os hi
Ġcreat ure
Ġ ib
Ġv ibr
ĠSh ir
Ġst roke
ĠClar ke
bor o
i u
Ġaut obi
ell ation
Ġpract iced
Ġb old
h arm
s elling
ĠY et
ĠR if
Ġf o
ĠSask at
om o
ĠF low
ic he
Ġc ust
. <
Ġpot entially
Ġequ ally
E M
Ġsc ar
ĠO wen
in yl
boy s
Ġ185 9
Ġp ump
Ġqu oted
Ġb ore
Ġport s
Ġaut umn
Ġlaws uit
Ġpre y
ĠG y
ĠC e
Ġstream s
Ġpriv ately
Ġthreat s
Ġsym met
ĠSomers et
ĠF at
K ing
20 14
g ral
Ġrep ublic
Ġassess ment
ĠD od
ĠH D
Ġrec ruit
20 15
Ġbl ues
ĠTr adition
Ġreb els
ĠEm ily
Ġnot ing
h aus
Ġcomple ment
ic ia
ia o
h op
ĠP erson
Ġconj unction
ĠAgricult ure
Ġenl isted
Ġintegr ation
E uro
ĠStud ent
qu et
T ime
ĠG and
ĠF oster
ĠDr agon
ĠAir lines
Ġd iversity
ĠGu ide
ub a
Ġdivor ced
ĠPet e
sen al
Ġev ident
p ol
ĠD aw
ry s
ĠPl at
ĠG olf
ĠB M
Ġcons pir
ĠColumb us
ĠCh an
Ġh anging
ĠJ ava
Ġf ract
Ġwhe els
Ġcomp at
erv ing
Ġins cription
Ġins isted
hib ition
mun ition
ĠS F
ato es
av ier
ateg ory
Ġauthor ized
ĠPalest inian
orm al
ard ed
W orld
Ġf erry
Ġtou ched
ĠRe ading
Ġinhab ited
ay ers
ĠEnvironment al
ĠSc out
Ġmin isters
Ġt ension
ad ier
ĠLe ices
Ġb icy
ent e
E ast
Ġexpand ing
a very
Ġam pl
ĠA part
Ġrece iver
th ree
Ġtr act
ĠL amb
Ġcurric ulum
ĠT ong
Ġkn ife
a it
Ġcl ergy
Ġstory line
as an
Ġgather ing
Ġhit ting
ĠAr med
ĠMar vel
Ġfind ings
form ing
ount ed
Ġtrav elling
n av
ĠW alt
ĠFriend s
Ġdub bed
ov an
ĠLeon ard
Ġh ometown
Ġop ens
Ġshall ow
Ġfarm s
Ġquestion ed
Ġless ons
ail ing
ĠAl tern
Ġoper ators
ĠArt illery
Ġbur ial
Ġsp an
Ġpsych ological
Ã© l
Ġtop ic
Ġo w
Ġtarget ed
he rent
ter ing
ĠStock holm
ect ions
Ġt ables
Ġb inding
ĠLe x
f urt
Ġsing ers
Ġnation wide
Ġexpl ore
Ġengine ers
im en
ĠE RA
art en
Ġb ones
Ġjourn als
Ġmat rix
ĠFin ancial
Ġfound ers
osoph ical
ĠTas man
19 80
Ġh a
Ġthe sis
Ġconduct or
8 00
ĠL ot
Ġcomment ary
Ġr idge
p age
enes is
Ġst air
Ġdel ay
ct uary
Ġton ight
Ġin fer
ĠB rah
ters hire
c os
Ġheadqu artered
Ġregard less
um i
ag s
Ġarm ies
ĠWork ers
Ġhelicop ter
Ġsc attered
ĠA ires
Ġmin imal
Ġsc andal
Ġa est
Ġwond ered
ĠL ak
Ġemer ging
Ġcirc ular
Ġsh adow
Ġnomin ations
ĠP ent
hab ilit
ĠS ullivan
Ġstay ing
uck er
ĠK un
Ġind oor
Ġen able
Ġ9 3
t es
Ġent ity
ĠMc L
ĠL ink
Ġalleg ations
Ġbre ed
Ġpubl ish
Ġlect ures
ĠW als
ĠMag ic
Ġdecre ase
ĠSch ol
Ġemot ion
Ġinter rupted
ĠL ess
orn e
ĠJama ica
Ġvol unt
ĠLi u
ĠT all
T P
ĠW ag
Ġa uction
Ġpan els
oun ce
ĠW ald
ĠDiam ond
uls ion
m ans
om orph
ibl ings
Ġsk ull
y ou
ap est
Ġt ier
ĠN ine
p her
ut o
ĠS ex
ĠK ol
ro x
Ġinstruct ions
ã ģ
Ġbank ing
Ġtem ples
ĠRevolution ary
Ġnation ally
ĠGeorg ian
on so
im o
Ġper pet
ĠK ab
oll o
ĠOak land
Ġs ighed
Ġm ood
om i
ĠMat hemat
N ational
Ġcomfort able
um ble
Ġserv ant
Ġg arrison
G O
Ġs ew
ĠFl ight
rif ied
Ġtack les
ult ure
Ġqu arters
Ġbul k
ĠO w
ĠC ox
ĠProvinc ial
V A
ĠKn ights
ut ing
ator ial
M en
ang o
ĠB A
Ġm ansion
Ġare n
ĠLiter ature
ĠB uc
Ġinf ection
Ġconflic ts
Ġru ins
Ġl arvae
Ġwar fare
Ġin g
Ġproport ion
ĠBudd h
Ġgod s
Ġdi ocese
onn ie
ĠIn v
t or
bro ok
ĠMan ila
ĠF BI
Ġ8 1
Ġmut ual
Ġart if
Ġbow l
Ġgr id
ĠFour th
ĠSus sex
Ġcompr ising
Ġrevolution ary
Ġinvol ve
osl ov
ch air
ĠRet urn
ĠOt to
Ġtow ers
Ġw are
Ġconduct ing
leg raph
Ġany more
ĠJul ia
Ġment ions
R ober
Ġassoci ations
Ġinvest ors
Âłk g
ĠS ul
ĠR af
Ġtransport ed
pl ing
ĠFran Ã§
ad ian
ĠC and
ĠD in
P e
Ġpian ist
ĠBrun swick
im mer
Ġcod ice
Ġbul let
Ġassemb led
Ġir regular
Ġphenomen on
back s
Ġchap ters
Ġpartic les
Ġear s
Ġt ired
intend o
Ġcomp rom
Ġsurre nd
ash ire
Ġre de
Ġabsol ute
ac ular
ĠP od
Ġreferend um
ĠMore over
I R
Ġbat ting
Ġjournal ists
Ġal ph
ĠAn cient
Ġconsult ant
Ġint ensity
Ġdream s
oc ity
enh agen
Ġadop t
ĠLe ft
ĠDev on
Ġto pped
sh ore
ĠFor um
Ġvol leyball
is le
ĠY ellow
ĠLeg ion
ĠF ish
Ġconf irm
b et
Ġdemocr acy
Ġroll ing
Ġf ru
ĠAnt i
il o
ĠIm m
Ġsail ing
Ġinter mediate
ec raft
Ġ185 4
ad al
Ġgrand mother
ĠE ve
ĠLe gend
Ġinc hes
Ġvirt ually
Ġ8 7
ĠE ff
ĠWest minster
ĠR ut
Ġrel ay
ĠF ul
Ġspec imens
Ġsearch ing
M al
ĠB ros
ĠR aid
m id
D E
Ġsole ly
ĠWil helm
ĠT rent
up id
Ġar bit
ĠN ancy
ĠBos nia
Ġstre ak
Ġst aged
Ġin tend
ĠL akes
Ġactiv ists
hold er
Ġden omin
Ġs outheastern
Ġwer en
bu ilt
ĠNot tingham
ĠA j
od ing
Ġbu ff
Ã ī
Ġgoal keeper
Ġo v
ĠLiber ty
s l
ĠK ur
Ġd uration
ĠBu enos
Ġblock ed
ĠNA SA
ĠC R
ĠL em
amp ed
S an
Ġcons ec
c ano
ĠS O
Ġlay ers
Ġgener ate
Ġconfer ences
Ġhydro gen
ĠAm azon
Ġst ability
u ate
Ġwick ets
Ġdisc rimination
ore y
A ust
rug u
Ġc ouncill
Ġ185 5
âĢ ľ
Ġupgr aded
ĠD y
ĠS uff
ĠWed nes
um m
ĠUn f
pr ing
im ination
Ġ7 9
J ames
oun ters
Ġapp rent
A g
Ġp in
Ġh az
Ġcons ent
Ġhand led
Ġh ier
ĠAg es
Ġac oustic
qu arters
p it
viron ments
Ġmar ch
ĠV II
Ġvary ing
Ġnight s
ĠMc D
Ġeight een
ug u
Ġwithd rawn
GB T
ĠH ous
Ġprompt ed
Ġr ational
el ly
ĠB our
Ġcitizens hip
ĠMot ors
it ious
ĠTri ple
Ġh ate
Ġninet eenth
it tle
ĠLanc ashire
ĠHe ights
Ġobs er
h l
Ġh ull
Ġ10 1
Ġed ges
Ġr aw
Ġdepend s
Ġcrick eter
ĠEd ition
ang ered
ĠDur ham
Ġident ification
d ied
ĠFried rich
Ġconsequ ences
Ġm ild
ĠCong o
ingu ished
ĠTun is
c ul
ator ies
ĠExped ition
Ġmem oir
ĠMil waukee
Ġkick ed
ĠWeek ly
o op
ĠEag le
Ġround ed
B ar
Ġabs ent
Ġins pect
ĠMig uel
Ġgovern ed
Ġst uck
ill iant
ĠIndian apolis
ĠLou ise
Ġ7 00
velop ed
i ago
ĠD est
F r
Ġst ro
Ġphys ically
Ġdes ired
Ġ8 4
anth rop
g reen
ĠSer ie
Ġlearn s
ĠEll en
Ġdepos its
E m
ĠM ull
spec ies
Ġc ott
Ġun ve
ĠAh med
Ġder iv
Ġacqu ire
Ġest ates
Ġdisapp ear
Ġd ish
h ou
v or
Ġess ay
Ġsec ular
ĠJ ak
ĠW ool
Ġam munition
ber y
Ġ11 0
Ġconsequ ence
Ġf irms
Ġdirect ions
ĠJ ur
Ġperform ers
Ġp roud
ĠT ax
qu est
Ġsuppor ter
aly sis
Ġtest im
Ġintro duce
Ġor al
Ġwood s
uss els
Ġquant um
Ġread s
Ġcom ics
Ġpre liminary
ĠEd mund
ĠWrit ing
ot ing
s ing
d irect
Ġcur ve
Ġhealth y
Ġalgorith m
ĠNapole on
ĠM orning
Ġr ushed
d imensional
ĠNew port
C onn
2 50
Ġair field
ĠS ey
Ġ8 9
st age
Ġconv ey
ĠJam ie
Ġterr ain
ĠR an
Ġwant ing
u ador
ĠPres byter
ĠHe ath
Ġsound ed
e u
ord inary
ĠStr ateg
Ġpol ar
Ġ ic
k an
t age
ĠLabor atory
ĠT ir
Ġon wards
ĠBe ing
Ġint ens
Ġb apt
ĠP i
Ġ185 8
iat ric
Ġsuff er
Ġneigh b
Ġlibr aries
ĠH IV
ĠCh ronic
Ġflood ing
Ġch ore
ĠFilm s
ĠG ardens
Ġtri ps
ĠQu arter
intend ent
Ġcompet itors
Ġimp ression
ĠR overs
ĠCirc le
Ġsynd rome
Ġabsor bed
he v
Ġdraw ings
s al
Ġsum m
Ġmon arch
ĠChel sea
ĠK yle
Ġneighbour hood
Ġgast ropod
Ġnort heastern
j ust
gr and
h al
Ġwalk s
ĠCorn wall
Ġ8 6
Ġdef ine
ĠF ro
ath i
ict ions
Ġspot ted
ĠMo h
l ast
Ġs iblings
Ġun e
bu ilding
ĠL ar
et hel
ich ael
Ġdistingu ish
Ġtour ists
ĠPak istani
ĠP age
Ġtot ally
Ġtr ick
Ġb er
Ġ9 1
ĠGl ou
ĠK id
F amily
Ġ185 6
ich i
Ġnat urally
D I
ec a
Ġline up
s outh
Ġw elfare
ĠG ang
Ġun employ
ĠStev ens
Ġinterpre ted
z ig
ĠSimilar ly
Ġen orm
ĠCub an
Ġtrans formation
Ġwarn ed
Ġrain fall
ĠIs le
ĠFranc o
Ġc ens
Ġtorped o
Ġtalk ed
Ġbi ography
Ġres erved
st ed
ĠS ox
Ġconfig uration
ĠL ords
Ġinte gral
ut ely
found er
ĠA ub
N T
i ology
Ġan ime
Ġdecl ar
ell ers
Ġc ro
Ġanch or
Ġkill er
qu al
Ġ9 4
r ate
Ġemot ions
Ġassign ment
ĠN C
Ġs ear
Ġfar mer
ĠM ik
Ġh oney
ĠOut standing
ĠA A
ĠE SP
ĠFer din
Ġt ale
Ġdoctor ate
H F
Ġhom osexual
Ġachie vements
ĠD ame
ĠVol unte
Ġint r
ins ky
ĠArt ist
az ar
Ġcritic ised
Ġprem ier
Ġsens itive
Ġsleep ing
ov sky
Ġaut hent
Ġrem n
Ġgrap hic
Ġjud icial
Ġvari ants
ĠDr ake
ĠF ig
Ġst yl
Ġthrow ing
Ġcompens ation
ĠP ain
ĠN ak
ĠC ant
ĠK or
em e
ĠOther s
el ong
ĠSt ri
ĠAlban ian
u ania
Ġcomp act
Ġwe igh
ĠK as
Ġf ool
ter bury
L B
S ec
Ġoccur ring
J une
C ent
Ġsc rap
ĠL ok
Ġins ects
m ath
Ġthink s
is i
ĠR ice
Ġb arn
Ġgr am
Ġcol ours
Ġbut t
ĠL iv
Ġg reet
Ġnecess arily
A c
ĠCzech oslov
Ġby pass
ĠCy pr
Ġp aus
arr ass
Ġr ally
Ġbot tle
P P
Ġcomp ounds
ĠN intendo
Ġal umin
Ġm ate
off icial
ĠO S
osop hy
Ġ185 1
ili ary
( "
ĠP orts
b oth
isc al
ĠScot ia
ph is
R L
ĠK ill
ĠP and
Ġdemocr atic
Ï ģ
iz ations
G S
Ġplant ed
U SA
Ġsc hem
Ġthe ology
ĠPer formance
on al
ag ic
ĠArt icle
Ġsequ ences
ond e
Ġro ok
Ġconsider ably
olog ically
r ish
Ġt un
p y
Ġdoct rine
ĠSh in
Ġcor poration
Ġfe es
Ġmet ab
ĠCop enhagen
ĠC row
ĠM old
sc reen
d em
Ġcommand ing
Ġbig ger
Ġg ates
Ġc reek
ĠMaur ice
Ġh arsh
ĠB ag
id en
Ġb out
Ġsp ite
Ġimp osed
Ġgr ain
ĠGe off
ĠBel arus
Ġsac red
ym ph
w oman
pro duced
Ġlegend ary
Ġsh oes
Ġmist ake
Ġac claimed
Ġo ct
Ġref uses
w ind
ĠD rama
ĠMan it
ĠF uture
ĠK i
Ġhol es
Ġmigr ation
ĠC F
a que
am y
ĠPr ivate
ĠSub sequently
ĠRel ations
Ġtre as
ĠP ep
Ġadv ised
Ġreact ions
ĠComp an
d ing
ĠE ss
Ġcollect ing
ust ers
Ġmill ions
Ġman or
Ġsw all
á ¹
199 9
v as
ĠD uc
Ġbass ist
Ġarr ay
ĠW atch
N orth
ĠF aith
ĠCont inental
Ġun ions
Ġcent ered
ĠArm strong
J uly
Ġen vironments
ĠRon ald
iff e
alt ies
Ġworksh ops
Å Ľ
ĠObl ast
ĠEc uador
Ġ icon
ĠC ut
ĠM ead
il ion
aly mp
hy ll
Ġc osm
C ome
ĠD ata
Ġcap abilities
Ġp uzz
Ġobserv ations
Ġc ig
Ġv ector
ĠRh ode
ĠL ogan
ĠTh urs
ĠJac ques
Ġhost ing
imens ions
ĠHol mes
ĠB elf
ĠK arn
Ġbas ement
ac ional
Ġsport ing
Ġprec ip
Ġa ster
Ġair ing
ethel ess
Ġvar ieties
Ġr ushing
Ġg arn
pr ises
ĠPaul o
Ġdiscip line
Ġdevelop ers
Ġ8 3
ĠGi ov
ĠL odge
ild a
Ġun con
Ġvoy age
st all
Ġit em
ep ing
G C
ĠEm my
ĠS ite
Ġkilomet res
ĠO ber
Ġfold ed
H ey
Ġmyster ious
P aul
Ġhy d
Ġcompan ion
Ġcir cles
Ġquiet ly
he nd
Ġste ady
Ġdevelop er
Ġse al
C ap
Ġout come
Ġsymb ols
Ġhe ct
ill on
ĠT ab
Ġp ier
ple te
ĠT at
Ġcreat ures
ĠN g
ĠDav ies
Ġsurf aces
ĠX V
tal ions
ĠE is
ĠBr ussels
Ġmilit ia
ĠR ush
Ġvulner able
ĠR aw
ĠCh ad
ĠD ale
et ing
b ank
A pril
ĠC yr
Ġspec ified
ĠV iew
ĠU rugu
ĠTr ack
Ġgl ad
oc ene
ĠC red
Eng lish
ĠPh ot
ĠRe id
Ġmy stery
es ar
Ġg ently
Ġm ud
Ġmanufact ure
off s
Ġpoor ly
ĠFr anz
ed ge
oph one
Ġveget ation
uch y
p ress
ĠArt ists
O T
ĠBrook s
ĠC C
ĠCard inals
Ġterrit orial
Ġinnov ative
ĠR oth
ĠB ark
E very
ĠBened ict
Ġd ad
u in
Ġsl avery
ram s
ol ith
ĠAdvis ory
Ġagg ressive
Ġdis agre
Ġlect urer
Ġass ume
at em
Ġr ape
ĠM am
Ġr iders
ĠZh ang
Ġjournal ism
Ġcam eras
Ġl ots
th is
Ġmanif est
Ġj oy
ĠCh uck
Ġac claim
ĠZ imb
aj i
Ġadvis or
Ġjoin s
Ch ar
ĠX I
Ġdecre ased
P ol
Ġg low
Ġn aming
ĠM C
ĠH ull
Ġimprison ment
ap a
Ġg odd
sk a
Le ague
Ġens emble
Ġmar ble
H C
ĠL ocated
Ġver te
Ġundert aken
Ġab bre
ĠD ad
ĠAp ost
ĠCard iff
Ġd ors
Ġhon est
Ġvic inity
ro le
ĠL ac
Ġreb ounds
Ġc odes
Ġ- -
O ctober
Ġad option
Ġs ulf
Ġob st
Ġtw entieth
Ġqu e
Ġdyn amic
ab we
ul ates
Ġhum or
D avid
ĠF ly
Ġboard ing
st op
Ġtrib al
Y our
im ity
Ġpros per
Ġimm un
Ġacc us
ĠCa uc
S eptember
Ġconf ident
ĠP ly
ĠAh mad
ĠSt age
ĠAbd ul
Ġdr ives
Ġconsider ation
Ġle ase
so le
lik ely
ĠB od
Ġmagn itude
Ġuncle ar
Ġlog ic
ere k
Ġagre es
ĠKing ston
ĠTw itter
Ġfore ver
Ġsuburb s
ol ics
ĠRabb i
ĠSh ield
ia z
st able
ĠF oot
Ġfat al
Ġaccord ance
ĠWood s
ĠCypr us
Ġteam mate
Ġexp elled
ab i
D R
Ġexpl oration
P al
ĠC itiz
Ġinc idents
ĠPrinc eton
ĠLith uania
Ġkiss ed
ur as
ĠP ick
ĠSher iff
ĠL GBT
Ġrecon struction
ĠBr id
Ġinteract ions
Ġ185 2
Ġmathemat ical
Ġrev ived
st ock
H er
Ġch orus
ĠO z
ĠC ann
Ġprov en
Ġpred icted
Ġn urse
n ai
A f
io let
Ġf ires
na issance
ĠGene va
ik es
ĠAndrew s
Ġnot ion
Ġe ase
Ġl over
20 16
Ġball s
L ife
Ġconscious ness
Ġst aring
ĠGrand e
ĠC ort
Ġ" ...
ĠSomet imes
S te
Ġexam ined
ĠF erg
Ġsouth western
ent o
ĠA w
ĠMe g
Ġlist ing
ĠCan terbury
CA R
ĠMor r
w id
ĠH erm
Ġprob ability
orient ed
ash ing
ol ine
Ġqu art
S al
und a
Ġpal m
Ġfeed ing
Ġrot ation
M et
Ä ĩ
ie u
Ġbreak fast
s ix
ĠSur rey
ĠSol omon
uan ian
Ġl un
ew ise
o que
ĠF lying
Ġmission ary
Ġcons ensus
Ġdr agon
Ġp ig
ĠAdv anced
Ġhabit ats
ok u
Ġaer ial
Ġlif estyle
I F
ĠUg anda
ĠM ang
l ies
z ing
ros cop
Ġopp osing
av in
Ġep it
Ġ ion
Ġd imin
Ġj e
ĠTrans it
ĠJohann es
Ġcomplic ated
Ġspeak s
ĠS ource
g overnment
ibl ical
Ï Ĥ
Ġint ellig
ĠUnivers e
Ġbet ray
ĠPar alymp
ĠDun can
Ġc ant
er als
Ġtheore tical
Ġcur rency
s ign
ar ians
ĠKaz akh
Ġs ke
ĠB ears
ĠD im
ĠGu ang
Ġmonitor ing
Ġmin eral
Ġsub stance
Ġcop yright
Ġb ills
Ġhuman ity
Ġor ph
Ġqu it
J os
Ġpur ple
ĠC avalry
Ġinterview ed
Ġw arr
Ġattract ive
Ġf ed
b est
Ġvo iced
ou x
ĠAnn ual
ĠEll is
ĠCol in
Ġc er
ĠR ank
ĠPubl ishing
Ġconv ince
Ġsepar ately
Ġfinal e
Ġd ock
Ġd ancer
Ġs aving
Ġad equ
ĠHind i
G od
ĠMoroc co
Ġto ss
Ġbo ost
c ap
Ġmat ure
Ã© d
Ġre join
anc ers
ĠJess e
Äģ n
ĠEst ate
Ġro de
Ġn avy
ĠH im
ĠCompet ition
Ġ185 3
b ian
yl an
Ġal gebra
Ġrep airs
ĠEngine ers
Ġl ib
Ġpropos als
ĠTest ament
ĠLuther an
ĠCamp us
Ġpres ervation
ubl ished
iction ary
Ġgar age
ĠMalt a
s omet
ĠBaron et
ĠH i
Âł ft
ĠPresbyter ian
Ġsl opes
miss ions
ĠAl pha
Ġv ig
Ġin clusion
Ġcolon el
Ġgu ided
Ġr ings
Ġz ones
O W
er i
n on
et e
Ġrev ol
ĠAn a
id i
ĠT alk
Ġbacter ia
Ġch a
ar in
ĠDist inguished
ĠFerdin and
Ġcr ashed
Ġo ak
y d
Ġcondem ned
Ġremov ing
Ġcon ceived
song writer
ĠT ampa
Ġarm or
ĠK em
ĠAg re
ĠUnf ortunately
ĠT ree
ens en
ĠConstant in
Ġinv itation
d ivision
it ory
Ġw olf
ĠA ur
and ra
stan bul
ĠBas in
Ġreg istration
Ġcruc ial
Ġarg uing
che wan
ĠDomin ican
Ġclim bed
less ly
th ouse
Ġaver aged
ĠCy cl
anc a
Ġemb arrass
c u
Ġsal ary
Ġperform s
Ġan ten
p ath
ah u
Ġa rose
er ie
Ġd ining
Ġen cl
Ġy es
ĠG T
c or
ĠA ch
Ġcl erk
Ġlay out
ĠPl ate
ĠBe aut
Ġn od
Ġw ishes
Ġcustom s
Ġest imate
Ġdraw s
Ġde alt
Ġpromot ional
Ġdeep er
ĠOs lo
ĠBrad ley
air y
ĠP ir
row ing
ĠF ighter
Ġfoss il
el o
l ass
an ian
Ġdiscuss ions
Ġwild life
Ġover come
merc ially
st airs
ĠSalv ador
Ġconv oy
ĠR anch
Ġrenov ated
d ays
Ġpop ulated
Ġbur st
est e
ĠBrad ford
he ng
Ġestim ates
Ġor g
ot he
Ġcr ack
Ġnorth western
Dec ember
Ġoff ense
Ġprox imity
Ġport raits
Ġread er
Ġl ord
ud ed
Ġconst r
Ġib n
ĠRichard son
Ġhappen ing
Ġch lor
Ġserv ants
if ax
ett es
ĠG ren
Ġstrugg ling
Ġcare ful
Ġbelie ving
ĠBe a
ĠV oice
Ġmeas uring
ĠSim pson
on ne
Ġassass ination
Ġam ph
erv es
Ġleg acy
C al
ĠG ael
Ġpen insula
Ġexha ust
ĠAd rian
ĠA N
Ġinst ant
{ {
ĠG az
Ġlim estone
ĠN as
Ġdro pping
ĠDyn asty
f old
ĠI BM
Ġ184 9
L os
Ġfort une
Ġatt ribut
Ġreleg ation
c al
R ock
ag le
l abel
ass y
Ġpre val
Ġex empt
Ġspect rum
ĠId aho
Ġsp l
Ġprotect ing
Ġbr ut
id an
ĠArmen ia
ĠA B
Ġless er
g ener
Ġlik es
Ġflag ship
Ġpost hum
Ġstri kes
Ġarchitect s
ĠGib son
ĠCarol ine
es a
Ġcount ed
Ġdefin itely
P M
Ġbi ology
ish i
ook s
re v
ĠAct or
ĠSant iago
ĠH ass
ĠZimb abwe
et ry
Ġtr apped
Ġs unk
Ġsurpr ising
F l
ĠEp iscopal
Ġfe ather
Ġto b
S uper
Ġrecon c
Ġped est
ĠGu ards
can ic
ĠLux emb
he ro
Ġrend ered
199 8
e astern
Ġkeep s
B rit
Ġent ries
Ġleg ally
19 70
ighth ouse
Ph il
r ant
Ġinvestig ated
Ġrenov ation
c hester
ĠLegisl ature
Ġtom orrow
Ġox id
Ġcontin ental
Ġrival ry
Ġad m
ĠP ink
Ġsw ept
ĠSaskat chewan
ĠTr in
Ġaccident ally
Ġf lesh
ard i
Ġsm ell
ĠM ine
Ġj aw
ĠVlad imir
Ġunder lying
Ġmin im
oun s
nold s
ĠL ie
Ġlow ered
ĠS ang
Ġrom ance
ĠWild life
ĠS ter
any on
el in
ĠDes ert
Ġd imensions
ĠBel grade
Ġ184 7
ak u
Ġremark able
d an
Ġactiv ated
ĠPrincip al
ĠP ath
ĠSebast ian
H ist
anc ement
oy le
Ġinter ven
Ġwithdraw al
ĠCl aire
Ġsc ales
Ġbox ing
ane ous
Ġball ot
Ġconsid ers
Ġtr ace
ĠFound ed
Ġl aps
Ġconqu est
ĠT iger
ĠM obile
ĠH ir
Ġboy friend
enn ium
C omm
ĠPer haps
Ġkn ees
Ġhorizon tal
Ġdepict ing
Ġreb el
Ġabst ract
ĠSch w
ical s
O M
ĠSaf ety
Ġr amp
ĠP orter
ĠK urd
Ġrun way
ĠV id
ĠE b
es ters
ĠD j
ed o
ro ying
P at
Ġtr im
e a
Ġhur ricane
ĠBa iley
Ġelabor ate
ĠV il
ĠK urt
Ġbut ton
Nov ember
199 7
ĠAr senal
ĠF inals
ri um
ĠA F
in as
ĠHend erson
Ġrespons ibilities
Ġt ough
Ġmark ing
Ġre per
abl ing
enc ia
Rober t
Ġpres idency
om atic
ĠRod rig
ĠG ol
, '
Ġr ises
Ġst ead
th an
idel ines
m ember
Ġc ooking
G N
Ġn aked
ĠK ra
S ir
Ġbond s
ĠWednes day
ugh t
aw i
ĠPow ell
ĠD und
ell ar
Ġdis abled
Ġp ine
Jan uary
Ġv ault
Ġd ense
ik ing
P ort
d orf
Ġp ushing
ux iliary
Ġtr igg
ac hers
ĠAct ress
ĠW orth
Ġh ub
Ġarg uments
Ġwitness ed
Ġr ush
Ġthr ust
am ine
Ġconsist ently
Ġv inyl
Ġbr ands
Ġfer til
app a
ĠT roy
ĠS H
it ative
ĠC IA
us hes
Ġcust ody
Ġor ch
Ġtheore m
ou p
ĠEd itor
Ġm arri
ĠC ord
Ġdirect ing
Î µ
Ġsl ipped
ĠESP N
ĠM oses
th ood
Ġdet erior
ĠD ob
ĠIn stit
ĠGer ald
Ġsub urban
ĠMar io
Ġprem ises
ĠHur ricane
ĠH od
Ġrecon struct
Ġmanuscript s
ĠRe ich
ĠGl ass
head ed
ĠS aw
ĠSt ore
Ġs ne
lin ary
Ġenroll ment
ĠAlb ania
ĠWar wick
ĠBry an
ĠAm endment
Ġdemonstr ate
ĠPrest on
Ġansw ers
Ġcon tend
Ġjud gment
Ġterror ist
ucle ar
H ung
Ġ13 0
Ġexhib its
ĠHer ald
Ġall ocated
Ġalph abet
ĠN umber
add le
ĠPark s
Ġinc red
ĠM ing
ĠScient ific
ĠGu j
Ġpar as
ĠBl oom
ĠH alf
Ġsn ail
ant le
ĠM ade
ĠKum ar
ĠDirect ors
ĠPro per
ĠCath olics
ĠAnn ie
Ġcalc ulated
ĠRom ans
Ġs ank
Ġm anga
enz ie
Ġsome how
Ġbankrupt cy
ch ron
qu in
Ġster e
ĠD S
" ".
ĠBright on
ĠM s
Ġemb arked
Ġinstruct or
Ġth read
ĠV eter
gr im
ĠP iet
l isted
Ġfrag ment
h urst
on ing
b one
Ġpurs uit
ĠPly mouth
ĠMem phis
Ġmechan isms
Ġfavor able
ĠCurt is
Ġprohib ited
ĠSh op
Ġcreat or
Ġst abil
rit ic
ĠV a
ĠPal m
Ġn a
ve ill
ĠForm ation
O kay
ĠDou g
ĠBl u
rest rial
g ary
ĠFellow ship
Ġemigr ated
Ġbreath ing
B rien
ut a
ĠHe aven
Ġtr ap
Ġkey s
ĠMach ine
Ġinter im
ĠManit oba
se at
ĠAddition al
O ld
Ġexpl ored
Ä Ļ
Ġcompos ers
Ġl on
ĠMon ten
r and
Ġprot agonist
Ġclimb ing
Ġun ited
Ġ184 6
ist le
Ġsol ve
c r
Ġham let
ott a
ĠCl aud
"> </
ĠRepublic ans
st ra
O P
clus ive
S am
agon al
Ġfre estyle
ĠS ep
ĠNA TO
c ock
Ġun t
Ġr anch
Ġenorm ous
ĠA FL
Ġpres um
Ġput s
ak k
S at
ĠCh ancellor
Ġscreen play
Ġautonom ous
Ġappro aching
ĠB il
ĠBC E
D id
Ġfight s
Ġbot an
ĠM iles
Ġmolec ules
ĠQ ing
ĠT H
Ġbe ings
mon ton
ic z
ĠS old
Ġcont ents
Ġme al
I reland
j ud
Ġorient ation
Ġstrateg ies
Ġte lev
Ġtrad em
H en
Ġopt ical
Ġshrug ged
Ġf rog
Ġopen ly
ĠLind a
ĠMil ton
Ġnickn amed
ĠN adu
Ġpron ounced
old s
Ġprior ity
ĠBur ton
Ġcrown ed
S y
Ġwel come
Ġl oves
Ġabbre v
r ange
Ġlet ting
Ġinaug urated
sm ith
Ġcl oth
Ġalt ar
Ġcast ing
at to
Ġpre f
land o
Ġcontroll ing
% ).
ĠMar tha
Ġtact ics
ĠPr ison
Ġresc ued
M T
gr ad
ĠCrit ics
Ġgodd ess
le z
ĠB aby
Ġ15 00
ĠAgain st
veill ance
ĠC anton
Ġobvious ly
Ġrecur ring
Ġhar ass
Ġwa ist
Ġdep icts
ĠCom edy
ĠCl a
Ġsurrend ered
ĠC ris
Ġsculpt or
at ics
ĠCal gary
ĠCol lect
Ġint act
Euro pe
Ġreve aling
pow ered
Ġf are
Ġc ub
Ġavo ided
ĠD ow
as ium
ĠCamb od
im er
Ġdest roying
m al
ot ted
Ġcor ridor
Ġafter math
Q ue
ĠTh ir
Ġsub family
Ġb arrier
Ġh aul
Ġaut o
Ġret rie
he ll
Ġsur pass
Ġport fol
ĠD arl
mark et
Ġpolit ically
Ġing red
ĠT ues
Ġh o
Ġbath room
Ġ18 12
ĠCont est
Ġcontinu ously
Ġsub species
ĠHal ifax
y ards
Ġg amb
Ġcomm ittees
Ð º
R ich
Ġbl ade
ĠSpe aker
p ose
Ġt une
ĠFerg us
E F
ĠAssoci ate
ist ocr
ĠSh ore
] ,
ig ger
ij a
ocol ate
Ġtob acco
S l
ĠB alk
ĠBas il
Ġsum mon
Ġs ax
ĠAb original
G et
im an
ob s
Ġce ase
ĠS ara
Ġsuperv ision
ĠPe ak
ĠC ert
Ġkn ight
ag ne
Ġpor ch
os ely
act ic
Ġstop ping
Ġfacilit ate
ĠPar am
ĠHop kins
Ġgener a
Ñ ĥ
Ġr aced
ĠCl if
Ġlast ing
Ġmemb rane
M a
ĠHar per
Ġd orm
ĠUS SR
Ġentreprene ur
oc ate
Ġind irect
ĠEv angel
ĠAr d
Ġspons or
ar u
Ġbox es
Ġpay ments
ad h
ĠFern ando
Ġjoint ly
ĠH aven
Ġper former
Ġurg ed
Ã Ĺ
ĠFilip ino
Ġal arm
k ind
in um
Ġathlet ics
Ġgame play
L ittle
N P
Ġmon ks
Ġp ub
com es
Ġp av
Ġdig it
Ġcom mercially
itz er
ke es
ĠPhil osophy
Ġconsum ers
Ġf ron
Ġb uck
Ġt a
Ġun likely
Ġimport ed
i ott
ist on
as se
ĠNap les
Ġf et
ĠColon ial
Ġtro phy
Ar t
Ġre habilit
ĠInter ior
O L
Ġsix ty
Ġrecre ational
Ġmos que
ĠV ale
ĠPl aza
1 50
O ut
ĠGu atem
Ġfac ade
Ġsp ur
ĠAll ah
ĠMc Donald
Ã¤ r
S ee
Ġin land
ĠRey nolds
Ġfact s
Ġphilosop her
h ouses
ĠTe h
Ġep ic
ĠCoal ition
ĠI gn
ĠTr ain
enn a
Ġagre ements
ĠFrank furt
Ġut ility
ĠL ig
ed uc
ĠSlov enia
ĠCr us
onom ic
Ġfact ion
Ġrelie ved
Ġload ed
ĠExam ples
Ġhum id
ĠRh ine
erv atory
ĠCor p
Ġpar ad
D es
ar ium
rib e
ip ed
ĠSab ha
ĠR ab
ur ities
Ġaud ition
Ġenter prise
kin son
Ġpreced ing
ĠC anyon
col m
ĠR A
Ġexc ited
and ro
Ġphot ograp
Ġchalleng ing
ĠCh a
ĠEug ene
pl ane
Ġsal v
Ġrecept or
Ġaccept ance
ĠPr ussia
Ġplan es
Ġl os
man uel
ĠC u
Ġinvestig ations
ĠWes ley
ĠB rent
Ġsocial ist
Ġmurd ers
ĠCap itol
ĠP am
ĠStud y
Ġbit ter
Ġc ere
ok en
ĠGiov anni
Ġtruck s
ĠPre fecture
ĠCat al
Ġhypothes is
Ġdeleg ation
Ġsculpt ures
ĠAlb any
al is
he ars
Ġep id
Ġpro claimed
ĠCh in
Ġprop ri
ĠN othing
it ively
Ġsuccess ive
Ã© m
Ġhot els
Ġinher it
Ġ18 20
ĠFif th
7 00
ĠAll an
ĠMan or
g ae
Ġbound ed
ar is
land ers
ĠHar bour
Ġres ur
Ġdescend ed
ĠK aren
ĠHe at
ung le
ĠG P
ĠBed ford
Ġsh ar
Ġtick ets
Ġelder ly
Ġbr illiant
Ġmot if
Ġrap per
Ġwitness es
ri er
ĠW end
z ens
ĠRes ources
Ġvel ocity
ĠMar ines
Ġnovel ist
Ġ184 5
Ġl uck
Ġlab els
Ġenh anced
Ġc razy
c ussion
ĠS isters
ĠB end
Ġgen res
all i
) ",
Ġw rap
Ġph on
ĠLes lie
Ġdiagn osed
h as
ĠK in
est ablished
he y
ic us
Ġhard er
at ched
Ġst upid
Ġin cl
ĠP ine
Ġte nder
Ġlength s
Ġpossess ed
Ġachie ving
en i
ĠH ess
ĠMus ical
Ġforg otten
ĠBo eing
Ġsub mit
b ad
m and
ĠAn at
h ra
ĠChar ter
Ġhe ter
ĠBelf ast
ĠJerem y
ĠD w
Ġb reat
Ġcount s
em por
Ġrad i
Ã ¯
ĠCry stal
Ġher s
G P
ric a
ĠThurs day
ĠF eder
ar re
ĠNik ol
ĠM echan
ĠC ed
d is
ĠMidd les
G reat
ĠT anz
is ive
Ġax is
ist ence
ĠAgre ement
Ġresp ected
Ġsemif inals
Ġfe ared
Ġant ib
ĠGl obe
Ġhar bour
Ġunve iled
d aughter
Ġbomb s
Ġh ttp
ĠAlexand ria
Âł M
Ġbat teries
Ġbu ying
Ġb ishops
Ġrul ers
ĠLy on
Ġpast or
Ġfound ations
ĠF olk
Ġsett ings
ĠQ ur
x i
ĠL ah
c in
Ġadd s
ze gov
ip ur
ĠPhys ics
ĠE g
est ock
ĠJenn ifer
Ġdiv ide
ĠWind sor
h ttps
at al
ĠC it
ĠArch ae
ĠB ever
ĠPl anning
ĠC ave
ĠH arm
ĠPorts mouth
Ġhard ly
a uthor
v ens
h art
T I
Ġworksh op
ĠFr aser
Ġ à¤
Ġpoin ting
eal ous
zh ou
Ġlux ury
Ġc ater
l ay
Ġadv ocated
Ġadministr ator
Ġprevent ing
Ġcl uster
Ġmotorcy cle
ĠX X
al id
Ġdisc ipl
199 5
id ays
Ġunc ons
ĠMon roe
en ary
form ed
Ġinv aded
ĠV III
w alk
ĠM ail
Ġsustain able
ĠRoberts on
Ġauth ored
ĠNS W
ĠD ylan
Ġorgan ize
ain ted
Ġor th
Ġrel iable
ĠLe vel
ass is
Ġad mission
Ġtack le
à ¦
Ġcompr ised
ĠLe op
ely n
ic les
Ġerr ors
199 6
A h
Ġmod est
ĠF un
stad t
uch i
Ġseek s
ĠVar ious
ĠEd monton
ast ics
Ġstat istical
Ġw itch
Ġproceed ings
Ġproceed s
ĠSpring field
Ġres olved
Ġtorn ado
am as
ĠStaff ord
ã ĥ
ĠO ct
ĠPro f
Th ank
ĠRoc hester
Ġartif acts
Ġl aser
op ing
ĠTy p
Ġtherm al
Ġt ap
ĠSh adow
Ġveter ans
al though
Ġbl ast
Ġend angered
L es
y ch
Ġraid s
Ġvac ant
Ġsynthes is
Ġsub div
Ġreal izes
iment al
ĠC ly
oc ial
Ġun to
Ġhe aven
L ou
Ġconspir acy
cript ions
Ġaccur acy
Ġmus cles
Ġrub ber
ĠSchol ars
ad ia
Ġge ographical
ace ut
ĠBer k
i ots
ĠC ome
Ġseem ingly
Ġperfect ly
ĠSp art
ĠG Ã¶
O f
Ġsp at
Ġbe nd
ĠR ib
Ġphil anthrop
Ġb eds
Ġmuseum s
Ġreflect s
Ġmater nal
Ġcontract ed
Ġcont rad
e i
ĠL enn
abl o
Ġrect angular
ĠHead quarters
Ġlong time
is dom
Ġfun ny
Ï ĥ
ĠPresident ial
war f
Ġsect ors
ĠParliament ary
ĠGl enn
ĠM oss
ĠL omb
ĠAp ollo
own er
Ġc hess
ĠN an
Ġper f
Ġinnov ation
Ġobtain ing
Ġl ined
R ussian
Ġancest ry
atern ity
Ġver b
Ġall ied
Ġm a
av o
duc er
Ġadv ancing
ĠG em
ĠMc N
ĠOrig inal
Ġcontest ants
ĠNot re
Ġext ract
ĠB anks
Ġflow ing
ĠBurn s
Ġbl ess
Ġem bed
ĠAng els
ĠO wn
ber to
Ġsend s
ĠArchitect ure
F ebruary
ond o
Ġlack ed
Ġspons orship
ĠG amb
Ġcour age
Ġsh ocked
Ġs ink
b ase
od or
ĠBill board
ĠT ask
Ġfle e
Ġcert ificate
th s
Ġille g
the re
Ġd irt
ĠI F
Ġresear cher
ĠL ic
ĠW ord
ĠL iz
Ġdep ot
Ġres ist
ar ity
r ina
Ġstr ings
Ġunder go
Ġmerch ants
ĠD iana
S aint
Ġpeace ful
G old
ĠCinem a
Ġintro ducing
osy stem
ĠComple x
Ġsacrif ice
ĠC rist
if iers
M at
ĠU m
Geor ge
s i
Ġsl id
Ġsil k
Ġar istocr
Ġsp are
ind s
Ġaccompany ing
ĠA L
iform es
ĠV ij
Ġcare ers
ĠK end
Ġ183 7
Ġunsuccess fully
her ic
Ġsecret ly
Ġwings pan
ĠDep ression
Ġloc als
Ġ12 5
ĠD ew
Ġm arsh
cy cl
ĠC el
Ġpract ition
B R
c ard
l if
Ġpresent ing
ĠK w
Ġhol y
ĠEston ia
Ġpropag anda
Ġup r
Ġm il
Ġ14 0
ord ination
ĠL ost
ĠW arriors
ĠAmeric as
ĠU A
ĠSem inary
Ġe leg
w ald
Ġh unt
ĠL S
ĠGh ost
R eg
ack er
yl um
Ġtr unk
Ġo ri
ĠProg ressive
Ġv ine
ĠWrit ers
Ġdet ective
iv o
Ġdisp uted
f in
ĠMorr ison
Ġsc out
Ġdis k
Ġfact ories
Ġinn ocent
Ġcerem onies
Ġc af
Ġinv ested
Ġtr ails
Ġlo ans
Ġnational ist
Ġdeploy ment
ĠH MS
ĠH off
ĠI stanbul
y g
Ġiniti atives
ĠAber de
y on
Ġ3 50
ĠLyn n
p ri
Ã °
Ġdemonstr ation
ĠCom b
iffer ent
Ġdis gu
20 17
Ġobject ives
ad os
et ics
ĠKenn eth
Ġc ord
Ġd iving
ĠBet ty
Ġdon ations
Ġdec ree
cles iast
h ot
Ġdif f
Ġg rip
Ġvamp ire
p resent
Ġs aint
rit ion
Ġpar ade
et ti
Ġser ver
Ġdeleg ates
Ġpre tend
ĠR NA
Ġrook ie
ĠÅ ģ
Ã¡ r
Ġl ig
Ġcontact s
Ġm aj
en o
Ġsy ll
ĠCo hen
and in
Ġvari ables
ĠL az
ri ans
ĠY es
Ġsl am
Ġaccompl ish
ĠK ane
Ġflo ating
ĠM ale
Ġn an
mus ic
ĠW ake
ĠLanc aster
ĠBarn es
ĠU tt
ĠB ord
Ġsub ordin
Ġne ur
Ġgr ace
Ġspec imen
H ar
Ġhost ile
ĠC lement
ĠWag ner
ĠH els
Ġmanag ers
ĠM ick
ver age
Ġvol tage
ĠAntar ctic
Ġmon ster
ĠF ay
ĠAcc ount
ĠIs ab
ĠEx cell
Ġtestim ony
Ġprom ising
Ġeval uation
ĠK ann
Ġt onn
Ġinter f
Ġess ays
Ġpo ets
ĠÃ ĸ
Ã »
fic ial
Ġflow ering
or rect
Ġdim ension
Ġmar ched
ĠI N
Ġch im
ĠW A
ĠBuddh ism
zegov ina
ĠLore n
Ġnavig ation
ĠLuxemb ourg
Ġb ent
ĠA FC
Ġpresent er
sh ot
Ġl ighter
act ions
oty pes
ad io
Ġtr ump
s qu
Ġsp elled
D ay
G l
ĠK ang
ĠCar roll
Ġgradu ates
ion ed
Ġpromin ence
orm s
Ġtort ure
epend ent
Ġbat ted
Ġrev olt
ir ie
ĠRich ards
ĠD ipl
ĠInd ividual
Ġch uck
Ġexerc ises
Ġsl ot
Ġ184 1
Ġmiss iles
ĠBo hem
ĠNob el
Ġcons ort
âĢĻ .
duct ive
Ġrout ine
ĠDay ton
E v
Ñ ĸ
á ½
Ġam id
Ġwrest ler
Ġas cend
ĠRe ver
is ode
ĠBalt ic
H igh
Ġsp ark
ĠFact ory
Ġreun ited
Ġb ike
T op
Ġreal m
ak ov
Ġmarket ed
ĠI TV
ĠSac ram
" âĢĶ
ĠOr lando
sm ashwords
Ġout lets
m ain
Ġspe eds
elf th
Ġcrew s
amb o
or ate
Ġcap ability
ir ical
I tal
Ġab ortion
hem atic
Ð »
Ġch ains
Ġpaus ed
pe ople
Ġbat talions
ĠV iol
ig ate
Ġrefere e
uff icient
ĠAc cess
Ã© g
ĠD ud
Ġp ond
ph ant
Ġk een
ĠC os
b ird
W R
Ġcol ored
ĠQu est
Ġir rig
eg ie
Ġ10 5
... ]
Ġ3 60
Ġvers es
Ġs izes
ĠF R
Ġsub stit
ol an
Ġent ities
ĠD um
Ġc anton
ĠC ros
ĠE k
ĠPol l
Ġult imate
Ġdeclar ation
r ise
im on
an or
un al
ĠEx hibition
ĠInd ex
ĠD oll
ĠLiber ation
ĠLyn ch
Ġg am
Ġcompl aints
Ġsp o
ble m
H ol
ĠM uk
Ġro d
ĠSp ider
Ġreg iments
Ġprosp ect
B el
ian e
ĠSouth west
ĠWork ing
Ġdet ected
Ġnomine e
Ġc arriage
Ġsur geon
ĠGriff in
occ up
el age
arent s
ĠAr ctic
en heim
ĠChurch ill
Ġcontin ent
Ġimag ine
Ġle nd
com ed
Ġe cho
ĠN acional
Ġuncons cious
on ation
Ġconqu ered
s chool
ĠMerc ury
m ile
Ġfrag ments
Ġw ounds
Ġpoll ution
Ġcr im
mod ern
ĠI g
Ġopin ions
h ole
u um
Ġwhen ever
Ġview ing
Th omas
ens ed
ĠV ick
Ġhon ours
Ġhighlight ed
Ġder ives
atern al
ran o
end ers
p res
Ġc arn
os ity
Ġse ating
m ic
ĠMar ion
Ġthr iller
ĠSt ra
Ġed iting
Ġres ides
ĠI D
Ġrespons es
Ġp ipe
Ġproject ed
Ġ184 4
Ġhold er
c ience
ĠG ir
Ġp enn
ind ers
ĠPar ad
Ġf illing
Ġoverwhel ming
Ġcry pt
k ers
Ġcrit ically
199 4
Ġelimin ate
ress ing
Ġdemand ing
ĠT able
Ġtr aces
Ġmag ical
Ġpregn ancy
Ġpar ishes
Ġhand ful
ne ath
Ġ183 6
T R
F irst
J ack
Ġpr ide
ound ing
Ġmet re
ĠHun ting
le ft
Ġaccount ing
child ren
F rench
wa it
ib li
Ġw ool
Ġdece ased
ĠSe oul
Ġper ception
ri pp
Ġ183 8
ĠAgricult ural
u ce
Ġt ear
ĠPr act
Ġsmall est
ĠP omer
Ġlaw yers
ĠS weet
Ġgif ts
Ġb io
Ġform ats
Ġd il
Ġtri umph
om ical
Ġad mir
Âł 1
ĠD rew
M art
ĠD iet
ip eg
ĠWy oming
Ġg ly
Ġmob il
in stein
ĠH ern
Ġprov ider
Ġfru its
al us
Ġbord ered
Ġnew er
Ġrecommend ations
- "
Ġre opened
Ġstret ched
Ġtrail er
O K
Ġpreced ed
Ã¸ r
m el
Ġfood s
ĠG iven
Ġendors ed
ĠBl air
io x
Ġdis orders
ĠT err
Ġcost ume
ĠM is
Ġr ider
w ill
ĠP R
b ot
Ġc ement
ar ound
rec ord
ĠDar win
g ood
Ġaccommod ation
l ied
Ġphil osophical
pent er
Ġsubt ropical
Ġcon sole
Ġfl own
199 3
ĠL il
ĠCorn ell
Ġancest ors
Ġmyth ology
Ġbal let
Ġ ĠĊ
Ġp ension
Ġhero es
ĠCarn egie
onn y
ĠR iley
Ġgot ten
ĠOffic ial
ll a
ĠHay es
Ġover th
Ġgrav ity
ĠV i
ĠMar l
ĠMov ie
Ġpat ch
ĠMal colm
Ġmass acre
se nd
oca ust
Ġcelebr ity
Ġsomet ime
Ġspir its
ĠL iam
ĠO st
c over
Ġsl ope
Ġstrict ly
ĠC hess
ĠT ake
Ġex pense
ĠEthiop ia
Ġa unt
Ġcarri ers
ĠStr at
ĠMer ced
Ġst int
itor ium
Ġneighborhood s
ĠJosh ua
Ġfre ely
all a
Ġloyal ty
Ġfemin ist
ĠHug o
ĠP Ã©
Ġavail ability
Ġrepe at
Ġm ere
Ġorgan isms
ĠEd gar
ĠB ren
ĠPre viously
ard e
ĠLeices ter
Ġun ity
Ġclass room
Ġf iscal
Ġ183 9
199 2
Ã± o
Ġcomed ian
og o
ĠC i
as is
nd ez
Ġcommun icate
ĠMar ian
aff e
ĠCong reg
ĠE aster
role um
ĠH annah
lit er
Ġexpl aining
ansk rit
ĠL if
ĠRe bec
ĠCur rent
ĠTh ames
ĠH ood
ĠYan kees
ub ble
Ġprin cess
Ġnarrow ly
ĠP eng
Ġautom obile
ar am
ĠNiger ian
il ateral
ĠCom mercial
P G
ĠCh al
Ġam alg
ĠG ospel
J apan
Ġo re
Ġl anes
ĠJess ica
ĠJul ie
ĠGael ic
as ma
Ġman eu
Ġfre ed
Ġreview er
pl us
Ġrein forced
ber ger
oc hem
Ġgran ite
m ons
Ġsn ake
Ġorgan izing
ĠMax im
Ġvol canic
Ġunder neath
ĠN u
t ail
il ogy
Ġmach inery
ĠT ennis
ĠR as
ĠB rom
ĠTues day
M ichael
Ġtr aced
The n
ĠG ur
im eter
ĠIn stitution
ĠPop ular
Ġmechan ics
ace ous
Ġcur ved
ĠC ustom
Un ited
g s
ĠBel le
Ġsub str
Ġviol ation
Ã¢ n
ace y
Ġen closed
ĠIndust ries
A ss
op y
Ġtransmit ter
le en
ash tra
ĠL ay
us a
ĠSh i
Ġlad ies
Ġinter ference
Ġdiv ine
um en
Ġw and
O D
Ġprec ise
oy a
Ġy e
ou b
Ġcry stal
Ġbes ides
ath am
el ic
cent er
asc ar
is ers
p se
Ġspread ing
ĠSc ots
An n
Ġd up
Ġst iff
19 60
ĠSlov akia
Ġinst antly
Ġwonder ful
M iss
Ġconv iction
Ġple ased
Ġd ign
Ġin ception
Ġenthus i
ĠD erek
Ġde er
Ġwebs ites
Ġl ens
Ġunder took
Ġrecon naissance
ĠMe h
anc o
ĠMet al
on ica
Ġ( '
ĠKn ox
ĠSoft ware
Ġevery day
ĠAm anda
con n
ĠF o
Ġro pe
re a
al ong
Ġn erve
ĠCharl eston
ces tershire
Ġem ail
ile e
Ġdef ines
Ġback up
I m
aver n
ĠTh anks
ĠAr n
Ġmarg inal
Ġthreat ening
Ġj ealous
ĠHer zegovina
Ġdes p
Ġrob ot
ĠKos ovo
ĠJ al
ĠShe n
Ġher b
part y
ĠLith uanian
Ġel imination
Ġmet all
Ġpl ural
Ġsh it
ĠCle ar
Ġdevelop s
he e
Ġpersu aded
Ġpartic le
Ġrequ ests
ĠTr avel
Ġ16 0
Ġcateg or
Ġ183 2
is ely
Ġrep ly
Ġsle e
Ġsit com
ĠS M
Ġdem o
Ġscreen ing
Ġmamm als
ĠMaced onia
ĠConstantin ople
Ġf iber
ĠN ixon
Âłm ph
Ġ184 2
Ġle ased
elect ric
ĠAnd ers
Ġcom merce
ĠB j
s il
the l
ĠSuper ior
ĠCraw ford
r ag
ar ag
Ġ ),
Ġfl ies
Ġde ar
Ġlect ure
ĠUl ster
i em
Ġb ol
T om
ĠLe y
urn ed
Ġre vel
W C
sc ript
Ġsp elling
Ġhealth care
Bl ue
ĠW inc
Ġind ie
os al
ĠNot es
let te
isc her
Ġm asters
ĠThe odore
ĠEll iott
ig i
Ġpartn ered
Ġautobi ography
f iction
Ġmet er
ĠBald win
Ġapart ments
Ġmon uments
ĠSc reen
ĠB agh
Ġint im
Ġfore head
Ġpup il
ĠL on
Ġdiplom at
Ġnurs ing
ĠWinn ipeg
Ġcru ise
or um
ĠStef an
ĠYugosl av
Ġbow ling
Ġhect ares
Ġshell s
ĠBur ke
Ġj acket
ad ic
ĠM aid
Ġris ks
Ġmod es
ĠY emen
sp ace
Ġw arriors
ĠÃ Ĺ
ĠNew man
Ġcongress ional
ĠC B
ĠG ul
Ġeat en
Ġdiam ond
ĠI z
ĠDiv is
at ri
Ġre ly
Ġjump ing
U P
Ġm ills
Ġ183 5
Ġequ ality
Ġenact ed
ĠC airo
ĠP or
Ġprofession ally
ent in
Ġb und
Ġsup ern
ĠR up
ĠRe agan
R es
Ġal umni
AA F
ch ar
Ġbutter fly
ã Ĥ
Ġinf ant
) ".
ĠCl ara
Ġmon op
Ġc it
lu ence
by e
ĠHer o
ĠR iv
Ġf ake
âĢĶ âĢĿ
clesiast ical
an ium
ĠB ronze
ĠCam er
ĠJohn s
ĠT otal
Ġchart ed
Ġinstruct ed
Ġcon cess
ĠS eth
Ġter rible
ĠBal let
st roke
ĠPlan et
Ġsatisf ied
Ġmeasure ment
yl on
ĠBu ilt
ĠTh under
Ġsuggest ion
Ġhar vest
ĠJane iro
R ol
ĠBav aria
ĠH ave
T ur
R oman
Ġqual ities
ĠH ann
ĠIn side
Ġenh ance
Ġreason able
ĠJohn ston
Ġexplicit ly
ec hes
ĠKenn y
Ġd ancers
ig nt
ĠWol ver
ĠRos a
M ic
Ġhom eless
umber ed
ĠH oll
Ġreg ret
Ġem issions
h uman
Ġwhe at
Ġfin ite
Ġann oy
rew s
be it
Ġun m
Ġc ivic
ĠAlger ia
ĠClass ical
R NA
Ġadv ances
ĠWe i
ing e
Ġvac c
Ġterm ed
at ro
ĠCal vin
Ġdel ight
p resident
Ġbo om
ĠSouth ampton
ik er
s ay
Ġp ant
Ġs od
Ġb ra
ĠLouis ville
Ġextra ordinary
col span
ĠS ard
A lex
Ġcheck ed
T H
Ġfin est
ĠS ap
ĠLear ning
ĠK ot
Ġab rupt
Ġcountry side
Ġcho ices
ĠRebec ca
Ġsevent een
Ġg ig
Ġover see
Ġscreen ed
Ġcert ification
s ome
Ġanti qu
hy dro
Ã ½
Ġcommission er
b eck
Ġd ug
ĠD rug
Ġappe aled
Ġ1 18
Ġrock y
ĠR id
Ġsem in
ĠBund es
ist ically
ĠRock y
ĠMarsh al
Ġprov iders
Ġinc om
Ġsk illed
Ġacc redited
Ġrail ways
Ġan k
ĠStep han
in ate
Ġdesign ers
ĠB erm
Ġcorrespond ence
Ġdet ection
ing ing
Ġbicy cle
ES CO
Ġf us
Ġam endment
Ġwel comed
C ity
ĠF alk
Ġch ron
ĠWin ston
Ġ umb
Ġf usion
ats u
ĠTr ue
ĠW C
ĠGram mar
Ġlater al
ĠMong ol
ĠN ass
Ġexpect ations
ĠDev il
Ġ184 3
Ġdisp utes
ĠW onder
ĠN iel
ĠBeat les
" ",
om al
ĠA ven
Ġ ~
ĠH ab
g age
Ġf ears
ĠT ru
Ġch in
O ur
P resident
199 1
ĠN um
Ġenl arged
ĠRos en
play ing
Ġmission aries
Ġst arter
ĠV it
wid th
E G
ĠS ons
Ġteac hes
Ġcompl ained
ĠA chie
ĠFranÃ§ ois
ĠDr um
Char les
onn ell
e ur
ĠK ad
Ġstrugg les
ĠChile an
ĠK eep
w rote
Ġed itors
Ġteen ager
D an
Ġtub es
art ime
M D
ĠZ ion
uk u
omm ission
Ġcoordin ates
ĠL ut
ĠWe ather
al ore
Ġment or
Ġv est
Ġpros ecution
am ous
Ġsim ul
Ġimmigr ant
Ġlic ence
m l
Ġinter rog
Ġexpert ise
ĠMichel le
ĠSpeed way
ĠH ors
Ġpost p
Ġnob ility
at aka
Ġfresh man
ĠTh ings
Ġinst ances
Ġstrong est
ĠH ut
ĠPr ussian
u ine
ĠUS S
it ate
ĠH il
Ġsett ling
ĠB elt
res hold
Ġfram es
Ġequ ations
W ith
ĠMar in
Ġsur veillance
á ¸
Ġc rafts
Ġsp awn
s im
ĠT ell
Ġtrain er
al ie
ĠGod d
Ġsaf ely
Ġconsec rated
Ġfr ight
ĠS it
ĠSt alin
Ġacc ent
pro f
ro ve
Ġinstit utional
ĠM oney
ĠG overn
Ġcollect or
Ġas leep
Ġsoph istic
Ġweak ness
M el
Ġfund ra
Ġhigh ways
Ġtermin ated
Ġal ly
Ġtrans mitted
ĠDor othy
Ġd well
Ġrec all
leb rit
atic an
am er
ĠKash mir
r ays
ĠB un
Ġsl ip
c hel
ĠY uan
Ġfe ver
r ice
ĠHel ena
Ġver t
rox imately
ham med
en ic
ĠRec ording
Ġprot ocol
Ġsh aft
ĠProgram me
Ġs her
Ġfl av
Ġfirm ly
ĠL ip
ĠSm ashwords
Ġpath s
Ġgeomet ry
Ġsp here
ain es
Ġcommand ers
Ġaddress es
: #
ol in
any a
ĠP ars
Ġspac ecraft
s u
Ġdecor ative
Ġin quiry
Ġcor rel
Ġprof its
ge ons
e apolis
Ġbr ass
Ġdo zens
N ote
is ure
Ġst ir
ĠLud wig
Ġexp enses
ĠCase y
lebrit ies
ĠStre ets
ĠMalays ian
Ġliv estock
ĠB har
ĠO pt
ĠÄ Ĳ
Ġfoss ils
! ",
ĠTri p
Ġcogn itive
ch ant
ili ation
Ġcons umed
L ive
T wo
ĠK re
ĠJul ius
ĠJo el
Ġlink ing
ĠB att
d ec
amb a
ĠAT P
Ġund ers
arri ers
Ġstr ain
ĠApp e
Ġportfol io
Ġcomplex ity
ĠPict ure
ĠS uk
ĠSher man
Ġenc ounters
Ġschem es
Ġinv ention
eli hood
Ġres on
Ġ[ ...]
Ġref urb
ĠCour se
ĠQu inn
or ters
Ġcolle ague
Ġbl ame
b ling
ĠInd o
Ġaccept ing
K A
ik k
r imin
H y
Ġch assis
ag ogue
Ġp istol
bre aking
ĠSy rac
Ġillustr ations
Ġhe ating
unn els
rell a
ĠNew found
ĠCarl o
Ġmar itime
ĠM oor
Ġtrack ing
ĠNAS CAR
Ġremark ed
s burg
i w
Ġju ven
ĠS ed
ars ity
ĠTreas ury
Ġcapt uring
Ġth y
g irl
g eneral
R ep
ĠWW E
Ġeth n
Ġmeasure ments
ĠCol ony
es que
ĠSp ect
ir ling
in isc
ĠUnd erg
Ġf ence
Ġm ock
Ġw arrior
ost ic
Ġsubstant ially
ĠDub ai
Ġinvest ments
ĠB ast
ass ic
Ġsupposed ly
ĠL ily
ĠCo ch
Ġhe aling
ĠAl most
Ġp orn
Ġr iot
ap or
Ġdrain age
ĠAl g
ib a
Ġcyl inder
Ġcomb ining
Ġsimilar ities
t itled
ĠY ard
ĠL ap
ĠTrin idad
ĠL LC
ĠAm ateur
ĠC ool
Ġteam ed
ĠF erry
Ġo urs
cl ip
C omp
d ad
an an
En ter
P ac
ĠU z
ĠBur ma
âĢĻ ,
Ġ9 00
Ġdestroy er
ĠDe ut
W S
Ġtheat ers
Ġemb assy
olith ic
Ġappl ies
Ġass ert
ĠSc andin
Ġbroad er
c idae
Ġw agon
ag ged
Ġs ued
Ġtel esc
Ġsc orer
Ġl ac
Ġbl amed
Ġr ip
th ird
ari at
ĠR az
M o
cl air
Ġch aired
ĠC ay
ĠCom bat
Ġutil ized
idd ing
Ġg ains
ĠF ur
ĠK erry
Âł p
Ġstat ues
g ency
ĠEd win
ĠKrish na
Ġout s
Ġexcept ions
ĠRaj a
Ġcho osing
act or
w yn
other ap
Ġcelebr ations
ĠOver all
ink i
Ġquant ity
Ġemploy er
ĠAberde en
ĠWals h
ĠBud apest
ro b
Ġto ile
Ġpe as
ĠV ish
Ġprog ressed
Ġmist aken
Ġdescend ant
c ourt
ĠâĢ Ļ
Ġequ ity
Ġres ided
B a
it ars
N R
' )
ĠSic ily
ĠPar agu
ĠDou ble
Ġgram mar
Ġgarn ered
is or
ĠInsp ector
n ormal
Ġviol ations
fore st
Ġcle aring
ĠG ates
Ġintellig ent
ĠY a
ĠSant os
ĠS ind
Ġship ped
Ġpurs uing
ĠV iv
Ġinc orrect
Ġlack ing
rit z
at z
ĠZ en
aged y
ĠT yr
cl iffe
Ġec osystem
t w
ĠH ank
T unes
ĠAndre a
ĠIns urance
ĠP ere
Ġam azing
Ġvol cano
Ġinvestig ating
am by
ĠX box
Ġph ases
ĠD art
le igh
ĠCh o
Ġf ant
Ġatt ained
ĠV in
. ),
ĠR ox
S il
C r
Ġper cussion
Ġconstit ute
g ree
commun ications
ĠR ica
ĠGre ene
ĠUtt ar
Ġr ic
ĠBrown s
ĠStat istical
Ġgl ob
ĠL ed
pher d
Ġcomb ine
ĠR T
ĠAppe als
Ġshr ub
ĠAsh ley
u ana
ĠS elf
ĠK ids
Ġtal ented
Ġloan ed
Ġsp un
ne um
ĠEm ploy
ĠS ugar
Ġt ar
Wh ite
Ġche er
Ġanth ology
j ord
Ġexclud ed
Ġsh aking
Ġsp y
ral tar
Ġteach ings
ĠNewfound land
ol ving
Ġinf ected
Ġprol ific
ĠSyrac use
ard ment
Ġp ir
or ian
Ġb ark
ing en
ĠE ye
ĠPhil harm
Ġtu ber
ĠBr as
ĠL arge
Ġwarr ant
ram id
ĠC ul
au f
M ac
Ġde pr
Ġth umb
F rank
ĠM ob
ev o
Ġmoll usk
Ġrow s
Ġtox ic
Ġparam eters
U p
Ġcycl ing
im i
ĠCr iminal
Ġl ov
ab ul
Ġsm ugg
Ġst ance
Ġen abling
ĠStr ong
F S
os ion
ĠB ri
ĠSand y
Ġencour aging
ip el
Ġlegit imate
H a
ĠMax well
Ġsand stone
Î »
Ġinform al
ignt y
ĠChief s
Ġcorn ers
Ġmetab ol
B re
ĠP all
ĠPatri ots
Ġdiagn osis
Ġeng aging
Ġapp lying
ĠCount ies
Ġrank ings
ĠMathemat ics
Ġl od
ĠV ery
Ġvolunt ary
Ġupr ising
Ġwaters hed
m ud
ĠAd olf
erg arten
Ġhall s
Ġcompar able
ĠGriff ith
Ġval ued
aun a
Ġpro c
Ġplay wright
Ġb anner
Ġd ome
mar ine
ĠCh am
ĠTh r
Ġche ese
ĠAr ms
oc es
ĠK iss
Ġdif fers
Ġres olve
Ġdist ances
ĠHol ocaust
pl ant
at isf
Ġthe or
ĠSum mit
Ġmel od
Ġly ric
he art
spec ific
arth y
Ġg ren
Ġins ect
re ation
ĠUrugu ay
ĠMinn eapolis
ĠB ash
Ġcorpor ations
Ġch ase
Ġcann on
Ġstri ker
Ġre ef
art e
led on
Ġref lection
Ġadj oin
U R
n amed
Ġteen age
ĠObs ervatory
Ġenc oded
ĠStat istics
ĠFl ag
ĠL af
et z
ch urch
ĠD ong
: "
whe el
arri e
igr ation
Ġover head
ĠAd ult
Ġelectron ics
ĠH omer
cl amation
Ġdiscuss ing
ĠConc ert
Ġrecre ation
Ġjew el
s pring
ĠCon stitutional
ĠEuro vision
Ġs ab
Ġ10 2
Ġreg ained
Ġb tn
cont rol
Ġhe ated
Ġb ust
Ġcont rary
Ġpri zes
ĠOut side
Ġcour ty
Ġchar itable
ĠD ock
198 9
Ġnever theless
ĠJ i
Ġfail s
Ġcontribut or
Ġas c
d ig
ĠEd ge
b red
Ġhapp iness
ĠS E
Ġout fit
Ġim per
Ġsn apped
que z
Ġw ards
Ġl iner
Ġreflect ing
d ep
ĠMon th
Ġrevers ed
Ġpow der
ed e
ĠGl ac
ad vant
ĠAr ist
Ġan at
ĠM eyer
ĠM ile
Ġse as
Ġb arg
Ġpl aque
Ġimpro v
Ġbomb ers
Ġdoctor al
Ġinteract ive
ody nam
Å Ļ
ĠLeg al
Ġe ager
ĠP os
Ġfro zen
Ġdesper ate
Ġcorrespond ent
get own
Ġport al
ĠPier ce
Ġ18 15
ĠG M
Ġmat hematic
Ġexc it
ĠA G
Ġorg ans
ĠC od
H O
Ġpubl ishes
ĠV atican
og ene
ĠH ond
Ġaest hetic
ĠR ather
Ġshow er
Ġconsult ing
Ġconstit uted
Ġd ens
Ġst ems
Ġtact ical
Ġremn ants
Ġpen alties
eg ro
Ġreven ues
Ġcompet itor
Ù Ħ
Ġrest r
ĠCh oice
Ġst ip
Ġse ated
Ġsw orn
Ġsket ch
Ġplat inum
ĠMan ufact
h aul
ĠMay a
Ġsystem atic
Ġab d
ĠT rou
Ġresemb le
Ġtradem ark
op ed
ĠHeavy weight
P eter
ĠC rom
Ġconstitu encies
ĠHam pton
ĠNort heast
Ġquant ities
ĠBro ck
tain ing
ent ric
us ually
ĠR ao
c ro
j in
ĠOn line
ĠF iji
f red
Ġtend ency
ĠF let
Ġst un
Ġfav ored
Ġdoll ar
ĠWhit ney
Ġc uis
Ġpe aking
Ġcomm ands
S ome
ing le
Ġch ances
Ġey eb
Ġab olition
Ġtraff icking
Ġbox er
Ġshow c
Ġdef ault
C he
Ġd ent
Ġwh it
Ġcontact ed
oc o
amp h
cont rolled
D own
ĠJ as
ĠBat man
ĠP u
Ġtend s
Ġdial ects
Americ a
ag ascar
Ġj ersey
Aust ral
ĠBer ry
Ġh ood
ĠCont in
Ġp m
Ġtransl ations
Ġvill agers
Ġm es
mit t
er ical
Ġcr ater
Ġse greg
Ġat op
Ġsh apes
ĠSomet hing
Ġupgr ade
Ġtransl ator
Ġun h
ĠCon sequently
udd y
Ġcouncil s
Ġadvent ures
ong s
iz a
ĠSh ane
ĠZ ach
Ġdark er
up t
Ġexcess ive
Ġdiscipl ines
B N
Ġbroad caster
ĠHous ing
ĠSte am
ĠU FC
ĠInn ov
Ġre hears
ĠCl oud
Ġun official
Ġsec uring
ĠH ort
Ï Ģ
Ġac ids
Ġf itness
P art
Ġdeliber ately
em ia
b ay
Ġspect ators
Ġupd ate
ĠPl us
Ġattribut es
ĠG an
Ġgu idelines
Ġl ane
J ournal
ĠS anskrit
ĠFergus on
ĠAr r
ĠSh am
Ġpot tery
ast on
Ar thur
Ġrein forc
Ġi Tunes
ĠAngel a
Ġwick et
Ġalign ment
Ġsubmar ines
l ore
Ġsent ences
Ġf a
ĠGr aduate
Ġknock out
Ġprin ts
ĠMir anda
oot s
Ġam end
Ġm ouse
Ġret aining
Ġw artime
ĠCh ange
isc he
Ġsan ctuary
. ).
ĠAcadem ic
Ġ183 4
Ġsh rine
est ead
ie ve
lam m
z ym
Ġunemploy ment
isc ount
l av
bu ild
ĠHard y
Ġcru iser
Ġuniform s
ip zig
Ġlaugh ing
ĠAir craft
Ġdec oration
ĠB ene
et erm
ĠIn iti
ĠMer it
Ġdrop s
Ġplant ation
ĠLeban ese
Ġcou pled
Ġmat ched
Ġtechn ological
Ġlength y
ĠMerced es
Ġdam ages
Ġcontest ant
Ġdrink s
Europe an
ĠCer amby
Ġimm une
ar se
bl ack
ĠMar qu
ĠUC LA
Ġst alk
ĠSal em
ĠChe ng
ĠCauc as
Ġopt ed
ĠP resent
Ġarch ives
ĠSt rait
p ot
Ġce lebrities
ĠMar co
Ġh atch
od ied
Ġspec ially
ĠTrib une
Ġrem ake
in qu
ĠLin ux
Ġregul atory
Ġdors al
Ġgovern ance
ĠTasman ia
ĠRaid ers
ĠPr iv
ĠMar ÃŃa
Ġp el
ä ¸
ĠAI DS
ĠInd eed
ĠPot ter
ĠKazakh stan
Ġsc ared
f und
Ġ( $
ĠWill ie
Ġmatch ing
Ġs ir
iat us
ĠS ylv
ap o
Ġter restrial
ĠK om
ĠF ork
Ġmoment um
Ġend e
Ġse aled
Ġreal ised
Ġs tern
ĠD re
ĠCop a
the y
ĠMag gie
and i
Ġdec ommission
Ã¢ t
E r
ment ed
ĠAg u
Ġtend ed
Ġconcentr ate
Ġdisch arge
ĠCreat ive
ĠSof ia
Ġw age
Ġstream ing
ĠCeramby cidae
ĠL ing
âĢ ĺ
Ġreg ulated
Ġweaken ed
Ġadvis ory
ĠS ally
ac ritic
Ġ18 14
Ġlaunch ing
Ġm isc
Ġdoub led
Ġmel ody
ĠM ater
ĠChe v
count ry
ĠDe e
Ġpl enty
Ġpl acement
ĠAnd rÃ©
Ġpublic ity
Ġclean ing
ĠD uchy
Ġpriv acy
ĠC ancer
c ats
ĠAt hen
Ġsm iling
Ġident ifying
ĠGuatem ala
Ġde an
L E
Ġ10 3
ĠSacram ento
ĠBr andon
ĠGib raltar
nt on
ĠCla ude
ĠLis bon
Ġcomput ing
ĠFem ale
Ġmand atory
Ġguarant ee
C ont
ĠThom son
ĠT ah
ĠH ook
Ġd awn
el ves
Ġdiss olution
ĠMahar ashtra
s ection
ĠL or
ik s
ĠJan et
Ġtrust ees
C R
Ġimpl ies
H P
ĠN urs
Ġadequ ate
Ġgu ilt
Ġt ightly
ĠLa ur
ĠSuff olk
ul in
ĠConc ord
ĠMar cel
Ġge ographic
ĠFel ix
ud er
ew ater
ĠFull er
bl ock
Ġseason al
er os
Ġch icken
ĠE lection
Ġpr inc
ĠHol ly
Ġb ab
Ġsquad rons
Ġreform ed
Ġin ver
Ġt ang
ĠUN ESCO
ĠJack ie
Ġbus h
ĠC ock
St ate
v iv
ĠGre ens
Ġcru el
Ġc ass
Ġin ch
Ġshout ed
Ġintegr ity
Ġsoft ly
o qu
Ġh alt
ĠL ook
Ġoccup y
Ġrest ing
Ġfulf ill
ĠCa esar
Ġvill ain
Ġtro op
Ġpubl ishers
ins k
sw orth
Ġobs erve
Ġcoin ed
m are
Ġsp ear
Ġo ath
ĠEm il
ĠMar itime
Ġsl ide
Ġdam n
ar f
Ġabb ey
Ġt ales
Ġflood ed
olog ne
sh ine
Ġ* **
Ġa ided
Ġcur ves
Ġpan ic
Ġp aved
ĠRes p
ig ion
Ġcont ing
br anded
Ġanticip ated
Ġpre ference
Ġr ust
Ġc ort
ĠN one
rah im
Ġ ell
Ġp ic
ĠMid land
ĠH undred
] .
Ġper ipher
ĠNic ol
ĠAfter wards
ĠD ul
B ook
Ġevery where
Ġtonn es
ur ai
ep pe
b en
Ġreg ards
ĠHum ph
Ġmod ifications
Ġinsp ection
head s
ĠGu adal
S up
Ġposition ed
Ġfe ast
C or
ĠPop ulation
r ors
Ġaffili ation
Ġcheek s
Ġincorpor ate
Ġchrom os
be ing
Ġsed iment
ĠErn st
" /
br is
Ġ183 1
Ġmigr ated
Ġshe ets
v als
Ġaff ection
Ġb its
ĠTanz ania
Ġac ute
as ive
somet imes
Ġste ering
Ġlimit ations
om ore
20 18
Ġf res
Ġrelig ions
Ġc raw
ress es
iz able
Ġw ives
Ġth reshold
ĠC umberland
Ġins urg
Ġcomp ass
ne z
ĠT ian
ĠBor is
ros se
Ġabsol utely
ĠSerge ant
ĠPe g
ĠH ul
Ġeduc ator
Ġt et
M in
Ġfresh water
ĠBel ow
Ġpresum ably
ĠM ald
sh op
Ġread ily
Ġsubsc ript
Ġdifferent ial
load ed
ĠAugust us
l ov
ĠRe in
ug a
Ġdeterm ination
F rom
iformes Family
ĠAm b
ĠMon ument
av ity
ĠP M
H is
ric ia
Ġcompl aint
ĠEvery thing
Ġmid night
ĠTel ugu
ĠV ander
Ġsum mar
Ġscre ens
ĠHonor ary
Ġsn ails
Ġmand ate
c ity
Ġstri pped
ĠK aw
Ġc ried
Ġshould n
iss ued
Ġtask ed
Ġto oth
ĠB uk
Ġsail ors
unc iation
ĠHigh land
Ġb omber
re qu
ĠK ind
n ian
Ġsk ating
m atic
j iang
Ġavo iding
Ġh ated
ĠK atherine
Ġ10 4
ĠF antasy
198 8
Ne ill
Ġrif les
Ġpure ly
ĠTe legraph
ĠBre ak
Ġfilm maker
Ġw rist
ĠH ast
Ġmin ers
ent on
ĠEmp ress
ĠWeb b
Ġdec iding
Ġaffect ing
Ġeffect iveness
ĠProv idence
run ning
Ġprotect ive
ĠS ikh
ĠSil va
oot ing
ĠTra ff
P D
ĠBol ivia
to ire
ĠHein rich
ĠL uck
Ġgr inned
Ġd y
iÄ į
ĠEduc ational
U K
Ġprot esters
Ġfore wings
Ġext ant
ĠSoph ie
Ġmix ing
l ook
Ġp ants
am ar
Ġcl iff
l is
ĠSe g
Ġham mer
ĠChen nai
Ġscholar ly
ĠBudd ha
ĠD owntown
k ward
Ġgener ating
ĠCow boys
Ġpick ing
ĠNort on
Ġboot s
Ġsup erm
Ġhigh lights
ĠPl ains
Ġspr ings
ĠP irates
ĠRif le
Ġan arch
ĠSen ators
Ġembed ded
ip linary
ĠMad ras
ĠK och
Ġche ap
board s
ogen ic
ĠIn tegr
ĠBul ld
ĠD uff
ĠCar son
ĠDr agons
en za
Ġcoordin ator
ĠKarn ataka
if a
Ġdis hes
ĠCommun ication
Ġdis advant
Ġmet eor
ĠT ank
iv ities
Ġprec urs
L R
anth a
Ġen ables
c amp
ĠP itt
ĠJeff rey
Ġt unnels
ĠF iction
Ġcl o
Ġcommercial s
Ġdisapp oint
H el
Ã¨ s
ĠExcell ence
Ġev angel
asc ular
Ġcorrect ly
Ġisol ation
Ġund ef
u ity
ĠM Äģ
ĠG A
Ġdram atically
Ġfin ishes
ĠMad agascar
Ġaccept able
ĠQ atar
c ope
Ġspec ulation
Ġfinanc ing
Ġsurvey s
Ġcommemor ate
ĠS ag
n u
ll er
atter ing
ĠNor wich
Ġsan ction
Ġl ion
e ated
ĠCzechoslov akia
ĠInd oor
g ang
ĠWat ers
Ġc um
Ġrid ic
ĠS tern
ĠPol y
Ġsovere ignty
Ġabund ant
ĠW id
Ġwood land
ĠRol and
ĠHy der
ĠEmer gency
Ġsid ew
ic ist
iz ers
ĠTerm inal
Ġun ch
Ġer ect
iss ues
Ġdeterm ining
Ġveget ables
Ġfeed back
Ġin eff
ĠV all
f ig
ĠB ody
ĠW imb
inn ings
a uth
ĠBeng ali
Ġhar bor
Ġpart ition
Ġcom eb
Ġ3 000
Ġ183 3
Ġv end
ĠG ut
f unction
Ġsm oking
ĠW ilm
ĠC ore
H ere
l oo
ne g
oin ting
ĠMon ica
ĠCon stit
Ġdisapp ointed
at hetic
ĠGand hi
ĠEv a
ĠH ack
Ġd uck
g reat
ĠTh an
ĠConf ederation
Ġbet a
ĠCor por
l ance
May be
C ount
Jos eph
ĠCare y
Ġprom ises
Ġdispl aced
ĠD ixon
Äģ d
ĠHawai ian
v oy
igg ins
z an
ĠPl ain
it ivity
Ġcool ing
Ġide ology
ĠThe ory
Ġ ).
ĠJ ag
at um
am on
Ġs or
Ġdeleg ate
Ġconsolid ated
rap hic
Ġbag s
Ġshort ened
Ġrem inisc
Ä ħ
ĠM ikh
ĠBomb ay
O s
ĠH ence
ĠCo ff
Ġmet als
ĠRuss ians
ĠPart ners
ĠPatri arch
Ġrad ius
Ġamph ib
B y
ĠMort on
ĠE rik
Ġresemb les
et ian
ant o
Ġbe aches
Ġa ug
ters on
M ed
N or
le ted
Ġcomment ator
ĠPant hers
Ġodd s
Ġclass rooms
Ġtra its
ĠJ ill
pe x
ĠCast ro
ĠVol ume
ĠW ik
are l
Ġexpl oring
b ably
hard t
ĠAchie vement
ĠAssoci ated
ron ics
B ro
Ġsing ular
Ġwire less
B o
ĠMy an
G reen
ĠEth an
ĠGard ner
ĠGar c
Ġtax i
ĠSlov ak
ĠB ess
Ġshoot s
v ir
ĠH ed
Ġposthum ously
Ġwas hed
Rich ard
ĠJud a
ĠChronic le
V C
Ġgl ance
198 5
ĠR he
ĠFlet cher
Ġteam mates
Ġsu ite
C hic
Ġo wing
ĠN ed
Ġde bris
Ġcult ivated
Ġconf ined
Ġfil ter
Ġpersonal ities
ĠF est
ĠHaw ks
Ġdom ains
w elling
ĠT oul
cl ub
ĠLaw s
ĠL al
Ġplan ets
Ġtal ents
sk irts
Ġexcept ional
Ġsucceed ing
Ġincom plete
ĠAl m
g ence
ĠW ander
Ġins ufficient
ĠS iber
Ġ10 6
Ġmed ic
ĠTre vor
ĠIsland er
ĠD awn
Ġn ave
Ġat omic
Ġ Ø
Ġamb itious
ĠMP s
ĠHels inki
Ġaccept s
Ġevac uated
es p
D M
od s
ĠTur ks
Ġl oses
ĠEvery one
im ar
uc a
198 7
Äģ b
k al
Ġl ith
Ġpress ing
Gr and
Ġrecommend ation
ĠLe ipzig
Ġl ucky
ĠR andy
Ġaccess ed
Ġgener ic
Ġgen uine
Ġf art
ĠVern on
Ġc ov
so ver
d ict
ĠMyan mar
ĠMo hammad
Ġun rest
Ġele venth
f ilm
D ie
ĠF ut
Ġalt ogether
Ġadvoc acy
ĠToy ota
oc he
Ġs igh
ĠB order
Ġfront ier
Ġtw elfth
ĠW ade
Ġpeak s
Ġsub mer
ĠOl ivia
ĠSt oke
ĠSax ony
Ġautonom y
W ar
it ical
Ġrem inded
Ġware house
Ġdeal er
ĠBol ton
Ġmon k
mid t
ow l
ern er
ĠS T
A fter
ĠF an
ade qu
ry ing
Ġcomplic ations
Ġf ol
ond uct
ĠÄ Į
z on
Ġfrequ encies
ĠS ou
D aily
ĠF ed
lic ation
di ocese
Ġcult ivation
Ġh orm
ĠL ub
ĠMet acritic
f ar
Ġcons on
ĠAut o
Ġannex ed
Ġdesign ing
Ġdoor way
Ġintent ions
l ation
Âł ...
z el
ĠGeor getown
Ġemploy s
Ġscreen writer
Ġmot ivated
Ġd ances
ĠSpec ies
Ġfier ce
ĠO ften
vers ion
ĠNorth western
Ġbe ats
ec ute
Ġj am
Ġconsequ ently
ĠProg ress
Ġlandsc apes
Ġfaith ful
ĠT ul
arm ed
Ġgr in
te e
w al
Ġw ages
New s
ĠWimb ledon
ul ent
id ian
ĠM Ã©
Ġsc rew
Ġm ath
Ġelev ator
Ġj oke
ĠD ion
ĠWor cester
fr ame
ĠEngine er
ĠE t
Ġdem olition
ĠHe y
ob o
Ġch ocolate
ob ic
Ġan the
Ġh ab
Ġd warf
an as
Ġdec ent
Ġins criptions
Ġin ev
Ġdec isive
ĠM Ã¼
own ers
Ġpl ed
sh aw
ĠBerg en
ĠSc he
ak y
Ġsh ake
ĠSh aron
Ġcloud s
Ġsu ited
Hen ry
ĠK oh
Ġsex ually
en stein
g art
Ġen zym
S ur
ron es
h orn
ĠPle ase
ĠEurope ans
ĠM ix
oph on
Ġadvant ages
ĠSh iva
Ġovers aw
ĠEston ian
ri o
ĠAd mir
Ġkidn apped
ĠRever end
ra ul
Ġportray al
Ð ²
M ark
ĠJ ets
Ġyear ly
ĠR ican
Ġencompass es
ĠH its
ĠPh arm
Brit ish
Ġtr igger
Ġun aware
ĠW ins
Ġfellow ship
I G
ĠB irth
Ġs ake
Ġinc ons
ĠV augh
Ġout skirts
ĠBu ild
ar ius
ex pl
Ġso ils
ĠTr uth
ĠKle in
ĠW ick
Ġcomeb ack
Ġspr int
Ġtw isted
Ġp ep
at u
Ġtim ing
I l
k u
ĠBoy d
ester day
em i
erv ille
Ġgr aves
ĠGar cia
Ġtri angle
ĠK od
ĠPap ua
Ġcat ches
it he
z burg
ĠW i
Ġf oster
198 6
f i
op ter
ourn ey
ĠG ross
Ġover time
ĠMad onna
Ġbreak through
k n
Ġst amp
ĠSm art
Ġens uing
Ġd ried
omet ric
Ġemploy ers
Ġch airs
ep p
Ġnew sc
Ġblood y
l arg
Ġfac to
ĠRaf ael
field s
ĠChem ical
urg ical
gu ard
N E
Ġst amps
ĠLe one
Ġwhere by
ĠSing le
Ġp ent
Ġsupp ose
Ġnarr ator
V al
ĠF en
pro duction
Ġb ite
Ġp aired
Ġst ained
Ġass erted
Ġanx iety
ĠNo ah
Ġbur nt
Ġeng r
Ġhuman itarian
un i
Ġf ut
ib ia
Ġrig id
ĠM atch
ĠV ed
ĠBuck ingham
Ġref use
Ġded ication
ĠK olk
Ġincorpor ates
Ġdis cl
Ġg ut
Ġstead ily
Ġemphas ized
ĠTe ams
Ġvalley s
ĠCole man
Ġexpect ing
t ures
ĠChap man
ĠJen kins
ĠAll ies
Ġcoll ision
ĠSant o
ig uous
ĠMar athon
r ab
Ġuncom mon
Ġpurch asing
ĠH ost
Ġsophistic ated
ha o
ĠC ologne
Ġpract ically
ĠK iev
Ġsuperv ised
Ġpoly mer
Î ¼
ĠLat via
Ġfunction ing
Ġir rit
ĠSt ories
T ER
Ġd ys
ĠW S
ĠX avier
ant es
ĠJ iang
Ã¡ ndez
Ġsovere ign
Ġret ros
c yl
s an
Ġform ations
ort al
Ġinc arn
bo ats
on er
ĠPhys ical
Ġtens ions
w y
st ones
P I
n ational
ate ful
ĠS D
ĠEle anor
itro gen
it em
bour g
ier i
Ġcre st
Ġcourty ard
Ġkid ney
Ġcott age
Ġs acked
ĠC otton
ĠM VP
Ġto y
ĠDivis iÃ³n
Ġadd itions
Ġbreak down
ĠG ian
Ġen velop
ĠCamer oon
Ġb ail
Ġborrow ed
Ġabbrev iated
ĠBey ond
Ġlo osely
ĠChem istry
Ġ18 10
Ġimag ery
s ite
ar ra
E nd
ic ating
Ġwond ering
Ġval ve
pr ising
Ġexecut ives
hist oric
ĠTit le
Ġuncom fort
ĠS ue
Ġ18 25
ĠL ars
ĠBad en
ul ative
Ġill umin
ĠCher ry
ĠJ enny
Ġeth ics
ore n
b ons
w ara
ĠGeor ges
Ġens uring
ĠTibet an
Ġdri ft
ĠR CA
sh a
." "
Ġam ino
Ġcivil ization
Ġneighb ors
c ot
le ading
Ġmass es
ĠZ am
S k
ĠG unn
Ġaster oid
Ġlist ened
ev iÄĩ
È Ľ
ĠL ines
l ide
ian ces
art on
ĠT in
Ġm im
ae us
ĠPhilharm onic
P op
o ine
Ġs inking
ĠVolunte er
Ġvac uum
ow o
ĠBrit t
Ġprof ound
ĠZ amb
Ġprevent ion
Ġun ified
Ġmother s
Ġtre asure
ĠL och
Ġsymb olic
P lease
ĠC ao
Ġsub tle
J ew
air d
Ġlay ing
ber ra
Ġcolleg iate
Ġd iox
Ġmon archy
Ġs ings
Ġswe at
Ġh ire
Ġdec omp
ĠHistor ically
Ġo val
ĠN uclear
ĠG eneration
b rown
ĠP ione
Ġre duces
Ġancest or
Ġche f
ĠP ale
ĠTr acy
ĠArch ives
198 4
â ĪĴ
it ational
ĠR ip
ĠJackson ville
ĠS U
Ġcanc eled
Ġcomprom ise
Ġ {
ĠColomb ian
ÃŃ s
erm o
ĠB ates
Ġan onymous
Ġsurv ives
ĠLeop old
ge nder
ĠT ucker
lim ited
Ġcompat ible
ard ing
S E
ĠL ik
ĠK Ã¶
ĠI X
Ġcont empor
Ġterror ism
Ġmodel ing
Ġprim itive
ĠK ens
ĠLib ya
Ġin equ
198 3
Ġrel ied
Ġj ack
N L
ĠEv an
Ġprecip itation
ĠF ri
ac ies
og l
ĠM ake
ur ia
Ġinc omp
Ġnegot iated
Ġret reated
Ġf aint
Ġm ast
Ġgall eries
Ġcuis ine
19 50
ĠHam mer
Rol ling
Ġn it
Ġcerem onial
ĠH onda
ir s
ipel ago
Ġb inary
ĠR ule
Ġins ight
d el
Ġbats man
Ġingred ients
Ġ" -
ĠCitiz ens
ĠCambod ia
k ok
ul ine
Ġpione ering
ĠEx eter
Ġgu itars
Ġreal istic
Ġmot ors
ĠHy de
ĠR otten
Ġsen ator
M c
Ġmot to
ham pton
N O
ĠFre eman
Â ½
ĠHaw k
o ids
ĠCon rad
oc y
ĠO le
Ġunanim ous
Ġdemonstr ations
Ġlingu istic
Ġconf isc
Ġa uxiliary
ĠEl is
ĠT unnel
ĠBre nd
ĠB ard
ĠParam ount
S er
ĠM orm
ĠPhill ip
Ġoff shore
Ġdef ining
ĠT aj
Ġaw kward
ĠSol ar
ĠIs s
Ġincorpor ating
ĠW it
ĠS ib
hy a
Ġco eff
ĠV ision
Ġvirt ue
Ġopt ional
Ġsup ers
ĠN O
row th
Ġtelev ised
Ġgu err
ob by
Ġc ats
ĠNorm andy
ĠVict ory
Ġm ourn
ĠK ai
ĠN H
Ġcomb ines
ĠConserv atory
Ġguarant eed
ĠIniti ative
Ġsque ez
ĠS iles
Ġhel met
K O
ĠEn s
d rop
ĠBe au
Ġh iatus
d istance
ph al
e ight
Ġinter red
Ġtouch ing
ĠH uss
Ġswitch ing
ĠMonten egro
Ġmon key
ĠDod gers
Ġpl asma
tle ment
Ġesc apes
Ġdet ention
Ġinherit ance
Ġvis itor
ott i
ĠK err
Ġout comes
Ġsubject ed
he ed
Ġesc al
ex cept
ĠSid ney
Ġmaid en
Ġattract ions
ĠQu art
il ib
Ġforb idden
Ġclin ic
Ġnucle us
Ġhe al
Ġl ighthouse
a ic
Ġrent ed
p al
Ġexplos ive
ĠHa iti
ĠP aper
ĠL un
Ġexam ine
B et
erv ice
Ġadv iser
Ġde ity
Ġth igh
ĠM LB
ĠRe b
Ġ18 21
Que en
ĠN E
Ġcycl one
ĠAst ron
Ġcampus es
ĠLiter ary
Ġa wa
Ġcl ause
ĠTrav is
Ġp our
ĠJo ey
ph ones
ĠGreek s
ĠVis ual
ĠNe ed
ĠR ag
Ġal ert
ĠNaz is
ĠM t
Ġamb ul
Ġc aves
ĠEnter prise
Ġl amp
Ġpar ody
ans on
Ġf rowned
Ġimag ination
are z
th on
ĠZ hu
ĠEd en
ĠVir t
Ġcur tain
ĠPri est
Ġin mates
act ical
ank ar
Ġpath way
Ġut ter
ĠIb n
Ġbr ush
abul ary
Ch ief
ĠR S
Ġt ips
Ã¢ te
O ff
ump ing
ĠOri ental
Ġfinanc ially
ig el
ch annel
Ġ ?
ct ica
s eries
ĠH ew
Ġg aming
ĠMon ter
ĠPrem i
ĠUS C
ĠPo etry
Ġrec ycl
ĠN ame
et ed
ĠT aking
Ġflex ible
ĠBar oque
Ġgamb ling
ĠT i
Ġsurround ings
Ġsuccess es
Ġmagn et
l ate
ĠDoc ument
ah r
B ad
th y
Ġec clesiastical
le w
Ġch at
occup ied
ĠTh irty
ĠAlexand ra
udd in
Ġsufficient ly
Ġinc ent
A D
ĠBeh ind
g io
Ġcompet es
agre b
Ġatt ain
Ġlabel ed
c ross
Ġirrig ation
ĠEuro pa
le ague
uit ar
Ġarch ive
Ġdec lining
l ings
ĠH utch
ra il
cut ta
ĠReg ular
Ġaff ects
ĠBo at
Ġload ing
Ġgr avel
ad ays
Ġcomp uls
in ia
ĠE du
Ġass ured
Ġsear ched
ĠEld er
ĠD res
Ġconcentr ations
Ġmind s
Ġcont empl
Ġspokes man
Ġpil grim
is ans
Ġsol ic
Ġrehabilit ation
A ct
ĠStri ke
pe z
uc ci
f ried
Conn or
ĠInd igenous
Ġst ew
ĠW ings
Ġcrim inals
pl aced
og ical
Ġpast oral
Ġrecept ors
Ġexp end
Ġpro long
ir able
Ġdown stream
ĠNic olas
ĠMar ina
te x
Ġreg ain
Ġdeliver ing
Ġsp ells
ĠLead ership
Ġover night
ĠR ost
Ġliber ation
ĠJ up
Ġworld s
ĠP om
Ġru ined
so on
Ġcl usters
Ġassoci ates
Ġang el
ĠBron cos
Ġwh olly
Ġ18 28
ĠM are
yn om
unt a
com be
ĠF ighting
Ġsp ray
Ġreper toire
Ġw aved
ĠBrun o
Tr ans
Ġam ended
Ġexc iting
Ġin ning
Ġfor um
ĠWeb ster
Ġspons ors
ĠK ell
Ġpack ed
ĠWinc hester
Ġcost umes
agn etic
ĠCh urches
haus en
Ġdis ability
gr ave
ac iÃ³n
Ġoccup ies
ĠPow ers
Ġproport ional
Ġoverl ooking
Ġheav ier
ic ol
Ġdon ation
U s
Ġhalf way
ĠMalay alam
ĠHon ours
A z
Ġdecl aring
ĠTour ism
ĠUnderg round
abb ing
ĠL av
ĠCongress ional
ak o
Ġexp ired
t em
Ġn as
Ġad ul
U l
Ġf ond
eng ine
is se
Ġdis qual
Ġdemonstr ating
Ġpage ant
Ġfig ured
oc ide
Ġthrow s
Ġt il
Ġal ike
ĠP ond
ĠEl i
Ġdrag ged
Ġgl obe
Ġsyn chron
Ġ18 24
ou g
ink ed
Ġsw ift
ĠBr ady
Ġacqu iring
Ġprec isely
ind e
Ġassess ed
it as
Ġass et
Ġel ong
Ġexha usted
Ġarm oured
op en
Ġrelax ed
ĠFle m
Ġtreat ments
Ġbr ide
r ÃŃ
N G
N D
ĠM ant
Ġunder water
ĠD ust
os o
ĠMan ch
u ber
Ġpract icing
Christ ian
m ay
Ġparticip ant
Ġexch anged
ĠRes erv
iling ual
ĠTo o
st en
Ġexcit ement
Ġbr anded
Ġs aves
Ġwas h
ĠH ollow
ĠStand ing
ĠT ud
ĠMun ster
ĠMikh ail
Ġhelicop ters
Å ¼
ĠMcC arthy
Ġres ide
Ġcollabor ative
ĠAl leg
Ġvac ation
ĠS V
Ġcry ing
Ġcr ust
Ġat oms
ard y
act ory
Ġm aker
ĠConn or
ĠHyder abad
g ement
ĠAnd roid
Ġst all
bro ther
e ous
ic ism
S un
Ġcon form
Ġrep aired
Ġprepar ations
Ġ10 7
ĠAg ent
ang s
ĠFor bes
ĠGarc ÃŃa
Ġmarri ages
Ġfinal ist
Ġquarter finals
Ġmemor able
in put
ĠFl ash
otherap y
ĠK ok
app ropri
ĠCh rys
ĠBas ic
Ġin adequ
on c
ĠEm bass
ĠLe igh
Ġtrans action
ĠĠ ĠĠ
Ġs a
ll i
sh ow
h of
gr ass
Ġsuff ix
Ġtext ile
ĠG ymn
ĠDisc overy
olph ins
Ġpl ains
des ignated
Ġqu ot
Ã¢ l
Ġâ ĪĴ
Ġconvent ions
ĠAv iv
W ork
ĠCan berra
ĠSut ton
Ġr iots
Ġdiffer ently
ec o
L ook
ĠBut ter
Ġr am
Ġafter ward
ect ors
g iving
=" /
Ġun re
ĠK amp
ĠB in
Ġt ab
Ġshort s
ĠApp eal
Ã§ a
w hen
ĠE rie
Ġdescript ions
Ġw isdom
Ã³ d
Ġh ug
ons hire
Ġtw ins
ĠTol edo
Ġmod ule
ĠIS O
ĠKr ak
Ġsuspic ious
Ġ17 90
ĠRe x
Ġse am
for ward
Ñ ķ
198 1
Ġcar b
ĠD ors
prof ile
ĠMo hammed
F I
Ġv it
lar ation
ĠK ara
ĠKolk ata
Ġp neum
ment ioned
Ġcontain er
Ġaccus ations
ĠZ agreb
ĠOl iv
af ia
g ent
Ġconf luence
ĠW ant
ek a
aceut ical
ĠS ales
Ġdi ary
ri ft
Ġreluct ant
st ep
Ġphenomen a
ij uana
d ia
Ġmag istr
Ġas pir
ĠR C
Ġdef unct
Ġchemical s
Ġf og
ud ge
Ġline age
Th ree
Ġenjoy ing
ĠS oci
Ġtrad ers
198 2
Ġdu et
Ġb ure
Ġph ones
d ish
Ġsp ine
Ġsher iff
ĠRed s
ĠAlb ion
Ġal beit
und y
ĠC osm
ĠSw im
ĠM ats
Ġage nda
Ġ18 29
Ġint imate
Ġpromot es
Ġpseud onym
T or
ĠL ance
Ġtrend s
Ġcolumn ist
op edia
o il
d or
aw ks
Ġspecial izing
Ġsub mission
ier re
Ġch ip
ĠS ach
Ġdi agram
um per
ĠCons ult
Ġbur den
Ġpreval ent
ĠCly de
Ġadj usted
ĠCec il
in ster
ĠR B
Ġunder way
Ġd airy
ĠGlac ier
res cent
ĠSand ers
Ġfus elage
o ft
ĠT ropical
Ġprot ested
ĠJ ub
Ġ10 8
Âł b
ĠJes uit
Ġjud ged
ĠPro cess
Ġcompan ions
st orey
play ed
Ġal pha
Ġref using
Ġcou ch
Ġconfron ted
ĠS ister
ĠM ell
Ġbar on
ĠB S
ĠAnd r
ĠH ear
Ġg raz
W F
or ical
ĠSh u
Ġdyn amics
Ġexpress ions
Ġmort ality
A ir
c ane
197 9
ropol is
omet er
Ġglass es
Ġfort ified
Ġles bian
ĠCh ambers
int ro
Ġpun ish
197 5
ĠCompan ies
Ġar ise
ry n
Ġshar ply
Ġcomm issions
Ġcomm od
er oy
ĠNe ither
ĠB ec
ĠR ally
ĠColleg iate
ib ald
d ong
ĠOffic ers
Ġhaz ard
ĠLe af
R P
Ġfact ions
lyn n
ĠE z
Ġbre ach
ĠHerman n
ĠConstant ine
ood y
umb ling
ĠJoy ce
ĠI ber
Ġstate wide
ĠSing er
Ġstat ute
om ers
ag ara
Ġh aun
Ġremark s
ĠVik ings
Ġland l
Ġemer ge
orth y
ĠI L
ĠJ ung
ĠB ram
ell es
Ġball ad
ĠLaure n
Ġsle nder
ĠY ah
isp here
Ġmasc ot
ĠR aven
ĠS EC
Ġprop he
Ġpr ayers
M od
Ġexcell ence
ĠSac red
ĠSc outs
act ivated
ill as
Ġcontin uation
ĠBar ack
ĠMatthew s
ĠIs h
ĠM olly
Ġsurg ical
R E
Ġadvoc ates
ĠSix th
Ġinter fer
Ġdefend ers
an ic
ĠL uz
ĠGust av
Âł h
ian i
Ġsubmer ged
ĠNeg ro
Ġpul se
yn es
ĠRel igious
not e
ĠAdvent ures
oun ge
ĠAnd hra
r ington
Ġsoph omore
ĠY uk
m ut
ĠCh amp
ĠField s
Ġderiv ative
D T
ĠW er
os aurus
Ġl ords
ĠC ivic
Ġhall way
Ġinvent or
Ġthe ological
Ġb urg
ĠA ce
M O
Ġlif elong
N Y
Ġm apping
ĠRober to
ĠBh ut
squ are
Ġpossess ions
Ġden y
ould er
Ġdestroy ers
Ġstrengthen ed
Ġch ambers
Ġim aging
ec onomic
ĠFl oyd
Ġnegot iate
ĠLad ies
ĠD ry
Ġpost al
rit e
Âłm i
ur able
ĠCN N
Ġlight ly
Ġhol idays
ĠL ill
pr int
osp ace
Ġsynt hetic
ĠAss y
Ġsum mers
Ġins ign
ĠDavid son
Chic ago
year s
Ġblock ing
Ġtr agedy
Ġp ile
ĠF K
Ġplate au
Ġlisten ers
ĠD A
Ġevolution ary
ĠM IT
Ġnob ody
ĠHast ings
Ġsummon ed
ook ie
à¤ ¾
ĠBe ast
Ġsc ent
ĠConstit u
ĠShe ikh
ĠGlou cester
L uc
as aki
Ġpost erior
b il
R ob
iz za
us ement
Ġrev ision
Ġdocument ation
ĠR BI
Ġun in
9 00
ĠN em
ĠPh ase
ĠJuda ism
Ġhier archy
Ġinfl ation
ba hn
Ġloc ate
ĠB onn
Ġec ological
ĠStrateg ic
Ġinstall ations
ĠK et
ĠBro oke
ĠM ey
ĠPer cy
ĠSlav ic
af a
ĠFrances co
ĠEmbass y
Ġm m
Ġarm our
ĠFal con
back ground
ĠC BC
ĠM iz
ĠM au
ivid ually
Ġaddress ing
Ġtrust ed
ĠDemocr acy
Ġpick s
ĠMot ion
H am
ĠF resh
Ġdest inations
Ġp aternal
ĠM ilit
us p
Ġtr ilogy
Ġsoc io
Ġcha os
wer p
Ġgovernment al
Ġn ic
Ġap ost
ib an
Ġpain ters
Ġsuspect s
Ġadjoin ing
ĠChe roke
Ġski ing
Ġenter prises
ĠSt y
Ġ18 13
Ġer osion
Ġrejoin ed
Ġh ollow
ĠRoad s
Ġá ¼
ĠLind say
ĠT error
pro v
Ġslow er
th or
Ġtall est
ĠNic arag
ĠNiel sen
ĠCal cutta
Ã¼ ck
ber n
ĠV iscount
ĠSl am
ĠW ong
p ound
Ġsumm ary
is bury
Ġorph an
ĠC ash
ĠSh ak
ĠF ry
ĠBat tery
Ġbl ur
ĠHan over
ĠAd ri
ĠElect ronic
Ġassum ption
Ġdecommission ed
Ġprofess ors
ock ets
Ġcollect ively
ant om
ĠAl ps
Ġcounterpart s
ĠPer iod
ĠMe eting
ĠGeoff rey
Ġret ains
ĠSin clair
u en
ĠB enson
ĠTh orn
ĠJ orge
Ġrob ust
Ġritual s
Ġlog ical
Ġdiss ert
ĠPark way
Ġschool ing
let ter
ĠAg nes
ĠBi ology
Ġge ography
ĠAub urn
Ġtrans actions
st orm
Ġpol ynom
ĠS uccess
cyl inder
ĠH our
Ġdepth s
ĠLand mark
ull a
Ġinf ilt
aut s
ias m
ĠL ect
Ġdeb ts
ĠArab s
Ġpsych iat
Ġapprox im
Ġtrou bles
Ġins erted
Ġfemin ine
z one
Ġsuspic ion
ang an
h un
Ġt ense
ri ka
Ġpro se
ah i
An y
ĠR um
ĠK ul
ĠG le
Ġslow ed
Ġsynd icated
Ġf raction
ĠF rem
us ive
ĠR ash
ĠMar ri
Ġcrowd s
Ġharm ony
Ġbel ly
ĠHart ford
ĠKh al
à ¯
Ġlight ning
Ġan terior
Ġphys i
el ius
Ġsens es
Ġsav ings
e el
Ġn atives
iz ards
Ġoccup ying
ĠGuj arat
ĠChrist ine
Ġex empl
q i
Ġsand y
Ġassum ing
1 30
Ġdipl oma
ĠC unning
ĠC av
Ġinst inct
197 8
al and
Ġg ospel
M G
Ġfre el
Ġinter val
clip se
Ġcatalog ue
Ġtreat ing
Ġret ro
Ġsl aughter
ĠW yn
ĠCred it
oc us
ĠCal ed
Ġhands ome
ĠSav age
A pp
ell ular
ĠZ ar
Ġannounc ing
p ark
Ġ18 26
ĠConserv atives
ps y
Ġvir al
ĠUz bek
Ġconclud es
ĠPol yt
ĠClay ton
ĠPat rol
h on
ĠMid lands
ĠIn ner
Ġtri angular
Ġcor rupt
Ġp ec
Ġpost ing
Ġlun ar
Ġr av
T w
Ġoper as
ĠOm aha
ĠL Ã©
ĠDaw son
p ired
olog ic
ĠD up
c io
T F
Ġf ores
Ġcr ushed
echn ic
Ġcoordin ate
Ġ18 18
Ġrel ates
b idae
ĠFerr ari
ĠTeh ran
es pecially
ĠD as
Ġstorm s
ĠAut onom
sc ill
ĠG DP
ĠDud ley
ĠG aul
keep ing
Ġaver aging
ĠV ald
ĠShir ley
e on
Ġimp ress
medi ately
ĠLet ters
Ġspecial ty
Ar ab
ã Ģ
ĠF uj
Ġb other
ĠS ene
Ġlack s
anc el
Ġdis g
Ġpl aster
Ġtum or
Ġl umber
Ã ²
ĠP ablo
ĠBas el
Ġsp anning
Ġprec ious
Ġm ice
Ġ >
Ġnon profit
C am
ĠTr acks
che ck
ĠSup erman
O per
Ġori ented
Ġactiv ation
fl ies
ĠA way
ĠM ons
Ġne o
Ġfin anced
ary a
Ġmoth s
Ġscen ario
ĠI st
At lant
com b
Ġmat ric
L and
O l
Ġc ure
Ġtrigg ered
ĠRec reation
he res
ĠSh annon
um ing
ĠNew ark
Ġrem od
Ġelect orate
pro t
ĠSh awn
ĠÅ ½
Ġar che
Ġcell ular
Ġdel ays
Ġcooper ative
Ġcy cles
Ġdomin ance
Ġy elled
ÃŁ e
ĠF on
ĠSh arp
eb e
Ġcinem at
Ġbarr acks
ĠDund ee
ĠTh ur
A I
ĠP oz
ĠAng ola
Ġnow here
in itely
Ġb ays
ĠSh ire
Ġdecl are
ĠS iege
Ġad mits
Ġr ides
Ġint ensive
Ġunn amed
ĠEy es
ĠMiddles ex
ĠC ram
ĠCle m
ĠJacob s
Ġbi as
Ġind uced
Ġpe ers
ĠPr ide
Ġsket ches
Ġdispl acement
Ġint rig
Ġdiox ide
Ġple aded
Ġ10 9
re cht
ect ing
ĠCl imate
Ġintro duces
Ġdet ained
Ġswe ep
Ġrest ruct
Ġst raw
ĠD unn
ĠSoph ia
ĠL ima
Ġwe ird
Ġord in
s ince
Ġtechn ically
ĠD ana
ĠH arri
Ġt atto
Ġex ports
Ġpol ls
ĠSw ift
ĠC ott
ĠCov entry
Ġd irty
op t
ĠVal encia
Ġresid ences
Ġm akers
Ġir re
ĠBry ant
Ġarc ade
h ai
ĠM anning
Ġsupern atural
Ġsp ans
Ġup stream
ĠTom atoes
ĠK nown
ĠTim othy
F ort
Ġembr ace
Ġmet ric
ĠAl c
Ġcelebr ating
Ġmark er
Ġc her
Ġatt itudes
Ġsuper hero
M ont
ĠF ow
r il
ĠThe ological
] (
at ile
vers ely
Ġsc rapped
ĠN est
Ġtest ified
ĠC ret
op rano
cast s
Ġtransfer ring
ĠAn imal
Ġblack s
Ġess ence
up p
duct ions
V N
ĠVij ay
c ence
Ġgen ome
ĠSport ing
ĠF ram
Ġmin erals
Ġair ports
il ers
af i
Ġk in
T ake
ĠH aj
Ġhun ter
ĠM its
Ġpromin ently
F O
Ġmax im
k el
Ġc ros
Do ctor
197 4
w hat
min ton
Ġpool s
Ġpl um
ĠChrist ie
ens ions
Ġalgorith ms
S I
ĠAntar ctica
Ġtrans cription
Ġconven ient
ĠBulld ogs
as o
Ġp iv
Ġn itrogen
Ġmet aph
ĠPr att
i ov
ĠSt op
ĠG os
ĠS leep
ĠL ope
Ġdem ise
hor se
c ole
ell ites
Ġment ally
m art
Ġrein st
ĠEl ena
ĠBrig adier
ĠW r
Ã¡ l
im eters
Ġ11 5
ĠRec ent
Ġang les
Ġmolec ule
l ayer
ĠL ands
Ġdefe ats
L ondon
pl ate
Ġcan vas
Ġadvertis ements
Ġic onic
or se
ĠT ate
Ġexpress ing
Ġshif ting
197 7
Ġfort ifications
Ã¢ m
ĠM I
Ġemerg ence
Ġexceed ed
Ġhal ted
U r
Ġproduct ive
Ġpod ium
ĠPsych ology
Ġmark ings
ĠZ ur
re ach
ac ia
Ġimag ined
Ġstri ps
Ġspe eches
ĠBo oth
Ġhom eland
ut ers
Ġpain ful
Ġgener als
Ġsl ogan
og ram
ĠInvest ment
Ġemb ry
Ġanten na
Ġmaneu ver
ig on
Ġmar athon
ov ic
Ġg onna
ĠTw in
Ġ18 16
ĠP ied
ĠWh ilst
Ġrep et
ee le
ĠÃ ĵ
ul ator
oc aly
Ġg ym
Ġpartnership s
echn ology
ĠHold ings
D er
Ġdepos it
. ",
L L
ĠV and
Ġours elves
ay at
com mon
Ġbas al
ĠD ag
Ġroll er
o ften
ick er
ic iary
Ġid ol
Ġpremi ership
ĠG aza
Ġmer ge
ĠSat urn
ust ain
ĠUnivers ities
Ġst are
Ġ" '
ĠCarm en
Ġcame o
Ġsec rets
V ict
ĠB olog
ĠCl an
Ġcur ious
se in
ĠRick y
Ä Ľ
B en
ĠD uk
t el
al one
Ġcorrespond s
Ġp oured
197 6
ĠT ina
ĠSc hed
ilib rium
s ar
ĠGr ass
Ġdev ot
se ven
ot on
ĠMin isters
Ġposs ibilities
Ġinfer ior
Ġfre eway
Ġlight weight
ĠS K
S a
ĠF ear
ĠCal der
ĠH ers
v ian
ĠR ules
ĠAnt werp
Ġpen etr
iser ies
ch ard
ail able
Ġe ject
ert iary
ĠMaur it
Ġcompos ite
m our
ax on
Ġnot orious
Ġar row
Ġins ult
Ġm old
Ġimpact s
ĠP ius
roll ing
ĠN in
Ġdisappoint ment
ĠWill is
ĠTunis ia
Ġreinforc ements
im et
Ġcontinu ity
Ġautom ated
Ġcompl iance
ĠIntern al
Ġlegend s
Ġpers ecution
T T
Ġpl ug
Ġd in
ĠMc Le
Ġatmosp heric
Ġcol oured
cl ock
Ġphys icians
ĠVeter ans
inn y
ĠMon astery
r ak
Ġs au
ĠT ara
Ġmotor way
ĠIceland ic
Ġident ifies
Ġrest ed
Ġb ast
ĠPet erson
Ġn iece
Ġswim mer
ĠPat terson
Ġexperi encing
Ġp ard
7 50
ĠL Ã³
sh i
Ġex iled
ĠN GO
ĠJ et
197 2
Ġcouncill ors
N ight
ĠI de
ĠPer forming
Ġ å
ĠG ov
ĠKu wait
C arl
ĠBagh dad
Ġw iped
197 3
Ġout let
Ġund is
ron gh
ĠIr ving
e ven
t ailed
Ġcomp aring
ĠS pl
Ġep onymous
Ġgif ted
Ġacc idents
Ġbroad ly
Ġ180 6
Ġanaly st
Ġview er
is ible
M R
Ġ180 1
Ġtheat res
ĠLam bert
Ġsp ont
ĠW are
Ġf ountain
Ġcoll ar
Ġaqu atic
ĠBM W
Ġmathematic ian
" ("
1 20
Ġsteal ing
Ġsle pt
and an
Ġsimilar ity
ar ine
iec es
w ave
ĠIb rahim
Ġbattle field
Th anks
Ġcount ing
Ġdisc our
ple x
Ġsh adows
Ġrebu ild
Ġundef eated
ĠB ott
ĠNord ic
ĠTon ight
ĠP ret
Ġ4 50
Ġsens ation
atin um
ic ious
Ġsol ved
Ġloc ks
em on
Ġpost er
M ary
ĠC ounsel
Ġign ore
Ġcatch ing
ĠT D
Ġoff spring
P L
Ġsurvey ed
Ġmeant ime
Ġl aughter
ĠBas que
ĠDeut sche
col or
Ġwrest lers
Ġca ution
Ġp amph
Ġas ylum
uff s
Å º
id y
ĠC ove
Ġaccount ed
ĠAr lington
ĠSch ne
C E
ĠFranc isc
Ġsod ium
Ġconcept ual
Ġfair y
Lou is
n orth
ĠHam mond
Ġrecogn izes
Ġreun ion
dr iven
ĠVenezuel an
ĠW arn
ĠNe o
Ġcomp ly
Ġ18 27
ĠF ast
ĠPear son
os er
p ack
Ġexpl ores
lic ted
Ġlif ting
Ġru in
Ġhe x
Ġfl ames
ĠDec laration
Ġdism ant
i aries
ĠP ole
for th
Ġinstit uted
Ġpos ed
ret ion
Ġp ac
ĠEl s
it Ã©
ĠM ec
Ġarm ored
Ġe agle
Ġf aded
ĠD oyle
ong o
ĠPhilip pe
ul ia
ĠParad ise
ĠT ac
ĠReturn ing
ow ing
Ġh ips
Ġquestion ing
ĠP end
Ġcar pet
ĠB ug
ĠCar penter
Japan ese
ri que
Ġevac uation
hy dr
g one
aw k
ĠZ oo
ĠDen is
ĠHeart s
rep resent
ĠA ston
Ġassist ing
ĠArab ian
ĠDuc hess
ĠWander ers
ĠLet ter
o ise
ĠDe al
Ġant is
Ġdisch arged
ĠT uc
Ġind ef
ĠMong olia
Ġthe ft
Ġf u
l ace
Ġreconstruct ed
ĠBerm uda
mans hip
im edia
ink s
Ġcons erv
Ġ179 3
Ġreact or
ĠCheroke e
aut ical
ĠElect oral
Ġbas ically
ĠCarl isle
ach ute
Ġper mits
Ġreorgan ized
Ġcalc ium
Ġas ym
Ġpat ents
Ġd amp
Ġl as
ĠAle ks
Ġinf inite
Ġin ability
ĠAt l
ĠNe igh
ĠAbd ullah
Ġpos itively
ĠRec ently
ĠGreat est
Ġfix ture
abet es
J ean
ĠH ak
ic ultural
Ġsp ider
ĠValent ine
ĠÄ °
Ġjuven ile
Ġrecover ing
ept ion
r ically
Ġcontract or
ĠTor res
Ġsu its
E lect
ĠZ ero
R ec
is en
Ġobser vers
M ah
iol a
Ġsubdiv ided
Ġtarget ing
ĠCan on
ĠB le
ĠK ub
Ġbe ast
Ġrep orters
sh irt
Ġhold ers
ĠS ale
Ġst ays
ĠY ak
ĠN ad
writ ers
Ġst ab
Ġbal anced
Ġdec ay
ecess ary
ht ml
Ġsuper intendent
up on
ĠC ertain
\ .
Ġexcav ations
ĠA AA
Ġconfront ation
Ġdeb ates
oper ative
p rom
ĠH oney
Ġspec ification
Ġteen agers
F re
rict ion
ch y
Ġrefuge e
ĠW an
ĠReserv oir
sc ape
Ġmodel ed
ĠH ok
abs burg
ĠSal isbury
ual a
Ġcult iv
Ġintim id
Ġal igned
K h
ĠHe ather
ĠTit ans
ĠBr aves
ĠM k
ĠP ill
Ġind ividually
ot i
Ġminor ities
ĠR w
Ġfe eds
Ġsub division
Ġuncomfort able
y u
atch ing
Ġt issues
Ġpeas ants
ek ing
but ton
ĠMÄģ ori
Ġfuck ing
ĠS udden
Ġd ull
Ġqu arry
H D
ĠPat ricia
ius eppe
ĠApp lied
ĠC ran
Ġe cc
Pl ay
Ġac et
ĠComm odore
ĠMaced onian
ĠH ale
Ġunder going
ĠCh u
ath lon
Ġcont amin
Ġle an
pl an
ĠR ising
Ġsoul s
Ġalumin um
Ġr im
ĠK C
Ġstair case
ĠAl ess
Ġre ctor
ey ed
Ġdefend ant
Ġdet ached
ou st
back er
Ġr age
Ġimpl ied
Ġlicens ing
g on
ĠBart on
Ġag ing
ĠAir ways
Ã¡ lez
ĠF ashion
Ġphot ographic
Ġcycl ist
Ġvow el
Ġrent al
Ġ180 3
ut ory
ĠD at
c am
ĠS aid
ĠL uk
ag ree
Ġt ide
ĠParagu ay
Ġprem ium
l ift
Ġb arriers
an u
Ġref usal
Ä ĵ
Ġpriv at
Ġla und
Ġdead ly
Ġexcav ated
B B
Ġsp inning
ĠB it
Ġank le
Ġhold ings
ĠBr ain
ev al
ĠC ategory
Ġvict orious
Ġfl ame
M F
Ġh urd
ĠCunning ham
Ġell ip
ĠS unn
Ġday time
Ġmountain ous
Ġbe friend
Ġgroup ed
ĠTur in
ĠCorn er
Ġworth y
ĠJer ome
Ġ18 19
Ġdisp atched
E s
ĠR oma
Ġf ox
ĠEm irates
Ġpref ix
Ġ ×
Ġmod ification
ĠLe Ã³n
Ġje ans
Ġup right
G e
Ġback s
Ġ17 0
ĠSax on
ĠBundes liga
Ġstand ings
ols hev
Ġfrustr ation
op a
Ġins cribed
Ġentreprene urs
ĠIsab ella
eck er
an za
ĠParalymp ics
ĠT ort
ins ki
m ith
Ġaccur ately
Ġviol ated
Ġinject ion
ĠF CC
Ġthe olog
Ġol ive
ĠÎ ±
ĠS ew
Ġst ole
Ġsexual ity
ĠO v
Ġfeather s
ĠHumph rey
ĠPar ade
Ġh iking
ari os
w ear
Ġprec ision
Ġanthe m
ĠBull s
ĠChes hire
ĠSe venth
Ġfram ed
Ġorigin ating
omin ated
ĠDet ective
ĠColleg es
Ġpl aint
Ġle v
Ġexpl oded
Ġenthus iasm
ĠBar rett
ĠMu gh
ap le
Ġbal con
per t
ĠB oss
ĠAdvent ure
arn a
ab ar
Ġ11 1
Ġd rought
ĠP ool
am ination
h m
Ġabund ance
ĠD ix
ĠN ay
F ar
ac io
Ġgal axy
ill i
Ġcoordin ated
view ed
Ġsk ate
str ument
Ġscript s
r ud
w ana
Ġsevent y
ĠSoviet s
ĠShe ll
ĠGar rett
Ġunanim ously
Ġlocal ities
ĠT ut
ĠCarl ton
Ġout law
ĠH S
Ġper ennial
art z
ĠDres den
ĠTh ank
Ã¨ ne
ĠRou ge
ĠE arn
ĠCub s
Ġgl ory
Ġw ears
ĠReform ed
f ax
h om
Ġm ol
Ġd ive
ĠRub y
ĠH BO
Ġinter vals
in ating
Ġpull s
s ize
Ġsim ulation
Ġdepos ited
ĠW en
à ´
Ġred ist
ĠI ps
ĠJup iter
ĠTe achers
s un
ugg ing
red itation
ight y
Ġshif ts
Ġabrupt ly
ir us
Ġs erm
Ġref r
ĠBang kok
Ã¨ res
ĠVen us
Ġst atic
k ill
Ġforest ed
Ġcirc uits
ĠHow e
ĠK ob
ĠBah rain
ĠR it
Ġprocess ed
ĠBlack burn
ĠLÃ³ pez
D el
or ers
ĠR ust
Ġher ald
In ter
Ġsk ept
ger ald
ĠC able
ĠAd ults
unk er
ĠIn clud
ph oon
Ġse iz
Ġupd ates
ĠCh oir
Ġout right
ĠMap le
ili ated
Âł "
Ġpra ising
ĠOcc up
ĠS L
Ġinf ring
ĠPars ons
ay ette
ĠGonz Ã¡lez
Ġcl ip
Ġorder ing
Ġuncertain ty
Ġhyd raul
Ġar ches
th irds
ĠM W
ĠCed ar
f u
oy e
ĠCl iff
ĠO kin
Ġcompr ise
ĠC ities
ĠD uck
Ġspat ial
In ternational
Ġsatisf y
Ġp ear
ĠAr cher
ĠS earch
Ġcap ped
st eps
H ome
d ou
Ġpres ided
ĠR ough
____ ____
Ġwhis per
C all
ĠHy dro
Ġunus ually
Ġesc orted
ĠAct s
Ġind ication
Ġover haul
Ġplant ations
oll a
ĠProper ty
ĠFI BA
Ġeconom ist
ĠS yl
ĠThe res
ĠAugust ine
Ġcur se
heim er
Ġreminisc ent
ific ent
Ġde af
Ġun related
ĠG ould
Ġ18 22
Ġwe ighed
Ġcontroll er
Ġdef enses
Ġhung ry
Ġeight eenth
Ġdissert ation
ist ries
Ġsens or
ĠRand olph
Ä± n
Pe ople
Ġ12 8
ĠMic key
ĠP red
ĠIm mediately
ĠBron x
Ġrebu ilding
hes is
utt gart
Ġz oo
197 1
Ġcart oons
Ġf ist
ĠCann es
Ġdef icit
ĠTradition al
ĠT il
Ġ/ >
avel ength
Ġconstr aints
Ġch ord
Ġble w
Ġpip eline
ĠInvest ig
auth ored
ĠJ ing
j ee
Ġbad ge
ĠRud olf
Ġtownship s
ĠM ih
p os
ĠShe pherd
ĠF ol
Ġinn oc
und ers
osp here
Ġpass ages
Ġapprec iate
Ġsuperm ark
Ġback wards
ĠOrgan isation
ĠGal way
Ġb ells
Ġappe als
ĠN ou
ak is
ĠNon etheless
Ġdisp osal
H ave
Ġo scill
ĠRivers ide
l at
ond ition
ĠW ould
Ġnurs es
Ġhung er
M B
ĠMid west
Ġt in
ĠSe v
ĠBuch arest
Ġ5 000
Ġw it
ĠAnt io
Ġnational ism
Ġprecurs or
Ġrecru iting
ĠUlt imately
C H
p rop
ĠBang alore
f il
ĠD ru
Ġme als
Ġmid st
ia e
Ġrel ate
ast ing
Ġbes ie
al om
Ġf als
Ġt empt
Ġ11 2
Ġshoot er
v ine
ĠM O
Ġple asant
ĠFro st
Ġ2 20
ĠJ agu
Ġtrou bled
Ġgrand daughter
ĠG Ã³
Ġrot ating
Ġpossess es
al ach
ure n
ĠQu int
Ġorganiz ational
ĠStand ards
p oints
ĠMa o
ĠU d
ĠBark er
ĠBy ron
Ġfart her
om ans
ĠIs les
he id
Ġrum ors
Ġ18 23
p arents
Ġproject ion
G E
ĠGr im
L ong
Ġmerch and
V I
Ġ180 9
ĠP anch
ĠBar ber
ĠAugust a
ab is
nd on
Ġch ips
ĠLoren zo
ÃŃ o
Ġpedest rian
ĠBever ly
ĠI CC
Ġa pex
Ġr het
uv ian
Ġcaptain ed
por a
Ġfac ial
p us
Ġg orge
ĠF landers
ĠLope z
Ġsoc ially
N U
T y
Ġobser ver
Ġl ymph
Ġfolk lore
ib al
Ġprocess or
Ġpl ac
Ġp ending
Ġcomp ression
Ġfire arms
Ġaccum ulated
Ġpred ators
Ġsh ade
Ġhand ic
Ġscre amed
Ġsub stances
Ġmon sters
Ġr all
Ġtra uma
Ġn ec
ĠG n
ĠAnn iversary
Ġadm ired
V ol
ĠG at
Ġve ins
Ġapprec iated
ĠF ant
sup port
ĠL ooking
ĠAustral ians
Ġten ants
ĠY osh
che z
ĠAs ide
ĠB rem
Ġspir al
ĠKann ada
aret te
Ġrec ount
ĠPort o
b as
Ġa ven
S im
Ġspec ulated
Ġmet ro
Ġoffer ings
ĠM ets
ĠDon na
". "
Ġst rongh
ĠP BS
ĠDown s
Ġexplo itation
Ġtrans fers
Ġair s
ĠL und
es y
af ts
Ġpup pet
Ġpl ots
Ġcouncill or
ĠSe lect
Ġto ys
ĠAbb as
Ġflood s
clus ions
ĠPra irie
Ġnumber ing
air craft
ĠH absburg
ir ming
B ack
er d
ĠAl berto
Ġheart s
Ġc ake
Ġapprec iation
ĠB rett
Ù ħ
Ġb ind
e aux
Ġsup reme
on o
Ġt iles
ĠR ita
ĠC I
h ig
ĠC ale
ĠD oming
Ġser ge
ĠD over
ĠM ist
ĠAll Music
Ġyour s
Ġd ental
Ġdam aging
ĠCris is
ĠRe bell
Ġnecess ity
Ġfrustr ated
ĠI R
f em
er ting
196 9
ĠP ue
ĠGener ally
Ġpun ct
u ating
ĠB ian
j ar
Ġge ological
ĠAdmir alty
ĠR och
Ġprog ression
Ġwid ened
You ng
Ġ18 17
Ġpersu ade
Ġp sy
196 8
B ul
Ġgr at
larg est
ĠF ight
ĠM und
Ġdisappear ance
ĠWe ber
record ed
ang led
ĠP ag
ĠW B
Ġgrand children
Ġcard inal
Ġover d
int age
Ġc ared
ot ive
Ġal ley
ĠArchitect s
Ġsh y
vent ions
ĠRel igion
Ġbirth place
Ġpass ive
ĠC asc
ant an
l ake
Ġcampaign ed
ĠAsh ton
Ġf ring
c ue
Ġtribut aries
b irds
ĠS Ã©
ĠG enesis
Ġeth ical
Sp anish
Ġst ressed
it ism
Ġinf lamm
ĠF res
C at
ip edia
ĠTechn ologies
Ġflag s
Ġprivile ges
ĠLiber t
p i
Ġimpl ications
Ġbu zz
ert ile
ĠIn ver
Ġdet achment
work ing
g il
Ġl odge
ok i
b ore
le af
d ated
app ers
Ġsurpass ed
ern e
Ġsupp ress
Ġin k
ĠSy nd
Ġmort ar
ĠEthiop ian
Ġex ported
ĠClare nce
ab h
Ġbure auc
Ġcapt ive
asc us
M M
N ever
ĠSt yle
Ġecc entric
Ġpostp oned
st atic
Ġdis abilities
ĠHol t
che t
ĠHon our
B ecause
h ttp
Ġh ast
Ġco ordination
ĠÃ ł
ĠRe ad
Ġbackground s
ĠP asha
Ġhur ried
Ġrac ism
Ġmist akes
ĠZh ou
ow itz
Pac ific
Ù Ĩ
Ġ180 8
Ġsh ame
ĠBrend an
F rance
ae a
arat us
ĠS erg
Ġon set
op hys
Ġdev ised
Ġfire f
Ġdis in
Ġs el
Ġinvent ory
Ġv iable
ĠFitz gerald
B er
Ġtw ist
ĠM og
Ġla wn
Ġr hy
M ax
Ġoblig ations
Ġc ob
S em
Ġthick ness
ra red
Ġpitch ing
Ġsupp ressed
c irc
ĠL ans
ĠImp ro
l oss
J P
Ġtrem end
Ġat e
Ġdevast ated
Ġelect rom
um ar
ĠIv y
ĠHigh lands
Ġinform s
ĠN ate
ĠSch midt
ĠCat alan
ĠCh ak
Ġoccur rence
Ġrend ering
Ġsens ors
Ġrecept ions
Ġreal izing
Ġint ake
Ch inese
ĠTre k
Ġb iblical
ĠGal axy
ograp hers
ĠB ally
ĠN ut
Ġcour thouse
) (
ut ic
ch in
Ġass im
ĠPolit ics
Ġsatisf action
M ir
ong a
ĠB ac
ĠRe leased
ĠNew sp
n ance
ĠD ram
ĠFl at
Ġn odes
ĠB ax
Ġc age
ĠU P
ĠGreen wich
ec ourse
J ac
ĠDaniel s
ĠV A
Ġ ÏĦ
Ġf oul
ĠS W
ĠAssoci ates
ep er
ĠC ull
ĠMag dal
Ġspect acular
Ġsp or
Ġstr anger
Ġwat ches
ĠÅ ļ
ĠDar ren
ĠPart n
ĠAltern ative
Ġg able
Ġsymp athetic
st a
R oyal
Ġrob bery
umb ers
ĠTyp ically
M ur
ĠH ague
Ġres ume
Ġ ump
icular ly
on el
ĠChar ity
Ġrec apt
H ot
cont inental
Ġins ert
ĠVe hic
ĠMoz art
Ġmob ility
anc ies
Ġlim iting
Ġsub way
ĠSteel ers
Ġreg ulate
Ġd Ã©
ipe i
ĠK oz
c ip
B ur
est an
ios ity
S omet
t ford
ĠTh ous
uck ed
ĠR anger
ĠInter est
Ġle isure
St r
Ġwild erness
Ġbene ficial
aster ies
ĠRaj as
Ġshut tle
Ġstret ching
ĠF i
Ã¶ m
Ġpen et
Ġswall owed
br and
ĠSch war
ember g
ĠCam den
Ġsus cept
Ġimplement ing
l ot
Ġhas n
Ġpress ures
Î º
L D
ĠH ip
Ġfit ting
ĠO mar
ĠMagn us
ad an
s ung
V ar
ĠD epend
Ġsc al
ĠMac Donald
Ġ1 19
Ġlad der
ĠF arn
Ġen force
Ġsuc c
ĠAlf onso
Ġevery body
ĠD iane
Ġ179 4
ĠHond uras
ĠL ug
ĠApp roximately
Ġmer it
Ġn ode
ĠP GA
ĠKat ie
Ġexam s
Ġsw ords
ced ented
ĠEv il
ĠUC I
Ġj ungle
ba um
ĠMin i
Ġve in
ĠSt uttgart
Ġext raction
ĠGl oria
Ġprofit able
Ġes p
ĠB oul
ĠNob le
ĠBar th
ĠSey mour
ĠSim mons
ve z
Ġdis par
Ġgest ure
ĠB Ã©
Ġmon etary
ĠSam oa
ĠM ord
Ġhe d
Ġ179 8
cul osis
ĠDr ag
ĠA unt
Ġbott les
ÅĦ ski
Âł 2
Ġsp arked
Ġpip es
ig ma
Ġpat rons
u ctor
Ġgl uc
ĠDomin ic
Ġex otic
Ġinvest or
ĠNic ole
Ġl yr
Ġreason ing
hn e
Ġp hyl
m ag
ĠRav ens
Ġfe as
Ġwork force
U nder
Ð ´
Ġopp ose
ĠHass an
ow ment
Ġgr ape
ĠInt el
ang i
Ġmed i
Ġwh oles
ĠR onnie
Ġacadem ics
ĠN ina
ĠUn cle
Ġinadequ ate
P o
Ġinf ections
ĠTw elve
en ko
Ġretrie ve
ire n
ĠE S
Ġ18 11
ĠH enn
ĠK ras
ol utions
Ġwa ived
Ġeconom ically
Ġcor al
Ġdep iction
ĠP oints
Ġcomplex es
ĠC ors
Ġbrut al
ĠCe lebr
m ere
ĠEvangel ical
n ick
osa urs
Ġprosper ity
ĠG ott
ĠCh arg
Ġshare holders
ĠÃ ħ
u ations
Ġweekend s
z ew
ĠK ick
Ġjewel ry
D en
C y
Ġst ack
Ġpractition ers
Ġgr im
ĠVik ing
ĠS idd
ĠP erm
Ġdem ons
S und
ĠNum erous
haw k
ĠGreen land
Sp ace
ĠAm ber
Ġe man
L o
Ġw ise
ĠWilliam son
ĠWal ton
ar as
Ġsat ellites
ĠP asc
Ġnob les
Ġsun light
ĠG S
Ġm ars
ĠN iss
ĠJ ain
ĠW ire
The se
ul ing
Ġpun ch
ĠTrust ees
ĠM GM
ĠSom alia
Ġstret ches
ĠSund erland
Ġbehav iors
Ġcompuls ory
Ġex agger
Ġ179 5
Ġn ost
br ight
Ġle aning
Ġchim ney
Ġext inction
Ġresemb lance
Ġlim bs
Ġrub bed
ĠV ul
Ġadvertis ement
ĠWest on
ĠW igan
ĠV ista
ĠStev enson
ĠBe aver
Ġextens ions
Ġlik ewise
Ġc el
Ġst aging
Ġcontin ually
ĠP ip
Ġelect rons
Ġdecor ations
her ty
ĠLiber als
isl av
ĠRol ling
ĠM iy
oc yt
ree ze
Ġpap al
ĠFle ming
Ġbeet les
F inal
ac ity
Ġdiscuss es
Ġdist ribute
Ġbuild er
m ounted
ac cess
Ġvic ar
Ġchuck led
it ud
un ks
ĠBy r
ush i
inn ess
ĠC ey
ason ry
196 7
ri z
Ġ180 5
ĠRe e
H T
Ġred dish
Ġ180 7
Ġorchest ral
ĠGu err
ay e
ĠH R
ĠWhe eler
Ġr ud
ĠY i
Ġstruct ured
Ġfung i
ĠM ate
ev il
ĠArch diocese
ĠLank an
ĠNorm al
ip le
Ġvot er
c ular
me aning
Ġnot ation
ry pt
ĠH os
ĠAt las
Ġble eding
Ġp ound
ĠDw ight
ĠBolog na
um ont
ĠSupport ing
Ġrepresent ations
T ell
Ġvac ated
æ Ŀ
r ust
Ġhum orous
Ġselect ive
ĠG ert
Ġten or
Ġt ire
Ġentire ty
ig m
og ues
Ġdist ress
Ġconfer red
ĠM uss
ĠN un
Ġamalg am
ev ille
Ġpass port
Ġrec k
ĠGaz ette
l oe
ĠTe en
Ġdisapp ointing
ĠV y
Ġmod ules
ĠAll ison
ĠK yr
r aged
Ġw agons
h olic
Ġex h
Ġhand ball
ung a
Ġis ot
ĠS my
Ar ch
u ably
ĠC ot
ess es
rap er
ĠY as
Ġbow ler
ĠWater loo
Ġpr one
Ġsl iding
Ġmasc uline
ĠH ours
Ġprovision al
ar aj
Ġcol span
Ġdi oces
ĠEven ing
n ear
ĠGr ac
Ġide als
Ġd read
Âł l
ĠK ak
ĠD odge
Ġrepro duction
Ġpoet ic
Ġchief s
ĠSc r
Ġsem ic
D ark
or ah
op us
ĠEl ite
z yn
ĠCl aus
Ġreject ion
Ġkeyboard s
ĠCol ts
ĠPenn y
C ategory
Ġprompt ing
l ooking
ĠP ike
ĠL inn
ĠSudden ly
in ist
st als
ĠM ud
Ġrib s
Ġtra vers
Ġprompt ly
ĠCor inth
Ġl overs
ĠAdministr ative
Ġpres umed
Ġh iring
f est
ĠHold en
am oto
ĠM err
Ġsubsc rib
ĠM oy
uther land
ĠIps wich
Ġmot ivation
ĠW ave
ĠAust ro
Ġattract ing
ĠRel ief
Hist ory
ĠMar i
L ike
Ġlung s
ĠS amp
Ġappoint ments
od on
Ġver bal
at as
st ick
ĠCh op
ĠBe ir
Ġcollect ors
L O
ĠO rient
ĠSund ays
ĠMar se
Ġancest ral
Ġhel m
g eneration
Ġcharg ing
aw an
Ġun released
Ġsn ap
ĠAbb ott
o ic
Ġdevelopment al
Ġres idency
Ġbre asts
ve x
Ġhost age
Ġgovern ors
Ġsubordin ate
H ouse
Ġb og
Ġcolon ists
Ġphys icist
ĠC ON
av our
ĠDiv ine
n as
Ġsh ores
Ġur anium
w on
ĠGr aves
it ian
ĠG avin
) -
Ġexped itions
Ġcoast line
ĠSter ling
ĠS ure
Ġunh appy
Ġback ward
Ġpatron age
R ev
Ġout lined
. -
ĠHans en
ĠPack ers
ĠLat vian
ĠNor se
Ġd ose
oph il
ĠMed ic
p end
Ġl ing
Ġcry stall
A v
ĠI rene
Ġiss uing
Ġmar ching
ĠIm port
Ġhind wings
ur ian
Ġnom inal
Ġemploy ing
ĠUn ity
Ġver dict
edd y
Ġp ose
St ep
Ġunc overed
ĠV on
Ġmed itation
H op
Ġg rief
ĠDerby shire
Ġsemif inal
Ġobsc ure
Ġdocument aries
Ġ16 00
ĠTer esa
Ġfl ora
Ġim ped
ĠRodrig uez
Ġmart yr
L aw
ĠM LS
ib i
Ġgener ous
Ġthorough ly
Ġr ays
ĠSh o
Ġl iability
ĠSk i
Ġorb ital
ĠX u
ĠL oss
Ġ17 80
Ġrecru its
Ġninet een
es i
Ġelimin ating
Ġun l
S orry
ĠM E
ĠSh ut
un it
Ġmut ations
azz o
ĠBritt any
Ġconvers ations
Ġdiscover ing
Ġmarry ing
ĠJul es
rank ing
Ġr ay
pr im
ĠAct ing
Ġrefer enced
Ġshort age
Ġrenov ations
u o
ĠInnov ation
est ine
Ġfundra ising
Ġgreet ed
E mp
ĠPer kins
ais y
r s
Ġbel oved
Ġdefin itions
ĠFlem ish
Ġbe ef
ov Ã¡
Ġfail ures
j un
sh an
Ġrepro ductive
Ġcas ino
om at
w aters
Ġunw illing
Ġkiss ing
Ġbr ace
Ġturb ine
Ġumb rella
Ġunch anged
ĠT arg
Ġinf ect
ĠDo ct
ĠSt ark
ĠDam ascus
ĠT itan
Ġl uc
ĠDors et
ĠFront ier
ĠTH E
ĠMy ers
ĠTa ipei
Ġpione ered
Ġshow case
ĠNational s
w itz
Ġhe red
Ġesc aping
Ã¤ n
ĠH appy
D ef
Ġw avelength
ĠSt arr
Ġsens itivity
Ġpredecess ors
U T
ĠMin ing
Ġbank er
Ġad verse
Ġscream ing
Ġerup ted
Ġbl own
ĠSuper intendent
Ġreward ed
Ġch ancellor
H ello
Ġm ural
Ġunp re
in ians
ÂłM Hz
Ġconstruct ing
Ġblank et
ĠProp het
ent er
grad ation
Ġwh ites
Ġ180 4
ĠC yn
sw ald
Ġl oving
N FL
s ville
Ġh airs
ĠKit chen
f rey
Ã¢te au
Ġdress ing
ĠMoz amb
à¥ į
ĠEst ablished
Ġp irates
ĠC ell
ook ed
Ġgener ator
ĠFor rest
ash t
Ġculmin ated
dist rict
ĠG iuseppe
Sm ith
tt a
ĠJul iet
M er
Ġgross ed
ĠTh ing
Ġcomb inations
Ġal iens
ĠHaw kins
ĠRena ult
Mar ie
Ġnetwork ing
R ay
n or
Ġfle eing
er ver
ĠEx c
Ġste als
Ġdiss ip
Ġturn out
Ġimm ers
ĠJose f
ĠR ath
ĠSh im
ĠPh i
O ver
et ically
us ch
ĠReg ina
s igned
Ġanch ored
Ġbo oth
ĠU se
Ġf ertile
ĠExpress way
ĠCount ess
light en
Ġl ag
Ġh ttps
ĠM B
n ica
ĠK ant
19 45
Ġcy t
ĠX in
Ġquad r
Ġcheck ing
Ġscr ut
m ese
Ġfunction ality
ĠRebell ion
Ġsubscript ion
ĠLah ore
A p
ĠPay ne
Ġpatrol s
b ilt
ĠG ob
en ian
m inded
ĠGovernor ate
Ġpop ul
ĠGer ard
ĠN avig
ob il
un ion
is y
orn s
ĠKim ber
b ral
n esty
ĠGu itar
ĠW itch
so lete
Ġhat red
Ġcompl iment
qu ality
Ġhy mn
ra ught
Ġvolunte ered
19 30
Ġaud itorium
ĠG iant
Ġd welling
Ġ180 2
D i
at y
od i
Ġbomb ardment
G al
ĠMart ine
Ġpl ague
ĠMaj esty
ĠUs ually
Ġtransp arent
ĠB res
ĠP oor
Ġatt achment
Ġpre historic
Ġsem inary
Ġc aut
Ġdispers ed
uff ed
Ġsyn agogue
ĠB R
W estern
Ġequ ilibrium
Ġwin ters
Ġgu ides
Ġdisturb ed
t ec
Ġgas oline
Ã¨ ge
Ġsoci ology
be h
ĠRiver a
Ġfa Ã§
D am
ro let
Ġneur ons
Ġno on
ĠL ec
Ġassign ments
ĠMel issa
ĠFR EE
Ġmetall ic
Ġd ella
anc ock
ĠMcC art
ĠGerman ic
ĠO ce
Ġtoss ed
ĠPer uvian
as so
ets k
Ġb ru
ograph s
Ġstep ping
D ead
ĠG ore
Ġpur se
id ia
ĠH ag
ĠCast ile
Ġintercept ed
Ġpromot er
Ġdev otion
ĠS v
em y
D O
Ġhom age
ĠT C
ĠId ol
H R
Ġam usement
flow er
Ġconsort ium
Ġsh oe
Ġnon etheless
ĠP emb
ĠGo a
Ġf eder
ĠBah Ã¡
ĠT ao
Ġdevast ating
Ġtrad es
ĠHar lem
amb oo
Ġ179 2
Âłb illion
Ġun stable
inc hed
ĠAll music
Ġs ap
ĠV ince
Ġsac rific
ge e
ivid ing
Ġgentle man
Ġapplic able
Ġcur ator
Ġ ul
ĠP iper
ĠC T
Ġwest ward
Ø ±
Ġcart ridge
m eter
ĠOs aka
ĠP ull
ĠHer r
L ast
Ġdismiss al
Ġsw ung
L I
are th
Ã ¬
ĠOpp osition
ĠS ob
ĠI A
ĠAn alysis
ĠSch u
Ġconclud ing
196 5
Ġd ip
ĠNo el
Ġunpre cedented
ow ell
ĠAl am
Ġmigr ants
ĠLenn on
Ġ ions
Ġsl ate
Ġauthent ic
Ġv ag
Ġmin iseries
roll er
ĠBet ter
Ġske leton
Ġenzym es
ach y
ĠT es
Ġy esterday
Ġfr aternity
ĠMorm on
ĠPartn ership
s son
ĠD ifferent
Sat urday
n ch
Ã©t ico
N othing
ay ana
Ġgeomet ric
ĠLaure nt
ĠPrim era
ank a
rel s
g ren
Ġj ockey
Ġw ines
are a
or io
Ġsong writing
Ġinterpret ations
Ġwell s
ĠH P
Ġmini ature
en b
ĠT ill
ĠT uls
Ġinter ception
C ast
ĠR ene
Ġdr ained
Ġar ched
Ġmedal ist
ening rad
ĠRap ids
Ġcirc a
ĠLion el
Ġsubstr ate
Ġpro stitution
ĠG uru
W ashington
l arge
Ġcont ests
Ġapp le
Ġch ol
Ġtort ured
Ġsent iment
ĠBav arian
Ġign or
thor pe
ĠPolyt echnic
ĠP iano
Ġquart et
ĠMay o
Ġal pine
ach a
ĠT urb
Ġprosecut or
Ġball ots
F red
Ġgrant ing
ustr ated
ĠO man
ĠK ilk
op ath
Ġadd iction
ar h
ĠF ischer
ĠJo han
Ġorgan ism
ĠBet a
Ġvis a
Ġang els
Ġtit ular
ĠE ra
ĠG us
ĠTaiwan ese
ĠUlt imate
F our
ĠEd ith
disc iplinary
Ġbr ack
gl ass
Ġwarm th
Ġg roc
Ġme g
Ġhe ars
Ġat he
ĠHu ang
ĠWill ow
ĠJak arta
Ġow ed
Ġorigin ates
Ġres isted
Ġsuff rage
d ate
ĠRest oration
Ġapp aratus
Ġcle ver
ĠAutonom ous
c ost
Ġs inc
ĠElis abeth
ĠF ritz
Ġd rown
ĠCom ic
ograph ically
ĠKar achi
Ġconvinc ing
Ġobserv ing
ĠDep ot
ĠT ap
igg s
ĠSup erv
az y
Ġredes ignated
Ġharass ment
ĠEx cept
ĠRes olution
Ġencour ages
ĠA id
ĠGen oa
ĠG el
Hung arian
Ġyield s
Ġcomm uter
B ay
ĠAr agon
v iol
ke f
Ã¡ d
Ġdev il
Ġmed ication
ĠD ise
Ġab normal
ĠI RA
il ated
Ġsp erm
at an
Ġg y
ĠSt ones
ĠCatholic ism
at hed
Ġp ad
ĠT orn
et he
ĠM itch
road s
ĠIs abel
ĠChrist church
gl omer
! ".
Ġnot ices
G irl
v ideo
Ġvac ancy
Ġth under
{{ {
Ġcontribut es
Ġtoler ance
Ù Ĭ
Ġpr ay
g uez
ful l
ĠK and
Ġexpl orer
1 10
ro gen
ĠBerk shire
ĠWy att
ĠRep orts
urg y
Ġ179 6
ĠJud y
Ġd rif
Ġz omb
ĠCal d
t ier
ĠR i
and ez
Î ·
ĠR ama
Ġte ens
Ġgymn asium
ĠN aw
196 6
Ġslee ve
Ġf ederation
v ous
ĠH C
ĠMur d
ab o
Ġexc use
Ġpatri arch
Ġfam ed
Ġrede velopment
Ġw eld
ĠB ing
Ġch ancel
ĠSt eele
Ġcharacter ised
Ġup ward
ath ing
Ġf ont
Ġdup lic
ĠAntio ch
Ġtrack ed
ĠT ales
ul se
G I
at ur
ol ation
Ġbat ch
G ame
Ġblock ade
Ġdemonstr ates
T er
fer red
He art
W ild
at ore
pro of
ĠB rick
ĠOw ens
Ġtoile t
Ġaltern ating
Ġsymmet ry
Ġkind ergarten
Ġexam ining
Ġs acks
ĠZ Ã¼
ĠS I
ĠL j
Ġurg ing
Ġprolong ed
Ġcomment ators
Ġit er
ĠBra un
Ġdel icate
R adio
Is lam
Ġhab its
L iber
ĠAss am
F ore
ĠB olshev
Ġun se
a qu
ĠCar th
ĠFal cons
D em
ĠCar bon
Ġele phant
or an
Ġs aints
Ġeleg ant
ĠL ep
ĠBi har
Ġless on
ĠCey lon
ult on
ĠL una
ĠV ia
ĠNam ibia
Ġfeud al
ĠC ould
Ġbl ades
ĠVer de
ĠP urd
ĠW N
Ġdist ract
Ġwars hips
Ġprocess ion
ath olic
Ġaim ing
ĠW ine
Ġens ured
Ġup stairs
.. .âĢĿ
Ġfinal ists
Ġass umes
ĠPol es
rÃŃ guez
ĠMerc y
Ġalumin ium
x y
Ġ178 9
n ine
Ġpione ers
Ġretail ers
ĠAn k
ĠMon aco
ograph ies
ĠPhill ies
ĠChamber lain
ĠAut om
T imes
and e
Ġentertain ing
Ġport able
Ġre issued
Ġj un
Ġrel iability
ew ood
Ġpre jud
ĠDev ils
ĠC W
Ġr anged
ĠLim erick
at ical
Ġsome body
ĠCh ong
Ġb iod
Ġ( #
ĠW et
Ġsol itary
R em
ĠTh ink
Ġacqu aint
Ġmur m
son ian
ar ina
Ġm osa
Ġphotograp hed
Ġa fore
Ġdiss em
ĠCert ificate
tt es
196 4
Ġimmigr ated
Ġpill ars
Å ĳ
ĠJenn ings
Ġchar tered
pur pose
Ġtrust ee
F i
ĠCol lier
gu y
ĠS au
Ġconfron ts
Ind ian
ĠVander bilt
N et
oss ibly
Ġpack ages
b ands
Ġastron omy
n ie
Ġcheck s
12 5
Ġtre ason
orr aine
och ond
ĠBuch anan
Ġculmin ating
Ġup held
re hend
Ġl ent
Ġmist ress
ter min
Ġed it
def ined
ĠS uf
ĠG iles
ĠC oul
Ġautom otive
a er
ĠBeir ut
Ġillustr ator
ĠOkin awa
Ġdomin ate
ĠSol id
w ife
Ġem blem
ĠRod rÃŃguez
Ġs ells
ĠZ ak
Ġcock pit
g el
Ġfor ts
ĠMich a
ĠJon as
Ġl ou
Ġn ud
ĠSher idan
roph ic
R ight
p he
Ġre app
ĠCh ance
ĠX II
ar ro
ĠT S
Ġsepar ating
ĠGodd ess
ĠTud or
Ġde port
Ġdem ographic
agon ists
br ates
ĠM ae
Ġser vers
Ġcub ic
Ġcandid acy
ĠG ap
ĠX ia
Ġsal mon
Ġbrew ery
ĠVen etian
? '
Ġalleg iance
Ġcomb ust
c asters
Ġg ases
ĠR I
Ġ17 76
Ġtransl ates
Ġdisplay ing
ĠKurd ish
ĠF arr
U M
ĠAb el
Ġprivile ge
ĠCarm el
ĠLaf ayette
Ġl ava
Ġpost season
ĠBeaut y
it le
Ġpart ed
ĠGl ad
Ġf ooth
Ġgl oss
ĠCros by
B at
st ation
Ġd uel
Ġtrans cript
ib us
Ġconstitu ent
s ided
Ġs orts
ul am
Ġ11 3
Ġfarm land
op ot
Ġn oun
on ge
Ġatt ach
ĠOl ive
Ġth ou
Ġres ervation
Ġpark ed
Ġfav oured
Ġobst acles
Ġvamp ires
Ġarbit rary
ĠF S
ric anes
ĠChrist ina
us ions
Ġbl essed
Ġpsych iatric
fl ix
ĠW ey
Ġ12 00
Ġkingdom s
Ġfres co
ĠEv elyn
ĠAr row
Ġ13 5
ĠPlate au
Ġutil ize
Ġpilgrim age
et i
Ġactiv ism
Ġenthusi astic
ĠCh ip
ob ia
h ara
ĠR F
ĠEll iot
ĠH ang
ar ie
Ġhomosexual ity
ĠV C
ar b
Ġglob ally
Ġp add
S ure
N I
ĠQuart et
Ġpat ches
ĠChand ler
T s
ĠJ ob
Ġout line
ru ce
ĠBow ie
ĠWat ts
Ġunf air
ĠDev i
ĠN ile
Ġrever ted
il is
ĠLe inster
ag her
A li
Ġne ural
oth ic
Ġwheel chair
ĠHer tford
ĠRef uge
R oy
Ġdeb ated
ĠMos que
ator ium
Ġrecip ients
Ġd ash
ĠEarl ier
ĠAndre as
ĠSh ri
X X
ĠT ou
Ġw ax
ĠEis enh
Ġp its
Ġr ats
h ome
cons cious
ĠApost olic
Ġpres erving
Ġcr ude
h aven
ĠEns emble
ans en
Ġprem ature
Is rael
ns ic
Ġoblig ed
ĠW ah
ĠS ept
Ġpharm ac
Ġinf amous
on te
Ġcommun es
ĠKrak Ã³w
l ich
Ġdisc rimin
Ġhon oured
st ud
ĠChev rolet
Ġf el
v re
Ġbr akes
the med
Ġmus h
Ġfin ed
Ġchief ly
ĠJub ilee
ĠI k
Ġconting ent
ĠL Ã¼
or ie
Ġlat itude
st ore
Ġpassion ate
Ġoff ence
O H
Ñ ı
Ġtake over
Ġincred ible
am orph
ĠP ors
Ġadmin ister
l Ã©
Ġdr ill
ĠN ice
Ġcommun al
Ġre pt
ĠN ames
ĠBos nian
ul er
ĠB am
ĠMe gan
b ins
ĠAb ove
Ġneg lect
Äģb Äģd
it ating
Ġannounc er
ĠC oss
Ġob solete
att ack
ĠEst her
Ġimm ense
ĠHuman ities
Ġinc oming
Ġfr igate
ĠC annon
ĠSt irling
ah ar
ad ar
iot ic
Ġlicens es
fess ional
ĠEnt ry
ch an
te f
ĠGlou cestershire
Ġcomp are
Ġle ts
Ġdon or
Ġh id
Ġdis lik
Ġv oid
De ath
ĠV or
ship s
B road
ĠL eningrad
Ġ179 9
ĠO ss
Ġsign aling
Ġprev ents
Ġscr ub
Ġhorn s
Ġcrowd ed
d ar
ĠCl ose
et us
Ġnew com
Ġpop e
Ġbr ake
ĠT ouch
g as
Ġre election
iss on
Ġ11 6
ar cer
Can adian
Ġdict ators
en ov
ol esc
Ġpet roleum
Ġliber ty
ĠGu am
est abl
ĠRec on
ĠR ous
Ġy acht
ĠVol ks
Ġcanc ellation
Ġfreel ance
ĠNicarag ua
est a
Ġrenew able
ter dam
arent ly
ĠElect rical
Ġtur ret
Ġreluct antly
I rish
ĠHav ana
ĠK ut
Ġ7 50
uss y
ruct ive
Ġeval uated
Ġadop ting
Ġinters ects
Ġacknow ledge
Ġknock ing
ific ant
ĠMarket ing
ĠEm erson
ĠN iz
os i
Ġl av
ĠEl vis
ĠG ret
Ġstri pes
Ġcon e
Ġlabor atories
ĠL ough
s ers
Ġlegit im
c s
å ¤
ĠMans field
ĠSi oux
ĠB old
Ġinv alid
an ie
Ġpopular ly
Ġpack aging
Ġrel ies
Ġb ip
ĠElect ronics
ĠSwan sea
Ġpres cribed
Ġspecific ations
uli ar
Ġdeterm ines
Ġbreat he
Ġcontempor aries
Ġtr agic
Ġconfirm ation
Ġpres idents
ĠCom ing
ĠCour ts
ĠEm manuel
Ġarr ange
Ġlov ely
ck er
ĠThe ss
sp ons
Ġmen u
G R
Ġcor pse
Ġsw amp
ĠLow e
Ġconver ting
ĠEn c
á ĥ
ĠDe leg
sp oken
Ġfilm makers
an ey
Ġat om
Ġconqu er
Ġsol ving
Ġexam inations
ĠSch olar
S axon
ĠSt ella
Ġclear ance
Ġbul lets
he arted
Ġcr ush
Ġj er
Ġmort gage
Ġinc ap
Ġprop oses
Ġcons ul
Ġdom est
Ġtelesc ope
ĠV iolet
ĠH imal
ĠS we
ia ison
Ġd os
Ġpuzz le
oper ation
Ġwh or
ĠClif ford
ĠT rap
Ġvill a
Ġinnov ations
ĠS ources
Jew ish
Ġref ined
ĠLex ington
ĠWik ipedia
worth y
Ġdes ires
Ġw ishing
pl ess
it ri
av is
ĠS utherland
ĠA K
ales e
ĠV amp
Ġexpress es
up ta
ĠStr as
ill ary
Ġk ern
ĠEl m
ĠRah man
ĠM um
p iring
Ġpod cast
ĠC rew
Ġper imeter
Ġstat utory
ĠW R
Ġtr icks
og i
ĠBol lywood
Ġassass inated
ĠGood man
Ġunn ecessary
Ġb en
ĠG ior
Ġinv isible
ĠLight ning
Ġbo iler
ĠC het
10 1
ĠH M
Ġtu ition
Ġbe ams
ĠFl ood
Ġsymp ath
Ġacceler ated
ĠD ictionary
Ġrecruit ment
ĠPro ducer
play er
ĠW arm
n is
Ġl one
cl er
ĠH of
Ġpers istent
ĠD raw
q a
Ġc os
ĠH ancock
Ġline backer
Ã¢ hu
Ġspokes person
C amp
ĠS ent
ĠT ry
od us
od rome
ĠLa os
Ġdram as
Ġball oon
ĠThor nton
Ġenvelop e
Ġen forced
Ġcan oe
ĠLev i
ĠP erman
ĠRes cue
th ia
ĠDan ube
Ġbless ing
Ġdef ences
ĠC hern
à °
Ġw oke
ĠMarc os
ĠM illion
Ġdi abetes
Ġp enc
ĠCh it
Ġimpr int
c hem
in ished
ĠK ry
Ġserge ant
Ġp ix
Ġastron omer
over ing
Ġreign ing
Ġkick ing
ĠEp isode
Ġfur ious
Äģ r
ĠW elfare
Ġgroc ery
Ġl att
ra j
Ġge ology
ident ified
Ġfl uct
Ġprincip ally
ĠCatal onia
P ass
ig ue
lin ear
Ġident ities
Ġrepr inted
Ġsqueez ed
Ġpat ented
ĠRes ort
Ġf auna
Ġpled ged
T M
Ġtemper ate
s sel
ĠSch um
Ġel bow
Cap tain
Ġhe ights
ĠCoast al
Ġhydraul ic
Ġcl utch
Ġrece ivers
friend ly
ĠS ain
Y P
Ġfl aw
Ġbrick s
t able
ĠB ury
Ġover c
ĠAl v
ĠZ o
h ound
t ank
ou k
hen y
ĠJohannes burg
g uitar
Ġsix teenth
ĠStep hens
n umbered
ian c
Ġsur plus
ra x
Ġqual ifications
ĠNational ist
at ivity
Ġresemb ling
Ġrailroad s
Ġsanction ed
Ġ179 7
Ġphilanthrop ist
government al
Ġmemoir s
Ġcho oses
Ġam ass
ĠE MI
Ġthir teenth
Ġnational s
Ġox ide
V E
Ġbutt ons
ot illa
Ġadapt ations
Ġadministr ators
Ġconclud e
Ġdead line
ĠLand ing
ĠRap id
Ġslam med
Ġportray ing
ĠD R
ĠHarri et
Ġrepl ica
Ġdisapp ro
appropri ate
Ġpost ers
ĠSav annah
ĠTerrit orial
ĠPÃ© rez
Ġl apt
Ġcurrent s
f light
sk ins
ĠHer c
Ġjust ified
ĠG ros
iy ah
Ġwarm ing
Ġunexpected ly
Ġ11 4
ĠS ens
ĠBrother hood
ĠC oc
ĠH es
ĠWell es
Ġw al
orig inally
ĠTor ah
ĠF urn
Ġcapt ivity
Ġembr aced
Ġundert ake
Ġanaly zed
ĠW emb
rank ed
p ike
ĠH ogan
Ġ u
Ġt unes
Ġinc ur
ĠNorth ampton
Ġm ound
Ġapprent ices
ĠMon ster
Ġredes igned
Ġsh ark
Ġr h
Ġfather s
ĠF ors
og ne
ux e
Ġmerc y
j ani
Ġaddition ally
Ġhun ters
st aff
Ġrib bon
Ġcook ed
opp osed
ĠLiving ston
ĠTob y
ost a
Ġv arsity
Ġtext ure
Pr ince
inos aur
ow een
Ġwhere in
enn es
f alls
ĠTr uman
aj o
Ġspecial ised
cha ft
ak an
ĠV es
im us
D ou
ib e
19 40
Ġenjoy s
ĠVal le
ĠItal ians
Ġle ak
ast rous
Ġde gradation
as co
Ġambul ance
Ġsc ram
Ġp p
Ġsur ge
Ġconcess ion
ĠD Ã¼
Ġem ission
ĠN igel
Ġdecre asing
Ġg own
Ġprob able
Ġgrad ual
Ġb olt
ĠP ok
ĠC ron
Ġsuperv isor
ĠS ieg
ah on
Ġappro ve
Ġtrou t
Ġun av
ĠBur mese
ĠArist ot
Ġneg lig
Ġtuber culosis
ĠCy pri
Ġafore mentioned
Ġse ize
Ġdiffer ing
Ġresp ir
ĠWe iss
ĠJournal ism
urg ery
ĠCaucas us
ĠLe h
Ġcard iac
ĠBudd y
Ġunder gone
Ġj umps
ĠCongress man
Ġple as
ĠH itch
ĠCon tr
Ġbureauc r
ess e
Ġearn ings
Ï ħ
Ġdis rupt
Ġaw aken
ĠEisenh ower
oll ah
ĠA val
ĠB irds
D ream
Ġin active
ĠI GN
Ġretros pective
ĠVol leyball
Ġdenomin ations
AP TER
Ġp ays
ie ves
ĠMart y
Ġsn akes
Ġg igg
Ġfoc al
Ġpun ished
Ġjurisd ictions
m ount
ur rection
ol son
l io
Ġplay ground
Ġcop ied
ull s
Ġb red
Ġd un
ĠBeaut iful
ĠVaugh an
st y
Ġscholars hips
ĠBy rd
Ġsubscrib ers
con f
U A
ies el
Ġclass ics
off ic
ocr atic
an us
ĠAtl Ã©tico
Ġharm on
Ġlit igation
Ġspecial izes
Ġsurprising ly
ĠK es
F R
eng ers
Ġrevel ation
Ġmean while
ĠL ich
ĠFow ler
vol ume
Ġper cept
Ġreview ers
Ġcens orship
Ġnorth ward
Ġf Ã¼r
cl ed
Ġfoot steps
Ġpar ap
ĠR im
lighten ment
ĠN R
ĠK iel
ĠSc ript
ĠNet flix
tex ts
M id
ĠC oy
op hyll
Ġpol ym
Ġam en
ĠA CC
und erb
to o
ĠHol iday
Ġv i
Ġapprox imate
Ġsoft ball
ĠM ia
g ets
Ġprot oc
Ġlog ging
ĠOtt omans
Ġr er
Ġgen ius
Ġstandard ized
ĠBur lington
Ġroof s
Ġinequ ality
Ġup wards
P ierre
ÅĦ sk
m u
19 20
Ġfix tures
ĠGib bs
ĠCongreg ation
qu a
ex per
ĠR ider
Ġtele communications
Ġintercept ions
ĠD ante
Ġinvestig ators
ĠW ii
sy stem
B ob
ĠQu ad
Ġext racted
Ġlow land
ĠDh aka
Ġopt imal
Ġoverth row
Ġland ings
Ġexcav ation
ĠPione er
Ġoff set
Ġcamp ing
Ġchar m
ĠWhe el
Ġden ounced
Ġheir s
Ġmon astic
D a
y i
ĠJud ith
ru ff
Ġaccording ly
f aced
Ġalter ations
M or
Ġinc arcer
Ġche aper
Ġemp ower
ĠC M
Ġtrail ing
Ġexch anges
st ring
Ġpre view
ĠGe ological
Ù Ī
rib es
Ġang ular
ĠBox ing
Ġpromot ions
ĠZamb ia
C ons
ĠSer bs
Ġhered itary
Ġre branded
B P
Ġcomp osing
c ultural
ĠJess ie
Ġt ones
ĠT otten
ĠBus ch
Ġgrand parents
Ġrat ified
Ġexplos ives
ĠTow ards
Ġpres ently
ĠGl ory
ĠMart ÃŃ
oul t
L M
ĠT A
Ġsan ctions
ĠK ram
p ublished
omorph ic
ĠRot terdam
Ġbab ies
tt emberg
ĠAd j
ov al
Ä Ĺ
ĠHer oes
Ġcl iffs
ĠAlger ian
ĠD mit
me ga
Ä ĳ
ĠAm ar
Ġsign atures
Ġnarrow ed
W el
Ġj okes
b ear
ĠTreas urer
m illion
Ġw ors
l v
Ġapprent ice
196 3
Ġdign ity
ĠS ek
Ġepid emic
ĠH aus
ĠConc ern
ĠE gg
Ġmon asteries
load ing
ĠG entle
Ġdimin ished
Ġc ables
Ġex ecute
ha el
Ġop ener
Ġst unt
Ġsymp athy
Ġris en
Ġh ailed
Ġgr ateful
ip ing
ĠOr t
pect ives
hat t
te acher
Ġch ant
ĠMir ror
Ġt ertiary
Ġrock ets
ĠPr as
Î ²
ĠO dd
iet al
Ġb ir
âĢ ²
Ġcon clusions
ĠLag os
ĠJ ab
ĠBr an
Ġto es
A k
us z
Ġexp ans
M eg
p ical
Ġcollabor ations
gr aded
ĠPres idency
roscop y
Ġw olves
uff le
ib les
ĠTw ins
ĠMozamb ique
Ġobject ed
Ġmand ated
Ġinv ari
w ere
ĠHor ace
al on
Ġa rom
Ã¡ z
Ġju ice
Ġdesper ately
ĠC ic
Ġparticip ates
ĠPremi ership
ĠBrown e
ĠNat alie
ĠOff ensive
ĠRand all
ĠApp alach
olec ular
Ġmot iv
ĠB ills
É Ļ
Ġpharm aceutical
ley s
Ġmut ation
we ed
ĠWrit ten
Ġarch bishop
Ġadvert ised
Ġunp op
ĠSt ad
Ġvow els
Ġforeign ers
es ch
ĠD E
Ġdiscover ies
Ġcer amic
Ġinv ite
ĠHaw th
Ĩ Ĵ
ĠPl ans
Ġcat ast
ÃŃ k
aren cy
ĠE ly
Ġ17 00
Ġde ported
ons on
Ġbre eds
Ġoblig ation
Ġde ities
Ġtremend ous
ĠMerc er
inc k
Ġmotif s
Ġra ises
ĠÅ Į
Ġash ore
ĠN ab
ĠK uala
ĠWil ts
bet ween
Ġprinc es
Ġd ot
Ġaw ake
ĠW inners
ĠG Ã¼
ra ff
V S
Ġnight club
Ġproduct ivity
f if
ĠLuc ia
ĠLincoln shire
Ġincarn ation
ĠFl int
Ġmerg ing
Ï ī
ounc ing
W omen
her ical
mark ed
ĠDe er
til es
Ġpav ilion
ĠZur ich
met re
P a
Ġle ver
Ġall ocation
n ame
Ġwh ale
ak in
ool s
ĠEp ic
un ched
Ġres istant
eth oven
ĠInt ro
ĠY ar
ĠAm elia
ĠG ent
ĠR ang
ĠWemb ley
ĠSp ani
n ar
Ġmurder er
Ġfung us
ĠEconom y
Ġcreat ivity
Ġphr ases
ĠfaÃ§ ade
Ġcoc aine
Ġd anced
ĠDream s
ĠComb ined
ag us
ĠDav en
Ġr ang
Ġstock s
com mit
ĠArch ive
Ġarrest s
Ġmethod ology
Ġmarg ins
Ġturb ines
Ã¼r ttemberg
ĠIn st
Ġad miral
ĠColomb o
Ġab duct
od ont
Ġheavy weight
Ġd rowned
Ġl umin
Ġnum erical
Ġfore most
ĠDal ton
ay as
Ġ24 0
ĠKh or
ĠCas ino
ĠMack enzie
ĠM ai
man y
ĠB ant
Ġdis bel
Ġvalid ity
Ġfl ute
ival ent
Ġdefend ants
ĠRecord ings
pl er
Ġsem ester
ĠWh ich
ĠSuz uki
an se
Ġmet h
Ġdetail ing
Ġtrans gender
Ġmill ennium
air n
Ġdis astrous
w i
Ġac re
cro ft
Ġmonop oly
E ven
Ġpe asant
Ġcompar ative
Ġtro l
Ġcry stals
ĠRen Ã©
ĠW ords
ĠMon k
Âł .
Ġprop eller
Ġgraz ing
ĠKilk enny
F ire
ol er
Ġdenomin ation
ĠL us
Ġorn ament
ol ini
gest ion
es ome
kef eller
ĠZ hao
ev a
ĠSam antha
Ġsat irical
t ape
ĠO F
osl av
Ġdep uties
al ai
Ġrail s
Ġdiscip les
Ġe ternal
Ġrecip roc
ĠCh ow
ĠNag ar
Ġopen ings
ul atory
ĠL ob
Ġbr ushed
Ġcros sover
ĠH udd
Ġconfisc ated
Ġro wing
ĠHoff man
ĠNick el
Ġcru isers
y ang
Ġnew est
ĠMon mouth
Ġcast e
ĠE sk
h it
Ġtax ation
Ã¢l Ã¢
Ġconsult ation
Ġlast s
ĠCon way
ow ay
ĠAn ch
Ġplant ing
n h
ĠSt ream
ered ith
Ġcost ly
ĠCap t
Ġrest oring
its u
Ġill usion
Ġbl onde
Un iversity
Ġair plane
M ag
Ġsqu ares
ĠWe ap
ĠZÃ¼ rich
ĠH ipp
Ġin herent
pp en
W il
V ir
Ġrenew al
1 000
erg ies
v ich
Ġl an
ĠC aval
ĠL ump
Ġthreat ens
Ġvir gin
ĠSt a
ft w
ĠDirector ate
Ġsau ce
ich o
ĠTal bot
p ret
Ġd ictionary
ĠQu ick
s z
Ġeval uate
he a
ĠL iang
D in
in ement
Ġvoc ational
ĠT ram
Ġestablish ments
Ġspend s
Ġmark ers
ops is
ĠDem on
ĠO aks
Ġabd omen
L ord
20 19
ĠKa iser
Ġw inger
Ġsub group
196 2
d og
col ored
Ġsure ly
ĠW ash
ug ly
Sund ay
ĠH ilton
ĠAur ora
Ġspecial ists
Ġanticip ation
Ġb ug
ĠAss ess
Ġmean ings
ĠSh ot
Ê »
ĠG ear
Ġ12 2
Ġmet hyl
ĠX III
Ġob li
; "
Ġmy st
Ġarm ament
z ong
p ole
ĠA ve
Ġle aked
d ue
Ġin duction
ĠH ick
Ġinstit utes
ĠWake field
ĠQual ity
Ġap ology
Ġdam s
Ġb asket
ĠS ok
ĠR Ã©
aun ch
ĠL up
ĠNass au
Ġo mitted
V B
Ġc ope
Ġmoist ure
L ist
ĠDep ort
ĠArchae ological
Ġdram at
ĠM ish
ener y
Ġsevent eenth
Ġfin ances
Ġparam eter
us er
ĠW itt
Ġcoll oqu
ĠT ip
Ġmut tered
ĠRajas than
ĠV era
ind y
Ġsurf aced
Ġen vision
Ġroll s
ĠTal iban
Ġsupp ression
Ġexclud ing
Ġdwell ings
Ġchap lain
iz arre
Ġdisc s
ĠBar row
ĠSe ga
D isc
F ree
ĠP az
ĠCrom well
Ġbi ographer
Fr anc
ĠC ars
Ġ179 1
Ġgas ped
educ ational
ĠCH APTER
Ġpy ramid
On ly
ag raph
Ġcl ashes
Ġcl ips
Ġad s
ĠMal i
Ġabsor ption
ac ious
Ġsplit ting
ject ive
Ġdes erted
Ġcongreg ations
Ġun opposed
hold ing
Ġann ounce
Ġneg lected
Ġmonument al
ĠBohem ia
Ġcolor ful
Ġalco holic
Ġtreas urer
Ġcy ber
Ġconcept ion
Ġanaly ses
ĠBorn eo
ĠPav ilion
Ġb unch
Ġrem atch
ĠTuls a
at ti
ĠFrank ie
est o
il in
ĠB iblical
Ġstr at
Ġfig ur
ĠCD s
Ġfl avor
ĠK ip
Ġchem ist
ĠPle asant
" <
Ġkill ings
ĠBe er
ĠM BA
ĠSlov enian
Ġins ane
it imate
ĠL ester
Ġsimpl ified
Ġrelie ve
est own
Ġrepl ay
ĠGu est
ot ica
Ġcl ad
ut i
Ġst ain
rol ogy
Ġdismant led
ĠU b
ĠSt am
ĠD illon
if iable
ĠAf ro
het ics
ĠJ ade
og enesis
Ġillustr ation
Ġs ar
ep ort
Ġread ings
ĠAnt oine
Ġnames ake
Ġdoub ts
ĠCons ort
Ġsuper st
Ġintegr ate
) )
Ġsw ear
ĠRe formation
ĠIr vine
ĠJ ed
ĠRoc kefeller
Ġstrengthen ing
Ġcompass ion
A sh
es is
Ġchar ities
ĠRes istance
ĠH oy
Ġair lines
Ġur ge
196 1
in ely
ĠAl pine
ĠÃ ĩ
Ġhe els
Ġcent red
ĠNi agara
Ġb ubble
Ġ17 75
ĠHere ford
uk h
Ġt apes
ĠRest aur
C I
Ġ11 7
19 39
J ul
Ġdyn am
A ut
Ġl amps
Ġincorpor ation
ew orthy
ĠRock s
ith m
ĠSh iv
Ġtut or
Ġeast ward
Ġpsych ologist
Ġun used
Ġnerv es
Ġpol es
Ġfib ers
Ġcl ans
stand ard
Ġsil ently
ĠMill ennium
ĠExt ra
Ġbe ans
ĠSp y
Ġsty led
ĠLik ewise
Ġconst ellation
Ġvarious ly
Ġafford able
ĠJ ourney
Ġrec alls
ĠBo one
ĠN K
ĠPur ple
n ell
ĠId ent
Ġkidn apping
ĠP D
ĠN ue
ĠAl s
ox ide
S pe
el man
Ġdistribut or
ĠInvest igation
on ut
or is
Ġcl er
c ourse
ĠCirc us
ĠPublic ations
ĠR ide
ĠTerr ace
? ",
M ore
K ar
ĠCanad ians
ĠProv ision
ftw affe
ĠK ah
. *
Ġdiss ent
ĠB enny
Âł in
ries thood
ĠSal am
ĠPlat form
Ġden otes
Ġp arl
Ġst rap
Ġdisc ourse
Ġscen ic
ĠRe venue
ĠS ustain
ĠKir by
Ġepit het
Ġsubstit uted
j ana
m ine
Ġsulf ur
Ġt ires
il and
ĠFre ud
Ch arl
Ġcig arette
M ost
Ġlyr ical
Î ¯
Dan iel
ĠCon cer
Ġs ack
ĠAc ad
B us
ot ics
Ġcirc ulated
Ġb ored
ĠMoh amed
Ġoverl ap
lif ting
G er
Ġintention ally
Ġm ans
ĠJ ude
Ġb ilingual
ĠWolf e
I mp
ĠY ong
Ġbotan ist
Ġbehavior al
il ight
ale igh
Ġnational ity
ĠV ine
s ervice
Ġqu ote
ĠBl ind
ĠStephan ie
Ġintellectual s
em ann
Ã³ r
od er
ĠBru ins
ĠCr im
organ ized
ĠGran ada
Ġbetray ed
Ġbalcon y
Ġdefin itive
ĠBul let
ub en
Ġdig est
Ġmerchand ise
ĠV ig
Ġign oring
Ġre nder
Ġforg ive
h ak
n ation
ĠAx is
ĠSand ra
Ġcoinc ided
Ġpr inter
ĠA in
Ġgene alog
ĠSp ot
Ġprohib ition
ĠVers ion
P et
ĠSig ma
ouri er
Ġo ch
ĠClif ton
ĠScholars hip
o za
Ġon ward
Ġav ant
sequ ent
ĠNathan iel
Ġv ivid
Ġmamm al
ĠMugh al
Ġtreat ies
ĠBax ter
eb urg
ĠImp act
C la
Ġ17 5
Ġinflu x
ĠAud io
Ġst ub
low er
Ġprov ing
ĠTradition ally
) <
ĠÅģ Ã³d
IN G
ĠA yr
ĠN ah
ĠMarx ist
Ġhapp ily
ĠN amed
Ġpir ate
Ġguerr illa
G en
a an
Ġmis under
Ġlik elihood
Ġhom estead
Ġh int
Ġcar ing
Ġundis closed
f ur
ĠE ck
Ġinspect or
Ġcustom ary
f illed
ĠD ex
Ġ 00
ĠMy r
ĠAut umn
ĠPep per
ol ulu
ad ors
Ġcomment ing
Ġliqu or
ĠMar quis
ic acy
ĠQu Ã©
Ġshel f
er get
Ġp ockets
Ġair borne
Ġneed ing
ĠL ives
Ġclim ax
ĠR ear
ĠInter active
Âł 3
Ġborn e
Ġver bs
Ġprol ifer
Ġnut rition
ub le
ĠSav oy
Ġf iling
Ġreal ism
ĠNorth umberland
ĠA very
ĠPart icip
b age
Ġsub set
Ġwer ew
ĠT ier
Ġbest owed
Ġsound ing
ĠX i
ĠRain bow
ĠE ighth
ĠT et
ĠN ell
om ac
ĠEr in
ĠSet tlement
ĠRic ardo
ĠStafford shire
Ġpron unciation
Ġelev ations
Ġcontribut ors
Ġbuild s
Ġpro be
ĠNetwork s
Ġsupport ive
Ġeduc ate
ĠT ale
het to
Ġfl ipped
ĠThere after
Ġout ward
ĠElect ions
ĠFact or
Ġbr ave
k ie
Ġp ept
M aster
H i
s ley
e ason
ans om
Ġl enses
Ġs ob
Ġconfess ion
ul g
ĠS abb
Ġunf inished
Ġindirect ly
ĠG ao
Ġal k
CO M
ĠD il
Ġtempor al
Ġcorrel ation
Ġsegreg ation
ady s
Ġsuggest ions
ĠBlack pool
Ġdes irable
Ġcomp elled
Ġperiod ic
Ġexceed ing
haw ks
Ġsp ill
Ġint ric
Ġarchae ology
ĠSchne ider
ĠRes ident
ĠBord eaux
ĠManufact uring
t ech
Ġsen ators
ĠWild erness
inc y
ĠObs erver
Ġpic nic
Ġeight y
Ġbesie ged
ĠRy der
Ġinaug uration
ĠBh ag
Ġcommit ting
Americ ans
Can ada
ĠC ouncill
ĠSmith sonian
ĠLaure l
Ġt iger
g ia
Ġhelp ful
arl ing
Ġpost graduate
Ġload s
min ent
ĠPa ula
Ġfr anc
ĠSene gal
Ġman ned
ĠMcC l
pat rick
as im
gr av
Ġcl ue
ĠB ound
ĠX IV
ham a
ĠThe ology
ĠT usc
uel a
idel berg
ĠM eredith
ĠP une
Ġdecre ases
ĠBe ethoven
t elling
Ġdepart ing
ĠÅģÃ³d Åº
ĠF ew
Ġshel ters
Ġhero ic
Ġcan opy
ĠPers ia
ĠV ari
K S
ĠW ise
Ġshe ar
Ġhist ories
ov sk
ĠH iggins
Ġflat ten
Cl ass
ĠCommission ers
Ġec ology
Ġf usc
Ġphyl ogen
g ars
it ations
Ġh ij
ĠAfric ans
ij k
ĠRoy als
Ġi OS
ĠT ad
ĠN HS
ĠY un
Ġcirc us
id as
ĠV ocal
ĠS ug
roscop ic
Ã¶ l
Ġconven ience
Ġpec uliar
ĠByr ne
ĠL lan
Ġmilit ants
EE E
Ġd uke
Ġsp iders
ĠNor ris
f o
ĠDart mouth
Ġdiss atisf
Ġecho ed
Ġs oprano
Ġmat urity
Ġdet on
os aur
ĠMad ame
Ġv ass
ĠZ immer
Ġsupply ing
ĠJ aw
Ġg az
ĠL oy
ĠE A
St op
ĠRed skins
ĠBhut an
r ace
ĠPract ice
Ð¾Ð ²
L T
ĠGab ri
t aker
ĠTrib unal
Ġbarrel s
Ġlog istics
g ard
l ag
ĠN Z
Ġrad ial
ĠN im
orn o
ric ting
Ġdis l
Ġneighb ours
Ġweek day
Ġaccomplish ments
ĠCh ung
ĠHor izon
ĠH T
Ġsurviv or
Ġsuff ers
ĠWild cats
ĠD ial
est rian
Ġsn out
R aw
Ġob ey
b ee
b ol
lin er
ĠMac au
Ġflex ibility
Ġpoison ing
Ġrel inqu
Ġhur ling
ĠZ ap
Ġharm ful
ĠLot us
Ġbrand ing
ĠP hel
Ġexerc ised
Ġwhit ish
ĠDoming o
Ġp unt
ĠW arrior
G re
Ġl ied
ĠProduct s
ĠHunting ton
M s
Ġch ased
Ġconstit utes
Ġtable t
ĠTerrit ories
Ġconce aled
ĠPl atinum
c us
ĠT ipper
ĠWhe ther
ĠTob ago
uts ch
ru z
Ġflour ished
ĠY us
Ġins ists
pt ions
Ġhard core
Ġutil izing
Ġfold ing
ĠH ector
Ġrob ots
Ġdr iv
Ġtim eline
Ġb ureau
ĠW o
Ġen erget
Ġplat oon
ĠCret aceous
ĠI ch
ĠR ach
Ġrestrict ion
ĠEn cycl
Ġconcur rent
Ġpropri etary
ĠH anna
em aker
ann ers
ĠRey es
eg u
Ġimmun ity
Ġhost ilities
y ar
s ens
second ary
ĠHus sein
Ġamend ments
ogene ous
ĠW ent
Ġv eto
Ġfl ats
Ġcr us
Ġdig ging
ĠSiber ia
ĠMad h
Ġvis ibility
it one
f its
Ġle x
ĠF lynn
Ġpol o
ĠHind us
Ġtor que
Ġaccess ion
ĠEver ett
ĠMar vin
Ġn ests
ĠP up
osy nt
ĠSal on
direct ed
ĠAnim ation
V an
Ġport rays
ĠHard ing
Ġyield ed
r ans
sm all
Ġsail or
ĠTex t
Ġrespir atory
C oll
ĠMoroc can
Ġgr asp
ĠPh antom
T im
ĠBrem en
ĠCop per
Ġjust ify
ĠEv ents
odynam ic
ĠAle c
r ath
vent ional
Ġprov es
ĠParalymp ic
ign on
ĠPerman ent
ow ice
ĠSh ould
Ġmar ijuana
ĠHess e
Ġinterf ere
Ġs way
ass ium
Ġovert urned
S oviet
ĠN olan
Ġcon ject
Ġunpop ular
un ate
ĠIm ag
ĠMil o
ĠLev y
Ġfulf illed
id ine
3 50
Ġbar red
Ġcous ins
uzz le
ĠWilts hire
Ġengine ered
Ġderiv atives
ĠIs mail
CA F
Ġflank ed
w agen
Ġad orn
Ġreass igned
ĠEd mond
ĠKem p
Ġcl ash
ĠTim ber
ĠBrand enburg
rop ic
Ġr idges
Ġsab ot
ĠDipl oma
Ġa rous
ĠS N
oll en
ĠEnter prises
Ġgr amm
Ġentr usted
Ġtatto o
ĠUS D
ĠL um
ĠAb by
ĠMed ina
ĠRod ney
ĠH uff
a a
Ġbro ker
Ġto re
ur ate
Ġwarn ings
ĠPerson al
ild e
ĠGovern ors
Ġadv ancement
ĠPres ervation
195 8
ĠBren nan
ip es
g ue
Ġgu ild
Ġdisg ust
Ġany body
Ġred und
ĠS aul
Ġwork place
Ġsw itches
Ġintens ified
ĠTrib e
ĠCob b
p ublic
ĠT us
Ġattract s
ĠI B
ĠHob art
Ġrefr iger
omot ive
ĠB P
Ġcan e
Ġvoc abulary
Ġmoder ately
Ġimportant ly
Ġrecogn izing
ĠAl ph
Ġcomp artment
ĠGod s
Ġspawn ed
M u
ĠL amp
Ġguard ian
ĠBak u
Ġstr ained
Ġsl ated
Ġo mn
Ġg room
Ġcass ette
Ġreinst ated
et or
S ar
H arry
Ġs oup
Ġagg ression
Ġilleg ally
ĠP ig
t rick
ĠR iding
enc hed
Ġimport s
ight on
og ie
Ġqu otes
Ġeyeb rows
Ġ( âĢľ
ĠMc Int
ĠGw yn
in ton
ĠUr du
is al
Ġfavour able
enth al
r ude
eb u
Ġterror ists
Ġapp end
ĠFort une
ĠMcM ahon
Ġc ites
Ġinev itable
ob iles
Ġ Âł
Ġf riction
Ġun iqu
ĠDepend ing
F orm
ĠS onny
end ra
Ġsk irm
Ġm ould
ĠWork shop
ĠAn ita
alf ord
Ġdep ressed
oss a
K a
ink a
Ġz ool
195 7
Ġtherap e
J im
Ġem inent
ĠAir borne
ĠTom orrow
Ind ia
ĠVik tor
ĠM aking
ĠK ass
T ri
y th
ĠRup ert
ĠMold ova
ĠH ubb
Ġnot or
el ig
ge ois
inc hes
Ġneed le
Ġpet als
ĠLaure nce
ĠB uzz
ĠO val
aus s
Ġfisher men
ĠW on
oul os
ĠMed ieval
à ²
Ġo ught
Ġbrow ser
Ġide ological
Ġt idal
Ġenc ycl
os c
Ñ Į
ĠR ig
km en
d ependent
ĠF eng
Ġgren ade
Ġdescend ing
ĠMcCart ney
Ġrecogn ise
Ġnorm s
Ġhum our
ĠLaw son
Ġviolin ist
ĠRac ecourse
ĠM aw
Ġbusiness men
Ġp anc
Ġconsult ed
oot ed
Ġbacter ial
ĠD ir
Ġair play
; "|
ĠTs ar
ĠO swald
K al
ĠC arrie
Ġkiss es
ĠBl o
ac cept
Ġrout ing
Ġpoly g
ĠF asc
Ġgen ocide
oon er
Ġdigit ally
Ġshot gun
un ner
ĠLif etime
Ã µ
Ġpay load
ĠSwim ming
ĠJama ican
Ġstrongh old
ĠK ost
i ating
R et
Ġm i
ĠR FC
R a
ĠBe e
ie le
Ġchromos ome
p ill
ĠS outheastern
ĠW ide
ful ness
ĠTotten ham
Ġreorgan ization
re viewed
is ors
Ġresur rect
Ġcast les
Ġarg uably
Ġcon texts
st ri
Ġsimpl er
ĠKy oto
Ġad vers
to le
Ġout c
ag han
ĠCh att
Ġbl u
Ġelig ibility
Ġas hes
Ġrequest ing
Ġlab elled
N Z
F ran
ĠSh ock
Ġdisc rete
Ġflo at
beat en
c ards
Ð ¼
F T
Ġst icks
ĠSub sequent
Ġfree zing
Ġconfess ed
Ġp agan
Ġpot ent
ĠCook e
ĠAp ache
ism atic
Ġconvinc es
Ġrep uted
ĠGe ographic
Ġcyl ind
b ig
ĠSat an
Ġset up
Ġglac ier
Ġrel ics
oll ar
Ġmount ing
Ġinvestig ative
Ġple a
ĠSpr int
ĠMcG ill
hyth ms
Ġd ividing
Ġse aw
ĠRom ance
bl o
Ġcalc ulations
ph ants
Ġcre m
Ġber th
S u
ĠW ak
ĠBol iv
ĠFar mer
ĠPors che
Sc ott
ĠE instein
Ġo st
iv ist
Ġa ide
ĠLow ell
ĠCustom s
ĠB aj
zz o
ĠEver ton
ĠCr ane
Ġdr illing
Ġ12 3
Mart in
Ġpath ways
Ġswe eping
Ġfor k
and r
ĠD M
do ctor
olph in
[...]
