{"<s>": 0, "<pad>": 1, "</s>": 2, "<unk>": 3, "<mask>": 4, "!": 5, "\"": 6, "#": 7, "$": 8, "%": 9, "&": 10, "'": 11, "(": 12, ")": 13, "*": 14, "+": 15, ",": 16, "-": 17, ".": 18, "/": 19, "0": 20, "1": 21, "2": 22, "3": 23, "4": 24, "5": 25, "6": 26, "7": 27, "8": 28, "9": 29, ":": 30, ";": 31, "<": 32, "=": 33, ">": 34, "?": 35, "@": 36, "A": 37, "B": 38, "C": 39, "D": 40, "E": 41, "F": 42, "G": 43, "H": 44, "I": 45, "J": 46, "K": 47, "L": 48, "M": 49, "N": 50, "O": 51, "P": 52, "Q": 53, "R": 54, "S": 55, "T": 56, "U": 57, "V": 58, "W": 59, "X": 60, "Y": 61, "Z": 62, "[": 63, "\\": 64, "]": 65, "^": 66, "_": 67, "`": 68, "a": 69, "b": 70, "c": 71, "d": 72, "e": 73, "f": 74, "g": 75, "h": 76, "i": 77, "j": 78, "k": 79, "l": 80, "m": 81, "n": 82, "o": 83, "p": 84, "q": 85, "r": 86, "s": 87, "t": 88, "u": 89, "v": 90, "w": 91, "x": 92, "y": 93, "z": 94, "{": 95, "|": 96, "}": 97, "~": 98, "¡": 99, "¢": 100, "£": 101, "¤": 102, "¥": 103, "¦": 104, "§": 105, "¨": 106, "©": 107, "ª": 108, "«": 109, "¬": 110, "®": 111, "¯": 112, "°": 113, "±": 114, "²": 115, "³": 116, "´": 117, "µ": 118, "¶": 119, "·": 120, "¸": 121, "¹": 122, "º": 123, "»": 124, "¼": 125, "½": 126, "¾": 127, "¿": 128, "À": 129, "Á": 130, "Â": 131, "Ã": 132, "Ä": 133, "Å": 134, "Æ": 135, "Ç": 136, "È": 137, "É": 138, "Ê": 139, "Ë": 140, "Ì": 141, "Í": 142, "Î": 143, "Ï": 144, "Ð": 145, "Ñ": 146, "Ò": 147, "Ó": 148, "Ô": 149, "Õ": 150, "Ö": 151, "×": 152, "Ø": 153, "Ù": 154, "Ú": 155, "Û": 156, "Ü": 157, "Ý": 158, "Þ": 159, "ß": 160, "à": 161, "á": 162, "â": 163, "ã": 164, "ä": 165, "å": 166, "æ": 167, "ç": 168, "è": 169, "é": 170, "ê": 171, "ë": 172, "ì": 173, "í": 174, "î": 175, "ï": 176, "ð": 177, "ñ": 178, "ò": 179, "ó": 180, "ô": 181, "õ": 182, "ö": 183, "÷": 184, "ø": 185, "ù": 186, "ú": 187, "û": 188, "ü": 189, "ý": 190, "þ": 191, "ÿ": 192, "Ā": 193, "ā": 194, "Ă": 195, "ă": 196, "Ą": 197, "ą": 198, "Ć": 199, "ć": 200, "Ĉ": 201, "ĉ": 202, "Ċ": 203, "ċ": 204, "Č": 205, "č": 206, "Ď": 207, "ď": 208, "Đ": 209, "đ": 210, "Ē": 211, "ē": 212, "Ĕ": 213, "ĕ": 214, "Ė": 215, "ė": 216, "Ę": 217, "ę": 218, "Ě": 219, "ě": 220, "Ĝ": 221, "ĝ": 222, "Ğ": 223, "ğ": 224, "Ġ": 225, "ġ": 226, "Ģ": 227, "ģ": 228, "Ĥ": 229, "ĥ": 230, "Ħ": 231, "ħ": 232, "Ĩ": 233, "ĩ": 234, "Ī": 235, "ī": 236, "Ĭ": 237, "ĭ": 238, "Į": 239, "į": 240, "İ": 241, "ı": 242, "Ĳ": 243, "ĳ": 244, "Ĵ": 245, "ĵ": 246, "Ķ": 247, "ķ": 248, "ĸ": 249, "Ĺ": 250, "ĺ": 251, "Ļ": 252, "ļ": 253, "Ľ": 254, "ľ": 255, "Ŀ": 256, "ŀ": 257, "Ł": 258, "ł": 259, "Ń": 260, "Ġd": 261, "Ã©": 262, "es": 263, "Ġl": 264, "en": 265, "on": 266, "Ġp": 267, "Ġde": 268, "Ġ,": 269, "an": 270, "Ġc": 271, "Ġs": 272, "re": 273, "ti": 274, "Ġ.": 275, "Ġa": 276, "er": 277, "is": 278, "ou": 279, "qu": 280, "in": 281, "ent": 282, "ar": 283, "et": 284, "Ġla": 285, "le": 286, "it": 287, "Ġm": 288, "un": 289, "or": 290, "ur": 291, "Ġet": 292, "Ġle": 293, "te": 294, "Ġf": 295, "ĠÃ": 296, "tion": 297, "om": 298, "il": 299, "Ġt": 300, "Ġen": 301, "Ã¨": 302, "ĠÃł": 303, "ra": 304, "que": 305, "Ġdes": 306, "Ġ\"": 307, "rÃ©": 308, "Ġun": 309, "Ġn": 310, "us": 311, "al": 312, "ment": 313, "Ġles": 314, "est": 315, "ant": 316, "el": 317, "our": 318, "ri": 319, "Ġ-": 320, "ro": 321, "Ġpar": 322, "Ġdu": 323, "Ġv": 324, "ĠÃ©": 325, "ans": 326, "ont": 327, "au": 328, "ce": 329, "Ġau": 330, "Ġqu": 331, "me": 332, "ie": 333, "Ġest": 334, "si": 335, "Ġ1": 336, "ation": 337, "ch": 338, "as": 339, "res": 340, "ol": 341, "ĠdÃ©": 342, "ne": 343, "at": 344, "Ġcom": 345, "Ġ)": 346, "Ġb": 347, "Ġ(": 348, "Ġg": 349, "ve": 350, "Ã©e": 351, "se": 352, "ci": 353, "ĠC": 354, "ai": 355, "ag": 356, "Ġre": 357, "Ġcon": 358, "Ġdans": 359, "de": 360, "âĢ": 361, "Ġpl": 362, "Ġune": 363, "tÃ©": 364, "ais": 365, "mp": 366, "ĠS": 367, "li": 368, "âĢĻ": 369, "ĠrÃ©": 370, "ĠM": 371, "Ġse": 372, "ĠÂ": 373, "Ġpour": 374, "oi": 375, "ĠP": 376, "Ġin": 377, "ain": 378, "Ġqui": 379, "ran": 380, "ait": 381, "Ġque": 382, "Ġpro": 383, "ul": 384, "Ġch": 385, "ĠB": 386, "di": 387, "ĠL": 388, "Ġe": 389, "ers": 390, "Ġsur": 391, "ale": 392, "itÃ©": 393, "les": 394, "os": 395, "pp": 396, "ac": 397, "ux": 398, "Ġj": 399, "ab": 400, "ut": 401, "Ġ19": 402, "Ġplus": 403, "elle": 404, "ĠA": 405, "ff": 406, "Ã¨re": 407, "Ġr": 408, "tre": 409, "am": 410, "Ġ2": 411, "Ġh": 412, "ouv": 413, "tu": 414, "urs": 415, "Ġil": 416, "Le": 417, "end": 418, "Ġsu": 419, "Ġ:": 420, "Ã¨s": 421, "ĠR": 422, "ques": 423, "Ãª": 424, "ort": 425, "Ġo": 426, "ig": 427, "ĠF": 428, "ĠG": 429, "Ã©s": 430, "Ġson": 431, "mi": 432, "Ġdi": 433, "ot": 434, "vec": 435, "vi": 436, "une": 437, "Ġou": 438, "Ã©es": 439, "Ġsont": 440, "ist": 441, "ĠT": 442, "aire": 443, "ille": 444, "Ġavec": 445, "ois": 446, "op": 447, "Ġan": 448, "ue": 449, "ique": 450, "La": 451, "og": 452, "ite": 453, "ĠD": 454, "ĠÂ«": 455, "En": 456, "ons": 457, "ic": 458, "ui": 459, "ge": 460, "ĠÂ»": 461, "onn": 462, "Ġ20": 463, "Il": 464, "ction": 465, "Ã©ri": 466, "Ġpe": 467, "ĠprÃ©": 468, "age": 469, "Ġcomm": 470, "Ġex": 471, "pr": 472, "Ġpas": 473, "Ġtr": 474, "Ġpr": 475, "Ã©n": 476, "ine": 477, "ces": 478, "pe": 479, "ous": 480, "ĠJ": 481, "st": 482, "Ġce": 483, "and": 484, "ĠN": 485, "uis": 486, "aux": 487, "Ġparti": 488, "Ġsa": 489, "ter": 490, "Ġnom": 491, "Les": 492, "ors": 493, "ette": 494, "mb": 495, "ĠÃ©t": 496, "Ã©ra": 497, "Ġra": 498, "entre": 499, "ir": 500, "ĠH": 501, "Ã§": 502, "ure": 503, "tique": 504, "oc": 505, "che": 506, "Ġcomp": 507, "Ġal": 508, "ens": 509, "ert": 510, "Ġfor": 511, "ĠV": 512, "ap": 513, "iv": 514, "ord": 515, "ence": 516, "Ġtra": 517, "im": 518, "Ġne": 519, "Ġcomme": 520, "Ġmo": 521, "Ġav": 522, "ill": 523, "Ã´": 524, "Ã©t": 525, "Ġaux": 526, "ond": 527, "ion": 528, "ph": 529, "ub": 530, "um": 531, "ad": 532, "remi": 533, "ise": 534, "Ġdeux": 535, "Ġac": 536, "ance": 537, "Ġte": 538, "Ġcont": 539, "bre": 540, "ay": 541, "Ã©r": 542, "tes": 543, "mes": 544, "imp": 545, "Ġmais": 546, "Ġpremi": 547, "Ġar": 548, "ati": 549, "Ġses": 550, "du": 551, "ard": 552, "oire": 553, "Ġtou": 554, "ins": 555, "Ġapp": 556, "ations": 557, "oir": 558, "ien": 559, "ĠCh": 560, "sion": 561, "ni": 562, "lle": 563, "tres": 564, "ru": 565, "Ġentre": 566, "lÃ©": 567, "sent": 568, "av": 569, "erre": 570, "ĠÃ©tÃ©": 571, "tin": 572, "Ã¢": 573, "teur": 574, "erm": 575, "ct": 576, "alement": 577, "Ġcons": 578, "rit": 579, "ants": 580, "ace": 581, "par": 582, "lis": 583, "oit": 584, "ĠdÃ©c": 585, "Ãªme": 586, "Ġfait": 587, "Ã®": 588, "ments": 589, "ĠFran": 590, "Ġmar": 591, "ĠI": 592, "prÃ¨s": 593, "ours": 594, "Ġdis": 595, "Ã©c": 596, "id": 597, "ĠE": 598, "aires": 599, "Ã©g": 600, "ang": 601, "Ġ18": 602, "Ġcette": 603, "ouve": 604, "Ġgran": 605, "cip": 606, "Ġ200": 607, "Ã¨me": 608, "ĠmÃªme": 609, "Ġfin": 610, "tif": 611, "Ġann": 612, "Ġst": 613, "iste": 614, "ture": 615, "Ġont": 616, "Ġcar": 617, "nes": 618, "ex": 619, "aine": 620, "Ã©d": 621, "rois": 622, "Ã©m": 623, "oci": 624, "Ġ201": 625, "oy": 626, "ob": 627, "ĠK": 628, "able": 629, "ĠÃ©c": 630, "Ġmon": 631, "insi": 632, "ĠrÃ©g": 633, "int": 634, "Ġfran": 635, "Ġter": 636, "ussi": 637, "aient": 638, "po": 639, "Ġdont": 640, "ron": 641, "Ġser": 642, "ĠÃ©g": 643, "ib": 644, "Ġlui": 645, "Ġimp": 646, "tions": 647, "olog": 648, "ante": 649, "Ġleur": 650, "elles": 651, "ales": 652, "uti": 653, "rou": 654, "Ġsous": 655, "Ġnombre": 656, "Ġ;": 657, "Ġcl": 658, "sid": 659, "ubli": 660, "ss": 661, "ass": 662, "Ã¨res": 663, "all": 664, "Ġes": 665, "co": 666, "aint": 667, "enne": 668, "Ġ%": 669, "ĠÃª": 670, "Ġaussi": 671, "ĠW": 672, "ven": 673, "eur": 674, "Un": 675, "ing": 676, "Ġpo": 677, "ec": 678, "Ã§ais": 679, "Ġor": 680, "ĠÃªtre": 681, "Ãī": 682, "cu": 683, "orm": 684, "Ġat": 685, "ĠgÃ©n": 686, "Ġsi": 687, "alis": 688, "ate": 689, "Ġelle": 690, "Ġpuis": 691, "ĠMar": 692, "Ġro": 693, "endant": 694, "ong": 695, "Ġpeu": 696, "oli": 697, "Ġalors": 698, "des": 699, "Ġainsi": 700, "Ġpeut": 701, "Ġdiff": 702, "tat": 703, "Ġfil": 704, "emp": 705, "Ġinter": 706, "ĠO": 707, "onne": 708, "lement": 709, "Ãł": 710, "ĠFrance": 711, "Ã¹": 712, "ouver": 713, "Ġprin": 714, "ains": 715, "Ġsy": 716, "Ġcommun": 717, "fin": 718, "itu": 719, "ĠfranÃ§ais": 720, "ici": 721, "Ġti": 722, "Ġph": 723, "iques": 724, "titu": 725, "ĠÃ©galement": 726, "Ġpos": 727, "Ġville": 728, "min": 729, "Ġcol": 730, "puis": 731, "Ġces": 732, "ĠÃī": 733, "onc": 734, "Ġrec": 735, "Ġmil": 736, "Ġad": 737, "Ġperm": 738, "itÃ©s": 739, "Ġtrav": 740, "ĠoÃ¹": 741, "amp": 742, "Ġ3": 743, "Ġche": 744, "Ġy": 745, "ieu": 746, "Ġma": 747, "Ġjus": 748, "utilis": 749, "Ġob": 750, "raph": 751, "Ġpers": 752, "ier": 753, "tement": 754, "ays": 755, "Ġrep": 756, "Ġlors": 757, "Ġth": 758, "aut": 759, "Ġfut": 760, "use": 761, "ĠgÃ©nÃ©ra": 762, "Ġtrois": 763, "ĠPar": 764, "Ġres": 765, "Ce": 766, "ten": 767, "Ġtemp": 768, "ĠcrÃ©": 769, "jet": 770, "ĠÃ©tait": 771, "nement": 772, "omm": 773, "oup": 774, "ser": 775, "vent": 776, "Ġcommune": 777, "Ġform": 778, "Ġam": 779, "tiv": 780, "enti": 781, "Ġprop": 782, "Ġ199": 783, "ieurs": 784, "Åĵ": 785, "ĠaprÃ¨s": 786, "Ġexp": 787, "Ġpubli": 788, "ourn": 789, "De": 790, "ĠtrÃ¨s": 791, "lu": 792, "Ġnot": 793, "tiques": 794, "Ã©tÃ©": 795, "ari": 796, "ta": 797, "Ġtrans": 798, "its": 799, "Ġon": 800, "Ġpartie": 801, "Ġacc": 802, "Ġje": 803, "Ġder": 804, "ages": 805, "Ġsec": 806, "ĠdÃ©b": 807, "riv": 808, "opp": 809, "ĠSaint": 810, "rent": 811, "ire": 812, "th": 813, "eau": 814, "Ġsp": 815, "ts": 816, "lÃ¨": 817, "Ġcontre": 818, "Ã©di": 819, "Ġsou": 820, "ĠdÃ©p": 821, "Ġcel": 822, "ues": 823, "Ġeff": 824, "ÃĢ": 825, "Dans": 826, "gl": 827, "agne": 828, "cien": 829, "anis": 830, "ents": 831, "ann": 832, "tis": 833, "Ġaut": 834, "iss": 835, "elon": 836, "Ã©p": 837, "ĠLe": 838, "lan": 839, "Ġpremier": 840, "ĠannÃ©es": 841, "Ġpays": 842, "Ã©rÃ©": 843, "Ġcert": 844, "Ġconf": 845, "ĠLa": 846, "ĠAn": 847, "Ġren": 848, "Ġsoci": 849, "Ġconc": 850, "app": 851, "tra": 852, "ograph": 853, "Elle": 854, "Ġcor": 855, "Ġpermet": 856, "are": 857, "ures": 858, "ble": 859, "agn": 860, "olu": 861, "aÃ®": 862, "Ġutilis": 863, "Ġgu": 864, "opul": 865, "cul": 866, "Ġdepuis": 867, "Ġpoli": 868, "Ġconn": 869, "Ġplusieurs": 870, "vel": 871, "ode": 872, "amment": 873, "Ġconst": 874, "orte": 875, "Ġprodu": 876, "ign": 877, "Ġdire": 878, "Ġderni": 879, "Ġvers": 880, "Ġme": 881, "Ġab": 882, "Ġprincip": 883, "ĠJe": 884, "Ġman": 885, "ver": 886, "vis": 887, "Ġ4": 888, "Ġgrou": 889, "Au": 890, "aines": 891, "alitÃ©": 892, "qui": 893, "Ġci": 894, "Ġsitu": 895, "Ġtout": 896, "ĠpremiÃ¨re": 897, "ente": 898, "Ġpopul": 899, "urop": 900, "Ġcour": 901, "Ġ/": 902, "semb": 903, "Ġjusqu": 904, "Ġvi": 905, "Ġbas": 906, "ĠÃ©le": 907, "Ġsans": 908, "Ġgrand": 909, "Ã¯": 910, "Ġpersonn": 911, "Ġass": 912, "ines": 913, "rib": 914, "cep": 915, "ris": 916, "Ġ198": 917, "Ã©v": 918, "ges": 919, "Ġ17": 920, "ori": 921, "gn": 922, "cher": 923, "illes": 924, "ves": 925, "rie": 926, "ath": 927, "od": 928, "Cette": 929, "ites": 930, "Ġcap": 931, "ole": 932, "Ġnotamment": 933, "Ġans": 934, "ĠprÃ©sent": 935, "tionn": 936, "ches": 937, "ctions": 938, "tr": 939, "teurs": 940, "Ġ'": 941, "ĠnÃ©": 942, "Ġ5": 943, "Ġavant": 944, "Ġmus": 945, "igne": 946, "Ġmin": 947, "Ġnation": 948, "ĠÃ©v": 949, "out": 950, "Ġper": 951, "ud": 952, "vient": 953, "Ã¨ne": 954, "if": 955, "velopp": 956, "Ġlong": 957, "Ġnouv": 958, "ĠdiffÃ©r": 959, "ern": 960, "core": 961, "aille": 962, "Ġcent": 963, "ieux": 964, "antes": 965, "Ġbien": 966, "ellement": 967, "cl": 968, "man": 969, "ĠTh": 970, "Ġfon": 971, "rÃ©sent": 972, "ĠrÃ©gion": 973, "Ġ197": 974, "yp": 975, "00": 976, "ind": 977, "Ġdonn": 978, "omp": 979, "ĠrÃ©p": 980, "ĠdÃ©velopp": 981, "onom": 982, "oul": 983, "Ã©rie": 984, "form": 985, "tÃ©s": 986, "Ġfois": 987, "ature": 988, "Ġli": 989, "Ġco": 990, "Ġcul": 991, "istoire": 992, "em": 993, "Ã»": 994, "ĠdÃ©par": 995, "Ġmont": 996, "Ġautres": 997, "Ġquel": 998, "Ġnouve": 999, "rer": 1000, "cc": 1001, "Ġsuiv": 1002, "ĠâĢ": 1003, "Ġimport": 1004, "Ġcin": 1005, "Ġsoit": 1006, "Ġnon": 1007, "erg": 1008, "ich": 1009, "ouvent": 1010, "ĠreprÃ©sent": 1011, "sition": 1012, "endre": 1013, "Ġencore": 1014, "lo": 1015, "els": 1016, "Ġtemps": 1017, "Ġoff": 1018, "uses": 1019, "Ġsc": 1020, "az": 1021, "istes": 1022, "Ġrel": 1023, "tive": 1024, "omb": 1025, "Ġpouv": 1026, "Ġjou": 1027, "Ġfond": 1028, "tats": 1029, "Ġdonc": 1030, "Ġprof": 1031, "Ġleurs": 1032, "ĠAl": 1033, "Ġpart": 1034, "sement": 1035, "Ġmort": 1036, "Ġcas": 1037, "fois": 1038, "lig": 1039, "Ġgroupe": 1040, "enn": 1041, "ies": 1042, "Ġdro": 1043, "Ġent": 1044, "Ġni": 1045, "uv": 1046, "one": 1047, "ĠJean": 1048, "fic": 1049, "Ġri": 1050, "ĠParis": 1051, "ĠGu": 1052, "iÃ¨me": 1053, "Ġmod": 1054, "ĠdÃ©m": 1055, "omme": 1056, "ateur": 1057, "Par": 1058, "vers": 1059, "Ġ196": 1060, "ĠmÃ©t": 1061, "Ġdev": 1062, "Ġsol": 1063, "Ġmoins": 1064, "Ġfaire": 1065, "Ġju": 1066, "anc": 1067, "oph": 1068, "ologie": 1069, "mbre": 1070, "On": 1071, "Ãªte": 1072, "An": 1073, "Ġ6": 1074, "ganis": 1075, "Ġfa": 1076, "ler": 1077, "pi": 1078, "ls": 1079, "Ġrapp": 1080, "Ġgrande": 1081, "Une": 1082, "Ġfilm": 1083, "ĠrÃ©s": 1084, "Ġquat": 1085, "Ġdom": 1086, "Ġpeti": 1087, "Ġrom": 1088, "Ġfam": 1089, "sance": 1090, "Ġplace": 1091, "Ġport": 1092, "ĠdÃ©f": 1093, "ose": 1094, "oute": 1095, "autres": 1096, "Ġremp": 1097, "rim": 1098, "Ġconstru": 1099, "Ã©ric": 1100, "ĠdÃ©but": 1101, "Ġemp": 1102, "Ġins": 1103, "Ġesp": 1104, "Ġtous": 1105, "Ġpartir": 1106, "Ġappar": 1107, "ĠÃ©p": 1108, "Ġvie": 1109, "Ġvis": 1110, "Ġavait": 1111, "Ġconstitu": 1112, "chÃ©": 1113, "Ġaff": 1114, "Ġz": 1115, "ĠY": 1116, "ivers": 1117, "ats": 1118, "ĠpÃ©ri": 1119, "Ġsuite": 1120, "Ã´le": 1121, "Ġterrit": 1122, "ili": 1123, "rop": 1124, "ade": 1125, "Ġmonde": 1126, "Ġparticu": 1127, "Ġappel": 1128, "Ġconsid": 1129, "Ġexemp": 1130, "ĠprÃ©sid": 1131, "Ġguerre": 1132, "Ġmal": 1133, "Ġlieu": 1134, "Ġcelui": 1135, "ĠprÃ©c": 1136, "Pour": 1137, "Ġforme": 1138, "lier": 1139, "Ã©lÃ©": 1140, "viron": 1141, "ĠrÃ©f": 1142, "ĠsÃ©": 1143, "isme": 1144, "ĠthÃ©": 1145, "ils": 1146, "Ġgouver": 1147, "Ġlang": 1148, "ric": 1149, "Ġdur": 1150, "aque": 1151, "Ġcours": 1152, "ret": 1153, "Ġpi": 1154, "Ġchar": 1155, "eu": 1156, "ram": 1157, "ĠUn": 1158, "iti": 1159, "Ġcelle": 1160, "ĠlÃ©g": 1161, "onde": 1162, "Ġpoint": 1163, "ables": 1164, "ix": 1165, "Ġrest": 1166, "Ġver": 1167, "Ġcou": 1168, "asse": 1169, "Ġ16": 1170, "Ġselon": 1171, "lus": 1172, "Ġservi": 1173, "Ġmat": 1174, "Ġpolitique": 1175, "Ġca": 1176, "Qu": 1177, "Ġavoir": 1178, "exp": 1179, "ĠrÃ©alis": 1180, "Ġloc": 1181, "Ã©ration": 1182, "Ġsud": 1183, "poque": 1184, "Ġnord": 1185, "Ġind": 1186, "rÃ©e": 1187, "Åĵuv": 1188, "Ġag": 1189, "Ġmen": 1190, "ĠÃītats": 1191, "Ġinf": 1192, "Ġhab": 1193, "Ġindi": 1194, "Ġ15": 1195, "Ġnouveau": 1196, "Ġcompos": 1197, "Ġsyst": 1198, "cid": 1199, "pendant": 1200, "Ġroi": 1201, "su": 1202, "ions": 1203, "tic": 1204, "Ġprog": 1205, "ĠU": 1206, "Ġpass": 1207, "ences": 1208, "Ġ194": 1209, "Ġpublic": 1210, "acc": 1211, "ographie": 1212, "Ġsouvent": 1213, "Ġils": 1214, "Ġas": 1215, "ĠcÃ´": 1216, "Ġ7": 1217, "Ġeffet": 1218, "Ã©l": 1219, "Ġtour": 1220, "ug": 1221, "tant": 1222, "Ġnature": 1223, "Ġcan": 1224, "Ġtoute": 1225, "mÃ©e": 1226, "Ġk": 1227, "aison": 1228, "Ġno": 1229, "ust": 1230, "Ġsup": 1231, "ration": 1232, "ah": 1233, "Ġpres": 1234, "tÃ©g": 1235, "ĠZ": 1236, "mand": 1237, "uss": 1238, "olution": 1239, "Ġ8": 1240, "entes": 1241, "ense": 1242, "Ġ195": 1243, "assi": 1244, "sions": 1245, "iter": 1246, "ule": 1247, "ĠAr": 1248, "Ġexemple": 1249, "In": 1250, "Ġmet": 1251, "Ġnombreux": 1252, "ourg": 1253, "lic": 1254, "Ġquelques": 1255, "Ġrem": 1256, "ĠfranÃ§aise": 1257, "Ġmoy": 1258, "fi": 1259, "Ġvol": 1260, "lles": 1261, "Ġfonction": 1262, "ement": 1263, "semble": 1264, "Ġquatre": 1265, "Ġmaj": 1266, "ĠdÃ©partement": 1267, "Ġfer": 1268, "Ġmis": 1269, "ak": 1270, "Ġim": 1271, "Ġinc": 1272, "Ġcompr": 1273, "Ã¨rent": 1274, "ĠgÃ©nÃ©ral": 1275, "Ã©ci": 1276, "ĠChar": 1277, "ell": 1278, "Ġbi": 1279, "nation": 1280, "Ġmes": 1281, "rÃ©s": 1282, "ĠÃ©tu": 1283, "Ġpopulation": 1284, "art": 1285, "ative": 1286, "Ġsub": 1287, "ances": 1288, "ĠIn": 1289, "tient": 1290, "Ġautre": 1291, "uc": 1292, "Ġgra": 1293, "yn": 1294, "riÃ¨re": 1295, "ribu": 1296, "ĠdÃ©fin": 1297, "tel": 1298, "tier": 1299, "itaire": 1300, "rÃª": 1301, "urent": 1302, "Ġdevient": 1303, "AprÃ¨s": 1304, "tent": 1305, "Ġoc": 1306, "Ġbat": 1307, "ĠsiÃ¨": 1308, "Ã¨rement": 1309, "Ġdess": 1310, "rique": 1311, "Ġpendant": 1312, "Ġinst": 1313, "fs": 1314, "cess": 1315, "ĠspÃ©ci": 1316, "Ġcontra": 1317, "ros": 1318, "ze": 1319, "ĠamÃ©ric": 1320, "Ġlib": 1321, "Ġprob": 1322, "tie": 1323, "ourd": 1324, "Ġpouvoir": 1325, "aur": 1326, "Ġnouvelle": 1327, "act": 1328, "Ġplan": 1329, "Ces": 1330, "rig": 1331, "minist": 1332, "oth": 1333, "atique": 1334, "ateurs": 1335, "aÃ®t": 1336, "ison": 1337, "ises": 1338, "igine": 1339, "Ġouv": 1340, "lex": 1341, "ail": 1342, "oh": 1343, "Ar": 1344, "avi": 1345, "gne": 1346, "istor": 1347, "aul": 1348, "Ġ10": 1349, "Ġpeuvent": 1350, "Ġsucc": 1351, "Ġ193": 1352, "Ã¨de": 1353, "Ġ9": 1354, "Ġ>": 1355, "rand": 1356, "Ġcommer": 1357, "ov": 1358, "ore": 1359, "ton": 1360, "Ġfem": 1361, "Ġcertains": 1362, "ĠdÃ©cl": 1363, "ilitÃ©": 1364, "ĠÃ©tant": 1365, "uropÃ©": 1366, "Ġfamille": 1367, "ienne": 1368, "Ġgr": 1369, "yant": 1370, "Ġrepr": 1371, "ĠdÃ©s": 1372, "Ġfr": 1373, "ĠPi": 1374, "Ġmilli": 1375, "Ġcontin": 1376, "Ġtech": 1377, "Ġdou": 1378, "ĠdÃ©si": 1379, "Ġmondi": 1380, "ĠsystÃ¨me": 1381, "Ġsupp": 1382, "ande": 1383, "cup": 1384, "Ġdoit": 1385, "ange": 1386, "ĠLou": 1387, "gu": 1388, "ach": 1389, "vin": 1390, "Ġrou": 1391, "Ġdernier": 1392, "Ġpri": 1393, "aume": 1394, "Ġcal": 1395, "Ġcomb": 1396, "Ġchamp": 1397, "Ġposs": 1398, "Ġtrouve": 1399, "enc": 1400, "Ġroy": 1401, "Ġpra": 1402, "Ġ12": 1403, "Ġlim": 1404, "Ġop": 1405, "ĠpÃ©riode": 1406, "tÃ©ri": 1407, "ĠX": 1408, "amb": 1409, "Ġcentre": 1410, "Ġprojet": 1411, "quer": 1412, "enant": 1413, "ĠÃ©taient": 1414, "ĠrÃ©c": 1415, "Ġtitre": 1416, "Ãītat": 1417, "oles": 1418, "Ġterritoire": 1419, "Ġreste": 1420, "Ġgouvernement": 1421, "oires": 1422, "ĠCar": 1423, "Ġdeven": 1424, "ĠrÃ©v": 1425, "Al": 1426, "orts": 1427, "Ġfils": 1428, "ĠUnis": 1429, "ula": 1430, "urb": 1431, "ry": 1432, "jours": 1433, "ĠCl": 1434, "Ġnive": 1435, "ĠprÃ¨s": 1436, "Ġret": 1437, "ps": 1438, "ĠMont": 1439, "Son": 1440, "Ġid": 1441, "Ã´t": 1442, "ĠsociÃ©tÃ©": 1443, "ĠeuropÃ©": 1444, "he": 1445, "rait": 1446, "Ġcri": 1447, "lise": 1448, "esse": 1449, "Ġliv": 1450, "serv": 1451, "urope": 1452, "ox": 1453, "rage": 1454, "Ãªtre": 1455, "Ġdist": 1456, "ennent": 1457, "origine": 1458, "ali": 1459, "Ġaur": 1460, "Ġref": 1461, "Ġatt": 1462, "Mais": 1463, "ĠsÃ©rie": 1464, "Ġoffici": 1465, "Ġcompte": 1466, "tit": 1467, "ets": 1468, "quipe": 1469, "ient": 1470, "hui": 1471, "suite": 1472, "Ġsep": 1473, "Ġcommunes": 1474, "Ã©li": 1475, "Ġmois": 1476, "Ġculture": 1477, "Ġvic": 1478, "Ġsal": 1479, "Ġvari": 1480, "ĠSe": 1481, "mis": 1482, "Ġretr": 1483, "ome": 1484, "Ġtot": 1485, "Ġenf": 1486, "uni": 1487, "Des": 1488, "Ġseul": 1489, "istre": 1490, "Ġlit": 1491, "Ġcapit": 1492, "ane": 1493, "ĠII": 1494, "Ġchez": 1495, "cs": 1496, "pect": 1497, "ĠÃ©conom": 1498, "Ġorganis": 1499, "rip": 1500, "iles": 1501, "seau": 1502, "ĠRe": 1503, "Ġtourn": 1504, "Ġdisp": 1505, "Ġtard": 1506, "oll": 1507, "mÃ©": 1508, "Ġhabit": 1509, "ĠmÃ©": 1510, "Ġinternation": 1511, "ĠprÃ©sident": 1512, "Ils": 1513, "Ġenviron": 1514, "Ġreg": 1515, "Ġlog": 1516, "aissance": 1517, "rang": 1518, "ax": 1519, "Ã¨le": 1520, "Ġmot": 1521, "Ġafin": 1522, "ĠÃ©crit": 1523, "erie": 1524, "tifs": 1525, "Ġchaque": 1526, "oris": 1527, "Ġess": 1528, "aÃ¯": 1529, "uire": 1530, "Ã¢te": 1531, "ame": 1532, "Ġ192": 1533, "pes": 1534, "Ġligne": 1535, "pose": 1536, "aise": 1537, "ĠdÃ¨s": 1538, "Ġ14": 1539, "oie": 1540, "Ġtoujours": 1541, "ĠPh": 1542, "Ġfl": 1543, "oix": 1544, "uit": 1545, "iÃ¨re": 1546, "cont": 1547, "arch": 1548, "erv": 1549, "bles": 1550, "aill": 1551, "ĠLouis": 1552, "be": 1553, "temp": 1554, "Ġpossi": 1555, "ĠCon": 1556, "Ġhom": 1557, "Ġayant": 1558, "Ġconse": 1559, "Ġcant": 1560, "ĠmÃ©di": 1561, "Ã¨ces": 1562, "annÃ©e": 1563, "lie": 1564, "ĠÃ©lect": 1565, "Ġcamp": 1566, "ennes": 1567, "jourd": 1568, "Ġnombreuses": 1569, "Ġ13": 1570, "ones": 1571, "Ã©tique": 1572, "Ġjour": 1573, "Ġ11": 1574, "Ġsecond": 1575, "ast": 1576, "Ġlar": 1577, "ĠNe": 1578, "Ġvill": 1579, "cture": 1580, "ĠrÃ´le": 1581, "erne": 1582, "Ġbeau": 1583, "era": 1584, "Åĵuvre": 1585, "lac": 1586, "Selon": 1587, "Ġalle": 1588, "Ã©le": 1589, "Ġpol": 1590, "inter": 1591, "anti": 1592, "ony": 1593, "Ġniveau": 1594, "Ġord": 1595, "quel": 1596, "Ġtradi": 1597, "quÃ©": 1598, "Ġtoutes": 1599, "aud": 1600, "Ġsig": 1601, "bum": 1602, "Ã¢ce": 1603, "sence": 1604, "mbres": 1605, "Ġrelig": 1606, "dic": 1607, "Ã©b": 1608, "aff": 1609, "ys": 1610, "ĠgÃ©": 1611, "Ġformula": 1612, "Ã¨te": 1613, "oritÃ©": 1614, "Ġterme": 1615, "histoire": 1616, "erc": 1617, "sionn": 1618, "Ã¨se": 1619, "ĠSt": 1620, "Ġgar": 1621, "Ġcoup": 1622, "cident": 1623, "Ġdurant": 1624, "Ġensuite": 1625, "Ġsor": 1626, "Ġpat": 1627, "Ġ191": 1628, "Ġdirec": 1629, "oin": 1630, "ĠannÃ©e": 1631, "duit": 1632, "Ġcir": 1633, "Ã©qu": 1634, "Ġmouve": 1635, "land": 1636, "ki": 1637, "ow": 1638, "Ġcad": 1639, "ĠdÃ©veloppement": 1640, "ype": 1641, "ĠpÃ¨re": 1642, "Ġparfois": 1643, "Ġtant": 1644, "ĠrÃ¨": 1645, "ote": 1646, "Ġquar": 1647, "Ġcinq": 1648, "ĠÃ©ch": 1649, "Ġsimp": 1650, "adi": 1651, "ĠDe": 1652, "Ġplu": 1653, "Ġrencont": 1654, "Ġrecher": 1655, "ĠPierre": 1656, "Ġhum": 1657, "grÃ©": 1658, "Ġsera": 1659, "Ġactu": 1660, "ĠtÃ©lÃ©": 1661, "Ġjourn": 1662, "ĠreÃ§": 1663, "mande": 1664, "ia": 1665, "Ġtravers": 1666, "yc": 1667, "Ġangl": 1668, "ĠLes": 1669, "ĠJac": 1670, "Ġbr": 1671, "Ġcolle": 1672, "Ġface": 1673, "autÃ©": 1674, "inst": 1675, "Ġbou": 1676, "anci": 1677, "Ã©poque": 1678, "Ġceux": 1679, "Ġloi": 1680, "Ġpremiers": 1681, "Ġfra": 1682, "Ġnational": 1683, "auv": 1684, "ĠsuccÃ¨s": 1685, "ression": 1686, "coup": 1687, "Ġjeu": 1688, "ules": 1689, "Ġatte": 1690, "tien": 1691, "yd": 1692, "Ġscien": 1693, "Ġbase": 1694, "autre": 1695, "ĠsituÃ©e": 1696, "ĠÃ©lÃ©": 1697, "ĠNord": 1698, "esp": 1699, "Ã§on": 1700, "vision": 1701, "Ġmembres": 1702, "Ġadminist": 1703, "Ġreconn": 1704, "Ġlangue": 1705, "Ġrapport": 1706, "ologique": 1707, "Ġjours": 1708, "Ġsemb": 1709, "Lors": 1710, "Ġclub": 1711, "Ġmuni": 1712, "sp": 1713, "Ġrend": 1714, "Ġtex": 1715, "Ġsour": 1716, "tivitÃ©": 1717, "ĠnÃ©cess": 1718, "Ġparticuli": 1719, "Ġdoc": 1720, "ith": 1721, "pond": 1722, "ĠCor": 1723, "ĠAm": 1724, "ĠÃ©tab": 1725, "Ġprend": 1726, "uli": 1727, "Ġsign": 1728, "crip": 1729, "vement": 1730, "Ġsyn": 1731, "ĠSh": 1732, "Ġorig": 1733, "Ġanci": 1734, "Ġcro": 1735, "Ġancien": 1736, "lÃ©e": 1737, "Ã©rique": 1738, "Ġten": 1739, "Ġva": 1740, "Ã¨ce": 1741, "Ġbar": 1742, "isse": 1743, "ĠgrÃ¢ce": 1744, "Ġdit": 1745, "Ġraison": 1746, "estion": 1747, "actÃ©": 1748, "Ġproduction": 1749, "tÃ©rieur": 1750, "Ġchef": 1751, "Ġdroit": 1752, "Ġpeup": 1753, "illi": 1754, "tru": 1755, "Ġcet": 1756, "ĠconsidÃ©rÃ©": 1757, "quelle": 1758, "rier": 1759, "ĠdÃ©j": 1760, "Ġcli": 1761, "Ã¢teau": 1762, "ĠdeuxiÃ¨me": 1763, "ital": 1764, "gment": 1765, "Ġauc": 1766, "Ġcat": 1767, "Ġcorps": 1768, "Ġlaquelle": 1769, "Ġmondiale": 1770, "Ġnationale": 1771, "Ġfont": 1772, "illeurs": 1773, "Ġpersonnes": 1774, "ysi": 1775, "Ġtransp": 1776, "Ġassoci": 1777, "action": 1778, "dement": 1779, "tÃ©ra": 1780, "Ã©rence": 1781, "ĠQu": 1782, "Ġdivers": 1783, "Ġsens": 1784, "ars": 1785, "lant": 1786, "Ġpriv": 1787, "Ġfais": 1788, "respond": 1789, "cipe": 1790, "lace": 1791, "Ġcentra": 1792, "Ġlarge": 1793, "oins": 1794, "ĠprÃ©f": 1795, "Ġcontr": 1796, "Ġaujourd": 1797, "Ã©ch": 1798, "Ã©ro": 1799, "ition": 1800, "orie": 1801, "Ġporte": 1802, "Ġseu": 1803, "eff": 1804, "Ġcr": 1805, "Ġviv": 1806, "Ġcorrespond": 1807, "Ġsix": 1808, "Ġparticulier": 1809, "tout": 1810, "air": 1811, "position": 1812, "Ġvoit": 1813, "Ġparticip": 1814, "Ġtravail": 1815, "Ġdistin": 1816, "apon": 1817, "Ã»t": 1818, "orme": 1819, "Ġhistor": 1820, "oine": 1821, "Ġmise": 1822, "part": 1823, "Ġhau": 1824, "ĠcrÃ©ation": 1825, "Ġtype": 1826, "ras": 1827, "Ġtechn": 1828, "ĠdÃ©jÃł": 1829, "Ġproc": 1830, "Ġprogram": 1831, "pec": 1832, "Ġterm": 1833, "ok": 1834, "rec": 1835, "Ġsigni": 1836, "ouse": 1837, "Ġbeaucoup": 1838, "agit": 1839, "ess": 1840, "up": 1841, "Ġ0": 1842, "leur": 1843, "Ġsurtout": 1844, "Ġrapi": 1845, "ĠCharles": 1846, "Ġexiste": 1847, "vo": 1848, "Ġmunicip": 1849, "Ainsi": 1850, "Ġservice": 1851, "Ġvoy": 1852, "ĠbÃ¢": 1853, "Ġpropri": 1854, "ĠCan": 1855, "rice": 1856, "Ġeffec": 1857, "xim": 1858, "ication": 1859, "Ġcanton": 1860, "Cependant": 1861, "ĠfrÃ©": 1862, "Ã¨mes": 1863, "Ġvale": 1864, "ĠBar": 1865, "Ġcependant": 1866, "ĠGe": 1867, "indre": 1868, "Ġcath": 1869, "aliste": 1870, "Ġconstruction": 1871, "tiÃ¨re": 1872, "ĠrÃ©sul": 1873, "ock": 1874, "ission": 1875, "Or": 1876, "jo": 1877, "Ġsaison": 1878, "Ã©ment": 1879, "niques": 1880, "Ġpropos": 1881, "ime": 1882, "ensemble": 1883, "ublique": 1884, "Ġcertaines": 1885, "lique": 1886, "son": 1887, "atiques": 1888, "gÃ©": 1889, "tal": 1890, "la": 1891, "ere": 1892, "Ġmer": 1893, "ĠSud": 1894, "onie": 1895, "andis": 1896, "ocra": 1897, "inf": 1898, "Ã©ti": 1899, "Ġhabitants": 1900, "Ġgrands": 1901, "Ġplupart": 1902, "Ġfurent": 1903, "Ã¨nes": 1904, "Ġsuc": 1905, "Ã¨tres": 1906, "ĠrÃ©seau": 1907, "Ġfort": 1908, "usion": 1909, "Ġmul": 1910, "Ġdonne": 1911, "Ġchi": 1912, "ĠprÃ©sente": 1913, "Ġelles": 1914, "20": 1915, "Ã©lÃ¨": 1916, "Ġsein": 1917, "val": 1918, "ĠcaractÃ©": 1919, "Ch": 1920, "Ġretour": 1921, "ute": 1922, "jec": 1923, "Depuis": 1924, "Ġjoue": 1925, "once": 1926, "Ġbut": 1927, "oign": 1928, "Ġve": 1929, "Ġparc": 1930, "Ã§ois": 1931, "Åĵur": 1932, "ĠVal": 1933, "alif": 1934, "Ġfac": 1935, "ĠdiffÃ©rents": 1936, "ca": 1937, "ĠGuerre": 1938, "ĠtÃªte": 1939, "isation": 1940, "yth": 1941, "Ġblan": 1942, "Ġaurait": 1943, "ile": 1944, "Ġseulement": 1945, "itaires": 1946, "Ġlongue": 1947, "Ġint": 1948, "inc": 1949, "arg": 1950, "armÃ©e": 1951, "tiers": 1952, "Ġcrois": 1953, "Ġfig": 1954, "ĠGrand": 1955, "ĠgÃ©nÃ©ralement": 1956, "Ã«": 1957, "Ġimm": 1958, "ĠBr": 1959, "ĠmaniÃ¨re": 1960, "Ġhommes": 1961, "unes": 1962, "Ġgen": 1963, "endance": 1964, "Ġautour": 1965, "ionn": 1966, "ice": 1967, "uel": 1968, "ĠMich": 1969, "iers": 1970, "Ġentrepr": 1971, "Ġorigin": 1972, "Ġfai": 1973, "Ġdevant": 1974, "ception": 1975, "magne": 1976, "ĠutilisÃ©": 1977, "Ġclassi": 1978, "quent": 1979, "nÃ©": 1980, "Ġ190": 1981, "Ġanim": 1982, "urg": 1983, "Si": 1984, "ress": 1985, "raÃ®": 1986, "Ġprot": 1987, "Ġsite": 1988, "yl": 1989, "Ġrev": 1990, "cide": 1991, "Ġeux": 1992, "Ġtandis": 1993, "duc": 1994, "Ġprix": 1995, "Ġmusique": 1996, "Ġmouvement": 1997, "rain": 1998, "issement": 1999, "Histoire": 2000, "Ġdisc": 2001, "duction": 2002, "Ġetc": 2003, "Ġw": 2004, "ablement": 2005, "Ġbois": 2006, "iquement": 2007, "eng": 2008, "ustri": 2009, "ĠRoy": 2010, "Ġurb": 2011, "Ġstat": 2012, "Ġconserv": 2013, "Ġstru": 2014, "umi": 2015, "ĠdÃ©sign": 2016, "iversitÃ©": 2017, "Ġpropre": 2018, "ĠdiffÃ©rentes": 2019, "Plus": 2020, "ĠchÃ¢teau": 2021, "ĠdÃ©couv": 2022, "reg": 2023, "avant": 2024, "Ġparmi": 2025, "alitÃ©s": 2026, "Ġjeune": 2027, "Ã©rieur": 2028, "Ġproduit": 2029, "Ġallemand": 2030, "ĠJoh": 2031, "Ġcondi": 2032, "Ġdix": 2033, "vant": 2034, "Ġpor": 2035, "Ġprom": 2036, "mer": 2037, "ĠlittÃ©ra": 2038, "Ġprovin": 2039, "Ġcause": 2040, "Ã©tu": 2041, "Ġcommerci": 2042, "ĠPl": 2043, "atif": 2044, "Ġus": 2045, "ppe": 2046, "Sa": 2047, "Ġmor": 2048, "Ġenfants": 2049, "Ġzone": 2050, "gue": 2051, "Ġlet": 2052, "mpire": 2053, "Ġreven": 2054, "Ġvict": 2055, "Ġmom": 2056, "Ġcher": 2057, "aces": 2058, "ĠPro": 2059, "Ã©cu": 2060, "ĠdÃ©n": 2061, "Ġdestin": 2062, "Ġfeu": 2063, "lit": 2064, "rant": 2065, "Ġvillage": 2066, "Ġenv": 2067, "Ġmilieu": 2068, "Ġphil": 2069, "Ġhaut": 2070, "Ġvoir": 2071, "Ġimportant": 2072, "Ġcond": 2073, "Ã©nÃ©": 2074, "assin": 2075, "Ġopp": 2076, "onomie": 2077, "abord": 2078, "Ġtravaux": 2079, "ĠcÃ´tÃ©": 2080, "Ġpris": 2081, "Ġphysi": 2082, "ĠFranÃ§ois": 2083, "Ġ<": 2084, "ordre": 2085, "Ġroman": 2086, "Ġgrandes": 2087, "Ġpal": 2088, "oud": 2089, "och": 2090, "Ġpetit": 2091, "voir": 2092, "Ġ2010": 2093, "titude": 2094, "Ġpasse": 2095, "dio": 2096, "illet": 2097, "ĠBel": 2098, "ym": 2099, "Ġversion": 2100, "ĠRÃ©p": 2101, "Ġmari": 2102, "lab": 2103, "quÃ©e": 2104, "Ġatta": 2105, "Ġmillions": 2106, "tivitÃ©s": 2107, "Ġvilles": 2108, "ĠderniÃ¨re": 2109, "osoph": 2110, "isl": 2111, "inte": 2112, "ĠprÃ©sence": 2113, "Ġiss": 2114, "ĠcaractÃ©ris": 2115, "Ġjam": 2116, "oration": 2117, "llemagne": 2118, "isc": 2119, "tation": 2120, "rÃªt": 2121, "odes": 2122, "ĠÃ©conomique": 2123, "Ã®le": 2124, "uf": 2125, "Ġtrop": 2126, "ĠThe": 2127, "iens": 2128, "Ġmilitaire": 2129, "auche": 2130, "ape": 2131, "Ġconnu": 2132, "ĠtroisiÃ¨me": 2133, "yle": 2134, "Ġven": 2135, "Ġcela": 2136, "Ġmati": 2137, "Ġsuff": 2138, "Ġprincipalement": 2139, "ĠCol": 2140, "ke": 2141, "mique": 2142, "ensi": 2143, "aÃ®tre": 2144, "ĠnÃ©g": 2145, "ĠsiÃ¨c": 2146, "Ġmag": 2147, "Ġjamais": 2148, "ront": 2149, "Ġimportante": 2150, "sy": 2151, "ĠâĢĵ": 2152, "osition": 2153, "Ġeng": 2154, "hi": 2155, "ĠbÃ¢ti": 2156, "Ġmoyenne": 2157, "Ã©rit": 2158, "Ġmeille": 2159, "tivement": 2160, "Ġministre": 2161, "Ġdispar": 2162, "aiss": 2163, "Ġbrit": 2164, "Ġmesure": 2165, "erb": 2166, "anique": 2167, "Ġmulti": 2168, "temps": 2169, "ible": 2170, "ĠpremiÃ¨res": 2171, "Ã©volution": 2172, "Ġsujet": 2173, "ĠRob": 2174, "Ġ2000": 2175, "Ġserait": 2176, "ner": 2177, "urant": 2178, "ument": 2179, "fication": 2180, "Ġailleurs": 2181, "usse": 2182, "rog": 2183, "Ġpossible": 2184, "Ġtomb": 2185, "oise": 2186, "ĠintÃ©": 2187, "II": 2188, "Ġquit": 2189, "Ġviol": 2190, "Ġempl": 2191, "Ġsort": 2192, "Ġdate": 2193, "lin": 2194, "Ã©ma": 2195, "eux": 2196, "Ġlequel": 2197, "loit": 2198, "Ã¢tre": 2199, "ĠâĢ¦": 2200, "Ġnum": 2201, "ĠÃ©di": 2202, "idi": 2203, "uve": 2204, "vier": 2205, "Ġsurf": 2206, "Europe": 2207, "Ġ189": 2208, "ymp": 2209, "ĠpossÃ¨de": 2210, "enri": 2211, "oss": 2212, "ĠmÃ©th": 2213, "ĠÃ©lev": 2214, "Ġclass": 2215, "ĠmatÃ©ri": 2216, "ĠmaÃ®": 2217, "tives": 2218, "Ġregrou": 2219, "ĠPaul": 2220, "Ġnouvelles": 2221, "Ġcadre": 2222, "ĠcommunautÃ©": 2223, "til": 2224, "cription": 2225, "Ġmai": 2226, "ĠlÃł": 2227, "Ġouest": 2228, "Ġesti": 2229, "ĠRÃ©publique": 2230, "mment": 2231, "Ġdomaine": 2232, "Ġ]": 2233, "Ġadministra": 2234, "Ġcombat": 2235, "aprÃ¨s": 2236, "Ã©on": 2237, "Ġindustri": 2238, "tern": 2239, "ĠâĢĶ": 2240, "Ġobten": 2241, "aly": 2242, "rin": 2243, "hab": 2244, "Ġmaison": 2245, "crit": 2246, "Ġphilosoph": 2247, "rÃ¨s": 2248, "Ġaccue": 2249, "Ġtu": 2250, "Ġseule": 2251, "ĠfaÃ§on": 2252, "ĠNew": 2253, "Ġmodi": 2254, "organis": 2255, "Ġtaux": 2256, "vre": 2257, "Ġchange": 2258, "ĠnommÃ©": 2259, "Ġcelles": 2260, "men": 2261, "ĠSch": 2262, "quant": 2263, "Ġtent": 2264, "ĠmÃ¨re": 2265, "atoire": 2266, "alisation": 2267, "Ġcenter": 2268, "erts": 2269, "Ġmoment": 2270, "Ġunivers": 2271, "ards": 2272, "ettes": 2273, "bres": 2274, "Ġpolitiques": 2275, "Ġ2015": 2276, "Ġrecherche": 2277, "Ġfemme": 2278, "ide": 2279, "Ġdemande": 2280, "ĠQ": 2281, "Ã©quipe": 2282, "Ġbataille": 2283, "luence": 2284, "Ġscientif": 2285, "Ġterre": 2286, "Ġgrec": 2287, "Ġfav": 2288, "Cert": 2289, "ĠÃ©poque": 2290, "Ġ187": 2291, "vention": 2292, "inÃ©": 2293, "Ġsucces": 2294, "talie": 2295, "ĠGeor": 2296, "ĠscÃ¨ne": 2297, "ĠespÃ¨ces": 2298, "Ġanglais": 2299, "mat": 2300, "Ġperd": 2301, "Ġalbum": 2302, "ĠsituÃ©": 2303, "Ġposition": 2304, "Ġlig": 2305, "ville": 2306, "Ġsymb": 2307, "ination": 2308, "Ãªt": 2309, "ĠComm": 2310, "Ġiniti": 2311, "Ġ188": 2312, "ase": 2313, "Ġlorsque": 2314, "Ġquand": 2315, "Ġfille": 2316, "Ġlivre": 2317, "ĠMe": 2318, "ĠJacques": 2319, "ani": 2320, "Ġessenti": 2321, "Ġtyp": 2322, "Ġchap": 2323, "ĠsiÃ¨ge": 2324, "ĠÃ¢": 2325, "Ġ2007": 2326, "Ġformation": 2327, "ereur": 2328, "Ġcollec": 2329, "ano": 2330, "ende": 2331, "Ġaugment": 2332, "Ġaccord": 2333, "Ġnous": 2334, "Ġcolon": 2335, "ĠCons": 2336, "oupes": 2337, "Ġremplac": 2338, "Ġfaut": 2339, "Ġris": 2340, "Ġseconde": 2341, "off": 2342, "ĠmÃª": 2343, "ck": 2344, "Cel": 2345, "Ġpratique": 2346, "Ġrue": 2347, "Ġcommence": 2348, "ĠmÃ©c": 2349, "ĠMarie": 2350, "Ã´ne": 2351, "anisme": 2352, "Ġmain": 2353, "ovi": 2354, "glet": 2355, "ologiques": 2356, "ĠparticuliÃ¨rement": 2357, "Ġcaract": 2358, "Ġ2008": 2359, "ĠJohn": 2360, "ĠprÃ©cÃ©d": 2361, "Ġbl": 2362, "ĠÃ©tudi": 2363, "Ġoccup": 2364, "Ġchois": 2365, "ĠappelÃ©": 2366, "Ġtels": 2367, "Ġvue": 2368, "ticle": 2369, "ĠrÃ©un": 2370, "Ġmatch": 2371, "atives": 2372, "quis": 2373, "tÃ©es": 2374, "Ã©glise": 2375, "Ġbord": 2376, "ouverte": 2377, "idÃ©": 2378, "ulaire": 2379, "Ã©tait": 2380, "Ġ186": 2381, "leurs": 2382, "tor": 2383, "Sur": 2384, "As": 2385, "Ġarch": 2386, "abilitÃ©": 2387, "arm": 2388, "Ġcompagn": 2389, "ĠMan": 2390, "Ġ[": 2391, "gleterre": 2392, "Ġsemble": 2393, "Ġof": 2394, "ĠPe": 2395, "Ġgl": 2396, "Ġdirection": 2397, "ork": 2398, "Ġtrouv": 2399, "Aut": 2400, "ades": 2401, "Ġrapidement": 2402, "Ġgauche": 2403, "Ġprofes": 2404, "Ġ1990": 2405, "Ġeu": 2406, "Ġpu": 2407, "oupe": 2408, "icile": 2409, "ĠPhili": 2410, "ĠrÃ©par": 2411, "ĠprÃ©v": 2412, "sez": 2413, "ĠEn": 2414, "duire": 2415, "Ġfemmes": 2416, "Ġliste": 2417, "ingt": 2418, "Ġpens": 2419, "ĠrÃ¨g": 2420, "Ġgroupes": 2421, "Ġfab": 2422, "did": 2423, "Ġsus": 2424, "Ġdat": 2425, "ĠRen": 2426, "ision": 2427, "onte": 2428, "ouss": 2429, "aj": 2430, "cole": 2431, "ira": 2432, "Ġtroupes": 2433, "ĠBret": 2434, "Ġeffectu": 2435, "itement": 2436, "ĠÅĵuvre": 2437, "Ġcapitale": 2438, "Ġconseil": 2439, "Ġuti": 2440, "Ġpetite": 2441, "formation": 2442, "ĠEurope": 2443, "Ġsau": 2444, "pl": 2445, "rÃ©es": 2446, "ĠÃ©m": 2447, "ĠÃ©qu": 2448, "ds": 2449, "Ġretrouve": 2450, "Ġtable": 2451, "oÃ»t": 2452, "allÃ©e": 2453, "Ġrencontre": 2454, "Ġfinale": 2455, "ĠentraÃ®": 2456, "roph": 2457, "asi": 2458, "Ġsituation": 2459, "Ġ2014": 2460, "Ġsuivant": 2461, "ĠdonnÃ©": 2462, "oient": 2463, "Ġtraditionn": 2464, "Ġcontinu": 2465, "ĠBe": 2466, "ĠAnd": 2467, "sych": 2468, "aye": 2469, "osÃ©": 2470, "Ã©rer": 2471, "ĠcontrÃ´le": 2472, "Ġroute": 2473, "ographique": 2474, "ĠphÃ©n": 2475, "termin": 2476, "Ġsept": 2477, "Ġqualif": 2478, "Ġexist": 2479, "Ġ=": 2480, "Ġtransf": 2481, "olique": 2482, "Ġmeur": 2483, "Ġ179": 2484, "Ġali": 2485, "rite": 2486, "atis": 2487, "Ġmembre": 2488, "oivent": 2489, "ĠcÃ©lÃ¨": 2490, "ĠamÃ©ricain": 2491, "Ġconcern": 2492, "Ġmoi": 2493, "ĠindÃ©p": 2494, "ĠPremi": 2495, "ĠÃ©lections": 2496, "Åĵuvres": 2497, "alle": 2498, "Ġanti": 2499, "Ġvaleur": 2500, "ares": 2501, "ĠrÃ©gions": 2502, "Ġconsac": 2503, "Ġchans": 2504, "Ġproche": 2505, "Ġsuivante": 2506, "ĠcrÃ©Ã©": 2507, "ompagn": 2508, "Ġplut": 2509, "Ġress": 2510, "Avec": 2511, "Ġassez": 2512, "Ġresp": 2513, "issent": 2514, "bert": 2515, "Ġmaint": 2516, "lor": 2517, "Ses": 2518, "ĠÃ©qui": 2519, "ergie": 2520, "ĠSec": 2521, "Ġlatin": 2522, "Ġcommand": 2523, "ĠcarriÃ¨re": 2524, "ĠÃ©n": 2525, "att": 2526, "ĠtempÃ©ra": 2527, "objet": 2528, "Ġstyle": 2529, "ailleurs": 2530, "rag": 2531, "Ġdroite": 2532, "Ġservices": 2533, "ressi": 2534, "ĠGran": 2535, "asc": 2536, "urÃ©": 2537, "Ġvingt": 2538, "seil": 2539, "oyen": 2540, "Ġphot": 2541, "intÃ©": 2542, "sitions": 2543, "ara": 2544, "ĠfrÃ¨re": 2545, "anne": 2546, "ĠrÃ©sid": 2547, "dec": 2548, "ĠÃ©trang": 2549, "Ġfinalement": 2550, "ĠdÃ©fini": 2551, "Ġtri": 2552, "ĠeuropÃ©enne": 2553, "Ġpoints": 2554, "environ": 2555, "lication": 2556, "ĠintÃ©g": 2557, "ĠpropriÃ©tÃ©": 2558, "rages": 2559, "frique": 2560, "io": 2561, "Ġrejo": 2562, "Ġ2006": 2563, "Ġaj": 2564, "Ã¡": 2565, "cience": 2566, "rom": 2567, "Ġis": 2568, "Ġavaient": 2569, "Ġproduits": 2570, "ouest": 2571, "Ġnouveaux": 2572, "oz": 2573, "Ġtermin": 2574, "Ġsaint": 2575, "Ã©rieure": 2576, "rans": 2577, "seur": 2578, "alog": 2579, "ĠdÃ©mocra": 2580, "iÃ©": 2581, "Ġ2004": 2582, "ĠconsÃ©qu": 2583, "anm": 2584, "ĠÃ©lÃ©ments": 2585, "tiÃ©": 2586, "Ġprendre": 2587, "ĠRome": 2588, "Ġval": 2589, "ada": 2590, "ĠbÃ©nÃ©": 2591, "Ġrespons": 2592, "Ġ2012": 2593, "Ġprovo": 2594, "Ġzones": 2595, "Ġtrib": 2596, "ĠdÃ©g": 2597, "ĠmajoritÃ©": 2598, "Ġfilms": 2599, "Ġsem": 2600, "Ġprote": 2601, "Ġ1980": 2602, "Ġmultip": 2603, "acitÃ©": 2604, "rich": 2605, "ha": 2606, "Ġ2009": 2607, "ĠplutÃ´t": 2608, "Am": 2609, "ĠmodÃ¨le": 2610, "ĠÃ©tudes": 2611, "arc": 2612, "ĠRh": 2613, "ĠdonnÃ©es": 2614, "va": 2615, "Ġorient": 2616, "fie": 2617, "Ġancienne": 2618, "Ġroyaume": 2619, "Ġpermettant": 2620, "ma": 2621, "otte": 2622, "anmoins": 2623, "Ġpersonne": 2624, "ĠthÃ©orie": 2625, "ĠMor": 2626, "Ġprincipal": 2627, "ainte": 2628, "Ġcomplex": 2629, "Ġcandid": 2630, "Ġ185": 2631, "lÃ©ment": 2632, "bilitÃ©": 2633, "ormais": 2634, "ĠConseil": 2635, "Ġensemble": 2636, "Ġhuit": 2637, "ignement": 2638, "ailles": 2639, "Ġplac": 2640, "iller": 2641, "ĠMichel": 2642, "antÃ©": 2643, "uments": 2644, "annique": 2645, "Ġseigne": 2646, "Ġpsych": 2647, "Ġlut": 2648, "uritÃ©": 2649, "Ġtravaill": 2650, "ĠCom": 2651, "lent": 2652, "ik": 2653, "ĠNo": 2654, "Ġmarque": 2655, "ĠsÃ©par": 2656, "ĠfÃ©d": 2657, "issant": 2658, "Ġ184": 2659, "rivÃ©e": 2660, "aie": 2661, "Ġ30": 2662, "rige": 2663, "Ġcit": 2664, "Ġsurface": 2665, "ĠcomposÃ©": 2666, "Ġpein": 2667, "prÃ©": 2668, "Ġformes": 2669, "Ġfix": 2670, "ĠÃ©quipe": 2671, "ĠrÃ©fÃ©rence": 2672, "Ġsuper": 2673, "Ġadop": 2674, "Ġforte": 2675, "ĠRou": 2676, "Ġobjet": 2677, "Ġgenre": 2678, "dit": 2679, "Ġ2005": 2680, "Ã¨ve": 2681, "ĠsÃ©c": 2682, "Ġmettre": 2683, "Ã¢ge": 2684, "Ġnorm": 2685, "ĠcinÃ©ma": 2686, "Empire": 2687, "Ġpopulaire": 2688, "Ġfaible": 2689, "Ġpot": 2690, "ivi": 2691, "ĠchrÃ©": 2692, "ĠmarchÃ©": 2693, "Ġchac": 2694, "ager": 2695, "Ġdyn": 2696, "Ġquartier": 2697, "der": 2698, "Ġtransport": 2699, "Ġciv": 2700, "aix": 2701, "Ġ25": 2702, "ĠrÃ©guli": 2703, "ini": 2704, "ae": 2705, "enir": 2706, "Ġoct": 2707, "Ġduc": 2708, "eures": 2709, "gan": 2710, "ril": 2711, "Ġfaisant": 2712, "Ġple": 2713, "Ġban": 2714, "Ġprogramme": 2715, "roche": 2716, "ides": 2717, "Ġ1970": 2718, "ĠchaÃ®": 2719, "aite": 2720, "Ġcomprend": 2721, "ĠtraitÃ©": 2722, "Ġjuin": 2723, "Ġsac": 2724, "stes": 2725, "lande": 2726, "ĠIs": 2727, "alisme": 2728, "homme": 2729, "Ġinform": 2730, "Ġmanif": 2731, "Ġjur": 2732, "yon": 2733, "Ġremar": 2734, "ĠLoire": 2735, "tures": 2736, "abb": 2737, "Ġlangues": 2738, "bourg": 2739, "alistes": 2740, "Ġ?": 2741, "Ġdroits": 2742, "Ġlanc": 2743, "Ġstation": 2744, "cad": 2745, "ĠChine": 2746, "ĠmÃ©dec": 2747, "Ġvolont": 2748, "Ġadap": 2749, "rond": 2750, "Ġprincipaux": 2751, "ĠDi": 2752, "Ġ2017": 2753, "ĠtÃ©m": 2754, "ĠcitÃ©": 2755, "estre": 2756, "ancien": 2757, "spagne": 2758, "oot": 2759, "ĠmÃªmes": 2760, "cteur": 2761, "Ã©mie": 2762, "ĠopÃ©ra": 2763, "Ġlance": 2764, "Ġaccep": 2765, "Ġvoie": 2766, "Ã©ral": 2767, "Ġ2011": 2768, "Ġ+": 2769, "Ġobtient": 2770, "Ġsim": 2771, "exist": 2772, "aci": 2773, "Ġdemand": 2774, "Ġspect": 2775, "ect": 2776, "Ġprofessionn": 2777, "ĠphÃ©nom": 2778, "ĠdÃ©cide": 2779, "Ġbon": 2780, "aide": 2781, "Comme": 2782, "ana": 2783, "enf": 2784, "Ġlibre": 2785, "ĠdÃ©rou": 2786, "ĠdÃ©sormais": 2787, "ĠBer": 2788, "Ġindivi": 2789, "Ġtaille": 2790, "Ġconditions": 2791, "ĠCour": 2792, "Ġfourn": 2793, "Ġquestion": 2794, "Ġvictoire": 2795, "tan": 2796, "ĠpubliÃ©": 2797, "Ġjeunes": 2798, "Ġ183": 2799, "Ġvites": 2800, "tienne": 2801, "tine": 2802, "Ġrespec": 2803, "Ġalli": 2804, "Ġhomme": 2805, "tembre": 2806, "ĠBas": 2807, "ĠdÃ©part": 2808, "Ġsimple": 2809, "ĠRobert": 2810, "rat": 2811, "Ġtotal": 2812, "Ġvit": 2813, "Ġdivis": 2814, "Ã¨tre": 2815, "Ġconsomm": 2816, "ĠBretagne": 2817, "ĠÃ®": 2818, "ĠgÃ©nÃ©rale": 2819, "Ġend": 2820, "Ġparois": 2821, "ĠrÃ©sist": 2822, "Ġbritannique": 2823, "Ġlesque": 2824, "ĠGr": 2825, "Ġconcep": 2826, "aute": 2827, "Ġarm": 2828, "glise": 2829, "veur": 2830, "Ã©min": 2831, "ĠreÃ§oit": 2832, "import": 2833, "Ġmoyen": 2834, "nements": 2835, "ardin": 2836, "utÃ©": 2837, "ball": 2838, "Ġcommenc": 2839, "Ġprise": 2840, "Ã¼": 2841, "ĠMal": 2842, "Ġvoix": 2843, "Ġenreg": 2844, "Ġjuillet": 2845, "ĠdÃ©termin": 2846, "Ġvoyage": 2847, "Ġpersonnage": 2848, "Ġseptembre": 2849, "Ġaucune": 2850, "Ġatteint": 2851, "ĠÅĵuvres": 2852, "ger": 2853, "Union": 2854, "Ġvient": 2855, "Ġfinanci": 2856, "Ġrenf": 2857, "rive": 2858, "Ġvra": 2859, "Ġcharge": 2860, "Ġdessin": 2861, "ĠpÃ©n": 2862, "ĠdÃ©ce": 2863, "Â»": 2864, "Ġcampagne": 2865, "Ġdirige": 2866, "aw": 2867, "ativement": 2868, "iver": 2869, "ley": 2870, "Ġjan": 2871, "Ġartis": 2872, "ĠJapon": 2873, "ĠexpÃ©ri": 2874, "Ġemb": 2875, "obre": 2876, "Ġposte": 2877, "Ġnoir": 2878, "onnes": 2879, "Ġ2016": 2880, "emb": 2881, "ĠParti": 2882, "ĠNic": 2883, "GÃ©": 2884, "ĠrÃ©gime": 2885, "Ġhistorique": 2886, "ĠAd": 2887, "Ġfron": 2888, "ĠcatÃ©g": 2889, "Ġcompagnie": 2890, "Ġital": 2891, "Ġvois": 2892, "Ġmars": 2893, "Ġaffir": 2894, "Ġpassage": 2895, "oÃ¯": 2896, "Ġpie": 2897, "resse": 2898, "ĠHe": 2899, "Ġdel": 2900, "Ġcouv": 2901, "Ġdesc": 2902, "odi": 2903, "ĠsupÃ©rieur": 2904, "Ġpont": 2905, "Ġsource": 2906, "ĠMon": 2907, "Ġcritique": 2908, "Ġstructure": 2909, "Ã¨ge": 2910, "universitÃ©": 2911, "iographie": 2912, "ĠSal": 2913, "ĠdÃ©clar": 2914, "ĠTerre": 2915, "ĠmoitiÃ©": 2916, "ĠHenri": 2917, "ĠâĢĻ": 2918, "Ġdoivent": 2919, "rist": 2920, "Ã´me": 2921, "ĠmalgrÃ©": 2922, "Ġmaire": 2923, "Ġforce": 2924, "Ġprovince": 2925, "ĠCal": 2926, "oser": 2927, "ĠÃ©lu": 2928, "rimoine": 2929, "semblÃ©e": 2930, "Ġ2013": 2931, "ĠPhilippe": 2932, "Ġcommerce": 2933, "Ġinternational": 2934, "Ġappr": 2935, "ĠPays": 2936, "Ġnav": 2937, "Ġprincipe": 2938, "Ġ1960": 2939, "Ġlignes": 2940, "Ġpublique": 2941, "neur": 2942, "ĠamÃ©ricaine": 2943, "ĠsÃ©le": 2944, "ament": 2945, "Ġdirig": 2946, "Ġoccident": 2947, "Ġant": 2948, "Ġdiffic": 2949, "ibli": 2950, "occup": 2951, "Ã¨les": 2952, "aude": 2953, "orth": 2954, "ĠactivitÃ©s": 2955, "Ġtel": 2956, "Ã¶": 2957, "ricul": 2958, "Ã§ant": 2959, "ĠSeine": 2960, "Ġjanvier": 2961, "rir": 2962, "ambre": 2963, "ĠvÃ©rit": 2964, "Ġtechnique": 2965, "ĠRuss": 2966, "Ġmoderne": 2967, "orn": 2968, "orde": 2969, "ĠÃ©l": 2970, "ĠAb": 2971, "Ġ2003": 2972, "Ã¨que": 2973, "Ġred": 2974, "endu": 2975, "Ġrac": 2976, "Ġobserv": 2977, "Ġsorti": 2978, "indi": 2979, "ĠMarc": 2980, "aissent": 2981, "bes": 2982, "uelle": 2983, "Ġsex": 2984, "viennent": 2985, "ustrie": 2986, "ĠauprÃ¨s": 2987, "Ġtoutefois": 2988, "itation": 2989, "Ġrefus": 2990, "Ġforces": 2991, "Ġsortie": 2992, "Ġemploy": 2993, "igue": 2994, "esti": 2995, "Ġmusic": 2996, "ĠdÃ©cembre": 2997, "Ã©cole": 2998, "eb": 2999, "Ġmarch": 3000, "Ġclasse": 3001, "Ġtexte": 3002, "Ġami": 3003, "Ġpresque": 3004, "Ġmontre": 3005, "ociation": 3006, "old": 3007, "Ġaucun": 3008, "rad": 3009, "ĠGar": 3010, "fique": 3011, "ĠapparaÃ®t": 3012, "Ġaband": 3013, "eure": 3014, "ka": 3015, "Ġrivi": 3016, "ĠqualitÃ©": 3017, "ĠSp": 3018, "Ġ2020": 3019, "ĠrÃ¨gne": 3020, "Ġrouge": 3021, "alyse": 3022, "Ġap": 3023, "ertes": 3024, "Ġenti": 3025, "Ġderniers": 3026, "Ġnaissance": 3027, "ouverture": 3028, "opony": 3029, "ĠthÃ©Ã¢tre": 3030, "Ġterres": 3031, "hum": 3032, "Ġpermettent": 3033, "entif": 3034, "ĠlÃ©gisl": 3035, "Ġdessus": 3036, "osph": 3037, "ĠreprÃ©sente": 3038, "Ġchin": 3039, "Ġlorsqu": 3040, "oile": 3041, "Ġpartis": 3042, "Parmi": 3043, "Ġcontribu": 3044, "Ġpuiss": 3045, "agement": 3046, "Ġautor": 3047, "ĠdÃ©ta": 3048, "tice": 3049, "Ġoutre": 3050, "ip": 3051, "album": 3052, "cteurs": 3053, "Ġdemi": 3054, "lon": 3055, "ĠIII": 3056, "anger": 3057, "ĠRom": 3058, "Ġstatut": 3059, "ĠutilisÃ©e": 3060, "ĠYork": 3061, "ĠprocÃ©d": 3062, "Ã©dition": 3063, "ublic": 3064, "ĠLond": 3065, "Ġcourant": 3066, "Ġinternationale": 3067, "Ġmeurt": 3068, "oux": 3069, "rement": 3070, "ĠdÃ©fense": 3071, "Ġvitesse": 3072, "DÃ¨s": 3073, "quÃªte": 3074, "ĠGrande": 3075, "Toute": 3076, "Ġpropose": 3077, "ĠÃ©pouse": 3078, "ĠdÃ©crit": 3079, "Ġplate": 3080, "lÃ¨me": 3081, "Ġ2002": 3082, "atur": 3083, "Ãīglise": 3084, "ĠsiÃ¨cle": 3085, "prise": 3086, "Ġessentiellement": 3087, "ĠmÃ©d": 3088, "Ġgal": 3089, "Ġ!": 3090, "Ġcalcul": 3091, "oun": 3092, "Ġ1999": 3093, "Ġretra": 3094, "Ġtechniques": 3095, "ly": 3096, "Ġ2018": 3097, "avoir": 3098, "Bien": 3099, "Cet": 3100, "Ġannonce": 3101, "Ġlois": 3102, "Ġdistribu": 3103, "ĠOr": 3104, "Ġol": 3105, "Ġpourrait": 3106, "titution": 3107, "Ġ21": 3108, "ustra": 3109, "glom": 3110, "Ġlab": 3111, "Ġnoms": 3112, "ministration": 3113, "Ġreli": 3114, "empereur": 3115, "gique": 3116, "ĠÃ©tablis": 3117, "ĠPal": 3118, "Ġrat": 3119, "Ġbes": 3120, "Ġinstru": 3121, "Ġdispose": 3122, "sements": 3123, "cte": 3124, "Ġpuissance": 3125, "eth": 3126, "Ġphysique": 3127, "Ġcontraire": 3128, "Ġir": 3129, "Ġgaz": 3130, "aritÃ©": 3131, "ires": 3132, "ĠmÃ©m": 3133, "ĠfrÃ©qu": 3134, "Ġcondam": 3135, "rict": 3136, "Ġdra": 3137, "Ãªque": 3138, "Biographie": 3139, "Mal": 3140, "atta": 3141, "Ġrais": 3142, "Ġcertain": 3143, "Ġanciens": 3144, "rale": 3145, "Ġcontemp": 3146, "Ã©tat": 3147, "matique": 3148, "aisse": 3149, "Ġcomte": 3150, "Ġcommande": 3151, "iteur": 3152, "ĠcompÃ©ti": 3153, "Ġjeux": 3154, "ĠDieu": 3155, "Ġ2001": 3156, "ĠcÃ©rÃ©": 3157, "aug": 3158, "ĠFer": 3159, "Allemagne": 3160, "lexand": 3161, "jectif": 3162, "Certains": 3163, "ĠnÃ©cessaire": 3164, "chet": 3165, "han": 3166, "uest": 3167, "ĠappelÃ©e": 3168, "ĠprÃ©cis": 3169, "entiel": 3170, "ĠHar": 3171, "tell": 3172, "Ġpeuple": 3173, "tex": 3174, "Ġfit": 3175, "Ġmilitaires": 3176, "Ex": 3177, "Ġprincipales": 3178, "ĠprotÃ©g": 3179, "Ġautom": 3180, "Ġdomin": 3181, "lev": 3182, "Ġcompar": 3183, "Ġinstall": 3184, "Durant": 3185, "ficie": 3186, "Ġspor": 3187, "Ġchemin": 3188, "Ġmath": 3189, "Ġkil": 3190, "Enfin": 3191, "Ġparticipe": 3192, "nies": 3193, "Ġgare": 3194, "ses": 3195, "Elles": 3196, "riques": 3197, "Ġfonctions": 3198, "Ġconstitue": 3199, "Ġstra": 3200, "Ġrelations": 3201, "Ġcentrale": 3202, "orc": 3203, "Ġconstruit": 3204, "Ġpron": 3205, "Ġchampionn": 3206, "espace": 3207, "ĠcÃ©lÃ¨bre": 3208, "Ġexc": 3209, "occa": 3210, "Ġclassique": 3211, "aste": 3212, "Ġdirectement": 3213, "ctures": 3214, "Ã©h": 3215, "duis": 3216, "ĠcaractÃ¨re": 3217, "Pendant": 3218, "Ã«l": 3219, "Ġsouten": 3220, "Ã©rant": 3221, "Ġprogressi": 3222, "Ġattribu": 3223, "ormes": 3224, "ald": 3225, "ĠmatiÃ¨re": 3226, "Ġ181": 3227, "utilisation": 3228, "Ġsouh": 3229, "tival": 3230, "Ġparties": 3231, "urer": 3232, "Ġcollab": 3233, "ĠGen": 3234, "ĠRo": 3235, "fier": 3236, "Ġchoix": 3237, "Ġpub": 3238, "Ġ50": 3239, "idÃ©e": 3240, "Ġdonner": 3241, "ĠvallÃ©e": 3242, "ĠNouv": 3243, "Ġeaux": 3244, "Ġsold": 3245, "Ĥge": 3246, "Ġchiff": 3247, "ĠÃ©vo": 3248, "lacement": 3249, "ĠFranÃ§ais": 3250, "Ġcirc": 3251, "vembre": 3252, "organisation": 3253, "anie": 3254, "Ġdipl": 3255, "Ġpetits": 3256, "Ġsavoir": 3257, "Ãªtes": 3258, "Ġprobablement": 3259, "Ġtradition": 3260, "ick": 3261, "ĠRoyaume": 3262, "Ġfranc": 3263, "af": 3264, "ral": 3265, "Ãªche": 3266, "Ġsecteur": 3267, "Ġcircul": 3268, "Ġdiffus": 3269, "uy": 3270, "Ġmyth": 3271, "ĠLi": 3272, "chev": 3273, "Je": 3274, "ots": 3275, "ĠBl": 3276, "less": 3277, "Ġmand": 3278, "ilis": 3279, "ĠdÃ©pend": 3280, "Ġheures": 3281, "Ġconfir": 3282, "Ġ180": 3283, "ĠPer": 3284, "ctu": 3285, "ĠcrÃ©Ã©e": 3286, "Entre": 3287, "Ġjapon": 3288, "Ġmode": 3289, "Ġnovembre": 3290, "ĠmathÃ©m": 3291, "lÃ¨mes": 3292, "Ġdevenir": 3293, "Ġespagn": 3294, "Ġromaine": 3295, "orÃ©": 3296, "Ġmasse": 3297, "Ġ24": 3298, "occasion": 3299, "ection": 3300, "tiqu": 3301, "Ġvoire": 3302, "ĠBern": 3303, "Ġlongtemps": 3304, "Ġseigneur": 3305, "Ġoblig": 3306, "Ġcode": 3307, "Ġsomm": 3308, "ĠSeconde": 3309, "ĠJose": 3310, "let": 3311, "entrÃ©e": 3312, "Ã©ros": 3313, "Ġfus": 3314, "rÃ©t": 3315, "ĠMoyen": 3316, "Ġi": 3317, "Ġpersonnages": 3318, "Ġlac": 3319, "estival": 3320, "Ġcontempor": 3321, "Plusieurs": 3322, "ĠSu": 3323, "Ġoctobre": 3324, "Ġsouver": 3325, "Ġpil": 3326, "Ġmajor": 3327, "Ġutilise": 3328, "Ġnavi": 3329, "ĠpiÃ¨ces": 3330, "Ġliber": 3331, "ames": 3332, "Ġprincipale": 3333, "prit": 3334, "ĠmusÃ©e": 3335, "Ġprim": 3336, "Ġtransform": 3337, "anim": 3338, "Ġprotection": 3339, "oies": 3340, "ĠChamp": 3341, "mar": 3342, "nent": 3343, "Ã©nergie": 3344, "ĠcomplÃ¨": 3345, "utes": 3346, "ĠBen": 3347, "ortÃ©": 3348, "Ġdouble": 3349, "aptis": 3350, "ulation": 3351, "ootball": 3352, "Ġaliment": 3353, "Ġenc": 3354, "ĠSar": 3355, "onnÃ©": 3356, "Ġintro": 3357, "Ġmassi": 3358, "reux": 3359, "alise": 3360, "Ġdivision": 3361, "ĠtempÃ©rature": 3362, "ĠCap": 3363, "aisons": 3364, "ĠconnaÃ®t": 3365, "Ġguer": 3366, "Ġense": 3367, "riture": 3368, "yr": 3369, "ossi": 3370, "GÃ©ographie": 3371, "ĠRich": 3372, "Ġcherche": 3373, "Ġdevenu": 3374, "Ġtextes": 3375, "erve": 3376, "Ġamb": 3377, "Ġenfin": 3378, "rire": 3379, "ypoth": 3380, "ĠaÃ©ri": 3381, "Ġthe": 3382, "raine": 3383, "appar": 3384, "Deux": 3385, "ost": 3386, "Ġmission": 3387, "Ġrisque": 3388, "oti": 3389, "ieuse": 3390, "Ġdeme": 3391, "ĠLondres": 3392, "Ġminist": 3393, "Ġsources": 3394, "Ġrestaur": 3395, "ĠdÃ©ch": 3396, "Ġru": 3397, "ĠSc": 3398, "ĠarrÃª": 3399, "Ġfou": 3400, "Ġdiverses": 3401, "cessus": 3402, "Toutefois": 3403, "ulÃ©": 3404, "ĠMartin": 3405, "mont": 3406, "Ġrecons": 3407, "Ġsit": 3408, "lir": 3409, "Ġmic": 3410, "Ġinspi": 3411, "duite": 3412, "Ġentreprises": 3413, "Ġlargement": 3414, "Ġtelle": 3415, "ĠCanada": 3416, "Ġcouleur": 3417, "Ġras": 3418, "Ġall": 3419, "uisse": 3420, "Ġriv": 3421, "ĠMaur": 3422, "ĠMac": 3423, "ĠSte": 3424, "ĠproblÃ¨me": 3425, "ĠAir": 3426, "ĠconsidÃ©ra": 3427, "agÃ©": 3428, "uclÃ©": 3429, "Ġsoutien": 3430, "Ġauteurs": 3431, "Ġpasser": 3432, "Ġ22": 3433, "Ġmanifest": 3434, "lÃ©g": 3435, "Ġproxim": 3436, "Ġ2019": 3437, "Ã©tab": 3438, "archite": 3439, "ĠÃĤge": 3440, "tÃ©rie": 3441, "ĠsÃ©curitÃ©": 3442, "met": 3443, "Ġunique": 3444, "rid": 3445, "000": 3446, "ÃŃ": 3447, "activitÃ©": 3448, "Ġcrise": 3449, "ĠGal": 3450, "ĠCoupe": 3451, "ogne": 3452, "ĠpassÃ©": 3453, "Ġnaturel": 3454, "Ġrendre": 3455, "Ġabs": 3456, "osc": 3457, "Ġlieux": 3458, "Ãīc": 3459, "ĠutilisÃ©s": 3460, "Ġmeilleur": 3461, "Ġjoueurs": 3462, "ina": 3463, "mie": 3464, "chÃ©e": 3465, "Ġprocessus": 3466, "ĠcÅĵur": 3467, "Ġextra": 3468, "ĠproblÃ¨mes": 3469, "umiÃ¨re": 3470, "ĠsantÃ©": 3471, "Ã©tude": 3472, "ĠFor": 3473, "Ġtermes": 3474, "ĠproximitÃ©": 3475, "Ġinflu": 3476, "Ġdirecteur": 3477, "Ġenvoy": 3478, "Ġsang": 3479, "ĠTur": 3480, "Ã©rop": 3481, "Ġgestion": 3482, "tait": 3483, "ducation": 3484, "Ġrang": 3485, "Ã©tiques": 3486, "Ã©lection": 3487, "auteur": 3488, "onneur": 3489, "tt": 3490, "ĠAs": 3491, "itant": 3492, "Angleterre": 3493, "Ġhaute": 3494, "ycl": 3495, "orter": 3496, "Italie": 3497, "Ġnuit": 3498, "Ġrelie": 3499, "ĠÃ©tat": 3500, "Ġsuivi": 3501, "ĠaoÃ»t": 3502, "ĠCro": 3503, "Ġprotest": 3504, "ĠÃ©pis": 3505, "yg": 3506, "arn": 3507, "Ġlocale": 3508, "Ġ40": 3509, "tisme": 3510, "Ġtraitement": 3511, "Ġbande": 3512, "Ġpublie": 3513, "Ġcyc": 3514, "este": 3515, "ĠUni": 3516, "bon": 3517, "Ġprofesse": 3518, "trÃªme": 3519, "Ġtrouver": 3520, "org": 3521, "glomÃ©ration": 3522, "Ã©lect": 3523, "Ġradio": 3524, "50": 3525, "tistes": 3526, "Ġara": 3527, "Ġavril": 3528, "Ġconnue": 3529, "Ġdocument": 3530, "ĠJoseph": 3531, "ĠprÃ©par": 3532, "loitation": 3533, "ĠBou": 3534, "ĠBourg": 3535, "Ġpatrimoine": 3536, "Ġlimite": 3537, "illon": 3538, "ĠBelgique": 3539, "Ġtypes": 3540, "ĠrÃ©pond": 3541, "Ġvicti": 3542, "empl": 3543, "ĠSainte": 3544, "Ġsitue": 3545, "ĠrÃ©alisÃ©": 3546, "Ġferm": 3547, "ĠthÃ©or": 3548, "Ġdoute": 3549, "ibles": 3550, "miques": 3551, "risti": 3552, "Ġmieux": 3553, "ates": 3554, "ĠdÃ©clare": 3555, "Ġregroup": 3556, "Ġquant": 3557, "Ġjournal": 3558, "eurs": 3559, "Ġmariage": 3560, "cal": 3561, "Ġnaturelle": 3562, "Ġsociale": 3563, "intÃ©rieur": 3564, "hÃ´": 3565, "ĠÃ©vÃ©": 3566, "oni": 3567, "Ġterr": 3568, "ĠCas": 3569, "arde": 3570, "Ġmas": 3571, "ories": 3572, "Ġkilom": 3573, "Ġdimin": 3574, "Ġsignifie": 3575, "ĠrÃ©sultats": 3576, "ĠstratÃ©g": 3577, "Ġquelque": 3578, "Ġrepro": 3579, "Ġpresse": 3580, "Ġcertaine": 3581, "roit": 3582, "existence": 3583, "Ġavi": 3584, "Ã¨tes": 3585, "Ġlettres": 3586, "Cela": 3587, "Ġremporte": 3588, "titut": 3589, "Ġvain": 3590, "Ġvu": 3591, "Ġneuf": 3592, "Ġblanc": 3593, "Ġaccompagn": 3594, "arrivÃ©e": 3595, "anche": 3596, "Ġâ": 3597, "Ġloin": 3598, "Ġratta": 3599, "Ġpermis": 3600, "Ġcontinue": 3601, "ĠchaÃ®ne": 3602, "ĠRÃ©volution": 3603, "Ġmach": 3604, "rons": 3605, "andes": 3606, "Ġinv": 3607, "ĠsystÃ¨mes": 3608, "Ġfigure": 3609, "ĠdÃ©signe": 3610, "clus": 3611, "ĠNorm": 3612, "ĠcrÃ©er": 3613, "ĠÃ©volu": 3614, "ĠderniÃ¨res": 3615, "ĠsÃ©lection": 3616, "Ġprince": 3617, "Ġ23": 3618, "ham": 3619, "run": 3620, "ĠMad": 3621, "Ã³": 3622, "ĠdÃ©cid": 3623, "ommun": 3624, "Ġbonne": 3625, "Ġsovi": 3626, "Ã©vrier": 3627, "Ġmots": 3628, "Ġpaix": 3629, "ĠVi": 3630, "Ġfortement": 3631, "Ġallemande": 3632, "gyp": 3633, "Ġrelation": 3634, "Ġfru": 3635, "Ġmaxim": 3636, "ĠdurÃ©e": 3637, "Ġconstr": 3638, "Ġocc": 3639, "ĠLib": 3640, "lÃ¨ve": 3641, "Ġterrain": 3642, "ĠÃ©lÃ©ment": 3643, "ĠinterprÃ©": 3644, "ĠriviÃ¨re": 3645, "ĠPat": 3646, "Åį": 3647, "Ġpape": 3648, "onique": 3649, "ĠrÃ©alitÃ©": 3650, "ige": 3651, "Ġpap": 3652, "ols": 3653, "Ġgros": 3654, "Ġmob": 3655, "by": 3656, "Ġreti": 3657, "Ġcircons": 3658, "Ġseront": 3659, "ĠfÃ©min": 3660, "ĠTe": 3661, "dent": 3662, "arque": 3663, "Ġdispon": 3664, "Ġchasse": 3665, "ronique": 3666, "ĠEd": 3667, "ĠFl": 3668, "Ġlivres": 3669, "rondissement": 3670, "Ġbour": 3671, "iment": 3672, "culp": 3673, "Ġsciences": 3674, "Ġintit": 3675, "Ġ1950": 3676, "Ġurbaine": 3677, "iblioth": 3678, "Ġbomb": 3679, "Ġinstitu": 3680, "Ã©tend": 3681, "Ġvend": 3682, "ĠChrist": 3683, "ĠscÃ©n": 3684, "ĠhÃ´": 3685, "cule": 3686, "Ã©conomie": 3687, "Est": 3688, "olf": 3689, "Ġtitres": 3690, "ĠnuclÃ©": 3691, "ĠVic": 3692, "Ġscientifique": 3693, "Ġdifficul": 3694, "olas": 3695, "Ġjoueur": 3696, "ĠGau": 3697, "Ġolymp": 3698, "oncÃ©": 3699, "Ġdoll": 3700, "ival": 3701, "Ġcompris": 3702, "oÃ¹": 3703, "Ġgagn": 3704, "uste": 3705, "Ġparle": 3706, "Ġconflit": 3707, "ĠRussie": 3708, "ĠDel": 3709, "Ġcatholique": 3710, "Ġtrou": 3711, "otes": 3712, "Ġsurn": 3713, "ao": 3714, "tention": 3715, "MalgrÃ©": 3716, "quÃ©s": 3717, "ĠrÃ©parti": 3718, "ĠGuill": 3719, "Ġreligieux": 3720, "anniques": 3721, "ĠGeorges": 3722, "quet": 3723, "arition": 3724, "Ġconduit": 3725, "tug": 3726, "industrie": 3727, "ĠNouvelle": 3728, "Ġdifficile": 3729, "ash": 3730, "Ġindividu": 3731, "berg": 3732, "Ġ178": 3733, "Ġproven": 3734, "Ã©rÃ©e": 3735, "ĠNap": 3736, "ĠfÃ©vrier": 3737, "Ġjui": 3738, "Ġmi": 3739, "Ġchampionnat": 3740, "chant": 3741, "install": 3742, "Ġfavor": 3743, "Ġfle": 3744, "administration": 3745, "ĠÃ©cl": 3746, "Ġaf": 3747, "tÃ©e": 3748, "ĠFranc": 3749, "Ġveut": 3750, "tiens": 3751, "entielle": 3752, "ĠClaude": 3753, "ĠTour": 3754, "agnes": 3755, "tiennent": 3756, "Ġbourg": 3757, "ĠBeau": 3758, "Ġand": 3759, "Ġbran": 3760, "accord": 3761, "ĠChe": 3762, "ĠÃ®les": 3763, "atifs": 3764, "Ġconver": 3765, "Ġreprend": 3766, "Re": 3767, "ĠcapacitÃ©": 3768, "Ġfaci": 3769, "Ġorgan": 3770, "Ġ1998": 3771, "uer": 3772, "ood": 3773, "tionnelle": 3774, "texte": 3775, "iÃ©e": 3776, "Ġcroissance": 3777, "Ġpression": 3778, "Ġstu": 3779, "of": 3780, "Ã©si": 3781, "ĠlumiÃ¨re": 3782, "Ġnob": 3783, "oleil": 3784, "Ġgraph": 3785, "Ġdistrict": 3786, "Ġconv": 3787, "nÃ©es": 3788, "Ġclimat": 3789, "Ġjuge": 3790, "ĠvÃ©ritable": 3791, "Ġlongueur": 3792, "Ġcomporte": 3793, "ĠreprÃ©sentant": 3794, "Ġfro": 3795, "Ġordre": 3796, "Ġconsul": 3797, "tionnel": 3798, "Ġquanti": 3799, "iz": 3800, "log": 3801, "gÃ©e": 3802, "Ġchacun": 3803, "ĠimpÃ©ri": 3804, "Ġnos": 3805, "Ġillus": 3806, "aves": 3807, "Ġcheval": 3808, "ĠvidÃ©": 3809, "ardi": 3810, "ĠSan": 3811, "Ġsalle": 3812, "ĠdÃ©tru": 3813, "ĠtÃ©lÃ©vision": 3814, "Ġhyd": 3815, "ĠcollÃ¨": 3816, "ĠTra": 3817, "argent": 3818, "Ġsocial": 3819, "Ġvia": 3820, "Ġapparten": 3821, "Ġbel": 3822, "Ġplantes": 3823, "Espagne": 3824, "raient": 3825, "onyme": 3826, "ulture": 3827, "Ġ1995": 3828, "ĠmÃ©thode": 3829, "Ġhors": 3830, "Ġdiscip": 3831, "Ġbal": 3832, "Ġmalad": 3833, "riculture": 3834, "ĠdÃ©cision": 3835, "Ġfonctionn": 3836, "ber": 3837, "ĠmaÃ®tre": 3838, "ension": 3839, "Ġautant": 3840, "ĠLu": 3841, "Ġ182": 3842, "Afrique": 3843, "ctes": 3844, "Ġarriv": 3845, "illiam": 3846, "oe": 3847, "Ġtelles": 3848, "Ġromain": 3849, "ĠÃ©criv": 3850, "Ġlettre": 3851, "trÃ©": 3852, "Ġconcur": 3853, "Ġnour": 3854, "Ã©taire": 3855, "Ġgarde": 3856, "ks": 3857, "ĠFre": 3858, "imm": 3859, "ĠSer": 3860, "Ġsouff": 3861, "Ġfour": 3862, "Ġcomment": 3863, "ĠfranÃ§aises": 3864, "Ġsensi": 3865, "ĠdÃ©li": 3866, "ĠactivitÃ©": 3867, "iki": 3868, "ĠconÃ§": 3869, "ĠcÃ´tÃ©s": 3870, "ĠSuisse": 3871, "ĠSoci": 3872, "Ġarchite": 3873, "Ġpalais": 3874, "Ġvoul": 3875, "sc": 3876, "dien": 3877, "Ġfootball": 3878, "verse": 3879, "Ġvir": 3880, "Ġsubs": 3881, "Ġsites": 3882, "Ġpierre": 3883, "Ġait": 3884, "influence": 3885, "Ã©tro": 3886, "Ġpied": 3887, "Ã©sie": 3888, "oue": 3889, "Ġhist": 3890, "Ġgerm": 3891, "Ġgard": 3892, "Ġbassin": 3893, "Ġriches": 3894, "Ġmol": 3895, "Ġfi": 3896, "Ġjuridi": 3897, "Ġhistoire": 3898, "arie": 3899, "Ġterritori": 3900, "Ġrien": 3901, "ĠdÃ©t": 3902, "Ad": 3903, "ĠÃ©coles": 3904, "ĠphÃ©nomÃ¨ne": 3905, "ĠeuropÃ©en": 3906, "Ġpouvant": 3907, "ĠMer": 3908, "Ġconten": 3909, "osse": 3910, "Is": 3911, "Ġvous": 3912, "avid": 3913, "Ġrejoint": 3914, "truction": 3915, "Ġchanson": 3916, "itime": 3917, "ĠEl": 3918, "Ġlimit": 3919, "Ġsorte": 3920, "ĠlibertÃ©": 3921, "ĠrÃ©public": 3922, "fici": 3923, "ĠsupÃ©rieure": 3924, "Ġdite": 3925, "Ġsauv": 3926, "reuve": 3927, "urÃ©e": 3928, "Ġpuisque": 3929, "tements": 3930, "ĠpiÃ¨ce": 3931, "iennes": 3932, "Ġconcerne": 3933, "onse": 3934, "inaire": 3935, "Ġdimen": 3936, "ĠLyon": 3937, "aval": 3938, "ĠQuÃ©b": 3939, "ĠkilomÃ¨tres": 3940, "Ġble": 3941, "omin": 3942, "Ġvo": 3943, "Ġcommunication": 3944, "Ġrelativement": 3945, "olitique": 3946, "fait": 3947, "Ġimportants": 3948, "Ġdispos": 3949, "uration": 3950, "ĠlittÃ©rature": 3951, "Ã©nie": 3952, "Ġtest": 3953, "Ã©die": 3954, "Ġterritoires": 3955, "ĠmÃ¨tres": 3956, "ĠNormand": 3957, "gel": 3958, "Ġconnaissance": 3959, "Ġsculp": 3960, "Ġconcent": 3961, "Ġanimaux": 3962, "ĠnÃ©anmoins": 3963, "Ã©hic": 3964, "Ġpermettre": 3965, "ĠSav": 3966, "Ġpopulations": 3967, "Ġchev": 3968, "ĠrÃ©uss": 3969, "Ġcontinent": 3970, "landais": 3971, "Ã©rÃ©s": 3972, "Ġprofit": 3973, "Ġmusul": 3974, "Alors": 3975, "Ġsoldats": 3976, "Ġsigne": 3977, "Ġdollars": 3978, "ĠÃ©quip": 3979, "Ġregroupe": 3980, "Ġparlement": 3981, "Ġ1997": 3982, "ĠVer": 3983, "Ġreprises": 3984, "sui": 3985, "ĠCo": 3986, "actu": 3987, "usage": 3988, "Ġdiv": 3989, "Ġofficiellement": 3990, "chement": 3991, "ĠÃ©li": 3992, "Ġbless": 3993, "ĠMus": 3994, "rient": 3995, "Ġ1992": 3996, "elli": 3997, "Ġcentral": 3998, "Ġgrav": 3999, "Ã©f": 4000, "Ġfront": 4001, "ĠBlan": 4002, "ancienne": 4003, "Ġspati": 4004, "Ġrusse": 4005, "etÃ©": 4006, "Ġsoient": 4007, "Ġ26": 4008, "tig": 4009, "Ġdevait": 4010, "uil": 4011, "Ġvisite": 4012, "Ġ100": 4013, "cier": 4014, "Ġquasi": 4015, "Ġarrive": 4016, "line": 4017, "Ġchapelle": 4018, "Ġpoursui": 4019, "ave": 4020, "ker": 4021, "ĠsecrÃ©t": 4022, "Ġobjets": 4023, "Ġquitte": 4024, "Ġdynas": 4025, "rÃ©g": 4026, "Ġmoyens": 4027, "Ġhistoriques": 4028, "Fin": 4029, "Ġsuivantes": 4030, "riÃ¨me": 4031, "arer": 4032, "ĠdÃ©couverte": 4033, "ĠrÃ©ser": 4034, "Ġsuit": 4035, "alisÃ©": 4036, "Ġposi": 4037, "Ġparce": 4038, "Ġattest": 4039, "Ġconcernant": 4040, "Ġcivi": 4041, "enseignement": 4042, "ĠVill": 4043, "Ã¨g": 4044, "Ġvont": 4045, "Ġmondial": 4046, "Ġpropres": 4047, "commun": 4048, "orer": 4049, "ombre": 4050, "ĠAug": 4051, "ĠQuÃ©bec": 4052, "Ġrur": 4053, "ĠindÃ©pend": 4054, "guer": 4055, "Ġdistance": 4056, "gypte": 4057, "positions": 4058, "Ġscience": 4059, "entreprise": 4060, "Ġstade": 4061, "ĠAt": 4062, "Ġsimil": 4063, "Ġcritiques": 4064, "ĠMil": 4065, "Ġmorts": 4066, "ĠdÃ©riv": 4067, "ĠBal": 4068, "ourt": 4069, "na": 4070, "ĠvÃ©hic": 4071, "Ġchinois": 4072, "ĠLuc": 4073, "roy": 4074, "ĠCentre": 4075, "mission": 4076, "Ġmaladie": 4077, "ĠcompÃ©t": 4078, "ĠconstituÃ©": 4079, "Ġhauteur": 4080, "Ġlogici": 4081, "ources": 4082, "habit": 4083, "Ġray": 4084, "liquer": 4085, "ticles": 4086, "Ġtableau": 4087, "mation": 4088, "ky": 4089, "ĠdÃ©veloppe": 4090, "Ġfutur": 4091, "ope": 4092, "ueil": 4093, "Ġarticle": 4094, "SA": 4095, "ĠrÃ©fÃ©r": 4096, "ĠtournÃ©e": 4097, "ĠJeux": 4098, "Ġphilosophie": 4099, "ĠrÃ©guliÃ¨rement": 4100, "ĠVille": 4101, "Pro": 4102, "ott": 4103, "ĠMin": 4104, "ĠAllemagne": 4105, "yst": 4106, "Ġlutte": 4107, "ĠPol": 4108, "oses": 4109, "Ġglob": 4110, "Ġvin": 4111, "ĠrÃ©t": 4112, "intÃ©rÃªt": 4113, "Ġretrouv": 4114, "ĠPont": 4115, "Ġtient": 4116, "ĠGre": 4117, "rass": 4118, "riche": 4119, "Ġdiss": 4120, "ĠcontrÃ´": 4121, "ĠEst": 4122, "Ġfabric": 4123, "Ġbure": 4124, "Ġphase": 4125, "Ġ28": 4126, "mÃ©di": 4127, "Ġtend": 4128, "da": 4129, "Ġ1996": 4130, "19": 4131, "Ġeffets": 4132, "10": 4133, "Ġpetites": 4134, "ĠimmÃ©di": 4135, "Ġcouleurs": 4136, "Ġmouvements": 4137, "Ġanciennes": 4138, "opÃ©ration": 4139, "emple": 4140, "ĠÎ": 4141, "Ġroyale": 4142, "hÃ©": 4143, "Ġculte": 4144, "ĠcaractÃ©ristiques": 4145, "ologne": 4146, "Ġmauv": 4147, "assement": 4148, "ĠÃ©conomiques": 4149, "Ġlangage": 4150, "ĠfrontiÃ¨re": 4151, "Ġlyc": 4152, "Ġpublics": 4153, "Ġjouer": 4154, "Ġspectac": 4155, "don": 4156, "ĠFin": 4157, "ĠGuillaume": 4158, "ĠcÃ´te": 4159, "auc": 4160, "ores": 4161, "Ġfisc": 4162, "riers": 4163, "nex": 4164, "Ġcontient": 4165, "Ġquoti": 4166, "ĠJu": 4167, "ĠGi": 4168, "Ġnouvel": 4169, "ĠmÃ©tro": 4170, "Ġeut": 4171, "Ġcomplexe": 4172, "Ġfamilles": 4173, "Ã©gÃ©t": 4174, "ĠDu": 4175, "ĠprÃª": 4176, "omÃ©t": 4177, "ĠWilliam": 4178, "Ġreligion": 4179, "Ġmunicipal": 4180, "Ã©ritÃ©": 4181, "Ġ1994": 4182, "Ġax": 4183, "rance": 4184, "ĠvolontÃ©": 4185, "Ġcop": 4186, "Ġsing": 4187, "ĠDen": 4188, "Ġcell": 4189, "Ã©roport": 4190, "Ã©pendance": 4191, "Ġmesures": 4192, "Ġproches": 4193, "article": 4194, "Ġimportantes": 4195, "Ġpoi": 4196, "Ġappro": 4197, "omas": 4198, "Ġquin": 4199, "Ġoppos": 4200, "Ġminim": 4201, "ĠIl": 4202, "ommÃ©": 4203, "olÃ©on": 4204, "ĠBon": 4205, "Ġul": 4206, "Ġprofesseur": 4207, "ĠdÃ©signer": 4208, "vie": 4209, "unesse": 4210, "Ġexplo": 4211, "ĠcomposÃ©e": 4212, "Ġmaisons": 4213, "Ġscientifiques": 4214, "ĠcrÃ©e": 4215, "Ġvoc": 4216, "ĠconsidÃ¨re": 4217, "Ġappare": 4218, "Ġtrouvent": 4219, "ĠbÃ¢timents": 4220, "cÃ©": 4221, "igh": 4222, "ĠGl": 4223, "onnement": 4224, "Ġidentif": 4225, "Ġsuffis": 4226, "chÃ©s": 4227, "nov": 4228, "ault": 4229, "oyer": 4230, "Ġprojets": 4231, "Ġpage": 4232, "ĠbÃ¢timent": 4233, "ĠforÃªt": 4234, "Ġaction": 4235, "orb": 4236, "Ġconcept": 4237, "Ġrevanche": 4238, "ications": 4239, "ĠchargÃ©": 4240, "Ġlesquels": 4241, "ĠpossÃ©d": 4242, "pital": 4243, "ensitÃ©": 4244, "Ġsenti": 4245, "ung": 4246, "ernes": 4247, "ĠrÃ©serv": 4248, "ey": 4249, "ting": 4250, "rÃ©sil": 4251, "ĠprÃ©d": 4252, "seurs": 4253, "Ġmur": 4254, "vid": 4255, "ĠDavid": 4256, "Ġnotion": 4257, "ĠvÃ©gÃ©t": 4258, "Ġperform": 4259, "ĠrÃ©sultat": 4260, "Ġfusion": 4261, "Ġarmes": 4262, "fort": 4263, "ĠderriÃ¨re": 4264, "Ġfleuve": 4265, "ama": 4266, "ĠmÃ©moire": 4267, "udg": 4268, "aris": 4269, "Ġparticul": 4270, "Ġstand": 4271, "Ġ27": 4272, "ĠfondÃ©e": 4273, "Ġsouverain": 4274, "exploitation": 4275, "Ġsyndic": 4276, "Ġpolice": 4277, "Ġtotale": 4278, "ĠCong": 4279, "Ġchute": 4280, "Ġactuelle": 4281, "ĠToul": 4282, "Ġvaleurs": 4283, "rup": 4284, "aph": 4285, "honneur": 4286, "ĠnumÃ©ro": 4287, "iÃ©s": 4288, "ino": 4289, "Ġchangement": 4290, "Ġrevient": 4291, "ĠSam": 4292, "venir": 4293, "ĠEx": 4294, "ĠÃ©levÃ©": 4295, "Ġoffre": 4296, "ĠamÃ©li": 4297, "Sous": 4298, "eter": 4299, "Ġcontexte": 4300, "cessi": 4301, "main": 4302, "Ġuniquement": 4303, "Ġparall": 4304, "Ġfaveur": 4305, "Ġreb": 4306, "Ġpropor": 4307, "axe": 4308, "ett": 4309, "Ġactuellement": 4310, "Ġcourse": 4311, "ĠMi": 4312, "Ġreine": 4313, "Quel": 4314, "ĠStra": 4315, "Ġhumaine": 4316, "Ġmandat": 4317, "Ġmanque": 4318, "avait": 4319, "Ġcam": 4320, "mond": 4321, "utÃ©s": 4322, "tiÃ¨res": 4323, "ĠquatriÃ¨me": 4324, "Ġrapide": 4325, "Ġexplique": 4326, "ĠBro": 4327, "uff": 4328, "Ġ1993": 4329, "ĠdÃ©mont": 4330, "ĠAnt": 4331, "nÃ©e": 4332, "Ġparents": 4333, "ĠexÃ©cu": 4334, "Ġling": 4335, "unitÃ©": 4336, "ĠBour": 4337, "Ġprogressivement": 4338, "Ġmonuments": 4339, "mon": 4340, "ĠItalie": 4341, "Ġparis": 4342, "Ġmagn": 4343, "Du": 4344, "ĠPremier": 4345, "NÃ©": 4346, "quÃ©es": 4347, "Ġvoies": 4348, "ĠDes": 4349, "ĠNicolas": 4350, "ĠPremiÃ¨re": 4351, "oiles": 4352, "acte": 4353, "oirs": 4354, "Ġchan": 4355, "ĠentiÃ¨rement": 4356, "ĠdÃ©finition": 4357, "importance": 4358, "intÃ©g": 4359, "Ġx": 4360, "omes": 4361, "Ġmoteur": 4362, "Ġlocaux": 4363, "ĠThÃ©": 4364, "Ġconstruire": 4365, "Ġ1991": 4366, "ĠdelÃł": 4367, "Ins": 4368, "avantage": 4369, "Ġcab": 4370, "ĠDan": 4371, "Ġjustice": 4372, "ed": 4373, "range": 4374, "enses": 4375, "image": 4376, "Ġparoisse": 4377, "ĠÃ©cole": 4378, "ĠrÃ¨gles": 4379, "ĠÂ°": 4380, "ives": 4381, "tionnaire": 4382, "aune": 4383, "ĠÃ©d": 4384, "ĠÃ©lectrique": 4385, "Ġdirect": 4386, "Ġinaug": 4387, "ario": 4388, "Ġrecord": 4389, "agglomÃ©ration": 4390, "Ġguerres": 4391, "ĠidÃ©": 4392, "ĠreÃ§u": 4393, "Ġinves": 4394, "ĠNormandie": 4395, "Ġsert": 4396, "Ġsection": 4397, "pole": 4398, "Ġexcep": 4399, "endra": 4400, "lissement": 4401, "Ġ1989": 4402, "ĠIV": 4403, "ĠappelÃ©s": 4404, "Ġcontrat": 4405, "Ġremont": 4406, "gg": 4407, "Ġlaisse": 4408, "Ġchant": 4409, "Ġprati": 4410, "cupe": 4411, "Ġpeine": 4412, "ĠrÃ©alise": 4413, "ĠvidÃ©o": 4414, "utre": 4415, "Car": 4416, "Ġpois": 4417, "Ġfid": 4418, "ĠamÃ©ricains": 4419, "Ġprofond": 4420, "ĠÃ©tude": 4421, "iale": 4422, "Ã§a": 4423, "Politique": 4424, "ĠdiffÃ©rence": 4425, "ĠSim": 4426, "ĠdÃ»": 4427, "Ġautoris": 4428, "eld": 4429, "ĠLor": 4430, "ĠmÃ©tal": 4431, "itude": 4432, "ĠsiÃ¨cles": 4433, "ĠPor": 4434, "30": 4435, "airement": 4436, "fice": 4437, "stru": 4438, "Ġdomaines": 4439, "ommage": 4440, "ĠcomtÃ©": 4441, "ura": 4442, "Ġvote": 4443, "Ġloge": 4444, "Ġtribun": 4445, "Ġtombe": 4446, "ES": 4447, "ries": 4448, "tim": 4449, "Leur": 4450, "ĠdÃ©cret": 4451, "ola": 4452, "Ġpauv": 4453, "Ġ60": 4454, "Ġassi": 4455, "ousse": 4456, "chent": 4457, "ĠtÃ©moign": 4458, "ĠcÃ©lÃ©": 4459, "AssemblÃ©e": 4460, "Ġcivil": 4461, "Ġraisons": 4462, "ĠMag": 4463, "Ġscol": 4464, "Ġbiblioth": 4465, "ĠsecrÃ©taire": 4466, "uves": 4467, "Ġnotre": 4468, "Ġsoi": 4469, "auss": 4470, "Ġbout": 4471, "Ġtermine": 4472, "iner": 4473, "information": 4474, "ĠarmÃ©e": 4475, "Ġmentionn": 4476, "amique": 4477, "ĠremplacÃ©": 4478, "uri": 4479, "astique": 4480, "Ġconsiste": 4481, "ĠÃītat": 4482, "ĠcompÃ©tition": 4483, "Ġalg": 4484, "indÃ©pendance": 4485, "ĠdÃ©faite": 4486, "reuse": 4487, "ney": 4488, "Ġformer": 4489, "Ġsommet": 4490, "Ġmodifi": 4491, "Ġ1988": 4492, "Ġmontagne": 4493, "oÃ®": 4494, "gent": 4495, "Lorsque": 4496, "ĠrÃ©volution": 4497, "Ġpouvait": 4498, "Ġconception": 4499, "Ġdiscours": 4500, "Ġfavoris": 4501, "Ġfic": 4502, "ĠGerm": 4503, "Ġprivil": 4504, "occupation": 4505, "ĠAndrÃ©": 4506, "Ab": 4507, "ark": 4508, "Ġcarb": 4509, "Ġconsommation": 4510, "Ġdessous": 4511, "cadÃ©mie": 4512, "ĠRichard": 4513, "mentation": 4514, "chi": 4515, "Ġperman": 4516, "blement": 4517, "ĠrÃ©volu": 4518, "Ġmarchand": 4519, "İle": 4520, "Ġfondament": 4521, "Ġeffic": 4522, "ĠsoviÃ©tique": 4523, "Ġtre": 4524, "Ġbret": 4525, "Ġcultiv": 4526, "ĠvariÃ©tÃ©": 4527, "Ġouvert": 4528, "Ġmess": 4529, "ĠrÃ©sistance": 4530, "oponymie": 4531, "Celui": 4532, "Ġmonument": 4533, "ommes": 4534, "orce": 4535, "ĠAlexand": 4536, "Se": 4537, "iterran": 4538, "Ġadministration": 4539, "Ġprofonde": 4540, "Â«": 4541, "ĠnÃ©goci": 4542, "rix": 4543, "ĠCent": 4544, "chec": 4545, "Ġofficielle": 4546, "Ãīcole": 4547, "onner": 4548, "Ġsubst": 4549, "lation": 4550, "Ġcourt": 4551, "ity": 4552, "itre": 4553, "Ġnu": 4554, "Ġbudg": 4555, "Ã¨dent": 4556, "Ġocca": 4557, "Ġlic": 4558, "Ġ1930": 4559, "Ġmass": 4560, "Ġutilisant": 4561, "Ġenregist": 4562, "Ġparvient": 4563, "Ġartistes": 4564, "Ġradic": 4565, "Ġpoids": 4566, "Ġpassant": 4567, "ĠSÃ©n": 4568, "Ġpay": 4569, "Ġatti": 4570, "Ġcos": 4571, "Ġouvrage": 4572, "Ġsuperficie": 4573, "alisÃ©e": 4574, "Ġrecherches": 4575, "Et": 4576, "Ġcer": 4577, "Ġrejet": 4578, "Ġportant": 4579, "intes": 4580, "Ġrenouv": 4581, "Ġ|": 4582, "ume": 4583, "Ã©dÃ©ration": 4584, "Ġaccueille": 4585, "Ġcui": 4586, "anges": 4587, "Ġmine": 4588, "Ġfamili": 4589, "bi": 4590, "abbaye": 4591, "dou": 4592, "Ġjaponais": 4593, "ĠLigue": 4594, "actions": 4595, "Ġinscrit": 4596, "Ġbasse": 4597, "oug": 4598, "Ġnul": 4599, "Ġsemaines": 4600, "irent": 4601, "unis": 4602, "Ġcomposition": 4603, "onge": 4604, "Ġdevint": 4605, "Ġlaiss": 4606, "ĠHaute": 4607, "Puis": 4608, "Ġincl": 4609, "archie": 4610, "Ġdistingue": 4611, "expression": 4612, "lications": 4613, "Ã©criture": 4614, "Ġcivile": 4615, "Ġtrain": 4616, "telle": 4617, "ĠPort": 4618, "tenir": 4619, "lines": 4620, "Ġsynth": 4621, "ortement": 4622, "Ġrive": 4623, "ĠmÃ©n": 4624, "Ġsuivants": 4625, "Ġ&": 4626, "Ġnote": 4627, "Ġaccus": 4628, "orph": 4629, "lisation": 4630, "Ġjuste": 4631, "Ġsomme": 4632, "Ġcalend": 4633, "Ġtente": 4634, "Ag": 4635, "Con": 4636, "ĠquantitÃ©": 4637, "ĠbÃ©nÃ©fici": 4638, "ĠLÃ©on": 4639, "Ġafric": 4640, "ĠunitÃ©": 4641, "ĠBra": 4642, "ĠarmÃ©es": 4643, "ague": 4644, "ĠNation": 4645, "Ġpati": 4646, "SS": 4647, "appel": 4648, "ricoles": 4649, "Ġcra": 4650, "acteur": 4651, "ata": 4652, "rence": 4653, "umes": 4654, "Ġdiz": 4655, "arrondissement": 4656, "Ġsuccessi": 4657, "ĠcathÃ©d": 4658, "Ġsols": 4659, "Ġaspect": 4660, "Ġdiver": 4661, "Ġexploit": 4662, "absence": 4663, "Ġagricoles": 4664, "Ġressources": 4665, "Ġsouhait": 4666, "clam": 4667, "ĠMc": 4668, "Ġcaus": 4669, "erse": 4670, "Ġ1945": 4671, "AcadÃ©mie": 4672, "ĠGeorge": 4673, "Ġast": 4674, "ĠFont": 4675, "Ġminutes": 4676, "AmÃ©rique": 4677, "Ġcollection": 4678, "Ġtransports": 4679, "ĠfrÃ¨res": 4680, "Quelques": 4681, "ĠmÃ¢": 4682, "Ġhos": 4683, "Ġinfluence": 4684, "Ġconcert": 4685, "Ġriche": 4686, "isp": 4687, "Ġpartage": 4688, "und": 4689, "Ġgro": 4690, "Ġ29": 4691, "Ġdevenue": 4692, "Ġespace": 4693, "ĠrÃ©di": 4694, "ĠÃ©quipes": 4695, "Ġsocialiste": 4696, "olis": 4697, "paravant": 4698, "ommÃ©e": 4699, "Ġactuel": 4700, "entin": 4701, "Ass": 4702, "ĠsociÃ©tÃ©s": 4703, "ieuses": 4704, "atrice": 4705, "ypothÃ¨se": 4706, "ĠAg": 4707, "ĠDame": 4708, "ĠrÃ©aliser": 4709, "cession": 4710, "Ġcommuniste": 4711, "Ġnobles": 4712, "ĠdÃ©cor": 4713, "erce": 4714, "ĠThomas": 4715, "accÃ¨s": 4716, "ĠreprÃ©sentation": 4717, "Ġpourtant": 4718, "Ġ177": 4719, "autÃ©s": 4720, "isser": 4721, "anth": 4722, "ĠBri": 4723, "ĠmodÃ¨les": 4724, "ĠWe": 4725, "Ġtemple": 4726, "Ġlocal": 4727, "Äģ": 4728, "Ġ80": 4729, "ologue": 4730, "Ġhabitu": 4731, "Ġ31": 4732, "Ġchansons": 4733, "ĠautoritÃ©s": 4734, "Ġdynastie": 4735, "ĠconsidÃ©rÃ©e": 4736, "Ġforment": 4737, "onnÃ©e": 4738, "Ġnavig": 4739, "Ġquartiers": 4740, "Ġvolu": 4741, "Ġbate": 4742, "Ġcandidat": 4743, "ĠSa": 4744, "Ġral": 4745, "tension": 4746, "ancer": 4747, "ĠfaÃ§": 4748, "Ġrares": 4749, "Ġdrape": 4750, "Ġdiffusion": 4751, "Ġexprim": 4752, "ĠBernard": 4753, "Ġfaisait": 4754, "ĠdÃ©di": 4755, "dre": 4756, "ĠfondÃ©": 4757, "Ġvice": 4758, "Ġparler": 4759, "ĠpropriÃ©tÃ©s": 4760, "tte": 4761, "ĠpÃªche": 4762, "Ġamp": 4763, "olue": 4764, "Ġgouverneur": 4765, "Ġdistribution": 4766, "Ġbesoin": 4767, "ĠlibÃ©ra": 4768, "ĠhÃ©ros": 4769, "Ġsimplement": 4770, "iciens": 4771, "Ġconstruite": 4772, "Ã»te": 4773, "ĠDon": 4774, "ĠMax": 4775, "ĠutilisÃ©es": 4776, "analyse": 4777, "ĠMex": 4778, "Ġobtenir": 4779, "Chaque": 4780, "Ã©sar": 4781, "ĠfÃªte": 4782, "Ġnoy": 4783, "Ġconj": 4784, "Ġtiers": 4785, "Ġarts": 4786, "Ġentou": 4787, "ĠidÃ©es": 4788, "geois": 4789, "Ġvivant": 4790, "Ġorth": 4791, "Ġcong": 4792, "Ãīt": 4793, "DÃ©m": 4794, "osphÃ¨re": 4795, "veill": 4796, "pt": 4797, "utation": 4798, "Ġ1982": 4799, "ĠdÃ©cis": 4800, "ĠVen": 4801, "Ġarticles": 4802, "ĠKar": 4803, "ider": 4804, "Ġcouple": 4805, "Ġsch": 4806, "Ġhi": 4807, "ĠsupplÃ©ment": 4808, "ube": 4809, "ĠpensÃ©e": 4810, "ĠconsÃ©quence": 4811, "ĠGra": 4812, "Ġnombres": 4813, "Ġinvent": 4814, "ulg": 4815, "uler": 4816, "Ġsymp": 4817, "Ġmaintenant": 4818, "ize": 4819, "altitude": 4820, "Ġseuls": 4821, "ĠÃ©vÃ©nements": 4822, "ĠPr": 4823, "Ġproduire": 4824, "Ġcontact": 4825, "kh": 4826, "Cont": 4827, "istorique": 4828, "Ġenvironnement": 4829, "ĠespÃ¨ce": 4830, "euros": 4831, "Ġ1986": 4832, "Ġissu": 4833, "ĠInter": 4834, "Ġpersonnel": 4835, "auff": 4836, "60": 4837, "ĠDou": 4838, "Ġnavires": 4839, "Ġlie": 4840, "Ġvaste": 4841, "ĠBrit": 4842, "Ġfant": 4843, "Ġappelle": 4844, "ĠPrÃ©": 4845, "Ġvente": 4846, "Ġrece": 4847, "arb": 4848, "Ġcanal": 4849, "Ġrespectivement": 4850, "Ġcommercial": 4851, "ĠsÅĵur": 4852, "rime": 4853, "ĠdÃ©velopper": 4854, "NC": 4855, "seaux": 4856, "Ġpuisqu": 4857, "Ġdouze": 4858, "aniques": 4859, "Ġaltern": 4860, "'s": 4861, "Ġparten": 4862, "Avant": 4863, "onniers": 4864, "Ġmeilleure": 4865, "Ġajou": 4866, "Ġsupport": 4867, "Ġcerc": 4868, "oliques": 4869, "Ġclassement": 4870, "Ġsatell": 4871, "pin": 4872, "Ġindique": 4873, "Ġrefuse": 4874, "Com": 4875, "ĠMaurice": 4876, "ĠAngleterre": 4877, "ĠrÃ©forme": 4878, "ĠCam": 4879, "agriculture": 4880, "Ġfonde": 4881, "Ġfestival": 4882, "ĠÃ©limin": 4883, "Ġfeuilles": 4884, "ĠimmÃ©diate": 4885, "Ġ1940": 4886, "the": 4887, "eries": 4888, "Ġ1968": 4889, "Ġsignal": 4890, "AC": 4891, "tir": 4892, "Ġbre": 4893, "Ġsauf": 4894, "Ġdemeure": 4895, "21": 4896, "Ġfranch": 4897, "Ġnaturels": 4898, "illy": 4899, "erci": 4900, "ĠWal": 4901, "yra": 4902, "ricole": 4903, "environnement": 4904, "Ġfonctionnement": 4905, "ĠpossibilitÃ©": 4906, "Ġang": 4907, "ĠdÃ©mar": 4908, "Ġplateau": 4909, "Ġradi": 4910, "opÃ©ra": 4911, "iÃ¨res": 4912, "jou": 4913, "olte": 4914, "Ġmention": 4915, "ĠAlpes": 4916, "Ġbiens": 4917, "azz": 4918, "ĠÃ©tabli": 4919, "Ġvent": 4920, "ĠKh": 4921, "ĠJames": 4922, "hyd": 4923, "we": 4924, "Ġbloc": 4925, "tur": 4926, "Ġconnaiss": 4927, "ĠÃ©lus": 4928, "hiver": 4929, "ĠTer": 4930, "euve": 4931, "ĠfrÃ©quent": 4932, "ĠSi": 4933, "oudre": 4934, "sons": 4935, "ĠÃ©dition": 4936, "Ġcalendrier": 4937, "Ġfaits": 4938, "Ġ1975": 4939, "ĠsÃ©p": 4940, "Ã©der": 4941, "Ġperdu": 4942, "mitÃ©": 4943, "ĠtrÃ´ne": 4944, "Ġtrente": 4945, "ll": 4946, "ĠunitÃ©s": 4947, "ribue": 4948, "Ġitalien": 4949, "ĠNotre": 4950, "luent": 4951, "quit": 4952, "ulÃ©e": 4953, "Ġlocales": 4954, "ĠopÃ©rations": 4955, "rÃ©d": 4956, "Ã©th": 4957, "Ġissus": 4958, "ographiques": 4959, "Ġabou": 4960, "ĠmÃ©diÃ©v": 4961, "Ġdo": 4962, "lÃ©ans": 4963, "Ġtours": 4964, "llemand": 4965, "liers": 4966, "Toponymie": 4967, "ington": 4968, "criptions": 4969, "40": 4970, "ĠRÃ©g": 4971, "ĠmatÃ©riel": 4972, "lerie": 4973, "ĠPic": 4974, "Ġball": 4975, "ĠdÃ©veloppÃ©": 4976, "Ġrenforc": 4977, "Ġparticipation": 4978, "ĠEmpire": 4979, "Ġenne": 4980, "Ġplein": 4981, "esprit": 4982, "Ã©ron": 4983, "bus": 4984, "ĠrÃ©alisation": 4985, "Ġdieu": 4986, "etz": 4987, "Ġconseill": 4988, "Ġrestent": 4989, "Ġagricole": 4990, "ĠrÃ©cup": 4991, "tein": 4992, "Ġpoursu": 4993, "rovi": 4994, "Ġchampion": 4995, "ĠcathÃ©drale": 4996, "ĠmolÃ©c": 4997, "ronom": 4998, "Ġcime": 4999, "aliers": 5000, "oriens": 5001, "III": 5002, "Ġcru": 5003, "Ġlien": 5004, "Aux": 5005, "Ã©ries": 5006, "Ġici": 5007, "Ġpost": 5008, "Ġsav": 5009, "Ġvert": 5010, "Ġexclus": 5011, "ĠÃ©crits": 5012, "Ġsymbole": 5013, "Ġenregistre": 5014, "ĠMÃ©d": 5015, "ya": 5016, "Ġvillages": 5017, "lises": 5018, "ĠMarne": 5019, "entitÃ©": 5020, "ĠXV": 5021, "ulaires": 5022, "Ġchambre": 5023, "ĠNapolÃ©on": 5024, "Ġmains": 5025, "Ġcycle": 5026, "ĠnÃ©e": 5027, "Ġcapitaine": 5028, "phab": 5029, "Ġsh": 5030, "Ġtravaille": 5031, "Ġpublication": 5032, "Ġappartient": 5033, "Ġmajeure": 5034, "ĠsÃ©n": 5035, "uter": 5036, "mil": 5037, "ĠAu": 5038, "con": 5039, "ĠpÃ©tro": 5040, "ĠÃ©vent": 5041, "Ġouvrages": 5042, "ĠarchÃ©": 5043, "Ġatteindre": 5044, "tissement": 5045, "Ġ1920": 5046, "Ġrecomm": 5047, "Ã©lev": 5048, "Ġcuis": 5049, "unn": 5050, "Ġ1985": 5051, "igu": 5052, "Ġmajoritaire": 5053, "ack": 5054, "vit": 5055, "Ġcouronne": 5056, "Ġhumain": 5057, "mann": 5058, "ĠrÃ©gional": 5059, "ĠParlement": 5060, "tiÃ¨me": 5061, "Tout": 5062, "Ġenvis": 5063, "olit": 5064, "ĠrÃ©pand": 5065, "ĠTrans": 5066, "association": 5067, "Ġresponsable": 5068, "ĠprÃ©sents": 5069, "ĠthÃ¨me": 5070, "orp": 5071, "ER": 5072, "lais": 5073, "Ġactions": 5074, "ĠSociÃ©tÃ©": 5075, "Ġvieux": 5076, "ĠAfrique": 5077, "asser": 5078, "sembl": 5079, "tiste": 5080, "Ġvite": 5081, "kin": 5082, "ĠprÃ©t": 5083, "inet": 5084, "Ġrejoindre": 5085, "ĠintitulÃ©": 5086, "raire": 5087, "ĠcÃ©lÃ©b": 5088, "Ġemprun": 5089, "fre": 5090, "Ġmagaz": 5091, "uts": 5092, "ĠtÃ´t": 5093, "per": 5094, "agers": 5095, "sbourg": 5096, "Ġlinguis": 5097, "endi": 5098, "Ġmonn": 5099, "Ġlogements": 5100, "Ġentier": 5101, "ĠHong": 5102, "ĠÃ©viter": 5103, "ĠVienne": 5104, "Ġmodernes": 5105, "ĠprocÃ¨s": 5106, "autom": 5107, "Ġreprise": 5108, "Ġutiliser": 5109, "Ġ1984": 5110, "agÃ©e": 5111, "ĠLo": 5112, "ĠformÃ©": 5113, "ĠrÃ©action": 5114, "dique": 5115, "Ġsociales": 5116, "ren": 5117, "Ġamis": 5118, "Ġguit": 5119, "hou": 5120, "Ã©tant": 5121, "ael": 5122, "Ġobtenu": 5123, "ĠministÃ¨re": 5124, "Ġdivin": 5125, "Ġcommunal": 5126, "ĠrÃ©comp": 5127, "NÃ©anmoins": 5128, "expÃ©ri": 5129, "Ġpouss": 5130, "Ġtran": 5131, "Ġcarte": 5132, "Ġfun": 5133, "Ġeau": 5134, "80": 5135, "Ġtendance": 5136, "Ġ1981": 5137, "ĠrÃ©cit": 5138, "ĠmÃ©thodes": 5139, "ĠdÃ©putÃ©": 5140, "Ġmicro": 5141, "Ouest": 5142, "Ġvon": 5143, "ica": 5144, "Ġofficiel": 5145, "Ã©nagement": 5146, "istance": 5147, "Jean": 5148, "ritÃ©": 5149, "ĠmathÃ©matiques": 5150, "Ġsolution": 5151, "agent": 5152, "tue": 5153, "Ġdescend": 5154, "Ġconstituent": 5155, "Ġaffaires": 5156, "Ġstock": 5157, "Ġclubs": 5158, "Ġproduis": 5159, "ĠAlbert": 5160, "Ġaccueilli": 5161, "Ãªts": 5162, "ĠVan": 5163, "Ġques": 5164, "ĠÃ©lector": 5165, "ĠRos": 5166, "olÃ©": 5167, "ĠAut": 5168, "Ġestime": 5169, "hors": 5170, "ĠJuli": 5171, "ouvre": 5172, "ĠEr": 5173, "lantique": 5174, "Ġaffec": 5175, "rices": 5176, "Ã´les": 5177, "Ġfabrication": 5178, "ĠBrÃ©sil": 5179, "amme": 5180, "ĠrÃ©fug": 5181, "Ġfinit": 5182, "tantin": 5183, "irs": 5184, "oule": 5185, "ologies": 5186, "ĠprÃ©sidence": 5187, "ĠdÃ©finie": 5188, "Ġprintemps": 5189, "Ġflotte": 5190, "ĠComp": 5191, "Ġtotalement": 5192, "Ġdiam": 5193, "ĠNor": 5194, "heure": 5195, "Ġdiminu": 5196, "ulsion": 5197, "ĠOrient": 5198, "Ġvolume": 5199, "uk": 5200, "opposition": 5201, "Ġpouvoirs": 5202, "Ġpeintre": 5203, "Ġ35": 5204, "lÃ¨ves": 5205, "fications": 5206, "ĠprotÃ©": 5207, "Ġfleurs": 5208, "Ã©taires": 5209, "Ġ1974": 5210, "Ġpleine": 5211, "Ġ1973": 5212, "ĠMo": 5213, "Ġmatchs": 5214, "Ġconnus": 5215, "uels": 5216, "atoires": 5217, "Ġtal": 5218, "ĠMat": 5219, "Ġremarqu": 5220, "yz": 5221, "Ġcantons": 5222, "architecture": 5223, "gin": 5224, "ports": 5225, "Certaines": 5226, "rick": 5227, "Ġrespect": 5228, "ĠmarquÃ©": 5229, "oint": 5230, "Ġvision": 5231, "ĠprivÃ©e": 5232, "Ã¨lement": 5233, "ĠÃ©mis": 5234, "Ġ1983": 5235, "endemain": 5236, "phe": 5237, "uellement": 5238, "ĠrÃ©alisateur": 5239, "tiquitÃ©": 5240, "ĠAmÃ©rique": 5241, "ĠPC": 5242, "Ġfonds": 5243, "Ġdisque": 5244, "Ġsupprim": 5245, "11": 5246, "Ã©riques": 5247, "dy": 5248, "ĠapprÃ©": 5249, "ĠBan": 5250, "Ġferrovi": 5251, "quiÃ¨me": 5252, "Ġdehors": 5253, "ĠRhÃ´ne": 5254, "ĠRay": 5255, "ciens": 5256, "ĠdÃ©putÃ©s": 5257, "ĠrÃ©seaux": 5258, "lÃ©gu": 5259, "Ġryth": 5260, "Ġconcours": 5261, "Jus": 5262, "Ġaffirme": 5263, "douard": 5264, "Ġchose": 5265, "Ġreligieuse": 5266, "Ġmodes": 5267, "ĠcatÃ©gorie": 5268, "Ġpeint": 5269, "Ã©ducation": 5270, "Ġbil": 5271, "Ġcomportement": 5272, "RÃ©": 5273, "Ġreten": 5274, "Ġprison": 5275, "Ġferme": 5276, "olie": 5277, "ergÃ©": 5278, "ĠexpÃ©riment": 5279, "Ġroyal": 5280, "die": 5281, "ĠlycÃ©e": 5282, "Ġenfant": 5283, "Ġconstitution": 5284, "Ġstandard": 5285, "Ġach": 5286, "ĠrÃ©d": 5287, "Ġinformations": 5288, "ĠprÃ©sidentielle": 5289, "ĠCÃ©sar": 5290, "Ġoccidentale": 5291, "anes": 5292, "rivent": 5293, "joint": 5294, "uelles": 5295, "ĠBay": 5296, "Ġclasses": 5297, "alys": 5298, "port": 5299, "Ġplante": 5300, "DÃ©mographie": 5301, "ĠHaut": 5302, "ĠmÃ©decine": 5303, "Ġimpos": 5304, "Ġportes": 5305, "Ġassure": 5306, "endue": 5307, "Ġsemaine": 5308, "Ġmille": 5309, "Ġmig": 5310, "Ġorb": 5311, "ographe": 5312, "Ġposses": 5313, "Ġauteur": 5314, "Ġ1972": 5315, "ĠmÃ©lan": 5316, "ĠNi": 5317, "Ġpeuples": 5318, "Ġlendemain": 5319, "ĠfÃ©dÃ©ra": 5320, "ary": 5321, "ĠSm": 5322, "ilitÃ©s": 5323, "AS": 5324, "dici": 5325, "Ġnomme": 5326, "Ġ1987": 5327, "Ġculturel": 5328, "Autriche": 5329, "ĠrÃ¨gle": 5330, "ĠsÃ©j": 5331, "Ġcommandement": 5332, "ĠÃ©quival": 5333, "riÃ¨res": 5334, "Ġprennent": 5335, "lige": 5336, "Ġrock": 5337, "ĠMars": 5338, "Ġattaque": 5339, "ĠGuy": 5340, "ĠlittÃ©raire": 5341, "ĠdÃ©finitivement": 5342, "Institut": 5343, "ĠcaractÃ¨res": 5344, "ĠConf": 5345, "Ġusage": 5346, "Ã©an": 5347, "ĠMel": 5348, "Ġordin": 5349, "ortant": 5350, "Ġcens": 5351, "App": 5352, "fiant": 5353, "Ġsusp": 5354, "Ġsais": 5355, "oupage": 5356, "aÃ©roport": 5357, "tile": 5358, "alu": 5359, "ĠdÃ©te": 5360, "Ġconser": 5361, "annÃ©es": 5362, "uls": 5363, "Ġavanc": 5364, "Ġfondation": 5365, "ortent": 5366, "ĠmÃ©dic": 5367, "Ġprinces": 5368, "Ġjeunesse": 5369, "Ġ1971": 5370, "Ġ1979": 5371, "Ġauparavant": 5372, "Ġcombin": 5373, "ji": 5374, "Ġbron": 5375, "Ġtiss": 5376, "Ġcorrespondant": 5377, "rains": 5378, "Ġbras": 5379, "Ġconvain": 5380, "Ġfilles": 5381, "At": 5382, "otion": 5383, "ĠspÃ©cif": 5384, "ĠeuropÃ©ennes": 5385, "Ġfabri": 5386, "aure": 5387, "ĠBerlin": 5388, "dia": 5389, "angle": 5390, "Ġperte": 5391, "allÃ©": 5392, "Ġintelle": 5393, "ccident": 5394, "alogue": 5395, "Ġha": 5396, "ĠdifficultÃ©s": 5397, "ĠdÃ©buts": 5398, "Ġremet": 5399, "25": 5400, "Ġchefs": 5401, "ĠHug": 5402, "Ġprol": 5403, "Ã©mission": 5404, "Ġlesquelles": 5405, "ĠcommunautÃ©s": 5406, "ĠprÃ©cise": 5407, "Ġorganisation": 5408, "Ġreconnaissance": 5409, "Ġcondition": 5410, "ondes": 5411, "ĠmarquÃ©e": 5412, "Ġjardin": 5413, "Ãīconomie": 5414, "emploi": 5415, "erait": 5416, "ĠXI": 5417, "Ġpense": 5418, "ĠMarse": 5419, "ĠrÃ©alisÃ©e": 5420, "Ġfrancoph": 5421, "Ġheure": 5422, "ĠdonnÃ©e": 5423, "ĠGrÃ¨ce": 5424, "Ġoccupe": 5425, "Ġmour": 5426, "ĠarrÃªtÃ©": 5427, "ĠprÃ©cip": 5428, "Ġfaite": 5429, "Ġcomptait": 5430, "Ġsociaux": 5431, "istique": 5432, "uite": 5433, "ĠÃ©lÃ¨ves": 5434, "za": 5435, "Ġdevi": 5436, "Ġversions": 5437, "aises": 5438, "ĠRog": 5439, "Ġpratiques": 5440, "ĠÃ©tudiants": 5441, "Ġmascul": 5442, "Ġcitoy": 5443, "ĠFrancis": 5444, "ĠPas": 5445, "Ġtrafic": 5446, "iteurs": 5447, "Ġtraduit": 5448, "ĠAllemand": 5449, "Ġnaz": 5450, "ĠplanÃ¨te": 5451, "Ġintellectu": 5452, "Ġanc": 5453, "ĠLaurent": 5454, "stÃ©": 5455, "Ġ1978": 5456, "Ġfacilement": 5457, "DÃ©": 5458, "Ġing": 5459, "ĠeuropÃ©ens": 5460, "Ġmultiples": 5461, "ĠextrÃªme": 5462, "ĠPrin": 5463, "ĠdÃ©clin": 5464, "ĠConstantin": 5465, "ĠcimetiÃ¨re": 5466, "Ġyeux": 5467, "Ġinfluenc": 5468, "quie": 5469, "ouveau": 5470, "Ġappli": 5471, "ilibre": 5472, "Ġimag": 5473, "Ġpoursuit": 5474, "Ġbass": 5475, "ĠcoÃ»t": 5476, "ĠMa": 5477, "Trans": 5478, "usement": 5479, "Ġdocuments": 5480, "Ġprogrammes": 5481, "Ġpoly": 5482, "Ġ1976": 5483, "oriz": 5484, "Ġ45": 5485, "Ġdiplom": 5486, "ĠliÃ©s": 5487, "Ġlimites": 5488, "ĠBois": 5489, "ultan": 5490, "Ġ70": 5491, "ĠdÃ©roule": 5492, "mans": 5493, "ĠnommÃ©e": 5494, "Ã¨ses": 5495, "Ġstructures": 5496, "Ġdrapeau": 5497, "ĠlÃ©gende": 5498, "Ġtir": 5499, "itz": 5500, "Ġespaces": 5501, "gÃ©s": 5502, "sant": 5503, "Ġkm": 5504, "tÃ©rieure": 5505, "Ġfondateur": 5506, "Ġdon": 5507, "las": 5508, "ĠClub": 5509, "her": 5510, "Ġcompose": 5511, "Åĵurs": 5512, "Ġprovinces": 5513, "ĠintÃ©ress": 5514, "antin": 5515, "Ġrevue": 5516, "din": 5517, "abri": 5518, "ĠSta": 5519, "ĠÃ©trangers": 5520, "Ã¨vre": 5521, "Ġliaison": 5522, "ĠinfÃ©rieur": 5523, "Ġindustrielle": 5524, "aton": 5525, "orient": 5526, "Ġentreprise": 5527, "rection": 5528, "lien": 5529, "Ġcellules": 5530, "ĠconnaÃ®tre": 5531, "ĠcollÃ¨ge": 5532, "ĠMay": 5533, "ĠdÃ©v": 5534, "Ġpla": 5535, "ĠRenÃ©": 5536, "Ġ1977": 5537, "Tou": 5538, "ĠgÃ©nÃ©raux": 5539, "ĠAntoine": 5540, "Ġallant": 5541, "Ġhumains": 5542, "Ġstations": 5543, "Ġhommage": 5544, "AntiquitÃ©": 5545, "Ġgrecque": 5546, "Ġfaibles": 5547, "Ġpubliques": 5548, "alisÃ©s": 5549, "Ġroutes": 5550, "ĠrÃ©partition": 5551, "ĠnuclÃ©aire": 5552, "Ġrois": 5553, "reuves": 5554, "Ġfortif": 5555, "ray": 5556, "Ġdeviennent": 5557, "Ġdure": 5558, "Ã©dÃ©": 5559, "ĠBourgogne": 5560, "ĠAnne": 5561, "Ã¤": 5562, "ĠcomitÃ©": 5563, "Ġgens": 5564, "Ġavions": 5565, "Ġenvi": 5566, "ustralie": 5567, "ĠPortug": 5568, "Ġconfond": 5569, "ĠreprÃ©sentent": 5570, "ĠentraÃ®ne": 5571, "ĠLand": 5572, "ga": 5573, "Ġ1969": 5574, "ĠSavoie": 5575, "dus": 5576, "ĠdÃ©bat": 5577, "Ġinten": 5578, "UniversitÃ©": 5579, "Ġbudget": 5580, "ĠBi": 5581, "ĠOuest": 5582, "ĠtÃ©lÃ©vis": 5583, "ĠinspirÃ©": 5584, "ĠdÃ©couvre": 5585, "Situ": 5586, "Ġmilliers": 5587, "rastru": 5588, "Ġinterd": 5589, "ceau": 5590, "exception": 5591, "Ġpeinture": 5592, "ĠprÃ©p": 5593, "Ġbritanniques": 5594, "ariste": 5595, "Ġanglaise": 5596, "obile": 5597, "ĠAp": 5598, "Ġordres": 5599, "do": 5600, "Ġnoire": 5601, "itent": 5602, "ayant": 5603, "Ġadul": 5604, "initi": 5605, "ago": 5606, "side": 5607, "Ġbus": 5608, "Ġblanche": 5609, "iff": 5610, "Ġ1967": 5611, "ĠKe": 5612, "ĠreprÃ©sentants": 5613, "ĠÃ©gyp": 5614, "ĠVol": 5615, "Ġspir": 5616, "Ġregard": 5617, "Ã©z": 5618, "Ġsan": 5619, "Ġauquel": 5620, "Ġdonnant": 5621, "Ġchante": 5622, "jectifs": 5623, "ĠJÃ©s": 5624, "Ġcombats": 5625, "Ġsugg": 5626, "Ġadvers": 5627, "ĠliÃ©e": 5628, "itt": 5629, "ĠProv": 5630, "Ġhistoriens": 5631, "Ġplans": 5632, "ita": 5633, "ster": 5634, "ĠLiv": 5635, "Ġjudici": 5636, "ragon": 5637, "ste": 5638, "ĠÃ©glise": 5639, "ĠJules": 5640, "Ġvictimes": 5641, "lore": 5642, "Ġromans": 5643, "15": 5644, "histor": 5645, "Ġcollaboration": 5646, "Ġprincipes": 5647, "Ġstatis": 5648, "Ġ90": 5649, "Ġquestions": 5650, "adap": 5651, "bo": 5652, "amour": 5653, "Ġcommission": 5654, "autoritÃ©": 5655, "gÃ©rie": 5656, "Ġcanadi": 5657, "Ã©chal": 5658, "ĠJÃ©r": 5659, "apparition": 5660, "ords": 5661, "ĠnumÃ©rique": 5662, "rome": 5663, "ĠPologne": 5664, "ĠGrou": 5665, "Ġtribunal": 5666, "instru": 5667, "Cl": 5668, "ĠdÃ©cÃ¨s": 5669, "Ġcircu": 5670, "ĠCommun": 5671, "ĠsÃ©ries": 5672, "Ġther": 5673, "observ": 5674, "citÃ©": 5675, "ester": 5676, "Ġsujets": 5677, "ĠgÃ©nÃ©ration": 5678, "Ġgui": 5679, "ricitÃ©": 5680, "ami": 5681, "ĠliÃ©es": 5682, "Ġtournoi": 5683, "ĠBo": 5684, "Ġ1944": 5685, "Ġtravailler": 5686, "mÃ©s": 5687, "ĠdÃ©clen": 5688, "ĠAllemands": 5689, "Ã¨ques": 5690, "ĠBos": 5691, "Ġenvers": 5692, "empire": 5693, "dh": 5694, "ĠsignÃ©": 5695, "chn": 5696, "Tous": 5697, "Ġmassif": 5698, "quoi": 5699, "ĠjouÃ©": 5700, "ld": 5701, "itations": 5702, "ĠvÃ©ri": 5703, "Ġrap": 5704, "alli": 5705, "Ġretrouver": 5706, "aniel": 5707, "arte": 5708, "Ġconven": 5709, "je": 5710, "ĠprotÃ©ger": 5711, "ĠToulouse": 5712, "ĠCa": 5713, "ĠamÃ©n": 5714, "icien": 5715, "Ġbac": 5716, "Ġoise": 5717, "Ġexpos": 5718, "ification": 5719, "Ġaura": 5720, "Cons": 5721, "Ġliens": 5722, "univers": 5723, "traction": 5724, "ymologie": 5725, "ĠHen": 5726, "Ġinterne": 5727, "Ġcoupe": 5728, "Ã©en": 5729, "ĠtotalitÃ©": 5730, "Liste": 5731, "OM": 5732, "Ġciel": 5733, "Ġcroy": 5734, "Ġcentres": 5735, "Ġvesti": 5736, "go": 5737, "ĠsÃ»": 5738, "ĠorganisÃ©": 5739, "Ġutilisent": 5740, "estation": 5741, "ĠJack": 5742, "ĠÃ©tablissements": 5743, "illÃ©": 5744, "ĠdÃ©partements": 5745, "Ã©cl": 5746, "ĠrÃ©ponse": 5747, "ĠMarseille": 5748, "Ġdatant": 5749, "ĠrÃ©el": 5750, "ĠVers": 5751, "Ġacteurs": 5752, "Ġimplant": 5753, "Ġsport": 5754, "rise": 5755, "Ġantique": 5756, "way": 5757, "effet": 5758, "istan": 5759, "Ġarb": 5760, "Historique": 5761, "Ġconseiller": 5762, "ouch": 5763, "Ġhame": 5764, "ows": 5765, "ĠassociÃ©": 5766, "Ġaccomp": 5767, "fices": 5768, "mine": 5769, "ecture": 5770, "Ġpollu": 5771, "ĠjournÃ©e": 5772, "ĠdensitÃ©": 5773, "ĠliÃ©": 5774, "nÃ©s": 5775, "iance": 5776, "angÃ©": 5777, "orisation": 5778, "Ġtor": 5779, "ĠdÃ©plac": 5780, "Ġbureau": 5781, "Ġadministrative": 5782, "Ġbuts": 5783, "ĠBrun": 5784, "Ġ32": 5785, "rien": 5786, "Ġ1962": 5787, "ĠmÃ©decin": 5788, "ilier": 5789, "Ġdisposition": 5790, "Ġrappel": 5791, "Ġdavantage": 5792, "Ġconscience": 5793, "ĠPhil": 5794, "ora": 5795, "Ġcroix": 5796, "Ġinitialement": 5797, "ĠSup": 5798, "Ġgall": 5799, "ustin": 5800, "PrÃ©": 5801, "ĠÃ©change": 5802, "Ġneut": 5803, "ĠcinquiÃ¨me": 5804, "ĠChambre": 5805, "Ġformule": 5806, "Ġallemands": 5807, "Ġmit": 5808, "ater": 5809, "ĠChap": 5810, "Vers": 5811, "Ġjustif": 5812, "Ġ176": 5813, "Ġrendu": 5814, "ĠportÃ©": 5815, "Ġlecture": 5816, "ĠRoyal": 5817, "Ġcoord": 5818, "ĠBert": 5819, "Ġabrite": 5820, "Ġportent": 5821, "ĠCath": 5822, "ariat": 5823, "Ġbleu": 5824, "Ġ*": 5825, "Inde": 5826, "ĠBur": 5827, "ĠLang": 5828, "Ġvenir": 5829, "Ã©criv": 5830, "ĠKer": 5831, "Ġchoisi": 5832, "ĠSoleil": 5833, "Quand": 5834, "Ġstudio": 5835, "Ġmatern": 5836, "Ġtraite": 5837, "atte": 5838, "Ġretraite": 5839, "Ġfrag": 5840, "Ġfleur": 5841, "ĠsystÃ©": 5842, "hÃ´tel": 5843, "ilm": 5844, "ceaux": 5845, "nier": 5846, "Ãīgypte": 5847, "Ġsouv": 5848, "uz": 5849, "uxelles": 5850, "ĠcommencÃ©": 5851, "cle": 5852, "Ġimage": 5853, "olk": 5854, "Ġsait": 5855, "ĠCE": 5856, "ĠaccÃ¨s": 5857, "entraÃ®": 5858, "onnÃ©es": 5859, "amen": 5860, "Ġfoss": 5861, "Ġbelge": 5862, "Ġtox": 5863, "ĠrÃ©duire": 5864, "ĠNav": 5865, "ĠforÃªts": 5866, "ĠCalif": 5867, "ĠconstituÃ©e": 5868, "Ġproposition": 5869, "amin": 5870, "Ġhumi": 5871, "Ġarabe": 5872, "ĠCÃ´": 5873, "ĠTor": 5874, "Ġvivre": 5875, "Ġcrit": 5876, "ologues": 5877, "Ġcultures": 5878, "ĠDenis": 5879, "Ġfiction": 5880, "my": 5881, "Ġerre": 5882, "Ġvarie": 5883, "Ġprises": 5884, "rations": 5885, "ĠCamb": 5886, "ticul": 5887, "Ġartif": 5888, "ĠMexique": 5889, "ĠGo": 5890, "Ġciter": 5891, "ĠAngel": 5892, "Ġmilliards": 5893, "Ġdesserv": 5894, "ĠcatÃ©gories": 5895, "agu": 5896, "Ġautonom": 5897, "Ġmachine": 5898, "Ġobjectif": 5899, "Ph": 5900, "Ġ1964": 5901, "uxemb": 5902, "Ġvot": 5903, "Ġcommandant": 5904, "Ġlaisser": 5905, "Ġenseign": 5906, "Aujourd": 5907, "ĠpubliÃ©e": 5908, "Ġimages": 5909, "Ġinstitutions": 5910, "quin": 5911, "ĠLille": 5912, "Ġporter": 5913, "Ġ000": 5914, "Ġmarins": 5915, "Culture": 5916, "ĠmÃ©canique": 5917, "ĠCroix": 5918, "Ġdoctr": 5919, "ĠchrÃ©tiens": 5920, "Ġtraverse": 5921, "matiques": 5922, "Ġmarine": 5923, "atre": 5924, "Ġpatron": 5925, "Ġparfait": 5926, "ĠrÃ©serve": 5927, "Ġtransfert": 5928, "ciation": 5929, "Ġquitter": 5930, "ramme": 5931, "ty": 5932, "Ġapparaissent": 5933, "Ġcirculation": 5934, "mÃ©diaire": 5935, "Ġfich": 5936, "effec": 5937, "Ġsuisse": 5938, "Ġrej": 5939, "Ġpose": 5940, "env": 5941, "ĠPS": 5942, "nie": 5943, "Ġtourisme": 5944, "rb": 5945, "enz": 5946, "ĠtÃ©lÃ©ph": 5947, "Ġbesoins": 5948, "Jusqu": 5949, "ĠrÃ©flex": 5950, "Ġchacune": 5951, "ĠrÃ©sidence": 5952, "Ġolympiques": 5953, "Ġparcours": 5954, "inage": 5955, "Ġtraduction": 5956, "ĠBruxelles": 5957, "lam": 5958, "Celle": 5959, "ko": 5960, "Ġcommen": 5961, "Ġaller": 5962, "ĠsÃ©qu": 5963, "ĠdÃ©chets": 5964, "Ġfruits": 5965, "Ġspiritu": 5966, "Ġcompter": 5967, "ĠAngl": 5968, "Ġvictoires": 5969, "Ġamen": 5970, "Ġmeilleurs": 5971, "Ġcontenant": 5972, "ases": 5973, "Ġseraient": 5974, "ĠcÃ©rÃ©m": 5975, "ĠimmÃ©diatement": 5976, "oncer": 5977, "Ġassist": 5978, "Ġdimension": 5979, "ĠcitÃ©s": 5980, "hib": 5981, "Ġbaisse": 5982, "Ġcomprendre": 5983, "Ġmilieux": 5984, "ĠprÃ©sentent": 5985, "ĠfÃ©dÃ©ral": 5986, "car": 5987, "issue": 5988, "Ġmagazine": 5989, "12": 5990, "TA": 5991, "Ġsin": 5992, "aliser": 5993, "Ġorigine": 5994, "Ġartistique": 5995, "Ġbranche": 5996, "Ġsuivre": 5997, "exÃ©cu": 5998, "Ġlum": 5999, "Ġvisant": 6000, "Ancien": 6001, "ĠCongrÃ¨s": 6002, "Ã´mes": 6003, "Ġdesser": 6004, "Ġachet": 6005, "dition": 6006, "Ã©rÃ©es": 6007, "Ġrester": 6008, "ĠpÃ©d": 6009, "Ġunif": 6010, "Ġauraient": 6011, "Ãīv": 6012, "Ġreconnu": 6013, "ĠconquÃªte": 6014, "Ġmoul": 6015, "Ã©taient": 6016, "Ġoriginaire": 6017, "ĠÅĵ": 6018, "Ġsil": 6019, "Ġmix": 6020, "ala": 6021, "ĠbibliothÃ¨que": 6022, "Ġintroduit": 6023, "Ġdiale": 6024, "yde": 6025, "Ġmorte": 6026, "lem": 6027, "ĠmÃ©dias": 6028, "heim": 6029, "18": 6030, "Ã©ry": 6031, "Ġrecue": 6032, "ĠsituÃ©s": 6033, "ternet": 6034, "ĠÃ¢ge": 6035, "Ġ1958": 6036, "ĠÃ©levÃ©e": 6037, "ĠAss": 6038, "Ġrisques": 6039, "Ġbru": 6040, "Ã§ons": 6041, "Ġchiffre": 6042, "ĠJui": 6043, "gement": 6044, "Ġaccessi": 6045, "piration": 6046, "attaque": 6047, "ĠRÃ©": 6048, "ĠEm": 6049, "ĠpoÃ¨te": 6050, "Ġrepris": 6051, "Ġlogique": 6052, "ĠmunicipalitÃ©": 6053, "augment": 6054, "ĠÃ©toiles": 6055, "Ġimpli": 6056, "lÃ©s": 6057, "Ġprovoque": 6058, "posi": 6059, "Ġpointe": 6060, "Trois": 6061, "Ġniveaux": 6062, "Ġconserve": 6063, "ings": 6064, "ĠnÃ©er": 6065, "16": 6066, "ĠEspagne": 6067, "ansion": 6068, "ĠrÃ©tab": 6069, "Ġmajeur": 6070, "Ġnoter": 6071, "tellig": 6072, "AD": 6073, "van": 6074, "Ġtax": 6075, "cides": 6076, "ĠspÃ©cifique": 6077, "cemment": 6078, "Ġbases": 6079, "onction": 6080, "rÃ©al": 6081, "Ġtenu": 6082, "Ġdieux": 6083, "Ġsuccession": 6084, "Ã¨gre": 6085, "ĠLin": 6086, "ĠProvence": 6087, "Ġfacil": 6088, "ĠprÃ©fecture": 6089, "Ġquoi": 6090, "Ġnette": 6091, "Ġvaut": 6092, "Ġdestruction": 6093, "ĠVI": 6094, "ĠOn": 6095, "ĠmenÃ©e": 6096, "17": 6097, "Ġcapable": 6098, "ĠmatÃ©riaux": 6099, "issait": 6100, "Ġquart": 6101, "Ġflu": 6102, "ĠmaÃ®tres": 6103, "Ġalbums": 6104, "Ġappartenant": 6105, "Ġartifici": 6106, "Ġmodern": 6107, "Ġcontrairement": 6108, "Ġ175": 6109, "yrami": 6110, "Ġcontenu": 6111, "Ġrenv": 6112, "ĠJÃ©sus": 6113, "ĠMarcel": 6114, "anterie": 6115, "ĠÃ©ditions": 6116, "ford": 6117, "ĠmÃ©lange": 6118, "Ġcontro": 6119, "ĠRomains": 6120, "ĠindÃ©pendant": 6121, "yt": 6122, "Ġment": 6123, "agon": 6124, "ĠcaractÃ©ristique": 6125, "Ġquinze": 6126, "ĠLim": 6127, "ranger": 6128, "Ġsatis": 6129, "ĠHam": 6130, "mant": 6131, "yb": 6132, "onnier": 6133, "illa": 6134, "Inter": 6135, "ĠscÃ©nario": 6136, "isÃ©": 6137, "Ġvien": 6138, "Ġbaptis": 6139, "ĠSant": 6140, "ĠcomposÃ©s": 6141, "Ġtournage": 6142, "Ġfrapp": 6143, "ĠcomplÃ¨te": 6144, "utiliser": 6145, "ordeaux": 6146, "iser": 6147, "13": 6148, "Ġchale": 6149, "pit": 6150, "ive": 6151, "aro": 6152, "ĠgÃ©ographique": 6153, "ĠBru": 6154, "ĠWh": 6155, "Ġplaine": 6156, "Ġinconn": 6157, "ĠpropriÃ©taire": 6158, "tils": 6159, "chÃ©es": 6160, "server": 6161, "Ġdisponible": 6162, "Ġbronze": 6163, "ĠrÃ©duit": 6164, "Ġpartisans": 6165, "Ġpreuve": 6166, "Ġmaximum": 6167, "Ġfinance": 6168, "Ġmarche": 6169, "ctur": 6170, "ignon": 6171, "Ġperp": 6172, "ĠÃ©pisodes": 6173, "Ġassassin": 6174, "ĠprÃ©sentÃ©": 6175, "Ġdoub": 6176, "ĠVictor": 6177, "NU": 6178, "ĠHan": 6179, "Ġdonnent": 6180, "ja": 6181, "Ġ1966": 6182, "ĠbrÃ»": 6183, "Ġvictime": 6184, "Ġouverte": 6185, "Ġtourne": 6186, "ĠcomplÃ¨tement": 6187, "Ġtab": 6188, "orÃ©e": 6189, "Orig": 6190, "ĠBre": 6191, "Ġassociations": 6192, "ĠdÃ©finit": 6193, "Ġpav": 6194, "ĠPrix": 6195, "Ġservir": 6196, "nant": 6197, "Ġefficace": 6198, "Ġjusque": 6199, "Ġnaturelles": 6200, "Asie": 6201, "ĠchrÃ©tienne": 6202, "Ġdirigeants": 6203, "Ġbe": 6204, "Ġaccident": 6205, "Ġtraces": 6206, "Ã©chelle": 6207, "thur": 6208, "mise": 6209, "ĠmÃ¨ne": 6210, "Outre": 6211, "ĠHu": 6212, "Ġculturelle": 6213, "Ġdisparition": 6214, "14": 6215, "Ġproducteur": 6216, "ĠGren": 6217, "rÃ©dÃ©ric": 6218, "yrÃ©": 6219, "Ġcardin": 6220, "Ġprimaire": 6221, "Ġ1939": 6222, "Ġdisparu": 6223, "Ġmillion": 6224, "ĠMah": 6225, "ico": 6226, "Ġ1965": 6227, "Ġmaintenir": 6228, "Ġchoses": 6229, "illage": 6230, "ĠdÃ©l": 6231, "Ġart": 6232, "Ġparticiper": 6233, "Che": 6234, "Ġpure": 6235, "ĠAth": 6236, "Ġitalienne": 6237, "oble": 6238, "Ġcord": 6239, "Ġtit": 6240, "ian": 6241, "Ġsecondaires": 6242, "ĠgÃ©omÃ©t": 6243, "ĠConstitution": 6244, "Ġaccepte": 6245, "ĠscÃ¨nes": 6246, "ĠComitÃ©": 6247, "ĠVinc": 6248, "Ġnationales": 6249, "ĠprivilÃ©g": 6250, "ĠJeanne": 6251, "ĠHer": 6252, "ĠlÃ©gÃ¨rement": 6253, "can": 6254, "Ġstatue": 6255, "Ġmissions": 6256, "UR": 6257, "amÃ©li": 6258, "Ġsolaire": 6259, "estres": 6260, "Ġexerc": 6261, "ĠdÃ©couvert": 6262, "Ġdue": 6263, "seud": 6264, "Ġsembl": 6265, "ĠAlexandre": 6266, "hn": 6267, "affaire": 6268, "ĠempÃª": 6269, "ĠÃ©trangÃ¨res": 6270, "Ġcentaines": 6271, "Ġ1946": 6272, "ĠAmÃ©ric": 6273, "Ġformat": 6274, "ĠrÃ©publique": 6275, "Ġgaul": 6276, "arre": 6277, "ĠÃ©lab": 6278, "Ġmaritime": 6279, "Ãªtres": 6280, "Ġinterdit": 6281, "Ġorganise": 6282, "Ġtardi": 6283, "Ġrassemb": 6284, "rutin": 6285, "ĠportÃ©e": 6286, "tations": 6287, "ĠSÃ©nat": 6288, "trice": 6289, "utÃ©e": 6290, "rÃªts": 6291, "Ġrare": 6292, "ĠnÃ©cessaires": 6293, "Ġsignific": 6294, "Ġgratu": 6295, "Ġtopony": 6296, "Ġreligieuses": 6297, "ĠdÃ©tr": 6298, "Ġorigines": 6299, "ĠprivÃ©": 6300, "Ġtentative": 6301, "Ġisol": 6302, "ĠconsÃ©quences": 6303, "ĠSou": 6304, "Ġlabor": 6305, "quemment": 6306, "ĠlÃ©gislatives": 6307, "Peu": 6308, "Ġmac": 6309, "ĠarriÃ¨re": 6310, "Ġ33": 6311, "iche": 6312, "Ġfacteurs": 6313, "pire": 6314, "ortÃ©s": 6315, "Ġopposition": 6316, "ĠJo": 6317, "Ġprolong": 6318, "Ġmassac": 6319, "nom": 6320, "Ġgre": 6321, "Ġdomination": 6322, "Ġvoiture": 6323, "ĠprÃ©cisÃ©ment": 6324, "ĠtÃ¢": 6325, "ĠdÃ©lÃ©gu": 6326, "imie": 6327, "Ġonze": 6328, "Ġforc": 6329, "FA": 6330, "Ġquan": 6331, "Ġscand": 6332, "ĠÃ©nerg": 6333, "Ġsemi": 6334, "Ġserv": 6335, "Ġtransformation": 6336, "cy": 6337, "Ġparu": 6338, "Ġ36": 6339, "aliens": 6340, "Ġrevenus": 6341, "Ġrelief": 6342, "Ġsoup": 6343, "Ġclassification": 6344, "own": 6345, "ĠCommission": 6346, "ĠdÃ©terminer": 6347, "ĠprÃ©senter": 6348, "ĠprÃ©vu": 6349, "Ã©tudes": 6350, "Ġplaces": 6351, "Ġdevrait": 6352, "Ġchiffres": 6353, "anitÃ©": 6354, "inves": 6355, "Ġton": 6356, "MP": 6357, "Ġpou": 6358, "loie": 6359, "Ġpatri": 6360, "Ġrevenu": 6361, "diction": 6362, "amÃ©nagement": 6363, "net": 6364, "arts": 6365, "ĠQui": 6366, "IC": 6367, "Ġmurs": 6368, "Ġmenace": 6369, "Ġconcl": 6370, "vitÃ©": 6371, "Ã´ts": 6372, "Ceci": 6373, "OS": 6374, "ĠÃ©crite": 6375, "Ġtroubles": 6376, "Ġ~": 6377, "Ġdits": 6378, "ĠLÃ©": 6379, "Ġoriginale": 6380, "time": 6381, "ĠCD": 6382, "existe": 6383, "Ġmanifestations": 6384, "ban": 6385, "Ã©vÃªque": 6386, "Ġchercheurs": 6387, "ĠrÃ©ussit": 6388, "Ġverre": 6389, "Ġobligatoire": 6390, "ĠrÃ©ussi": 6391, "ĠrÃ©vÃ©l": 6392, "Ġrepos": 6393, "appr": 6394, "Ġsalles": 6395, "Ã©qui": 6396, "Ġauxque": 6397, "Ġlun": 6398, "Ġcourants": 6399, "ĠdÃ©mission": 6400, "ĠaÃ©rienne": 6401, "ĠparallÃ¨le": 6402, "mosphÃ¨re": 6403, "Ġmonast": 6404, "Ġvainque": 6405, "ĠBordeaux": 6406, "ĠPan": 6407, "Ġjaune": 6408, "enfant": 6409, "ĠrÃ©vÃ¨le": 6410, "Ġcatholiques": 6411, "ĠÃ©voque": 6412, "Ġscrutin": 6413, "adies": 6414, "rlande": 6415, "chestre": 6416, "ez": 6417, "Ġconcerts": 6418, "Ġtraditionnelle": 6419, "demment": 6420, "duits": 6421, "ĠAll": 6422, "Ġgenres": 6423, "ius": 6424, "Ġcompositeur": 6425, "istÃ©": 6426, "Ġtur": 6427, "Ġ1914": 6428, "Ġlieut": 6429, "Ġconseillers": 6430, "ĠMaison": 6431, "ĠChÃ¢": 6432, "cre": 6433, "ĠRoi": 6434, "Ġrues": 6435, "ĠÃītienne": 6436, "Ġscore": 6437, "ĠTrois": 6438, "ĠDis": 6439, "ĠrÃ©cemment": 6440, "Ġrh": 6441, "ĠvÃ©hicules": 6442, "Ġdot": 6443, "Ġjournaliste": 6444, "ĠdÃ©ten": 6445, "Ġpan": 6446, "Ġnor": 6447, "oxe": 6448, "Ġmerc": 6449, "itan": 6450, "Ġterrestre": 6451, "ĠdestinÃ©": 6452, "Ġpur": 6453, "ĠCaliforn": 6454, "ling": 6455, "Ã©rences": 6456, "ĠprÃ©cÃ©dent": 6457, "ĠCamp": 6458, "ĠHit": 6459, "Ġmoindre": 6460, "Ġquotidi": 6461, "extÃ©rieur": 6462, "Ġcartes": 6463, "fiÃ©": 6464, "issements": 6465, "Ġsouhaite": 6466, "raÃ«l": 6467, "ader": 6468, "Ġmontrent": 6469, "ĠlancÃ©": 6470, "Ġinstruments": 6471, "Ġaltitude": 6472, "ĠconsacrÃ©": 6473, "ĠRhin": 6474, "ĠFC": 6475, "Ġmatin": 6476, "ices": 6477, "OrlÃ©ans": 6478, "ĠfrontiÃ¨res": 6479, "Ġpopulaires": 6480, "ensement": 6481, "see": 6482, "ops": 6483, "Ġcrist": 6484, "expÃ©rience": 6485, "ĠSol": 6486, "ĠparticuliÃ¨re": 6487, "Ġtrains": 6488, "ropri": 6489, "Ġcomprenant": 6490, "Ġassociation": 6491, "Ġdange": 6492, "Ġcous": 6493, "erine": 6494, "ĠnaÃ®t": 6495, "ĠSy": 6496, "Ġatteign": 6497, "autant": 6498, "ĠCalifornie": 6499, "rac": 6500, "70": 6501, "ĠMos": 6502, "Ġjuridique": 6503, "Ġacquis": 6504, "rophe": 6505, "atures": 6506, "ĠpersonnalitÃ©s": 6507, "Ġrecommand": 6508, "ĠÃ©volution": 6509, "ĠperÃ§": 6510, "ĠpÃ©riodes": 6511, "appell": 6512, "ĠcÃ©rÃ©monie": 6513, "aies": 6514, "ĠEs": 6515, "quante": 6516, "Ġcomplexes": 6517, "Ġsoir": 6518, "Ġmusulman": 6519, "Ġpourquoi": 6520, "Ġfrais": 6521, "Ġpuisse": 6522, "ruption": 6523, "oria": 6524, "ensive": 6525, "ĠdÃ©partementale": 6526, "Ġsouter": 6527, "ĠNational": 6528, "ek": 6529, "obtenir": 6530, "Ġsimples": 6531, "Ġurbain": 6532, "ople": 6533, "Ġmenac": 6534, "Ġrepose": 6535, "ĠrÃª": 6536, "ĠreprÃ©sentÃ©": 6537, "wood": 6538, "ĠWest": 6539, "Ġate": 6540, "ĠFlor": 6541, "ĠdÃ©bute": 6542, "installe": 6543, "Ġorientale": 6544, "ĠamÃ©ricaines": 6545, "ĠsÃ©jour": 6546, "ĠimpÃ©riale": 6547, "ĠdÃ©partemental": 6548, "ĠLorraine": 6549, "Ġinternationales": 6550, "ĠJuifs": 6551, "Ġretourn": 6552, "ĠfrÃ©quemment": 6553, "ĠRoche": 6554, "ĠMic": 6555, "Ġrapports": 6556, "Ġdirecte": 6557, "ĠColomb": 6558, "Organis": 6559, "ĠhÃ©ri": 6560, "ĠrÃ©pert": 6561, "Ġviolence": 6562, "rase": 6563, "Ġrecensement": 6564, "Ġfroid": 6565, "itÃ©e": 6566, "Ġimportance": 6567, "Ġdomes": 6568, "Ġchaud": 6569, "ĠGermain": 6570, "Ġmettent": 6571, "tible": 6572, "Ġaugmentation": 6573, "Ġmanus": 6574, "ĠBu": 6575, "Ġlait": 6576, "ĠGui": 6577, "Ġdram": 6578, "ĠÃ©tro": 6579, "Ġchangements": 6580, "rets": 6581, "Ġcart": 6582, "Ġ1948": 6583, "ĠCarl": 6584, "Ġnavire": 6585, "ĠVersailles": 6586, "Ġhyp": 6587, "Ġmettant": 6588, "ĠlibÃ©ration": 6589, "ĠÃ©vid": 6590, "agnies": 6591, "Ġcompt": 6592, "entrer": 6593, "Ġsph": 6594, "intro": 6595, "Ġadjoint": 6596, "ĠÃ©tape": 6597, "Ġto": 6598, "Ġrecouv": 6599, "Ġaugmente": 6600, "ĠduchÃ©": 6601, "ĠWil": 6602, "Ġcouche": 6603, "ĠbÃ©nÃ©ficie": 6604, "Ġindividus": 6605, "ĠAlain": 6606, "ĠPen": 6607, "Ġsurveill": 6608, "ĠlimitÃ©": 6609, "Ġsuccesseur": 6610, "Ġlabel": 6611, "igny": 6612, "Ġabb": 6613, "Ġsecondaire": 6614, "ĠPlan": 6615, "ĠprocÃ©dÃ©": 6616, "Ġclassiques": 6617, "ĠRoger": 6618, "ĠMontrÃ©al": 6619, "architecte": 6620, "ĠstratÃ©gie": 6621, "Ġgagne": 6622, "Ġannex": 6623, "Ġcandidats": 6624, "enue": 6625, "Ġrappro": 6626, "ĠpossÃ¨dent": 6627, "ĠidÃ©e": 6628, "ĠLac": 6629, "Ġrestauration": 6630, "Ġnoyau": 6631, "Ġprisonniers": 6632, "Ġchapitre": 6633, "Ġfoi": 6634, "Ġinstrument": 6635, "Ġparam": 6636, "Autres": 6637, "Ġarg": 6638, "ĠBoul": 6639, "Ġconcentration": 6640, "Ġferroviaire": 6641, "Ġbelle": 6642, "Ġ1956": 6643, "vasion": 6644, "Henri": 6645, "manie": 6646, "ĠCat": 6647, "ĠÃ©chapp": 6648, "ĠÃ©pisode": 6649, "Ġsaisons": 6650, "Ġcirconscription": 6651, "Ġhon": 6652, "Ġprovenant": 6653, "ĠcongrÃ¨s": 6654, "Ġconserver": 6655, "ĠMichael": 6656, "Saint": 6657, "ĠDom": 6658, "Ġremplacer": 6659, "ĠplacÃ©": 6660, "Ġolympique": 6661, "Ġmonnaie": 6662, "Ġviennent": 6663, "Ġ1949": 6664, "Ġofficiers": 6665, "And": 6666, "oigne": 6667, "Ġsalari": 6668, "ĠtrouvÃ©": 6669, "ĠdirigÃ©": 6670, "Ġgla": 6671, "Ġreprendre": 6672, "ĠfrÃ©quence": 6673, "abeth": 6674, "ĠsiÃ¨ges": 6675, "Ġ1963": 6676, "ĠfunÃ©ra": 6677, "entique": 6678, "AT": 6679, "Ġpic": 6680, "ttom": 6681, "agog": 6682, "union": 6683, "ĠcomplÃ©ment": 6684, "ĠSuÃ¨de": 6685, "Ġ1947": 6686, "Ġmang": 6687, "Ġconduite": 6688, "Ġmaladies": 6689, "Ġmusulmans": 6690, "Ġlogiciel": 6691, "Ġphon": 6692, "entine": 6693, "Ġbourgeois": 6694, "romp": 6695, "Ġrelative": 6696, "Ġchoc": 6697, "ĠdÃ©faut": 6698, "ĠlocalitÃ©": 6699, "Ġdisposi": 6700, "Ġchristi": 6701, "Ġexter": 6702, "Ġdescription": 6703, "ĠpÃ©riph": 6704, "ĠTar": 6705, "ondation": 6706, "ĠNations": 6707, "ĠcÃ©lÃ¨bres": 6708, "ĠBelle": 6709, "Ġcolonie": 6710, "Ġclo": 6711, "Ġcourte": 6712, "ĠintÃ©rÃªt": 6713, "ĠaÃ®": 6714, "Ġcav": 6715, "assade": 6716, "Ġrarement": 6717, "application": 6718, "Ġconnues": 6719, "affaires": 6720, "Ġboud": 6721, "mbl": 6722, "ulle": 6723, "ĠdÃ©bit": 6724, "Ġcarbone": 6725, "rairement": 6726, "ĠFestival": 6727, "ĠthÃ¨se": 6728, "quiert": 6729, "Ã©nieur": 6730, "Ġmusicale": 6731, "arr": 6732, "Ġrup": 6733, "Ġbot": 6734, "Ġsimilaire": 6735, "ĠlinÃ©": 6736, "ĠtuÃ©": 6737, "Ġhui": 6738, "Ġrenouvel": 6739, "hor": 6740, "Ġlour": 6741, "ĠSil": 6742, "Ġouvre": 6743, "ĠattestÃ©": 6744, "Ġprovis": 6745, "ĠMonde": 6746, "Ġaide": 6747, "lisme": 6748, "tific": 6749, "Ġescl": 6750, "Ġindustriel": 6751, "rograph": 6752, "ĠdÃ©grad": 6753, "ardins": 6754, "Ġfrom": 6755, "Ġbrut": 6756, "ĠphÃ©nomÃ¨nes": 6757, "arme": 6758, "Ġchron": 6759, "ĠNam": 6760, "Ġapplication": 6761, "Ġplais": 6762, "Ã©mat": 6763, "ĠÃ©pous": 6764, "Ġenvah": 6765, "Ġfixe": 6766, "qua": 6767, "Ġhor": 6768, "Ġterrains": 6769, "ĠPra": 6770, "avec": 6771, "ĠVir": 6772, "ĠrÃ©giment": 6773, "ositÃ©": 6774, "ĠFrÃ©dÃ©ric": 6775, "gh": 6776, "ĠsÃ©v": 6777, "ory": 6778, "Ġconstante": 6779, "ierres": 6780, "ĠtraversÃ©e": 6781, "ĠrÃ©duction": 6782, "Ġpages": 6783, "ĠextÃ©rieur": 6784, "ĠsituÃ©es": 6785, "ĠPetit": 6786, "islam": 6787, "Ġcre": 6788, "ĠLos": 6789, "Ġcompagnies": 6790, "ĠconfÃ©rence": 6791, "ĠRec": 6792, "Ã©tablissement": 6793, "Tra": 6794, "Ġvariable": 6795, "AR": 6796, "ĠAli": 6797, "Ġvoient": 6798, "Ġvisible": 6799, "Ġprofondeur": 6800, "Ġpseud": 6801, "Ã¨ler": 6802, "ĠChristi": 6803, "Ġconfl": 6804, "Ã©rieurs": 6805, "ĠPortugal": 6806, "Ġpauvre": 6807, "Ġoiseaux": 6808, "Ġremonte": 6809, "Ġajout": 6810, "ĠsÃ©paration": 6811, "ĠÃ¨": 6812, "ĠdÃ©fend": 6813, "Ã©rir": 6814, "ĠDaniel": 6815, "Ġlongues": 6816, "ĠHenry": 6817, "Ã©crivain": 6818, "ury": 6819, "agÃ©s": 6820, "alem": 6821, "Ġ150": 6822, "Alexand": 6823, "hu": 6824, "ĠdÃ©mons": 6825, "Ġfavorable": 6826, "appro": 6827, "lymp": 6828, "ĠBat": 6829, "mile": 6830, "onnÃ©s": 6831, "Ġcercle": 6832, "Ġvrai": 6833, "ĠexpÃ©rience": 6834, "ĠdÃ©cidÃ©": 6835, "Ġmusiciens": 6836, "ĠpeuplÃ©e": 6837, "endie": 6838, "Ġattendre": 6839, "Ġpositions": 6840, "Ġchevaux": 6841, "ĠdiamÃ¨tre": 6842, "Ġchaleur": 6843, "ĠrÃ©glement": 6844, "Ġsuivent": 6845, "rÃ¨": 6846, "ÅĴ": 6847, "ĠthÃ¨mes": 6848, "Ġmos": 6849, "Ġ1954": 6850, "Ġcitoyens": 6851, "Ġespagnole": 6852, "mir": 6853, "ĠdÃ©truit": 6854, "ĠcÃ´tes": 6855, "Ġsoleil": 6856, "Ġabond": 6857, "ĠLuxemb": 6858, "Ġpeau": 6859, "pective": 6860, "Ġsurvi": 6861, "ĠprÃ©cÃ©dente": 6862, "Ġmanuscrit": 6863, "ĠmÃ©tÃ©": 6864, "Ġtop": 6865, "tration": 6866, "Ġ1936": 6867, "tiles": 6868, "ĠHol": 6869, "Ġtire": 6870, "Ġautrefois": 6871, "infanterie": 6872, "ĠAuguste": 6873, "avie": 6874, "Ġraconte": 6875, "Ġgermanique": 6876, "ĠrelÃ¨ve": 6877, "Ġsoutient": 6878, "ĠGenÃ¨ve": 6879, "Ġfortes": 6880, "ĠprÃ©voit": 6881, "ressionn": 6882, "ĠchÃ¢": 6883, "objectif": 6884, "Ġimpossi": 6885, "Ġsemblent": 6886, "acifique": 6887, "Ġapprend": 6888, "Ã©rard": 6889, "Ġenvoie": 6890, "Ġpolon": 6891, "Ġespagnol": 6892, "rÃ¨te": 6893, "ward": 6894, "atie": 6895, "Ġfournit": 6896, "Ġspatiale": 6897, "ĠrÃ©volte": 6898, "Ġsouvenir": 6899, "ĠparaÃ®t": 6900, "22": 6901, "Ġrecru": 6902, "ĠintÃ©rie": 6903, "ny": 6904, "hÃ©r": 6905, "Ġnorme": 6906, "ĠspÃ©cifiques": 6907, "historien": 6908, "ĠconservÃ©": 6909, "ĠNantes": 6910, "Ġdisponibles": 6911, "Ġintercommun": 6912, "Ġpropag": 6913, "ĠprogrÃ¨s": 6914, "Ġdanse": 6915, "Ġ1959": 6916, "cence": 6917, "Ġdomicile": 6918, "Ġcalc": 6919, "DÃ©b": 6920, "ĠmÃ©trop": 6921, "ĠinstallÃ©": 6922, "lot": 6923, "ĠAf": 6924, "Ġsoumis": 6925, "Ġissue": 6926, "rÃ©h": 6927, "national": 6928, "Ġconcurrence": 6929, "gra": 6930, "Ġdig": 6931, "acts": 6932, "ĠconsidÃ©rÃ©s": 6933, "Ġprofessionnel": 6934, "Ġoccasion": 6935, "ĠBritanniques": 6936, "Ġlaissant": 6937, "ĠalliÃ©s": 6938, "Ġlourd": 6939, "Ġconqu": 6940, "igueur": 6941, "olutions": 6942, "Ġchoisit": 6943, "Ãİle": 6944, "Ġvigueur": 6945, "ĠdegrÃ©": 6946, "Ġcoul": 6947, "Ã©tranger": 6948, "ĠinfÃ©rieure": 6949, "ĠGaulle": 6950, "Ġbreton": 6951, "ĠdÃ©pass": 6952, "ĠmarÃ©chal": 6953, "Ġlinguistique": 6954, "ĠBill": 6955, "Ġ300": 6956, "Ġexemples": 6957, "rus": 6958, "ĠMur": 6959, "ĠGro": 6960, "Ġavent": 6961, "Ġcommencent": 6962, "ĠrÃ©volutionnaire": 6963, "gny": 6964, "zz": 6965, "ĠTim": 6966, "ĠdÃ©mographique": 6967, "olith": 6968, "Ġprovient": 6969, "Ġpossibles": 6970, "ĠLong": 6971, "ĠFland": 6972, "ĠSimon": 6973, "Ġchamps": 6974, "Ġ500": 6975, "Ġ1961": 6976, "Ġprolon": 6977, "ĠWar": 6978, "Ġvenant": 6979, "ĠGir": 6980, "Ġfaute": 6981, "ĠÃ©rig": 6982, "Ġcampagnes": 6983, "Ġlieutenant": 6984, "yme": 6985, "Ġsoli": 6986, "ĠsystÃ©matique": 6987, "ĠMas": 6988, "Ġassurer": 6989, "AP": 6990, "Ġmys": 6991, "ĠtempÃ©ratures": 6992, "ĠdÃ©mocratique": 6993, "Ġpilote": 6994, "ĠFrank": 6995, "ĠorganisÃ©e": 6996, "Ġ1918": 6997, "Ġ34": 6998, "ĠFÃ©dÃ©ration": 6999, "Ġmises": 7000, "ĠÃ©lectronique": 7001, "Ġsoix": 7002, "Ġsignifiant": 7003, "ĠcompÃ©tences": 7004, "Ġapparition": 7005, "Ġmontagnes": 7006, "Ġachev": 7007, "inion": 7008, "Ã©ph": 7009, "ciers": 7010, "ouche": 7011, "Ġprofessionnels": 7012, "seignement": 7013, "ĠextrÃªmement": 7014, "ĠpÃ¢": 7015, "Ġath": 7016, "tillerie": 7017, "Ġcolonies": 7018, "ĠBerg": 7019, "Ġpierres": 7020, "Ġcomplet": 7021, "ĠchaÃ®nes": 7022, "ĠcondamnÃ©": 7023, "oub": 7024, "ĠTro": 7025, "ashington": 7026, "urie": 7027, "Ġdistingu": 7028, "ouvrage": 7029, "Ġsubit": 7030, "ult": 7031, "ĠdessinÃ©e": 7032, "Ġactes": 7033, "Ġconflits": 7034, "MÃªme": 7035, "inform": 7036, "Ġnationaux": 7037, "ulent": 7038, "ĠbasÃ©": 7039, "ĠMath": 7040, "ĠdiffÃ©rente": 7041, "ĠredÃ©c": 7042, "Ġvac": 7043, "Ġesc": 7044, "Ġparticules": 7045, "Ã©mique": 7046, "ĠrÃ©form": 7047, "eck": 7048, "Ġmilit": 7049, "Ġportug": 7050, "Ġcontemporaine": 7051, "Premi": 7052, "rÃ¢ce": 7053, "Ġplant": 7054, "Ġlancement": 7055, "ĠadoptÃ©": 7056, "Contrairement": 7057, "Ġactive": 7058, "ĠStu": 7059, "ĠTre": 7060, "apes": 7061, "Ġspectacle": 7062, "Ġchimique": 7063, "Ġnoblesse": 7064, "umel": 7065, "Ġarbres": 7066, "ocÃ©an": 7067, "ĠCompagn": 7068, "interprÃ©": 7069, "ĠnÃ©cessitÃ©": 7070, "lÃ©es": 7071, "Ġsecteurs": 7072, "35": 7073, "Ġmachines": 7074, "Ġdeviendra": 7075, "neau": 7076, "ĠproposÃ©": 7077, "Ġpromotion": 7078, "automne": 7079, "ena": 7080, "Ġfrancs": 7081, "dom": 7082, "Ġfasc": 7083, "Ġnat": 7084, "ĠaccompagnÃ©": 7085, "ĠÃ©chec": 7086, "Ġtenir": 7087, "Ġinstallations": 7088, "ĠbasÃ©e": 7089, "ĠrÃ©gionale": 7090, "ressions": 7091, "Ġvide": 7092, "ĠdifficultÃ©": 7093, "Ġmoteurs": 7094, "ĠAnton": 7095, "astes": 7096, "Ġprenant": 7097, "ĠEsp": 7098, "Ġquad": 7099, "resser": 7100, "anisation": 7101, "ĠpropriÃ©taires": 7102, "Ġaccueill": 7103, "ĠAnglais": 7104, "Ġpous": 7105, "ulf": 7106, "Ġlittor": 7107, "ĠclassÃ©": 7108, "Ġinterpr": 7109, "Organisation": 7110, "ĠLÃ©g": 7111, "Ġexpli": 7112, "Ã¨che": 7113, "Ġanalyse": 7114, "Ġexistent": 7115, "Ġresponsables": 7116, "Ġencou": 7117, "ĠmontrÃ©": 7118, "ĠreprÃ©senter": 7119, "lack": 7120, "alg": 7121, "Ġdioc": 7122, "IB": 7123, "ĠgoÃ»t": 7124, "Ġtension": 7125, "ĠChÃ¢teau": 7126, "ĠcomÃ©die": 7127, "ugby": 7128, "Ġ1870": 7129, "Ġnar": 7130, "Ġadministratif": 7131, "Ġsax": 7132, "auph": 7133, "Ġconfront": 7134, "Ġchanteur": 7135, "jection": 7136, "Ġprosp": 7137, "ĠapprÃ©ci": 7138, "ĠemployÃ©": 7139, "Ġvendre": 7140, "Ġrapproche": 7141, "enreg": 7142, "oscou": 7143, "Ġpapier": 7144, "ĠopÃ©ration": 7145, "Ġ39": 7146, "ĠChristoph": 7147, "Ġmut": 7148, "ĠGas": 7149, "Ġneur": 7150, "Ġministres": 7151, "Ã©gal": 7152, "venu": 7153, "affir": 7154, "aniste": 7155, "Ġbandes": 7156, "quide": 7157, "ĠOli": 7158, "osa": 7159, "autor": 7160, "ĠdÃ©finir": 7161, "ĠsuccÃ¨de": 7162, "ĠdestinÃ©e": 7163, "Ġcollectif": 7164, "terie": 7165, "Ġsignes": 7166, "ĠÃ©loign": 7167, "ĠTch": 7168, "ĠdÃ©fendre": 7169, "ĠInde": 7170, "Ġbouddh": 7171, "Ġcontest": 7172, "ĠÃ©glises": 7173, "Ġcommerciale": 7174, "ĠWashington": 7175, "ĠirrÃ©": 7176, "Ġlev": 7177, "ĠrÃ©publicain": 7178, "ennies": 7179, "ĠdÃ©veloppÃ©e": 7180, "Ġhumaines": 7181, "Ġsortir": 7182, "vergne": 7183, "ĠPyrÃ©": 7184, "ĠÃ©vÃªque": 7185, "Ġphilosophe": 7186, "dam": 7187, "Ġ1943": 7188, "Ġmairie": 7189, "aptiste": 7190, "orith": 7191, "ĠRenaissance": 7192, "Composition": 7193, "ĠdÃ©cennies": 7194, "Ġcanon": 7195, "armes": 7196, "Ã¨nement": 7197, "ĠFe": 7198, "Ġmunicipales": 7199, "Ġbyz": 7200, "Ġautrich": 7201, "ĠÂ·": 7202, "ivement": 7203, "Ġliquide": 7204, "Finalement": 7205, "Ġextension": 7206, "ĠMit": 7207, "Ã®tre": 7208, "extrÃªme": 7209, "Ġjaponaise": 7210, "Ġannuelle": 7211, "Ġventes": 7212, "Ġmauvais": 7213, "anglais": 7214, "Ġobjectifs": 7215, "Ġpaysans": 7216, "ull": 7217, "adis": 7218, "Ġdistinguer": 7219, "Ġoutils": 7220, "Ġapproche": 7221, "ĠOp": 7222, "ĠHongrie": 7223, "Ġpertes": 7224, "Ġcaval": 7225, "appu": 7226, "aumes": 7227, "rastructures": 7228, "Ġfranco": 7229, "ĠentiÃ¨re": 7230, "ĠdirigÃ©e": 7231, "ĠPyrÃ©nÃ©es": 7232, "Ġlatine": 7233, "Ġrig": 7234, "ĠrÃ©nov": 7235, "ĠÃīc": 7236, "ĠCorÃ©e": 7237, "37": 7238, "ĠremportÃ©": 7239, "ramm": 7240, "Ġvariables": 7241, "ĠBarb": 7242, "ĠÃīdouard": 7243, "ĠRi": 7244, "Ġpouvaient": 7245, "Ġprimi": 7246, "ditÃ©": 7247, "Ġcodi": 7248, "BC": 7249, "Ġtechnologie": 7250, "ercice": 7251, "ye": 7252, "ouc": 7253, "Ġcontraint": 7254, "Ġphysiques": 7255, "ĠBaptiste": 7256, "ĠLab": 7257, "Ġpros": 7258, "Ġvall": 7259, "ĠenvoyÃ©": 7260, "Ã©lectricitÃ©": 7261, "ĠconÃ§u": 7262, "ĠMass": 7263, "Ġrevenir": 7264, "oft": 7265, "ĠCatherine": 7266, "ĠfaÃ§ade": 7267, "Ġrecevoir": 7268, "Ġconstruits": 7269, "ĠStrasbourg": 7270, "Ġ1955": 7271, "Ġfournir": 7272, "Ġconnaissances": 7273, "fred": 7274, "Ġlibres": 7275, "ĠMoscou": 7276, "ĠBob": 7277, "Ġpun": 7278, "ĠCÃ´te": 7279, "vres": 7280, "ĠdÃ©clarÃ©": 7281, "Ġmam": 7282, "ĠNeu": 7283, "Ã³n": 7284, "Ġvertic": 7285, "isÃ©e": 7286, "ĠDur": 7287, "Ġconstat": 7288, "Ġbrill": 7289, "ium": 7290, "Description": 7291, "Ġdiscipline": 7292, "roc": 7293, "Ġflux": 7294, "Ġ1942": 7295, "ĠCrÃ©": 7296, "Ġjardins": 7297, "Ġtrouvait": 7298, "ĠSur": 7299, "Ġrecours": 7300, "ĠfinanciÃ¨re": 7301, "ĠresponsabilitÃ©": 7302, "Ġproclam": 7303, "ĠÃ©crire": 7304, "opulation": 7305, "Ġblancs": 7306, "to": 7307, "usses": 7308, "Ġ1957": 7309, "Ġorg": 7310, "ĠrÃ©putation": 7311, "Ġvec": 7312, "24": 7313, "mage": 7314, "mper": 7315, "Ġargu": 7316, "ĠTri": 7317, "Ġacte": 7318, "ĠocÃ©": 7319, "rey": 7320, "ake": 7321, "ArmÃ©e": 7322, "Ġdoctrine": 7323, "Fran": 7324, "Ġaire": 7325, "lanc": 7326, "ĠreprÃ©sentations": 7327, "sme": 7328, "Ġtempor": 7329, "ried": 7330, "Ã¡n": 7331, "Ġsecours": 7332, "Ġfigures": 7333, "sh": 7334, "ĠentrÃ©e": 7335, "Ġconservation": 7336, "ĠBÃ©": 7337, "Comm": 7338, "Ġrace": 7339, "ĠlaissÃ©": 7340, "Ġos": 7341, "ĠrÃ´les": 7342, "ĠdÃ©signÃ©": 7343, "habitants": 7344, "Ġsuici": 7345, "ĠrÃ©partis": 7346, "Ġrappelle": 7347, "Chez": 7348, "exc": 7349, "ĠbÃ©n": 7350, "engage": 7351, "ĠcoÃ»": 7352, "ĠcoopÃ©ration": 7353, "Ġbiais": 7354, "Ġinformatique": 7355, "ĠAmÃ©ricains": 7356, "enregistre": 7357, "Ġminimum": 7358, "Ġsuffisamment": 7359, "mettre": 7360, "Ġly": 7361, "ilÃ©": 7362, "ĠÃ©vÃª": 7363, "Ġgross": 7364, "ĠLis": 7365, "ĠintÃ©rÃªts": 7366, "ĠdÃ©mocrate": 7367, "ĠpÃ©nins": 7368, "Ġappareils": 7369, "luant": 7370, "ĠmontÃ©e": 7371, "ĠInternet": 7372, "Ġchinoise": 7373, "ĠLuxembourg": 7374, "US": 7375, "pie": 7376, "Ġconduis": 7377, "animation": 7378, "IS": 7379, "hypothÃ¨se": 7380, "arin": 7381, "Ġaccords": 7382, "phabet": 7383, "tiss": 7384, "fiÃ©e": 7385, "oque": 7386, "Ġ166": 7387, "Ġign": 7388, "ĠprÃ©paration": 7389, "inÃ©e": 7390, "Ġ37": 7391, "ĠMilan": 7392, "Ġvan": 7393, "ĠLan": 7394, "48": 7395, "tuaire": 7396, "artiste": 7397, "cile": 7398, "tionnels": 7399, "Ġ1952": 7400, "ĠmÃ©daille": 7401, "Ġcriti": 7402, "Ġprit": 7403, "exemple": 7404, "gÃ©es": 7405, "Ã©mi": 7406, "Ġaspects": 7407, "avis": 7408, "Ġpoissons": 7409, "ĠgÃ©nÃ©tique": 7410, "Ġstric": 7411, "ĠZe": 7412, "Ġretard": 7413, "Ã©quilibre": 7414, "Ã©les": 7415, "Ġutilisation": 7416, "ĠpÃ¨ler": 7417, "ski": 7418, "Ġsusc": 7419, "ygÃ¨ne": 7420, "Ġdistinction": 7421, "Ġpostes": 7422, "Ġ1941": 7423, "Ġ75": 7424, "Ġå": 7425, "ubles": 7426, "Ġcinquante": 7427, "olfe": 7428, "burg": 7429, "cht": 7430, "Ġvais": 7431, "Ġ1953": 7432, "Ġuniversitaire": 7433, "Ġvou": 7434, "Ġbrig": 7435, "Ġinternationaux": 7436, "ĠBab": 7437, "Ġtherm": 7438, "ĠfÃ©minin": 7439, "Op": 7440, "ĠpÃ©r": 7441, "Ġexac": 7442, "Ġasc": 7443, "trÃ©mitÃ©": 7444, "liste": 7445, "ĠÃ©changes": 7446, "usalem": 7447, "Ġcapital": 7448, "Ġchimiques": 7449, "ief": 7450, "Ġsatisf": 7451, "ĠmÃ©ri": 7452, "orat": 7453, "autes": 7454, "Ġadministratives": 7455, "ĠcritÃ¨res": 7456, "Ġ1900": 7457, "Ġorganismes": 7458, "essentiel": 7459, "Ġmunicipale": 7460, "uÃ©": 7461, "roits": 7462, "23": 7463, "Ġcomtes": 7464, "Ġbaie": 7465, "Ġtenue": 7466, "Ġgri": 7467, "Ġfinal": 7468, "Ġformant": 7469, "Ġsuffrages": 7470, "Ġquarante": 7471, "Ã©ritage": 7472, "Ġseigneurs": 7473, "iterranÃ©e": 7474, "Ġdesservie": 7475, "ĠRam": 7476, "assurer": 7477, "Ġjudiciaire": 7478, "Ġtroupe": 7479, "avier": 7480, "Ġactif": 7481, "ĠintÃ©rieur": 7482, "Ġpenser": 7483, "ĠNoÃ«l": 7484, "Ġ38": 7485, "Ġnormes": 7486, "Ġ1938": 7487, "ĠÃ©quipements": 7488, "Ġperc": 7489, "ĠdÃ©couvertes": 7490, "ight": 7491, "Ġ160": 7492, "ĠdÃ©mocratie": 7493, "Ġreliant": 7494, "arrÃªt": 7495, "omo": 7496, "elin": 7497, "Ġamou": 7498, "incl": 7499, "ainissement": 7500, "alie": 7501, "erson": 7502, "Ġfame": 7503, "ĠPalais": 7504, "47": 7505, "Ġmines": 7506, "iÃ©es": 7507, "hÃ´pital": 7508, "rophes": 7509, "ĠdiffÃ©rent": 7510, "ĠmÃ©l": 7511, "rak": 7512, "instar": 7513, "Ġ48": 7514, "Ġgagner": 7515, "Ġnatur": 7516, "ĠÃ©cologique": 7517, "Ġfre": 7518, "cesseur": 7519, "Ġpieds": 7520, "Ac": 7521, "ĠdÃ©bar": 7522, "Ã©levage": 7523, "ĠhiÃ©r": 7524, "Ġeffectue": 7525, "dion": 7526, "ĠCant": 7527, "ĠpersonnalitÃ©": 7528, "Ġrupture": 7529, "ĠpÃ´le": 7530, "Ġmonarchie": 7531, "aband": 7532, "ĠassociÃ©e": 7533, "limat": 7534, "ĠparticipÃ©": 7535, "Ġattaques": 7536, "Ġnations": 7537, "Ġhautes": 7538, "Ġimpossible": 7539, "ĠPeter": 7540, "ĠrÃ©cur": 7541, "ĠÃ©missions": 7542, "ĠCe": 7543, "Ġremplace": 7544, "Ġjournaux": 7545, "Ġlicence": 7546, "ĠAng": 7547, "ĠÃ©tudie": 7548, "Ġouvriers": 7549, "Ġmorale": 7550, "ĠMÃ©diterranÃ©e": 7551, "Ġchanger": 7552, "ĠFi": 7553, "Ġquotidien": 7554, "90": 7555, "Ġench": 7556, "ĠlÃ©gend": 7557, "Ġcuivre": 7558, "ennis": 7559, "Ġexempl": 7560, "ĠVenise": 7561, "ĠcomplÃ©": 7562, "ĠthÃ©orÃ¨me": 7563, "Emp": 7564, "Ġsty": 7565, "Ġparent": 7566, "ĠconsÃ©quent": 7567, "Ġforter": 7568, "Ġdanger": 7569, "Ġmusical": 7570, "astiques": 7571, "ĠFort": 7572, "ĠWind": 7573, "ft": 7574, "Ġpiste": 7575, "Ġprotoc": 7576, "ĠPÃ©t": 7577, "Ġdurable": 7578, "Ġchauss": 7579, "exÃ©cution": 7580, "espÃ¨ce": 7581, "Ġparticuliers": 7582, "ĠrÃ©union": 7583, "ĠdiffusÃ©e": 7584, "ĠlimitÃ©e": 7585, "com": 7586, "alisÃ©es": 7587, "ĠrÃ©solution": 7588, "actuelle": 7589, "Ã©quip": 7590, "ĠPet": 7591, "Ġconcurrent": 7592, "ĠCompagnie": 7593, "Voir": 7594, "Ġcollabor": 7595, "Ġparlementaire": 7596, "ĠFront": 7597, "Ã©ens": 7598, "exposition": 7599, "Ġconvention": 7600, "Ġproportion": 7601, "Ġexig": 7602, "illÃ©e": 7603, "Ġ170": 7604, "Ġprovisoire": 7605, "orld": 7606, "Ġcatast": 7607, "Ġcivilisation": 7608, "uro": 7609, "Ġvivent": 7610, "Ġlancer": 7611, "Ġfen": 7612, "ĠrÃ©gionales": 7613, "relle": 7614, "ĠthÃ©ories": 7615, "36": 7616, "Ġdos": 7617, "ĠcomÃ©di": 7618, "ĠNouveau": 7619, "Ġautomatique": 7620, "Ã©lu": 7621, "Ġpartiellement": 7622, "Ġsacri": 7623, "Ġmajoritairement": 7624, "ĠMes": 7625, "Ġperf": 7626, "Ġmessage": 7627, "Ġmontrer": 7628, "Ġpossession": 7629, "Ġvestiges": 7630, "win": 7631, "ĠoccupÃ©": 7632, "Ġprofessionnelle": 7633, "Ġpourraient": 7634, "ĠMoul": 7635, "dios": 7636, "ĠNÃ©": 7637, "quisition": 7638, "ĠMerc": 7639, "Ġmainten": 7640, "Ġrythme": 7641, "Ġtoit": 7642, "ĠrÃ©formes": 7643, "ermont": 7644, "Ġretourne": 7645, "ĠDomin": 7646, "lever": 7647, "ierge": 7648, "ĠAra": 7649, "Ġrouges": 7650, "Ġgallo": 7651, "26": 7652, "Ġrapporte": 7653, "Ġ168": 7654, "ipel": 7655, "ĠRol": 7656, "intervention": 7657, "Ġmythologie": 7658, "ĠChic": 7659, "astre": 7660, "ĠSA": 7661, "rogÃ¨ne": 7662, "ĠbactÃ©ri": 7663, "Ġcolonel": 7664, "arriÃ¨re": 7665, "Ġchauff": 7666, "ĠpÃ©ninsule": 7667, "ĠCN": 7668, "Ġsuivie": 7669, "Ġexclusivement": 7670, "vet": 7671, "cool": 7672, "sembles": 7673, "ĠAngeles": 7674, "iant": 7675, "Ġlign": 7676, "Ġpyrami": 7677, "Ġrotation": 7678, "ĠrÃ©elle": 7679, "Ġanalys": 7680, "peur": 7681, "ĠÃ©nergie": 7682, "cha": 7683, "Ġapplications": 7684, "Ġcesse": 7685, "Ġsurfaces": 7686, "ĠJÃ©rusalem": 7687, "orique": 7688, "ĠMons": 7689, "Ġorganisations": 7690, "Ġexplic": 7691, "Ġdiman": 7692, "areil": 7693, "Ġdimensions": 7694, "Ġherb": 7695, "ject": 7696, "olo": 7697, "ĠAc": 7698, "Ġconstructions": 7699, "Ġ64": 7700, "Ġsatellite": 7701, "ĠpoÃ©sie": 7702, "adio": 7703, "ĠVar": 7704, "ĠTib": 7705, "usine": 7706, "agnos": 7707, "ĠprÃ©cision": 7708, "Ġterritoriale": 7709, "veurs": 7710, "ĠmÃ©tropole": 7711, "Ġoub": 7712, "Ġvoyageurs": 7713, "28": 7714, "ĠGÃ©rard": 7715, "Arg": 7716, "ĠmÃ©diterran": 7717, "Ġtableaux": 7718, "ĠemployÃ©s": 7719, "EC": 7720, "lusion": 7721, "Ġajoute": 7722, "ĠnÃ©gociations": 7723, "occ": 7724, "Ang": 7725, "Ġvise": 7726, "ĠCI": 7727, "Ġjazz": 7728, "Ġ1933": 7729, "ĠXIV": 7730, "Ġchristianisme": 7731, "ĠTom": 7732, "ĠdÃ©place": 7733, "ĠdiffÃ©rences": 7734, "ĠÃ©lectriques": 7735, "Ġcircuit": 7736, "ierre": 7737, "ĠvariÃ©tÃ©s": 7738, "ĠAff": 7739, "ĠRod": 7740, "Ġglace": 7741, "alimentation": 7742, "ĠnÃ©cessite": 7743, "Ġfaux": 7744, "ĠDire": 7745, "ĠprÃ©sentes": 7746, "Arm": 7747, "abbÃ©": 7748, "Ġsoutenir": 7749, "ĠAlli": 7750, "Afin": 7751, "any": 7752, "umul": 7753, "ĠbÃ©t": 7754, "Ġsis": 7755, "invent": 7756, "orge": 7757, "Ġindic": 7758, "Ġculturelles": 7759, "Ġvoisins": 7760, "ĠChristian": 7761, "aib": 7762, "ĠConstantinople": 7763, "Homme": 7764, "rÃ©sor": 7765, "Ġnormale": 7766, "ĠvÃ©ritÃ©": 7767, "Ġrent": 7768, "ĠannoncÃ©": 7769, "oig": 7770, "urgie": 7771, "ĠdivisÃ©": 7772, "ĠhÃ´te": 7773, "Ġsuscep": 7774, "ĠGÃ©": 7775, "onnais": 7776, "Ġconfiance": 7777, "Ġfouilles": 7778, "ĠAsie": 7779, "lign": 7780, "Ġarrond": 7781, "Ġpotentiel": 7782, "Ġcycl": 7783, "Ġpiano": 7784, "igration": 7785, "ĠDun": 7786, "Ġclient": 7787, "Ġinvestis": 7788, "Ġsoutenu": 7789, "Ã©man": 7790, "Art": 7791, "ĠprÃ©cipitations": 7792, "Ġpassagers": 7793, "Ġlire": 7794, "Ġtraditions": 7795, "ht": 7796, "Ġparole": 7797, "Ġcollecte": 7798, "Ġcardinal": 7799, "ache": 7800, "Ġ1929": 7801, "GrÃ¢ce": 7802, "Ġrelev": 7803, "Ġacteur": 7804, "Comp": 7805, "mins": 7806, "ĠCos": 7807, "ĠPoi": 7808, "ĠÃ©tablissement": 7809, "Ġautonome": 7810, "adop": 7811, "Ġdizaines": 7812, "Ġsyl": 7813, "ĠTrÃ©": 7814, "Ġveille": 7815, "Ġconform": 7816, "Ġ1951": 7817, "ĠDeux": 7818, "Char": 7819, "ĠintÃ¨gre": 7820, "Ġlogiciels": 7821, "ulier": 7822, "Ġ1919": 7823, "Ġmorph": 7824, "ĠrÃ©pondre": 7825, "aya": 7826, "Ġanth": 7827, "ĠDiv": 7828, "Ġtraditionnel": 7829, "Ġorthod": 7830, "ĠRaymond": 7831, "Ġroche": 7832, "Ġenter": 7833, "Ġnourriture": 7834, "itions": 7835, "Ġmodifications": 7836, "Lieux": 7837, "Ġtriom": 7838, "Ġpes": 7839, "Ġmou": 7840, "ĠDub": 7841, "Ġcommunistes": 7842, "lieue": 7843, "Å«": 7844, "ĠWiki": 7845, "Urb": 7846, "Ġem": 7847, "Ġvols": 7848, "ĠVie": 7849, "Ġpuissant": 7850, "Ġdizaine": 7851, "ĠrÃ©daction": 7852, "yo": 7853, "entiss": 7854, "ĠnÃ©o": 7855, "Ġcaf": 7856, "nam": 7857, "ĠÃ©tats": 7858, "Ġtransmission": 7859, "Ġ167": 7860, "ĠfÃ©": 7861, "ĠdÃ©claration": 7862, "ystÃ¨me": 7863, "Ġduquel": 7864, "ancel": 7865, "Lorsqu": 7866, "Ġclin": 7867, "Ġallemandes": 7868, "ĠlÃ©giti": 7869, "Ġ1937": 7870, "Ġseules": 7871, "ish": 7872, "ĠCommunautÃ©": 7873, "Ġhoriz": 7874, "Ġox": 7875, "Ġreconstru": 7876, "aus": 7877, "ĠMet": 7878, "identif": 7879, "Ã©lÃ¨ve": 7880, "Ġemploi": 7881, "Ġjet": 7882, "iditÃ©": 7883, "Ġclairement": 7884, "appellation": 7885, "bal": 7886, "Ġadmi": 7887, "ĠdÃ©sir": 7888, "Ġenvirons": 7889, "ĠconsÃ©c": 7890, "Ġflam": 7891, "Ġempereur": 7892, "NS": 7893, "ĠHel": 7894, "Ġ120": 7895, "haus": 7896, "ĠKing": 7897, "ĠmatiÃ¨res": 7898, "Ġchronique": 7899, "27": 7900, "osent": 7901, "isses": 7902, "trise": 7903, "URSS": 7904, "cis": 7905, "ĠChris": 7906, "ĠsynthÃ¨se": 7907, "Ġcod": 7908, "ĠArm": 7909, "DÃ©c": 7910, "ualitÃ©": 7911, "Ġessais": 7912, "ĠsupplÃ©mentaires": 7913, "ĠrÃ©sidences": 7914, "Ġgamme": 7915, "Ġsports": 7916, "lÃ©si": 7917, "Ġmener": 7918, "Ġ51": 7919, "Ġparcour": 7920, "oncle": 7921, "acitÃ©s": 7922, "Ġmarin": 7923, "Ġsecret": 7924, "Ġfusionn": 7925, "ĠBrest": 7926, "Ġoriginal": 7927, "ĠdÃ©barque": 7928, "licitÃ©": 7929, "Ġ1793": 7930, "ĠMun": 7931, "Ġcorrespondance": 7932, "Ġjuive": 7933, "Ġnettement": 7934, "Ġdessins": 7935, "ĠDV": 7936, "ĠpÃ©trole": 7937, "no": 7938, "sim": 7939, "ĠexÃ©c": 7940, "ĠVe": 7941, "ĠappelÃ©es": 7942, "ĠreconnaÃ®t": 7943, "ĠmonastÃ¨re": 7944, "Ġcouverture": 7945, "Ġhect": 7946, "ĠsuÃ©d": 7947, "Ġottom": 7948, "Ġactifs": 7949, "Ã©dia": 7950, "ennie": 7951, "emplacement": 7952, "ixe": 7953, "erme": 7954, "Ġdevenant": 7955, "Ġvariations": 7956, "Mar": 7957, "45": 7958, "enci": 7959, "Ġcharges": 7960, "Typ": 7961, "Ġseigneurie": 7962, "Ġom": 7963, "Ġnoirs": 7964, "ineux": 7965, "Ġbanlieue": 7966, "ĠLune": 7967, "ocat": 7968, "ĠAnti": 7969, "ĠGall": 7970, "istocra": 7971, "ĠdÃ©fait": 7972, "Ġconsacre": 7973, "ĠNorv": 7974, "alition": 7975, "uffis": 7976, "Ġsanc": 7977, "Ġdestination": 7978, "ĠmÃ©taph": 7979, "Ġanglo": 7980, "ĠnÃ©erlandais": 7981, "rot": 7982, "Ġpon": 7983, "Ġchir": 7984, "ĠÃ©volue": 7985, "Ġ1934": 7986, "Ġclair": 7987, "Ġbient": 7988, "ĠmarchÃ©s": 7989, "Ġtrip": 7990, "Ġbanc": 7991, "ĠÃīgypte": 7992, "ĠJourn": 7993, "Ġretrait": 7994, "ĠStar": 7995, "Ġbateaux": 7996, "Ġvaisseau": 7997, "Ġgren": 7998, "ĠMans": 7999, "ĠbientÃ´t": 8000, "Ġvins": 8001, "abs": 8002, "ister": 8003, "Ġvainqueur": 8004, "Population": 8005, "ĠcompÃ©tence": 8006, "Ġtub": 8007, "Ġgrave": 8008, "ĠindÃ©pendante": 8009, "ket": 8010, "Ġcur": 8011, "ĠÃ©vÃ©nement": 8012, "ene": 8013, "Ġconseils": 8014, "ĠprÃ©dÃ©": 8015, "olithique": 8016, "tionnaires": 8017, "ĠÃ©trangÃ¨re": 8018, "ĠPo": 8019, "amine": 8020, "ĠrenommÃ©e": 8021, "ĠYves": 8022, "Ġcabinet": 8023, "gar": 8024, "ĠAmer": 8025, "Ġmens": 8026, "ĠprÃ©tend": 8027, "Ġ55": 8028, "trait": 8029, "olly": 8030, "ĠÃ©tablit": 8031, "Ġtropic": 8032, "ĠmÃ©tropolit": 8033, "ĠGil": 8034, "ventions": 8035, "ĠFab": 8036, "Ã©galitÃ©": 8037, "jon": 8038, "avent": 8039, "oppose": 8040, "Ġfacteur": 8041, "tibles": 8042, "ĠHi": 8043, "ĠcinÃ©mat": 8044, "ĠFontaine": 8045, "tille": 8046, "appui": 8047, "ref": 8048, "ĠcÃ¢": 8049, "ĠBrie": 8050, "ĠrÃ©cits": 8051, "Ġdocteur": 8052, "Ã©crit": 8053, "ĠrÃ©alisÃ©s": 8054, "ĠArt": 8055, "ĠBall": 8056, "ĠcarrÃ©": 8057, "ĠdiversitÃ©": 8058, "char": 8059, "EP": 8060, "Ġski": 8061, "Ġfera": 8062, "Ġpuissances": 8063, "Ġsentiment": 8064, "32": 8065, "Ġ165": 8066, "ĠSmith": 8067, "roÃ¯": 8068, "Ġtraits": 8069, "Ġaim": 8070, "erturb": 8071, "Ġaqu": 8072, "usta": 8073, "ĠArg": 8074, "hal": 8075, "Ġcents": 8076, "Ġflor": 8077, "riss": 8078, "ĠConc": 8079, "ocalisation": 8080, "Ġapporte": 8081, "Ġtravailleurs": 8082, "Ġsurnom": 8083, "zi": 8084, "Ġpaysage": 8085, "ĠuniversitÃ©s": 8086, "ĠdÃ©cisions": 8087, "ĠStade": 8088, "tionnelles": 8089, "Ġfacul": 8090, "Ġfruit": 8091, "Ġorbite": 8092, "aparte": 8093, "nel": 8094, "ĠOb": 8095, "Ġphrase": 8096, "ĠÃ©gal": 8097, "Ġdict": 8098, "initiative": 8099, "ĠVincent": 8100, "ĠfÃªtes": 8101, "ĠapparaÃ®tre": 8102, "Ġdynamique": 8103, "Ġcouvre": 8104, "inois": 8105, "Ġplomb": 8106, "aceae": 8107, "Ġsolide": 8108, "Ġtac": 8109, "Ġconfirme": 8110, "omique": 8111, "Insee": 8112, "ĠadaptÃ©": 8113, "audi": 8114, "Ġvoitures": 8115, "Ġpauvres": 8116, "Ġrichesse": 8117, "38": 8118, "ĠMaroc": 8119, "Ġpersonnelle": 8120, "Ġagents": 8121, "ĠtraitÃ©s": 8122, "Ġarc": 8123, "Ġcommiss": 8124, "Ġbilan": 8125, "ĠEug": 8126, "ush": 8127, "Ġ47": 8128, "ĠconsidÃ©rablement": 8129, "ĠApp": 8130, "erÃ§": 8131, "ĠÃİle": 8132, "Ã©pis": 8133, "Ġ1932": 8134, "ĠprofondÃ©ment": 8135, "ĠTÃ©lÃ©": 8136, "ĠSuper": 8137, "29": 8138, "agements": 8139, "Ġrecon": 8140, "Ã©ran": 8141, "Ġgarn": 8142, "Ġregroupant": 8143, "onciation": 8144, "Ġtransition": 8145, "Quant": 8146, "ĠpoÃ¨me": 8147, "Ġbasil": 8148, "Ġgoth": 8149, "ĠpoÃ¨mes": 8150, "Ã©viter": 8151, "Ġsimpli": 8152, "ĠstratÃ©gique": 8153, "ĠmÃ©tÃ©or": 8154, "rod": 8155, "cel": 8156, "ĠChamb": 8157, "venue": 8158, "Ġcauses": 8159, "ĠrÃ©unit": 8160, "cent": 8161, "ouis": 8162, "Ġuns": 8163, "Ġmontant": 8164, "CO": 8165, "ĠdÃ©placement": 8166, "Ġdemander": 8167, "hom": 8168, "ota": 8169, "Ġincar": 8170, "Ġ1910": 8171, "Ġracines": 8172, "Ġpayer": 8173, "Ġensembles": 8174, "ĠOccident": 8175, "estes": 8176, "prÃªme": 8177, "isembl": 8178, "Ġvenus": 8179, "oto": 8180, "ĠcapacitÃ©s": 8181, "manuel": 8182, "ĠattribuÃ©": 8183, "aspect": 8184, "ĠboÃ®": 8185, "ava": 8186, "sident": 8187, "Ġ1935": 8188, "ĠReich": 8189, "artillerie": 8190, "Ġbateau": 8191, "Ġparticipent": 8192, "Ġparf": 8193, "Ġcommuni": 8194, "Ġchemins": 8195, "Ġperformances": 8196, "Ġsable": 8197, "Ġtraditionnellement": 8198, "ignes": 8199, "Pers": 8200, "ĠMarine": 8201, "ĠMonte": 8202, "ibilitÃ©": 8203, "Ġfall": 8204, "Ġpartout": 8205, "ĠPrusse": 8206, "El": 8207, "Ġhypoth": 8208, "ĠPacifique": 8209, "Ġmoines": 8210, "Parall": 8211, "Ġdifficiles": 8212, "intÃ©gration": 8213, "istÃ¨re": 8214, "acide": 8215, "ĠdÃ©esse": 8216, "ella": 8217, "Ġchercher": 8218, "Ġperdre": 8219, "ĠclÃ©": 8220, "ieur": 8221, "Ġinfin": 8222, "Ġremise": 8223, "Ath": 8224, "ĠrattachÃ©e": 8225, "Ã±": 8226, "Ġentend": 8227, "Ġperturb": 8228, "abe": 8229, "Ġlongs": 8230, "Ġjouent": 8231, "Ġrugby": 8232, "ocation": 8233, "Ġcontemporains": 8234, "Ġefforts": 8235, "aissant": 8236, "Ġsoixante": 8237, "orne": 8238, "ĠMiss": 8239, "Ġremplacement": 8240, "ĠdÃ©couvrir": 8241, "Ġphotos": 8242, "ligne": 8243, "Ġaustra": 8244, "aret": 8245, "tÃ©ritÃ©": 8246, "Ġimprim": 8247, "offre": 8248, "ĠPau": 8249, "Ġacqu": 8250, "yan": 8251, "Ġdisques": 8252, "ufs": 8253, "ado": 8254, "ParallÃ¨lement": 8255, "atmosphÃ¨re": 8256, "acÃ©es": 8257, "Ġpanne": 8258, "reau": 8259, "Ġconcile": 8260, "opie": 8261, "obe": 8262, "Ġritu": 8263, "Ġbattu": 8264, "ysique": 8265, "humanitÃ©": 8266, "ĠSyrie": 8267, "Ġsoulign": 8268, "ĠmÃ©taux": 8269, "rants": 8270, "Ġcouches": 8271, "ĠÃ©met": 8272, "ĠBol": 8273, "diens": 8274, "Ġperspective": 8275, "ĠconsidÃ¨rent": 8276, "ĠQue": 8277, "ĠconsidÃ©rable": 8278, "ĠÃ¨re": 8279, "emark": 8280, "ties": 8281, "ouÃ©": 8282, "ĠPatrick": 8283, "guerite": 8284, "uge": 8285, "ĠhÃ©b": 8286, "ĠDie": 8287, "appelle": 8288, "ĠRed": 8289, "Ġsel": 8290, "veu": 8291, "ĠassociÃ©s": 8292, "Ġarchitectur": 8293, "Ġpa": 8294, "Ġtram": 8295, "ĠVict": 8296, "esses": 8297, "dule": 8298, "Ġcoups": 8299, "ĠPers": 8300, "Ġ1926": 8301, "ĠCity": 8302, "Ġpharm": 8303, "Ġlente": 8304, "Ġexpliquer": 8305, "ĠÃ¢gÃ©": 8306, "AM": 8307, "Ġcontribue": 8308, "Ġanimal": 8309, "Ãītymologie": 8310, "Ġennemis": 8311, "obel": 8312, "Ġprogrammation": 8313, "ĠengagÃ©": 8314, "iger": 8315, "Ġalent": 8316, "duites": 8317, "ilisation": 8318, "Acc": 8319, "cidents": 8320, "ĠTours": 8321, "ĠPark": 8322, "Ġtunn": 8323, "ĠprÃ©fet": 8324, "ĠÃ®le": 8325, "ĠChicago": 8326, "rob": 8327, "ĠPin": 8328, "Ġcompil": 8329, "Ġ1924": 8330, "Pat": 8331, "Ġcrimin": 8332, "pel": 8333, "Ġweb": 8334, "tume": 8335, "entissage": 8336, "ĠstÃ©": 8337, "yclop": 8338, "ĠTr": 8339, "ĠAns": 8340, "ĠrÃ©flexion": 8341, "umÃ©": 8342, "ĠprÃ©sentant": 8343, "aign": 8344, "ĠdÃ©cennie": 8345, "urbanisme": 8346, "ĠMÃ©": 8347, "fÃ¨res": 8348, "Ġnotes": 8349, "Ġpen": 8350, "Ġgramm": 8351, "aco": 8352, "ophone": 8353, "Ind": 8354, "Ġentrer": 8355, "ĠexpÃ©riences": 8356, "Ġformations": 8357, "Ġmaintien": 8358, "Ġhiver": 8359, "opt": 8360, "odique": 8361, "Ġvolumes": 8362, "observation": 8363, "ĠÃ©toile": 8364, "Ġfuture": 8365, "den": 8366, "Ġapprouv": 8367, "Hyd": 8368, "Syn": 8369, "Ġproducteurs": 8370, "ĠsixiÃ¨me": 8371, "installer": 8372, "Ġperformance": 8373, "ĠDanemark": 8374, "omination": 8375, "ĠIns": 8376, "ĠColle": 8377, "ĠTV": 8378, "Ġscolaire": 8379, "AlgÃ©rie": 8380, "Ġretrouvent": 8381, "34": 8382, "Ġpin": 8383, "ĠJosÃ©": 8384, "ouk": 8385, "invasion": 8386, "Ġgris": 8387, "Ġmonop": 8388, "ĠConvention": 8389, "effond": 8390, "ĠabandonnÃ©": 8391, "ronomie": 8392, "ajout": 8393, "yph": 8394, "ĠalÃ©": 8395, "ĠBlack": 8396, "ophones": 8397, "aig": 8398, "Ġblo": 8399, "Ġchrom": 8400, "ĠdÃ©pit": 8401, "ĠrÃ©serves": 8402, "ĠCin": 8403, "Ġmarais": 8404, "ĠdestinÃ©s": 8405, "Ġvirus": 8406, "Association": 8407, "ĠRD": 8408, "ĠÃ©preuves": 8409, "mÃ©t": 8410, "enait": 8411, "arrÃª": 8412, "Ġboulev": 8413, "atin": 8414, "ĠJacob": 8415, "Ġmythe": 8416, "Ġenseigne": 8417, "sa": 8418, "lisabeth": 8419, "Ġ156": 8420, "ĠrÃ©guliÃ¨re": 8421, "ĠintitulÃ©e": 8422, "Ġrurale": 8423, "ĠLivre": 8424, "ĠÃ©vidence": 8425, "ĠdiocÃ¨se": 8426, "aria": 8427, "Ġlimiter": 8428, "Ġvapeur": 8429, "ĠSicile": 8430, "ĠprÃªtre": 8431, "Ġracine": 8432, "osÃ©e": 8433, "xe": 8434, "Ġtribus": 8435, "Ġalimentaire": 8436, "Ġmill": 8437, "Ġtonnes": 8438, "ĠarrÃªt": 8439, "inverse": 8440, "ĠrÃ©cep": 8441, "Ġsignature": 8442, "inture": 8443, "Ġunies": 8444, "ĠTok": 8445, "ĠRouge": 8446, "Australie": 8447, "ĠdÃ©cident": 8448, "ĠcommÃ©m": 8449, "Ġtouristique": 8450, "ĠlaÃ¯": 8451, "ductions": 8452, "Ġmu": 8453, "ĠAub": 8454, "lule": 8455, "ĠchÃ´": 8456, "Ġchamb": 8457, "Ġhan": 8458, "Ġmanip": 8459, "Es": 8460, "riment": 8461, "ĠMand": 8462, "Ġdimanche": 8463, "Ġcommis": 8464, "Ġmanifeste": 8465, "ĠdÃ©passe": 8466, "harm": 8467, "Ãº": 8468, "abilis": 8469, "ĠVII": 8470, "Ġcombus": 8471, "Ã©fense": 8472, "Ġmauvaise": 8473, "ĠParc": 8474, "installation": 8475, "Ġquasiment": 8476, "Ġpoursuivre": 8477, "fer": 8478, "Ġneige": 8479, "Ġtouche": 8480, "Ceux": 8481, "Ġrestre": 8482, "ĠchÅĵur": 8483, "Ġviande": 8484, "ĠmÃ©decins": 8485, "lys": 8486, "oici": 8487, "ĠArn": 8488, "ĠprÃªtres": 8489, "ĠRoch": 8490, "ĠJan": 8491, "Ġordonn": 8492, "Ġjuifs": 8493, "Ġgraphique": 8494, "Ġcuisine": 8495, "escl": 8496, "Ġsolutions": 8497, "ĠautoritÃ©": 8498, "Urbanisme": 8499, "33": 8500, "ĠAv": 8501, "quitaine": 8502, "opinion": 8503, "Ġ49": 8504, "ĠconsidÃ©rer": 8505, "wa": 8506, "ĠCont": 8507, "ĠassurÃ©e": 8508, "ohn": 8509, "olland": 8510, "ĠFlandre": 8511, "Ġecc": 8512, "ogÃ¨ne": 8513, "Ġsimultan": 8514, "ĠmaÃ®trise": 8515, "Ġremarquable": 8516, "Ġcontrovers": 8517, "Ġproch": 8518, "avance": 8519, "ĠfidÃ¨les": 8520, "Ġfinancement": 8521, "Ġair": 8522, "Ġ1928": 8523, "ĠÃ©chelle": 8524, "lÃ¨vement": 8525, "urrection": 8526, "auf": 8527, "Ġcompens": 8528, "Ġversant": 8529, "ancy": 8530, "ĠpopularitÃ©": 8531, "avion": 8532, "Ġrendent": 8533, "Ġruis": 8534, "ĠNice": 8535, "Ġconsist": 8536, "ĠGrecs": 8537, "aga": 8538, "Ġquelle": 8539, "itÃ©es": 8540, "assassin": 8541, "Ġcoloni": 8542, "Ġsurv": 8543, "ĠhypothÃ¨se": 8544, "ĠarrivÃ©e": 8545, "Ġintervient": 8546, "ĠvÃ©hicule": 8547, "Ġrav": 8548, "ĠHab": 8549, "Ġprobable": 8550, "ĠcaractÃ©rise": 8551, "Ġcommerciales": 8552, "Ġlaboratoire": 8553, "Ġendroit": 8554, "naire": 8555, "tige": 8556, "ĠgrÃ©": 8557, "Off": 8558, "Ġdiagnos": 8559, "Ġports": 8560, "Ġzo": 8561, "Ġit": 8562, "Ã©rable": 8563, "identitÃ©": 8564, "Ġcolonnes": 8565, "Ġdevaient": 8566, "Ġmagas": 8567, "Ġmodification": 8568, "ĠHitler": 8569, "oises": 8570, "ĠrÃ©fÃ©rences": 8571, "ĠMadrid": 8572, "Ġhameau": 8573, "Ġromp": 8574, "pent": 8575, "tins": 8576, "Ã¨vement": 8577, "ason": 8578, "Ġtreize": 8579, "Ġrecueil": 8580, "ĠpubliÃ©s": 8581, "ribution": 8582, "rine": 8583, "Ġterminologie": 8584, "Ġence": 8585, "ĠprÃ©s": 8586, "aÃ¯que": 8587, "Ġhauts": 8588, "ĠBonaparte": 8589, "Ġthermique": 8590, "Ġquator": 8591, "ĠDar": 8592, "FF": 8593, "ĠCel": 8594, "low": 8595, "ducteur": 8596, "Ġqualifie": 8597, "Ġfinancier": 8598, "Ġvendu": 8599, "Ġ52": 8600, "autoroute": 8601, "Ġcass": 8602, "hÃ©m": 8603, "Ġsurveillance": 8604, "onage": 8605, "lÃ©gation": 8606, "ĠGabri": 8607, "ĠTou": 8608, "Beau": 8609, "ĠSon": 8610, "ĠdÃ©bats": 8611, "Ġbiologique": 8612, "Ġfur": 8613, "alors": 8614, "Ġ1789": 8615, "ĠmolÃ©cules": 8616, "ba": 8617, "ĠCond": 8618, "Ġsymbolique": 8619, "Ġmultipli": 8620, "Ġmons": 8621, "Ã©rite": 8622, "ĠprocÃ©dure": 8623, "ĠTal": 8624, "Ġel": 8625, "Ġpourra": 8626, "Ġcroise": 8627, "ĠeffectuÃ©": 8628, "Ġrejoign": 8629, "42": 8630, "Ġbranches": 8631, "ĠSab": 8632, "ouvoir": 8633, "chevÃªque": 8634, "Ġvague": 8635, "ĠDam": 8636, "Ã©rations": 8637, "Ġimpressionn": 8638, "Ġcavalerie": 8639, "ĠSau": 8640, "ĠTunis": 8641, "Ġautomobile": 8642, "NI": 8643, "Ġservent": 8644, "ĠclergÃ©": 8645, "accomp": 8646, "Ġguitare": 8647, "oniques": 8648, "Ġtrait": 8649, "Ã©tablir": 8650, "Ġassimil": 8651, "ĠclassÃ©e": 8652, "dium": 8653, "Ġcharbon": 8654, "Ġ169": 8655, "Ġtournant": 8656, "Ġmorceaux": 8657, "Ġfinanciers": 8658, "ĠdiplÃ´me": 8659, "ralitÃ©": 8660, "Ġdispositif": 8661, "Ġarchives": 8662, "dinand": 8663, "ery": 8664, "eront": 8665, "Ã®t": 8666, "landaise": 8667, "Ob": 8668, "Ġsucre": 8669, "ĠinterprÃ¨te": 8670, "uth": 8671, "Ġuniverselle": 8672, "uir": 8673, "Ġcolline": 8674, "Ġvraisembl": 8675, "Ġvoisine": 8676, "ĠLet": 8677, "Ġpousse": 8678, "ĠSNC": 8679, "Ġhong": 8680, "serve": 8681, "Ġaccent": 8682, "Ġcommerciaux": 8683, "ĠÃ©vÃªques": 8684, "ositions": 8685, "ĠpÃ©": 8686, "Ġsonde": 8687, "Ġceci": 8688, "Ġindustriels": 8689, "ĠÃ©dit": 8690, "ĠCanal": 8691, "omie": 8692, "ĠqualitÃ©s": 8693, "ĠIt": 8694, "ĠcrÃ©Ã©s": 8695, "ĠreprÃ©sentÃ©e": 8696, "lov": 8697, "Ġrassemble": 8698, "Ġrural": 8699, "ĠÃ©tapes": 8700, "Ġ1931": 8701, "Ġmaximale": 8702, "Ġrenforcer": 8703, "Ġisra": 8704, "hÃ©sion": 8705, "Ġpassent": 8706, "archipel": 8707, "actuel": 8708, "ĠenregistrÃ©": 8709, "OC": 8710, "Ġcentaine": 8711, "Ġcomparaison": 8712, "Ġreconstruction": 8713, "orientation": 8714, "wan": 8715, "Ġdouce": 8716, "oxygÃ¨ne": 8717, "hommes": 8718, "Ġmaill": 8719, "iliers": 8720, "ĠprotÃ©ines": 8721, "Ġplat": 8722, "Ġbarb": 8723, "Ġmodifier": 8724, "telligence": 8725, "esc": 8726, "ĠsuprÃªme": 8727, "Ġmarquis": 8728, "Ġreproduction": 8729, "43": 8730, "quette": 8731, "Ġnomination": 8732, "ĠreconnaÃ®tre": 8733, "ĠManche": 8734, "sive": 8735, "urgence": 8736, "Ġestim": 8737, "ands": 8738, "Ġcoalition": 8739, "ĠspÃ©cialistes": 8740, "Ġprincesse": 8741, "clame": 8742, "Ġrencontres": 8743, "awa": 8744, "ĠCarol": 8745, "Aug": 8746, "Ġchoisir": 8747, "ĠrÃ©duite": 8748, "tint": 8749, "Ġproduisent": 8750, "ĠchÃ´mage": 8751, "Ġ1925": 8752, "Ġrayonnement": 8753, "Ã¨vres": 8754, "Ġcellule": 8755, "Ġminor": 8756, "ĠÃ©crivain": 8757, "interprÃ©tation": 8758, "ĠdivisÃ©e": 8759, "Transports": 8760, "vue": 8761, "Ġabrit": 8762, "ĠinaugurÃ©": 8763, "Ġforteresse": 8764, "jan": 8765, "ativitÃ©": 8766, "ĠWeb": 8767, "Ġaccessible": 8768, "ĠintÃ©rieure": 8769, "ĠMaria": 8770, "Ġproductions": 8771, "31": 8772, "Ġvign": 8773, "ĠGh": 8774, "ĠWorld": 8775, "Ġofficier": 8776, "Ġfacile": 8777, "Ġavion": 8778, "Auc": 8779, "Ã©chapp": 8780, "augmentation": 8781, "pÃ©dia": 8782, "Ã¨ges": 8783, "Ã©nieurs": 8784, "Ġcamps": 8785, "ouer": 8786, "ĠRock": 8787, "ĠBlanc": 8788, "agi": 8789, "hr": 8790, "ortÃ©es": 8791, "Ġvolc": 8792, "ĠseptiÃ¨me": 8793, "Ġcirconst": 8794, "ĠrÃ©ellement": 8795, "Ġharm": 8796, "Ġarme": 8797, "ĠWall": 8798, "ĠcoÃ»te": 8799, "Ġtechnologies": 8800, "ĠGold": 8801, "ĠchargÃ©e": 8802, "vad": 8803, "Ġarrondissements": 8804, "uan": 8805, "Ġindig": 8806, "Ġissues": 8807, "ĠcompÃ©titions": 8808, "sier": 8809, "lage": 8810, "Ġsainte": 8811, "ĠHall": 8812, "accueil": 8813, "ĠBor": 8814, "Ġfiliale": 8815, "Ġtentatives": 8816, "Ġpel": 8817, "quait": 8818, "ĠCO": 8819, "ĠGÃ©n": 8820, "Ġcivils": 8821, "39": 8822, "inn": 8823, "ĠCra": 8824, "impose": 8825, "ĠintÃ©grÃ©": 8826, "ĠarchÃ©ologiques": 8827, "olle": 8828, "Ġ65": 8829, "ĠTurquie": 8830, "Ġfaites": 8831, "itimes": 8832, "cient": 8833, "Ġdites": 8834, "ĠvÃ©n": 8835, "ĠÃ©lÃ¨ve": 8836, "onnage": 8837, "expÃ©dition": 8838, "Ġtensions": 8839, "ĠnommÃ©s": 8840, "Toutes": 8841, "Ġconnex": 8842, "ussions": 8843, "neaux": 8844, "Ġnomin": 8845, "Ġcomptes": 8846, "Ġsecondes": 8847, "Ġsab": 8848, "Ġparoles": 8849, "ĠPomp": 8850, "Ġvraiment": 8851, "ĠlatÃ©ra": 8852, "vidu": 8853, "Ġalliance": 8854, "Ġsingle": 8855, "ĠGroupe": 8856, "sectes": 8857, "Ġadaptation": 8858, "Ġracc": 8859, "ĠfinanciÃ¨res": 8860, "Ġvocation": 8861, "Ne": 8862, "Ġbri": 8863, "Ġinhum": 8864, "ĠrÃ©cente": 8865, "Ġsoins": 8866, "otype": 8867, "Ġincluant": 8868, "arisation": 8869, "Ġplaque": 8870, "erman": 8871, "ĠperpÃ©tu": 8872, "ĠmÃ©ridion": 8873, "Ġexige": 8874, "ĠHistoire": 8875, "Ġcolons": 8876, "ĠsÃ»r": 8877, "ĠMen": 8878, "Ġ46": 8879, "odore": 8880, "ĠBir": 8881, "ĠÃ©tablie": 8882, "ĠretrouvÃ©": 8883, "Ġaxe": 8884, "Ġchimie": 8885, "Ġ155": 8886, "Ġtourner": 8887, "Ġcollections": 8888, "bie": 8889, "ĠCode": 8890, "ĠÃ©valu": 8891, "actrice": 8892, "ĠprÃ©nom": 8893, "Ã©rindi": 8894, "approche": 8895, "Ġaffluent": 8896, "intermÃ©diaire": 8897, "Ġparisien": 8898, "ĠPÃ©": 8899, "parti": 8900, "ĠPÃ©r": 8901, "ramment": 8902, "Ġsuccessivement": 8903, "Ed": 8904, "Ġtch": 8905, "ĠLoiret": 8906, "Ġhabituellement": 8907, "Irlande": 8908, "ĠÏ": 8909, "onf": 8910, "sif": 8911, "Ġgaranti": 8912, "Ġlittoral": 8913, "Prin": 8914, "ocie": 8915, "ĠRadio": 8916, "ĠtÃ©moigne": 8917, "anni": 8918, "expansion": 8919, "Ġvingtaine": 8920, "ĠInternational": 8921, "Ġ1921": 8922, "44": 8923, "raux": 8924, "Ġservant": 8925, "Ġanciennement": 8926, "Ġ1848": 8927, "ĠdÃ©rivÃ©": 8928, "Ġgraines": 8929, "oxyde": 8930, "Ġdivisions": 8931, "Ġchevalier": 8932, "Ġsent": 8933, "endum": 8934, "Uti": 8935, "Ã©chec": 8936, "culaire": 8937, "agir": 8938, "Ġrede": 8939, "ĠCaen": 8940, "Ġcontemporain": 8941, "sante": 8942, "Ġphases": 8943, "osex": 8944, "Ġapproxim": 8945, "oncent": 8946, "ĠÃ©ventuellement": 8947, "Ġstable": 8948, "Ġvilla": 8949, "Ġpratiquement": 8950, "Ġcouvert": 8951, "ĠmagnÃ©tique": 8952, "ĠsalariÃ©s": 8953, "ĠMarguerite": 8954, "Ġcolonne": 8955, "ĠÃ©conomie": 8956, "ĠMetz": 8957, "ĠlinÃ©aire": 8958, "accent": 8959, "appareil": 8960, "Ġvieille": 8961, "Ġbeaux": 8962, "Ã©cart": 8963, "Ġ1905": 8964, "Ġdonna": 8965, "Ã©lite": 8966, "Ġ1917": 8967, "view": 8968, "Ġcouramment": 8969, "ĠlittÃ©raires": 8970, "Ġsatellites": 8971, "Ã©enne": 8972, "chen": 8973, "endo": 8974, "ĠEuropÃ©": 8975, "ĠsupÃ©rieures": 8976, "ĠcontribuÃ©": 8977, "Ġquotidienne": 8978, "Climat": 8979, "ommages": 8980, "ĠErn": 8981, "Ġprovoquer": 8982, "ĠaÃ©riennes": 8983, "Ġbu": 8984, "aline": 8985, "Enseignement": 8986, "ĠÃ©gale": 8987, "ĠÃ©lecteurs": 8988, "46": 8989, "Ġassur": 8990, "Ġfar": 8991, "Ġanaly": 8992, "Ġvisage": 8993, "ĠprivÃ©es": 8994, "ĠconsacrÃ©e": 8995, "ĠCette": 8996, "ĠArts": 8997, "ĠcollectivitÃ©s": 8998, "ĠlancÃ©e": 8999, "oÃ®t": 9000, "ctive": 9001, "Ġpropositions": 9002, "Ġliaisons": 9003, "ĠprivÃ©s": 9004, "Ġterritoriales": 9005, "Ã©pisode": 9006, "rais": 9007, "Ġinclut": 9008, "ĠmÃ©diÃ©vale": 9009, "ĠinfluencÃ©": 9010, "Ġhabitant": 9011, "Ġtuer": 9012, "ĠAtlantique": 9013, "85": 9014, "Ġoutil": 9015, "ĠimpÃ©rial": 9016, "Ġtroph": 9017, "Ġsurmont": 9018, "Ġadh": 9019, "Ġinfrastructures": 9020, "ĠmÃ©tier": 9021, "Av": 9022, "ĠdÃ©partementales": 9023, "Ġasi": 9024, "agissait": 9025, "Ġ1860": 9026, "Ġhausse": 9027, "Ġaigu": 9028, "Ġparisienne": 9029, "ĠNorvÃ¨ge": 9030, "loy": 9031, "ĠÃ©lectron": 9032, "Ġpotable": 9033, "41": 9034, "ĠmÃ©dica": 9035, "Ġsportif": 9036, "ĠDuc": 9037, "Ġexposition": 9038, "Ġprestig": 9039, "ĠchrÃ©tien": 9040, "ĠPIB": 9041, "ĠrestÃ©": 9042, "ĠecclÃ©si": 9043, "ĠprÃ©serv": 9044, "introduction": 9045, "Ġtrace": 9046, "avre": 9047, "Ġconfig": 9048, "individu": 9049, "Ġvirtu": 9050, "ĠMusÃ©e": 9051, "Ġtap": 9052, "Ġrach": 9053, "Ġgraves": 9054, "Ġmixte": 9055, "Ġpluri": 9056, "ĠBell": 9057, "ignons": 9058, "Ġexcell": 9059, "Ġvag": 9060, "ayer": 9061, "Ġverbe": 9062, "ĠArthur": 9063, "Ġconstituer": 9064, "domad": 9065, "49": 9066, "alcool": 9067, "ato": 9068, "imag": 9069, "Ġsensible": 9070, "Ġramen": 9071, "Ġcolonisation": 9072, "Ġsyndicat": 9073, "adel": 9074, "Ġacquiert": 9075, "Ġsoud": 9076, "ova": 9077, "Ġcomprom": 9078, "Ġdistricts": 9079, "ĠrÃ©ac": 9080, "ĠlittÃ©ralement": 9081, "Ġinond": 9082, "ĠfÃ©minine": 9083, "Ġpeintures": 9084, "field": 9085, "Ã¦": 9086, "Ġaient": 9087, "ĠrÃ©alisÃ©es": 9088, "ĠmÃ©canisme": 9089, "Ġaccueillir": 9090, "ĠGer": 9091, "Ġexil": 9092, "Ġblind": 9093, "Ġ1850": 9094, "accep": 9095, "Ġrenforce": 9096, "AF": 9097, "Ġlu": 9098, "Ġrevendi": 9099, "zer": 9100, "Ġsurpr": 9101, "cts": 9102, "Ġesprit": 9103, "ĠfrÃ©quente": 9104, "Ġnavigation": 9105, "DF": 9106, "Ġcyl": 9107, "opes": 9108, "ĠplacÃ©e": 9109, "Ã¢me": 9110, "Ġoccidental": 9111, "Ġbasilique": 9112, "Ġsauve": 9113, "Rel": 9114, "ĠLar": 9115, "ortÃ©e": 9116, "Ġreconnue": 9117, "ĠdiffusÃ©": 9118, "Ġromains": 9119, "rammes": 9120, "Ġpath": 9121, "ĠestimÃ©": 9122, "Ġstatistique": 9123, "RÃ©s": 9124, "Ġ1912": 9125, "Ġadopte": 9126, "Ġmarchands": 9127, "ussion": 9128, "ĠJup": 9129, "Ġram": 9130, "ĠCalais": 9131, "ĠDVD": 9132, "cia": 9133, "ĠSS": 9134, "Ġrayon": 9135, "Ġ400": 9136, "Ġidentique": 9137, "ĠrÃ©compens": 9138, "Ġbonnes": 9139, "ĠguÃ¨re": 9140, "Ġfermet": 9141, "aigne": 9142, "Ã¯n": 9143, "Vie": 9144, "Ã©par": 9145, "acu": 9146, "mier": 9147, "Ġlux": 9148, "Ġaires": 9149, "Ġcolor": 9150, "Ġoncle": 9151, "liques": 9152, "Ġutile": 9153, "ĠÃ©vi": 9154, "ĠBasse": 9155, "ĠclassÃ©s": 9156, "Ġpsychologie": 9157, "ĠGaule": 9158, "ĠprÃªt": 9159, "ĠÃ©tend": 9160, "ĠoccupÃ©e": 9161, "Ap": 9162, "Ġbris": 9163, "ĠindÃ©pendance": 9164, "ĠsÃ©pare": 9165, "Ġpollution": 9166, "ĠBible": 9167, "Aussi": 9168, "ican": 9169, "zaine": 9170, "Ã©tudi": 9171, "Th": 9172, "Ġprofite": 9173, "ĠFrancisco": 9174, "ĠHor": 9175, "Ãªtements": 9176, "Pourtant": 9177, "rolog": 9178, "ĠGod": 9179, "Ã©rod": 9180, "ĠillÃ©g": 9181, "Ġtraiter": 9182, "onds": 9183, "ĠIb": 9184, "Ġ1927": 9185, "Ġcardi": 9186, "Ġgouvernements": 9187, "Ġconclut": 9188, "Ġcreus": 9189, "ĠformÃ©e": 9190, "Ġpotenti": 9191, "ĠfiscalitÃ©": 9192, "ĠdÃ©marche": 9193, "Esp": 9194, "Ġcapables": 9195, "ĠSI": 9196, "Ġjud": 9197, "Ġmonte": 9198, "Ġesclaves": 9199, "Ġstim": 9200, "ics": 9201, "Ġfini": 9202, "ĠLee": 9203, "ĠDj": 9204, "Ġ1922": 9205, "Ġactuels": 9206, "Ġponc": 9207, "ĠRÃ©s": 9208, "Ã§ait": 9209, "Ġdivise": 9210, "Ġrayons": 9211, "ĠHal": 9212, "Ġremis": 9213, "Ġconne": 9214, "ĠprÃ©vue": 9215, "tÃ©rieurs": 9216, "Ġ56": 9217, "Ġvertu": 9218, "effici": 9219, "Ġsymboles": 9220, "ĠaÃ®nÃ©": 9221, "ĠFou": 9222, "Ġvoulait": 9223, "Ġuniversel": 9224, "veux": 9225, "Ġproph": 9226, "PR": 9227, "Ġ95": 9228, "Ġusines": 9229, "Ġtraditionnelles": 9230, "sen": 9231, "ĠcamÃ©ra": 9232, "cesseurs": 9233, "ÅĴuv": 9234, "ĠenquÃªte": 9235, "ĠCab": 9236, "importe": 9237, "ĠMary": 9238, "oncÃ©e": 9239, "Ġsuppression": 9240, "Ġprotestants": 9241, "ĠDisney": 9242, "Diff": 9243, "Ġcommunaut": 9244, "ĠSac": 9245, "Ġ1830": 9246, "Ġauxquels": 9247, "AN": 9248, "reur": 9249, "ĠexpÃ©dition": 9250, "Ġadultes": 9251, "ĠinstallÃ©s": 9252, "77": 9253, "Ġinitiale": 9254, "erte": 9255, "Ġcompati": 9256, "ancÃ©": 9257, "Ġproprement": 9258, "ention": 9259, "ĠminÃ©ra": 9260, "Ġenfance": 9261, "ĠrÃ©pression": 9262, "Ġculturels": 9263, "ĠagrÃ©": 9264, "Ã©roÃ¯": 9265, "ĠnuclÃ©aires": 9266, "Ġfroide": 9267, "avage": 9268, "Ã©quation": 9269, "irac": 9270, "ĠFerdinand": 9271, "ĠcontrÃ´ler": 9272, "enregistrement": 9273, "ĠAffaires": 9274, "Ġlistes": 9275, "lect": 9276, "Ġconfie": 9277, "omorph": 9278, "ĠblÃ©": 9279, "Ġrestant": 9280, "Ġ85": 9281, "ĠFour": 9282, "anda": 9283, "titudes": 9284, "ĠrÃ©sulte": 9285, "Ġobservations": 9286, "etnam": 9287, "Ġpeur": 9288, "Ġclients": 9289, "Ġjugement": 9290, "Ġerreur": 9291, "ĠCou": 9292, "Ġrecens": 9293, "Ġpratiqu": 9294, "Ġanalog": 9295, "ĠdÃ©sert": 9296, "roir": 9297, "geant": 9298, "Ġprogression": 9299, "Ġponts": 9300, "ĠJulien": 9301, "bilitÃ©s": 9302, "ĠCre": 9303, "Ġdisposent": 9304, "Ġfins": 9305, "aurÃ©": 9306, "Ġdiversi": 9307, "ĠÃ©lection": 9308, "ĠTex": 9309, "oge": 9310, "Ġ1880": 9311, "well": 9312, "enh": 9313, "ĠHugo": 9314, "Ġcog": 9315, "Ġtue": 9316, "Ġplage": 9317, "Ġmotiv": 9318, "ĠmentionnÃ©": 9319, "ĠChristophe": 9320, "zy": 9321, "riens": 9322, "chon": 9323, "Åĵil": 9324, "inscrit": 9325, "Ġannuel": 9326, "ographies": 9327, "Ã©vÃ©": 9328, "Ġmarchandises": 9329, "Voies": 9330, "Ġaval": 9331, "Ġoriginaires": 9332, "Ġtro": 9333, "Ġbo": 9334, "Ġcorrespondent": 9335, "PS": 9336, "abelle": 9337, "ĠtracÃ©": 9338, "ĠmenÃ©": 9339, "Ġabsolu": 9340, "Ġcontiennent": 9341, "Ġrestes": 9342, "ĠBÃ¢": 9343, "ĠcrÃ©ant": 9344, "Ġsportive": 9345, "ĠServi": 9346, "Ġinclus": 9347, "ĠrÃ©soudre": 9348, "Ġtenter": 9349, "Ġbyzantin": 9350, "uvi": 9351, "ĠOu": 9352, "ĠmatÃ©riau": 9353, "ĠsouverainetÃ©": 9354, "Ġmasculin": 9355, "Ġdan": 9356, "oly": 9357, "ĠMoh": 9358, "ĠAndre": 9359, "ĠDer": 9360, "Ġmini": 9361, "Ġportrait": 9362, "ascal": 9363, "ev": 9364, "Ġmammi": 9365, "ĠGand": 9366, "Environ": 9367, "Ġzonage": 9368, "Ġcontraintes": 9369, "ĠtuÃ©s": 9370, "Ġparcs": 9371, "ĠrÃ©actions": 9372, "Ġsocialistes": 9373, "ife": 9374, "Localisation": 9375, "ĠPlou": 9376, "rai": 9377, "oges": 9378, "Ġgrade": 9379, "osant": 9380, "rosc": 9381, "ĠDominique": 9382, "Ã§onn": 9383, "Ġtoponyme": 9384, "ĠrÃ©ception": 9385, "divis": 9386, "ancÃ©e": 9387, "ĠWindows": 9388, "ĠJournal": 9389, "Louis": 9390, "tification": 9391, "Ġfortune": 9392, "GV": 9393, "hel": 9394, "Ġpomp": 9395, "ĠmodifiÃ©": 9396, "Ġradical": 9397, "isant": 9398, "ĠDÃ©fense": 9399, "entretien": 9400, "Ġvoyages": 9401, "Ġmagist": 9402, "ĠfÃ©dÃ©ration": 9403, "Ġsombre": 9404, "attention": 9405, "Ġgenti": 9406, "ĠMaj": 9407, "Ġpassion": 9408, "ĠÃ©quivalent": 9409, "TrÃ¨s": 9410, "Ġfores": 9411, "uble": 9412, "Ġgalerie": 9413, "ĠschÃ©ma": 9414, "Ã©lo": 9415, "Ġoffice": 9416, "extension": 9417, "Ġcontinuer": 9418, "ĠrÃ©fÃ©rendum": 9419, "litÃ©": 9420, "Ġæ": 9421, "ĠdÃ©coup": 9422, "Ġidenti": 9423, "Ġterror": 9424, "ĠdÃ©penses": 9425, "Ġcanons": 9426, "ĠLouise": 9427, "Ġretirer": 9428, "Ġmajeurs": 9429, "ĠprÃ©parer": 9430, "Ġparfaitement": 9431, "cules": 9432, "Ġculmin": 9433, "rographie": 9434, "attraction": 9435, "oct": 9436, "ida": 9437, "Ġinsuffis": 9438, "Ġponctu": 9439, "CI": 9440, "ĠgÃ©nÃ©ralis": 9441, "ĠsymÃ©t": 9442, "Ġproposer": 9443, "ĠVierge": 9444, "Ġgrandeur": 9445, "Ġindisp": 9446, "ona": 9447, "Ġtenant": 9448, "Ġchass": 9449, "intÃ©resse": 9450, "Ġinitial": 9451, "ĠprÃ©cÃ©dents": 9452, "agÃ©es": 9453, "ĠPÃ©ri": 9454, "Ġoptique": 9455, "Ġcombattre": 9456, "ĠÃ©tudier": 9457, "Ġpilotes": 9458, "Ġexactement": 9459, "Beaucoup": 9460, "ĠMul": 9461, "ĠUnion": 9462, "Ġvisiteurs": 9463, "Ġcf": 9464, "ĠvÃ©cu": 9465, "ĠrÃ¨glement": 9466, "Ġcontinuent": 9467, "Ġruisseau": 9468, "face": 9469, "Ã©quipage": 9470, "ĠExp": 9471, "Ġvoisin": 9472, "ĠinterprÃ©tation": 9473, "ĠsupplÃ©mentaire": 9474, "uba": 9475, "Ġcandidature": 9476, "ims": 9477, "Ġmaternelle": 9478, "Ġcordes": 9479, "Ġ1923": 9480, "Pierre": 9481, "Ġrachet": 9482, "Ġinnov": 9483, "Ġdescendants": 9484, "Ġimmob": 9485, "ĠdÃ©nomination": 9486, "ĠriviÃ¨res": 9487, "ĠhÃ©tÃ©": 9488, "ĠprÃ©sentation": 9489, "Ġquatorze": 9490, "Ġhectares": 9491, "Ġalentours": 9492, "effic": 9493, "assemblÃ©e": 9494, "ierry": 9495, "Ġconnait": 9496, "St": 9497, "Ġsuffit": 9498, "Ġaugmenter": 9499, "Ã©rien": 9500, "Ġbra": 9501, "ĠCharente": 9502, "Ġboulevard": 9503, "Ġdette": 9504, "ĠDal": 9505, "wiki": 9506, "alphabet": 9507, "Ã©don": 9508, "ĠOs": 9509, "ĠClermont": 9510, "huile": 9511, "Ġbouc": 9512, "Ġhistoires": 9513, "ĠparticularitÃ©": 9514, "unt": 9515, "Ġjournalistes": 9516, "ĠJupiter": 9517, "ĠTourn": 9518, "Ġtirer": 9519, "Ġadmis": 9520, "ĠÃ©levÃ©s": 9521, "ĠBourbon": 9522, "enay": 9523, "Ġadress": 9524, "Ġattend": 9525, "utri": 9526, "Ġproduite": 9527, "Ġ159": 9528, "Ġbataill": 9529, "ĠGrenoble": 9530, "Ġmilitants": 9531, "Ġdynam": 9532, "Å¡": 9533, "atri": 9534, "Ġabsolue": 9535, "Ġvendus": 9536, "Ġrecettes": 9537, "sÃ©": 9538, "ĠUne": 9539, "gues": 9540, "Ġabandonne": 9541, "Ġcodice": 9542, "ĠRoland": 9543, "Ġarrondissement": 9544, "ĠrÃ©centes": 9545, "ĠSk": 9546, "illons": 9547, "Ġaffron": 9548, "Ġattribue": 9549, "Ġmentionne": 9550, "Ġparas": 9551, "ĠLag": 9552, "stra": 9553, "ĠfÃ©dÃ©rale": 9554, "ismes": 9555, "Ġchancel": 9556, "ĠÃ©poux": 9557, "Ġvariantes": 9558, "dication": 9559, "Ġabord": 9560, "Ġcancer": 9561, "ĠdÃ©liv": 9562, "Cin": 9563, "eron": 9564, "miers": 9565, "Ġimpose": 9566, "Ãīcosse": 9567, "ĠVend": 9568, "Ġsimilaires": 9569, "prises": 9570, "Ġimplique": 9571, "ĠrÃ©col": 9572, "Ġentiers": 9573, "ource": 9574, "Ġinternes": 9575, "Ã©difice": 9576, "Ġdeg": 9577, "ĠHil": 9578, "euse": 9579, "Ġmetal": 9580, "ailli": 9581, "Ġrencontrer": 9582, "Er": 9583, "Ġtennis": 9584, "ĠCitÃ©": 9585, "Ġpermit": 9586, "ĠÃ©crivains": 9587, "teau": 9588, "rion": 9589, "Ġbap": 9590, "ĠMade": 9591, "Ant": 9592, "Ġsportifs": 9593, "ĠmathÃ©mati": 9594, "Ġfichiers": 9595, "Ġfaciliter": 9596, "ĠIsraÃ«l": 9597, "ĠsurnommÃ©": 9598, "orel": 9599, "illiers": 9600, "Ġu": 9601, "uln": 9602, "Ġ42": 9603, "Ġcourses": 9604, "Ġessai": 9605, "Ġflui": 9606, "Ġethn": 9607, "ĠSoph": 9608, "ĠgÃ©nie": 9609, "ĠlibÃ©ral": 9610, "Ġallait": 9611, "Ġhorizont": 9612, "wn": 9613, "ĠSyl": 9614, "Ġconsole": 9615, "Ġusine": 9616, "ĠprononcÃ©": 9617, "ĠdÃ©diÃ©e": 9618, "Ġadversaires": 9619, "à¤": 9620, "Ġsuites": 9621, "Ġsymbol": 9622, "olet": 9623, "Ġvoisines": 9624, "ĠrÃ©fugiÃ©s": 9625, "Ġparad": 9626, "Ġrect": 9627, "implant": 9628, "Ġ1911": 9629, "Ġparoissi": 9630, "Ġnaturellement": 9631, "Ġfermeture": 9632, "ĠorganisÃ©es": 9633, "ĠmÃ©canis": 9634, "Ġarabes": 9635, "Ġdesservi": 9636, "ĠcoÃ»ts": 9637, "Ġstatues": 9638, "ho": 9639, "Ġqueue": 9640, "ĠMari": 9641, "Ġrende": 9642, "Ġgothique": 9643, "annes": 9644, "acle": 9645, "Ġrusses": 9646, "ĠPap": 9647, "icitÃ©": 9648, "Ġconcepts": 9649, "ilien": 9650, "exercice": 9651, "Ġsauvage": 9652, "Ġeffectuer": 9653, "rateur": 9654, "checs": 9655, "Ġcommuns": 9656, "Ġlargeur": 9657, "Ġ1913": 9658, "opsis": 9659, "UN": 9660, "ĠJud": 9661, "ĠredÃ©coupage": 9662, "ĠTin": 9663, "icon": 9664, "ĠÃ©tendue": 9665, "lÃ©ch": 9666, "Ġpluie": 9667, "ĠcommenÃ§a": 9668, "Ġcapture": 9669, "Ġremarque": 9670, "Ġbulle": 9671, "ĠMy": 9672, "tionnellement": 9673, "Ġincomp": 9674, "ĠconsÃ©cuti": 9675, "wick": 9676, "Ġseize": 9677, "Ġvisibles": 9678, "Ġspectateurs": 9679, "Ġarbre": 9680, "Ġbanque": 9681, "Ġendroits": 9682, "hm": 9683, "inger": 9684, "ĠlÃ©gÃ¨re": 9685, "ĠthÃ©orique": 9686, "avaient": 9687, "Ġcombatt": 9688, "ĠSNCF": 9689, "ĠVÃ©n": 9690, "Ġmanifestation": 9691, "Ġdiminution": 9692, "Ġbin": 9693, "ĠGard": 9694, "Ġsouligne": 9695, "Ġsolo": 9696, "ĠcafÃ©": 9697, "itte": 9698, "ĠcomprÃ©h": 9699, "Ġlecteur": 9700, "Ġunion": 9701, "ĠMaine": 9702, "ower": 9703, "Ġgo": 9704, "ĠdÃ©crire": 9705, "venus": 9706, "Ġdirigeant": 9707, "Ġanthrop": 9708, "Ġdossi": 9709, "Ġprieur": 9710, "Ġtransforme": 9711, "Ġtalent": 9712, "Ġaudi": 9713, "Ġneveu": 9714, "Ã©lab": 9715, "ttes": 9716, "Ġaffaire": 9717, "iversaire": 9718, "ĠdÃ©nommÃ©": 9719, "Ġenvisage": 9720, "aki": 9721, "Ġgolfe": 9722, "Ã©bÃ©c": 9723, "ĠdÃ©tails": 9724, "lÃ©matique": 9725, "Ġcorrec": 9726, "estations": 9727, "ĠBig": 9728, "ĠfidÃ¨le": 9729, "ĠChapelle": 9730, "ĠvallÃ©es": 9731, "ĠGabriel": 9732, "rik": 9733, "Ġvar": 9734, "hÃ©tique": 9735, "Ġpair": 9736, "ĠprÃ©sentÃ©e": 9737, "ĠprÃ©fÃ¨re": 9738, "DE": 9739, "ĠsÃ©di": 9740, "Ġforts": 9741, "Ġremarquer": 9742, "ĠSun": 9743, "Ġexerce": 9744, "Ġfau": 9745, "asp": 9746, "versitÃ©": 9747, "Ġligue": 9748, "Ġgarder": 9749, "ĠBlanche": 9750, "Ġappareil": 9751, "Charles": 9752, "autique": 9753, "ĠSatur": 9754, "ĠVIII": 9755, "ĠindÃ©pendants": 9756, "ĠJuan": 9757, "Ġsaut": 9758, "ĠÃĹ": 9759, "lues": 9760, "Ġdramatique": 9761, "ciÃ¨re": 9762, "ĠFranco": 9763, "Ġclimatique": 9764, "Ġprovenance": 9765, "Ġajouter": 9766, "ĠvÃªtements": 9767, "ĠrÃ©Ã©lu": 9768, "Ġcompli": 9769, "Ġconvi": 9770, "ordin": 9771, "Ġoblige": 9772, "Ġrempla": 9773, "ĠinstallÃ©e": 9774, "ĠÃ©tablir": 9775, "Ġcub": 9776, "extrÃ©mitÃ©": 9777, "Ġemplois": 9778, "Ġhas": 9779, "ĠFried": 9780, "ĠpossÃ©dait": 9781, "ĠKi": 9782, "Ġpassages": 9783, "Ġfoule": 9784, "Ġtemples": 9785, "Ġ68": 9786, "Ġcourante": 9787, "Ġboule": 9788, "Ã©rapie": 9789, "ergence": 9790, "Ġinscrits": 9791, "Ġfal": 9792, "Ġfoyer": 9793, "ignan": 9794, "Ġ1790": 9795, "umb": 9796, "ĠquÃ©bÃ©c": 9797, "Ġincap": 9798, "Ġsubi": 9799, "ĠmathÃ©matique": 9800, "adaptation": 9801, "Orient": 9802, "ĠgÃ©nÃ©rique": 9803, "Ġromaines": 9804, "ridge": 9805, "auration": 9806, "ĠPour": 9807, "ĠLamb": 9808, "Ġsuis": 9809, "ĠArch": 9810, "Ġ1908": 9811, "Ġurbains": 9812, "ĠblessÃ©s": 9813, "75": 9814, "prÃ©sent": 9815, "ĠprÃ©al": 9816, "Ġavis": 9817, "Ġprovinci": 9818, "Ġracont": 9819, "Ġfondateurs": 9820, "Ġchampions": 9821, "Ġsexe": 9822, "enberg": 9823, "Ġstudios": 9824, "ĠTru": 9825, "ĠNobel": 9826, "inspiration": 9827, "Ġmodeste": 9828, "ĠmenÃ©es": 9829, "ĠdemandÃ©": 9830, "oste": 9831, "Ã©tition": 9832, "Ġondes": 9833, "ĠStre": 9834, "ĠtÃ¢che": 9835, "Ġpositif": 9836, "Ġcible": 9837, "Ġta": 9838, "ĠBaud": 9839, "Ensuite": 9840, "Ġmobile": 9841, "MA": 9842, "Ã©lix": 9843, "ĠAbd": 9844, "Ġfrancophones": 9845, "ĠsÅĵurs": 9846, "ator": 9847, "Ġinterromp": 9848, "Ġlutter": 9849, "ĠdotÃ©": 9850, "Ġpaie": 9851, "Ġdispers": 9852, "ĠdÃ©truite": 9853, "Ġgrecs": 9854, "Ġpain": 9855, "Ġov": 9856, "ĠFern": 9857, "Ġempris": 9858, "Ġgalax": 9859, "hard": 9860, "Ġaider": 9861, "ogÃ©e": 9862, "ONU": 9863, "ĠmÃ©s": 9864, "ĠcrÃ©Ã©es": 9865, "tiennes": 9866, "ĠinÃ©d": 9867, "Ã©lÃ©ment": 9868, "ĠexpÃ©di": 9869, "Ġroutier": 9870, "Ġconservateur": 9871, "ĠRoumanie": 9872, "Ġencad": 9873, "Ġavantage": 9874, "ouille": 9875, "ĠmillÃ©n": 9876, "ĠthÃ©Ã¢": 9877, "Ġmotifs": 9878, "Ġarrivent": 9879, "ĠCharl": 9880, "Ġadministratifs": 9881, "celon": 9882, "Ġfuite": 9883, "ĠRac": 9884, "Ġroches": 9885, "Ġrespecter": 9886, "rate": 9887, "ĠPuy": 9888, "Ġcoeffici": 9889, "ĠtournÃ©": 9890, "Ġterrestres": 9891, "Ġur": 9892, "ĠDum": 9893, "Ġ1906": 9894, "Ġexistence": 9895, "ĠnÃ©cessairement": 9896, "Ġjamb": 9897, "ortation": 9898, "avel": 9899, "ĠrÃ©publicains": 9900, "ĠVirgin": 9901, "Pl": 9902, "ompe": 9903, "Ġboul": 9904, "ĠTemp": 9905, "ĠÃ©coss": 9906, "explo": 9907, "Ġfavoriser": 9908, "ĠrÃ©cip": 9909, "ĠcinÃ©": 9910, "Ġactuelles": 9911, "ointe": 9912, "ĠCorn": 9913, "ĠaÃ©rien": 9914, "Ġsurprise": 9915, "ĠÃ©difices": 9916, "Ġartisan": 9917, "atti": 9918, "Ġacad": 9919, "Ġdent": 9920, "Ġportugais": 9921, "Ġ58": 9922, "Ġtraditionnels": 9923, "Ġstatistiques": 9924, "ĠsÃ©quence": 9925, "ĠVall": 9926, "ĠdÃ©ci": 9927, "ĠMort": 9928, "andre": 9929, "Ġ1901": 9930, "ĠPeti": 9931, "ĠopposÃ©": 9932, "Ġpeintres": 9933, "Ġcommerces": 9934, "ĠCannes": 9935, "ĠamÃ©liorer": 9936, "ĠMau": 9937, "Ġnotables": 9938, "ĠViÃªt": 9939, "Ġressort": 9940, "Ġdominante": 9941, "mination": 9942, "Ġcadres": 9943, "zo": 9944, "amie": 9945, "Ġmodule": 9946, "Ġcharte": 9947, "Ġvoile": 9948, "Ġfinances": 9949, "ĠChampagne": 9950, "Ġvenu": 9951, "Ã©rance": 9952, "Ġcourbe": 9953, "Ġfonctionnaires": 9954, "amm": 9955, "ĠCop": 9956, "Ġinqui": 9957, "istote": 9958, "ĠNancy": 9959, "Ġrose": 9960, "Ġcorp": 9961, "ĠSÃ©b": 9962, "Ãªne": 9963, "Ġordonne": 9964, "Ġpul": 9965, "ĠabrÃ©": 9966, "ĠUS": 9967, "Ã£": 9968, "ĠdÃ©veloppÃ©s": 9969, "Ġriz": 9970, "ĠFal": 9971, "Ġsouverains": 9972, "Ġverts": 9973, "ĠCer": 9974, "ĠrÃ©clam": 9975, "Ġexplor": 9976, "Ġfigurent": 9977, "ĠmammifÃ¨res": 9978, "adoption": 9979, "erger": 9980, "ĠhÃ´tel": 9981, "Ġpermettait": 9982, "Ġliqu": 9983, "itiÃ©": 9984, "aka": 9985, "ĠaffectÃ©": 9986, "ĠQuimper": 9987, "atori": 9988, "ĠCast": 9989, "Ġaffront": 9990, "entra": 9991, "impact": 9992, "Ġexpression": 9993, "Ġpolyn": 9994, "dicap": 9995, "Ġalimentaires": 9996, "ĠÃīg": 9997, "Ġsolid": 9998, "ĠpublicitÃ©": 9999, "Ġfrancophone": 10000, "itÃ´t": 10001, "Ġavance": 10002, "Ġincendi": 10003, "Ġdocumentaire": 10004, "ĠdÃ©veloppent": 10005, "ĠBenoÃ®t": 10006, "ĠMess": 10007, "Åĵud": 10008, "velines": 10009, "ĠCorse": 10010, "ĠintÃ©grÃ©e": 10011, "ĠtransformÃ©": 10012, "Ġcousin": 10013, "Ġreligions": 10014, "ĠPoitiers": 10015, "ĠcÃ©ra": 10016, "Ġphosph": 10017, "aou": 10018, "hyp": 10019, "ontan": 10020, "assent": 10021, "Ġcomportant": 10022, "Ã©crire": 10023, "rette": 10024, "Ġ1890": 10025, "dun": 10026, "tini": 10027, "ĠEmmanuel": 10028, "ĠComb": 10029, "ĠBoh": 10030, "ĠVit": 10031, "ĠreÃ§ut": 10032, "Ġlacs": 10033, "Ġturb": 10034, "ĠFar": 10035, "Ã¢teaux": 10036, "Ġindustrielles": 10037, "ĠÃ©mission": 10038, "ibres": 10039, "Ġcourts": 10040, "ĠprÃ©cÃ©": 10041, "ĠdÃ©finitive": 10042, "ĠClo": 10043, "Ġsexuelle": 10044, "Ġ44": 10045, "ĠdÃ©rivÃ©s": 10046, "Ġaxes": 10047, "mÃ¨tre": 10048, "inspire": 10049, "formula": 10050, "Ġclimatiques": 10051, "Ġennemi": 10052, "ĠprÃ©cÃ©demment": 10053, "ĠBoy": 10054, "Ġroyaumes": 10055, "ĠblessÃ©": 10056, "PA": 10057, "Ġfolk": 10058, "ĠÃªtres": 10059, "reuses": 10060, "Ġinsc": 10061, "espÃ¨ces": 10062, "Ġindispens": 10063, "uma": 10064, "ĠReims": 10065, "Als": 10066, "Ġdign": 10067, "Ġcot": 10068, "Ġcommencer": 10069, "ĠflÃ¨": 10070, "illard": 10071, "ĠdegrÃ©s": 10072, "Ġdor": 10073, "ĠÃ©tage": 10074, "ĠÃīmile": 10075, "conque": 10076, "ĠpÃ©dagog": 10077, "66": 10078, "Ġenj": 10079, "Ġlocu": 10080, "Ġ1871": 10081, "acquisition": 10082, "Ġbiodi": 10083, "Ġcatal": 10084, "Ġparoisses": 10085, "outer": 10086, "ĠAz": 10087, "onnant": 10088, "ĠmÃ©trage": 10089, "Ã©change": 10090, "Gu": 10091, "Ġbons": 10092, "Ġ1907": 10093, "ĠfÃ©c": 10094, "Inf": 10095, "ĠBanque": 10096, "ĠpauvretÃ©": 10097, "Ġtunnel": 10098, "Form": 10099, "uites": 10100, "achat": 10101, "ĠBarcelon": 10102, "Toujours": 10103, "mo": 10104, "Ġheur": 10105, "ĠfacultÃ©": 10106, "CrÃ©": 10107, "ĠchangÃ©": 10108, "Ġcite": 10109, "ĠLion": 10110, "ĠHans": 10111, "Albert": 10112, "ĠremplacÃ©e": 10113, "Ġretire": 10114, "Imp": 10115, "Ġpne": 10116, "ĠFord": 10117, "Ġmeilleures": 10118, "ĠaugmentÃ©": 10119, "housi": 10120, "Ġrob": 10121, "ĠAnn": 10122, "aviÃ¨re": 10123, "anthrop": 10124, "Ġconvient": 10125, "ĠMod": 10126, "ĠBoe": 10127, "Ġsalon": 10128, "ĠconsidÃ©rÃ©es": 10129, "ĠDÃ©m": 10130, "Ġrestera": 10131, "rates": 10132, "ĠGilles": 10133, "Ġvariante": 10134, "ĠStan": 10135, "ocrate": 10136, "ĠdÃ©truire": 10137, "uÃ©e": 10138, "Ġhorm": 10139, "uck": 10140, "BA": 10141, "ĠdÃ©pendant": 10142, "Ġindustries": 10143, "eneuve": 10144, "ĠBonn": 10145, "avenir": 10146, "Ã©lique": 10147, "Ã©quival": 10148, "ĠKarl": 10149, "ĠAdam": 10150, "Ġsections": 10151, "ĠAustralie": 10152, "trer": 10153, "Typologie": 10154, "Occident": 10155, "Ġdispositions": 10156, "ĠAlph": 10157, "Ġordinateur": 10158, "Ġcerve": 10159, "opold": 10160, "ĠAirlines": 10161, "Ġsubstance": 10162, "orithme": 10163, "orig": 10164, "endrait": 10165, "Ġsituations": 10166, "Air": 10167, "Ġpistes": 10168, "ĠRa": 10169, "Ġralenti": 10170, "Ġseuil": 10171, "Ġsauver": 10172, "ĠrÃ©volutionnaires": 10173, "archÃ©": 10174, "Ġfinales": 10175, "Ġattent": 10176, "Ġspatial": 10177, "ĠempÃªcher": 10178, "nd": 10179, "odie": 10180, "ĠÃ©voluÃ©": 10181, "Ġprotocole": 10182, "ĠChal": 10183, "ĠconfÃ©rences": 10184, "Ġverte": 10185, "Ġfamiliale": 10186, "assassinat": 10187, "Ġmidi": 10188, "Ã©preuve": 10189, "Ġutilisateurs": 10190, "ĠmÃ©tiers": 10191, "Ġbaron": 10192, "ymn": 10193, "hÃ©s": 10194, "itres": 10195, "ĠdÃ©fic": 10196, "Ġbrou": 10197, "aid": 10198, "Ġroul": 10199, "Ġrequ": 10200, "Ã¯s": 10201, "Ġmoyennes": 10202, "orations": 10203, "Leurs": 10204, "Ġmorceau": 10205, "Ġsportives": 10206, "Ġstockage": 10207, "quier": 10208, "ĠBes": 10209, "DÃ©but": 10210, "86": 10211, "Situation": 10212, "siÃ¨re": 10213, "animal": 10214, "ĠsuggÃ¨re": 10215, "Ġantiques": 10216, "antine": 10217, "ĠdestinÃ©es": 10218, "ĠBertrand": 10219, "explique": 10220, "ĠspÃ©ciale": 10221, "Ġvivants": 10222, "Ġchantier": 10223, "uros": 10224, "ĠdÃ©lÃ©gation": 10225, "Ġofficielles": 10226, "Ġplaques": 10227, "Sans": 10228, "Ã©cran": 10229, "ĠstabilitÃ©": 10230, "Ġtransmis": 10231, "Ġmonter": 10232, "GE": 10233, "hol": 10234, "Ġcouvent": 10235, "Ġailes": 10236, "ĠnÅĵud": 10237, "Ġ43": 10238, "Ġprononce": 10239, "Ġruines": 10240, "ĠGalles": 10241, "oo": 10242, "ĠPascal": 10243, "Ġamour": 10244, "ussitÃ´t": 10245, "onymes": 10246, "ĠdÃ©cern": 10247, "Ã©diteur": 10248, "Ġlogo": 10249, "Ġexemplaires": 10250, "ignant": 10251, "ĠqualifiÃ©": 10252, "habitat": 10253, "Ġateliers": 10254, "enquÃªte": 10255, "ĠJon": 10256, "Ġpontific": 10257, "Alsace": 10258, "ĠChili": 10259, "rosoft": 10260, "Ġreconstitu": 10261, "Ġvouloir": 10262, "ĠhuitiÃ¨me": 10263, "Mus": 10264, "aile": 10265, "ymph": 10266, "ĠcontinuitÃ©": 10267, "Ġplacer": 10268, "ĠPrince": 10269, "ĠMach": 10270, "Ġconfusion": 10271, "ĠprÃ©cÃ©dentes": 10272, "rol": 10273, "Ġ1904": 10274, "arbre": 10275, "Ã©gard": 10276, "ĠNaples": 10277, "ĠgÃ©omÃ©trie": 10278, "ool": 10279, "ĠTemple": 10280, "Ã¨nements": 10281, "ĠusÃ©es": 10282, "Ġer": 10283, "antaine": 10284, "Ġjulien": 10285, "Ġ99": 10286, "hydrogÃ¨ne": 10287, "Ġconstituant": 10288, "Äĩ": 10289, "ataires": 10290, "Ġhar": 10291, "Ġobserve": 10292, "rimer": 10293, "aurait": 10294, "Ġprai": 10295, "lÃ¨te": 10296, "Ġrendant": 10297, "rison": 10298, "Ġpermanente": 10299, "Ġenceinte": 10300, "Ġhandicap": 10301, "ĠHill": 10302, "ĠWi": 10303, "Ġphilosophique": 10304, "ĠÃ©b": 10305, "Ġ130": 10306, "Ġpuissante": 10307, "ĠtÃ©lÃ©visÃ©e": 10308, "ĠWikipÃ©dia": 10309, "issi": 10310, "ĠguÃ©r": 10311, "Ġgares": 10312, "ĠsoviÃ©tiques": 10313, "Jac": 10314, "otage": 10315, "Ġmoulin": 10316, "orchestre": 10317, "etteur": 10318, "mun": 10319, "ĠLec": 10320, "Ġpersonnels": 10321, "ĠUnivers": 10322, "ĠbactÃ©ries": 10323, "Ġacides": 10324, "Ġconduire": 10325, "viation": 10326, "Ġrelais": 10327, "Ġdomine": 10328, "Ġdates": 10329, "Ġtransformer": 10330, "alliance": 10331, "á»": 10332, "ranch": 10333, "uise": 10334, "Ġremporter": 10335, "Ġengend": 10336, "Ġcirconstances": 10337, "ML": 10338, "ĠSand": 10339, "Ġexport": 10340, "roch": 10341, "Ġcommandes": 10342, "ĠmÃ¢le": 10343, "Ġadversaire": 10344, "Ġsanctuaire": 10345, "intendo": 10346, "Ġcanaux": 10347, "Ġbarrage": 10348, "Ġremarquables": 10349, "Ġassiste": 10350, "Anjou": 10351, "Ġentreprend": 10352, "ĠparamÃ¨tres": 10353, "Hydrographie": 10354, "ĠAur": 10355, "ĠdÃ©mis": 10356, "ĠhÃ©ritier": 10357, "Ġexterne": 10358, "dem": 10359, "ĠmÃ¢les": 10360, "ĠHaw": 10361, "ĠForce": 10362, "Personn": 10363, "oral": 10364, "Ġdiction": 10365, "osh": 10366, "ĠZÃ©": 10367, "Ġembar": 10368, "ĠÃĢ": 10369, "ila": 10370, "rasse": 10371, "ĠPlaton": 10372, "Ġexistait": 10373, "Ġphotographie": 10374, "Ġitaliens": 10375, "TP": 10376, "ĠLy": 10377, "Ã¢ts": 10378, "ĠKn": 10379, "Ġaccorde": 10380, "Ġrelatif": 10381, "effectu": 10382, "Alexandre": 10383, "cter": 10384, "Ġduo": 10385, "ĠgrÃ¨ve": 10386, "ĠdÃ©diÃ©": 10387, "Ġvents": 10388, "Ġadoles": 10389, "Ġconstruites": 10390, "ĠentourÃ©": 10391, "heur": 10392, "ĠJus": 10393, "ĠInd": 10394, "Ġdangereux": 10395, "cus": 10396, "ima": 10397, "ĠEli": 10398, "ĠthÃ©ologie": 10399, "ĠBaviÃ¨re": 10400, "Ġpublications": 10401, "Ġpromouvoir": 10402, "Ġpaysages": 10403, "Ġimmense": 10404, "ĠOlivier": 10405, "Ġmusicien": 10406, "Ġfigur": 10407, "ĠsacrÃ©": 10408, "ĠgÃ©nÃ©rales": 10409, "Exp": 10410, "har": 10411, "Ġsoign": 10412, "quets": 10413, "tones": 10414, "ĠÃ©larg": 10415, "ĠmÃ©nages": 10416, "isÃ©s": 10417, "amitiÃ©": 10418, "ĠmusÃ©es": 10419, "ĠrÃ©vol": 10420, "ĠBarcelone": 10421, "itch": 10422, "Ġintra": 10423, "Ġnef": 10424, "luents": 10425, "ĠXIII": 10426, "Ġsignification": 10427, "Ġprimaires": 10428, "Ġastron": 10429, "Ġchambres": 10430, "organ": 10431, "ilÃ©e": 10432, "ffe": 10433, "Ġhumide": 10434, "Ġprolongement": 10435, "Ġdoig": 10436, "Ġabus": 10437, "Ġproposent": 10438, "roid": 10439, "ĠCher": 10440, "ennemi": 10441, "rente": 10442, "organiser": 10443, "Ġchasseurs": 10444, "ĠfÃ©od": 10445, "Ġassembl": 10446, "Ġ125": 10447, "Ġlarges": 10448, "Ġcryp": 10449, "ĠSw": 10450, "Ġpluriel": 10451, "illÃ©s": 10452, "Ġmalade": 10453, "Ġhydro": 10454, "orant": 10455, "ĠVin": 10456, "ĠEss": 10457, "Ġregistre": 10458, "Ġgaran": 10459, "Ġengl": 10460, "Ġmarquer": 10461, "Ġ41": 10462, "Ġbatterie": 10463, "Ġbouche": 10464, "ockey": 10465, "ĠdÃ©monstration": 10466, "MS": 10467, "ĠÃ©car": 10468, "ĠchargÃ©s": 10469, "Ġcomposants": 10470, "Ġ1902": 10471, "ĠZÃ©lande": 10472, "aller": 10473, "Ġconnaissent": 10474, "antil": 10475, "ĠSaÃ´ne": 10476, "opot": 10477, "ĠspÃ©cial": 10478, "domadaire": 10479, "AL": 10480, "ĠtrÃ©sor": 10481, "ĠBure": 10482, "ĠdÃ©pÃ´t": 10483, "ĠspÃ©cialisÃ©e": 10484, "mbran": 10485, "ingue": 10486, "Ġfaune": 10487, "ĠRÃ©gion": 10488, "FI": 10489, "ild": 10490, "Ġvass": 10491, "Ġ2021": 10492, "Ġargent": 10493, "Ġcantonal": 10494, "Ġphoto": 10495, "Ġfief": 10496, "neurs": 10497, "ĠFI": 10498, "mid": 10499, "Ġautob": 10500, "Ġfact": 10501, "ĠBle": 10502, "ĠSerge": 10503, "Ġbureaux": 10504, "bonne": 10505, "Ġcentrales": 10506, "umer": 10507, "ĠgÃ©nÃ©rations": 10508, "tus": 10509, "ĠSÃ©": 10510, "Enf": 10511, "Ġ53": 10512, "encont": 10513, "ĠbiodiversitÃ©": 10514, "Ġspontan": 10515, "ĠAlfred": 10516, "yran": 10517, "ĠPÃ¨re": 10518, "ĠhÃ©": 10519, "Ġinfluences": 10520, "Ġts": 10521, "Ġgam": 10522, "liÃ¨re": 10523, "Ġtrent": 10524, "Ġhumides": 10525, "Ġbruit": 10526, "Origine": 10527, "Ġmassacre": 10528, "Ġsuicide": 10529, "Ġlis": 10530, "Ġfirent": 10531, "ĠBau": 10532, "Ġtrag": 10533, "Ġdoctor": 10534, "Ġparviennent": 10535, "ĠMark": 10536, "Ġabsent": 10537, "igneur": 10538, "Ġdevoir": 10539, "Ġsortant": 10540, "Ġchien": 10541, "ĠFrancs": 10542, "Ġtimbres": 10543, "ĠextÃ©rieure": 10544, "ĠpossibilitÃ©s": 10545, "Ġviolon": 10546, "Ġcerveau": 10547, "Pe": 10548, "Ã´tel": 10549, "impulsion": 10550, "Ġrenvers": 10551, "otÃ©": 10552, "ĠhÃ©rÃ©": 10553, "terrand": 10554, "aviation": 10555, "tilitÃ©": 10556, "Ġspectacles": 10557, "ĠrÃªve": 10558, "refour": 10559, "Ġcrime": 10560, "ĠTokyo": 10561, "Olymp": 10562, "Ġmotif": 10563, "ĠLiÃ¨ge": 10564, "Ġadulte": 10565, "RC": 10566, "Ġfaud": 10567, "ĠRes": 10568, "tumes": 10569, "imes": 10570, "Ġ149": 10571, "ĠMunich": 10572, "atine": 10573, "CarriÃ¨re": 10574, "Ġgarnison": 10575, "ĠTi": 10576, "rigue": 10577, "versement": 10578, "Ġsympt": 10579, "ĠNavarre": 10580, "Ġdil": 10581, "ĠMol": 10582, "Ġannon": 10583, "aintes": 10584, "Ġafricaine": 10585, "inventaire": 10586, "ĠLoc": 10587, "ĠLibÃ©ration": 10588, "Ġlo": 10589, "ĠColl": 10590, "Ġconvo": 10591, "Ġrub": 10592, "Ġion": 10593, "ĠrÃ©hab": 10594, "ĠDr": 10595, "Ġoccidentaux": 10596, "Ġgaulois": 10597, "naires": 10598, "agan": 10599, "ĠgÃ©nÃ©": 10600, "Ġchanteuse": 10601, "inal": 10602, "lova": 10603, "Ã©dÃ©e": 10604, "ĠdisparaÃ®t": 10605, "ĠÃ©tudiÃ©": 10606, "Ġrume": 10607, "Ġconversion": 10608, "Ġfluvi": 10609, "ĠLam": 10610, "ĠRon": 10611, "ĠIS": 10612, "ĠWood": 10613, "ĠFra": 10614, "ĠtirÃ©": 10615, "Ġimme": 10616, "ĠcinÃ©matographique": 10617, "Ġjumel": 10618, "Ġcomprennent": 10619, "ĠdÃ©mocrates": 10620, "Ġpropagande": 10621, "ĠidentitÃ©": 10622, "Ge": 10623, "Ġflot": 10624, "Ġindividuelles": 10625, "Ġlourds": 10626, "Ġperception": 10627, "Ġcomprise": 10628, "Ġfaisaient": 10629, "ĠdÃ©barquement": 10630, "ĠjugÃ©": 10631, "ĠrefusÃ©": 10632, "ĠrÃ©cupÃ©rer": 10633, "leine": 10634, "Ġveuve": 10635, "ĠpassÃ©e": 10636, "ĠIndes": 10637, "ĠRouen": 10638, "Ġpoisson": 10639, "Synopsis": 10640, "autonomie": 10641, "Ġautonomie": 10642, "Ġtort": 10643, "Ã¨nent": 10644, "osÃ©s": 10645, "ogie": 10646, "Ġofficiels": 10647, "Ġpolonais": 10648, "hÃ©ri": 10649, "lets": 10650, "ytes": 10651, "Ġvues": 10652, "ĠGÃ¢": 10653, "ical": 10654, "kraine": 10655, "osl": 10656, "Ġeffectivement": 10657, "ited": 10658, "ĠgÃ©rer": 10659, "Ġjuridiction": 10660, "rales": 10661, "assainissement": 10662, "olition": 10663, "Ġcrimes": 10664, "Ġmaires": 10665, "vey": 10666, "ĠorganisÃ©s": 10667, "iscop": 10668, "ĠenchaÃ®": 10669, "Ġmaillot": 10670, "ĠnÃ©s": 10671, "Ġgras": 10672, "ĠPou": 10673, "Ã©mergence": 10674, "Ġrapides": 10675, "ĠassassinÃ©": 10676, "chesse": 10677, "Ġ57": 10678, "Ġcroire": 10679, "Ġcris": 10680, "ĠDra": 10681, "ĠdÃ©crite": 10682, "ingÃ©nieur": 10683, "ĠThierry": 10684, "DÃ©fin": 10685, "ĠFlorence": 10686, "ĠestimÃ©e": 10687, "inium": 10688, "Ġlimitrophes": 10689, "isph": 10690, "Ġtests": 10691, "Ġremettre": 10692, "Ġaventures": 10693, "Ġsyllab": 10694, "aisseur": 10695, "ĠAlb": 10696, "Ġved": 10697, "Ġoccasionn": 10698, "ĠMitterrand": 10699, "Conc": 10700, "Ġdevenus": 10701, "Ġmesurer": 10702, "Ġfine": 10703, "ĠmÃ©dicale": 10704, "ĠNorth": 10705, "aisseaux": 10706, "Administration": 10707, "Ġmourut": 10708, "Ġlou": 10709, "Ġincorp": 10710, "Ġmeurtre": 10711, "duisant": 10712, "ĠPrÃ©sident": 10713, "eta": 10714, "Ġleader": 10715, "ombe": 10716, "ĠMontpel": 10717, "assadeur": 10718, "deur": 10719, "ĠSyn": 10720, "ĠPu": 10721, "Ġchars": 10722, "Ġcodes": 10723, "ĠreÃ§oivent": 10724, "Ġultra": 10725, "Ġpatient": 10726, "Ġpublier": 10727, "Ġcorruption": 10728, "ĠcÃ©rÃ©ales": 10729, "Ġpatients": 10730, "Ġhal": 10731, "agnols": 10732, "Ġpuits": 10733, "ĠlignÃ©e": 10734, "roise": 10735, "Ġeffectifs": 10736, "appuie": 10737, "cie": 10738, "Ġsons": 10739, "Ã¨bre": 10740, "Anne": 10741, "ĠfixÃ©": 10742, "Ġstrictement": 10743, "ĠPhilipp": 10744, "Ġrenouvellement": 10745, "Ġmex": 10746, "ĠBoulogne": 10747, "Ġchirurg": 10748, "John": 10749, "abilitÃ©s": 10750, "Ġtranspar": 10751, "ĠbeautÃ©": 10752, "Ġaboutit": 10753, "Ġfameux": 10754, "ĠmÃ©canismes": 10755, "hos": 10756, "Ġtrajet": 10757, "Ġaffaib": 10758, "Ġtouristes": 10759, "ĠalliÃ©": 10760, "ĠantÃ©rieur": 10761, "ĠSanta": 10762, "ĠdÃ©vo": 10763, "Arc": 10764, "ĠEugÃ¨ne": 10765, "Ġencl": 10766, "Ġmarques": 10767, "Ãīp": 10768, "87": 10769, "Ġ1909": 10770, "Ġcirculaire": 10771, "ĠScott": 10772, "ĠfermÃ©": 10773, "Me": 10774, "urt": 10775, "Ġfes": 10776, "Ġtromp": 10777, "ichy": 10778, "Ġcalcaire": 10779, "Ġserment": 10780, "Ġconstate": 10781, "Quatre": 10782, "Ġnowiki": 10783, "ĠÃ©po": 10784, "ĠdÃ©rive": 10785, "ĠSul": 10786, "impression": 10787, "Ġsalaire": 10788, "Ġarchitecture": 10789, "rante": 10790, "Ġneutre": 10791, "Ġuniversitaires": 10792, "romagn": 10793, "Ġconjug": 10794, "Ġnotable": 10795, "Ġcroissante": 10796, "oyers": 10797, "Ġput": 10798, "ĠÃ§": 10799, "Ġvaisseaux": 10800, "Ġabsence": 10801, "ĠAlgÃ©rie": 10802, "Ġemploie": 10803, "Ġafricain": 10804, "Ġfossiles": 10805, "ĠprÃªte": 10806, "ĠdÃ©mÃ©n": 10807, "Ġoccupent": 10808, "Ġscolaires": 10809, "Ġvoulu": 10810, "ĠChÃ¢te": 10811, "Ġsortes": 10812, "Ġscandale": 10813, "ĠÃ©levÃ©es": 10814, "ĠÃ©voluer": 10815, "Ġmourir": 10816, "ĠisraÃ©li": 10817, "ĠMÃ©di": 10818, "ĠRennes": 10819, "ĠJones": 10820, "ĠNintendo": 10821, "ĠYvelines": 10822, "ĠLÃ©gion": 10823, "Ġtrentaine": 10824, "ĠMontpellier": 10825, "Ã©na": 10826, "ĠadoptÃ©e": 10827, "ĠLoi": 10828, "Ġintervenir": 10829, "Ġ59": 10830, "Ġentame": 10831, "accus": 10832, "ĠquantitÃ©s": 10833, "ĠdÃ©lim": 10834, "ĠexÃ©cutif": 10835, "Ġtube": 10836, "ĠCharle": 10837, "Ġfemelle": 10838, "ĠpalÃ©": 10839, "ĠComtÃ©": 10840, "ĠBoeing": 10841, "ĠÃ©ducation": 10842, "ĠCao": 10843, "Ġpoursuite": 10844, "Ġprussi": 10845, "ĠJi": 10846, "Ġattra": 10847, "ĠdÃ©gÃ¢ts": 10848, "ilde": 10849, "Ġchance": 10850, "Ġsculpture": 10851, "Ġcollines": 10852, "Ġrepouss": 10853, "ĠzÃ©ro": 10854, "tem": 10855, "ela": 10856, "ĠNA": 10857, "ĠÃ¢gÃ©e": 10858, "ias": 10859, "Ġatteinte": 10860, "Ġdomestiques": 10861, "Ġpeste": 10862, "ĠÃ©pr": 10863, "ĠDo": 10864, "Ġsuffixe": 10865, "ĠMoselle": 10866, "ctori": 10867, "Ġorganes": 10868, "scar": 10869, "Ġattire": 10870, "vÃ©": 10871, "Ġinterview": 10872, "ĠassurÃ©": 10873, "actÃ©ris": 10874, "Office": 10875, "tip": 10876, "ĠBach": 10877, "ĠsÃ©d": 10878, "ĠChab": 10879, "Ġmusiques": 10880, "ĠrÃ©compense": 10881, "aventure": 10882, "ĠBulg": 10883, "loration": 10884, "Ġrencontrent": 10885, "Ġdiscussion": 10886, "Ġvacc": 10887, "ĠVau": 10888, "ciences": 10889, "Ġaffect": 10890, "Ġlocalement": 10891, "astronomie": 10892, "Ġfichier": 10893, "Ġretourner": 10894, "lia": 10895, "ADN": 10896, "oche": 10897, "Ġmexic": 10898, "ĠRose": 10899, "ĠHub": 10900, "Ġproduc": 10901, "iliation": 10902, "Ġtentent": 10903, "istiques": 10904, "empÃª": 10905, "Az": 10906, "Ġtribu": 10907, "ĠBad": 10908, "Di": 10909, "ito": 10910, "orf": 10911, "ĠrÃ©els": 10912, "ĠChi": 10913, "Ġartistiques": 10914, "ĠocÃ©anique": 10915, "Ġmobilis": 10916, "Sec": 10917, "ĠCarth": 10918, "Ġbarre": 10919, "atisme": 10920, "Ġtissu": 10921, "bach": 10922, "Ġtron": 10923, "tise": 10924, "Ġchau": 10925, "ĠdÃ©coupage": 10926, "Ġconvaincre": 10927, "ĠHollande": 10928, "Ġphyl": 10929, "Ã£o": 10930, "Ġcontribution": 10931, "Ġfavorables": 10932, "Ġconfiguration": 10933, "ymne": 10934, "Ġsymph": 10935, "Ġplong": 10936, "ĠMaz": 10937, "CaractÃ©ris": 10938, "Ġguitariste": 10939, "abandon": 10940, "efficacitÃ©": 10941, "ourne": 10942, "ĠClÃ©": 10943, "ĠMou": 10944, "Ġprocure": 10945, "Ãīquipe": 10946, "Ã©valu": 10947, "ĠpossÃ©dant": 10948, "Ġcombinaison": 10949, "Ġvecteur": 10950, "mentaire": 10951, "ĠrÃ©side": 10952, "Ġ1815": 10953, "Ġfondamentale": 10954, "Ġpaci": 10955, "IN": 10956, "Ġfan": 10957, "Ã¢n": 10958, "ĠtravaillÃ©": 10959, "Patrimoine": 10960, "ovie": 10961, "ĠStaline": 10962, "ĠbaptisÃ©": 10963, "Ġcombattants": 10964, "Ġinternet": 10965, "Ġincendie": 10966, "ĠplacÃ©s": 10967, "bas": 10968, "mas": 10969, "inv": 10970, "enceinte": 10971, "Ġbattre": 10972, "Arch": 10973, "Autre": 10974, "Ġabsorb": 10975, "ĠdotÃ©e": 10976, "Ã¨ves": 10977, "Ġabat": 10978, "ĠspÃ©cialement": 10979, "Ġsommets": 10980, "fa": 10981, "als": 10982, "Ġchlor": 10983, "Ġaudio": 10984, "Ġpavillon": 10985, "ouin": 10986, "ĠRu": 10987, "ĠVichy": 10988, "ĠsÃ©cher": 10989, "Ġhameaux": 10990, "ĠrÃ©pertoire": 10991, "acad": 10992, "Ġvenue": 10993, "Ġloisirs": 10994, "ĠrÃ©ussite": 10995, "his": 10996, "ĠrÃ©servÃ©": 10997, "Ġsulf": 10998, "chauff": 10999, "ĠÃ©mig": 11000, "ĠlibÃ©raux": 11001, "amÃ©liorer": 11002, "Ġpartenariat": 11003, "Ġvastes": 11004, "ĠÃ©clai": 11005, "ĠÃ©nergÃ©tique": 11006, "ĠsphÃ¨re": 11007, "Ġpyramide": 11008, "ĠBureau": 11009, "olphe": 11010, "Ġballe": 11011, "ĠrÃ©gionaux": 11012, "ĠdÃ©cida": 11013, "Ġdispute": 11014, "ĠCongo": 11015, "ĠDivision": 11016, "OR": 11017, "Ġfans": 11018, "ĠTF": 11019, "ographes": 11020, "ĠÃ©crites": 11021, "Ġcoloniale": 11022, "mbert": 11023, "ĠcommunÃ©ment": 11024, "Ġgend": 11025, "Ġplas": 11026, "obert": 11027, "ĠmonÃ©taire": 11028, "Ġatomique": 11029, "Ġapparent": 11030, "Ġmatrice": 11031, "ĠsupÃ©rieurs": 11032, "ĠÃ©lectro": 11033, "ĠHarry": 11034, "Ġcertainement": 11035, "Ġquantique": 11036, "ziÃ¨me": 11037, "ĠprÃ©server": 11038, "Ġressemb": 11039, "Ġjouant": 11040, "ĠpolÃ©mique": 11041, "ĠForm": 11042, "Ġcarn": 11043, "ĠdisparaÃ®tre": 11044, "Ġbasses": 11045, "uscule": 11046, "Ã©toile": 11047, "ĠintermÃ©diaire": 11048, "Ġpatern": 11049, "Ġvraisemblablement": 11050, "ĠPeu": 11051, "Ġ1840": 11052, "Ã¶r": 11053, "ĠGaston": 11054, "ĠtÃ©moignages": 11055, "ĠdÃ©placer": 11056, "Ġphara": 11057, "ĠLouvre": 11058, "enstein": 11059, "Ġdisciplines": 11060, "Ġenrich": 11061, "dir": 11062, "Ġsond": 11063, "atteindre": 11064, "lat": 11065, "apprentissage": 11066, "Ġmanuscrits": 11067, "ĠPorte": 11068, "Ã©doine": 11069, "ĠCarn": 11070, "Ġdistances": 11071, "Ġtypique": 11072, "atrices": 11073, "ĠRap": 11074, "Ġ140": 11075, "ĠdÃ©nonce": 11076, "ĠMuse": 11077, "Ġ1896": 11078, "Ġdrame": 11079, "ĠdÃ©lib": 11080, "Ġsauvages": 11081, "ĠtÃ©moignent": 11082, "Ġcanadien": 11083, "astien": 11084, "Ġactrice": 11085, "ĠdÃ©pression": 11086, "apport": 11087, "ĠgÃ©ographie": 11088, "ardo": 11089, "enfance": 11090, "ĠenterrÃ©": 11091, "ĠÃ©par": 11092, "Ġimpact": 11093, "ĠrÃ©parties": 11094, "Ġordinateurs": 11095, "Ġrab": 11096, "Ġoppose": 11097, "Ġvenait": 11098, "Ġsaints": 11099, "ĠFlori": 11100, "Ġsympath": 11101, "chnique": 11102, "Ġdesque": 11103, "Ġgel": 11104, "Ġfinancer": 11105, "Ġaddi": 11106, "oths": 11107, "ĠcomprÃ©hension": 11108, "dis": 11109, "Ġsouris": 11110, "Ġblocs": 11111, "MI": 11112, "ĠRT": 11113, "emples": 11114, "Ġamont": 11115, "Ġmajeures": 11116, "Ġparticipants": 11117, "ĠGreen": 11118, "88": 11119, "Ġmarqu": 11120, "Ġmembran": 11121, "ĠreprÃ©sentÃ©s": 11122, "ĠcÃ©rÃ©b": 11123, "gre": 11124, "anat": 11125, "Ġconclu": 11126, "ĠnationalitÃ©": 11127, "ĠlÃ©ger": 11128, "Ġcroisade": 11129, "ĠJackson": 11130, "RS": 11131, "Ġposer": 11132, "ĠMadame": 11133, "mosph": 11134, "ĠPri": 11135, "Ġanarch": 11136, "Ġcapt": 11137, "ĠquittÃ©": 11138, "Ġsommes": 11139, "ĠLap": 11140, "Ġ1801": 11141, "Ġtoile": 11142, "ĠdÃ©ser": 11143, "Ġinsectes": 11144, "Ġtramway": 11145, "mÃ©es": 11146, "ĠJos": 11147, "idon": 11148, "Ġindien": 11149, "Ġdescendant": 11150, "Ġcirconscriptions": 11151, "ĠsÃ©nateur": 11152, "ĠMicrosoft": 11153, "belli": 11154, "Ġ1915": 11155, "ĠDeb": 11156, "Ġjury": 11157, "Ġcosm": 11158, "Voici": 11159, "exil": 11160, "rivant": 11161, "espoir": 11162, "Ġconstruis": 11163, "ĠPot": 11164, "illus": 11165, "ĠLaur": 11166, "ĠagglomÃ©ration": 11167, "Ġ600": 11168, "ĠAlliÃ©s": 11169, "Ġculminant": 11170, "Ess": 11171, "Ġmout": 11172, "ĠDup": 11173, "ĠassemblÃ©e": 11174, "ĠChampionn": 11175, "Ara": 11176, "oro": 11177, "ĠdÃ©comp": 11178, "Ġ157": 11179, "orisÃ©e": 11180, "AndrÃ©": 11181, "fe": 11182, "ua": 11183, "Ġsyndicats": 11184, "ĠVoy": 11185, "Ġpuissants": 11186, "ĠFinlande": 11187, "ĠscÃ©nariste": 11188, "ety": 11189, "ĠLav": 11190, "adresse": 11191, "Ġber": 11192, "ĠNoire": 11193, "Ã©cos": 11194, "ĠthÃ©m": 11195, "Ġautoch": 11196, "Ġaffich": 11197, "Ġdiagnostic": 11198, "ĠÅ": 11199, "Ami": 11200, "Ġbombarde": 11201, "jamin": 11202, "oureuse": 11203, "unique": 11204, "ulations": 11205, "ĠVos": 11206, "ĠLud": 11207, "actifs": 11208, "Ġsangu": 11209, "ĠLiber": 11210, "ĠexprimÃ©s": 11211, "Ġfragments": 11212, "ĠMu": 11213, "ĠDC": 11214, "ĠtÃ©moignage": 11215, "Ġintense": 11216, "ĠvÃ©rifier": 11217, "Ġib": 11218, "Ġdut": 11219, "ĠJoe": 11220, "Ġblanches": 11221, "ĠÃ©tudiant": 11222, "Ġerreurs": 11223, "ĠmÃ©dailles": 11224, "ĠarrivÃ©": 11225, "ĠÃ©poques": 11226, "Ġaccro": 11227, "ĠadaptÃ©e": 11228, "islamique": 11229, "Ġperfection": 11230, "Ã©re": 11231, "orgue": 11232, "illir": 11233, "Ġsubstances": 11234, "Nous": 11235, "rose": 11236, "ĠgÃ¨re": 11237, "Ã©raire": 11238, "Ġmontrant": 11239, "Ġdiminuer": 11240, "ĠingÃ©nieurs": 11241, "ĠRivi": 11242, "ouvement": 11243, "Ġdiminue": 11244, "Ġcensure": 11245, "Ġfortifications": 11246, "ĠprospÃ©ritÃ©": 11247, "ĠhiÃ©rarchie": 11248, "urch": 11249, "ĠprobabilitÃ©": 11250, "ĠÃ©criture": 11251, "Ġflore": 11252, "Ã©rape": 11253, "Ġrepas": 11254, "Ġappartiennent": 11255, "Ġprogress": 11256, "Ġ1903": 11257, "organisme": 11258, "Ġpurement": 11259, "ĠHerm": 11260, "Ġatomes": 11261, "Ġrives": 11262, "Ġdivine": 11263, "ĠVil": 11264, "ĠEv": 11265, "Ã©lÃ©ments": 11266, "Ġreprennent": 11267, "Ġqualifier": 11268, "Ġsuccessives": 11269, "89": 11270, "Ġpist": 11271, "prits": 11272, "ĠVik": 11273, "ĠCapit": 11274, "ĠgravitÃ©": 11275, "ĠrÃ©dige": 11276, "ĠSpe": 11277, "ĠRub": 11278, "Ġappuy": 11279, "Ġamateur": 11280, "ĠspÃ©cialiste": 11281, "Ġfeux": 11282, "Ġmarx": 11283, "Ġnormalement": 11284, "Ġatelier": 11285, "Ġtriomphe": 11286, "ĠhypothÃ¨ses": 11287, "outes": 11288, "liser": 11289, "Ġusages": 11290, "Ġvraie": 11291, "ĠdÃ©tail": 11292, "ĠdÃ©placements": 11293, "ĠYou": 11294, "mises": 11295, "urance": 11296, "ĠrencontrÃ©": 11297, "Ġfromage": 11298, "ĠformÃ©s": 11299, "lÃ¨ge": 11300, "ĠminoritÃ©": 11301, "Ġmena": 11302, "Ġobs": 11303, "Ġcatalogue": 11304, "ĠinterprÃ©tÃ©": 11305, "sterdam": 11306, "Ġbits": 11307, "ĠcrÃ©dit": 11308, "Ġtitulaire": 11309, "ollywood": 11310, "Ġá": 11311, "ĠaussitÃ´t": 11312, "ĠMai": 11313, "ogÃ©n": 11314, "ĠdÃ©passer": 11315, "Ġempire": 11316, "ĠconfirmÃ©": 11317, "ĠVilleneuve": 11318, "ĠaccusÃ©": 11319, "Mich": 11320, "rs": 11321, "uaire": 11322, "Ġintr": 11323, "ĠTrin": 11324, "ĠrÃ©belli": 11325, "ĠTu": 11326, "Ġindo": 11327, "umiÃ¨res": 11328, "Ġpartenaire": 11329, "rienne": 11330, "ĠMagn": 11331, "Ġtraject": 11332, "ĠpoussÃ©e": 11333, "ĠgarÃ§on": 11334, "ĠnumÃ©riques": 11335, "Ġessentiel": 11336, "ĠgagnÃ©": 11337, "Ġglobale": 11338, "Ġmaritimes": 11339, "ousseau": 11340, "Ġamateurs": 11341, "Ġprogressive": 11342, "ĠThÃ©Ã¢tre": 11343, "Ġraces": 11344, "illets": 11345, "ĠspÃ©cialisÃ©s": 11346, "Ġhydra": 11347, "tris": 11348, "Ġlune": 11349, "arisme": 11350, "ĠCham": 11351, "Ġconstitutionnel": 11352, "ĠplanÃ¨tes": 11353, "Ġremonter": 11354, "Ġacide": 11355, "ĠSaxe": 11356, "Ġpassionn": 11357, "Ãªnes": 11358, "Ġnommer": 11359, "oriÃ©tÃ©": 11360, "ĠÃ©vÃ¨nements": 11361, "Ġcroit": 11362, "Ġstyles": 11363, "xion": 11364, "cho": 11365, "Ġinstant": 11366, "Ġgloire": 11367, "Ġceltique": 11368, "Ġsymbolis": 11369, "Ġclocher": 11370, "ineuse": 11371, "Ġfonctionne": 11372, "ellÃ©n": 11373, "ibliothÃ¨que": 11374, "ĠrÃ©novation": 11375, "aritÃ©s": 11376, "entielles": 11377, "ĠcommerÃ§": 11378, "Ġremb": 11379, "Ġsignifier": 11380, "importantes": 11381, "Ġsoldat": 11382, "oulement": 11383, "ĠuniversitÃ©": 11384, "Ġcomportent": 11385, "Ġagent": 11386, "Ġmultiplication": 11387, "hier": 11388, "Ġserveur": 11389, "Ġpartenaires": 11390, "Ġloint": 11391, "Ġbourgeoisie": 11392, "Ġpreuves": 11393, "istÃ©ri": 11394, "ĠparlÃ©": 11395, "ĠVis": 11396, "Ã©ville": 11397, "oxes": 11398, "asy": 11399, "ĠCi": 11400, "Ġatmosph": 11401, "ĠConst": 11402, "Ġbords": 11403, "ĠancÃªtres": 11404, "ĠVallÃ©e": 11405, "Ayant": 11406, "Ä«": 11407, "asme": 11408, "ĠBlo": 11409, "ĠmaÃ§onn": 11410, "ĠdÃ©bou": 11411, "ĠEspagnols": 11412, "Ġ110": 11413, "fond": 11414, "entier": 11415, "ĠtentÃ©": 11416, "Ġnoble": 11417, "yer": 11418, "ĠparaÃ®tre": 11419, "Ġsame": 11420, "affiche": 11421, "ĠdÃ©signant": 11422, "ĠSchw": 11423, "ĠvÃ©gÃ©tation": 11424, "Ġfir": 11425, "ĠLyn": 11426, "Ġ145": 11427, "anium": 11428, "Iran": 11429, "gen": 11430, "atter": 11431, "ĠBrig": 11432, "Ġ1916": 11433, "Ġjuif": 11434, "Ġchevaliers": 11435, "Ġhasard": 11436, "ĠcrÃ©ateur": 11437, "Ġvariation": 11438, "aÃ¯sme": 11439, "ĠsoirÃ©e": 11440, "Ġsurviv": 11441, "Ã©laboration": 11442, "chers": 11443, "Ġexpositions": 11444, "imposer": 11445, "Ãīducation": 11446, "Ġamoureux": 11447, "ghan": 11448, "Ġpoign": 11449, "ĠdÃ©lic": 11450, "ĠTest": 11451, "ĠIX": 11452, "Ġfemelles": 11453, "ĠprotÃ©gÃ©": 11454, "Ġchancelier": 11455, "EE": 11456, "cevoir": 11457, "ĠBÃ©n": 11458, "ĠLad": 11459, "ĠDor": 11460, "ĠHun": 11461, "Ġconstell": 11462, "Ġfraction": 11463, "orÃ©s": 11464, "Ãīdouard": 11465, "ĠtraversÃ©": 11466, "ĠLie": 11467, "Ġrentre": 11468, "orta": 11469, "ĠprÃ©cur": 11470, "encl": 11471, "ĠAst": 11472, "ÃªchÃ©": 11473, "Ġphilosophes": 11474, "rue": 11475, "Ġq": 11476, "Ġspec": 11477, "Ġdauph": 11478, "Ġnit": 11479, "Ġplaines": 11480, "amille": 11481, "GÃ©n": 11482, "rats": 11483, "aider": 11484, "Ġdiplomatique": 11485, "Ġmusulmane": 11486, "84": 11487, "Ġnutri": 11488, "ĠAri": 11489, "ĠÃ©tendu": 11490, "ĠThÃ©r": 11491, "Ġnerve": 11492, "tinais": 11493, "Ġchampionnats": 11494, "uies": 11495, "Ġhomosex": 11496, "Ġloup": 11497, "ĠKir": 11498, "Ġpress": 11499, "Ġdoux": 11500, "interdiction": 11501, "ways": 11502, "Ġrand": 11503, "ĠBud": 11504, "instrument": 11505, "mÃ¨tres": 11506, "ĠMÃ©s": 11507, "ĠWat": 11508, "Ġdissolution": 11509, "ĠbibliothÃ¨ques": 11510, "ĠdÃ©faites": 11511, "ĠTintin": 11512, "ĠSÃ©bastien": 11513, "Oise": 11514, "ĠTan": 11515, "Ġappellation": 11516, "Ġdessert": 11517, "ĠÃ©tages": 11518, "ĠentraÃ®neur": 11519, "ĠantÃ©rieure": 11520, "angs": 11521, "inthe": 11522, "Ġquarts": 11523, "Ġave": 11524, "Ġjette": 11525, "oiseau": 11526, "Ġ135": 11527, "ĠsimultanÃ©ment": 11528, "rov": 11529, "Ġcompositions": 11530, "Ġanniversaire": 11531, "Ġtombes": 11532, "endroit": 11533, "Ġsonore": 11534, "Ġsolde": 11535, "CaractÃ©ristiques": 11536, "ThÃ©": 11537, "cade": 11538, "ĠÃīlisabeth": 11539, "Ġ54": 11540, "Ġveulent": 11541, "Ġvoter": 11542, "ĠnotoriÃ©tÃ©": 11543, "Ġ1889": 11544, "Ġcommissaire": 11545, "ĠRouss": 11546, "Ġprisonnier": 11547, "ĠdÃ©roulent": 11548, "oÃ¯des": 11549, "ditions": 11550, "ĠprÃ©occup": 11551, "idÃ©mie": 11552, "ĠDonald": 11553, "ulte": 11554, "ĠdÃ©coration": 11555, "ouvernement": 11556, "ĠJohnson": 11557, "ĠÃ©clat": 11558, "ĠsuÃ©dois": 11559, "wards": 11560, "Ġlaissent": 11561, "ĠVieux": 11562, "Ġintervention": 11563, "Ġlogement": 11564, "ĠterminÃ©": 11565, "ĠAthÃ¨nes": 11566, "Ġravit": 11567, "ums": 11568, "Ġaristocra": 11569, "Ġgouvern": 11570, "ĠparticuliÃ¨res": 11571, "Ġorientales": 11572, "riculteurs": 11573, "ĠmÃ©moires": 11574, "ĠprÃ©pare": 11575, "ĠMÃ©m": 11576, "Ġproviennent": 11577, "ĠdÃ©cal": 11578, "Ġtiennent": 11579, "agner": 11580, "Ġcomprenait": 11581, "ound": 11582, "Ġglu": 11583, "ĠOl": 11584, "ĠÃ©choue": 11585, "ĠCanadi": 11586, "ĠattribuÃ©e": 11587, "rez": 11588, "Ġdialogue": 11589, "Ġauto": 11590, "Ġfragment": 11591, "Ġurbaines": 11592, "ĠWilliams": 11593, "Ġsemblable": 11594, "ĠÃ©lectroniques": 11595, "dits": 11596, "enger": 11597, "Ġconservateurs": 11598, "agence": 11599, "abulaire": 11600, "ĠTrib": 11601, "Ġtrah": 11602, "adj": 11603, "ĠLaz": 11604, "Ġmanoir": 11605, "ĠacceptÃ©": 11606, "ĠtrophÃ©e": 11607, "ĠÐ": 11608, "ataire": 11609, "assaut": 11610, "Ġtombeau": 11611, "oÃ¯de": 11612, "orges": 11613, "rables": 11614, "ĠRoss": 11615, "ĠHa": 11616, "akh": 11617, "Ġnulle": 11618, "Ġbrevet": 11619, "ĠHauts": 11620, "Ġexternes": 11621, "chron": 11622, "Ġrames": 11623, "oblig": 11624, "Ġdatent": 11625, "Ġrebaptis": 11626, "Ġartificielle": 11627, "ĠOpen": 11628, "ĠpÃ©t": 11629, "Ġvicom": 11630, "ĠAuvergne": 11631, "Ġcylind": 11632, "ouff": 11633, "ocent": 11634, "ĠCli": 11635, "Ã©tÃ©s": 11636, "ĠReg": 11637, "Ġprofession": 11638, "ĠJaponais": 11639, "ĠobservÃ©": 11640, "chy": 11641, "ĠRio": 11642, "Ġcommunications": 11643, "Ġanalyses": 11644, "ĠMadeleine": 11645, "gie": 11646, "otyp": 11647, "ĠÃ§a": 11648, "ĠSC": 11649, "ĠMong": 11650, "Ġ66": 11651, "Ġessor": 11652, "ĠchÃ¢teaux": 11653, "Ġentreten": 11654, "ĠmunicipalitÃ©s": 11655, "Ġtravaillent": 11656, "ĠOrlÃ©ans": 11657, "Ġarriver": 11658, "Princip": 11659, "Ġrele": 11660, "ĠMot": 11661, "Ġislamique": 11662, "Ġparach": 11663, "Ġgardien": 11664, "ĠÃ¢ges": 11665, "ĠsÃ©parÃ©s": 11666, "ĠenvoyÃ©s": 11667, "orum": 11668, "Ġlex": 11669, "Ġmassive": 11670, "Ġrecense": 11671, "Ġpluvi": 11672, "atisation": 11673, "ĠÄ": 11674, "oling": 11675, "ĠMaritime": 11676, "ombres": 11677, "Ġ87": 11678, "Ġ1898": 11679, "Ġvolontaire": 11680, "ng": 11681, "ĠOff": 11682, "ĠpubliÃ©es": 11683, "Ġmy": 11684, "olic": 11685, "Ġvectori": 11686, "Empereur": 11687, "ĠGÃ¢tinais": 11688, "Ġincont": 11689, "calier": 11690, "ĠRÃ©gime": 11691, "chait": 11692, "Ġcheveux": 11693, "Ġresta": 11694, "Ġengagement": 11695, "ĠGarde": 11696, "Ġmineurs": 11697, "ĠmÃ©diÃ©val": 11698, "Ã¢t": 11699, "Ġartiste": 11700, "Ġsubsist": 11701, "kins": 11702, "ĠMoz": 11703, "ĠKal": 11704, "Ġaffluents": 11705, "ĠprÃ©con": 11706, "Ġprestige": 11707, "Ġdistinctes": 11708, "Ġimmig": 11709, "ĠinspirÃ©e": 11710, "Ġrangs": 11711, "Ġmous": 11712, "ĠdÃ©cÃ©dÃ©": 11713, "Ġmarbre": 11714, "Ã©lie": 11715, "ĠnÃ©glige": 11716, "ĠMeuse": 11717, "ĠdÃ©triment": 11718, "ĠFinistÃ¨re": 11719, "Ġcatastrophe": 11720, "ĠColu": 11721, "Ġcontacts": 11722, "Ġroyales": 11723, "Ġressenti": 11724, "Face": 11725, "Ġ800": 11726, "Rec": 11727, "ĠSing": 11728, "ĠPD": 11729, "ĠmÃ©caniques": 11730, "objets": 11731, "ĠDans": 11732, "ĠChau": 11733, "akistan": 11734, "oku": 11735, "Ġaccepter": 11736, "ĠIr": 11737, "ĠpersÃ©cu": 11738, "ĠgarÃ§ons": 11739, "Ġmunicipaux": 11740, "Ġprotestante": 11741, "ĠdÃ©missionne": 11742, "Ġottoman": 11743, "SD": 11744, "Ġcoi": 11745, "Ġjal": 11746, "Ġsuppose": 11747, "Ġpolym": 11748, "Ġbor": 11749, "Ġobtenue": 11750, "ĠRab": 11751, "oyant": 11752, "Ġnotation": 11753, "Exemple": 11754, "Ġpseudonyme": 11755, "ero": 11756, "ĠBag": 11757, "ĠGab": 11758, "ĠGrÃ©g": 11759, "Ġration": 11760, "avenue": 11761, "Ġ1895": 11762, "ĠarrÃªtÃ©s": 11763, "ĠRecords": 11764, "ĠAmb": 11765, "ĠVl": 11766, "Ġcompagnons": 11767, "Ġparlementaires": 11768, "rel": 11769, "ĠStÃ©": 11770, "ĠLut": 11771, "lÃ¨vent": 11772, "Ġautrement": 11773, "entraÃ®nement": 11774, "UE": 11775, "reb": 11776, "ĠAlex": 11777, "ĠOlymp": 11778, "applique": 11779, "ĠindÃ©": 11780, "Ġdisposant": 11781, "ĠBoston": 11782, "Ġeffectif": 11783, "Ġfranchise": 11784, "Ġclinique": 11785, "ĠCyr": 11786, "Ġhockey": 11787, "orial": 11788, "ĠÃ©vang": 11789, "Ġglaci": 11790, "ĠapprouvÃ©": 11791, "ĠGaz": 11792, "Ġsoin": 11793, "Ġais": 11794, "ĠRC": 11795, "ĠcolÃ¨re": 11796, "Ġdisposer": 11797, "ĠTexas": 11798, "Ġpop": 11799, "row": 11800, "ĠCass": 11801, "Ġhabitat": 11802, "Ġvolontaires": 11803, "Ġgravitation": 11804, "ĠBains": 11805, "ĠRÃ©f": 11806, "Ġindiquent": 11807, "Ġfrappe": 11808, "ĠGaronne": 11809, "ĠAugustin": 11810, "ĠST": 11811, "Ã©non": 11812, "GÃ©ologie": 11813, "ĠlÃ©gislation": 11814, "Ġespagnols": 11815, "Ġcopie": 11816, "Ġcompromis": 11817, "ÅĤ": 11818, "Ġdress": 11819, "Ġpend": 11820, "ĠtÃªtes": 11821, "tÃ©n": 11822, "Ġpartielle": 11823, "ĠeffectuÃ©e": 11824, "ĠÃīglises": 11825, "Ã©miques": 11826, "Ġtari": 11827, "ĠclÃ©s": 11828, "Ġsultan": 11829, "ink": 11830, "oiries": 11831, "ĠlibÃ©rer": 11832, "Ġnationalistes": 11833, "Ġtaxe": 11834, "dire": 11835, "Ġmanuf": 11836, "ĠeffectuÃ©es": 11837, "ĠGÃ©org": 11838, "orti": 11839, "ĠnÃ©c": 11840, "ĠPales": 11841, "occupe": 11842, "Ġmargin": 11843, "Ġinscriptions": 11844, "IsraÃ«l": 11845, "Ġencourage": 11846, "Ġorthodoxe": 11847, "Ġeth": 11848, "ogÃ¨nes": 11849, "tinction": 11850, "ĠlibÃ©rÃ©": 11851, "Ã©rindiens": 11852, "Ġvern": 11853, "ĠdÃ©tient": 11854, "ĠMouvement": 11855, "ĠBibliothÃ¨que": 11856, "ĠConfÃ©dÃ©ration": 11857, "Ġtirs": 11858, "rÃ¨tement": 11859, "SC": 11860, "Ġvuln": 11861, "Ġdiffuse": 11862, "ĠspÃ©c": 11863, "ollon": 11864, "Ġpossessions": 11865, "Ġrevi": 11866, "Ġadj": 11867, "ĠUl": 11868, "Ġfermes": 11869, "ĠfunÃ©raire": 11870, "Ġcoc": 11871, "ĠrÃ©chauff": 11872, "Ġsurp": 11873, "Ġtransc": 11874, "Ġdescente": 11875, "Ġtissus": 11876, "iat": 11877, "inÃ©s": 11878, "ĠvÃ©tÃ©": 11879, "ĠPa": 11880, "Ã©rioritÃ©": 11881, "Ġreprenant": 11882, "Ġfavorise": 11883, "ĠAssociation": 11884, "ĠdoublÃ©": 11885, "Man": 11886, "Ġceinture": 11887, "uman": 11888, "ĠSamuel": 11889, "ĠinaugurÃ©e": 11890, "ĠcoordonnÃ©es": 11891, "Ġinvestissements": 11892, "ĠdÃ©missionn": 11893, "tol": 11894, "Ġanneaux": 11895, "ĠDauph": 11896, "ĠprÃ©co": 11897, "ĠrestÃ©e": 11898, "ĠSept": 11899, "ĠmÃ©dical": 11900, "Ġtriangle": 11901, "esclavage": 11902, "ivern": 11903, "associ": 11904, "ochine": 11905, "ĠrÃ©mun": 11906, "illo": 11907, "valle": 11908, "Ġnavale": 11909, "Ġsculptures": 11910, "ĠCompany": 11911, "rides": 11912, "veille": 11913, "ĠPie": 11914, "ĠDoc": 11915, "ĠHow": 11916, "Ġesprits": 11917, "Ġextrait": 11918, "ĠsystÃ©matiquement": 11919, "Ġvigne": 11920, "Ġheb": 11921, "Ġartisans": 11922, "Ġtraitements": 11923, "aing": 11924, "ĠrÃ©vÃ©lÃ©": 11925, "ĠnÃ©gatif": 11926, "ĠquÃªte": 11927, "ĠBart": 11928, "antill": 11929, "Ġcollective": 11930, "ĠLinux": 11931, "ĠmÃ©tropolitaine": 11932, "asie": 11933, "ĠSl": 11934, "ĠFr": 11935, "Ġconsol": 11936, "ĠLeon": 11937, "Auvergne": 11938, "clusion": 11939, "ĠsuccÃ©d": 11940, "Ġcivilis": 11941, "ĠGene": 11942, "Ġouverture": 11943, "activitÃ©s": 11944, "ĠVaud": 11945, "aver": 11946, "Ġbasque": 11947, "industri": 11948, "ĠWalter": 11949, "orption": 11950, "Ġrapprocher": 11951, "Ġtute": 11952, "Ġconsacrer": 11953, "ĠachÃ¨te": 11954, "urÃ©s": 11955, "Ġtt": 11956, "Ġrecul": 11957, "Ġavantages": 11958, "Ġquelconque": 11959, "Ġfonder": 11960, "ĠSteph": 11961, "octur": 11962, "Ġiran": 11963, "Ġlourde": 11964, "Ġexpose": 11965, "Ġproduites": 11966, "ĠassociÃ©es": 11967, "Ordre": 11968, "Ġ1866": 11969, "Ġrenonce": 11970, "Ġballon": 11971, "gence": 11972, "Ġbailli": 11973, "ĠCulture": 11974, "ĠtÃ©moin": 11975, "Ġmasculine": 11976, "ĠVictoria": 11977, "Ġhongrois": 11978, "Ġdents": 11979, "ĠTam": 11980, "ĠcoÃ¯n": 11981, "Ġbleue": 11982, "Ġpanneaux": 11983, "encontre": 11984, "bÃ©": 11985, "Ġdense": 11986, "ilson": 11987, "Ġpromen": 11988, "Ġplaisir": 11989, "ronn": 11990, "ĠtÃ©t": 11991, "ĠÃ©tranger": 11992, "Ġbanques": 11993, "Ãīpoque": 11994, "Ġexprime": 11995, "ĠmortalitÃ©": 11996, "anciens": 11997, "Ġtravaillant": 11998, "Ġcalculs": 11999, "81": 12000, "amorph": 12001, "ĠTop": 12002, "ĠNaz": 12003, "autorisation": 12004, "Ġblock": 12005, "ĠmÃ©diterranÃ©en": 12006, "ĠcurÃ©": 12007, "ĠPL": 12008, "Ġchat": 12009, "Ġsurvie": 12010, "Ġhu": 12011, "Ġentra": 12012, "ĠconsidÃ©rant": 12013, "Ġbrun": 12014, "ĠBrian": 12015, "Ġbotanique": 12016, "Ġnotions": 12017, "Ġfourni": 12018, "ĠÃ©quipÃ©": 12019, "ĠÃ©lectorale": 12020, "ustave": 12021, "ĠTunisie": 12022, "Ali": 12023, "Dis": 12024, "nelle": 12025, "ĠTy": 12026, "ĠKong": 12027, "ĠrÃ©colte": 12028, "Ġmoral": 12029, "Ġsubstitu": 12030, "Ã©levait": 12031, "Ġcontrainte": 12032, "Ġprononciation": 12033, "ĠChev": 12034, "Ġdialecte": 12035, "vation": 12036, "Ãīvolution": 12037, "yclopÃ©die": 12038, "Ġfum": 12039, "ĠSovi": 12040, "Ġobst": 12041, "ĠentitÃ©s": 12042, "ĠGener": 12043, "Ġsuccessifs": 12044, "Ġpoudre": 12045, "etta": 12046, "ĠidentifiÃ©": 12047, "instruction": 12048, "ĠService": 12049, "82": 12050, "Ren": 12051, "ĠBah": 12052, "Ġraid": 12053, "Ġoffensive": 12054, "ĠlÃ©gitime": 12055, "ĠmaÃ®tris": 12056, "Ġaliments": 12057, "Ã¼r": 12058, "Ġbassins": 12059, "ĠtÃ¢ches": 12060, "ĠmystÃ©rie": 12061, "rissage": 12062, "Ġcardiaque": 12063, "Ġindienne": 12064, "Ġdiriger": 12065, "Ã¶n": 12066, "ĠingÃ©nieur": 12067, "Ġorganique": 12068, "fus": 12069, "Ġlan": 12070, "ĠhÃ©m": 12071, "Ġobsc": 12072, "Ġapparu": 12073, "ĠZh": 12074, "ĠspÃ©cialisÃ©": 12075, "65": 12076, "ride": 12077, "Ġparl": 12078, "ĠClÃ©ment": 12079, "Ġjac": 12080, "Ġ1800": 12081, "importants": 12082, "Ġsk": 12083, "ĠdÃ©cors": 12084, "ĠcrÃ©ent": 12085, "Ġ1867": 12086, "ĠSark": 12087, "Sports": 12088, "Ġrense": 12089, "ĠÃ©clate": 12090, "azote": 12091, "Ġplatef": 12092, "Argentine": 12093, "erge": 12094, "Ġlecteurs": 12095, "Ġtrouvant": 12096, "Ġ1792": 12097, "Ġbouddhisme": 12098, "ĠcÃ¨de": 12099, "tish": 12100, "Ġ1897": 12101, "ratoire": 12102, "Ġintellectuelle": 12103, "iro": 12104, "Ã©ratrice": 12105, "Ġreport": 12106, "Ġcoh": 12107, "ĠrÃ©cents": 12108, "ĠprincipautÃ©": 12109, "gnÃ©": 12110, "ĠlÃ©gumes": 12111, "Ġvacances": 12112, "onien": 12113, "ĠLoir": 12114, "ĠFÃ©lix": 12115, "ĠrÃ©conc": 12116, "ĠBruno": 12117, "acadÃ©mie": 12118, "Ġpoll": 12119, "ĠcomposÃ©es": 12120, "ount": 12121, "Ġglobalement": 12122, "Ġlin": 12123, "ĠaÃ©rop": 12124, "Ġalphab": 12125, "Ġirlandais": 12126, "Ġauxquelles": 12127, "ĠXX": 12128, "Ġexploitations": 12129, "ĠrÃ©digÃ©": 12130, "Ġunes": 12131, "Ġmarquant": 12132, "angulaire": 12133, "Ġfeuille": 12134, "ozy": 12135, "Ġprofesseurs": 12136, "zac": 12137, "Î±": 12138, "ĠbrÃ©sil": 12139, "ĠPÃ¢": 12140, "ĠTony": 12141, "Ġclandes": 12142, "Ġmilliard": 12143, "ĠRenault": 12144, "ĠMacÃ©doine": 12145, "Ġvig": 12146, "Ġglis": 12147, "ĠGon": 12148, "agnol": 12149, "exploit": 12150, "ĠUMP": 12151, "relles": 12152, "ĠCav": 12153, "onna": 12154, "Ġordinaire": 12155, "Ġconcernent": 12156, "ĠTraitÃ©": 12157, "Ġcogni": 12158, "ON": 12159, "mens": 12160, "ĠÃ©duc": 12161, "Ġindustrie": 12162, "Ġsauveg": 12163, "ĠVosges": 12164, "dan": 12165, "Ġgymn": 12166, "Ġmoine": 12167, "Ġcontenir": 12168, "Ġmenant": 12169, "ĠAutriche": 12170, "ĠColombie": 12171, "Ġrapprochement": 12172, "arl": 12173, "Ġinformation": 12174, "ĠLot": 12175, "Ġtib": 12176, "elson": 12177, "ĠindigÃ¨nes": 12178, "ĠPÃ©kin": 12179, "ĠBac": 12180, "Ġcomptent": 12181, "Ġsculpteur": 12182, "ĠCharlemagne": 12183, "ĠNASA": 12184, "ep": 12185, "uminium": 12186, "Ġtutelle": 12187, "taire": 12188, "ria": 12189, "Ġqualification": 12190, "attache": 12191, "Ġintellectuels": 12192, "Ġparlent": 12193, "ĠRER": 12194, "ĠprÃ©vention": 12195, "essor": 12196, "rÃ©gation": 12197, "ĠAmerican": 12198, "ardement": 12199, "ĠCastel": 12200, "ĠÅĵufs": 12201, "ĠfenÃªtres": 12202, "Ã©valuation": 12203, "amira": 12204, "Ġsollic": 12205, "ĠspÃ©ciaux": 12206, "Ġorganisme": 12207, "ĠproposÃ©e": 12208, "ĠrÃ©unis": 12209, "ĠÃ©quilibre": 12210, "Ġaccessibles": 12211, "FranÃ§ois": 12212, "oum": 12213, "ouz": 12214, "Ġbic": 12215, "micitÃ©": 12216, "Ġ115": 12217, "Ġexistant": 12218, "ĠboÃ®te": 12219, "cope": 12220, "Ġbox": 12221, "Ġcanadienne": 12222, "Ġoubli": 12223, "dÃ©": 12224, "Ġcrain": 12225, "invention": 12226, "ĠtÃ©l": 12227, "raits": 12228, "Ã©curitÃ©": 12229, "Ġwe": 12230, "ĠMusic": 12231, "ĠattestÃ©e": 12232, "ĠXVI": 12233, "ĠpÃ¨lerinage": 12234, "onnent": 12235, "ĠcomplexitÃ©": 12236, "marÃ¨s": 12237, "Te": 12238, "ĠmodÃ©": 12239, "ĠprÃ©sidents": 12240, "Ġbordure": 12241, "monies": 12242, "Ġpluies": 12243, "ĠSah": 12244, "ĠBak": 12245, "ĠDre": 12246, "Ġpassa": 12247, "incendie": 12248, "ĠaccompagnÃ©e": 12249, "ĠvÃ©gÃ©taux": 12250, "ĠrattachÃ©": 12251, "ĠrÃ©publicaine": 12252, "amÃ©lioration": 12253, "ĠLÃ©opold": 12254, "ĠLaval": 12255, "Ġtraverser": 12256, "Ġtomber": 12257, "ĠinvitÃ©": 12258, "gi": 12259, "tÃ©roÃ¯": 12260, "lim": 12261, "ĠIP": 12262, "Ġpensent": 12263, "ĠÃ©norme": 12264, "investissement": 12265, "EN": 12266, "Ġmaintient": 12267, "ĠtransformÃ©e": 12268, "Ġillust": 12269, "ĠrÃ©habil": 12270,
[...]
