{"<s>":0,"<pad>":1,"</s>":2,"<unk>":3,"<mask>":4,"!":5,"\"":6,"#":7,"$":8,"%":9,"&":10,"'":11,"(":12,")":13,"*":14,"+":15,",":16,"-":17,".":18,"/":19,"0":20,"1":21,"2":22,"3":23,"4":24,"5":25,"6":26,"7":27,"8":28,"9":29,":":30,";":31,"<":32,"=":33,">":34,"?":35,"@":36,"A":37,"B":38,"C":39,"D":40,"E":41,"F":42,"G":43,"H":44,"I":45,"J":46,"K":47,"L":48,"M":49,"N":50,"O":51,"P":52,"Q":53,"R":54,"S":55,"T":56,"U":57,"V":58,"W":59,"X":60,"Y":61,"Z":62,"[":63,"\\":64,"]":65,"^":66,"_":67,"`":68,"a":69,"b":70,"c":71,"d":72,"e":73,"f":74,"g":75,"h":76,"i":77,"j":78,"k":79,"l":80,"m":81,"n":82,"o":83,"p":84,"q":85,"r":86,"s":87,"t":88,"u":89,"v":90,"w":91,"x":92,"y":93,"z":94,"{":95,"|":96,"}":97,"~":98,"¡":99,"¢":100,"£":101,"¤":102,"¥":103,"¦":104,"§":105,"¨":106,"©":107,"ª":108,"«":109,"¬":110,"®":111,"¯":112,"°":113,"±":114,"²":115,"³":116,"´":117,"µ":118,"¶":119,"·":120,"¸":121,"¹":122,"º":123,"»":124,"¼":125,"½":126,"¾":127,"¿":128,"À":129,"Á":130,"Â":131,"Ã":132,"Ä":133,"Å":134,"Æ":135,"Ç":136,"È":137,"É":138,"Ê":139,"Ë":140,"Ì":141,"Í":142,"Î":143,"Ï":144,"Ð":145,"Ñ":146,"Ò":147,"Ó":148,"Ô":149,"Õ":150,"Ö":151,"×":152,"Ø":153,"Ù":154,"Ú":155,"Û":156,"Ü":157,"Ý":158,"Þ":159,"ß":160,"à":161,"á":162,"â":163,"ã":164,"ä":165,"å":166,"æ":167,"ç":168,"è":169,"é":170,"ê":171,"ë":172,"ì":173,"í":174,"î":175,"ï":176,"ð":177,"ñ":178,"ò":179,"ó":180,"ô":181,"õ":182,"ö":183,"÷":184,"ø":185,"ù":186,"ú":187,"û":188,"ü":189,"ý":190,"þ":191,"ÿ":192,"Ā":193,"ā":194,"Ă":195,"ă":196,"Ą":197,"ą":198,"Ć":199,"ć":200,"Ĉ":201,"ĉ":202,"Ċ":203,"ċ":204,"Č":205,"č":206,"Ď":207,"ď":208,"Đ":209,"đ":210,"Ē":211,"ē":212,"Ĕ":213,"ĕ":214,"Ė":215,"ė":216,"Ę":217,"ę":218,"Ě":219,"ě":220,"Ĝ":221,"ĝ":222,"Ğ":223,"ğ":224,"Ġ":225,"ġ":226,"Ģ":227,"ģ":228,"Ĥ":229,"ĥ":230,"Ħ":231,"ħ":232,"Ĩ":233,"ĩ":234,"Ī":235,"ī":236,"Ĭ":237,"ĭ":238,"Į":239,"į":240,"İ":241,"ı":242,"Ĳ":243,"ĳ":244,"Ĵ":245,"ĵ":246,"Ķ":247,"ķ":248,"ĸ":249,"Ĺ":250,"ĺ":251,"Ļ":252,"ļ":253,"Ľ":254,"ľ":255,"Ŀ":256,"ŀ":257,"Ł":258,"ł":259,"Ń":260,"Ġt":261,"he":262,"Ġa":263,"in":264,"Ġthe":265,"er":266,"on":267,"re":268,"Ġo":269,"Ġs":270,"Ġw":271,"ed":272,"nd":273,"at":274,"is":275,"or":276,"en":277,"it":278,"an":279,"Ġf":280,"Ġc":281,"ar":282,"Ġof":283,"Ġin":284,"es":285,"al":286,"Ġb":287,"as":288,"ing":289,"Ġand":290,"Ġp":291,"ou":292,"ic":293,"Ġto":294,"Ġm":295,"ion":296,"Ġh":297,"Ġd":298,"le":299,"ro":300,"ĠT":301,"ĠS":302,"il":303,"ent":304,"ĠA":305,"ĠC":306,"Ġre":307,"st":308,"Ġ1":309,"om":310,"el":311,"am":312,"Ġl":313,"ĠI":314,"Ġth":315,"Ġwas":316,"Ġn":317,"ad":318,"ol":319,"ac":320,"ĠM":321,"Ġe":322,"et":323,"Ġon":324,"ec":325,"ur":326,"ĠB":327,"ĠThe":328,"Ġfor":329,"ĠH":330,"id":331,"iv":332,"ly":333,"Ġ\"":334,"Ġg":335,"Ġis":336,"Ġhe":337,"im":338,"ot":339,"ir":340,"ig":341,"ation":342,"ut":343,"ow":344,"us":345,"ĠP":346,"Ġas":347,"ter":348,"Ġ2":349,"ay":350,"âĢ":351,"ith":352,"Ġst":353,"ch":354,"Ġwith":355,"em":356,"ver":357,"un":358,"ĠR":359,"ĠD":360,"Ġbe":361,"Ġ19":362,"Ġ(":363,"ĠF":364,"ce":365,"ul":366,"ĠL":367,"and":368,"ct":369,"Ġby":370,"Ġwh":371,"ĠW":372,"ers":373,"Ġal":374,"Ġat":375,"ĠG":376,"ĠN":377,"th":378,"ist":379,"Ġan":380,"ag":381,"Ġthat":382,"Ġ20":383,"rom":384,"os":385,"her":386,"ain":387,"'s":388,"Ġcon":389,"ĠJ":390,"um":391,"av":392,"Ġr":393,"ĠE":394,"Ġit":395,"est":396,"ri":397,"Ġhis":398,"Ġfrom":399,"op":400,"ĠIn":401,"ĠO":402,"Ġcom":403,"od":404,"Ġpro":405,"oc":406,"if":407,"ill":408,"ld":409,"Ġv":410,"ab":411,"ap":412,"art":413,"ity":414,"res":415,"ate":416,"ies":417,"ud":418,"ber":419,"ak":420,"all":421,"ew":422,"igh":423,"ore":424,"Ġde":425,"Ġor":426,"ard":427,"ort":428,"Ġy":429,"up":430,"ear":431,"ĠK":432,"Ġare":433,"ant":434,"ich":435,"ĠU":436,"ess":437,"our":438,"qu":439,"ated":440,"ere":441,"Ġse":442,"ip":443,"ian":444,"ub":445,"Ġpl":446,"se":447,"Ġch":448,"Ġex":449,"ĠHe":450,"ia":451,"ive":452,"gh":453,"Ġwere":454,"ge":455,"ov":456,"ong":457,"rou":458,"ĠSt":459,"Ġ201":460,"ect":461,"ame":462,"ell":463,"nt":464,"Ġle":465,"ment":466,"ary":467,"ast":468,"ial":469,"Ġsh":470,"ust":471,"red":472,"Ġk":473,"Ġwhich":474,"Ġhad":475,"Ġher":476,"Ġsp":477,"Ġtr":478,"ĠCh":479,"ack":480,"ight":481,"ost":482,"ine":483,"ĠâĢ":484,"ep":485,"ord":486,"ave":487,"so":488,"uc":489,"Ġ200":490,"ish":491,"Ġnot":492,"ther":493,"ok":494,"ĠĊ":495,"ĠV":496,"ĠIt":497,"Ġcomp":498,"ical":499,"âĢĻ":500,"pp":501,"ork":502,"ions":503,"og":504,"Ġun":505,"ue":506,"ous":507,"Ġwhe":508,"mer":509,"cl":510,"irst":511,"00":512,"Ġalso":513,"ould":514,"Ġhas":515,"te":516,"ure":517,"ra":518,"ome":519,"ie":520,"Ġcl":521,"age":522,"ff":523,"ide":524,"hed":525,"fter":526,"Ġfirst":527,"Ġus":528,"Ġbut":529,"ass":530,"Ġar":531,"own":532,"ry":533,"ire":534,"ign":535,"iz":536,"Ġres":537,"Ġtheir":538,"out":539,"ice":540,"ans":541,"erv":542,"Ġ18":543,"ound":544,"Ġj":545,"Ġcont":546,"ond":547,"und":548,"per":549,"to":550,"wo":551,"ĠTh":552,"Ġhave":553,"Ġwho":554,"Ġab":555,"rit":556,"ater":557,"Ġone":558,"Ġits":559,"ember":560,"ric":561,"Ġad":562,"ĠUn":563,"Ġpart":564,"Ġshe":565,"\",":566,"ime":567,"ount":568,"ang":569,"act":570,"are":571,"âĢĿ":572,"ĠâĢľ":573,"Ġthis":574,"ally":575,"ach":576,"ace":577,"low":578,"ree":579,"ition":580,"pl":581,"man":582,"Ġte":583,"ult":584,"Ġag":585,"Ġapp":586,"ke":587,"Ġyear":588,"ru":589,"port":590,"ence":591,"clud":592,"),":593,"ens":594,"Ġac":595,"ations":596,"wn":597,"over":598,"ib":599,"Ġplay":600,"Ġman":601,"pt":602,"Ġup":603,"Ġout":604,"Ġbeen":605,"ĠAl":606,"Ġ3":607,"orn":608,"Ġbec":609,"lect":610,"Ġtwo":611,"land":612,"ĠY":613,"Ġper":614,"Ġro":615,"fer":616,"ational":617,"ile":618,"ade":619,"one":620,"ark":621,"ail":622,"amp":623,"Ġother":624,"Ġhim":625,"Ġyou":626,"\".":627,"Ġinclud":628,"Ġrec":629,"ind":630,"ool":631,"Ġover":632,"ng":633,"Ġen":634,"Ġthey":635,"old":636,"ild":637,"ance":638,"ory":639,"Ġsc":640,"oin":641,"Ġme":642,"Ġwork":643,"uring":644,").":645,"ough":646,"tern":647,"ates":648,"ely":649,"aw":650,"Ġkn":651,"end":652,"The":653,"Ġall":654,"for":655,"Ġafter":656,"ied":657,"ased":658,"Ġdis":659,"Ġinto":660,"ug":661,"Ġim":662,"uch":663,"ubl":664,"Ġne":665,"Ġ199":666,"ted":667,"ĠAr":668,"ents":669,"ite":670,"ited":671,"Ġcomm":672,"we":673,"able":674,"ood":675,"Ġoff":676,"anc":677,"ors":678,"ĠOn":679,"ts":680,"ress":681,"ook":682,"urn":683,"ĠAs":684,"Ġev":685,"Ġdes":686,"âĢĵ":687,"iss":688,"Ġwould":689,"chool":690,"ons":691,"Ġtime":692,"oy":693,"ward":694,"Ġpr":695,"ake":696,"ath":697,"Ġwe":698,"ase":699,"Ġnew":700,"hip":701,"Ġund":702,"ose":703,"rough":704,"ings":705,"ĠShe":706,"Ġcan":707,"les":708,"ĠMar":709,"way":710,"ivers":711,"Ġwhen":712,"vel":713,"Ġpre":714,"gan":715,"ob":716,"Ġ4":717,"Ġloc":718,"Ġserv":719,"ction":720,"Ġmore":721,"Ġunder":722,"ick":723,"Ġso":724,"Ġsec":725,"ĠLe":726,"Ġdo":727,"ious":728,"ft":729,"inal":730,"hn":731,"Ġagain":732,"Ġbet":733,"ey":734,"ĠNew":735,"Ġform":736,"oth":737,"Ġcol":738,"Ġthem":739,"ily":740,"round":741,"ren":742,"ĠCom":743,"Ġ198":744,"io":745,"ank":746,"ished":747,"Ġbu":748,"meric":749,"ilm":750,"Ġwhere":751,"Ġcons":752,"outh":753,"orld":754,"Ġonly":755,"Ġabout":756,"Ġqu":757,"Ġthere":758,"ason":759,"pe":760,"Ġreg":761,"Ġgr":762,"ollow":763,"cess":764,"Ġact":765,"rib":766,"Ġyears":767,".\"":768,"enc":769,"Ġ5":770,"Ġfe":771,"du":772,"fore":773,"ince":774,"aus":775,"ween":776,"reat":777,"Ġthen":778,"aid":779,"ual":780,"Ġret":781,"orth":782,"Ġthrough":783,"ered":784,"ah":785,"ĠThis":786,"ral":787,"form":788,"ram":789,"Ġstud":790,"ĠAmeric":791,"Ġmost":792,"ll":793,"Ġpubl":794,"Ġind":795,"Ġear":796,"Ġsup":797,"Ġpe":798,"Ġatt":799,"ron":800,"Ġfound":801,"ton":802,"Ġsome":803,"Ġmade":804,"oun":805,"Ġ197":806,"Ġteam":807,"Ġduring":808,"Ġfam":809,"au":810,"ener":811,"Ġinter":812,"Ġdec":813,"ident":814,"ike":815,"Ġrem":816,"Ġcent":817,"ix":818,"ular":819,"Ġass":820,"Ġsub":821,"ouse":822,"Ġbetween":823,"ĠRe":824,"ock":825,"air":826,"very":827,"ve":828,"Ġrel":829,"Ġmov":830,"19":831,"Ġthree":832,"ision":833,"Ġrele":834,"Ġfilm":835,"Ġ6":836,"Âł":837,"ics":838,"Ġpol":839,"Ġfollow":840,"pr":841,"duc":842,"ating":843,"ict":844,"olog":845,"Ġthan":846,"ĠSh":847,"ever":848,"iversity":849,"Ġspec":850,"az":851,"ann":852,"Ġco":853,"hes":854,"Ġmy":855,"any":856,"hen":857,"Ġused":858,".âĢĿ":859,"iel":860,"Ġgo":861,"pen":862,"Ġend":863,"Ġlater":864,"Ġback":865,"Ġsuch":866,"ative":867,"ement":868,"Ġsy":869,"roup":870,"ik":871,"led":872,"aj":873,"ities":874,"als":875,"Ġnum":876,"ived":877,"Ġam":878,"Ġpres":879,"overn":880,"Ġ196":881,"Ġbl":882,"ten":883,"Ġsecond":884,"inn":885,"Ġpop":886,"Ġdist":887,"ife":888,"oot":889,"tle":890,"other":891,"Ġcall":892,"Ġent":893,"Ġbefore":894,"Ġwell":895,"Ġfl":896,"Ġknown":897,"ĠCol":898,"Ġbecame":899,"Ġelect":900,"ters":901,"ople":902,"ĠInd":903,"ather":904,"ames":905,"Ġinc":906,"ph":907,"ject":908,"iet":909,"Ġbeing":910,"cc":911,"Ġschool":912,"ific":913,"ĠJo":914,"ros":915,"son":916,"ier":917,"Ġinv":918,"Ġno":919,"erm":920,"elf":921,"Ġprov":922,"ĠUnited":923,"arg":924,"Ġdef":925,"Ġmus":926,"Ġseason":927,"irect":928,"Ġsm":929,"ĠZ":930,"ĠAn":931,"emb":932,"Ġdid":933,"Ġset":934,"ale":935,"ĠAt":936,"ball":937,"ting":938,"Ġpos":939,"velop":940,"ĠUniversity":941,"Ġbr":942,"ury":943,"Ġfour":944,"Ġwill":945,"Ġagainst":946,"ash":947,"til":948,"Ġmany":949,"ines":950,"Ġtrans":951,"Ġcould":952,"eb":953,"ars":954,"Ġany":955,"Ġ194":956,"Ġser":957,"Ġ7":958,"tain":959,"Ġwhile":960,"Ġacc":961,"Ġrecord":962,"Ġsur":963,"ober":964,"Ġmay":965,"Ġown":966,"ty":967,"bum":968,"ĠFr":969,"iver":970,"ĠAmerican":971,"Ġincluding":972,"der":973,"Ġsaid":974,"ays":975,"Ġbro":976,"arri":977,"ĠPro":978,"ĠAfter":979,"ounc":980,"Ġexp":981,"Ġed":982,"ĠCon":983,"ley":984,"hy":985,"owever":986,"ise":987,"ept":988,"Ġart":989,"Ġlead":990,"Ġadd":991,"Ġuntil":992,"ĠSc":993,"its":994,"ĠEng":995,"Ġcount":996,"ĠCl":997,"ional":998,"Ġpeople":999,"ern":1000,"ink":1001,"ired":1002,"Ġ17":1003,"Ã©":1004,"Ġshow":1005,"Ġboth":1006,"ures":1007,"ield":1008,"Ġsing":1009,"enn":1010,"ĠFor":1011,"une":1012,"ists":1013,"Ġ195":1014,"Ġalbum":1015,"Ġem":1016,"ek":1017,"row":1018,"ared":1019,"ower":1020,"iam":1021,"Ġinst":1022,"Ġfin":1023,"ina":1024,"iew":1025,"Ġsign":1026,"Ġrep":1027,"rict":1028,"ause":1029,"Ġ8":1030,"Ġhigh":1031,"ins":1032,"ful":1033,"Ġgroup":1034,"ized":1035,"Ġfamily":1036,"Ġstart":1037,"Ġmain":1038,"000":1039,"Ġrece":1040,"ex":1041,"Ġwrit":1042,"Ġname":1043,"ĠMay":1044,"ĠSp":1045,"urch":1046,"Ġest":1047,"stem":1048,"Ġcap":1049,"ĠIs":1050,"Ġlong":1051,"Ġdevelop":1052,"Ġmed":1053,"ague":1054,"ven":1055,"Ġhead":1056,"Ġdif":1057,"ually":1058,"Ġsever":1059,"amed":1060,"vers":1061,"Ġmet":1062,"Ġnumber":1063,"ism":1064,"ĠHis":1065,"Ġoper":1066,"Ġcre":1067,"ull":1068,"Ġopen":1069,"Ġmod":1070,"ĠThey":1071,"Ġmin":1072,"Ġ9":1073,"ĠComm":1074,"Ġmon":1075,"ural":1076,"Ġdirect":1077,"ved":1078,"overnment":1079,"Ġ10":1080,"ĠBr":1081,"Ġorig":1082,"aking":1083,"Ġplayed":1084,"ĠJan":1085,"ĠWh":1086,"rap":1087,"Ġbuild":1088,"tend":1089,"Ġreleased":1090,"ĠStates":1091,"Ġarea":1092,"erman":1093,"sh":1094,"Ġmat":1095,"ĠJohn":1096,"ĠâĢĵ":1097,"Ġlike":1098,"ĠQ":1099,"Ġwon":1100,"ange":1101,"ulation":1102,"Ġcalled":1103,"uss":1104,"ained":1105,"Ġchar":1106,"Ġsong":1107,"Ġrun":1108,"Ġsame":1109,"ross":1110,"ĠWorld":1111,"Ġbel":1112,"ird":1113,"Ġ16":1114,"Ġcomple":1115,"ped":1116,"ives":1117,"Ġ15":1118,"Ġob":1119,"ution":1120,"ĠDe":1121,"arl":1122,"imes":1123,"osed":1124,"Ġgener":1125,"ax":1126,"inc":1127,"ĠAust":1128,"ĠJu":1129,"ants":1130,"ister":1131,"ĠNational":1132,"erson":1133,"Ġcontin":1134,"Ġprog":1135,"Ġseries":1136,"Ġreturn":1137,"Ġoffic":1138,"Ġann":1139,"Ġjust":1140,"Ġseveral":1141,"Ġdesign":1142,"Ġ193":1143,"Ġthese":1144,"ĠTr":1145,"Ġdown":1146,"arm":1147,"ĠThere":1148,"Ġhist":1149,"Ġsuc":1150,"arn":1151,"Ġdep":1152,"Ġwhat":1153,"ourn":1154,"ĠBrit":1155,"uro":1156,"Ġvar":1157,"els":1158,"Ġgu":1159,"Ġcur":1160,"Ġint":1161,"Ġif":1162,"Ġaround":1163,"Ġnow":1164,"Ġimp":1165,"iving":1166,"Ġsystem":1167,"ĠCount":1168,"Ġfeat":1169,"Ġconst":1170,"ĠAd":1171,"ible":1172,"uth":1173,"ised":1174,"ugust":1175,"uary":1176,"my":1177,"Ġcity":1178,"Ġhand":1179,"ĠBl":1180,"ues":1181,"Ġbegan":1182,"Ġuse":1183,"ains":1184,"cept":1185,"Ġnear":1186,"ĠPr":1187,"Ġchild":1188,"the":1189,"ially":1190,"Ġearly":1191,"xt":1192,"Ġtook":1193,"ets":1194,"Ġmusic":1195,"Ġgame":1196,"by":1197,"20":1198,"ajor":1199,"Ġfollowing":1200,"ided":1201,"ĠNov":1202,"Ġpublic":1203,"Ġstate":1204,"eptember":1205,"eng":1206,"ĠSchool":1207,"Ġprodu":1208,"ove":1209,"Ġdr":1210,"Ġsince":1211,"ute":1212,"ĠAugust":1213,"Ġair":1214,"ued":1215,"rent":1216,"Ġtown":1217,"ai":1218,"ission":1219,"ĠDec":1220,"ilt":1221,"ital":1222,"Ġins":1223,"ene":1224,"ĠSouth":1225,"Ġsmall":1226,"Ġresp":1227,"oci":1228,"por":1229,"ient":1230,"Ġdisc":1231,"fess":1232,"duced":1233,"ĠSeptember":1234,"Ġph":1235,"vent":1236,"ĠCan":1237,"ured":1238,"oman":1239,"abl":1240,"Ġeach":1241,"alk":1242,"br":1243,"ĠMarch":1244,"Ġorgan":1245,"ĠJune":1246,"ĠGerman":1247,"Ġplace":1248,"ctober":1249,"ior":1250,"ĠWar":1251,"augh":1252,"Ġpass":1253,"ility":1254,"ĠBe":1255,"Ġbook":1256,"ruct":1257,"Ġhouse":1258,"Ġstr":1259,"Ġalong":1260,"Ġformer":1261,"ĠOr":1262,"ically":1263,"Ġland":1264,"aving":1265,"ĠJanuary":1266,"aced":1267,"Ġ12":1268,"ĠJuly":1269,"Ġcare":1270,"ces":1271,"Ġeff":1272,"Ġpoin":1273,"icip":1274,"ĠPh":1275,"omet":1276,"Ġprom":1277,"pril":1278,"ĠYork":1279,"Ġjoin":1280,"Ġheld":1281,"ternational":1282,"ium":1283,"ĠAll":1284,"ĠOctober":1285,"ret":1286,"..":1287,"Ġright":1288,"Ġthough":1289,"Ġdiffer":1290,"omen":1291,"ane":1292,"ootball":1293,"Ġsim":1294,"Ġhel":1295,"Ġhome":1296,"Ġcommun":1297,"lege":1298,"Ġinf":1299,"Ġsupport":1300,"ĠGr":1301,"ĠApril":1302,"oard":1303,"Ġgovernment":1304,"rist":1305,"con":1306,"ĠCent":1307,"Ġclass":1308,"Ġlocated":1309,"ments":1310,"Ġocc":1311,"Ġworld":1312,"ampions":1313,"ales":1314,"ĠPl":1315,"Ġ'":1316,"uck":1317,"Ġprogram":1318,"ĠEuro":1319,"Ġvill":1320,"Ġband":1321,"ox":1322,"Ġold":1323,"Ġlast":1324,"ages":1325,"Ġleft":1326,"ĠNovember":1327,"Ġresult":1328,"Ġpopulation":1329,"Ġcompet":1330,"ple":1331,"ology":1332,"embers":1333,"Ġbecause":1334,"ĠDecember":1335,"ract":1336,"ble":1337,"Ġ-":1338,"ck":1339,"resent":1340,"18":1341,"Ġstill":1342,"Ġtit":1343,"rop":1344,"af":1345,"ĠAnd":1346,"ĠSe":1347,"arge":1348,"ĠCounty":1349,"Ġlook":1350,"orm":1351,"ĠNorth":1352,"Ġnamed":1353,"ately":1354,"Ġsl":1355,"ĠGe":1356,"wards":1357,"ices":1358,"ĠHowever":1359,"Ġday":1360,"Ġmajor":1361,"Ġsuccess":1362,"ery":1363,"Ġcour":1364,"Ġ$":1365,"aining":1366,"Ġcompany":1367,"Ġeven":1368,"oss":1369,"Ġlocal":1370,"Ġclub":1371,"Ġlit":1372,"ĠAustral":1373,"Ġage":1374,"get":1375,"Ġbus":1376,"lev":1377,"ae":1378,"Ġdesc":1379,"Ġ2010":1380,"Ġlife":1381,"self":1382,"ĠMus":1383,"Ġrest":1384,"ĠBritish":1385,"ling":1386,"Ġappear":1387,"min":1388,"ently":1389,"ĠAss":1390,"Ġmember":1391,"Ġpolit":1392,"ored":1393,"ection":1394,"ne":1395,"Ġcar":1396,"Ġestabl":1397,"med":1398,"Ġevery":1399,"Ġreceived":1400,"mp":1401,"ival":1402,"Ġ11":1403,"Ġserved":1404,"ebru":1405,"ĠCity":1406,"ience":1407,"ebruary":1408,"illion":1409,"Ġref":1410,"Ġ14":1411,"iness":1412,"Ġturn":1413,"tal":1414,"Ġknow":1415,"Ġstation":1416,"Ġmembers":1417,"ĠEurope":1418,"though":1419,"Ġext":1420,"Ġfinal":1421,"echn":1422,"Ġline":1423,"Ġcr":1424,"Ġtri":1425,"Ġevent":1426,"ĠHer":1427,"Ġ13":1428,"ony":1429,"Ġmake":1430,"Ġget":1431,"ody":1432,"Ġ192":1433,"born":1434,"Ġborn":1435,"ham":1436,"ĠFebruary":1437,"Ġeng":1438,"'t":1439,"Ġvery":1440,"Ġsingle":1441,"ung":1442,"view":1443,"hest":1444,"ats":1445,"Ġway":1446,"earch":1447,"Ġterm":1448,"Ġlist":1449,"yl":1450,"let":1451,"Ġbuilt":1452,"erg":1453,"Ġconc":1454,"arr":1455,"ians":1456,"Ġappro":1457,"ĠAm":1458,"ator":1459,"Ġ2011":1460,"ides":1461,"ilit":1462,"rew":1463,"ĠPol":1464,"Ġdet":1465,"ampionship":1466,"reen":1467,"Ġreport":1468,"Ġcharac":1469,"Ġwithin":1470,"?âĢĿ":1471,"arried":1472,"ording":1473,"ĠWill":1474,"Ġrefer":1475,"Ġthose":1476,"ott":1477,"Ġlarge":1478,"ison":1479,"ĠUS":1480,"Ġsix":1481,"Ġbased":1482,"Ġmuch":1483,"Ġanother":1484,"Ġcontro":1485,"Ġneed":1486,"isc":1487,"Ġinclude":1488,"ady":1489,"Ġty":1490,"ality":1491,"Ġmark":1492,"Ġsoc":1493,"uff":1494,"Ġnorth":1495,"ĠGu":1496,"Ġ2012":1497,"ected":1498,"ified":1499,"riend":1500,"iven":1501,"Ġfive":1502,"Ġlaw":1503,"ched":1504,"ĠKing":1505,"aim":1506,"com":1507,"iety":1508,"Ġconf":1509,"ined":1510,"Ġperson":1511,"Ġconsid":1512,"ĠBro":1513,"ĠLeague":1514,"ĠState":1515,"ĠDuring":1516,"Ġ(\"":1517,"Ġdeath":1518,"aster":1519,"Ġstand":1520,"que":1521,"ograp":1522,"ĠEd":1523,"atic":1524,"Ġrequ":1525,"me":1526,"Ġcamp":1527,"Ġpresent":1528,"day":1529,"Ġallow":1530,"itions":1531,"ĠCo":1532,"Ġcentury":1533,"ĠCanad":1534,"akes":1535,"Ġbuilding":1536,"Ġcame":1537,"sp":1538,"ĠChrist":1539,"Ġtop":1540,"Ġdue":1541,"ĠCal":1542,"Ġnational":1543,"ĠII":1544,"Ġspecies":1545,"ert":1546,"Ġ2014":1547,"ively":1548,"Ġprofess":1549,"ivision":1550,",âĢĿ":1551,"ĠWhen":1552,"ĠAf":1553,"Ġvillage":1554,"Ġ2013":1555,"Ġdifferent":1556,"iod":1557,"Ġcurrent":1558,"Ġpublished":1559,"Ġdied":1560,"Ġside":1561,"ont":1562,"Ġ2009":1563,"Ġwater":1564,"Ġdeb":1565,"Ġbre":1566,"Ġ2008":1567,"Ġleg":1568,"ness":1569,"ille":1570,"aly":1571,"ĠWest":1572,"Ġshort":1573,"Ġadv":1574,"Ġ191":1575,"ĠRep":1576,"ief":1577,"Ġmoved":1578,"ask":1579,"Ġ.":1580,"ature":1581,"rench":1582,"Ġdescrib":1583,"Ġincluded":1584,"Ġlarg":1585,"ublic":1586,"oor":1587,"ĠMan":1588,"Ġdem":1589,"alth":1590,"vious":1591,"Ġprot":1592,"Ġrepl":1593,"Ġsouth":1594,"ering":1595,"Ġvers":1596,"reet":1597,"Ġthird":1598,"Ġval":1599,"ode":1600,"Ġwant":1601,"Ġcover":1602,"Ġ2015":1603,"Ġrepresent":1604,"hing":1605,"Ġpower":1606,"Ġmen":1607,"Ġmanag":1608,"ĠCar":1609,"Ġchildren":1610,"Ġfootball":1611,"lish":1612,"Ġbest":1613,"urg":1614,"side":1615,"idd":1616,"alf":1617,"Ġwent":1618,"Ġvis":1619,"Ġopp":1620,"Ġtake":1621,"ĠMin":1622,"Ġav":1623,"omin":1624,"Ġfew":1625,"ner":1626,"Ġ&":1627,"Ġsk":1628,"ech":1629,"ize":1630,"gr":1631,"aces":1632,"ĠMc":1633,"aff":1634,"Ġfather":1635,"Ġel":1636,"ords":1637,"Ġarr":1638,"Ġson":1639,"inning":1640,"Ġincre":1641,"Ġ2016":1642,"Ġ2006":1643,"estern":1644,"Ġgl":1645,"Ġpost":1646,"Ġhum":1647,"ula":1648,"uthor":1649,"ĠAb":1650,"Ġ2007":1651,"ĠGeor":1652,"âĢĶ":1653,"ency":1654,"ization":1655,"ying":1656,"ĠDist":1657,"Ġcor":1658,"ĠEl":1659,"ĠSw":1660,"stit":1661,"ĠWe":1662,"Ġexper":1663,"Ġpar":1664,"ards":1665,"idge":1666,"Ġstarted":1667,"Ġperform":1668,"tended":1669,"Ġled":1670,"ĠFrench":1671,"ĠEx":1672,"Ġtrad":1673,"ences":1674,"yn":1675,"ĠEnglish":1676,"work":1677,"Ġperiod":1678,"Ġkill":1679,"Ġbeg":1680,"Ġshould":1681,"Ġoften":1682,"Ġaddition":1683,"oad":1684,"Ġep":1685,"ouncil":1686,"ese":1687,"Ġposs":1688,"eder":1689,"apan":1690,"angu":1691,"Ġyour":1692,"Ġiss":1693,"Ġimport":1694,"Ġ25":1695,"Ġexpl":1696,"Ġnext":1697,"ms":1698,"Ġsw":1699,"Ġla":1700,"ĠReg":1701,"Ġsee":1702,"sc":1703,"Ġsit":1704,"app":1705,"Ġcareer":1706,"ĠBy":1707,"Ġpat":1708,"Ġlevel":1709,"ĠFl":1710,"eter":1711,"Ġbat":1712,"Ġbeh":1713,"ĠHigh":1714,"Ġask":1715,"Ġfact":1716,"ĠCollege":1717,"Ġ190":1718,"Ġproject":1719,"Ġmonth":1720,"Ġequ":1721,"Ġcrit":1722,"Ġannounc":1723,"ĠBar":1724,"Ġspe":1725,"ves":1726,"par":1727,"ondon":1728,"Ġoriginal":1729,"Ġeduc":1730,"Ġlate":1731,"Ġamong":1732,"Ġtw":1733,"Ġ2017":1734,"ches":1735,"ĠPart":1736,"Ġfore":1737,"ps":1738,"ee":1739,"Ġwomen":1740,"Ġattack":1741,"ĠYou":1742,"Ġes":1743,"ĠPar":1744,"Ġsold":1745,"Ã¡":1746,"Ġgood":1747,"raft":1748,"Ġorder":1749,"Ġyoung":1750,"ront":1751,"Ġhow":1752,"ana":1753,"artment":1754,"ached":1755,"urs":1756,"Ġsomet":1757,"\")":1758,"Ġcountry":1759,"Ġservice":1760,"Ġbusiness":1761,"ĠWilliam":1762,"ĠPark":1763,"Ġaway":1764,"Ġnon":1765,"Ġship":1766,"ington":1767,"Ġwar":1768,"Ġ30":1769,"ĠRuss":1770,"ĠPres":1771,"ĠJapan":1772,"Ġport":1773,"ĠLondon":1774,"Ġweek":1775,"Ġfind":1776,"Ġwin":1777,"ata":1778,"Ġnever":1779,"adu":1780,"ĠSy":1781,"ĠAfric":1782,"ford":1783,"ĠAir":1784,"Ġappe":1785,"Ġ<":1786,"ĠX":1787,",\"":1788,"umb":1789,"ribut":1790,"ĠSec":1791,"ĠRiver":1792,"adem":1793,"Ġcollect":1794,"ĠWith":1795,"lu":1796,"empt":1797,"Ġaff":1798,"ument":1799,"ĠOne":1800,"osp":1801,"Ġchang":1802,"ĠDistrict":1803,"ald":1804,"leg":1805,"Ġbecome":1806,"ilitary":1807,"Ġmillion":1808,"ĠComp":1809,"Ġreal":1810,"line":1811,"Ġprevious":1812,"Ġtitle":1813,"yle":1814,"Ġgreat":1815,"Ġfriend":1816,"Ġinvol":1817,"ases":1818,"Ġ2018":1819,"Ġhaving":1820,"Ġey":1821,"ilar":1822,"Ġfac":1823,"Ġpain":1824,"10":1825,"ĠTe":1826,"Ġgiven":1827,"ries":1828,"ape":1829,"Ġgames":1830,"ino":1831,"ploy":1832,"hel":1833,"Ġtrack":1834,"ze":1835,"Ġestablished":1836,"istr":1837,"Ġsol":1838,"ruction":1839,"Ġ189":1840,"Ġdistrict":1841,"Ġrole":1842,"ones":1843,"Ġhistory":1844,"Ġmag":1845,"ced":1846,"ĠAcc":1847,"na":1848,"hem":1849,"uk":1850,"urther":1851,"ense":1852,"Ġdel":1853,"Ġcharacter":1854,"aul":1855,"Ġrad":1856,"ention":1857,"ead":1858,"ara":1859,"Ġfield":1860,"of":1861,"Ġtechn":1862,"Ġcommon":1863,"mit":1864,"Ġeffect":1865,"Ġwithout":1866,"ĠDav":1867,"ĠCor":1868,"ĠAng":1869,"ler":1870,"ummer":1871,"Ġfre":1872,"epend":1873,"aken":1874,"Ġworked":1875,"Ġaward":1876,"be":1877,"Ġauthor":1878,"Ġhelp":1879,"ole":1880,"ĠMed":1881,"oon":1882,"ĠSoc":1883,"Ġvarious":1884,"levision":1885,"hat":1886,"Ġreturned":1887,"Ġorigin":1888,"Ġ24":1889,"ran":1890,"Ġdon":1891,"Ġinit":1892,"ĠThese":1893,"Ġprocess":1894,"reg":1895,"ev":1896,"Ġtotal":1897,"Ġlet":1898,"avy":1899,"conom":1900,"rote":1901,"ĠHar":1902,"Ġstat":1903,"rest":1904,"Ġvot":1905,"ĠDr":1906,"ories":1907,"Ġannounced":1908,"Ġmarried":1909,"eth":1910,"rick":1911,"Ġprop":1912,"ances":1913,"Ġspecial":1914,"Ġusing":1915,"Ġactiv":1916,"Ġsent":1917,"Ġcommunity":1918,"Ġclaim":1919,"Ġstudents":1920,"ĠEngland":1921,"Ġjoined":1922,"Ġfun":1923,"ĠHouse":1924,"ociation":1925,"Ġfem":1926,"Ġhowever":1927,"lin":1928,"cent":1929,"ĠBut":1930,"Ġappoin":1931,"Ġround":1932,"eneral":1933,"ivid":1934,"Ġarch":1935,"Ġcult":1936,"Ġtimes":1937,"ecut":1938,"ĠChampionship":1939,"Ġplayer":1940,"Ġcontinued":1941,"irl":1942,"ament":1943,"err":1944,"duct":1945,"ably":1946,"Ġproduced":1947,"Ġpromot":1948,"irc":1949,"ĠCup":1950,"iber":1951,"ĠPhil":1952,"Ġcreated":1953,"less":1954,"gether":1955,"Ġtogether":1956,"Ġ,":1957,"Ġlight":1958,"Ġfull":1959,"Ġdoes":1960,"Ġgen":1961,"abor":1962,"ising":1963,"Ġdebut":1964,"Ġ2005":1965,"Ġdefe":1966,"hern":1967,"Ġdevelopment":1968,"Ġhistor":1969,"ream":1970,"Ġlangu":1971,"Ġbody":1972,"ĠNo":1973,"ĠSan":1974,"raw":1975,"elt":1976,"Ġhold":1977,"sk":1978,"ning":1979,"arent":1980,"Ġposition":1981,"lic":1982,"ĠDep":1983,"ĠInternational":1984,"cast":1985,"Ġgeneral":1986,"ĠEn":1987,"hold":1988,"Ġ188":1989,"ops":1990,"Ġdays":1991,"Ġopened":1992,"ĠSup":1993,"ested":1994,"ugg":1995,"Ġtem":1996,"Ġdescribed":1997,"ĠMe":1998,"Ġbrother":1999,"Ġpopular":2000,"ĠEast":2001,"Ġhalf":2002,"Ġ21":2003,"Ġhig":2004,"ĠRes":2005,"Ġwritten":2006,"Ġpartic":2007,"Ġhimself":2008,"ways":2009,"de":2010,"ĠIndian":2011,"omb":2012,"ĠGl":2013,"astern":2014,"Ġcle":2015,"ots":2016,"Ġwrote":2017,"forman":2018,"amb":2019,"used":2020,"ĠFrom":2021,"urb":2022,"Ġsay":2023,"orthern":2024,"Ġlost":2025,"atch":2026,"Ġinform":2027,"ither":2028,"Ġprim":2029,"off":2030,"oll":2031,"ours":2032,"lands":2033,"Ġhost":2034,"oyal":2035,"ogn":2036,"Ġcontrol":2037,"sequ":2038,"Ġpract":2039,"Ġ2000":2040,"most":2041,"=\"":2042,"co":2043,"Ġput":2044,"ĠAccording":2045,"ministr":2046,"ster":2047,"ĠRec":2048,"Ġpolitical":2049,"Ġroad":2050,"Ġattempt":2051,"rug":2052,"Ġsimilar":2053,"Ġbelie":2054,"Ġsqu":2055,"Ġthink":2056,"ander":2057,"alt":2058,"outher":2059,"ript":2060,"ivil":2061,"Ġaver":2062,"ests":2063,"Ġstory":2064,"50":2065,"Ġmeet":2066,"Ġtoo":2067,"ĠChurch":2068,"Ġpoint":2069,"Ġroom":2070,"ample":2071,"Ġimportant":2072,"eep":2073,"Ġchurch":2074,"Ġsite":2075,"outhern":2076,"ti":2077,"ope":2078,"Ã³":2079,"iron":2080,"ĠSer":2081,"Ġrail":2082,"ĠPresident":2083,"Ġintro":2084,"Ġpri":2085,"Ġproduction":2086,"ividual":2087,"Ġgoing":2088,"Ġlim":2089,"ĠMich":2090,"ĠAg":2091,"aughter":2092,"Ġ2004":2093,"Ġ100":2094,"Ġ186":2095,"Ġworks":2096,"Ġacross":2097,"Ġepis":2098,"Ġmatch":2099,"hys":2100,"ĠAc":2101,"Ġappeared":2102,"orts":2103,"Ġmaking":2104,"ĠLa":2105,"ĠEm":2106,"Ġcomb":2107,"Ġ22":2108,"Ġless":2109,"itor":2110,"ertain":2111,"Ġoffer":2112,"Ġversion":2113,"Ġmother":2114,"Ġconsidered":2115,"now":2116,"Ġregion":2117,"Ġgrow":2118,"ĠRoman":2119,"Ġmilitary":2120,"Ġparticip":2121,"ĠIndia":2122,"lex":2123,"Ġproper":2124,"ellow":2125,"Ġofficial":2126,"Ġview":2127,"Ġconn":2128,"ĠAustralia":2129,"aged":2130,"Ġnight":2131,"St":2132,"Ġvide":2133,"acy":2134,"Ġfurther":2135,"ĠMon":2136,"Ġmust":2137,"etwork":2138,"Ġelection":2139,"ades":2140,"ination":2141,"ĠStreet":2142,"Ġ0":2143,"ĠPe":2144,"Ġtelevision":2145,"oice":2146,"iment":2147,"Ġground":2148,"17":2149,"ĠCouncil":2150,"Ġgave":2151,"Ġdest":2152,"iforn":2153,"Ġbroad":2154,"unicip":2155,"Ġindust":2156,"ĠPer":2157,"Ġothers":2158,"ĠRepublic":2159,"ĠArmy":2160,"Ġlow":2161,"ĠEuropean":2162,"Ġ[":2163,"Ġwife":2164,"Ġperforman":2165,"rem":2166,"Ġengine":2167,"Ġbas":2168,"Ġ23":2169,"Ġident":2170,"reek":2171,"ĠFrance":2172,"Ġworking":2173,"Ġsurv":2174,"eum":2175,"ha":2176,"Ġcaus":2177,"Ġparty":2178,"Ġfounded":2179,"ĠArt":2180,"ĠSm":2181,"Ġvol":2182,"uit":2183,"hic":2184,"Ġinternational":2185,"ifornia":2186,"ĠAct":2187,"Ġindividual":2188,"200":2189,"Ġide":2190,"here":2191,"ius":2192,"Ġpriv":2193,"key":2194,"Ġonce":2195,"iles":2196,"iting":2197,"ĠSch":2198,"iding":2199,"Ġlittle":2200,"Ġrecorded":2201,"Ġparticular":2202,"ĠDes":2203,"ocr":2204,"tion":2205,"Ġ187":2206,"uel":2207,"Ġdidn":2208,"Ġhere":2209,"ney":2210,"12":2211,"ĠCalifornia":2212,"ĠParty":2213,"Ġinvest":2214,"hib":2215,"Ġpo":2216,"Ġinflu":2217,"bor":2218,"att":2219,"Ġmult":2220,"aper":2221,"Ġblack":2222,"Ġsocial":2223,"Ġthought":2224,"ishing":2225,"Ġresearch":2226,"ĠGeneral":2227,"ica":2228,"Ġfront":2229,"Ġsound":2230,"year":2231,"ico":2232,"Ġeast":2233,"ĠWhile":2234,"field":2235,"Ġrock":2236,"ĠAmerica":2237,"Ġoffice":2238,"ĠNor":2239,"Ġcase":2240,"Ġprofessional":2241,"Ġformed":2242,"Ġmid":2243,"ĠChar":2244,"ĠCour":2245,"Ġsaw":2246,"Ġfire":2247,"Ġread":2248,"int":2249,"Ġeconom":2250,"Ġhuman":2251,"ĠJames":2252,"Ġten":2253,"ef":2254,"itte":2255,"ama":2256,"oney":2257,"ills":2258,"dom":2259,"olution":2260,"idence":2261,"era":2262,"ring":2263,"imately":2264,"ĠDivision":2265,"ells":2266,"Ġexist":2267,"iddle":2268,"ological":2269,"ateg":2270,"Ġliving":2271,"Ġsigned":2272,"ĠHol":2273,"Ġfund":2274,"ush":2275,"Ġareas":2276,"Ġlive":2277,"ĠQue":2278,"Ġgradu":2279,"Ġfail":2280,"Ġtradition":2281,"ville":2282,"ĠPort":2283,"Ġexample":2284,"Ġwest":2285,"Ġseen":2286,"aves":2287,"Ġavail":2288,"Ġ26":2289,"Ġelected":2290,"Ġstruct":2291,"ĠVal":2292,"ĠCanada":2293,"Ġdeveloped":2294,"Ġren":2295,"Ġhon":2296,"Ġappointed":2297,"Ġaverage":2298,"Ġfree":2299,"Ġhous":2300,"Ġtrav":2301,"ÃŃ":2302,"...":2303,"Ġselect":2304,"Ġ28":2305,"aign":2306,"Ġtour":2307,"ĠThom":2308,"Ġtyp":2309,"Ġstrong":2310,"16":2311,"ma":2312,"15":2313,"Ġcond":2314,"Ġrelease":2315,"ĠBat":2316,"ĠSome":2317,"Ġele":2318,"ership":2319,"Ġvict":2320,"ĠGeorge":2321,"Ġcoll":2322,"ĠMor":2323,"Ã¼":2324,"ship":2325,"Ġfollowed":2326,"BC":2327,"Ġmot":2328,"Ġdiv":2329,"Ġ27":2330,"Ġcome":2331,"Ġalthough":2332,"Ġreported":2333,"Ġemploy":2334,"Ġtaken":2335,"bs":2336,"Ġpresident":2337,"Ġeyes":2338,"Ġaut":2339,"ensus":2340,"ĠBel":2341,"ference":2342,"wh":2343,"iol":2344,"Ġproduct":2345,"Ġmar":2346,"Ġ2003":2347,"Ġplaying":2348,"Ġnov":2349,"Ġrecogn":2350,"Ġformula":2351,"ged":2352,"pite":2353,"anish":2354,"Ġdeg":2355,"ael":2356,"ĠRober":2357,"Ġ1990":2358,"Ġface":2359,"ipp":2360,"anded":2361,"Ġteams":2362,"Ġfoc":2363,"Ġrelations":2364,"ule":2365,"Ġfall":2366,"Ġasked":2367,"Ġmater":2368,"Ġreview":2369,"lymp":2370,"Ġra":2371,"ĠAssociation":2372,"Ġcontract":2373,"Ġeight":2374,"rown":2375,"ĠPal":2376,"stand":2377,"Ġbehind":2378,"Ġgot":2379,"Ġsuccessful":2380,"ger":2381,"Ġour":2382,"ĠMy":2383,"thing":2384,"ĠRich":2385,"Ġord":2386,"ĠLou":2387,"ressed":2388,"aut":2389,"Ġcross":2390,"itive":2391,"Ġred":2392,"ĠQu":2393,"Ġcast":2394,"Ġpoints":2395,"ania":2396,"Ġproduc":2397,"Ġable":2398,"Ġwind":2399,"Ġsignific":2400,"aint":2401,"ought":2402,"Ġdev":2403,"ĠOlymp":2404,"li":2405,"ĠRoyal":2406,"udd":2407,"Ġce":2408,"Ġstop":2409,"Ġrace":2410,"ĠTo":2411,"ibr":2412,"Ġmodern":2413,"Ġhy":2414,"Ġdaughter":2415,"Ġmonths":2416,"Ġsuff":2417,"ĠUnion":2418,"Ġfinished":2419,"Ġevents":2420,"oute":2421,"Ġhard":2422,"elling":2423,"ari":2424,"Ġavailable":2425,"Ġvideo":2426,"Ġlaun":2427,"Ġsepar":2428,"Ġrank":2429,"ĠAnt":2430,"Ġfight":2431,"Ġservices":2432,"ĠMal":2433,"ceed":2434,"ago":2435,"Ġclose":2436,"ĠGermany":2437,"Ġindepend":2438,"Ġcoach":2439,"ili":2440,"ris":2441,"stitute":2442,"Ġpast":2443,"ming":2444,"ett":2445,"uf":2446,"Ġcost":2447,"olic":2448,"ensive":2449,"eal":2450,"Ġplan":2451,"Ġdirector":2452,"ournal":2453,"Ġ2002":2454,"ĠHall":2455,"Ġproble":2456,"Ġmean":2457,"str":2458,"ators":2459,"aps":2460,"ĠDem":2461,"Ġrev":2462,"Ġbecom":2463,"ĠâĢĺ":2464,"utes":2465,"iec":2466,"Ġ2001":2467,"ĠPaul":2468,"Th":2469,"itect":2470,"Ġagre":2471,"Ġeducation":2472,"Ġ1980":2473,"Ġve":2474,"ĠAward":2475,"ittee":2476,"Ch":2477,"ĠAustralian":2478,"ĠPat":2479,"ĠRoad":2480,"wood":2481,"estival":2482,"ĠSen":2483,"ements":2484,"Ġremained":2485,"nder":2486,"ĠDavid":2487,"Ġ2019":2488,"Ġadministr":2489,"Ġenc":2490,"Ġrul":2491,"Ġlanguage":2492,"Ġbase":2493,"Ġdam":2494,"30":2495,"Ġentire":2496,"tt":2497,"Ġclos":2498,"head":2499,"roy":2500,"Ġstyle":2501,"Ġsil":2502,"ij":2503,"Ġassist":2504,"igned":2505,"istic":2506,"Ġfar":2507,"Ġever":2508,"hers":2509,"ĠJack":2510,"ĠRed":2511,"14":2512,"Ġleast":2513,"Ġreached":2514,"Ġkeep":2515,"Ġperformed":2516,"ĠNe":2517,"arliam":2518,"han":2519,"airs":2520,"Ġbo":2521,"Ġcou":2522,"Ġcurrently":2523,"chie":2524,"ened":2525,"Ġcampaign":2526,"play":2527,"ĠAlthough":2528,"Ġwhite":2529,"Ġtre":2530,"Ġseem":2531,"Ġeither":2532,"Ġcirc":2533,"Ġ29":2534,"ĠMary":2535,"Ġhousehold":2536,"ĠCompany":2537,"rought":2538,"fic":2539,"Ġregular":2540,"bert":2541,"arliament":2542,"Ġmarket":2543,"Ġdiscover":2544,"Ġturned":2545,"ĠJos":2546,"ĠHen":2547,"cle":2548,"Ġfeatures":2549,"aur":2550,"Ġphys":2551,"ĠCourt":2552,"ential":2553,".,":2554,"Ġalmost":2555,"km":2556,"You":2557,"west":2558,"Ġimpro":2559,"Ġsugg":2560,"Ġsongs":2561,"ilies":2562,"Ġdesigned":2563,"ification":2564,"Ġsour":2565,"Ġfeel":2566,"read":2567,"ĠNot":2568,"Ġthroughout":2569,"Ġinformation":2570,"Ġcompleted":2571,"val":2572,"Ġflow":2573,"Ġmaterial":2574,"atural":2575,"ĠSam":2576,"oph":2577,"Ġmunicip":2578,"ĠFranc":2579,"Ġleague":2580,"ks":2581,"Ġhit":2582,"enced":2583,"Ġgirl":2584,"erous":2585,"Ġupon":2586,"ĠOff":2587,"ĠMo":2588,"ights":2589,"anch":2590,"ĠIf":2591,"Ġconstruction":2592,"ump":2593,"Ġche":2594,"ude":2595,"Ġlargest":2596,"Ã¶":2597,"Ġpress":2598,"Ġincludes":2599,"ĠSince":2600,"craft":2601,"ĠBer":2602,"pro":2603,"ĠPri":2604,"isl":2605,"Ġacqu":2606,"hod":2607,"13":2608,"Ġseven":2609,"ĠMex":2610,"arter":2611,"Ġwalk":2612,"ecutive":2613,"ederal":2614,"Ġadded":2615,"time":2616,"Ġdoc":2617,"ĠCentral":2618,"Ġ1970":2619,"ĠHist":2620,"ston":2621,"Ġabove":2622,"Ġdou":2623,"ĠChina":2624,"ique":2625,"acing":2626,"Ġeventually":2627,"Ġmount":2628,"ware":2629,"ĠStud":2630,"rey":2631,"sel":2632,"Ġleading":2633,"ospital":2634,"Ġanim":2635,"Ġoriginally":2636,"Ġlab":2637,"men":2638,"Ġsat":2639,"raz":2640,"Ġinvolved":2641,"iers":2642,"Ġsignificant":2643,"Ġtraining":2644,"Ġsoon":2645,"Ġlearn":2646,"Ġfeatured":2647,"asing":2648,"ademy":2649,"igr":2650,"Ġpur":2651,"Ġplayers":2652,"Ġpark":2653,"Ġassoci":2654,"Ġstudy":2655,"Ġforces":2656,"ilities":2657,"ĠIsland":2658,"ashington":2659,"rian":2660,"Ġaccess":2661,"CA":2662,"Ġkilled":2663,"ĠGod":2664,"ĠFirst":2665,"pect":2666,"azine":2667,"atter":2668,"Ġdecided":2669,"Ġ50":2670,"Ġbank":2671,"ready":2672,"ĠRail":2673,"Ġboard":2674,"ĠMart":2675,"eck":2676,"ĠUK":2677,"Ġphot":2678,"ĠMag":2679,"ya":2680,"ournament":2681,"Ġrelig":2682,"ĠAlex":2683,"iff":2684,"ĠDepartment":2685,"ĠBlack":2686,"Ġwid":2687,"Ġz":2688,"Ġconsist":2689,"medi":2690,"ores":2691,"Ġmiss":2692,"Ġqual":2693,"itz":2694,"ability":2695,"Ġ()":2696,"oul":2697,"aker":2698,"Ġsitu":2699,"Ġwoman":2700,"Ġchange":2701,"Ġfig":2702,"Ġschools":2703,"ĠSte":2704,"che":2705,"Ġrespons":2706,"ges":2707,"Ġradio":2708,"Ġquest":2709,"burg":2710,"ands":2711,"viron":2712,"Ġdirected":2713,"Ġgroups":2714,"Ġtest":2715,"ength":2716,"ply":2717,"ĠIts":2718,"Ġsomething":2719,"ergy":2720,"ĠCap":2721,"Ġbrought":2722,"Ġgoal":2723,"sy":2724,"Ġ1999":2725,"asons":2726,"Ġaccept":2727,"ĠClub":2728,"gin":2729,"ĠCenter":2730,"ĠMount":2731,"Ġusually":2732,"Ġepisode":2733,"11":2734,"Ġlove":2735,"ĠItal":2736,"ĠTown":2737,"itch":2738,"atory":2739,"Ġfav":2740,"ĠSl":2741,"ray":2742,"Ġnetwork":2743,"Ġprivate":2744,"ĠJew":2745,"Ġstri":2746,"ĠVir":2747,"inese":2748,"aching":2749,"Ġliter":2750,"tr":2751,"go":2752,"ĠGroup":2753,"ĠWashington":2754,"ression":2755,"ĠJe":2756,"osition":2757,"omm":2758,"ĠAngel":2759,"Ġinterest":2760,"Ġawarded":2761,"Ġbetter":2762,"ĠOther":2763,"ĠBay":2764,"berg":2765,"Ġter":2766,"Ġfr":2767,"Ġperformance":2768,"Ġstage":2769,"Ġconduct":2770,"Ġhealth":2771,"ĠProv":2772,"Ġprovided":2773,"oke":2774,"Ġsubsequ":2775,"Ġwanted":2776,"Ġdi":2777,"ĠMad":2778,"Ġreplaced":2779,"ĠCong":2780,"aries":2781,"ĠLaw":2782,"Ġalready":2783,"Ġsubject":2784,"Ġcourt":2785,"ĠThat":2786,"Ġmem":2787,"ĠCath":2788,"merc":2789,"incip":2790,"Ġcountries":2791,"Ġcapt":2792,"ĠDon":2793,"Ġtreat":2794,"ĠInstitute":2795,"ĠSim":2796,"iction":2797,"ĠChristian":2798,"Ġplaced":2799,"Ġoutside":2800,"Ġste":2801,"Ġrather":2802,"Ġplant":2803,"Ġstre":2804,"back":2805,"ids":2806,"Ġstated":2807,"Ġrange":2808,"Ġrespect":2809,"Ġlik":2810,"ĠWestern":2811,"Ġcand":2812,"Ġtold":2813,"Ġtou":2814,"Ġcop":2815,"Ġdecl":2816,"aring":2817,"Ġwall":2818,"Ġinj":2819,"Ġpay":2820,"Ġquick":2821,"Ġpolice":2822,"Ġlo":2823,"Ġaud":2824,"Ġap":2825,"iled":2826,"arian":2827,"Ġgun":2828,"ida":2829,"ĠThomas":2830,"hood":2831,"Ġill":2832,"Ġmodel":2833,"Ġstep":2834,"Ġmight":2835,"ĠTur":2836,"pec":2837,"Ġtransfer":2838,"sw":2839,"ĠMiss":2840,"Ġcollege":2841,"Ġtaking":2842,"Ġdeal":2843,"Ġstates":2844,"Ġparent":2845,"overnor":2846,"Ġvalue":2847,"Ġpossible":2848,"ĠRobert":2849,"Ġenough":2850,"Ġlooked":2851,"Ġcut":2852,"icy":2853,"unk":2854,"band":2855,"Ġachie":2856,"Ġ1998":2857,"ani":2858,"atives":2859,"Ġcentral":2860,"ĠSociety":2861,"board":2862,"ĠMr":2863,"Ġapprox":2864,"Ġgive":2865,"Ġ1960":2866,"Ġcivil":2867,"Ġarchitect":2868,"erc":2869,"ĠTV":2870,"Ġoccur":2871,"Ġarg":2872,"icated":2873,"uture":2874,"Ġcreat":2875,"ned":2876,"Ġpot":2877,"Ġinstead":2878,"Ġcat":2879,"Ġfif":2880,"Ġcompetition":2881,"Ġfelt":2882,"arily":2883,"ĠIr":2884,"Ġbooks":2885,"Ġnovel":2886,"ĠRussian":2887,"ĠCanadian":2888,"Ġconv":2889,"anced":2890,"ĠMark":2891,"Ġ185":2892,"ĠCharles":2893,"In":2894,"Ġloss":2895,"ĠâĢĶ":2896,"Ġshows":2897,"Ġconstit":2898,"Ġcenter":2899,"Ġsize":2900,"Ġbig":2901,"ĠTex":2902,"ĠMinister":2903,"Ġdegree":2904,"Ġdoor":2905,"ĠJapanese":2906,"ala":2907,"ĠServ":2908,"aled":2909,"Ġver":2910,"Ġfourth":2911,"Ġalways":2912,"ĠAfrican":2913,"face":2914,"Ġsem":2915,"ĠMusic":2916,"ĠChinese":2917,"rup":2918,"Ġtalk":2919,"Ġsex":2920,"Ġviol":2921,"Ġtowards":2922,"ĠGreat":2923,"ĠLat":2924,"ĠCommun":2925,"Ġtro":2926,"Ġcapital":2927,"Ġ184":2928,"eg":2929,"Ġbur":2930,"Ġspace":2931,"ĠScott":2932,"ĠAcademy":2933,"Ġobs":2934,"vironment":2935,"Ġcourse":2936,"Ġprovide":2937,"Ġreb":2938,"ĠCam":2939,"ĠGrand":2940,"ĠLouis":2941,"aught":2942,"ĠBo":2943,"ises":2944,"ctor":2945,"mm":2946,"ĠItalian":2947,"Ġwa":2948,"Ġbi":2949,"unt":2950,"Ġforce":2951,"atre":2952,"Ġchanged":2953,"Ġ1996":2954,"Ġesc":2955,"Ġreve":2956,"ĠVict":2957,"Ġbar":2958,"Ġbreak":2959,"bed":2960,"Ġhom":2961,"Ġgold":2962,"odes":2963,"Ġarm":2964,"Ġfamilies":2965,"idae":2966,"ĠSk":2967,"apt":2968,"Ġintroduced":2969,"ĠDemocr":2970,"imate":2971,"Ġriver":2972,"urity":2973,"ĠSal":2974,"Ġobject":2975,"ows":2976,"ĠMac":2977,"ĠÃ":2978,"Ġmoney":2979,"ena":2980,"Ġ40":2981,"annel":2982,"olf":2983,"ving":2984,"Ġ1997":2985,"Ġtype":2986,"pecially":2987,"ĠSing":2988,"erve":2989,"ĠWhite":2990,"Ġmeas":2991,"Ġfemale":2992,"ĠMet":2993,"elled":2994,"Ġmass":2995,"Ġdraw":2996,"Ġclosed":2997,"Ġfarm":2998,"Ġmix":2999,"Ġcritic":3000,"Ġwhose":3001,"Ġsen":3002,"Ġkey":3003,"Ġaircraft":3004,"Ġrelationship":3005,"Ġartic":3006,"ĠSpanish":3007,"iation":3008,"199":3009,"ĠJust":3010,"Ġmove":3011,"Ġ31":3012,"Ġpurch":3013,"Ġcompan":3014,"ys":3015,"Ġwood":3016,"Ġaccount":3017,"ume":3018,"Ġjud":3019,"Ġstay":3020,"mercial":3021,"Ġrights":3022,"ishop":3023,"Ġran":3024,"Ġparts":3025,"Ġscored":3026,"Ġcontribut":3027,"Ġattended":3028,"oo":3029,"Ġplann":3030,"ĠRad":3031,"Ġcertain":3032,"not":3033,"Ġitself":3034,"Ġmethod":3035,"Ġfood":3036,"ples":3037,"Ġboy":3038,"mon":3039,"irm":3040,"ĠAfrica":3041,"lier":3042,"oring":3043,"oved":3044,"aval":3045,"Ġneigh":3046,"rael":3047,"ĠMichael":3048,"ĠFrank":3049,"Ġinstit":3050,"Ġprob":3051,"hi":3052,"Ġoccup":3053,"like":3054,"uz":3055,"ĠGreen":3056,"Ġhands":3057,"Ġmom":3058,"ĠEar":3059,"ĠCons":3060,"Ġspent":3061,"Ġallowed":3062,"option":3063,"Ġbroadcast":3064,"ĠPenn":3065,"Ġball":3066,"uter":3067,"ĠGold":3068,"Ġpred":3069,"Ġder":3070,"unn":3071,"shire":3072,"Ġcy":3073,"Ġhor":3074,"ĠTom":3075,"Ġcandid":3076,"ĠDan":3077,"rd":3078,"Ġopt":3079,"gy":3080,"Ġcensus":3081,"ecess":3082,"ĠHam":3083,"ĠWil":3084,"istry":3085,"road":3086,"Ġprem":3087,"ĠMost":3088,"iqu":3089,"Ġnorthern":3090,"order":3091,"Ġneg":3092,"Ġaction":3093,"ĠLake":3094,"Ġbeginning":3095,"mar":3096,"\"),":3097,"Ġfrequ":3098,"ka":3099,"Ġstudio":3100,"reland":3101,"irth":3102,"Ġcommand":3103,"Ġregard":3104,"ĠTwo":3105,"Ġ1995":3106,"eph":3107,"ires":3108,"Ġstar":3109,"Ġgrand":3110,"Ġheart":3111,"Ġdone":3112,"osing":3113,"Ġconcern":3114,"ĠHenry":3115,"ounter":3116,"asc":3117,"Ġended":3118,"Ġsection":3119,"Äģ":3120,"Ġfilms":3121,"Ġmeans":3122,"Ġdata":3123,"Ġactive":3124,"Ġking":3125,"Ġsus":3126,"Ġapproximately":3127,"Ġtax":3128,"Ġvia":3129,"oviet":3130,"Ġespecially":3131,"Ġtravel":3132,"Ġlisted":3133,"Ġpers":3134,"Ġdeterm":3135,"Ġdeep":3136,"Ġsouthern":3137,"ria":3138,"Ġwriting":3139,"Ġ1994":3140,"Ġvoice":3141,"Ġ1992":3142,"Ġclear":3143,"ĠFollow":3144,"Ġlower":3145,"Ġbuildings":3146,"ician":3147,"Ġexcept":3148,"ography":3149,"ufact":3150,"mb":3151,"ĠPet":3152,"Ġmovement":3153,"ĠVirgin":3154,"Ġexc":3155,"Ġbelow":3156,"Ġisland":3157,"aine":3158,"Ġcal":3159,"ĠParis":3160,"lim":3161,"ĠFilm":3162,"Ġdark":3163,"Ġwinning":3164,"Ġmaintain":3165,"yr":3166,"Ġunits":3167,"Ġrunning":3168,"ona":3169,"Ġself":3170,"ĠPeter":3171,"\">":3172,"ĠVictor":3173,"Ġdivision":3174,"inner":3175,"Ġruns":3176,"oid":3177,"idents":3178,"Ġpreviously":3179,"cy":3180,"ites":3181,"ĠMont":3182,"Ġdefeated":3183,"</":3184,"Ġdestroy":3185,"Ġlength":3186,"ĠTor":3187,"Ġexhib":3188,"ĠKingdom":3189,"nown":3190,"Ġsummer":3191,"Ġanc":3192,"Ġcoast":3193,"edy":3194,"Ġchart":3195,"ĠFollowing":3196,"ĠCatholic":3197,"ibrary":3198,"Ġorganization":3199,"lam":3200,"Ġimm":3201,"Ġchampionship":3202,"Ġblock":3203,"oint":3204,"ĠHill":3205,"ĠMat":3206,"Ġindustry":3207,"omp":3208,"Ġwhom":3209,"Ġbattle":3210,"irt":3211,"het":3212,"Ġfuture":3213,"Ġseat":3214,"abit":3215,"embly":3216,"25":3217,"Ġsn":3218,"olk":3219,"ending":3220,"Ġmedia":3221,"alled":3222,"Ġnatural":3223,"ĠCamp":3224,"och":3225,"II":3226,"ĠTexas":3227,"arch":3228,"?\"":3229,"rel":3230,"ĠSmith":3231,"ĠIsrael":3232,"Ġinvestig":3233,"Ġowned":3234,"Ġfocus":3235,"Ġmur":3236,"clus":3237,"istan":3238,"ift":3239,"Ġsurround":3240,"ĠDirect":3241,"Ġsch":3242,"ĠCommission":3243,"Ġrepresented":3244,"uty":3245,"Ġsett":3246,"Ġsaf":3247,"Ġplays":3248,"oper":3249,"agon":3250,"Ġcred":3251,"inent":3252,"ux":3253,"ension":3254,"ĠMuseum":3255,"ector":3256,"Ġhigher":3257,"ficult":3258,"duction":3259,"Ġearlier":3260,"fit":3261,"Ġsometimes":3262,"Ġprincip":3263,"ĠFootball":3264,"Ġtournament":3265,"Ġrequired":3266,"ĠMel":3267,"Ġfunction":3268,"ips":3269,"ĠSecond":3270,"Ġaccording":3271,"Ġentered":3272,"Ġhot":3273,"Ġconstruct":3274,"Ġdocument":3275,"Ġsoft":3276,"Ġnomin":3277,"Ġarmy":3278,"based":3279,"ĠKore":3280,"Ġminutes":3281,"Ġpersonal":3282,"Ġhus":3283,"ĠApp":3284,"Ġlived":3285,"ĠArch":3286,"ada":3287,"rial":3288,"Ġprison":3289,"Ġsystems":3290,"Ġexam":3291,"ĠFin":3292,"retary":3293,"ĠDo":3294,"ĠSoviet":3295,"ĠRichard":3296,"Ġword":3297,"Ġjob":3298,"ylv":3299,"Ġeas":3300,"Ġdifficult":3301,"Ġpiec":3302,"Ġleave":3303,"Ġ1993":3304,"lebr":3305,"Ġwide":3306,"Ġkind":3307,"ĠBen":3308,"asket":3309,"Ġprimary":3310,"ĠMany":3311,"Ġ1991":3312,"Ġolder":3313,"ano":3314,"ini":3315,"Ġartist":3316,"Ġcommercial":3317,"Ġdro":3318,"Ġpassed":3319,"ortun":3320,"ĠDay":3321,"Ġleader":3322,"Ġnoted":3323,"Ġstructure":3324,"ĠSo":3325,"ground":3326,"Ġtransl":3327,"It":3328,"Ġjournal":3329,"Ġcomplex":3330,"ibility":3331,"Ġimmedi":3332,"Ġthings":3333,"porary":3334,"iences":3335,"asion":3336,"Ġteac":3337,"ĠSwed":3338,"Ġtraditional":3339,"urt":3340,"ĠChic":3341,"Ġbene":3342,"ios":3343,"ita":3344,"Ġproperty":3345,"ĠCommittee":3346,"ĠSant":3347,"Ġgenerally":3348,"Ġopening":3349,"SA":3350,"umn":3351,"lement":3352,"Ġ\"\"":3353,"Ġhighest":3354,"Ġlonger":3355,"rol":3356,"Ġhours":3357,"ĠCarol":3358,"Ġtoday":3359,"heast":3360,"ĠTrans":3361,"ĠIreland":3362,"ĠGovernment":3363,"Ġknew":3364,"ĠYear":3365,"ĠInter":3366,"Ġfinanc":3367,"Ġthus":3368,"Ġplat":3369,"orpor":3370,"ĠLos":3371,"Ġindependent":3372,"uke":3373,"Ġstudied":3374,"ĠRev":3375,"roll":3376,"Ġfinally":3377,"Ġabs":3378,"ĠBest":3379,"Ġ1950":3380,"Ġstandard":3381,"Ġintern":3382,"ĠCr":3383,"ĠRock":3384,"Ġmanufact":3385,"inct":3386,"ym":3387,"Ġwords":3388,"Ġroute":3389,"Ġmultip":3390,"ĠKh":3391,"ĠZeal":3392,"Ġshot":3393,"Ġdate":3394,"Ġmagazine":3395,"ĠRecords":3396,"ĠÂ":3397,"Ġ#":3398,"ify":3399,"ĠFore":3400,"lying":3401,"Ġoperations":3402,"Ġpick":3403,"Ġstudies":3404,"Ġlack":3405,"Ġpractice":3406,"orial":3407,"Ġstudent":3408,"Ġcounty":3409,"Ġinside":3410,"lant":3411,"Ġden":3412,"ĠRob":3413,"Ġcollection":3414,"Ġanaly":3415,"Ġrailway":3416,"ping":3417,"ĠZealand":3418,"erry":3419,"Ġhap":3420,"Ġsettle":3421,"ĠDel":3422,"ĠFlor":3423,"sych":3424,"Ġhusband":3425,"ĠCongress":3426,"ota":3427,"known":3428,"itar":3429,"40":3430,"ĠBoard":3431,"room":3432,"Ġstaff":3433,"Ġanti":3434,"Ġchair":3435,"Ġnumerous":3436,"ĠCont":3437,"la":3438,"Ġincome":3439,"Ġmind":3440,"Ġthreat":3441,"NA":3442,"ĠFestival":3443,"Ġlay":3444,"60":3445,"Ġdram":3446,"Ġcontains":3447,"Ġleaving":3448,"arriage":3449,"Ġbring":3450,"Ġraised":3451,"Ġforced":3452,"well":3453,"ended":3454,"Ġcompanies":3455,"adium":3456,"Ġappearance":3457,"Ġnewsp":3458,"enty":3459,"Ġdisp":3460,"ees":3461,"Ġemer":3462,"ault":3463,"Ġrelated":3464,"cher":3465,"\").":3466,"Ġapplic":3467,"Ġpurp":3468,"Ġlaunched":3469,"Ġlocation":3470,"erved":3471,"ĠGre":3472,"selves":3473,"ustom":3474,"ĠMa":3475,"Ġissues":3476,"gen":3477,"Ġreally":3478,"rief":3479,"ĠCast":3480,"ĠGreek":3481,"Ġcaused":3482,"izing":3483,"ĠBur":3484,"Ġbecoming":3485,"utch":3486,"Ġquickly":3487,"onn":3488,"Ġlink":3489,"Ġge":3490,"Ġtransport":3491,"ĠSir":3492,"Ġterrit":3493,"ado":3494,"Ġincreased":3495,"Ġslow":3496,"Ġcommission":3497,"Ġpercent":3498,"Ġ1989":3499,"Ġprior":3500,"Ġcomplete":3501,"mitted":3502,"mark":3503,"za":3504,"ĠBu":3505,"Ġthemselves":3506,"Ġyet":3507,"âĢ¦":3508,"Ġdecision":3509,"ĠPac":3510,"Ġparents":3511,"hester":3512,"ĠPlay":3513,"ĠNavy":3514,"ĠAngeles":3515,"Ġnews":3516,"isk":3517,"venue":3518,"ĠEv":3519,"Ġfamous":3520,"ĠEduc":3521,"Ġmission":3522,"ĠForce":3523,"ĠArts":3524,"use":3525,"Ġterms":3526,"Ġsea":3527,"Ġvoc":3528,"ĠHow":3529,"pped":3530,"ura":3531,"ether":3532,"oe":3533,"Ġfle":3534,"ĠBrown":3535,"Ġidea":3536,"ĠChicago":3537,"eds":3538,"Ġer":3539,"Ġvehic":3540,"Ġenvironment":3541,"ulated":3542,"Ġcelebr":3543,"Ġscient":3544,"Ġwestern":3545,"ĠLater":3546,"ĠLord":3547,"Ġnorm":3548,"Ġneeded":3549,"Ġdig":3550,"ĠItaly":3551,"Ġsister":3552,"Ġhappen":3553,"Ġinsp":3554,"Ġforest":3555,"Ġtrain":3556,"Ġdiscuss":3557,"Ġweeks":3558,"Ġsuper":3559,"Ġobtain":3560,"action":3561,"ams":3562,"ĠMil":3563,"uments":3564,"itiz":3565,"ĠMexico":3566,"Ġattend":3567,"Ġ1988":3568,"ribution":3569,"Ġmeeting":3570,"Ġsenior":3571,"ĠScot":3572,"orning":3573,"Ġmajority":3574,"Ġvictory":3575,"Ġcharacters":3576,"Ġens":3577,"ola":3578,"80":3579,"Ġscore":3580,"ĠFound":3581,"Ġblood":3582,"ĠTheir":3583,"ĠCarl":3584,"Ġhelped":3585,"Ġselected":3586,"ĠLit":3587,"ylvania":3588,"inary":3589,"een":3590,"den":3591,"igan":3592,"Ã¢":3593,"ĠBet":3594,"Ġwhole":3595,"Ġgoals":3596,"ĠSaint":3597,"Ġassociated":3598,"Ġannual":3599,"ĠGo":3600,"Ġtakes":3601,"Ġunit":3602,"Ġadditional":3603,"Ġcreate":3604,"ĠHistor":3605,"Ġminor":3606,"ĠParliament":3607,"reme":3608,"Ġconsider":3609,"Ġbox":3610,"lor":3611,"illed":3612,"TV":3613,"ails":3614,"Ġschol":3615,"Ã¤":3616,"Ġmusical":3617,"Ġmostly":3618,"bers":3619,"Ġfeature":3620,"Ġpen":3621,"anks":3622,"Ġgrant":3623,"Ġmatches":3624,"Ġoffered":3625,"bl":3626,"Ġconcept":3627,"ĠArab":3628,"Ġdead":3629,"Ġet":3630,"Ġcentre":3631,"Ġequip":3632,"ĠOl":3633,"Ġmiddle":3634,"Ġamount":3635,"ils":3636,"Ġmanager":3637,"Ġenergy":3638,"standing":3639,"ĠGeorg":3640,"sis":3641,"Ġmention":3642,"Ġinterview":3643,"Ġfloor":3644,"Ġsinger":3645,"Ġremains":3646,"Ġfriends":3647,"Ġreason":3648,"ograph":3649,"inet":3650,"Ġretired":3651,"Ġartists":3652,"ĠSuper":3653,"Ġwriter":3654,"right":3655,"oses":3656,"Ġ183":3657,"Ġactivities":3658,"asketball":3659,"Ġprograms":3660,"Ġtrade":3661,"oma":3662,"Ġtried":3663,"lit":3664,"Ġevidence":3665,"echan":3666,"writ":3667,"Ġchanges":3668,"Ġlimited":3669,"Ġpul":3670,"ĠIm":3671,"Ġcanc":3672,"ĠRo":3673,"uge":3674,"Ġtable":3675,"Ġparticularly":3676,"vert":3677,"Ġlines":3678,"Ġtrib":3679,"Ġnames":3680,"Ġbelieved":3681,"Ar":3682,"ĠMass":3683,"anda":3684,"Ġlegal":3685,"ĠOld":3686,"Ġremain":3687,"ĠEmp":3688,"ĠVirginia":3689,"Ġshown":3690,"ication":3691,"ider":3692,"teen":3693,"Ġsum":3694,"ĠSqu":3695,"Ġsaying":3696,"Ġdom":3697,"Ġtext":3698,"oral":3699,"What":3700,"ingu":3701,"Ġmunicipality":3702,"cript":3703,"Ġattract":3704,"Ġbirth":3705,"Ġwasn":3706,"isions":3707,"Ġcarried":3708,"ricult":3709,"Ġgenus":3710,"FL":3711,"Ġlarger":3712,"Ġissue":3713,"house":3714,"Ġinn":3715,"Ġprevent":3716,"ero":3717,"Ġ1987":3718,"Ġvisit":3719,"Ġsupported":3720,"Ġant":3721,"Ġeconomic":3722,"Ġreligious":3723,"Ġinitially":3724,"Ġoperated":3725,"Ġscience":3726,"Ġquestion":3727,"ĠLiber":3728,"ĠOlympics":3729,"Ġnearly":3730,"Ġmakes":3731,"ĠAnn":3732,"Ġrap":3733,"change":3734,"Ġheavy":3735,"Ġsquad":3736,"Ġscreen":3737,"ems":3738,"Ġnine":3739,"wide":3740,"ĠMill":3741,"irit":3742,"Ġfailed":3743,"onse":3744,"Ġclaimed":3745,"Ġbound":3746,"ares":3747,"Ġbelong":3748,"sylvania":3749,"Ġofficer":3750,"Ġchief":3751,"undred":3752,"add":3753,"Ġ1986":3754,"Ġwat":3755,"down":3756,"21":3757,"Ġquarter":3758,"oud":3759,"Ġcompeted":3760,"ĠBraz":3761,"Ġserving":3762,"ronic":3763,"Ġmach":3764,"ĠUp":3765,"Ġded":3766,"Ġfeet":3767,"ĠSummer":3768,"Ġcorn":3769,"ĠEr":3770,"enth":3771,"iÄ":3772,"ĠWomen":3773,"ĠNorthern":3774,"We":3775,"Ġresults":3776,"Ġchall":3777,"ĠProvince":3778,"ĠLeg":3779,"ĠWales":3780,"Ġestablish":3781,"Ġexperience":3782,"Ġforward":3783,"ĠIrish":3784,"Ġmedical":3785,"ĠPennsylvania":3786,"Ġedition":3787,"aven":3788,"Ġang":3789,"ĠFlorida":3790,"Ġ1984":3791,"Ġcollabor":3792,"Ġbrief":3793,"ailed":3794,"Ġmanagement":3795,"ĠBill":3796,"Ġincrease":3797,"ĠChe":3798,"iring":3799,"Ġadop":3800,"Ġrate":3801,"Ġreferred":3802,"ĠValley":3803,"Ġpoet":3804,"fect":3805,"Ġuniversity":3806,"Ġsurface":3807,"Ġprobably":3808,"ried":3809,"ĠStr":3810,"ĠDespite":3811,"ĠAtlant":3812,"Ġconnect":3813,"Ġtell":3814,"aches":3815,"24":3816,"Ġarrived":3817,"ĠCD":3818,"Ġcoming":3819,"ously":3820,"23":3821,"ampion":3822,"ĠWood":3823,"Ġsays":3824,"Ġtow":3825,"Ġpresented":3826,"ports":3827,"ĠKn":3828,"Ġsubsequently":3829,"Ġmer":3830,"Ġinstr":3831,"Ġarrest":3832,"Ġculture":3833,"Ġple":3834,"ĠFort":3835,"ulf":3836,"ste":3837,"atively":3838,"Ġfort":3839,"Ġpoor":3840,"Ġearned":3841,"Ġ1985":3842,"Ġcases":3843,"va":3844,"ients":3845,"ĠProfess":3846,"Ġsports":3847,"ĠRussia":3848,"Ġguitar":3849,"Ġbad":3850,"ta":3851,"Americ":3852,"azz":3853,"ĠIran":3854,"ĠChief":3855,"Ġmanaged":3856,"ĠPre":3857,"Ġstarting":3858,"ervation":3859,"ĠBattle":3860,"erem":3861,"Ġaltern":3862,"unior":3863,"ĠOper":3864,"ockey":3865,"Ġremaining":3866,"Ġmoment":3867,"ĠBrazil":3868,"iance":3869,"inals":3870,"ĠMur":3871,"ĠOver":3872,"Ġfoot":3873,"ĠJoseph":3874,"Ġuses":3875,"Ġarms":3876,"Ġvariety":3877,"Ġop":3878,"Ġtroops":3879,"ĠSur":3880,"Ġsusp":3881,"ken":3882,"Ġeditor":3883,"Ġcomposed":3884,"Ġspecific":3885,"Ġtarg":3886,"ien":3887,"Ġforms":3888,"ĠOh":3889,"ican":3890,"ĠHot":3891,"Ġdemon":3892,"Ġindividuals":3893,"iy":3894,"odd":3895,"ĠEducation":3896,"ĠJim":3897,"ĠCat":3898,"Ġlif":3899,"Ġstatus":3900,"Ġpolicy":3901,"FA":3902,"ĠTechn":3903,"Ġindic":3904,"Ġfederal":3905,"ĠChap":3906,"Ġmovie":3907,"Ġforeign":3908,"bur":3909,"ĠUnder":3910,"Ġcarry":3911,"ols":3912,"Ġfinancial":3913,"abb":3914,"Ġmeaning":3915,"ĠDen":3916,"irection":3917,"ella":3918,"Ġcovered":3919,"Ġnation":3920,"Ġprovides":3921,"Ġbed":3922,"ĠColumb":3923,"Ġinte":3924,"Ġcustom":3925,"Ġtouch":3926,"Ġconsists":3927,"Ġphil":3928,"itation":3929,"ĠChampionships":3930,"ledge":3931,"Ġadj":3932,"arters":3933,"Ġcell":3934,"ĠBoth":3935,"Ġseparate":3936,"Ġeastern":3937,"ette":3938,"Ġhospital":3939,"Ġsle":3940,"Ġproblems":3941,"Al":3942,"Ġattention":3943,"70":3944,"An":3945,"ging":3946,"Ġappears":3947,"Ġnecess":3948,"ears":3949,"isation":3950,"ĠSar":3951,"ĠSouthern":3952,"bon":3953,"Ġsure":3954,"Ġlives":3955,"ao":3956,"Ġcrew":3957,"Ġmale":3958,"Ġplatform":3959,"inter":3960,"Ġmedal":3961,"part":3962,"utions":3963,"Ġrecent":3964,"iant":3965,"ĠMore":3966,"ĠPacific":3967,"Ġanything":3968,"imum":3969,"Ġlabel":3970,"ĠPublic":3971,"itude":3972,"light":3973,"ĠGames":3974,"22":3975,"Ġlog":3976,"Ġseasons":3977,"ua":3978,"ties":3979,"uing":3980,"ĠRos":3981,"Ġrequire":3982,"Ġresponse":3983,"Ġhouses":3984,"Ġ1983":3985,"Ġheard":3986,"Ġsomeone":3987,"Ġtheory":3988,"Ġmarriage":3989,"Ġoverall":3990,"Ġsource":3991,"ĠMartin":3992,"Ġsociety":3993,"BA":3994,"Ġcompos":3995,"ĠBus":3996,"Ġtemper":3997,"Ġalone":3998,"Ġbridge":3999,"ĠSpain":4000,"ĠService":4001,"Ġcolon":4002,"Ġsequ":4003,"Ġmainly":4004,"ĠHaw":4005,"ĠBank":4006,"illa":4007,"Ġregional":4008,"Ġstations":4009,"isco":4010,"ote":4011,"Ġlatter":4012,"aging":4013,"Ġarrang":4014,"Ġpaper":4015,"Ġcouncil":4016,"ĠClass":4017,"Ġpil":4018,"Ġ1982":4019,"aily":4020,"Ġtrying":4021,"Ġshoot":4022,"put":4023,"Ġnearby":4024,"cer":4025,"Ġdepart":4026,"mond":4027,"Ġcause":4028,"Ġlot":4029,"Ġlegisl":4030,"rast":4031,"ĠSun":4032,"Ġrecording":4033,"Ġlic":4034,"Ġkept":4035,"Ġdespite":4036,"Ġacquired":4037,"Ġ65":4038,"Ġwhether":4039,"Ġestim":4040,"urban":4041,"ĠMic":4042,"Ġwhy":4043,"Ġcharg":4044,"ĠThen":4045,"Ġfirm":4046,"Ġsquare":4047,"Ġsucceed":4048,"Ġplans":4049,"obal":4050,"Ġdirectly":4051,"bury":4052,"ustr":4053,"Ġbomb":4054,"etic":4055,"ky":4056,"ĠSil":4057,"ĠQueen":4058,"ĠAnother":4059,"Ġtracks":4060,"ĠWork":4061,"Ġnothing":4062,"ĠJewish":4063,"ucle":4064,"ession":4065,"arden":4066,"gl":4067,"Ġchap":4068,"Ġ1930":4069,"ĠLuc":4070,"ato":4071,"Ġmoving":4072,"Ġresponsible":4073,"Ġproposed":4074,"Ġ1940":4075,"umed":4076,"Ġgraduated":4077,"ining":4078,"Ġinfluence":4079,"ca":4080,"Ġhop":4081,"ĠAssembly":4082,"Ġlooking":4083,"Ġspread":4084,"Ġtechnology":4085,"Ġpath":4086,"ĠOut":4087,"Ġdiss":4088,"Ġlikely":4089,"ario":4090,"Ġ60":4091,"imb":4092,"Ġpartn":4093,"ĠBoy":4094,"more":4095,"Ġdepartment":4096,"Ġnative":4097,"Ġships":4098,"ĠLand":4099,"Ġprotect":4100,"Ġwor":4101,"ĠBritain":4102,"iger":4103,"Ġ1972":4104,"Ġ1979":4105,"ĠAwards":4106,"ipl":4107,"ĠFred":4108,"Ġdiscovered":4109,"Ġhair":4110,"Ġnature":4111,"ban":4112,"uries":4113,"iana":4114,"uman":4115,"Ġmultiple":4116,"ĠMcC":4117,"Ġserve":4118,"Ġgrew":4119,"Ġwebs":4120,"Ġcitiz":4121,"Ġactually":4122,"ĠBook":4123,"Ġdoing":4124,"Ġansw":4125,"vention":4126,"ables":4127,"Ġimmediately":4128,"ĠDirector":4129,"Ġfell":4130,"itt":4131,"Ġ1945":4132,"stant":4133,"ensity":4134,"ĠPoland":4135,"ĠTimes":4136,"Ġ=":4137,"mission":4138,"ĠPak":4139,"198":4140,"bre":4141,"ĠMod":4142,"ully":4143,"ĠSub":4144,"Ġcomment":4145,"Ġoperation":4146,"ĠTw":4147,"imin":4148,"lection":4149,"ĠScience":4150,"Ġproblem":4151,"Ġdu":4152,"Ġhall":4153,"Ġvote":4154,"Ġpeak":4155,"Ġweap":4156,"Ġi":4157,"kr":4158,"ĠSpr":4159,"Ġshare":4160,"Ġincreasing":4161,"Ġcateg":4162,"Ġacadem":4163,"Ġspeed":4164,"ĠSa":4165,"ĠRailway":4166,"Ġhundred":4167,"Ġherself":4168,"Ġconditions":4169,"Ġpromoted":4170,"Ġemb":4171,"ĠJud":4172,"ĠEmpire":4173,"ĠAre":4174,"27":4175,"Ġpow":4176,"ĠPan":4177,"andon":4178,"Ġcontinue":4179,"Ġorganiz":4180,"Ġfellow":4181,"ĠIll":4182,"Ġcities":4183,"Ġgas":4184,"cend":4185,"Ġeth":4186,"Ġ1976":4187,"ĠGovernor":4188,"Ġconstructed":4189,"itan":4190,");":4191,"Ġhistorical":4192,"Ġ1974":4193,"26":4194,"Ġdirection":4195,"ĠOf":4196,"ati":4197,"Ġtoward":4198,"Ġcomes":4199,"Ġpasseng":4200,"Ġextended":4201,"Ġ1981":4202,"Ġsens":4203,"ĠBig":4204,"aped":4205,"Ġgiving":4206,"ĠInc":4207,"Ã¨":4208,"ĠDemocratic":4209,"Ã³n":4210,"Ġmess":4211,"emporary":4212,"ali":4213,"Sh":4214,"Ġlies":4215,"Ġmechan":4216,"Ġpsych":4217,"Ġproducts":4218,"Ġsched":4219,"vement":4220,"ersey":4221,"Ġrecords":4222,"itted":4223,"Ġ1968":4224,"Ġthing":4225,"ental":4226,"Ġmaster":4227,"Ġlevels":4228,"joy":4229,"ĠFre":4230,"ĠHel":4231,"Ġmorning":4232,"ĠDutch":4233,"28":4234,"isted":4235,"Ġdomin":4236,"oir":4237,"peror":4238,"col":4239,"Ġspeak":4240,"Ġdisplay":4241,"Ġfifth":4242,"ĠMos":4243,"Ġstreet":4244,"ĠSpec":4245,"Ġdrug":4246,"Ġhonor":4247,"ss":4248,"Ġoil":4249,"ĠRadio":4250,"Ġstood":4251,"Ġthr":4252,"Ġalleg":4253,"Ġnumbers":4254,"ĠResearch":4255,"Ġess":4256,"Ġcapac":4257,"Ġ1978":4258,"Ġunivers":4259,"ĠJul":4260,"Ġhouseholds":4261,"Ġfemales":4262,"ĠMer":4263,"Ġ1920":4264,"Ġproducer":4265,"ĠÂ£":4266,"ador":4267,"Ġdouble":4268,"aded":4269,"Ġ1975":4270,"lo":4271,"raf":4272,"ĠArg":4273,"inger":4274,"Ġinh":4275,"Ġissued":4276,"Ġincorpor":4277,"unction":4278,"Ġtrue":4279,"ĠStep":4280,"ĠGar":4281,"Ġelements":4282,"ĠDef":4283,"ĠHa":4284,"chest":4285,"ĠVol":4286,"No":4287,"Ġreach":4288,"ĠProg":4289,"ĠCur":4290,"29":4291,"This":4292,"Ġscene":4293,"Ġsal":4294,"Ġgreen":4295,"ĠEarth":4296,"ĠEastern":4297,"ĠConference":4298,"ĠAlso":4299,"ĠTour":4300,"Ġcouple":4301,"ĠLatin":4302,"Ġdise":4303,"Ġprimarily":4304,"RA":4305,"Ġopportun":4306,"Ġmerg":4307,"ĠBow":4308,"ny":4309,"arrow":4310,"iced":4311,"Ġsoldiers":4312,"Ġcultural":4313,"rid":4314,"Ġcontact":4315,"Ġborder":4316,"Ġaim":4317,"Ġyouth":4318,"Ġtransferred":4319,"ĠEdward":4320,"ĠLee":4321,"antry":4322,"Ġsupp":4323,"Ġneighbor":4324,"Åį":4325,"Ġordered":4326,"Ġstories":4327,"ĠCarolina":4328,"ĠBre":4329,"oston":4330,"gian":4331,"ĠMiddle":4332,"Ġresidents":4333,"Ġwatch":4334,"Ġgre":4335,"ĠCle":4336,"ĠBob":4337,"Ġappearances":4338,"Ġ180":4339,"ĠCharl":4340,"gypt":4341,"ecause":4342,"ias":4343,"resp":4344,"Ġancient":4345,"Ġcounter":4346,"ĠPeople":4347,"Ġ1973":4348,"wan":4349,"Ġnewspaper":4350,"Ġfast":4351,"ĠMah":4352,"Ġmedian":4353,"enant":4354,"Ġelections":4355,"Ġcolor":4356,"Ġrevealed":4357,"Ġdemonstr":4358,"ĠLine":4359,"ounds":4360,"Ġplaces":4361,"ening":4362,"Ġpack":4363,"Ġ1977":4364,"bridge":4365,"ki":4366,"ightly":4367,"Ġstreng":4368,"iÄĩ":4369,"Ġremoved":4370,"Ġhighly":4371,"ender":4372,"poration":4373,"Ġstars":4374,"Ġsecurity":4375,"Ġagreed":4376,"Ġult":4377,"He":4378,"ĠSol":4379,"Ġamb":4380,"Ġ45":4381,"hol":4382,"Ġpra":4383,"ĠWhat":4384,"Ġprofessor":4385,"ĠTer":4386,"ushed":4387,"ĠDou":4388,"Ġsmaller":4389,"ĠSat":4390,"Ġautom":4391,"ĠAv":4392,"Le":4393,"Ġpan":4394,"fully":4395,"wa":4396,"Ġpolitician":4397,"Ġletter":4398,"Ġinitial":4399,"nam":4400,"CC":4401,"Ġappl":4402,"Ġbelieve":4403,"Ġ1971":4404,"Ġproduce":4405,"Ġblue":4406,"ĠIII":4407,"ĠScotland":4408,"Ġchem":4409,"ĠSund":4410,"Ġserious":4411,"agn":4412,"ety":4413,"ĠSocial":4414,"ĠCro":4415,"Ġintended":4416,"Ġconver":4417,"ĠIslam":4418,"Ġstone":4419,"ĠLong":4420,"ora":4421,"ĠBas":4422,"Ġpurs":4423,"icient":4424,"har":4425,"Ġ1969":4426,"Ġparticipated":4427,"ĠPrince":4428,"Ġmuseum":4429,"Ġcomputer":4430,"ga":4431,"ĠTri":4432,"war":4433,"Ġrepe":4434,"ĠCreek":4435,"raight":4436,"yan":4437,"Ġprovince":4438,"ellig":4439,"Ġbit":4440,"American":4441,"Ġenem":4442,"!âĢĿ":4443,"Ġonto":4444,"Ġfavor":4445,"Ġplanned":4446,"Ġ35":4447,"Ġcomplet":4448,"Ġdistance":4449,"Ġdoub":4450,"ĠPortug":4451,"Ġraces":4452,"ĠYoung":4453,"astic":4454,"ĠEll":4455,"enes":4456,"ĠTheatre":4457,"ressive":4458,"ĠEgypt":4459,"ulations":4460,"ĠWal":4461,"rugg":4462,"Ġnotable":4463,"Ġfollows":4464,"Ġofficially":4465,"Ġactor":4466,"AS":4467,"Ġstore":4468,"yard":4469,"Ġofficers":4470,"ĠMu":4471,"abeth":4472,"Ġrule":4473,"Ġheadqu":4474,"iated":4475,"istics":4476,"Ġbeaut":4477,"mir":4478,"Ġ1967":4479,"onic":4480,"bour":4481,"amily":4482,"Ġadministrative":4483,"Ġprojects":4484,"Ġbasis":4485,"Ġmiles":4486,"no":4487,"Ġdivided":4488,"ĠCivil":4489,"Ġenjoy":4490,"ĠDev":4491,"gar":4492,"Ġparish":4493,"ĠConn":4494,"Ġprominent":4495,"ugby":4496,"cel":4497,"ansion":4498,"ye":4499,"ĠJones":4500,"Ġability":4501,"Ġuns":4502,"isher":4503,"osop":4504,"Ġmeant":4505,"ĠFoundation":4506,"Ġfigure":4507,"ĠGall":4508,"uan":4509,"isters":4510,"Ġpict":4511,"Ġmetal":4512,"Ġpremi":4513,"ĠEach":4514,"ĠMajor":4515,"Ġgrowth":4516,"Ġbird":4517,"Ġmatter":4518,"Ġtraff":4519,"ications":4520,"ĠJac":4521,"90":4522,"entr":4523,"Ġstrateg":4524,"ĠWilliams":4525,"Ġroll":4526,"Ġphysical":4527,"Ġut":4528,"ĠCoast":4529,"Ġbeat":4530,"ĠBoston":4531,"Ġpal":4532,"ansas":4533,"Ġcandidate":4534,"ĠBefore":4535,"itled":4536,"Ġpotential":4537,"Ġhapp":4538,"Ġrecover":4539,"class":4540,"BS":4541,"Ġcouldn":4542,"ĠBroad":4543,"orship":4544,"197":4545,"Ġbasketball":4546,"aph":4547,"ĠElect":4548,"iano":4549,"Ġexpected":4550,"Ġtwenty":4551,"Ġtry":4552,"Ġrecently":4553,"ancy":4554,"ieut":4555,"aved":4556,"Ġrenamed":4557,"Ġdestroyed":4558,"ĠOrder":4559,"Ġcampus":4560,"burgh":4561,"ĠFrancisco":4562,"Ġcard":4563,"oz":4564,"Ġrare":4565,"Ġprep":4566,"Ġpositive":4567,"awa":4568,"ĠDi":4569,"velopment":4570,"ĠSecretary":4571,"Ġath":4572,"Ġchannel":4573,"ĠSeries":4574,"Ġmouth":4575,"ĠGal":4576,"ĠInf":4577,"ĠBul":4578,"Ġconducted":4579,"Ġseek":4580,"Ġalongside":4581,"ĠKent":4582,"iro":4583,"apers":4584,"kin":4585,"ĠRam":4586,"Ġlaws":4587,"ĠMuslim":4588,"Ġsearch":4589,"ĠUkr":4590,"Ġ1964":4591,"ĠLab":4592,"Ġpurchased":4593,"Ġcaptain":4594,"ifying":4595,"Ġupper":4596,"ĠTy":4597,".)":4598,"ounded":4599,"cean":4600,"adel":4601,"ĠMem":4602,"ributed":4603,"Ġwebsite":4604,"ibly":4605,"Ġcompletely":4606,"dney":4607,"Ġpeace":4608,"Ġmountain":4609,"ĠHung":4610,"rance":4611,"Ġeffects":4612,"Ġefforts":4613,"ocated":4614,"ĠTeam":4615,"Ġcharge":4616,"Ġdefeat":4617,"ĠKe":4618,"ĠAdd":4619,"ources":4620,"35":4621,"Ġprec":4622,"Ġ/":4623,"izes":4624,"Ġgetting":4625,"Ġthous":4626,"aya":4627,"rad":4628,"Ġleaves":4629,"rie":4630,"ĠPrem":4631,"ĠBBC":4632,"Ġsimply":4633,"Ġdedicated":4634,"ĠPhilipp":4635,"ĠStation":4636,"ĠCentre":4637,"ĠMot":4638,"Ġspot":4639,"ĠFour":4640,"Ġdance":4641,"'m":4642,"Ġpresence":4643,"obile":4644,"ĠBC":4645,"sen":4646,"ĠNews":4647,"ĠJohnson":4648,"ĠMichigan":4649,"ĠRepublican":4650,"Ġstrugg":4651,"Ġcommonly":4652,"Ġcapacity":4653,"irmed":4654,"Ġbehav":4655,"Ġapproach":4656,"Ġimplement":4657,"Ġaccepted":4658,"Ġwear":4659,"Ġtypes":4660,"Ġhistoric":4661,"ĠHon":4662,"Ġsolo":4663,"rect":4664,"ĠLy":4665,"Ġactivity":4666,"Ġreflect":4667,"ĠAsian":4668,"Ġreform":4669,"Ġprin":4670,"Ġtend":4671,"Ġcannot":4672,"Ġtarget":4673,"ĠSenate":4674,"AA":4675,"cles":4676,"ĠStan":4677,"ĠAsia":4678,"ĠMax":4679,"ĠWind":4680,"Ġwithd":4681,"ĠMen":4682,"ĠOhio":4683,"stone":4684,"ĠSand":4685,"Ġenter":4686,"Ġoffers":4687,"Ġworkers":4688,"ĠSea":4689,"istered":4690,"aith":4691,"Ġimpact":4692,"Ġ1965":4693,"agement":4694,"ĠEliz":4695,"Ġsense":4696,"phy":4697,"Ġsend":4698,"Ġice":4699,"rich":4700,"Ġ1944":4701,"Ġtreatment":4702,"illy":4703,"45":4704,"ĠOpen":4705,"ading":4706,"Ġbow":4707,"resh":4708,"Ġarticle":4709,"Ġstraight":4710,"ela":4711,"Ġassigned":4712,"Ã§":4713,"hens":4714,"Ġshowed":4715,"Ġ1966":4716,"Ġgained":4717,"book":4718,"Ġpun":4719,"Ġsettlement":4720,"Ġrac":4721,"Ġhousing":4722,"Ġquality":4723,"ĠAvenue":4724,"Ġelev":4725,"Ġadult":4726,"set":4727,"ager":4728,"Ġprote":4729,"Ġir":4730,"Ġwidely":4731,"aka":4732,"ube":4733,"edom":4734,"anger":4735,"achel":4736,"ieutenant":4737,"Ġbranch":4738,"ĠAz":4739,"error":4740,"Ġknowledge":4741,"alog":4742,"ĠScottish":4743,"Ġfacilities":4744,"Ġmurder":4745,"Ġrat":4746,"Ġtherefore":4747,"alle":4748,"ĠTim":4749,"Ġsecret":4750,"Ġadopted":4751,"ĠHealth":4752,"dro":4753,"umber":4754,"ira":4755,"iser":4756,"ĠEngine":4757,"ĠColumbia":4758,"Ġwild":4759,"ĠPolish":4760,"oration":4761,"ĠCross":4762,"ĠBorn":4763,"encies":4764,"Ġdeclared":4765,"Ġcaptured":4766,"can":4767,"antly":4768,"orough":4769,"ĠSydney":4770,"Ġagricult":4771,"ption":4772,"ĠHy":4773,"ĠJackson":4774,"Ġserves":4775,"ja":4776,"ĠSystem":4777,"Ġfeaturing":4778,"Ġrecognized":4779,"ĠStar":4780,"ĠOx":4781,"Ġcoin":4782,"duce":4783,"Ġconcentr":4784,"Ġfix":4785,"ĠOffice":4786,"Ġonline":4787,"arp":4788,"Ġorganized":4789,"inem":4790,"Ġsilver":4791,"iling":4792,"Ġencour":4793,"Ġmentioned":4794,"Ġsymb":4795,"Ġestate":4796,"enge":4797,"ila":4798,"Ġwinner":4799,"bo":4800,"Ġmic":4801,"ishes":4802,"Ġoccurred":4803,"Ġpressure":4804,"osen":4805,"ĠPost":4806,"ÅĤ":4807,"ĠHu":4808,"Ġadministration":4809,"Ġsuffered":4810,"Ġlargely":4811,"gend":4812,"ĠTop":4813,"ĠCorps":4814,"greg":4815,"ĠVan":4816,"Ġequipment":4817,"ĠThree":4818,"ĠRay":4819,"Ġformat":4820,"pan":4821,"Ġelectric":4822,"Ġperman":4823,"Ġdistinct":4824,"ez":4825,"Ġrural":4826,"Ġ80":4827,"Ġhol":4828,"Ġrout":4829,"Ġpaid":4830,"ĠMid":4831,"Ġnucle":4832,"ighter":4833,"Ġpit":4834,"ĠNow":4835,"Ġrespectively":4836,"gu":4837,"ĠTem":4838,"Ġassistant":4839,"ĠSever":4840,"Ġcontroll":4841,"Ġsplit":4842,"fort":4843,"Ġleaders":4844,"ĠAsh":4845,"Ġcars":4846,"Ġcontent":4847,"Ġsurpr":4848,"respond":4849,"Ġagreement":4850,"ĠWall":4851,"Ġtaught":4852,"Ġabandon":4853,"mas":4854,"Ġsituation":4855,"Ġroles":4856,"Ġdropped":4857,"ricket":4858,"ĠGeorgia":4859,"itness":4860,"stein":4861,"itage":4862,"ĠKenn":4863,"ĠDis":4864,"Ġtypically":4865,"ras":4866,"Ġgrowing":4867,"ĠHarr":4868,"Ġoperating":4869,"Ġestimated":4870,"Ġcerem":4871,"Ġflight":4872,"ho":4873,"claim":4874,"Ġexecutive":4875,"Ġpet":4876,"Ġcompared":4877,"Ġeffort":4878,"Ġacademic":4879,"iga":4880,"Ġvari":4881,"Ġmill":4882,"win":4883,"Ġeverything":4884,"ĠShow":4885,"with":4886,"Ġspirit":4887,"Ġshop":4888,"Ġcombined":4889,"ima":4890,"Ġmax":4891,"haps":4892,"Ġdyn":4893,"ĠHead":4894,"ĠTam":4895,"Ġrules":4896,"ordin":4897,"aby":4898,"Ġpurpose":4899,"ederation":4900,"Ġintegr":4901,"Ġtells":4902,"ĠProt":4903,"ava":4904,"ko":4905,"ĠLu":4906,"ĠTre":4907,"Ġaccomp":4908,"iate":4909,"Ġclubs":4910,"Ġtwice":4911,"Ġacting":4912,"Ġcontinues":4913,"ĠBecause":4914,"onents":4915,"Ġsevent":4916,"Ġcam":4917,"arring":4918,"New":4919,"Ġowner":4920,"Ġglass":4921,"ĠEst":4922,"ects":4923,"Ġwr":4924,"ented":4925,"Ġterritory":4926,"ĠJes":4927,"Ġlanguages":4928,"Ġbecomes":4929,"ulpt":4930,"Ġsuit":4931,"etts":4932,"Ġburn":4933,"ĠBern":4934,"Ġsu":4935,"ĠBal":4936,"odies":4937,"ropical":4938,"rics":4939,"Ġpulled":4940,"ennis":4941,"ba":4942,"ĠProfessor":4943,"Ġsemi":4944,"Ġsources":4945,"rawn":4946,"Ġ(,":4947,"Ġcitizens":4948,"ĠViet":4949,"ĠÅ":4950,"usion":4951,"ĠFe":4952,"IS":4953,"rical":4954,"icted":4955,"pass":4956,"ourne":4957,"Ġtree":4958,"oted":4959,"Ġresulted":4960,"ione":4961,"Ġsuggested":4962,"Ġcommunities":4963,"Ġdrama":4964,"Ġinterp":4965,"Ġsales":4966,"ĠJersey":4967,"orter":4968,"Ġreviews":4969,"Ġscholars":4970,"hu":4971,"Ġmut":4972,"Ġmixed":4973,"miss":4974,"ĠAlexander":4975,"Ġtitled":4976,"Ġburied":4977,"ĠHospital":4978,"Ġalbums":4979,"ĠRome":4980,"Ġdamage":4981,"AC":4982,"olved":4983,"Ġheav":4984,"Ġquite":4985,"75":4986,"Ġbal":4987,"Ġgives":4988,"ses":4989,"Don":4990,"Ġ1942":4991,"Ġlosing":4992,"rog":4993,"aling":4994,"onto":4995,"lict":4996,"Ġ1963":4997,"Ġ1962":4998,"Ġconclud":4999,"ctions":5000,"Ġ!":5001,"Ġtask":5002,"yer":5003,"Ġtrust":5004,"ĠOtt":5005,"Ġremember":5006,"Ġcontrovers":5007,"Ġera":5008,"Ġteacher":5009,"Ġcondition":5010,"ĠAp":5011,"Ġgoes":5012,"Ġweight":5013,"bit":5014,"Ġgreater":5015,"Ġsurrounding":5016,"Ġfinish":5017,"Ġawards":5018,"amber":5019,"ker":5020,"ĠBrook":5021,"perial":5022,"Ġdensity":5023,"ĠLi":5024,"Ġnewly":5025,"ricts":5026,"Ġpositions":5027,"ĠVictoria":5028,"Ġholding":5029,"Ġmales":5030,"Ġstopped":5031,"Ġ1948":5032,"à¤":5033,"Ġconference":5034,"ĠWater":5035,"ĠCard":5036,"ĠCy":5037,"Ġindustrial":5038,"Ġepisodes":5039,"ĠFederal":5040,"ĠAlbert":5041,"Ġsingles":5042,"inois":5043,"ĠBerlin":5044,"Ġrisk":5045,"ĠAth":5046,"Ġ179":5047,"Ġlabor":5048,"Ġrecomm":5049,"ĠGood":5050,"ĠFC":5051,"Ġexpanded":5052,"tery":5053,"ĠArgent":5054,"ilding":5055,"ĠSong":5056,"achus":5057,"ĠOs":5058,"zy":5059,"ĠAndrew":5060,"Ġcab":5061,"inity":5062,"Ġnarrow":5063,"ĠElizabeth":5064,"ĠKong":5065,"ĠHistoric":5066,"Ġresident":5067,"ropol":5068,"iform":5069,"Ġsuppl":5070,"Ġhosted":5071,"icine":5072,"ĠCE":5073,"Ġ70":5074,"onia":5075,"Ġfully":5076,"Ġreduced":5077,"ĠCorporation":5078,"Ġreceive":5079,"which":5080,"ivity":5081,"Ġbroke":5082,"Ġpattern":5083,"Ġtrial":5084,"Ġretire":5085,"Ġwing":5086,"uted":5087,"Ġsettled":5088,"Ġly":5089,"Ġfighting":5090,"Ġdefin":5091,"Ġfootballer":5092,"Ġtrou":5093,"kins":5094,"Ġspring":5095,"Ġleadership":5096,"Ġidentified":5097,"Ġproviding":5098,"load":5099,"Ġplants":5100,"'d":5101,"Ġyards":5102,"500":5103,"ĠVer":5104,"Ġaddress":5105,"Ġparties":5106,"Ġmotor":5107,"chen":5108,"ĠField":5109,"Ġchampion":5110,"irty":5111,"ror":5112,"edd":5113,"ĠDaniel":5114,"ski":5115,"33":5116,"ĠAmong":5117,"ĠPrime":5118,"Ġrespond":5119,"onent":5120,"Ġ1941":5121,"ĠBlue":5122,"Ġcorrespond":5123,"Ġjoint":5124,"iful":5125,"Ġpaint":5126,"Ġcritical":5127,"Ã±":5128,"ĠMas":5129,"Ġcorner":5130,"ĠKen":5131,"Ġstream":5132,"Ġspons":5133,"Ġaffili":5134,"udden":5135,"Ġvess":5136,"mad":5137,"Ġgranted":5138,"ĠAri":5139,"oday":5140,"ĠCorn":5141,"Ġfair":5142,"acks":5143,"!\"":5144,"Ġsituated":5145,"ĠDevelopment":5146,"ĠIllinois":5147,"ĠBrig":5148,"Ġunion":5149,"Ġmodels":5150,"Ġdrive":5151,"ĠOlympic":5152,"Ġyounger":5153,"ĠJeff":5154,"thur":5155,"Ġmunicipal":5156,"Ġtitles":5157,"Ġunc":5158,"Ġ1946":5159,"unte":5160,"ĠBang":5161,"ĠRog":5162,"Ġearth":5163,"ĠHong":5164,"Ġseemed":5165,"ĠJr":5166,"ĠCaptain":5167,"ĠLove":5168,"omew":5169,"Ġcoal":5170,"196":5171,"Ġdog":5172,"Ġnominated":5173,"ĠUnivers":5174,"Ġunique":5175,"nes":5176,"Ġhorse":5177,"Å¡":5178,"ĠIslands":5179,"Ġconvers":5180,"ĠMinn":5181,"Ġresulting":5182,"Ġdigital":5183,"Ġsides":5184,"ĠTay":5185,"TA":5186,"Ġflag":5187,"yal":5188,"Ġ90":5189,"Ġbott":5190,"Ġ1943":5191,"Ġtrees":5192,"Ġsuggest":5193,"Ġorganizations":5194,"ĠBa":5195,"emet":5196,"bec":5197,"Ġcreation":5198,"Ġtraffic":5199,"Ġ1961":5200,"Ġpair":5201,"ĠPen":5202,"Ġtim":5203,"istance":5204,"tered":5205,"Ġsexual":5206,"ucky":5207,"Ġelse":5208,"Ġdrink":5209,"Ġlibrary":5210,"Ġvac":5211,"ĠBishop":5212,"achusetts":5213,"Ġurban":5214,"Ġimage":5215,"ĠJustice":5216,"Ġbegins":5217,"Ġpiece":5218,"ĠVill":5219,"Ġgirls":5220,"Ġhar":5221,"ĠLittle":5222,"Ġrecon":5223,"Ġreject":5224,"Ġvotes":5225,"Ġsimple":5226,"Ġswe":5227,"Ġ1956":5228,"Ġnecessary":5229,"ĠLike":5230,"ĠDet":5231,"Ġsect":5232,"ĠRoute":5233,"ĠDam":5234,"'re":5235,"ĠKar":5236,"Ġranked":5237,"Ġinstrument":5238,"Ġrain":5239,"Ġconfirmed":5240,"Ġdoctor":5241,"rowd":5242,"ĠRaj":5243,"ĠQueens":5244,"ĠChild":5245,"Ġconnected":5246,"rec":5247,"Ġcontest":5248,"iot":5249,"formation":5250,"Ġimmigr":5251,"aun":5252,"Ġmarked":5253,"Ġbought":5254,"Ġcho":5255,"ĠEven":5256,"And":5257,"ĠTro":5258,"Ġbey":5259,"Ġminister":5260,"ĠMassachusetts":5261,"ĠUSA":5262,"Ġnormal":5263,"Ġchosen":5264,"Ġhappened":5265,"Ġrefused":5266,"Ġscoring":5267,"ĠMinistry":5268,"Ġallows":5269,"includ":5270,"Ġ1939":5271,"Ġcarri":5272,"Ġneeds":5273,"Ġclaims":5274,"Ġcontemporary":5275,"ĠCz":5276,"Ġobtained":5277,"Ġslightly":5278,"Ġcolumn":5279,"nce":5280,"ervative":5281,"Ġallowing":5282,"ĠDuke":5283,"Ġperformances":5284,"eld":5285,"ĠCommon":5286,"oh":5287,"oms":5288,"apped":5289,"hemat":5290,"ĠLife":5291,"Ġrapid":5292,"Ġpainting":5293,"ĠDar":5294,"emetery":5295,"Ġcompl":5296,"nic":5297,"ĠHind":5298,"Ġbeyond":5299,"Ġconstitu":5300,"Ġapplied":5301,"Ġprovinc":5302,"MA":5303,"ĠJon":5304,"Ġ1947":5305,"Ġdistribution":5306,"estic":5307,"stitution":5308,"Ġparliament":5309,"Ġattacks":5310,"Ġexact":5311,"adelph":5312,"ĠGuard":5313,"Ġteaching":5314,"Bl":5315,"ĠOffic":5316,"bourne":5317,"ĠPakistan":5318,"ims":5319,"Ġhabit":5320,"ww":5321,"Ġ44":5322,"Ġsucceeded":5323,"Ġsand":5324,"Ġcheck":5325,"Ġseats":5326,"lers":5327,"ĠBase":5328,"Ġstock":5329,"Ġliterature":5330,"iat":5331,"Ġclasses":5332,"awn":5333,"ĠHor":5334,"Ġbegin":5335,"ĠWild":5336,"Ġliber":5337,"Ġsoftware":5338,"Ġsport":5339,"Ġcry":5340,"Ġshall":5341,"Ġsculpt":5342,"div":5343,"iny":5344,"ĠLady":5345,"Ġconsum":5346,"Ġ*":5347,"uous":5348,"ules":5349,"Ġfine":5350,"Ġpowerful":5351,"ĠUl":5352,"Ġ1958":5353,"ĠSupreme":5354,"Ġgovern":5355,"Ġexperiment":5356,"Ġnort":5357,"Ġbrothers":5358,"Ġfish":5359,"aug":5360,"ĠOk":5361,"ĠMike":5362,"Ġsecondary":5363,"onom":5364,"ĠLew":5365,"ĠJoe":5366,"ĠWay":5367,"ĠMir":5368,"Ġ1959":5369,"ashion":5370,"Ġachieved":5371,"Ġanalysis":5372,"gal":5373,"ĠFI":5374,"ĠEnter":5375,"Ġofficials":5376,"urer":5377,"Ġfacility":5378,"amin":5379,"Ġcells":5380,"Ġdisease":5381,"ĠHighway":5382,"Ġsupply":5383,"Ġassociation":5384,"Ġhear":5385,"Ġfought":5386,"Ġformation":5387,"see":5388,"raq":5389,"36":5390,"Ġsites":5391,"ologist":5392,"omer":5393,"ĠThrough":5394,"ĠKorea":5395,"ronze":5396,"adelphia":5397,"38":5398,"Ġfeed":5399,"Ġstanding":5400,"Ġ32":5401,"Ġcomedy":5402,"Ġguard":5403,"athan":5404,"ĠPop":5405,"Ġfestival":5406,"Ġvan":5407,"Ġunable":5408,"ĠExp":5409,"Ġoccasion":5410,"ĠBol":5411,"Ġbul":5412,"Ġreturning":5413,"Ġmemory":5414,"Ġmagn":5415,"ĠGh":5416,"Ġextend":5417,"vis":5418,"Ġholds":5419,"Ġaccident":5420,"rig":5421,"ĠFar":5422,"Ġ36":5423,"Ġconcert":5424,"nel":5425,"Ġ500":5426,"Ġbrand":5427,"ĠCop":5428,"Ġinjury":5429,"Ġchalleng":5430,"Ġroof":5431,"Ġlaunch":5432,"ĠOnt":5433,"gg":5434,"ĠJean":5435,"Ġcaught":5436,"Ġcontain":5437,"ĠBell":5438,"ĠNether":5439,"Ġmeasure":5440,"ĠToronto":5441,"ĠAlb":5442,"Ġdial":5443,"Ġfigures":5444,"Ġcommittee":5445,"Ġways":5446,"Ġapparent":5447,"Ã¡n":5448,"Ġunderstand":5449,"ĠBridge":5450,"Ġheadquarters":5451,"akh":5452,"ĠSwedish":5453,"outheast":5454,"elligence":5455,"ĠSher":5456,"ĠAk":5457,"mann":5458,"Ġreports":5459,"Ġversions":5460,"western":5461,"ĠRevolution":5462,"ruit":5463,"ĠRel":5464,"ĠWat":5465,"EC":5466,"ĠSpecial":5467,"ĠStadium":5468,"ĠHarv":5469,"Ġ1957":5470,"Ġphilosop":5471,"ih":5472,"water":5473,"Ġextra":5474,"Ġgone":5475,"Ġadvanced":5476,"ĠLibrary":5477,"ĠDun":5478,"ĠPress":5479,"MS":5480,"Ġdesignated":5481,"met":5482,"Ġauthorities":5483,"real":5484,"ĠHun":5485,"Ä±":5486,"Ġactress":5487,"ĠProgram":5488,"Ġrelatively":5489,"Ġmis":5490,"ancing":5491,"ĠGame":5492,"Ġrestaur":5493,"Ġexisting":5494,"ulty":5495,"gn":5496,"urd":5497,"talion":5498,"Ġcode":5499,"Ġdefined":5500,"Ġtrains":5501,"VD":5502,"Ġsons":5503,"ĠNetwork":5504,"Ã¸":5505,"Ġlake":5506,"Ġwalls":5507,"pton":5508,"Ġportion":5509,"Ġproceed":5510,"ĠPolice":5511,"fl":5512,"PA":5513,"Ġjourn":5514,"ighth":5515,"Ġtower":5516,"uer":5517,"Ġscientific":5518,"ĠSeveral":5519,"ĠOxford":5520,"ĠFle":5521,"Ġsleep":5522,"Ġtheme":5523,"iminal":5524,"chestra":5525,"ĠConf":5526,"ĠAirport":5527,"ĠPhiladelphia":5528,"Ġanimals":5529,"34":5530,"ĠOntario":5531,"oured":5532,"Ġauthority":5533,"Ġconflict":5534,"Ġfans":5535,"39":5536,"acement":5537,"oes":5538,"iday":5539,"Ġsurvey":5540,"Ġsubs":5541,"FC":5542,"Ġdescend":5543,"uled":5544,"Ġregions":5545,"orney":5546,"oty":5547,"ĠFox":5548,"Ġopposition":5549,"Ġoldest":5550,"ĠCa":5551,"Ġaudience":5552,"elve":5553,"ĠMaster":5554,"Ġathlet":5555,"Ġring":5556,"\";":5557,"ES":5558,"Ġ1952":5559,"Ġmachine":5560,"alls":5561,"ulate":5562,"Ġdisapp":5563,"ĠArm":5564,"imal":5565,"Ġbreath":5566,"Ġpartner":5567,"Ġcreating":5568,"Is":5569,"Ġattacked":5570,"Ġinspired":5571,"Ġstorm":5572,"Ġmaterials":5573,"ĠChris":5574,"Ġedge":5575,"Ġsafety":5576,"itors":5577,"Ġfrequently":5578,"Ġrob":5579,"asty":5580,"eed":5581,"ĠEmperor":5582,"Ġeye":5583,"Ġfounder":5584,"Ġentitled":5585,"ĠUr":5586,"sex":5587,"ĠChair":5588,"Ġyellow":5589,"37":5590,"ĠSanta":5591,"Ġwond":5592,"Ġ1955":5593,"Ġarrested":5594,"ĠRod":5595,"ĠLim":5596,"cont":5597,"wing":5598,"ĠAtlantic":5599,"Ġsun":5600,"akers":5601,"Ġtal":5602,"Ġbrown":5603,"Ġvillages":5604,"Ġelement":5605,"Ġphone":5606,"ĠFair":5607,"Ġbill":5608,"Ġtemple":5609,"Ġaired":5610,"Ġflood":5611,"Ġactions":5612,"Ġaspect":5613,"Ġ1949":5614,"ĠSus":5615,"ĠBudd":5616,"Ġ64":5617,"ĠNaz":5618,"Ġgovernor":5619,"igg":5620,"ova":5621,"Un":5622,"Ġec":5623,"ipped":5624,"Ġadvert":5625,"erland":5626,"ĠKr":5627,"rif":5628,"eller":5629,"ĠVen":5630,"Ġscript":5631,"Ġwinter":5632,"ifically":5633,"anging":5634,"century":5635,"Ġkick":5636,"Ġcritics":5637,"Ġcovers":5638,"ĠMain":5639,"Ġdistricts":5640,"Ġfocused":5641,"wise":5642,"ĠRepresent":5643,"Ġshut":5644,"vin":5645,"ĠIraq":5646,"ĠForest":5647,"weight":5648,"ĠRegister":5649,"ĠNations":5650,"ĠSpe":5651,"ĠKel":5652,"Ġetc":5653,"Ġattempted":5654,"ĠIndepend":5655,"Ġchance":5656,"Ġwindow":5657,"Ġago":5658,"Ġdaily":5659,"Ġshared":5660,"ji":5661,"Ġvisited":5662,"Ġsixth":5663,"sm":5664,"Ġiron":5665,"ĠÎ":5666,"Ġprincipal":5667,"ĠGi":5668,"Ġcommander":5669,"ouri":5670,"Ġ1954":5671,"Ġprotection":5672,"47":5673,"Ġloan":5674,"Ġsurn":5675,"da":5676,"iki":5677,"Ġtall":5678,"ĠAff":5679,"ĠIntern":5680,"worth":5681,"ĠNetherlands":5682,"Ġguest":5683,"ĠSports":5684,"Ġcold":5685,"ĠBand":5686,"Ġchairman":5687,"Ġsyn":5688,"ĠWilson":5689,"Ġven":5690,"Ġtowns":5691,"Ġalt":5692,"ĠHay":5693,"ĠSerb":5694,"Ġwarn":5695,"Ġcert":5696,"ĠCastle":5697,"Ġsets":5698,"Ġcrowd":5699,"bro":5700,"Ġprof":5701,"Ġunknown":5702,"Ġavoid":5703,"Ġrough":5704,"ĠUN":5705,"ĠColon":5706,"Ġattempts":5707,"rep":5708,"aret":5709,"Ġroyal":5710,"Ġtheatre":5711,"Ġcopies":5712,"ĠÐ":5713,"Ġstrength":5714,"100":5715,"Ġheight":5716,"ois":5717,"Ġenemy":5718,"Ġ1953":5719,"also":5720,"Ġdetermined":5721,"Ġpolitics":5722,"Ġmile":5723,"Ġwalked":5724,"Ġdeliver":5725,"eral":5726,"Ġwrite":5727,"iary":5728,"ilton":5729,"ĠTurk":5730,"ĠDue":5731,"Ġbillion":5732,"ĠBetween":5733,"Ġillustr":5734,"osl":5735,"omot":5736,"van":5737,"Ġarts":5738,"text":5739,"Ġexchange":5740,"Ġemot":5741,"Ġ</":5742,"Ġcombat":5743,"ĠHistory":5744,"Ġescape":5745,"LA":5746,"Ġneighborhood":5747,"Ġmine":5748,"Ġtermin":5749,"friend":5750,"Ġclean":5751,"Ġhour":5752,"erb":5753,"ĠHome":5754,"Ġfresh":5755,"ĠTaylor":5756,"48":5757,"ographic":5758,"avel":5759,"law":5760,"ĠNic":5761,"heim":5762,"Ġsetting":5763,"Ġeffective":5764,"Ġpros":5765,"Ġrot":5766,"%)":5767,"Ġadvant":5768,"Ġpublication":5769,"Ġpieces":5770,"Ġcart":5771,"aver":5772,"ĠMarc":5773,"utional":5774,"Ġfields":5775,"Ġagent":5776,"Ġstarring":5777,"ĠMarsh":5778,"Ġwarm":5779,"hedral":5780,"Ġbass":5781,"Ġdepend":5782,"asy":5783,"Ġoccupied":5784,"Ġready":5785,"Ġexpress":5786,"othing":5787,"ĠKorean":5788,"anna":5789,"illing":5790,"Ġemployed":5791,"Ġsubsequent":5792,"ĠSweden":5793,"ĠPremier":5794,"Ġsudden":5795,"Ġanyone":5796,"ER":5797,"Ġreference":5798,"Ġcrime":5799,"rupt":5800,"ĠMun":5801,"Ġdoesn":5802,"Ġchoice":5803,"ĠIndust":5804,"Ġpromotion":5805,"Ġhighway":5806,"Ġconsisted":5807,"Ġhotel":5808,"Ġperforming":5809,"rence":5810,"Ġmethods":5811,"Ġexclus":5812,"ĠLoc":5813,"urance":5814,"eman":5815,"igen":5816,"ĠCub":5817,"sey":5818,"Ġlaid":5819,"HL":5820,"Ġresc":5821,"Ġdistingu":5822,"stead":5823,"Ġreasons":5824,"Ġ_":5825,"Ġapproved":5826,"ĠToday":5827,"Ġshortly":5828,"Ġexistence":5829,"Ġtele":5830,"Ġportray":5831,"Ġreact":5832,"Ġfunding":5833,"lan":5834,"Ġopposed":5835,"Ġbud":5836,"ĠCzech":5837,"Ġlearning":5838,"struction":5839,"Ġwrong":5840,"Â²":5841,"phas":5842,"bu":5843,"isf":5844,"Ġairport":5845,"Ġprepar":5846,"Ġresources":5847,"Ġflat":5848,"Ġreceiving":5849,"Ġvon":5850,"Ġ1951":5851,"Ġextensive":5852,"Ġspect":5853,"ĠOnce":5854,"55":5855,"Ġnotes":5856,"Ġseems":5857,"dd":5858,"Ġbaseball":5859,"ĠAut":5860,"Ġentrance":5861,"ĠBir":5862,"ĠAnton":5863,"Ġsomew":5864,"aints":5865,"esh":5866,"orph":5867,"ĠThough":5868,"vest":5869,"Ġelimin":5870,"ĠMov":5871,"lyn":5872,"Ġ1918":5873,"ĠEnd":5874,"Ġvehicles":5875,"CO":5876,"ropri":5877,"31":5878,"come":5879,"iques":5880,"Sp":5881,"ĠPers":5882,"ĠAh":5883,"Ġharm":5884,"amm":5885,"idden":5886,"anz":5887,"Ã©e":5888,"ĠBh":5889,"ayer":5890,"Ġhero":5891,"ĠRegiment":5892,"illery":5893,"Ġeconomy":5894,"ĠNick":5895,"Ġending":5896,"ĠHal":5897,"Ġvocal":5898,"uct":5899,"Ġweapons":5900,"ropolitan":5901,"Â°":5902,"Ġglobal":5903,"Ġformerly":5904,"ĠEconom":5905,"ĠNight":5906,"Ġvalley":5907,"ĠLight":5908,"Ġnegot":5909,"anth":5910,"Ġletters":5911,"ĠBrad":5912,"raham":5913,"Ġcommissioned":5914,"ĠAtt":5915,"IA":5916,"49":5917,"ĠEp":5918,"Ġcalc":5919,"Ġbackground":5920,"Ġfaced":5921,"Ġbasic":5922,"lywood":5923,"ĠHuman":5924,"while":5925,"ĠOrig":5926,"My":5927,"inth":5928,"ĠSteve":5929,"ĠBusiness":5930,"ĠMedia":5931,"Ġ1936":5932,"Ġnob":5933,"Ġends":5934,"ĠDie":5935,"chers":5936,"dr":5937,"Ġentry":5938,"ĠAddition":5939,"Ġkil":5940,"Ġvehicle":5941,"Ġspok":5942,"Ġ|":5943,"Ġ(;":5944,"ls":5945,"ĠEarl":5946,"ĠAthlet":5947,"Ġguns":5948,"Ġdemand":5949,"Ġahead":5950,"',":5951,"Ġ1938":5952,"ĠTechnology":5953,"pet":5954,"Ġskin":5955,"Ġexpansion":5956,"46":5957,"Ġsurname":5958,"'.":5959,"ĠBeach":5960,"Ġfear":5961,"ureau":5962,"Ġâ":5963,"ĠTownship":5964,"ĠGreg":5965,"ĠCommand":5966,"32":5967,"Ġcontrast":5968,"Ġarticles":5969,"iner":5970,"Ġcalls":5971,"ienn":5972,"ĠKir":5973,"Ġinvited":5974,"ĠTra":5975,"ais":5976,"ĠTal":5977,"Ġeasily":5978,"imens":5979,"Ġwealth":5980,"Ġexecut":5981,"Ġfounding":5982,"ĠGirl":5983,"Ġpup":5984,"Ġdipl":5985,"othes":5986,"Ġinhabit":5987,"Ġign":5988,"Ġvirt":5989,"Ġreading":5990,"ĠCommunity":5991,"Ġcastle":5992,"Ġrear":5993,"aked":5994,"Ġpage":5995,"Ġsought":5996,"bell":5997,"Ġones":5998,"Ġlect":5999,"Bill":6000,"ĠArea":6001,"Ġfinds":6002,"adesh":6003,"stream":6004,"gest":6005,"Ġeveryone":6006,"osa":6007,"Ġconverted":6008,"ĠTime":6009,"Ġauth":6010,"Ġarchitecture":6011,"Ġfavour":6012,"ĠUs":6013,"Ġapplication":6014,"All":6015,"Ġengineering":6016,"oln":6017,"ĠMexican":6018,"ĠDavis":6019,"ĠRegion":6020,"ĠStephen":6021,"Ġpermanent":6022,"Ġlands":6023,"ĠRom":6024,"Ġinstitutions":6025,"ĠOrgan":6026,"Ġdefense":6027,"ogue":6028,"ĠCult":6029,"Ġvent":6030,"uls":6031,"ĠWalk":6032,"Ġmaximum":6033,"ownt":6034,"outs":6035,"Ġkiss":6036,"umes":6037,"ĠGen":6038,"Ġheavily":6039,"onym":6040,"ĠColor":6041,"Ġcontributed":6042,"ĠAbb":6043,"ĠHan":6044,"Ġoffices":6045,"osite":6046,"Ġplanning":6047,"ocked":6048,"ĠTenn":6049,"ĠMountain":6050,"ĠEs":6051,"Ġextrem":6052,"Ġdocumentary":6053,"mouth":6054,"sky":6055,"anning":6056,"Ġpassing":6057,"aga":6058,"aming":6059,"Ġpull":6060,"Ġ38":6061,"Ġmist":6062,"Ġworldwide":6063,"ĠRh":6064,"Ġcancer":6065,"Ġconsult":6066,"Ġabandoned":6067,"Ġdry":6068,"Ġheaded":6069,"osh":6070,"cow":6071,"uties":6072,"Ġinstruct":6073,"rees":6074,"Ġrise":6075,"Ġretirement":6076,"Ġcenturies":6077,"agan":6078,"That":6079,"Ġrow":6080,"ĠAdministr":6081,"Ġimpl":6082,"Ġcontaining":6083,"Ġspeech":6084,"Ġ...":6085,"ivals":6086,"Ġshape":6087,"orrow":6088,"Ġracing":6089,"Ġimag":6090,"ĠArthur":6091,"ns":6092,"ĠNA":6093,"Ġoccurs":6094,"Ġseconds":6095,"Ġopportunity":6096,"ĠLind":6097,"aria":6098,"ĠManc":6099,"rah":6100,"Ġsac":6101,"Ġreaching":6102,"Ġgrade":6103,"Ġprefer":6104,"Ġfuel":6105,"ĠBad":6106,"ester":6107,"Ġrefers":6108,"Ġwrest":6109,"inners":6110,"ipe":6111,"Ġload":6112,"CAA":6113,"Ġalternative":6114,"Sc":6115,"Ġacts":6116,"organ":6117,"rete":6118,"ĠFurther":6119,"Ġpowers":6120,"Ġdeveloping":6121,"Ġmigr":6122,"Ġultimately":6123,"Ġbes":6124,"Ġproved":6125,"elle":6126,"writer":6127,"Ġperfect":6128,"Ġhun":6129,"ĠTest":6130,"erick":6131,"ĠSab":6132,"ĠShort":6133,"Ġbroken":6134,"ĠOb":6135,"Ġtrail":6136,"Ġox":6137,"hr":6138,"inson":6139,"Ġentertain":6140,"ĠWell":6141,"Ġsuccessfully":6142,"ĠSom":6143,"Ġclimate":6144,"ĠCirc":6145,"ĠMaria":6146,"Ġcas":6147,"osis":6148,"Ġcontained":6149,"Ġoccas":6150,"urches":6151,"Ġworth":6152,"ĠMP":6153,"Ġconnection":6154,"ĠPower":6155,"ĠFord":6156,"ums":6157,"Ġhope":6158,"Ġboat":6159,"ĠFrancis":6160,"ĠStand":6161,"Ġentirely":6162,"former":6163,"uses":6164,"ĠUpon":6165,"ĠPrior":6166,"Ġpropos":6167,"ĠPo":6168,"ĠOnly":6169,"Ġ34":6170,"Ġlocations":6171,"mph":6172,"Ġemphas":6173,"elect":6174,"Ġ178":6175,"Ġminute":6176,"DS":6177,"Ġpilot":6178,"Ġproperties":6179,"Ġ1937":6180,"US":6181,"iders":6182,"ĠIndones":6183,"Ġstructures":6184,"Ġrepresenting":6185,"Jo":6186,"ĠInt":6187,"ĠLt":6188,"ĠJer":6189,"Ġbodies":6190,"Ġfinishing":6191,"Ġorders":6192,"Ġdefend":6193,"ĠAmericans":6194,"long":6195,"ece":6196,"ĠRoss":6197,"ĠAlf":6198,"Ġderived":6199,"life":6200,"hire":6201,"aud":6202,"ĠWel":6203,"Ġcausing":6204,"Ġmetres":6205,"ĠKim":6206,"Ġthrow":6207,"Ġfleet":6208,"OS":6209,"ĠLegisl":6210,"Ġfunds":6211,"Ġexpression":6212,"Ġgeneration":6213,"Ġdream":6214,"mes":6215,"ĠBrother":6216,"Ġexperi":6217,"Ġ1919":6218,"Ġaware":6219,"Ġfilled":6220,"Ġpossess":6221,"Ġstarts":6222,"Ġequal":6223,"pool":6224,"Ġheat":6225,"gment":6226,"zen":6227,"Ġmel":6228,"Ġidentity":6229,"PS":6230,"ĠForm":6231,"Ġfunctions":6232,"wegian":6233,"'ll":6234,"Ġqualified":6235,"uccess":6236,"ĠChapter":6237,"Ġapart":6238,"Ġsteel":6239,"Ġadapt":6240,"ĠPrize":6241,"ĠProject":6242,"Ġlyrics":6243,"Ġrom":6244,"Ġswim":6245,"Ġfeeling":6246,"Ġ33":6247,"Ġtemperature":6248,"ranch":6249,"arry":6250,"99":6251,"'ve":6252,"achelor":6253,"Ġanimal":6254,"Ġplot":6255,"ĠMelbourne":6256,"ĠAbout":6257,"Ġpolic":6258,"ĠEvery":6259,"ĠPit":6260,"Ġideas":6261,"Ġsust":6262,"ĠMarg":6263,"Ġmulti":6264,"ĠSlov":6265,"ĠJews":6266,"ĠSpring":6267,"Ġclosely":6268,"Ġtwelve":6269,"Ġbottom":6270,"Ġtouchdown":6271,"agh":6272,"Ġprice":6273,"Ġcompar":6274,"olished":6275,"ĠChristmas":6276,"Ã£":6277,"ĠSunday":6278,"Ġdecades":6279,"ĠBarb":6280,"after":6281,"Ġthick":6282,"Ġjudge":6283,"Ġdomestic":6284,"ĠDVD":6285,"Ġsupporting":6286,"Ġsave":6287,"Ġexpressed":6288,"Ġhumans":6289,"Ġnarr":6290,"Ġcorrect":6291,"Ġtor":6292,"ĠDor":6293,"Ġinfluenced":6294,"ĠJournal":6295,"Ġ37":6296,"Ġstadium":6297,"eke":6298,"aze":6299,"ĠFederation":6300,"AR":6301,"ĠSquad":6302,"inder":6303,"apore":6304,"Ġ1917":6305,"ĠHoly":6306,"ĠGro":6307,"ĠKhan":6308,"Ġvolume":6309,"Ġtechnical":6310,"tical":6311,"ader":6312,"ĠChannel":6313,"iang":6314,"44":6315,"Ġdriver":6316,"ĠLewis":6317,"Ġdecor":6318,"ĠMedical":6319,"iments":6320,"Ġformal":6321,"ii":6322,"ĠBor":6323,"ref":6324,"Ġbands":6325,"Ġdeploy":6326,"Ġcycl":6327,"ĠJunior":6328,"Ġopin":6329,"Ġincorporated":6330,"Ġrequest":6331,"Ġprogress":6332,"Ġgets":6333,"place":6334,"apes":6335,"Ġcalling":6336,"ĠKal":6337,"Ġspoke":6338,"Ġbronze":6339,"ĠHart":6340,"ĠFire":6341,"ĠMoscow":6342,"Ġrival":6343,"Ġrein":6344,"ĠTrust":6345,"Ġmaintained":6346,"%.":6347,"fall":6348,"Ġmayor":6349,"Ġhired":6350,"cious":6351,"ĠLet":6352,"Ġgrad":6353,"ĠBalt":6354,"Ġmotion":6355,"ĠBarn":6356,"ĠNap":6357,"Ġincident":6358,"lets":6359,"ĠAnth":6360,"ĠSix":6361,"incoln":6362,"La":6363,"Ġpartnership":6364,"Ġfashion":6365,"Ġquant":6366,"Ġdiam":6367,"Ġsector":6368,"Ġfailure":6369,"Ġneck":6370,"Ġengaged":6371,"Ġhydro":6372,"Ġappoint":6373,"track":6374,"Ġboys":6375,"Ġimpr":6376,"ĠSav":6377,"aki":6378,"aks":6379,"olec":6380,"Ġalleged":6381,"Ġhyp":6382,"Ġtownship":6383,"Ġopposite":6384,"Ġ1935":6385,"ĠNative":6386,"Ġgall":6387,"rim":6388,"ĠJesus":6389,"Ġnuclear":6390,"ĠThus":6391,"ĠKat":6392,"Ġquestions":6393,"Ġregarding":6394,"Ġunf":6395,"ĠWars":6396,"Ġcru":6397,"Ġmyself":6398,"uation":6399,"IC":6400,"antic":6401,"Ġdress":6402,"wick":6403,"Ġeducated":6404,"65":6405,"ĠNorwegian":6406,"Ġchose":6407,"ĠTa":6408,"Ġtrained":6409,"ĠEP":6410,"Ġ1914":6411,"Ġestablishment":6412,"ĠPier":6413,"Ġrepeated":6414,"pur":6415,"Ġeducational":6416,"AF":6417,"Ġreligion":6418,"Ġmerch":6419,"Ġscale":6420,"ĠCambridge":6421,"Ġcategory":6422,"Ġevening":6423,"Ġaged":6424,"Ġimportance":6425,"Ġkilling":6426,"abad":6427,"Ġreign":6428,"Ġsail":6429,"Ġceremony":6430,"ocese":6431,"equ":6432,"Ġcomposer":6433,"Ġscheduled":6434,"esota":6435,"Ġaccompan":6436,"Ġresear":6437,"ĠCountry":6438,"ĠNorway":6439,"Ġliterary":6440,"Ġargued":6441,"ĠGolden":6442,"acent":6443,"Ġinters":6444,"Ġsole":6445,"uese":6446,"Ġinvestigation":6447,"Ġinternal":6448,"aska":6449,"Ġuncle":6450,"Ġobserved":6451,"Ġbrain":6452,"ĠGer":6453,"Ġbriefly":6454,"keep":6455,"Ġpossibly":6456,"Ġpasses":6457,"enz":6458,"ĠTony":6459,"ĠJacob":6460,"Ġkit":6461,"but":6462,"mun":6463,"ĠLabor":6464,"Ġwitness":6465,"ĠStock":6466,"Ġphase":6467,"Ġsupposed":6468,"Ġfolk":6469,"Ġfaith":6470,"Ġvolunte":6471,"Ġprogramme":6472,"owa":6473,"Ġmerged":6474,"ĠSu":6475,"Ġ)":6476,"ami":6477,"Ġconsecutive":6478,"unch":6479,"195":6480,"father":6481,"Ġaid":6482,"Ġproducing":6483,"Ġslowly":6484,"ĠWeek":6485,"Ġspecifically":6486,"esc":6487,"ika":6488,"Ġmoth":6489,"ĠBall":6490,"Ġinstall":6491,"ĠPhilip":6492,"Ġdecre":6493,"Ġ1933":6494,"Ġresigned":6495,"verse":6496,"Ġstandards":6497,"under":6498,"owntown":6499,"Ġdrop":6500,"Ġrecognition":6501,"uration":6502,"oster":6503,"Ġast":6504,"Ġenvironmental":6505,"Ġhur":6506,"ĠMilitary":6507,"Ġlegend":6508,"Ġperhaps":6509,"Ġpatients":6510,"ĠPass":6511,"orders":6512,"otic":6513,"ĠManchester":6514,"Ġviolence":6515,"ĠVietnam":6516,"Ġpromote":6517,"Ġbeautiful":6518,"Ġvoted":6519,"Ġskills":6520,"Ġ300":6521,"yo":6522,"ĠMinnesota":6523,"Ġpoly":6524,"Ġthinking":6525,"ource":6526,"Ġhomes":6527,"Ġstating":6528,"Ġexpect":6529,"ĠPope":6530,"jan":6531,"Ġ1900":6532,"rell":6533,"lines":6534,"Ġinhabitants":6535,"ĠGil":6536,"state":6537,"ĠKansas":6538,"ĠStone":6539,"ĠSingapore":6540,"Ġindependence":6541,"Ġmarg":6542,"ĠSem":6543,"then":6544,"Ġment":6545,"Billboard":6546,"Ġbrick":6547,"pson":6548,"Ġ1929":6549,"ĠDer":6550,"Ġstret":6551,"Ġimprove":6552,"ĠWhit":6553,"wich":6554,"Ġinaug":6555,"Ġcollected":6556,"Cl":6557,"ĠBi":6558,"ĠQueensland":6559,"Ġregistered":6560,"ĠPhilippines":6561,"alo":6562,"Ġpassenger":6563,"ĠLeon":6564,"Ġgain":6565,"ĠMemorial":6566,"erts":6567,"onsin":6568,"ĠBureau":6569,"95":6570,"ushing":6571,"Ġscenes":6572,"roc":6573,"ĠTok":6574,"tainment":6575,"utation":6576,"Ġbehavior":6577,"ĠHou":6578,"Ġvisual":6579,"Ġfoundation":6580,"Ãº":6581,"ĠCape":6582,"ĠLincoln":6583,"Ġjoining":6584,"Ġlearned":6585,"isconsin":6586,"liest":6587,"ĠCensus":6588,"ĠSciences":6589,"eless":6590,"essee":6591,"Ġsmile":6592,"Ġcup":6593,"Ġrepresentative":6594,"Ġstrike":6595,"Ġcandidates":6596,"ĠClark":6597,"Ġregarded":6598,"Ġemp":6599,"Ġstatement":6600,"regon":6601,"Ġfram":6602,"Ġbelief":6603,"Ġchest":6604,"ĠSimon":6605,"Ġrose":6606,"Ġweather":6607,"ĠTurn":6608,"Ġlimit":6609,"ĠMalays":6610,"Ġreality":6611,"Ġsan":6612,"Ġinstalled":6613,"king":6614,"Ġdoll":6615,"ashed":6616,"hered":6617,"ĠTai":6618,"Ġ1928":6619,"ateur":6620,"ĠCas":6621,"ĠJane":6622,"Ġ1934":6623,"ĠHo":6624,"Ġshell":6625,"Ġsell":6626,"Ġclin":6627,"Ðµ":6628,"Ġadvantage":6629,"Ġcatch":6630,"acter":6631,"Ġprogramming":6632,"Ġcore":6633,"Ġnegative":6634,"Ġtrip":6635,"Ġclassical":6636,"Ġnor":6637,"boy":6638,"ĠMissouri":6639,"Ġwouldn":6640,"uts":6641,"Ġjournalist":6642,"Ġfat":6643,"isa":6644,"Ġsignal":6645,"ĠUt":6646,"Ġsafe":6647,"ĠStudies":6648,"Ġstands":6649,"Ġconcluded":6650,"Ġviews":6651,"Ð¾":6652,"ĠBru":6653,"Ġcompete":6654,"ĠVo":6655,"kes":6656,"ĠSri":6657,"iti":6658,"ĠNCAA":6659,"ivered":6660,"ĠMrs":6661,"Ġjunior":6662,"Ġemployees":6663,"Ġethnic":6664,"Ġlat":6665,"ĠWisconsin":6666,"Ġchemical":6667,"ĠMiller":6668,"SR":6669,"ilation":6670,"ternal":6671,"Ġdates":6672,"Ġsort":6673,"Ġ48":6674,"Ġturns":6675,"Ġbudget":6676,"ĠEth":6677,"Ġactual":6678,"TC":6679,"76":6680,"ĠLabour":6681,"ĠGab":6682,"ici":6683,"where":6684,"Ġcool":6685,"iversary":6686,"Ġbirds":6687,"Ġexerc":6688,"umin":6689,"icks":6690,"Ġprotein":6691,"78":6692,"ĠAustria":6693,"Ġimproved":6694,"Ġinteract":6695,"ĠFree":6696,"Ġvice":6697,"ective":6698,"Ġexhibition":6699,"Ġdescribes":6700,"ĠLo":6701,"SP":6702,"ecution":6703,"Ġtruth":6704,"Ġadvance":6705,"ĠFinal":6706,"Ġrich":6707,"Ð°":6708,"42":6709,"ĠColorado":6710,"Ġcloser":6711,"ĠPortuguese":6712,"Ġtransform":6713,"ĠBos":6714,"Ġarmed":6715,"Ġsurvived":6716,"ĠTurkey":6717,"ĠWeb":6718,"Ġreaction":6719,"spec":6720,"ĠFinn":6721,"Ġsubstant":6722,"Ġcontrolled":6723,"zona":6724,"ĠFellow":6725,"Ġhockey":6726,"gers":6727,"Å«":6728,"ĠTennessee":6729,"Ġprofession":6730,"ĠCab":6731,"ĠAdam":6732,"Ġlegs":6733,"Ġmort":6734,"Ġsuppor":6735,"ĠBaron":6736,"Ġgraduate":6737,"Ġconsisting":6738,"Ġlandsc":6739,"Ġ1910":6740,"oming":6741,"anned":6742,"Ġkid":6743,"Ġflu":6744,"Ġengines":6745,"Ġleads":6746,"ito":6747,"ĠRose":6748,"Ġ150":6749,"Ġille":6750,"Ġhill":6751,"Ġsale":6752,"Ġcauses":6753,"Ġplayoff":6754,"forc":6755,"Ġstayed":6756,"66":6757,"Ġsinging":6758,"Ġconsequ":6759,"isms":6760,"Ġadap":6761,"itzerland":6762,"How":6763,"Ġwaters":6764,"Ġgreatest":6765,"ori":6766,"Ġitems":6767,"Ġiniti":6768,"Ġdetails":6769,"Ġemerg":6770,"ĠMunicip":6771,"ĠNFL":6772,"aro":6773,"Ġ75":6774,"Ġdrawn":6775,"entially":6776,"Ġpaintings":6777,"Ġ49":6778,"ked":6779,"Ġhuge":6780,"Ġoperate":6781,"Ġlocomot":6782,"ĠOregon":6783,"Ġdraft":6784,"Ġfreedom":6785,"Ġcosts":6786,"Ġanswer":6787,"Ġmathemat":6788,"run":6789,"ĠHard":6790,"Ġ1924":6791,"Ġcooper":6792,"Ġinterested":6793,"ographer":6794,"Ġgod":6795,"Ġcorpor":6796,"Ġvir":6797,"Ġ400":6798,"ĠVice":6799,"ĠMatt":6800,"ĠWinter":6801,"attle":6802,"Ġaffected":6803,"rait":6804,"DA":6805,"Ġpoetry":6806,"Ġruled":6807,"Ġexped":6808,"ĠPoint":6809,"41":6810,"ĠIndiana":6811,"ĠTen":6812,"ĠGord":6813,"ĠPlaces":6814,"Ġcriminal":6815,"Ġwins":6816,"andy":6817,"Ġwings":6818,"Ġflo":6819,"ĠRon":6820,"ooth":6821,".âĢĻ":6822,"Ġ1932":6823,"Ġshowing":6824,"ublin":6825,"Ġsolid":6826,"agues":6827,"fe":6828,"adow":6829,"ĠTurkish":6830,"Ġprepared":6831,"Ġvalues":6832,"ĠHarry":6833,"Ġdie":6834,"Ġflying":6835,"ĠMaryland":6836,"ĠStat":6837,"Ġduty":6838,"gor":6839,"Ġselection":6840,"Ġinjured":6841,"Ġparalle":6842,"una":6843,"clusion":6844,"ĠAffairs":6845,"Ġsymbol":6846,"Ġdriving":6847,"ello":6848,"Ġcourses":6849,"Ã£o":6850,"Ġobjects":6851,"anes":6852,"uther":6853,"ĠLiberal":6854,"Ġcricket":6855,"Ġdismiss":6856,"box":6857,"anton":6858,"zz":6859,"Ġrebu":6860,"Ġremark":6861,"lig":6862,"Ġapplications":6863,"Ġjur":6864,"ĠBah":6865,"Ġ1922":6866,"Ġpicked":6867,"Ġpraised":6868,"Ġusers":6869,"night":6870,"ocks":6871,"eler":6872,"aduate":6873,"Ġreserve":6874,"oli":6875,"Ġsoul":6876,"Ġinterior":6877,"iva":6878,"Ġinterests":6879,"Ġble":6880,"ĠOcean":6881,"Ġexplained":6882,"inally":6883,"olis":6884,"Ġparticipate":6885,"roke":6886,"Ġreduce":6887,"Ġweak":6888,"ĠTemple":6889,"ĠWrit":6890,"alty":6891,"Ġrooms":6892,"Ġadmitted":6893,"Ġax":6894,"Oh":6895,"orage":6896,"ologies":6897,"Ġfactory":6898,"Ġpicture":6899,"eding":6900,"Ġpool":6901,"Ġpurchase":6902,"Ġenroll":6903,"ĠSwitzerland":6904,"Ġrugby":6905,"Ä«":6906,"ĠNiger":6907,"Ġ1927":6908,"Ġsteam":6909,"owned":6910,"Ġtechniques":6911,"Ġid":6912,"Ġbond":6913,"Ġregularly":6914,"asure":6915,"Ġfiction":6916,"Ġstreets":6917,"overty":6918,"ĠMcG":6919,"Ġassess":6920,"atures":6921,"Ġeasy":6922,"Ġmand":6923,"Ġdivers":6924,"omy":6925,"east":6926,"ĠFer":6927,"Ġroads":6928,"Ġsynt":6929,"Ġfranch":6930,"Ġquiet":6931,"ĠAuthor":6932,"ĠAst":6933,"Ġnortheast":6934,"icide":6935,"anguage":6936,"Ġreserv":6937,"ĠDu":6938,"Ġagency":6939,"Ġ1931":6940,"olas":6941,"Ġjourney":6942,"Ġhors":6943,"Ġcrown":6944,"spe":6945,"Ġearliest":6946,"Ġcombination":6947,"ĠArizona":6948,"Ġtruck":6949,"Ġgrass":6950,"Ġdiplom":6951,"Ġchain":6952,"Ġassumed":6953,"ĠInfantry":6954,"Ġtypical":6955,"Mar":6956,"going":6957,"Yes":6958,"ĠExecutive":6959,"icit":6960,"icians":6961,"Ġstores":6962,"Ġaccused":6963,"Ġ1921":6964,"Ġshif":6965,"Ġresidence":6966,"je":6967,"Ġbuy":6968,"Ġopera":6969,"ache":6970,"ĠGram":6971,"Ġ1912":6972,"Tr":6973,"ĠBon":6974,"85":6975,"ekend":6976,"ooking":6977,"Ġpersonnel":6978,"Ġweb":6979,"heastern":6980,"hist":6981,"She":6982,"Ġgrounds":6983,"77":6984,"Ġagricultural":6985,"Ġdistributed":6986,"Ġwaiting":6987,"Ġwindows":6988,"Ġadvent":6989,"Ġimages":6990,"Ġinvasion":6991,"emic":6992,"Ġdevice":6993,"ĠManagement":6994,"Ġtick":6995,"Ġshel":6996,"Ġunderstanding":6997,"ĠId":6998,"ĠYour":6999,"Ġcircum":7000,"Ġnick":7001,"including":7002,"Ġacid":7003,"ĠJam":7004,"lah":7005,"anga":7006,"Ġsubsid":7007,"ĠHamilton":7008,"Ġtropical":7009,"aren":7010,"ĠIV":7011,"ĠHoward":7012,"Ġraid":7013,"Ġkilomet":7014,"Ġcommit":7015,"Ġfly":7016,"ghan":7017,"Ġadjacent":7018,"Ġintroduction":7019,"ĠJess":7020,"Ġmicro":7021,"Ġunus":7022,"ĠMember":7023,"ordan":7024,"Ġrevolution":7025,"Ġgraph":7026,"Ġcod":7027,"Ġsections":7028,"ĠMedal":7029,"ructure":7030,"bar":7031,"Ġbenef":7032,"Ġmap":7033,"ĠFM":7034,"ĠMagazine":7035,"Ġmissing":7036,"Ġcoordin":7037,"odox":7038,"Ġresistance":7039,"ĠJay":7040,"Ġconvent":7041,"ĠBeng":7042,"Ġfit":7043,"Ġdescript":7044,"Ġattached":7045,"term":7046,"oto":7047,"Ġgarden":7048,"Ġdifference":7049,"Ġsuperv":7050,"Ġcomic":7051,"Ġancest":7052,"wealth":7053,"ommod":7054,"ĠIslamic":7055,"Ġcarrying":7056,"Ġ1925":7057,"ĠRoy":7058,"So":7059,"Ġpremiered":7060,"Ġpione":7061,"Ġislands":7062,"Ġcommitted":7063,"hetic":7064,"ĠBurn":7065,"Ġselling":7066,"Ġ39":7067,"heme":7068,"Ġnodd":7069,"urday":7070,"Ġmusicians":7071,"ĠBrigade":7072,"Ġextension":7073,"Ġtail":7074,"anged":7075,"ĠForeign":7076,"Ġhistorian":7077,"ĠAli":7078,"Ġwriters":7079,"Ġexperienced":7080,"ĠDown":7081,"ĠNich":7082,"Ġgene":7083,"anges":7084,"ĠSecurity":7085,"ĠArmen":7086,"Ġjazz":7087,"aser":7088,"ĠSwiss":7089,"ques":7090,"aughters":7091,"As":7092,"ĠCroat":7093,"Ġoperates":7094,"Ġbusinesses":7095,"ĠTelevision":7096,"ĠWy":7097,"Ġ1923":7098,"ĠDomin":7099,"Ġturning":7100,"Ġconstituency":7101,"Ġwatched":7102,"point":7103,"Ġequival":7104,"ikh":7105,"vant":7106,"ĠBab":7107,"Ġtries":7108,"angers":7109,"Ġ1915":7110,"Ġremov":7111,"ĠSquare":7112,"Ġseventh":7113,"ĠStaff":7114,"Ġban":7115,"aza":7116,"Ġpainted":7117,"Ġshoulder":7118,"Ġ1916":7119,"Ġchurches":7120,"Do":7121,"Ġlicens":7122,"Ġmedium":7123,"ĠMean":7124,"eline":7125,"IT":7126,"Ġdebuted":7127,"dam":7128,"ĠJoh":7129,"ĠRural":7130,"Ġmessage":7131,"Ġeat":7132,"Ġ:":7133,"ĠTs":7134,"IN":7135,"ĠServices":7136,"Ġgoods":7137,"ilst":7138,"Ġsmiled":7139,"ĠSum":7140,"agu":7141,"Ġdecade":7142,"Ġcharges":7143,"Ġexamples":7144,"ĠGib":7145,"Ġengineer":7146,"ĠAbd":7147,"DP":7148,"Ġrailroad":7149,"ĠEngineering":7150,"Ġ1926":7151,"Ġdesigns":7152,"Ġsuburb":7153,"Ġcharged":7154,"ducing":7155,"don":7156,"//":7157,"Ġuniform":7158,"kh":7159,"Ġexpand":7160,"ĠUkrain":7161,"Ġreplace":7162,"Ġdelivered":7163,"anches":7164,"ĠOt":7165,"icial":7166,"Ġfired":7167,"ĠHur":7168,"ĠEarly":7169,"Ġbiggest":7170,"Ġenl":7171,"ĠWalter":7172,"Ġextremely":7173,"rac":7174,"Ġisol":7175,"olt":7176,"Ġnorthwest":7177,"abled":7178,"ĠHere":7179,"Ġsecretary":7180,"Ġadvoc":7181,"Be":7182,"Ġrating":7183,"apping":7184,"ĠPalest":7185,"Ġotherwise":7186,"Ġvo":7187,"Ġtra":7188,"Ġwave":7189,"Ġtheat":7190,"Ġegg":7191,"Ġpresidential":7192,"Ġphilosophy":7193,"ugar":7194,"Ġmir":7195,"Ġrejected":7196,"Ġzone":7197,"ĠMarine":7198,"ĠLes":7199,"Ġproced":7200,"ĠLieutenant":7201,"ĠDal":7202,"Ġwait":7203,"El":7204,"Ġcapture":7205,"Ġregiment":7206,"Ġpoll":7207,"ieval":7208,"Ġassault":7209,"icate":7210,"roit":7211,"ĠDiego":7212,"enny":7213,"ĠBuilding":7214,"Äį":7215,"anny":7216,"Ġwounded":7217,"resents":7218,"ĠTransport":7219,"ĠGreece":7220,"ĠPrim":7221,"Ġdetermine":7222,"uv":7223,"Ġheads":7224,"John":7225,"Ġnote":7226,"ĠReview":7227,"ĠAnne":7228,"ĠForces":7229,"ĠLow":7230,"Ġcomposition":7231,"68":7232,"ĠTel":7233,"Ġsnow":7234,"ĠBrian":7235,"Ġteachers":7236,"claimed":7237,"aired":7238,"Ġaccommod":7239,"Ġthousands":7240,"Ġaccur":7241,"ĠRem":7242,"Ġbatt":7243,"Ġdeleg":7244,"avia":7245,"Ġspr":7246,"ogether":7247,"ĠPot":7248,"ĠFame":7249,"ĠKentucky":7250,"Ġfing":7251,"Ġnotably":7252,"ĠFront":7253,"Ġterror":7254,"Ġdamaged":7255,"ching":7256,"Ġowners":7257,"season":7258,"Ġdegrees":7259,"rine":7260,"who":7261,"Ġresemb":7262,"ĠEntertainment":7263,"unnel":7264,"ĠNaval":7265,"Ġsitting":7266,"Ġpiano":7267,"Ġped":7268,"Ġlooks":7269,"Ġsession":7270,"Ġmarine":7271,"ĠAnderson":7272,"ĠDougl":7273,"ĠPa":7274,"agen":7275,"Ġhappy":7276,"ĠMit":7277,"ĠHollywood":7278,"://":7279,"ĠIsraeli":7280,"ĠZh":7281,"Ġdrew":7282,"ĠKey":7283,"obe":7284,"ĠOak":7285,"Ġmo":7286,"atically":7287,"ĠDiv":7288,"Ġpurposes":7289,"43":7290,"Ġcourts":7291,"Ġprize":7292,"Ġpriest":7293,"Ġwants":7294,"Ġseparated":7295,"Ġpassengers":7296,"Ġarrival":7297,"Ġdepth":7298,"Ġcinem":7299,"Ġrepresents":7300,"Ġintelligence":7301,"ĠSquadron":7302,"Ġbag":7303,"Ġresidential":7304,"ĠInternet":7305,"Ġdispl":7306,"Ġelectronic":7307,"ĠKa":7308,"Ġaccompanied":7309,"ĠHeart":7310,"Ġrub":7311,"burn":7312,"ĠFamily":7313,"thew":7314,"ayed":7315,"ĠColomb":7316,"Ġrelief":7317,"ĠBowl":7318,"ĠHockey":7319,"Ġbot":7320,"rot":7321,"ĠRen":7322,"Ġdocuments":7323,"Ġsty":7324,"ĠAud":7325,"ĠHouston":7326,"ĠList":7327,"Ġrefuge":7328,"Ġsurg":7329,"aron":7330,"orry":7331,"istol":7332,"Ġwooden":7333,"ĠIS":7334,"iley":7335,"ĠDur":7336,"only":7337,"Ġracial":7338,"Ġpoverty":7339,"Ġfinding":7340,"adi":7341,"If":7342,"ture":7343,"Ġretained":7344,"Ġappropri":7345,"pes":7346,"Ġstarred":7347,"level":7348,"Ġstages":7349,"79":7350,"know":7351,"Ã¼r":7352,"Ġpushed":7353,"Ġaw":7354,"Ġsequence":7355,"RC":7356,"arsh":7357,"Ġsight":7358,"ĠCommonwealth":7359,"Ġplate":7360,"Ġupd":7361,"Ġfactors":7362,"Ġcoff":7363,"Ġham":7364,"Ġuser":7365,"Ġchallenge":7366,"ĠRa":7367,"Re":7368,"iller":7369,"Ġsed":7370,"ĠArk":7371,"Ġobserv":7372,"ĠVis":7373,"Ġduties":7374,"Ġnodded":7375,"asts":7376,"oa":7377,"Ġresponsibility":7378,"Ġvocals":7379,"ĠNat":7380,"Ġconqu":7381,"rene":7382,"ĠMississ":7383,"enh":7384,"Ġmolec":7385,"argo":7386,"Ġrenov":7387,"ĠAdditionally":7388,"usal":7389,"ingly":7390,"Ġcapable":7391,"Ġlawyer":7392,"ĠImperial":7393,"dale":7394,"ĠWolf":7395,"ceived":7396,"ĠPatrick":7397,"Ġcollaboration":7398,"Ġshooting":7399,"ĠDoctor":7400,"__":7401,"ĠSenior":7402,"pper":7403,"Ġteen":7404,"Ġoverl":7405,"ĠAD":7406,"ĠBelg":7407,"Ġfixed":7408,"Ġinvestment":7409,"Ġcris":7410,"ĠMayor":7411,"Ġsatisf":7412,"iami":7413,"ĠBuck":7414,"ĠAllen":7415,"Ġinher":7416,"Ġdoct":7417,"ĠColl":7418,"ĠFund":7419,"Ġcredited":7420,"ĠKu":7421,"des":7422,"Ġbishop":7423,"mi":7424,"rum":7425,"hus":7426,"ippi":7427,"ĠHotel":7428,"ĠConnect":7429,"Ġseeing":7430,"Ġvary":7431,"ĠAle":7432,"ĠEric":7433,"86":7434,"Ġtransition":7435,"Ġreturns":7436,"Ġnone":7437,"usted":7438,"Ġrestored":7439,"Star":7440,"ĠSound":7441,"ĠRegional":7442,"Ġresign":7443,"uster":7444,"Ġthirty":7445,"Ġcommunication":7446,"do":7447,"ĠHans":7448,"ĠQuebec":7449,"ompl":7450,"ÃŃa":7451,"stan":7452,"Ġsteps":7453,"Ġframe":7454,"Ġpersons":7455,"po":7456,"di":7457,"aste":7458,"thodox":7459,"uly":7460,"ĠReal":7461,"Ġretail":7462,"Ġmanner":7463,"ception":7464,"Ġrecip":7465,"ĠFarm":7466,"million":7467,"Pr":7468,"Ġveter":7469,"Ġhelping":7470,"190":7471,"Ġwheel":7472,"ĠHills":7473,"Ġdating":7474,"aire":7475,"osure":7476,"hammad":7477,"Ġencounter":7478,"Ġhits":7479,"ĠLanc":7480,"Ġsubjects":7481,"ĠUkrainian":7482,"Ġbaby":7483,"ĠNik":7484,"insula":7485,"ĠVillage":7486,"Ġ42":7487,"Ġoffering":7488,"ext":7489,"ĠFrederick":7490,"ĠInstead":7491,"evin":7492,"ĠMerc":7493,"Ġarranged":7494,"Ġmilit":7495,"Ġtalking":7496,"Ġmembership":7497,"Ġcovering":7498,"Ġfan":7499,"ĠGri":7500,"Ġcomput":7501,"ĠRoc":7502,"rome":7503,"Ġsignificantly":7504,"Ġliqu":7505,"ogen":7506,"Ġsuggests":7507,"Ġ1911":7508,"acc":7509,"ieties":7510,"Ġinstitution":7511,"ĠChairman":7512,"Ġcous":7513,"Ġ1913":7514,"Ġroutes":7515,"Ġstruck":7516,"Ġunsuccess":7517,"ardens":7518,"ĠAM":7519,"ĠBry":7520,"oles":7521,"inding":7522,"ĠAlab":7523,"Ġgrown":7524,"rafted":7525,"kay":7526,"uerto":7527,"ĠRyan":7528,"Ġrenew":7529,"vements":7530,"iable":7531,"ĠRun":7532,"ĠGordon":7533,"ĠLtd":7534,"angel":7535,"jo":7536,"Ã³w":7537,"Ġhadn":7538,"Ġinnov":7539,"ĠRet":7540,"ogan":7541,"ifications":7542,"Ġtank":7543,"icon":7544,"Ġcredit":7545,"etime":7546,"body":7547,"Ph":7548,"Ġforg":7549,"Ġcriticized":7550,"Ġcontributions":7551,"ĠDanish":7552,"oly":7553,"Ġdefeating":7554,"Ġconvinc":7555,"AM":7556,"Ġdivor":7557,"Ġsoutheast":7558,"rently":7559,"Ġensure":7560,"AP":7561,"ĠAdministration":7562,"ĠArgentina":7563,"igenous":7564,"aux":7565,"stances":7566,"ners":7567,"Ġcolour":7568,"ĠHug":7569,"pa":7570,"Ġclim":7571,"ĠÄ":7572,"Ġwine":7573,"Ġplanet":7574,"Ġpopularity":7575,"IV":7576,"Ġ1890":7577,"ads":7578,"Ġrestaurant":7579,"Ġjump":7580,"ĠSarah":7581,"ishment":7582,"Ġbringing":7583,"Ġlips":7584,"Ġmeasures":7585,"64":7586,"olly":7587,"ĠClin":7588,"ĠDick":7589,"Ġprotected":7590,"avig":7591,"Ġaer":7592,"ĠPlan":7593,"Ġgrab":7594,"ĠThird":7595,"Ġempt":7596,"ĠGrant":7597,"ĠChile":7598,"Ġgather":7599,"acher":7600,"lahoma":7601,"Ġfactor":7602,"Ġraise":7603,"ĠSilver":7604,"Ġsevere":7605,"TS":7606,"ĠSel":7607,"ĠJordan":7608,"Ġ55":7609,"idel":7610,"Ġaccompl":7611,"ĠBou":7612,"Ġmusician":7613,"ĠAC":7614,"icut":7615,"Ġsurrounded":7616,"Ġphen":7617,"Ġweekend":7618,"ĠPrix":7619,"Ġpreced":7620,"ĠDetroit":7621,"oen":7622,"Ġoption":7623,"Ġexplos":7624,"BI":7625,"related":7626,"aned":7627,"Ġaspects":7628,"hab":7629,"Ġassistance":7630,"ĠGallery":7631,"Ġflowers":7632,"88":7633,"Man":7634,"ĠDublin":7635,"Ġpublishing":7636,"ĠDesign":7637,"Ġsouthwest":7638,"For":7639,"ellite":7640,"ĠAnna":7641,"Ġfranchise":7642,"Ġgang":7643,"ĠMoore":7644,"Ġexactly":7645,"Ġinvolving":7646,"ĠCommunist":7647,"67":7648,"Ġtranslated":7649,"Ġcompr":7650,"ĠSamuel":7651,"Ġtied":7652,"istant":7653,"Ġvision":7654,"Ġcrossing":7655,"Ġutil":7656,"issance":7657,"ĠMeanwhile":7658,"election":7659,"Ġclassic":7660,"ĠDouglas":7661,"Ġbear":7662,"Ġcontext":7663,"Ġneighbour":7664,"Ġ1908":7665,"Ġveget":7666,"Ġreleg":7667,"Ġchampions":7668,"Ġpainter":7669,"Ġspend":7670,"eries":7671,"ĠCEO":7672,"Ġpolicies":7673,"host":7674,"avalry":7675,"Ġnaval":7676,"Ġdaughters":7677,"odge":7678,"Ġcycle":7679,"ĠAlabama":7680,"ĠHarvard":7681,"ĠAdv":7682,"found":7683,"arant":7684,"otte":7685,"ĠBart":7686,"Ġroughly":7687,"ĠDave":7688,"Ġsomewhat":7689,"Ġexception":7690,"Ġdefensive":7691,"Ġdifferences":7692,"Ġmyth":7693,"ĠYouth":7694,"ĠCemetery":7695,"Ġdevices":7696,"Ġdemocr":7697,"ĠIowa":7698,"ĠEc":7699,"uzz":7700,"ilk":7701,"ĠAlbum":7702,"edding":7703,"Ġinterpret":7704,"Ġarchae":7705,"ĠAnthony":7706,"Ġfaculty":7707,"Ġopinion":7708,"Ġmobile":7709,"Ġcomfort":7710,"ĠRepresentatives":7711,"69":7712,"eor":7713,"Ġwinners":7714,"Ġpointed":7715,"ĠRy":7716,"inch":7717,"borough":7718,"ĠHarris":7719,"ĠModern":7720,"Äĥ":7721,"Ġanniversary":7722,"Ġtheater":7723,"ĠHawai":7724,"ĠPuerto":7725,"Ġauthors":7726,"ĠLyn":7727,"Ġsolution":7728,"inburgh":7729,"ĠDean":7730,"Ġrequires":7731,"TO":7732,"Ġbare":7733,"Ġflows":7734,"Ġconcerns":7735,"ĠChildren":7736,"Ġplane":7737,"Ġappearing":7738,"angerous":7739,"raph":7740,"ĠVienn":7741,"There":7742,"coming":7743,"uma":7744,"Ġmedicine":7745,"ĠLouisiana":7746,"Ġprovincial":7747,"Ġscholar":7748,"Ġlegislation":7749,"bass":7750,"ĠOfficer":7751,"Ġsurre":7752,"Ġsam":7753,"EE":7754,"Ġorganisation":7755,"Ġrelative":7756,"rix":7757,"Ġmeters":7758,"Ġmarry":7759,"Ġmining":7760,"rons":7761,"ĠAfghan":7762,"But":7763,"Ġinstance":7764,"Ġlinked":7765,"ĠSin":7766,"car":7767,"ĠMand":7768,"ĠRailroad":7769,"Ġrates":7770,"Ġtur":7771,"Ġmurd":7772,"Ġfrag":7773,"Ġlanding":7774,"Ġwalking":7775,"Ġfalls":7776,"ribute":7777,"overs":7778,"ĠTournament":7779,"star":7780,"ĠStew":7781,"ĠOklahoma":7782,"ĠRick":7783,"ĠSpace":7784,"Ġuniversities":7785,"Ġcommune":7786,"ĠMiami":7787,"Ġadapted":7788,"ĠMatthew":7789,"mosp":7790,"ĠCommander":7791,"ĠChart":7792,"ĠTaiwan":7793,"ĠDenmark":7794,"Ġtack":7795,"ĠBrun":7796,"Ġnovels":7797,"hyth":7798,"idges":7799,"ĠPear":7800,"ĠOttoman":7801,"Ġru":7802,"ĠJuan":7803,")\"":7804,"Ġnickn":7805,"ĠMorgan":7806,"iece":7807,"ĠSon":7808,"otten":7809,"Ġmountains":7810,"Ġhorses":7811,"Ġrent":7812,"ĠPhill":7813,"ĠNa":7814,"Ġenh":7815,"ĠCost":7816,"ĠInn":7817,"ĠPict":7818,"ĠMountains":7819,"Ġdowntown":7820,"Ġthreatened":7821,"cription":7822,"Ġprotest":7823,"uscript":7824,"ĠNY":7825,"ĠDeputy":7826,"ĠCooper":7827,"ĠBelgium":7828,".'":7829,"mers":7830,"eland":7831,"iac":7832,"Ġrealized":7833,"oyd":7834,"Ġphotograph":7835,"Ġkingdom":7836,"Ne":7837,"Ġconcerned":7838,"ĠBerg":7839,"Ġfur":7840,"ĠWin":7841,"Ġimprison":7842,"Ġbranches":7843,"Ġpapers":7844,"hess":7845,"ĠRey":7846,"die":7847,"Ġsuddenly":7848,"Ġsuccessor":7849,"Ġcolonial":7850,"ĠTreat":7851,"ante":7852,"elson":7853,"ĠLank":7854,"ĠMississippi":7855,"Ġstepped":7856,"Ġbrig":7857,"Ġexpert":7858,"atherine":7859,"Ġclassified":7860,"ĠFive":7861,"Ġ(),":7862,"wen":7863,"ĠConstitution":7864,"ĠMcK":7865,"Ġweekly":7866,"Ġreputation":7867,"Ġbanks":7868,"Ġkeeping":7869,"ista":7870,"Ġconstant":7871,"phone":7872,"ĠDC":7873,"ĠConc":7874,"ĠPap":7875,"enez":7876,"lad":7877,"pir":7878,"Ġ]":7879,"arner":7880,"ĠKam":7881,"Ġmissed":7882,"ĠGulf":7883,"Ġparallel":7884,"Ġseed":7885,"ĠKarl":7886,"Ġachieve":7887,"ĠEdinburgh":7888,"ĠBack":7889,"Ġsecure":7890,"ĠEag":7891,"Ġbenefit":7892,"Ġspiritual":7893,"cons":7894,"Ġanth":7895,"Ġalco":7896,"Ġupgr":7897,"ĠGerm":7898,"ĠMontreal":7899,"Ġtechnique":7900,"owed":7901,"Ġchildhood":7902,"ĠBrazilian":7903,"Ġadding":7904,"ardo":7905,"Ġmassive":7906,"72":7907,"Ġpractices":7908,"ĠRoberts":7909,"encing":7910,"Ġaffect":7911,"Ġownership":7912,"Ġexisted":7913,"Ġactors":7914,"Well":7915,"Ġasks":7916,"struct":7917,"On":7918,"imore":7919,"ĠSR":7920,"ĠBattalion":7921,"Ġfold":7922,"ĠLiver":7923,"ĠReserve":7924,"profit":7925,"ĠBaseball":7926,"ĠKelly":7927,"Ġpublications":7928,"Ġwearing":7929,"Ġstorage":7930,"Ġthousand":7931,"ĠPolit":7932,"ĠPalace":7933,"Ġscheme":7934,"Ġdivisions":7935,"ĠNev":7936,"Ġequivalent":7937,"General":7938,"Ġentering":7939,"eff":7940,"Ġdies":7941,"ĠCare":7942,"Ġvictims":7943,"ĠLin":7944,"Ġrecru":7945,"utt":7946,"Ġdoors":7947,"ĠTamil":7948,"erk":7949,"ĠUkraine":7950,"pective":7951,"Ġsoil":7952,"Ġformally":7953,"Ġstudying":7954,"Ġreplied":7955,"ellect":7956,"inian":7957,"98":7958,"Ġteach":7959,"Ġprisoners":7960,"Ġrequirements":7961,"ĠExpress":7962,"Ġcrisis":7963,"agg":7964,"SC":7965,"allas":7966,"ifer":7967,"ĠDisney":7968,"Ġrefere":7969,"ĠHamp":7970,"ĠLive":7971,"iliar":7972,"ĠTerrit":7973,"mate":7974,"iter":7975,"Ġdepos":7976,"Ġprompt":7977,"Ġcarbon":7978,"atever":7979,"ĠOrchestra":7980,"acle":7981,"igious":7982,"Ġpeaked":7983,"amps":7984,"Ġforming":7985,"Ġx":7986,"Ġmental":7987,"Ġtesting":7988,"eenth":7989,"ui":7990,"ĠAustrian":7991,"Ġreplacement":7992,"62":7993,"ĠRugby":7994,"Ġwet":7995,"from":7996,"Ġgender":7997,"miral":7998,"ĠAlan":7999,"Ġ1880":8000,"ĠIndependent":8001,"ĠCow":8002,"oria":8003,"Ġjuris":8004,"ĠSaturday":8005,"ĠSee":8006,"sch":8007,"ĠErn":8008,"Con":8009,"58":8010,"ĠPitts":8011,"Ġcamera":8012,"Ġpret":8013,"ĠUC":8014,"Ġincreasingly":8015,"Ġconsiderable":8016,"Ġcards":8017,"ĠColonel":8018,"door":8019,"Ġunp":8020,"ivated":8021,"Ġcouples":8022,"acon":8023,"Ġfingers":8024,"Ġcoastal":8025,"eway":8026,"Ġclearly":8027,"ework":8028,"Ġobvious":8029,"ĠShah":8030,"Ġ1905":8031,"ĠConnecticut":8032,"ĠMargaret":8033,"Ġhosts":8034,"Ġtie":8035,"Ġnotice":8036,"Ġcelebrated":8037,"Ġdeclined":8038,"ĠAge":8039,"ĠAtlanta":8040,"Ġtranslation":8041,"ĠWelsh":8042,"ĠDig":8043,"De":8044,"Ġfal":8045,"ĠNag":8046,"ĠAssoci":8047,"Ġspoken":8048,"Ġcompetitions":8049,"Ġtemporary":8050,"asters":8051,"\":":8052,"Ġsquadron":8053,"Ġlose":8054,"uri":8055,"ĠEle":8056,"En":8057,"Ġadvis":8058,"ĠAntonio":8059,"ĠABC":8060,"ĠPrin":8061,"bal":8062,"):":8063,"Ġcomponents":8064,"ĠUnlike":8065,"Ġvisitors":8066,"Ġoverse":8067,"Ġindicated":8068,"Ġweapon":8069,"Ġjustice":8070,"Ġmeets":8071,"Ġbath":8072,"Ġearn":8073,"Ġstrongly":8074,"Ġapartment":8075,"Ġinstruments":8076,"Ġcriticism":8077,"intend":8078,"Ġfruit":8079,"EA":8080,"Ġvisible":8081,"Ġfict":8082,"Ġ1906":8083,"hew":8084,"umped":8085,"Ġexperiences":8086,"Ġconcrete":8087,"Ġdiagn":8088,"Ġfer":8089,"Ġbright":8090,"Ġcharts":8091,"Ġappointment":8092,"ĠSky":8093,"Ġbeach":8094,"lete":8095,"ĠCarn":8096,"IP":8097,"unes":8098,"Ġabsor":8099,"ĠLam":8100,"ĠIron":8101,"enses":8102,"Ġfishing":8103,"exp":8104,"ĠRights":8105,"olid":8106,"Ġoccupation":8107,"ounced":8108,"III":8109,"Ġdrawing":8110,"tenance":8111,"ĠLaure":8112,"Ġrend":8113,"Ġwhis":8114,"ĠPC":8115,"Ġdebate":8116,"Ġchanging":8117,"May":8118,"Ġwel":8119,"ĠCrown":8120,"ĠRow":8121,"veland":8122,"ĠCru":8123,"ĠFA":8124,"Ġinfluential":8125,"olph":8126,"Ġeleven":8127,"rat":8128,"Ġtheore":8129,"using":8130,"ĠKevin":8131,"tic":8132,"tan":8133,"Ġshook":8134,"mina":8135,"Ind":8136,"emor":8137,"Ġtight":8138,"Pro":8139,"Ġcoverage":8140,"ĠAlexand":8141,"Ġstrategy":8142,"Ġmovements":8143,"Ġcolleg":8144,"Ġ1907":8145,"Ġtelling":8146,"Ġdesire":8147,"Ġassass":8148,"ĠKennedy":8149,"ĠBan":8150,"rett":8151,"Ġrif":8152,"Ã©s":8153,"ĠLawrence":8154,"Ġexpedition":8155,"Ad":8156,"nold":8157,"Ġprocesses":8158,"Ġpitch":8159,"ĠWhe":8160,"Ġapparently":8161,"Ġforests":8162,"ĠCook":8163,"emen":8164,"ĠDNA":8165,"Ġmedieval":8166,"Ġplus":8167,"Ġmanuscript":8168,"ĠPhys":8169,"Ġ41":8170,"story":8171,"Ġdated":8172,"71":8173,"Ġfiled":8174,"called":8175,"Ġoccasions":8176,"Ġtherap":8177,"ĠStudios":8178,"rehens":8179,"top":8180,"63":8181,"Ġguitarist":8182,"Ġenjoyed":8183,"Ġdeputy":8184,"ĠWalker":8185,"Ġspeaking":8186,"ĠKaz":8187,"edia":8188,"Ġsynd":8189,"Ġhung":8190,"ĠCass":8191,"Ġpoem":8192,"74":8193,"Ġmarkets":8194,"ĠPortugal":8195,"ĠLiverpool":8196,"ĠSport":8197,"Ġnations":8198,"Ġannually":8199,"Ġproposal":8200,"Ġheritage":8201,"59":8202,"ĠNever":8203,"Ġacknow":8204,"Ġwatching":8205,"Ġlasted":8206,"ĠVienna":8207,"ĠBes":8208,"Ġrapidly":8209,"udi":8210,"ĠTrib":8211,"ĠHell":8212,"ci":8213,"Ġtennis":8214,"ĠCleveland":8215,"Ġcrossed":8216,"Ġalive":8217,"Ġdynasty":8218,"ĠFil":8219,"osm":8220,"Ġaccounts":8221,"ancer":8222,"Ġchoose":8223,"itter":8224,"ĠAy":8225,"Ġ1909":8226,"ando":8227,"ĠSeattle":8228,"Ġassembly":8229,"rik":8230,"Ġwick":8231,"Ġvessels":8232,"ocol":8233,"ĠMicro":8234,"ni":8235,"ibl":8236,"Ġshore":8237,"LC":8238,"Ġoffensive":8239,"Ġcited":8240,"Ġinner":8241,"amic":8242,"ĠMetropolitan":8243,"Wh":8244,"ĠHeritage":8245,"bel":8246,"61":8247,"Ġevolution":8248,"Ġprohib":8249,"Ġkitchen":8250,"Ġqualifying":8251,"pping":8252,"astery":8253,"opher":8254,"Ġsufficient":8255,"Ġwithdraw":8256,"ĠEver":8257,"Ġoccasionally":8258,"Ġhearing":8259,"ench":8260,"ĠDeb":8261,"Ġoutput":8262,"ĠYug":8263,"arest":8264,"ighters":8265,"Ġfilmed":8266,"Ġtreated":8267,"Ġhundreds":8268,"Ġcontinuing":8269,"estyle":8270,"Ġfil":8271,"Ġelder":8272,"Ġunusual":8273,"ĠFern":8274,"Ġacted":8275,"erted":8276,"Ġrecept":8277,"Ġgar":8278,"Ġexcell":8279,"ĠTokyo":8280,"Ġvic":8281,"Ġmakeup":8282,"Ġlosses":8283,"ĠWho":8284,"Ġsigning":8285,"ribed":8286,"hard":8287,"ige":8288,"Ġeval":8289,"Ġworship":8290,"Ġaffairs":8291,"Can":8292,"Ġartillery":8293,"Ġgraduating":8294,"Ġfurn":8295,"ĠKings":8296,"rastructure":8297,"ĠĠ":8298,"Ġpregn":8299,"Ġdenied":8300,"ĠLocal":8301,"ĠPeters":8302,"Ġrecordings":8303,"ĠMalaysia":8304,"52":8305,"Ġpure":8306,"Ġassign":8307,"ĠWithin":8308,"ĠHop":8309,"rm":8310,"Ġreplacing":8311,"Ġtraveled":8312,"Ġurg":8313,"ĠLegislative":8314,"Ġnet":8315,"Ġtex":8316,"Ġmemorial":8317,"Ġprime":8318,"Ġatmosp":8319,"andom":8320,"Ġextens":8321,"--":8322,"aware":8323,"Ġattracted":8324,"itals":8325,"break":8326,"ĠPun":8327,"merce":8328,"oves":8329,"mus":8330,"Ġappeal":8331,"Ġfalling":8332,"ĠFac":8333,"eron":8334,"OR":8335,"ĠPed":8336,"ĠAgency":8337,"ĠBush":8338,"orf":8339,"Ġtools":8340,"Ġsurf":8341,"ĠLev":8342,"Ġsurviving":8343,"ĠLane":8344,"ÅŁ":8345,"ymn":8346,"Ġneut":8347,"Ġrounds":8348,"abel":8349,"Ġunderground":8350,"acked":8351,"town":8352,"ĠOperation":8353,"Pl":8354,"ĠBud":8355,"lock":8356,"Ġbegun":8357,"PC":8358,"ĠIndonesia":8359,"ĠDark":8360,"08":8361,"rated":8362,"hips":8363,"Ġintention":8364,"ĠMaur":8365,"Ġgrey":8366,"Ġneither":8367,"Ġapproval":8368,"ogy":8369,"\"\"":8370,"ĠHand":8371,"ĠHispan":8372,"ĠKer":8373,"ographical":8374,"cing":8375,"Ġartistic":8376,"ĠConservative":8377,"Ex":8378,"ĠOd":8379,"Ġvessel":8380,"Ġ1904":8381,"Ġcompletion":8382,"Ġsky":8383,"ĠFal":8384,"Ġmanufacturing":8385,"pered":8386,"Ġprint":8387,"Ġboundary":8388,"Ġpric":8389,"Se":8390,"Ġgate":8391,"ĠAlliance":8392,"Ġhurt":8393,"ĠHungarian":8394,"Ġuseful":8395,"Ġlap":8396,"Ġsounds":8397,"ĠPow":8398,"ĠMond":8399,"ĠOriginally":8400,"Ġsees":8401,"Ã¥":8402,"ĠUpper":8403,"ctic":8404,"ĠBeat":8405,"ultan":8406,"Ġrivers":8407,"ĠRoger":8408,"Ġlicense":8409,"hand":8410,"ĠBaltimore":8411,"Ġnom":8412,"ĠSoon":8413,"ĠConvention":8414,"09":8415,"ĠSud":8416,"Ġhat":8417,"pha":8418,"ĠNob":8419,"Ġemergency":8420,"ĠInit":8421,"mingham":8422,"Ġsubmar":8423,"rapped":8424,"Ġdangerous":8425,"Ġeliminated":8426,"atin":8427,"ĠUnt":8428,"Ġcompeting":8429,"ration":8430,"leased":8431,"rip":8432,"Ġmagic":8433,"Ġwhilst":8434,"amental":8435,"antasy":8436,"Ġmodified":8437,"ĠTit":8438,"Ġmob":8439,"Ġillegal":8440,"Ġcousin":8441,"prise":8442,"ĠAlong":8443,"Ġreun":8444,"Ġdescribe":8445,"ĠJason":8446,"ulating":8447,"ĠDefense":8448,"vey":8449,"Ġride":8450,"inction":8451,"ĠGarden":8452,"Ġsoundtrack":8453,"ĠTar":8454,"ĠVar":8455,"gress":8456,"ĠCole":8457,"essions":8458,"sea":8459,"atern":8460,"gun":8461,"%,":8462,"ruption":8463,"Ġattorney":8464,"ĠCrit":8465,"Ġcrop":8466,"Ġwides":8467,"izon":8468,"Ġster":8469,"Ġloyal":8470,"ĠHonor":8471,"apolis":8472,"ĠHungary":8473,"gow":8474,"Ġ1870":8475,"Ġemerged":8476,"Ġamongst":8477,"Ġfled":8478,"Ġpanel":8479,"MP":8480,"bishop":8481,"Ġspending":8482,"oviÄĩ":8483,"ĠBull":8484,"Ġgreatly":8485,"Ġeffectively":8486,"Ġresponded":8487,"Ġlists":8488,"89":8489,"Ġtact":8490,"Ġwedding":8491,"eah":8492,"ĠCall":8493,"ĠDa":8494,"Ġsupplies":8495,"ĠSi":8496,"ĠLang":8497,"Ġstress":8498,"Ġfest":8499,"Ġfrequency":8500,"iege":8501,"ĠOrthodox":8502,"Ġlaugh":8503,"ĠJudge":8504,"ĠEvent":8505,"bra":8506,"Ġfinals":8507,"ĠRub":8508,"Ġmedals":8509,"Ġrestrict":8510,"Ġhabitat":8511,"Ġcrash":8512,"ĠOpera":8513,"ĠAustin":8514,"Ġwish":8515,"force":8516,"Ġmeetings":8517,"ĠRap":8518,"Ġcontroversial":8519,"73":8520,"Ġcircuit":8521,"Ġisn":8522,"Ġ1902":8523,"Ġinvolvement":8524,"Ġequipped":8525,"ĠBeck":8526,"orig":8527,"Ġdecline":8528,"SS":8529,"ĠVinc":8530,"Ġedited":8531,"ĠChen":8532,"ĠDisc":8533,"ĠMoon":8534,"Ġagree":8535,"Ġmonument":8536,"theless":8537,"Ġ1901":8538,"ĠSenator":8539,"Ġdistinguished":8540,"Ġjurisd":8541,"Ġamateur":8542,"ĠAgain":8543,"ĠLas":8544,"finals":8545,"ĠSchools":8546,"ĠMission":8547,"ĠCampbell":8548,"ĠLower":8549,"ĠBangl":8550,"ON":8551,"raction":8552,"Ġ52":8553,"ielder":8554,"ET":8555,"Ġexecuted":8556,"ĠSingh":8557,"Ġchapter":8558,"Ġcollections":8559,"Ġhonour":8560,"ĠMeth":8561,"ĠStewart":8562,"elli":8563,"ĠConfeder":8564,"ĠBuff":8565,"Ġfacing":8566,"ĠMach":8567,"Ġvisiting":8568,"Ġbattles":8569,"pat":8570,"Ġpatient":8571,"Ġ43":8572,"Will":8573,"ĠCathedral":8574,"ĠRio":8575,"ĠPA":8576,"Ġsuffering":8577,"pread":8578,"ĠDream":8579,"bach":8580,"bi":8581,"Ġ120":8582,"anne":8583,"Ġcoffee":8584,"Ġnormally":8585,"arc":8586,"ĠNazi":8587,"Ġrecommend":8588,"ossible":8589,"Ġsuicide":8590,"Ġdepending":8591,"Ġtone":8592,"Ġdrag":8593,"ĠYugosl":8594,"Ġnegoti":8595,"Ġshares":8596,"ĠCarter":8597,"ĠNep":8598,"Ã®":8599,"ayan":8600,"Ġminimum":8601,"ĠRussell":8602,"ĠPeace":8603,"Ġcounties":8604,"sec":8605,"orer":8606,"ĠFinally":8607,"ĠNon":8608,"Or":8609,"Ġ1903":8610,"Ġsweet":8611,"ĠBruce":8612,"ĠFinland":8613,"ĠWard":8614,"vo":8615,"Ġwhereas":8616,"Ġlin":8617,"Ġnomination":8618,"inations":8619,"iah":8620,"wall":8621,"51":8622,"rient":8623,"Ġmode":8624,"Ġbeet":8625,"54":8626,"Ġcolle":8627,"Ġeld":8628,"ĠSaf":8629,"ĠCre":8630,"ĠFather":8631,"Ġpron":8632,"ĠChall":8633,"ĠBrothers":8634,"abilities":8635,"ĠNash":8636,"Ġintellect":8637,"Ġentertainment":8638,"ĠNort":8639,"Am":8640,"Ġtests":8641,"ials":8642,"Ġexists":8643,"zh":8644,"Ġchamber":8645,"ĠYan":8646,"Ġpenalty":8647,"Ġturb":8648,"ĠDyn":8649,"graduate":8650,"ĠKy":8651,"ĠAndre":8652,"Ġswitch":8653,"ĠChampions":8654,"Ġnewspapers":8655,"appe":8656,"HS":8657,"ilty":8658,"ĠJimmy":8659,"ĠFleet":8660,"Ġeighth":8661,"anean":8662,"ĠGlas":8663,"Ġcontroversy":8664,"ĠAthletic":8665,"Ã«":8666,"Ġdesigner":8667,"Ġaggreg":8668,"Ġrecommended":8669,"Ġfile":8670,"Ġdiscip":8671,"ĠPur":8672,"Ġelevation":8673,"words":8674,"away":8675,"ĠGlobal":8676,"ĠShan":8677,"oked":8678,"Ġdefinition":8679,"ÃŃn":8680,"ĠThompson":8681,"ĠBroadway":8682,"ĠFranklin":8683,"shaped":8684,"cha":8685,"ĠPittsburgh":8686,"Ġinfantry":8687,"ĠAdams":8688,"entle":8689,"Ġrepro":8690,"Ġfriendly":8691,"Ġrecre":8692,"hyl":8693,"ĠEnvironment":8694,"Ġapproached":8695,"Ġthro":8696,"ĠMarket":8697,"Ġmoder":8698,"Ġcustomers":8699,"estone":8700,"ĠBirmingham":8701,"seud":8702,"Ġhip":8703,"Ġlob":8704,"mates":8705,"ĠGene":8706,"icop":8707,"ĠLl":8708,"Ġjobs":8709,"ĠPas":8710,"Ġintent":8711,"Ġinjuries":8712,"person":8713,"cop":8714,"otton":8715,"Ġimmediate":8716,"Ġgradually":8717,"53":8718,"GB":8719,"Mus":8720,"ĠIl":8721,"ĠLith":8722,"ĠShortly":8723,"Ġblocks":8724,"Ġmissions":8725,"Ġusual":8726,"leton":8727,"Ġcompilation":8728,"iors":8729,"ultane":8730,"Ġremainder":8731,"onna":8732,"\"-":8733,"ĠAuthority":8734,"Ġgenre":8735,"Ġrescue":8736,"OC":8737,"ĠFel":8738,"ĠPle":8739,"ĠNotable":8740,"tha":8741,"aments":8742,"ĠOp":8743,"Ġafterwards":8744,"Ġsegment":8745,"ĠChamber":8746,"ĠDallas":8747,"ĠRound":8748,"Ġcommanded":8749,"Ġversus":8750,"Ġassemb":8751,"ĠHit":8752,"ideo":8753,"Ġguy":8754,"ĠSet":8755,"ĠSn":8756,"Ġcasual":8757,"ĠMetro":8758,"FM":8759,"ĠNelson":8760,"isition":8761,"master":8762,"aman":8763,"Ġterr":8764,"earing":8765,"annels":8766,"Ġdonated":8767,"Ġlandscape":8768,"Ġcommemor":8769,"ĠChampion":8770,"orus":8771,"Ġchampionships":8772,"Ġmatters":8773,"Ġmaintenance":8774,"cm":8775,"Ġencouraged":8776,"Ġportrayed":8777,"ED":8778,"ĠMarie":8779,"Ġproport":8780,"itched":8781,"ĠLiter":8782,"otype":8783,"ĠLeban":8784,"zo":8785,"Ð¸":8786,"Ġundert":8787,"Ġ51":8788,"Ġparticipation":8789,"Ġposted":8790,"Ġexplain":8791,"ĠDonald":8792,"Ġdeparture":8793,"fire":8794,"teenth":8795,"Ġwidespread":8796,"ĠNorm":8797,"ĠHorn":8798,"las":8799,"Ġprinted":8800,"olo":8801,"ĠVictorian":8802,"Ġdirectors":8803,"ĠAlfred":8804,"Ġtrading":8805,"dy":8806,"Ġvast":8807,"ĠJosh":8808,"hythm":8809,"Ġloved":8810,"chell":8811,"Ġempty":8812,"]]":8813,"ĠWindows":8814,"uy":8815,"tra":8816,"ĠMorris":8817,"Ġcomplic":8818,"Ġpretty":8819,"Ġthemes":8820,"Ġyoungest":8821,"ĠEnergy":8822,"56":8823,"noon":8824,"ĠMarshall":8825,"Ġmovies":8826,"ĠMichel":8827,"stic":8828,"Ġvalid":8829,"Ġphr":8830,"otes":8831,"Ġ47":8832,"Ġmarketing":8833,"Ġknock":8834,"Ġsurgery":8835,"ĠBible":8836,"athy":8837,"Ġelectoral":8838,"Ġboats":8839,"Ġagents":8840,"ĠWright":8841,"Ġabsence":8842,"ĠSuch":8843,"Ġ46":8844,"Ġextent":8845,"ĠPatri":8846,"ĠJenn":8847,"ÅĦ":8848,"Ġrelationships":8849,"Ġdomain":8850,"Ġninet":8851,"ĠHindu":8852,"Ġsurprise":8853,"Why":8854,"Ã´":8855,"usalem":8856,"ĠVik":8857,"ocket":8858,"Ġshr":8859,"Ġadmin":8860,"ĠOur":8861,"Ġdiscovery":8862,"ĠBed":8863,"Ġintersection":8864,"Ġpopulations":8865,"Ġelig":8866,"Ġmart":8867,"ĠNBC":8868,"Ġtrouble":8869,"Ġpossibility":8870,"Ġodd":8871,"Ġlongest":8872,"Ġstruggle":8873,"aptist":8874,"eo":8875,"ĠJohann":8876,"Ġcable":8877,"ĠVenez":8878,"ĠKnight":8879,"ĠTig":8880,"Ġfictional":8881,"Ġrising":8882,"Ġpale":8883,"Ġblow":8884,"Ġopportunities":8885,"leans":8886,"Ġclothes":8887,"ouver":8888,"oni":8889,"Ġanch":8890,"ĠKit":8891,"urally":8892,"osph":8893,"Ġthin":8894,"Ġbreaking":8895,"ĠFall":8896,"orporated":8897,"ĠWol":8898,"ĠIndians":8899,"Ġconcerts":8900,"Ġsoccer":8901,"uated":8902,"rena":8903,"ĠHold":8904,"Ġcloud":8905,"casting":8906,"Ġyield":8907,"idency":8908,"ologists":8909,"Ġsupports":8910,"Ġchapel":8911,"arat":8912,"ĠBilly":8913,"Ġcul":8914,"Ġunderst":8915,"org":8916,"Ġcenters":8917,"Ġsigns":8918,"Ġdoubt":8919,"Ġvideos":8920,"such":8921,"case":8922,"oom":8923,"Ġexceed":8924,"athered":8925,"Ġwrites":8926,"udes":8927,"ailand":8928,"iop":8929,"ĠLib":8930,"eded":8931,"92":8932,"ĠUntil":8933,"Ġresolution":8934,"Ġsilent":8935,"ĠCBS":8936,"uh":8937,"Ġperiods":8938,"Ġbenefits":8939,"Ġteeth":8940,"Ġemployment":8941,"ĠAT":8942,"Ġcolony":8943,"Ġtribe":8944,"ĠLuke":8945,"Ġarchitectural":8946,"Ġapply":8947,"ationally":8948,"Ġdrugs":8949,"Ġsatellite":8950,"ĠHend":8951,"ĠProtest":8952,"ĠCharlie":8953,"Ġcopy":8954,"Ġlanded":8955,"ĠJose":8956,"stal":8957,"ĠInvest":8958,"style":8959,"57":8960,"abs":8961,"Ġproducers":8962,"Ġnetworks":8963,"Ġthrew":8964,"ĠInformation":8965,"icking":8966,"Ġsurvive":8967,"ĠRobinson":8968,"soft":8969,"ĠBoys":8970,"ĠSac":8971,"uj":8972,"Gr":8973,"Col":8974,"ĠWhy":8975,"Ġinstrumental":8976,"ĠAround":8977,"Ġattributed":8978,"bound":8979,"Ġaf":8980,"Ġexposed":8981,"aceae":8982,"anner":8983,"Ġdriven":8984,"Ġagriculture":8985,"forcement":8986,"ĠAgricult":8987,"96":8988,"Ġdiameter":8989,"Ġexternal":8990,"ancell":8991,"Ġmoves":8992,"avan":8993,"Qu":8994,"ĠHaving":8995,"ĠMack":8996,"Ġdestruction":8997,"Ġsupporters":8998,"Ã©t":8999,"lon":9000,"Ġclaiming":9001,"rin":9002,"GA":9003,"Ġadaptation":9004,"Ġtransportation":9005,"Ġagencies":9006,"keeper":9007,"asant":9008,"Ġgrandfather":9009,"Ġguess":9010,"Ġhell":9011,"Ġtunnel":9012,"Ġfemin":9013,"auc":9014,"ĠBrooklyn":9015,"ĠSomet":9016,"Ġtoured":9017,"ĠOrleans":9018,"Ġaimed":9019,"Ġbalance":9020,"alia":9021,"Ġ+":9022,"ĠHispanic":9023,"ean":9024,"Ġmounted":9025,"Ġpreserved":9026,"ĠProduct":9027,"Ġcommented":9028,"Ġrepresentation":9029,"Ġpassage":9030,"omes":9031,"Ġstring":9032,"mod":9033,"Ġclimb":9034,"Ġillness":9035,"Ġseeking":9036,"fam":9037,"Ġdefending":9038,"Ġcharacteristics":9039,"97":9040,"Ġsick":9041,"Ġconvention":9042,"Ġknows":9043,"Ġvenue":9044,"Ġcontested":9045,"orous":9046,"Ġbelonged":9047,"acht":9048,"ĠPubl":9049,"Ġasking":9050,"Ġcreative":9051,"ĠVoiv":9052,"ĠDak":9053,"ĠMurray":9054,"ĠArchitect":9055,"Ġadvice":9056,"Ġregime":9057,"**":9058,"iterr":9059,"Ġnoticed":9060,"Ġstable":9061,"usc":9062,"Ġadvertising":9063,"ĠHum":9064,"asa":9065,"Ġpredomin":9066,"Ġinsurance":9067,"ĠKl":9068,"Ġsimpl":9069,"Ġruling":9070,"iously":9071,"Ġbehalf":9072,"Ġdetail":9073,"ĠRomania":9074,"Ġsuspended":9075,"Ġcompetitive":9076,"ĠVic":9077,"ricane":9078,"Ġastron":9079,"á»":9080,"Ġcorporate":9081,"Ġfrequent":9082,"Ġschedule":9083,"ogs":9084,"Ġbon":9085,"Ġviewed":9086,"Ġstrict":9087,"Ġton":9088,"Ġcabinet":9089,"Ġ1898":9090,"Î±":9091,"Ġerected":9092,"ĠChand":9093,"ĠPrincess":9094,"Ġsentence":9095,"Ġaudio":9096,"ĠArkansas":9097,"ĠBeg":9098,"ĠImp":9099,"inea":9100,"Ġrecovered":9101,"Ġendemic":9102,"Ġpalace":9103,"oba":9104,"mat":9105,"Ġliquid":9106,"ounsel":9107,"Ġindicate":9108,"ĠAP":9109,"Ġsoldier":9110,"eh":9111,"Ġsubstantial":9112,"ĠGermans":9113,"ĠÃī":9114,"chi":9115,"ĠHad":9116,"ĠMong":9117,"Ġdetailed":9118,"ĠPlace":9119,"Ġparliamentary":9120,"Ġremembered":9121,"she":9122,"ĠStanley":9123,"ricted":9124,"mund":9125,"Ġinfrastructure":9126,"Ġcategories":9127,"Ġfamiliar":9128,"ĠGraham":9129,"Ġwars":9130,"Ġpercentage":9131,"rock":9132,"ĠDerby":9133,"Ġabroad":9134,"onian":9135,"ĠVeg":9136,"Ġevil":9137,"Ġclassification":9138,"ĠTraining":9139,"span":9140,"Ġdub":9141,"Ġrepresentatives":9142,"iciency":9143,"Ġdescription":9144,"ĠNorman":9145,"Ġdecide":9146,"Ġclosing":9147,"iest":9148,"ĠUtah":9149,"Ġgro":9150,"ĠJerusalem":9151,"odeship":9152,"ĠCanal":9153,"Ġattending":9154,"Ġ1860":9155,"iterranean":9156,"bean":9157,"Ġstatue":9158,"mont":9159,"orted":9160,"Ġda":9161,"ovo":9162,"ĠStev":9163,"ĠChristopher":9164,"rous":9165,"ĠNBA":9166,"Ġfifteen":9167,"Ġmanage":9168,"Ġtalent":9169,"Ġidentify":9170,"lik":9171,"Ġphenomen":9172,"ĠUE":9173,"ĠThailand":9174,"arks":9175,"ported":9176,"ĠFriend":9177,"ĠAndy":9178,"Ġgovernments":9179,"Ġdemolished":9180,"lie":9181,"uda":9182,"Ġranking":9183,"pers":9184,"Ġbid":9185,"fare":9186,"Ġratio":9187,"iveness":9188,"Ġinduct":9189,"ĠIb":9190,"ivation":9191,"Ġtribes":9192,"Ġcash":9193,"ĠJohnny":9194,"ĠMedicine":9195,"din":9196,"len":9197,"Ġcircumstances":9198,"appeared":9199,"Ġinnings":9200,"Ġdominated":9201,"ĠTower":9202,"Ġhanded":9203,"ĠRichmond":9204,"ĠEgyptian":9205,"Ġpredecess":9206,"Ġtort":9207,"ĠWrest":9208,"Ġplatforms":9209,"terior":9210,"Ġremove":9211,"Ġmonitor":9212,"Ġabsol":9213,"Ġparticipants":9214,"Ġdat":9215,"ĠBenn":9216,"ĠCarib":9217,"ĠTheater":9218,"Ġthrone":9219,"Ġalcohol":9220,"Ġreven":9221,"Ġvoting":9222,"Ġoperational":9223,"ĠAld":9224,"Ġworksh":9225,"ĠCher":9226,"Ġranks":9227,"Ġdeaths":9228,"At":9229,"riel":9230,"ĠâĢ¢":9231,"Ġocean":9232,"Ġlieutenant":9233,"Ġcontribution":9234,"Ġinvent":9235,"Ġthoughts":9236,"Ġresiding":9237,"Ġhal":9238,"Ġstyles":9239,"www":9240,"ĠPy":9241,"Ġoblig":9242,"Ġceased":9243,"ĠKo":9244,"Ġpossession":9245,"ĠConstant":9246,"ĠVoivodeship":9247,"Ġwonder":9248,"Ġguilty":9249,"Ġpictures":9250,"Ġexcess":9251,"igs":9252,"ancouver":9253,"isb":9254,"ĠJosÃ©":9255,"Ġextreme":9256,"active":9257,"ĠGlasgow":9258,"andal":9259,"cut":9260,"Ġlie":9261,"ĠFried":9262,"ĠVenezuel":9263,"Ġmathematics":9264,"Ġtempor":9265,"ussian":9266,"Ġchannels":9267,"Ġdebt":9268,"Let":9269,"Ġpatrol":9270,"oga":9271,"Ġassociate":9272,"ulum":9273,"ĠPortland":9274,"Ġappropriate":9275,"cho":9276,"ĠMethod":9277,"Ġpoems":9278,"Ġsaved":9279,"Ġspaces":9280,"Ġadults":9281,"reck":9282,"Ġouter":9283,"Ġroots":9284,"Ġproduces":9285,"iration":9286,"rank":9287,"Ġsmooth":9288,"ridge":9289,"ĠCarm":9290,"ĠAR":9291,"Ġtom":9292,"istical":9293,"rov":9294,"Ġviewers":9295,"iture":9296,"ĠThose":9297,"mphony":9298,"rama":9299,"Ġpersonality":9300,"Ġbeating":9301,"Ġflew":9302,"Ġsponsored":9303,"geon":9304,"Ġterritories":9305,"à¸":9306,"ĠMovement":9307,"Ġrum":9308,"later":9309,"Ġdefence":9310,"ĠAI":9311,"Ġtenure":9312,"ĠGill":9313,"ĠBelgian":9314,"Ġborders":9315,"Ġprinciples":9316,"Ġpublicly":9317,"iÃ³n":9318,"Ġcomponent":9319,"Ġclothing":9320,"Ġ1899":9321,"Ġ[[":9322,"ĠYorkshire":9323,"uable":9324,"issue":9325,"ĠHeb":9326,"opal":9327,"ĠEqu":9328,"oples":9329,"Ġdiscussed":9330,"ĠFIFA":9331,"how":9332,"Ġreleases":9333,"Ġreportedly":9334,"ĠMaj":9335,"Ġprocessing":9336,"arth":9337,"Ġcharacterized":9338,"Ġbay":9339,"Ġcredits":9340,"cell":9341,"sters":9342,"ĠDub":9343,"ĠCer":9344,"ĠPhoen":9345,"Ġsimultane":9346,"Ġdrove":9347,"ĠRud":9348,"94":9349,"Ġswimming":9350,"ĠWW":9351,"Ġconfer":9352,"acts":9353,"Ġrebuilt":9354,"ĠGa":9355,"zer":9356,"ĠTrade":9357,"ewhere":9358,"Ġnerv":9359,"Ġintegrated":9360,"ĠFinnish":9361,"ĠRico":9362,"West":9363,"Ġbroadcasting":9364,"ivate":9365,"Ġsecured":9366,"Ġduo":9367,"Ġwire":9368,"Ġdescent":9369,"final":9370,"Ġnurs":9371,"Ġdiscont":9372,"ĠDJ":9373,"ĠBachelor":9374,"93":9375,"oca":9376,"Ġdisplayed":9377,"rupted":9378,"Ġhoped":9379,"pm":9380,"ĠCra":9381,"ĠVe":9382,"Ġhandle":9383,"Ġconstitution":9384,"nia":9385,"ĠMediterranean":9386,"ĠTreaty":9387,"asi":9388,"Ġpartners":9389,"ĠSax":9390,"Ġmerchant":9391,"ĠRol":9392,"Ġarc":9393,"Ġrelocated":9394,"Ġfeelings":9395,"Ġscientists":9396,"ĠSimilar":9397,"ouses":9398,"hour":9399,"inned":9400,"oded":9401,"ĠIan":9402,"ĠWorks":9403,"Ġconj":9404,"abil":9405,"Ġgay":9406,"Ġsentenced":9407,"Ġconversation":9408,"ĠBangladesh":9409,"mpt":9410,"Ġconcentration":9411,"Ġtransmission":9412,"Ġindigenous":9413,"Ġpartly":9414,"Ġburned":9415,"ĠHampshire":9416,"Ġpartially":9417,"ĠTob":9418,"ĠVancouver":9419,"ĠTherefore":9420,"ĠBasketball":9421,"ĠDance":9422,"Ġfalse":9423,"Ġdecides":9424,"âĢĿ.":9425,"ĠMess":9426,"Ġcongreg":9427,"Ġconservative":9428,"irds":9429,"Ġgiant":9430,"emed":9431,"ST":9432,"Ġforth":9433,"eta":9434,"Ġfunded":9435,"ĠFriday":9436,"One":9437,"Ġtribut":9438,"bing":9439,"jamin":9440,"Ġdual":9441,"Ġelectron":9442,"ĠTrophy":9443,"bow":9444,"plement":9445,"Ġbeside":9446,"Ġparam":9447,"Ġapprec":9448,"ijing":9449,"Ġnavig":9450,"iri":9451,"Ġhighlight":9452,"uits":9453,"ĠNord":9454,"ĠDelhi":9455,"Ġfacilit":9456,"Ġpersu":9457,"Ġfill":9458,"84":9459,"Ġhidden":9460,"illo":9461,"usk":9462,"itable":9463,"Ġexperimental":9464,"xual":9465,"ĠMuslims":9466,"high":9467,"ĠCapital":9468,"Not":9469,"Ġcircle":9470,"Ġinput":9471,"Ġvolumes":9472,"ĠEmer":9473,"ME":9474,"Ġafternoon":9475,"ĠMilan":9476,"ĠGriff":9477,"pent":9478,"Ġresearchers":9479,"ifies":9480,"07":9481,"Ġjunction":9482,"ĠLuther":9483,"Ġtrend":9484,"ĠAfghanistan":9485,"Ġleaf":9486,"ID":9487,"Ġmaybe":9488,"ĠWa":9489,"ĠUnit":9490,"Ġliberal":9491,"ĠHunter":9492,"ĠWarner":9493,"ĠGirls":9494,"Ġassets":9495,"ML":9496,"Ġbeneath":9497,"Ġcolors":9498,"Ġpublisher":9499,"Ġfab":9500,"Ġthir":9501,"ĠEvans":9502,"ĠNeb":9503,"arked":9504,"Ġdownload":9505,"Ġtot":9506,"Ġflash":9507,"ĠChel":9508,"Ġdecisions":9509,"Ġexplo":9510,"foot":9511,"opes":9512,"Ġacknowled":9513,"Ġabuse":9514,"ĠLimited":9515,"rose":9516,"Ġwilling":9517,"Ġreveals":9518,"Ġshift":9519,"ĠRain":9520,"87":9521,"Ġ1896":9522,"eria":9523,"ĠMotor":9524,"Ġavo":9525,"Ġunless":9526,"Ġpursue":9527,"archy":9528,"Ġpor":9529,"Ġbacter":9530,"Ġimpossible":9531,"angle":9532,"Ġcharity":9533,"rows":9534,"Ġpermission":9535,"ĠBernard":9536,"Ġbeauty":9537,"rÃ©":9538,"Ġ1895":9539,"Ġsword":9540,"ĠWing":9541,"Ġfoss":9542,"Ġearning":9543,"Ġfinger":9544,"2000":9545,"NC":9546,"Dr":9547,"MC":9548,"Ġsettlers":9549,"Ġdinner":9550,"Ab":9551,"Ġcontinu":9552,"Ġmor":9553,"Ġorganised":9554,"hattan":9555,"ĠNam":9556,"Ġcann":9557,"ĠGray":9558,"Ġaffiliated":9559,"arting":9560,"Ġintellectual":9561,"Ġspell":9562,"Ġrepair":9563,"Ġcivilian":9564,"ĠGuy":9565,"Ġpremiere":9566,"Ġtorn":9567,"asp":9568,"ĠDraft":9569,"ivan":9570,"eneration":9571,"ĠRena":9572,"ĠRomanian":9573,"sequently":9574,"ĠGor":9575,"Ġriding":9576,"ĠPlayer":9577,"oking":9578,"ĠGary":9579,"ĠUEFA":9580,"Ġsorry":9581,"Ġsynthes":9582,"ĠFitz":9583,"raid":9584,"Ġromantic":9585,"ĠEnt":9586,"ĠWarren":9587,"attered":9588,"yt":9589,"Ġrated":9590,"Ġgenerated":9591,"closed":9592,"unc":9593,"ĠFood":9594,"Ġprofit":9595,"ĠLud":9596,"Ġsuperior":9597,"oda":9598,"Good":9599,"Ġathletes":9600,"Ġdeployed":9601,"ourse":9602,"ĠNi":9603,"reprene":9604,"ĠMort":9605,"Ġdismissed":9606,"ĠHud":9607,"folk":9608,"zes":9609,"Ġ1000":9610,"Ġlimits":9611,"ĠMans":9612,"ĠExt":9613,"ĠGon":9614,"minute":9615,"Ġcoat":9616,"Ġsisters":9617,"Ġ1897":9618,"ĠThroughout":9619,"net":9620,"irates":9621,"Ġretreat":9622,"Ġimplemented":9623,"ĠCricket":9624,"ĠDefence":9625,"erbai":9626,"ĠMadrid":9627,"about":9628,"Ġgathered":9629,"otal":9630,"fast":9631,"borne":9632,"Ġrunner":9633,"ĠProm":9634,"91":9635,"ĠBomb":9636,"Ġcook":9637,"Ġlights":9638,"Ġputting":9639,"Ġexpensive":9640,"aran":9641,"Ġpatron":9642,"zi":9643,"Ġhunting":9644,"ixed":9645,"Ġ250":9646,"ĠChem":9647,"Ġwaste":9648,"Ġimmigrants":9649,"hill":9650,"mmet":9651,"agre":9652,"Ġprovision":9653,"ĠLanka":9654,"ĠGrey":9655,"Ġconclusion":9656,"Ġ54":9657,"ĠMuch":9658,"05":9659,"onymous":9660,"ĠBristol":9661,"iph":9662,"itual":9663,"Ġdiscussion":9664,"ĠMitchell":9665,"Ġunderw":9666,"Ġborough":9667,"ĠInitially":9668,"arma":9669,"arged":9670,"arv":9671,"ĠSA":9672,"Ġinterpre":9673,"weet":9674,"Ġur":9675,"ĠAny":9676,"Ġfighter":9677,"Ġmal":9678,"ugh":9679,"Ġopponents":9680,"elected":9681,"ĠTele":9682,"Ġfarmers":9683,"Ġlinks":9684,"Ġrestoration":9685,"Ġterminal":9686,"ĠAqu":9687,"Ġsubsidiary":9688,"Ġsymp":9689,"ĠFlore":9690,"ĠSeven":9691,"ĠShip":9692,"ughed":9693,"Ġcommunications":9694,"PR":9695,"Ġelectrical":9696,"Ġanimated":9697,"obi":9698,"Ġinaugural":9699,"Ġessential":9700,"amo":9701,"Ġdim":9702,"They":9703,"ĠMuhammad":9704,"Ġinvolves":9705,"Ġtouring":9706,"Ġcargo":9707,"urers":9708,"ĠLast":9709,"incorporated":9710,"ĠBarry":9711,"ĠDeath":9712,"ĠParker":9713,"ĠHas":9714,"ĠStudents":9715,"endment":9716,"abet":9717,"ĠMars":9718,"Ġpages":9719,"ĠHarrison":9720,"fielder":9721,"Ġopponent":9722,"ĠCharlotte":9723,"commun":9724,"ĠRand":9725,"Ġgrave":9726,"ĠIv":9727,"Ġhouseholder":9728,"Ġdrafted":9729,"Ġsailed":9730,"Ġthanks":9731,"Ġprove":9732,"eters":9733,"Ġjudges":9734,"Ġbusinessman":9735,"ĠMi":9736,"Ġsolar":9737,"Ġconfused":9738,"Ġtexts":9739,"Ġcompens":9740,"Ġclock":9741,"ĠSeason":9742,"Ġdepict":9743,"enger":9744,"onds":9745,"Ġlocally":9746,"Ġlaughed":9747,"Ġtimber":9748,"Ġdesk":9749,"Ġcemetery":9750,"Ġlicensed":9751,"ĠKon":9752,"Ġrevenue":9753,"Ġrarely":9754,"Ġrocks":9755,"Ġmines":9756,"azines":9757,"Ġshock":9758,"Ġninth":9759,"Ġrandom":9760,"ĠSerbian":9761,"Ġdiverse":9762,"Ġlisten":9763,"ĠCarlos":9764,"Ġprovinces":9765,"Ġprinciple":9766,"Ġsuitable":9767,"Ġfavorite":9768,"Ġbelieves":9769,"Ġnose":9770,"82":9771,"Ġstim":9772,"Ġsustain":9773,"ĠWhere":9774,"inking":9775,"mother":9776,"ulu":9777,"ĠCommunications":9778,"Ġdollars":9779,"ĠLatino":9780,"Ġsugar":9781,"ĠNHL":9782,"acre":9783,"Ġestablishing":9784,"81":9785,"uli":9786,"Ġsessions":9787,"Ġvoters":9788,"Ġspir":9789,"scale":9790,"ulus":9791,"endar":9792,"ocation":9793,"Ġexclusively":9794,"ĠMaine":9795,"ĠBaker":9796,"Ġhelicop":9797,"Ġprest":9798,"ashi":9799,"ĠSS":9800,"Ġ1893":9801,"rehensive":9802,"Ġrelation":9803,"Ãł":9804,"ingham":9805,"Ġlatest":9806,"Ġspin":9807,"ĠScient":9808,"ĠSerbia":9809,"ĠEU":9810,"Ġincreases":9811,"ĠNatural":9812,"fers":9813,"castle":9814,"Ġworst":9815,"lem":9816,"stad":9817,"ĠEventually":9818,"Ġanswered":9819,"Ġchronic":9820,"iler":9821,"ĠConstruction":9822,"Ġterminus":9823,"Ġconservation":9824,"Ġmanif":9825,"Ġfocuses":9826,"fish":9827,"ĠMother":9828,"Ġrequested":9829,"Ġisolated":9830,"Ġeldest":9831,"that":9832,"ĠBooks":9833,"ighed":9834,"ĠWayne":9835,"Ġ1889":9836,"Ġpatterns":9837,"zant":9838,"Ġreaches":9839,"Ġunsuccessful":9840,"Ġrib":9841,"apse":9842,"Ġcompleting":9843,"Ġtool":9844,"Ġinitiated":9845,"ĠFalls":9846,"flow":9847,"ĠManhattan":9848,"83":9849,"ĠFine":9850,"ĠArabic":9851,"idal":9852,"resident":9853,"Ġlifted":9854,"ĠMall":9855,"ugs":9856,"Ġexcav":9857,"Ġtill":9858,"aton":9859,"Ġviolent":9860,"ĠAS":9861,"Ġcattle":9862,"Ġconnecting":9863,"anted":9864,"Ġ53":9865,"esty":9866,"ĠGmina":9867,"Ġsang":9868,"ĠAlice":9869,"uper":9870,"ĠStory":9871,"Ġthroat":9872,"ĠFurthermore":9873,"ĠBeijing":9874,"TE":9875,"ĠIns":9876,"bles":9877,"Ġdrummer":9878,"ĠRabb":9879,"olar":9880,"ĠAzerbai":9881,"agar":9882,"Ġmarks":9883,"Ġargument":9884,"Ġescaped":9885,"strong":9886,"Ġwithdrew":9887,"Ġrig":9888,"Ġfitted":9889,"occ":9890,"ĠTan":9891,"ĠMason":9892,"Ġsalt":9893,"gorith":9894,"Ġknowing":9895,"Ġvul":9896,"ĠArena":9897,"Ġ\"\",":9898,"annah":9899,"ĠFace":9900,"Ġfaces":9901,"ĠConserv":9902,"Ġautonom":9903,"Ġpod":9904,"Ġwhatever":9905,"Ġ1892":9906,"Ġlowest":9907,"bat":9908,"Ġhoused":9909,"jab":9910,"kee":9911,"ĠSid":9912,"Ġdemonstrated":9913,"Ġimperial":9914,"Ġunderstood":9915,"Ġtraded":9916,"Ġqualify":9917,"Ġscholarship":9918,"Ġshopping":9919,"ĠTogether":9920,"ĠZone":9921,"ĠAdela":9922,"Ġsubt":9923,"Ã©n":9924,"Ġarrangement":9925,"Ġinitiative":9926,"Ġ1885":9927,"ĠAttorney":9928,"ĠOrganization":9929,"ivia":9930,"Ġ1850":9931,"ĠRangers":9932,"ĠGrade":9933,"Ġtraditions":9934,"ĠRomanized":9935,"Ġloud":9936,"Ġovers":9937,"Ġassisted":9938,"ĠCaribbean":9939,"Ã¶r":9940,"Ġeggs":9941,"BM":9942,"Ġ1894":9943,"300":9944,"mo":9945,"enson":9946,"06":9947,"ĠClinton":9948,"Ġwealthy":9949,"ĠBurg":9950,"uction":9951,"Ġpractical":9952,"arriors":9953,"bul":9954,"Ġheir":9955,"ĠMak":9956,"roud":9957,"Ġbelonging":9958,"Ġcheek":9959,"Ġwore":9960,"unct":9961,"ĠSteel":9962,"Ġmerc":9963,"ĠSalv":9964,"ĠPersian":9965,"ĠRest":9966,"Ġ56":9967,"hum":9968,"Ġsubstitute":9969,"ĠKnow":9970,"ĠThor":9971,"ĠEconomic":9972,"Ġideal":9973,"ĠSeb":9974,"ĠMembers":9975,"Ġelectricity":9976,"Ġtwin":9977,"Ġconscious":9978,"itely":9979,"Ġstem":9980,"ĠClar":9981,"ashwords":9982,"ht":9983,"ĠOrange":9984,"ĠBenjamin":9985,"Ġguests":9986,"ĠBaptist":9987,"Ġhorror":9988,"Ġthereafter":9989,"ĠRecord":9990,"Ġparking":9991,"Ġcontinuous":9992,"Ġgolf":9993,"Ġconfess":9994,"ĠReform":9995,"ĠCarr":9996,"Ġanalog":9997,"Ġemigr":9998,"inental":9999,"angular":10000,"umbent":10001,"Ġmargin":10002,"Ġhelps":10003,"Ġlad":10004,"ĠJama":10005,"IL":10006,"Ġsharp":10007,"icts":10008,"ancellor":10009,"Ġindicates":10010,"ĠCart":10011,"ĠNear":10012,"grade":10013,"Ġpreferred":10014,"Ġenthus":10015,"Ġrect":10016,"Ġtanks":10017,"Ġalliance":10018,"ĠBox":10019,"Ġradical":10020,"Ġstrategic":10021,"olen":10022,"Ġcharter":10023,"Ġstrengthen":10024,"Ġevac":10025,"Ġguide":10026,"ĠCommissioner":10027,"Ġunlike":10028,"asha":10029,"ĠGoth":10030,"ensis":10031,"Ġdispute":10032,"Ġcoalition":10033,"Ġhonorary":10034,"avi":10035,"rooms":10036,"Ġvictim":10037,"Ġstom":10038,"icing":10039,"Ġplain":10040,"Ġmerger":10041,"roph":10042,"Ġongoing":10043,"Sm":10044,"Ġdevoted":10045,"Ġboot":10046,"arrier":10047,"Ġcoaching":10048,"ĠNicholas":10049,"ĠTol":10050,"Ġboundaries":10051,"Ġtreaty":10052,"Ġblind":10053,"ĠGun":10054,"ĠPrincip":10055,"Br":10056,"Ġcamps":10057,"leb":10058,"ĠNigeria":10059,"ĠSingles":10060,"Ġinteresting":10061,"Ġlabour":10062,"ĠKan":10063,"ĠIsa":10064,"Ġels":10065,"Ġmachines":10066,"overe":10067,"Ġdominant":10068,"making":10069,"Ġpip":10070,"Ġalter":10071,"tense":10072,"Ġregulations":10073,"Ġtravelled":10074,"RS":10075,"Ġgift":10076,"aning":10077,"Ġfault":10078,"ibilities":10079,"ĠAssistant":10080,"Ġ1891":10081,"Ġoperator":10082,"Ġminority":10083,"Ġdeck":10084,"leep":10085,"ĠRic":10086,"nik":10087,"Ġsubmitted":10088,"Ġfaster":10089,"ĠDh":10090,"Ġgross":10091,"Ġabst":10092,"ĠGreater":10093,"Ġmagazines":10094,"uki":10095,"Ġmeat":10096,"Ġlying":10097,"Ġbirthday":10098,"ĠTrinity":10099,"Ġemperor":10100,"quir":10101,"Ġsympt":10102,"eling":10103,"Ġindex":10104,"ĠBra":10105,"rafts":10106,"ĠVerm":10107,"agers":10108,"Ġmechanism":10109,"ĠAllied":10110,"Ġelsewhere":10111,"Ġslaves":10112,"Ġsculpture":10113,"ĠCentury":10114,"ĠGet":10115,"fly":10116,"DC":10117,"Ġsurprised":10118,"ĠParish":10119,"annon":10120,"ĠApple":10121,"icle":10122,"ĠPsych":10123,"cribed":10124,"Ġ1865":10125,"ĠPhoenix":10126,"ĠHawaii":10127,"Ġconcerning":10128,"Ġ1888":10129,"ĠBengal":10130,"Ġvs":10131,"Ġprosp":10132,"lar":10133,"ĠProp":10134,"Ġserial":10135,"pled":10136,"Ġoriginated":10137,"Ġforty":10138,"Ġpill":10139,"ĠTib":10140,"nowiki":10141,"Ġnoble":10142,"stance":10143,"ĠAbbey":10144,"Ġinternationally":10145,"Ġcrimes":10146,"Ġfifty":10147,"Ġmunicipalities":10148,"Ġritual":10149,"ĠObs":10150,"akia":10151,"ĠFerr":10152,"mn":10153,"Ġrecognised":10154,"Ġunincorporated":10155,"ĠSyria":10156,"01":10157,"Ġmonastery":10158,"Ġsurviv":10159,"Ġmechanical":10160,"Ġstared":10161,"Ġexercise":10162,"ĠCry":10163,"ygen":10164,"Ġgrows":10165,"ephew":10166,"ĠDead":10167,"azing":10168,"Ġshield":10169,"Ġgrav":10170,"ĠKum":10171,"Ġdisappeared":10172,"Ġmac":10173,"Ġaccord":10174,"Ġ;":10175,"Ġguarant":10176,"Ġ1864":10177,"Ġinformed":10178,"irts":10179,"ĠChristians":10180,"Ġdelivery":10181,"Ġfallen":10182,"Ġconfig":10183,"ĠRacing":10184,"ĠBron":10185,"Ġdiscontin":10186,"ĠSC":10187,"ĠStandard":10188,"ĠTun":10189,"ĠCulture":10190,"ĠSection":10191,"Ġlocomotives":10192,"Ġtong":10193,"ĠGuinea":10194,"ĠNation":10195,"Ġorchestra":10196,"ĠTrump":10197,"Ġmanufactured":10198,"Ġconventional":10199,"ĠGrace":10200,"Ġcomed":10201,"Ġfee":10202,"Ġ1861":10203,"ĠCurrently":10204,"Ġalgorith":10205,"stery":10206,"ĠSultan":10207,"def":10208,"ĠBranch":10209,"Ġreduction":10210,"Ġjurisdiction":10211,"Ġkeyboard":10212,"ĠClay":10213,"Ġearthqu":10214,"Ġstuff":10215,"winning":10216,"emble":10217,"Ġconnections":10218,"NS":10219,"Ġphysics":10220,"aja":10221,"onies":10222,"ĠJonathan":10223,"roid":10224,"eton":10225,"Ġdiver":10226,"ĠTurner":10227,"Ġtraditionally":10228,"LS":10229,"care":10230,"Ġdeparted":10231,"Ġproductions":10232,"Ġshifted":10233,"Ġbattalion":10234,"Ġfuneral":10235,"irk":10236,"Ġorganis":10237,"ĠByzant":10238,"Ġerr":10239,"isp":10240,"Ġpromised":10241,"ĠAdelaide":10242,"Ġfulf":10243,"Ġtrials":10244,"ĠNathan":10245,"ĠFrances":10246,"Ġrid":10247,"ĠBroadcasting":10248,"ĠIranian":10249,"Ġventure":10250,"Ġsettlements":10251,"uru":10252,"eled":10253,"Ġattempting":10254,"oven":10255,"Ġpassion":10256,"Ġphotographs":10257,"Donald":10258,"Ġpromise":10259,"Ġsignificance":10260,"Ġtub":10261,"oned":10262,"Ġdrivers":10263,"Ġbanned":10264,"Ġrespective":10265,"ĠMes":10266,"Ġindustries":10267,"ĠPeninsula":10268,"Ġactivist":10269,"Ġtemperatures":10270,"gate":10271,"Ġplacing":10272,"ĠShel":10273,"Ġhide":10274,"Ġmanufacturer":10275,"Ġstrip":10276,"type":10277,"ĠWang":10278,"Ġboss":10279,"ĠIvan":10280,"ĠJazz":10281,"mits":10282,"trans":10283,"aha":10284,"sa":10285,"ĠIC":10286,"Ġextensively":10287,"izz":10288,"inos":10289,"Ġeligible":10290,"Ġdoubles":10291,"ĠLore":10292,"Ġkm":10293,"ĠCA":10294,"Ġidentical":10295,"group":10296,"ĠVel":10297,"ĠMicrosoft":10298,"ĠUniversal":10299,"ierra":10300,"mediate":10301,"Ġcancelled":10302,"ĠCuba":10303,"Ġlayer":10304,"Ġ95":10305,"Ġcondem":10306,"Ġfestivals":10307,"Ġjury":10308,"amese":10309,"ĠGran":10310,"ĠCH":10311,"Ġexcellent":10312,"Ġprices":10313,"Ġpush":10314,"ĠCob":10315,"Ġworn":10316,"ĠOliver":10317,"ĠEug":10318,"ĠWas":10319,"opp":10320,"umps":10321,"ĠTrail":10322,"Ġ1862":10323,"Ġeditions":10324,"ĠPad":10325,"Ġraising":10326,"Ġgenetic":10327,"Ġrebell":10328,"Ġbelongs":10329,"ieth":10330,"Ġconvinced":10331,"Ġtens":10332,"Ġorigins":10333,"04":10334,"Ġnegotiations":10335,"Ġkidn":10336,"Ġnam":10337,"Ġ600":10338,"ĠMales":10339,"Ġpropag":10340,"auge":10341,"Ġstrange":10342,"ishers":10343,"Ġnoise":10344,"Ġefficient":10345,"Ġ1863":10346,"ĠMA":10347,"Ġwider":10348,"Ġoverseas":10349,"Ġphotography":10350,"Ġacceler":10351,"Ġcongress":10352,"Ġsending":10353,"ĠPradesh":10354,"ĠSr":10355,"Just":10356,"ÑĢ":10357,"encer":10358,"Ġpromoting":10359,"ĠMaced":10360,"olia":10361,"Ġpy":10362,"ĠArchbishop":10363,"Ġinfluences":10364,"Ġshirt":10365,"ĠSpirit":10366,"Ġrestricted":10367,"Ġenemies":10368,"Ġtransmit":10369,"Ġoutstanding":10370,"ixon":10371,"ĠVincent":10372,"ĠHope":10373,"Ġatmosphere":10374,"Ġ1887":10375,"Ġnut":10376,"appy":10377,"Ġexplan":10378,"acket":10379,"ĠMonte":10380,"ĠNS":10381,"Ġclinical":10382,"ĠHig":10383,"Ġcave":10384,"When":10385,"Ġwrestling":10386,"ĠDom":10387,"ĠStill":10388,"ortunately":10389,"Christ":10390,"Ġdrum":10391,"ĠSign":10392,"Ġgrabbed":10393,"Gu":10394,"Ġwarning":10395,"two":10396,"Ġties":10397,"family":10398,"ĠCad":10399,"2010":10400,"Ġmanaging":10401,"ĠHudson":10402,"Ġplayoffs":10403,"ĠYears":10404,"Ġkids":10405,"Ġexplains":10406,"Ġlegislative":10407,"Ġflights":10408,"Ġindeed":10409,"ĠAdvent":10410,"Ġju":10411,"bes":10412,"overed":10413,"Ġlibr":10414,"Ġphoto":10415,"ĠKos":10416,"Ġrelie":10417,"ĠBrisb":10418,"Ġuniverse":10419,"Ġimplementation":10420,"Ġexhibited":10421,"Ġconven":10422,"Ġconstitutional":10423,"maker":10424,"alg":10425,"Ġranging":10426,"ĠYouT":10427,"ĠCatherine":10428,"Ġscr":10429,"ĠIce":10430,"ĠJun":10431,"Ġexha":10432,"anim":10433,"othy":10434,"Ġtherm":10435,"Ġcollaps":10436,"ĠBrisbane":10437,"Ġdefended":10438,"etta":10439,"ĠKirk":10440,"Ġdrinking":10441,"ĠNar":10442,"Ġmask":10443,"ĠPeru":10444,"Ġhole":10445,"Ġcinema":10446,"ennial":10447,"ĠAlberta":10448,"Ð½":10449,"elta":10450,"ĠWor":10451,"Ġward":10452,"Ġsuspect":10453,"Ġlinear":10454,"power":10455,"ĠNet":10456,"Ġconversion":10457,"Ġevolved":10458,"was":10459,"Ġwinds":10460,"Î½":10461,"olition":10462,"Ġtag":10463,"ĠElectric":10464,"month":10465,"03":10466,"ortion":10467,"Ġmurdered":10468,"Ġ57":10469,"Ġpreparation":10470,"lett":10471,"ĠCommons":10472,"ĠCinc":10473,"ĠDaily":10474,"ĠEston":10475,"Ġcertainly":10476,"works":10477,"ipper":10478,"Ġreorgan":10479,"Ġinterviews":10480,"Ġarriving":10481,"Ġremote":10482,"Ġdisturb":10483,"uart":10484,"Ġoptions":10485,"ĠJerry":10486,"Ġsteep":10487,"Ġrecalled":10488,"achment":10489,"Ġhills":10490,"pre":10491,"four":10492,"yler":10493,"isting":10494,"Ġexclud":10495,"formerly":10496,"Ġemotional":10497,"orious":10498,"leyball":10499,"Ġaboard":10500,"Å¾":10501,"Ġaccessible":10502,"Ġcoinc":10503,"Ġpupils":10504,"onder":10505,"bled":10506,"Ġbutter":10507,"ĠTak":10508,"Ed":10509,"ĠStudio":10510,"Ġdanger":10511,"ĠFreedom":10512,"Ġacres":10513,"Ġ66":10514,"ĠBarcel":10515,"omic":10516,"ĠHebrew":10517,"Ġrepr":10518,"Ġbases":10519,"Ġuncom":10520,"Ġscores":10521,"Ġwer":10522,"ĠComple":10523,"Ġtons":10524,"Ġslave":10525,"feld":10526,"families":10527,"Ġmoments":10528,"enberg":10529,"ĠPierre":10530,"language":10531,"ulous":10532,"ĠMunich":10533,"ĠProtestant":10534,"Ġtopics":10535,"Ġdemanded":10536,"arrison":10537,"Ġcolleges":10538,"Ġgolden":10539,"Ġcampaigns":10540,"Ġshops":10541,"Ġdistribut":10542,"Ġfasc":10543,"raud":10544,"ĠSad":10545,"ÏĦ":10546,"ĠSprings":10547,"Ġacquisition":10548,"eli":10549,"Ġsuspic":10550,"venth":10551,"free":10552,"Ġparticipating":10553,"iev":10554,"ĠClare":10555,"ĠMasters":10556,"itime":10557,"Ġmoral":10558,"Ġbattery":10559,"Ġcaps":10560,"WA":10561,"ĠBarbara":10562,"ĠWrestling":10563,"Ġgast":10564,"imp":10565,"Ġcanal":10566,"ĠCase":10567,"Ġinternet":10568,"ĠâĤ":10569,"game":10570,"Ġdescribing":10571,"ĠBesides":10572,"ĠCraig":10573,"Ġbiological":10574,"ĠCollins":10575,"cient":10576,"issions":10577,"Ġmainstream":10578,"Ġaffair":10579,"ĠAnglo":10580,"ĠDemocrat":10581,"arus":10582,"Ġcatalog":10583,"ĠLloyd":10584,"Ġdepression":10585,"celand":10586,"ÃŁ":10587,"ĠAthens":10588,"aco":10589,"Ġinherited":10590,"Ġexposure":10591,"eston":10592,"Ġassum":10593,"Ġyard":10594,"Ġneutral":10595,"ĠSocialist":10596,"erior":10597,"osy":10598,"Ġswitched":10599,"ĠVas":10600,"ĠCP":10601,"released":10602,"ĠNav":10603,"Ġ1886":10604,"brid":10605,"fa":10606,"ĠTang":10607,"nda":10608,"ĠFisher":10609,"Ġcontributing":10610,"Ġcruc":10611,"ĠSoccer":10612,"Ġgear":10613,"ĠTu":10614,"innati":10615,"ĠPhilippine":10616,"ĠFact":10617,"Ġenrolled":10618,"Ġprotests":10619,"ĠLate":10620,"atar":10621,"Ġperspective":10622,"ĠNova":10623,"Ġuncertain":10624,"Ġsubsc":10625,"Ġ58":10626,"Ġgal":10627,"ournaments":10628,"ĠYouTube":10629,"Ġspecialized":10630,"ĠLad":10631,"Ġpetition":10632,"ashes":10633,"Ġconvicted":10634,"Ġtip":10635,"ĠPunjab":10636,"elfare":10637,"ĠControl":10638,"Ġproteins":10639,"haw":10640,"Ġfarming":10641,"Ġages":10642,"ĠFab":10643,"aders":10644,"Ġresumed":10645,"ĠMalt":10646,"urst":10647,"aba":10648,"Ġexecution":10649,"ĠSerge":10650,"ĠPant":10651,"Ġtribute":10652,"Ġaqu":10653,"ĠUg":10654,"ĠAlaska":10655,"Ġmeasured":10656,"Ġdemands":10657,"Ġbench":10658,"Ġticket":10659,"Ġtaxes":10660,"racted":10661,"Ġokay":10662,"uez":10663,"vi":10664,"Ġbarely":10665,"Ġinspiration":10666,"scar":10667,"holm":10668,"Ġfriendship":10669,"ĠCoal":10670,"Ġsav":10671,"ĠMind":10672,"ĠLeeds":10673,"ĠDemocrats":10674,"Ġ1881":10675,"Ġbelt":10676,"Ġdatab":10677,"Are":10678,"ĠSymphony":10679,"Ġnephew":10680,"odore":10681,"ĠBulgar":10682,"Ġoutbreak":10683,"ĠBey":10684,"Ġdisch":10685,"Ġlocality":10686,"Ġbull":10687,"Ġheading":10688,"outheastern":10689,"Ġreporter":10690,"Ġfundamental":10691,"ĠLP":10692,"Ġplastic":10693,"ĠRAF":10694,"Ġcorresponding":10695,"Ġnice":10696,"olve":10697,"ĠRef":10698,"Ġ85":10699,"Ġreporting":10700,"Ġshoulders":10701,"ĠCO":10702,"Ġpermitted":10703,"Ġmos":10704,"ĠGlen":10705,"Ġsin":10706,"ĠMunicipality":10707,"Ġvisits":10708,"Ġdecorated":10709,"anche":10710,"ĠBeth":10711,"itis":10712,"Ġ72":10713,"lee":10714,"Mon":10715,"Ġcow":10716,"ĠBarr":10717,"ĠCode":10718,"Ġportrait":10719,"02":10720,"ĠAber":10721,"Ġafford":10722,"Ġarrive":10723,"Ġdiet":10724,"uka":10725,"Ã¨re":10726,"vision":10727,"Ġ1884":10728,"icity":10729,"hent":10730,"ĠBrand":10731,"ouncill":10732,"Ġcooperation":10733,"MI":10734,"Ġ59":10735,"Ġcopper":10736,"Eng":10737,"iya":10738,"ĠVI":10739,"eing":10740,"Ġstomach":10741,"ĠPil":10742,"ĠAlt":10743,"Ġdifficulties":10744,"German":10745,"Ġgraduation":10746,"rane":10747,"Ġbeetle":10748,"Ġcollaborated":10749,"iper":10750,"gments":10751,"oys":10752,"ĠUnd":10753,"Ġresignation":10754,"Ġdesignation":10755,"ĠGard":10756,"Ġhang":10757,"ĠSmall":10758,"Ġvertical":10759,"bus":10760,"Ġpowered":10761,"Ġworse":10762,"Ġcarries":10763,"omon":10764,"Ġsample":10765,"ogle":10766,"Ġdressed":10767,"razy":10768,"Ġca":10769,"ĠCelt":10770,"Ġcertified":10771,"aping":10772,"ĠNorfolk":10773,"ĠFormer":10774,"Ġexclusive":10775,"ĠChristianity":10776,"ĠBarcelona":10777,"Ġcavalry":10778,"ĠTigers":10779,"oric":10780,"Ġinducted":10781,"itarian":10782,"Ġroot":10783,"Ġcolumns":10784,"Ġdifficulty":10785,"ĠColombia":10786,"ĠFif":10787,"essed":10788,"ĠCincinnati":10789,"Ġinterpretation":10790,"issa":10791,"rises":10792,"Ġseriously":10793,"Ġproof":10794,"length":10795,"ĠPhD":10796,"Ġfilming":10797,"Ġreception":10798,"Ġawareness":10799,"Ġreferences":10800,"Ġcyl":10801,"Ġfro":10802,"Ġdistinction":10803,"ĠBuffalo":10804,"ĠTerritory":10805,"ĠSig":10806,"ĠSecret":10807,"ificial":10808,"RI":10809,"ĠChallenge":10810,"Ġintense":10811,"Ġ800":10812,"Ġdepicted":10813,"ĠLag":10814,"ĠHem":10815,"Ġgaze":10816,"ĠAdmiral":10817,"Ġgeomet":10818,"RT":10819,"Ġyourself":10820,"Ġcock":10821,"Ġsimultaneously":10822,"Ġlip":10823,"ĠPictures":10824,"Ġdisb":10825,"ĠLis":10826,"Ġframework":10827,"ĠReport":10828,"Ġalien":10829,"Ġhence":10830,"Ġgallery":10831,"ĠNeg":10832,"Ġfighters":10833,"Ġcompound":10834,"sub":10835,"Ġbell":10836,"ĠCamb":10837,"Ġchallenges":10838,"Ġtargets":10839,"owski":10840,"Hz":10841,"aying":10842,"ĠStars":10843,"ĠWes":10844,"ĠRidge":10845,"compass":10846,"ele":10847,"Ġcontrols":10848,"Ġphrase":10849,"ĠSaints":10850,"ido":10851,"Ġdetect":10852,"ĠObama":10853,"ĠVlad":10854,"Ġinhib":10855,"ĠBobby":10856,"2011":10857,"Ġstick":10858,"Ġstops":10859,"ĠIceland":10860,"Ġcommenced":10861,"Ġqueen":10862,"Ġmerely":10863,"Ġaccompany":10864,"Ġmad":10865,"ĠDakota":10866,"ĠFull":10867,"ĠBlues":10868,"Ġdepartments":10869,"ĠCultural":10870,"Ġagg":10871,"Ġsharing":10872,"Ġangry":10873,"ĠVegas":10874,"Ġvel":10875,"ĠKap":10876,"Ġliked":10877,"ĠShar":10878,"Ġenters":10879,"Ġgrades":10880,"Ġangle":10881,"ĠProvinc":10882,"ĠArmenian":10883,"ĠRoll":10884,"Ġdistinctive":10885,"Ġcapita":10886,"azon":10887,"400":10888,"Ġcir":10889,"ĠSaudi":10890,"Ġ().":10891,"front":10892,"Ġintercept":10893,"Ġreceives":10894,"Ġwaves":10895,"Ġeasier":10896,"aters":10897,"avid":10898,"ĠTerry":10899,"ĠSpeed":10900,"ĠSystems":10901,"ĠHamb":10902,"Yeah":10903,"Ġinstruction":10904,"Ġrelevant":10905,"Ġsequel":10906,"Ġsummit":10907,"ĠRogers":10908,"Ġlingu":10909,"ĠMaybe":10910,"Ġmaps":10911,"ĠMom":10912,"igo":10913,"ĠGate":10914,"Ġwritings":10915,"Ġrelegated":10916,"Ġpseud":10917,"Ġ1882":10918,"RO":10919,"ĠBak":10920,"Ġupset":10921,"ĠTech":10922,"Ġtea":10923,"ĠBorough":10924,"Ġtears":10925,"berry":10926,"osoph":10927,"Ġprepare":10928,"ĠMS":10929,"ĠBuddhist":10930,"Ġambass":10931,"ĠBright":10932,"nan":10933,"ipping":10934,"2007":10935,"Ġrevers":10936,"adition":10937,"2008":10938,"Ġski":10939,"Ġautomatic":10940,"Ġmini":10941,"Ġsket":10942,"Ġinhab":10943,"rain":10944,"sterdam":10945,"ĠMunicipal":10946,"Ġbone":10947,"arted":10948,"William":10949,"ĠAction":10950,"Ġdeeply":10951,"Ġcrosses":10952,"ĠConfederate":10953,"Ġbreast":10954,"rez":10955,"Ġhistorians":10956,"alan":10957,"ĠNapole":10958,"Ġsilence":10959,"Best":10960,"ĠDigital":10961,"ĠSoph":10962,"Ġcoins":10963,"Ġpeoples":10964,"Ġsung":10965,"ĠUrban":10966,"rets":10967,"ĠNevada":10968,"ĠAdvis":10969,"Ġmilk":10970,"ĠRot":10971,"Ãª":10972,"Ġcutting":10973,"Ġhyper":10974,"Ġdramatic":10975,"Ġpressed":10976,"ĠPerry":10977,"ointed":10978,"ropod":10979,"olves":10980,"Ġfinance":10981,"Ġfeels":10982,"raits":10983,"Ġresid":10984,"ĠAlban":10985,"Î¿":10986,"Ġconsolid":10987,"Ġgentle":10988,"ĠJefferson":10989,"achi":10990,"ĠRing":10991,"eps":10992,"ĠDiocese":10993,"Ġusage":10994,"ĠProfessional":10995,"osexual":10996,"Ġemphasis":10997,"Ġelabor":10998,"ospel":10999,"ĠSnow":11000,"onda":11001,"Ġcharacteristic":11002,"Ġobjective":11003,"ĠRhod":11004,"Ġfabric":11005,"ĠDenver":11006,"eras":11007,"child":11008,"ĠHelen":11009,"Ġtorped":11010,"Ġentreprene":11011,"ĠDiam":11012,"ÈĻ":11013,"Ġ99":11014,"irms":11015,"ĠBlock":11016,"Ġquarterback":11017,"ĠStorm":11018,"alam":11019,"Ġphysician":11020,"?âĢĻ":11021,"ĠYang":11022,"Ġdeemed":11023,"Ġbachelor":11024,"Ġrhythm":11025,"ĠRal":11026,"Black":11027,"oons":11028,"ĠBath":11029,"ĠMinor":11030,"ĠRac":11031,"Ġsoph":11032,"athon":11033,"vol":11034,"Ġlady":11035,"ĠMult":11036,"ĠAntar":11037,"Ġreward":11038,"Ġsubmarine":11039,"ĠLiving":11040,"garian":11041,"ospitals":11042,"ĠCircuit":11043,"Ġencompass":11044,"ivic":11045,"Ġsad":11046,"Ġcarrier":11047,"ĠComics":11048,"ĠArgentine":11049,"ĠIndustrial":11050,"Ġprol":11051,"Ġrecovery":11052,"Ġzero":11053,"Ġtournaments":11054,"ĠRu":11055,"Ġreducing":11056,"Ġrelax":11057,"Ġspeaker":11058,"Ġcomprises":11059,"ĠKeith":11060,"ĠLen":11061,"FF":11062,"Ġrestaurants":11063,"orp":11064,"ĠSah":11065,"HA":11066,"Ġdancing":11067,"Ġneuro":11068,"Ñģ":11069,"Ġtenth":11070,"Ġcleared":11071,"Ġbehavi":11072,"ĠPlant":11073,"Ġlock":11074,"forced":11075,"2009":11076,"unny":11077,"Ġvaluable":11078,"Ġash":11079,"vet":11080,"ghai":11081,"Ġpairs":11082,"Ġcomparison":11083,"ĠQual":11084,"ĠSurvey":11085,"BO":11086,"Ġmail":11087,"afe":11088,"Ġsymptoms":11089,"Ġsupplied":11090,"ĠJa":11091,"Ġtongue":11092,"ĠNepal":11093,"Ġtested":11094,"Ġforcing":11095,"Ġlegislature":11096,"ĠClassic":11097,"Ġattendance":11098,"enos":11099,"Ġattacking":11100,"ĠSony":11101,"disc":11102,"Ġessentially":11103,"ĠChi":11104,"ĠMaz":11105,"ĠNewcastle":11106,"Ġdogs":11107,"ĠCold":11108,"Ġcoup":11109,"Ġerror":11110,"imir":11111,"Ġorn":11112,"Ġindicating":11113,"Ġamounts":11114,"ĠHugh":11115,"ĠRobin":11116,"Ġtechnologies":11117,"ĠGround":11118,"Ġelementary":11119,"Ġmamm":11120,"Ġspots":11121,"oro":11122,"Ġunn":11123,"Ġcollapse":11124,"ĠBert":11125,"Ġtalks":11126,"itic":11127,"Ġnarrative":11128,"ĠBlood":11129,"ĠCS":11130,"ĠPay":11131,"ĠCurt":11132,"Ġpromin":11133,"Ġnearest":11134,"Ġcompiled":11135,"Ġdrums":11136,"Ġtraveling":11137,"Ġdiplomatic":11138,"Ġanticip":11139,"Ġtruly":11140,"ĠJoy":11141,"Ġpartial":11142,"Ġaside":11143,"lington":11144,"ĠDrive":11145,"acles":11146,"ĠChester":11147,"Ġtu":11148,"Ġinterchange":11149,"ĠMonday":11150,"Ġclan":11151,"Ġpredecessor":11152,"velt":11153,"Ġgardens":11154,"five":11155,"Ġdesert":11156,"Ġpoison":11157,"pop":11158,"Ġcoached":11159,"ĠNext":11160,"ĠTag":11161,"Ġtourist":11162,"Ġscen":11163,"Ġdisbanded":11164,"stitutional":11165,"Ġenforcement":11166,"Ġministry":11167,"Ġ1883":11168,"Ġvamp":11169,"ycl":11170,"Ġflank":11171,"Ġoverw":11172,"ĠModel":11173,"raska":11174,"ogg":11175,"written":11176,"Ġflex":11177,"ĠKenya":11178,"Par":11179,"Ġguards":11180,"iffs":11181,"icked":11182,"Ġjail":11183,"ĠCompet":11184,"Ġhonors":11185,"new":11186,"ouch":11187,"ocent":11188,"ovich":11189,"ĠGabriel":11190,"ĠFran":11191,"ĠEsc":11192,"Ġabilities":11193,"ttp":11194,"Ġles":11195,"cia":11196,"Ġendors":11197,"eric":11198,"Ã¦":11199,"ĠInsp":11200,"ĠLions":11201,"alling":11202,"Ġsiege":11203,"Ġassists":11204,"Ġapproaches":11205,"Dec":11206,"ansk":11207,"ĠFaculty":11208,"song":11209,"ĠMagn":11210,"elia":11211,"rav":11212,"rency":11213,"ĠRivers":11214,"Ġbrigade":11215,"ĠIndustry":11216,"ĠFem":11217,"Ġreflected":11218,"iko":11219,"Ġdisaster":11220,"ĠPack":11221,"Ġscre":11222,"ĠAzerbaijan":11223,"Ġclar":11224,"Ġ1876":11225,"Ġhorn":11226,"Ġdescendants":11227,"ĠSusan":11228,"Ġworry":11229,"Ġthank":11230,"Ġoutdoor":11231,"ĠCN":11232,"Ġbonus":11233,"ĠStre":11234,"viously":11235,"ilia":11236,"Ġtemporarily":11237,"enia":11238,"Ġannex":11239,"2006":11240,"Ġgif":11241,"Ġrecipient":11242,"ishops":11243,"Ġdissolved":11244,"ĠSic":11245,"ĠHom":11246,"hor":11247,"Ġpredict":11248,"Ġ1871":11249,"Ġordinary":11250,"Ġpharm":11251,"ĠElement":11252,"ĠHarbor":11253,"wings":11254,"Ġ62":11255,"Ġburning":11256,"Ġexit":11257,"Ġgap":11258,"Ġbats":11259,"Ġdiseases":11260,"ĠAmsterdam":11261,"ĠHolland":11262,"EN":11263,"Ġwake":11264,"aws":11265,"ablished":11266,"Ġremoval":11267,"To":11268,"Ġwidow":11269,"ificate":11270,"keley":11271,"ĠWarsaw":11272,"iji":11273,"Ġorganic":11274,"empl":11275,"izer":11276,"Ġafraid":11277,"Ġvariable":11278,"ĠPolicy":11279,"Ġhorizon":11280,"ĠNevertheless":11281,"Ġvolunteers":11282,"wig":11283,"rod":11284,"ĠKath":11285,"à®":11286,"Ġorange":11287,"kg":11288,"rible":11289,"Ġcomments":11290,"ĠWed":11291,"Ġcitizen":11292,"ĠBot":11293,"Ġexperiments":11294,"ĠCroatia":11295,"ĠEthiop":11296,"avor":11297,"Ġprev":11298,"etary":11299,"ĠSean":11300,"ĠMend":11301,"Ġanger":11302,"Ġextinct":11303,"ĠMadison":11304,"Ġpitched":11305,"Ġglanced":11306,"ĠBased":11307,"Ġeconomics":11308,"okes":11309,"Ġtum":11310,"Ġarrives":11311,"Ġmidfielder":11312,"lia":11313,"Ġmonthly":11314,"helm":11315,"Ġrolled":11316,"atus":11317,"ĠExper":11318,"ĠMoroc":11319,"cester":11320,"ĠHob":11321,"Ġhoping":11322,"ĠBuch":11323,"ourt":11324,"Jan":11325,"ĠEdwards":11326,"ĠSalt":11327,"ĠHistorical":11328,"Ġreferring":11329,"Ġvulner":11330,"employ":11331,"Ġdealing":11332,"ĠWoman":11333,"ĠMurphy":11334,"ullivan":11335,"Ġalternate":11336,"Ġcomprehensive":11337,"Ġ\"[":11338,"Ġrifle":11339,"ampa":11340,"Ġtravels":11341,"ĠCinem":11342,"2005":11343,"ĠOm":11344,"Ġsemif":11345,"ĠAaron":11346,"anni":11347,"oving":11348,"Ġtheories":11349,"ĠCameron":11350,"Ġdeliber":11351,"Ġbuses":11352,"ĠSide":11353,"ĠKay":11354,"Ġmyster":11355,"his":11356,"zyme":11357,"Ġconnects":11358,"Ġimprovements":11359,"Ġrecognize":11360,"Ġregul":11361,"ĠBrew":11362,"Ġstudios":11363,"ĠLock":11364,"ĠPetersburg":11365,"Ġ63":11366,"Ġkilometers":11367,"ĠShaw":11368,"ĠPS":11369,"log":11370,"Ġspeakers":11371,"Ġexplicit":11372,"ĠHitler":11373,"week":11374,"Ġconsistent":11375,"Ġgran":11376,"ĠSongs":11377,"imensional":11378,"gom":11379,"âĢĿ,":11380,"Ġfailing":11381,"Ġdelayed":11382,"Ġjew":11383,"ĠBav":11384,"Ġtox":11385,"enburg":11386,"pow":11387,"Ġruler":11388,"Ġnickname":11389,"Ġbusy":11390,"Ġconsidering":11391,"ĠCov":11392,"Ġprox":11393,"Ġrecur":11394,"Ġpian":11395,"Ġfeud":11396,"Ġcollective":11397,"Ġghost":11398,"Ġcorps":11399,"ĠCosta":11400,"Ġleaned":11401,"Ġ1840":11402,"ĠYale":11403,"Ġincumbent":11404,"Ġmanip":11405,"Ġscope":11406,"Ġoxygen":11407,"wer":11408,"Ġknee":11409,"Ġmasc":11410,"Ġdesper":11411,"idad":11412,"cat":11413,"itated":11414,"ĠSteven":11415,"ĠBald":11416,"ĠVideo":11417,"ĠEmma":11418,"Ġlogo":11419,"eyer":11420,"Ġcoaches":11421,"Ġ1878":11422,"EP":11423,"Ġflour":11424,"Ġbeaten":11425,"ĠTon":11426,"Ġbrings":11427,"Ġtherapy":11428,"Ġhind":11429,"ĠRight":11430,"Ġregister":11431,"ĠGot":11432,"ĠPolitical":11433,"Ġundergraduate":11434,"ttps":11435,"itary":11436,"Ġreaders":11437,"ĠLion":11438,"ĠNeil":11439,"ĠIT":11440,"rection":11441,"Ġbankrupt":11442,"iast":11443,"Ġhistorically":11444,"Ġmoon":11445,"ser":11446,"stown":11447,"Ġclosure":11448,"Ġcraft":11449,"Ġcomputers":11450,"Ġcorruption":11451,"ffield":11452,"Ġpink":11453,"Ġpermit":11454,"Who":11455,"ĠNebraska":11456,"otion":11457,"Ġstake":11458,"ĠStuart":11459,"abe":11460,"Ġelevated":11461,"Ġaffiliate":11462,"Ġvoy":11463,"levard":11464,"Ġprince":11465,"Ġprocedure":11466,"Ġfrustr":11467,"Ġfiring":11468,"ĠAthletics":11469,"ĠPic":11470,"Ġskill":11471,"ĠGiants":11472,"Ġprosecut":11473,"\"'":11474,"ĠMann":11475,"Ġtours":11476,"formance":11477,"ĠPlayers":11478,"Ġfiles":11479,"ĠVenice":11480,"ĠDid":11481,"Ġnamely":11482,"Ġborrow":11483,"icular":11484,"Ġembr":11485,"lain":11486,"anj":11487,"inded":11488,"ourg":11489,"Ġnest":11490,"peare":11491,"Ġnat":11492,"Ġchrom":11493,"bie":11494,"Ġfairly":11495,"2012":11496,"Ġchallenged":11497,"Ġrecruited":11498,"Ġretain":11499,"Ġlifetime":11500,"Ġvocalist":11501,"Ġovert":11502,"Ġverse":11503,"Ġvariant":11504,"Ġpayment":11505,"Ġsuspected":11506,"Ġchoir":11507,"Ġcalm":11508,"ĠAlger":11509,"Ġgrap":11510,"ĠSierra":11511,"Ġexhibitions":11512,"Ġexhibit":11513,"Ġbreeding":11514,"Ġdism":11515,"aft":11516,"ĠGhana":11517,"ĠSP":11518,"ĠAnglic":11519,"DF":11520,"Ġveteran":11521,"Ġ\"(":11522,"Ġwaited":11523,"Ġlift":11524,"ĠTechnical":11525,"Ġthirteen":11526,"ĠâĤ¬":11527,"Ġdict":11528,"Ġ\"\".":11529,"Ġstruggled":11530,"acking":11531,"ampton":11532,"Ġwound":11533,"Ġ1867":11534,"Me":11535,"Ġposts":11536,"ĠAbraham":11537,"akespeare":11538,"ĠPrinc":11539,"ĠYe":11540,"ĠMahar":11541,"ĠChapel":11542,"Ġconsumption":11543,"Ġstronger":11544,"osevelt":11545,"Ġorganisations":11546,"Ġseeds":11547,"ĠPont":11548,"Ġsituations":11549,"Ġadministered":11550,"Ġparks":11551,"Ġthereby":11552,"Ġcontracts":11553,"etr":11554,"ĠFlorence":11555,"Ġsolutions":11556,"Ġorchest":11557,"Ġholiday":11558,"Ġcounsel":11559,"include":11560,"ĠGregory":11561,"ĠAbu":11562,"Ġcasualties":11563,"urated":11564,"Ġ1872":11565,"Ġradar":11566,"ĠLan":11567,"ĠTas":11568,"ĠLarry":11569,"Ġaccum":11570,"Ġallies":11571,"held":11572,"Ġcolleagues":11573,"oker":11574,"oustic":11575,"Ġabolished":11576,"Ġclient":11577,"Ġsignals":11578,"ĠOrd":11579,"ĠGonz":11580,"Ġcurric":11581,"Ġratings":11582,"uis":11583,"agger":11584,"Ġ1875":11585,"ĠLuis":11586,"ĠWithout":11587,"Ġ61":11588,"core":11589,"ĠOttawa":11590,"Ġaddressed":11591,"Ġresort":11592,"ĠBund":11593,"Ġbars":11594,"Ġdying":11595,"ancial":11596,"Love":11597,"ĠBulgarian":11598,"ĠLiga":11599,"Ġflower":11600,"ĠCampaign":11601,"Ġconsumer":11602,"word":11603,"agons":11604,"Ġpole":11605,"Ġcelebration":11606,"ĠZe":11607,"anta":11608,"Ġrice":11609,"Ġlaboratory":11610,"ĠEight":11611,"Ġbridges":11612,"Ġloop":11613,"Ġwhispered":11614,"through":11615,"ĠHerbert":11616,"agonist":11617,"ften":11618,"Ġplease":11619,"ĠLebanon":11620,"Ġsovere":11621,"Ġinstallation":11622,"ĠIP":11623,"Ġris":11624,"ĠBulgaria":11625,"Ġperceived":11626,"iscopal":11627,"Ġ1879":11628,"Ġhypothes":11629,"Ġtaste":11630,"Ġ98":11631,"Ġclients":11632,"ĠVers":11633,"ĠImm":11634,"ĠPearl":11635,"inus":11636,"ubs":11637,"Ġscientist":11638,"yright":11639,"Ġshorter":11640,"Ġfocusing":11641,"Ġcabin":11642,"redited":11643,"ĠLear":11644,"Ġsteal":11645,"Ġ68":11646,"ĠSoul":11647,"Ġadjust":11648,"Ġblank":11649,"Ġtransp":11650,"ĠLucas":11651,"Ġconfidence":11652,"Geor":11653,"ĠFu":11654,"ĠKrist":11655,"Ġcalendar":11656,"Ġaims":11657,"arts":11658,"iffer":11659,"ĠSyrian":11660,"regular":11661,"ĠSz":11662,"ĠUlt":11663,"omed":11664,"EL":11665,"Ġaccurate":11666,"Ã¶n":11667,"Ġpatent":11668,"ĠEddie":11669,"ĠGay":11670,"rimination":11671,"lease":11672,"Ġinfl":11673,"kov":11674,"Ġorbit":11675,"ĠHerman":11676,"Ġ76":11677,"urse":11678,"ĠHav":11679,"Ġimprisoned":11680,"Ġprevented":11681,"expected":11682,"isons":11683,"ĠDelaware":11684,"Ġempire":11685,",âĢĻ":11686,"ĠDennis":11687,"amics":11688,"Ġinteraction":11689,"Ġprofile":11690,"ĠFormula":11691,"ĠSupport":11692,"Ġcarefully":11693,"Ġfantasy":11694,"ĠEy":11695,"Ġbeer":11696,"Ġaccommodate":11697,"Ġdocumented":11698,"Ġtape":11699,"ĠRoosevelt":11700,"Ġsupplement":11701,"Ġcompositions":11702,"original":11703,"CD":11704,"Ġstones":11705,"Ġgrandson":11706,"inf":11707,"Ġarena":11708,"sts":11709,"ÑĤ":11710,"ĠType":11711,"Ġachievement":11712,"Ġ96":11713,"Ġextending":11714,"ĠMul":11715,"Ġeating":11716,"Ġ67":11717,"list":11718,"Ġfuck":11719,"Ġprogrammes":11720,"ĠTed":11721,"asm":11722,"Ġ82":11723,"Ġaggregate":11724,"Ġreveal":11725,"Ġfourteen":11726,"Ġsixteen":11727,"Ġstored":11728,"ĠHenri":11729,"Ġgaining":11730,"ĠCroatian":11731,"ĠKate":11732,"Ġmixture":11733,"ĠJake":11734,"ĠFilip":11735,"Ġmaintaining":11736,"ĠExchange":11737,"chief":11738,"Ġactively":11739,"ĠTibet":11740,"duces":11741,"lane":11742,"onlyinclude":11743,"Ġ1866":11744,"Ġbacked":11745,"ĠMol":11746,"nÃ©e":11747,"ĠRat":11748,"Ġshots":11749,"lights":11750,"oka":11751,"Ġgenerations":11752,"Ġpeer":11753,"unning":11754,"Big":11755,"Ġ1868":11756,"Ġpredominantly":11757,"Ġquad":11758,"Ġtelephone":11759,"ĠPin":11760,"Ġchemistry":11761,"itting":11762,"Ġabund":11763,"made":11764,"\"|":11765,"Ġpoliticians":11766,"Ġtoler":11767,"ĠâĢ¦":11768,"ĠMalay":11769,"Ġlung":11770,"Ġfib":11771,"Ġreforms":11772,"ĠHughes":11773,"Ġmemor":11774,"Ġprisoner":11775,"Ġlandmark":11776,"ĠBerkeley":11777,"Ġrenowned":11778,"Ġneighboring":11779,"Ġexch":11780,"Ġá":11781,"Ġfame":11782,"Ġarchaeological":11783,"Ġguys":11784,"ĠProduction":11785,"anti":11786,"Ġsid":11787,"Ġbehaviour":11788,"Ġprestigious":11789,"...\"":11790,"Ġconcur":11791,"Ġstructural":11792,"Ġlakes":11793,"Ġpregnant":11794,"itro":11795,"Ġ1874":11796,"ĠEsp":11797,"Ġfunctional":11798,"post":11799,"Ġtube":11800,"ĠNote":11801,"join":11802,"ĠSuz":11803,"ĠOpp":11804,"ĠCoach":11805,"ĠCond":11806,"ĠOil":11807,"Ġfootage":11808,"Ġpersonally":11809,"ĠHeavy":11810,"Ġtomb":11811,"Ġ1873":11812,"Ġtiny":11813,"Ġsurrender":11814,"ĠRange":11815,"quis":11816,"Ġclosest":11817,"Ġbasin":11818,"Ġbin":11819,"itudes":11820,"ĠShanghai":11821,"Ġdefender":11822,"Ġguid":11823,"ĠGoogle":11824,"ĠHamburg":11825,"Ġsustained":11826,"Ġretiring":11827,"Ġargues":11828,"Ġmainland":11829,"Ġconcepts":11830,"pine":11831,"ĠPedro":11832,"ĠGam":11833,"Ġviolin":11834,"âĢ¦âĢĿ":11835,"Ġgymn":11836,"1990":11837,"Ġathletic":11838,"ĠFa":11839,"ĠByzantine":11840,"ĠGuild":11841,"Ġalign":11842,"Ġrever":11843,"Ġbroadcasts":11844,"Ġunw":11845,"ĠPast":11846,"Ġspac":11847,"Ġrabb":11848,"ĠGrammy":11849,"ĠLeo":11850,"Ġartificial":11851,"Ġhardware":11852,"wright":11853,"ĠBeginning":11854,"ĠWellington":11855,"Ġciting":11856,"à¥":11857,"Ġearthquake":11858,"ĠSheffield":11859,"uckland":11860,"ĠSÃ£o":11861,"Ġdozen":11862,"ĠTreas":11863,"Ġcontribute":11864,"ĠVenezuela":11865,"Ant":11866,"Ġleather":11867,"Ġpap":11868,"Ġdestination":11869,"orge":11870,"ĠLux":11871,"Ġerup":11872,"ĠIndependence":11873,"Ġcrops":11874,"ĠPel":11875,"ĠRou":11876,"rus":11877,"white":11878,"Ġreass":11879,"boat":11880,"istent":11881,"Ġrevised":11882,"Ġpackage":11883,"ĠFinance":11884,"Ġprayer":11885,"ĠTwenty":11886,"Ġstatements":11887,"Ġgenes":11888,"ĠButler":11889,"Ġbarr":11890,"piece":11891,"ĠGuardian":11892,"ĠGilbert":11893,"fecture":11894,"ĠMath":11895,"Ġairline":11896,"Ġcathedral":11897,"Ġacademy":11898,"writing":11899,"Ġfastest":11900,"ĠHunt":11901,"Ġshed":11902,"Ġimprovement":11903,"Ġvariation":11904,"ĠAx":11905,"Ġfewer":11906,"ĠSoft":11907,"cht":11908,"mail":11909,"pic":11910,"ĠStanford":11911,"Ġextends":11912,"ĠShakespeare":11913,"Ġengagement":11914,"Ġsuspension":11915,"ĠDanny":11916,"ĠYam":11917,"isan":11918,"Ġdivorce":11919,"Ġculmin":11920,"Ġenzyme":11921,"Ġlegit":11922,"Com":11923,"Ġcultures":11924,"ĠHorse":11925,"ĠSoutheast":11926,"ĠTommy":11927,"Ġemployee":11928,"Ġworker":11929,"Ġslight":11930,"Ġ1877":11931,"ults":11932,"Ġhaven":11933,"sor":11934,"Ġfate":11935,"inery":11936,"ocal":11937,"Ġengage":11938,"Ġvictories":11939,"ĠDoc":11940,"caster":11941,"Ġpreserve":11942,"Ġefficiency":11943,"Ġrepeatedly":11944,"ĠRace":11945,"Ġboards":11946,"ĠOri":11947,"Ġreluct":11948,"Ġbarrel":11949,"oj":11950,"CS":11951,"Ġshout":11952,"Station":11953,"acco":11954,"ussia":11955,"Ġconfusion":11956,"Ġrealize":11957,"ĠAmbass":11958,"Ġlocomotive":11959,"ĠLanguage":11960,"Ġroster":11961,"Ġvirtual":11962,"amation":11963,"hin":11964,"ĠMTV":11965,"Ġspokes":11966,"artered":11967,"ĠOperations":11968,"Ġreservoir":11969,"ĠSebast":11970,"asia":11971,"orient":11972,"ĠSomers":11973,"Ġinvestigate":11974,"agram":11975,"ĠWallace":11976,"2004":11977,"ĠWells":11978,"ĠMig":11979,"ĠRalph":11980,"Ġ69":11981,"Ġprinting":11982,"Ġliv":11983,"Ġbreaks":11984,"ĠMarx":11985,"Ġmoll":11986,"ĠProtection":11987,"Ġtourism":11988,"ĠProductions":11989,"ĠLaura":11990,"Ġdisplays":11991,"Ġconcentrated":11992,"inted":11993,"Ġbeam":11994,"Ã¼n":11995,"second":11996,"Ġpaying":11997,"Ġpocket":11998,"Ġfraud":11999,"Ġgest":12000,"Ġlocked":12001,"Ġsmart":12002,"lined":12003,"align":12004,"Ġreverse":12005,"Ġknocked":12006,"ĠColleg":12007,"Ġcolonies":12008,"ĠRav":12009,"liminary":12010,"aho":12011,"ĠWatson":12012,"Ġbacking":12013,"igation":12014,"ĠAlbums":12015,"ĠMills":12016,"omas":12017,"arrior":12018,"Where":12019,"ĠCork":12020,"gie":12021,"ĠBass":12022,"Ġ88":12023,"team":12024,"Ġaviation":12025,"Ġthrown":12026,"Ġcuts":12027,"ĠBird":12028,"ĠScar":12029,"Ġgauge":12030,"Go":12031,"Ġcounterpart":12032,"Ġmotorcy":12033,"Ġfollowers":12034,"ĠOcc":12035,"Ġscream":12036,"ĠManuel":12037,"imm":12038,"Ġadventure":12039,"namese":12040,"ĠToy":12041,"gebra":12042,"Ġ1848":12043,"ĠEagles":12044,"Ġpresents":12045,"ĠHarold":12046,"ĠAuckland":12047,"uced":12048,"Ġhook":12049,"ĠNashville":12050,"Ġqualification":12051,"Ġsamples":12052,"áº":12053,"ĠCou":12054,"ĠYugoslavia":12055,"Ġequation":12056,"Ġshipping":12057,"dist":12058,"Ġglac":12059,"Ġtrem":12060,"Ġbadly":12061,"ĠNewton":12062,"Ġpilots":12063,"Ġtouchdowns":12064,"izard":12065,"Ġpace":12066,"Ġbrew":12067,"ĠPrimary":12068,"tegr":12069,"ĠRachel":12070,"Ġunderwent":12071,"Ġdiscontinued":12072,"Ġtissue":12073,"onial":12074,"Ġexamination":12075,"hall":12076,"Ġdialect":12077,"ieg":12078,"ĪĴ":12079,"minster":12080,"Ġaltitude":12081,"ifier":12082,"ridor":12083,"rary":12084,"Te":12085,"speaking":12086,"Ġbrow":12087,"ĠCruz":12088,"ĠSut":12089,"South":12090,"Ð¾Ð":12091,"2013":12092,"ĠPrest":12093,"Ġgirlfriend":12094,"Ġmessages":12095,"Ġpioneer":12096,"Ġdisorder":12097,"ĠAmy":12098,"Nov":12099,"cott":12100,"avian":12101,"Ġredes":12102,"VP":12103,"Ġleagues":12104,"Ġindependently":12105,"ĠTow":12106,"ĠJerem":12107,"ĠPut":12108,"Ġdrain":12109,"Ġdri":12110,"Ġvenues":12111,"gomery":12112,"Ġblog":12113,"Ġinstitute":12114,"Ġencourage":12115,"Ġcotton":12116,"Ġportions":12117,"ĠMethodist":12118,"ĠTerm":12119,"August":12120,"ĠBened":12121,"ĠNy":12122,"ĠSay":12123,"Ġtasks":12124,"Ġtheatrical":12125,"tar":12126,"Ġinject":12127,"Ġdiscovers":12128,"Ġ77":12129,"ĠThai":12130,"reated":12131,"ĠJoint":12132,"Ġmanages":12133,"Ġrelating":12134,"comp":12135,"Ġmemories":12136,"lived":12137,"Ġstationed":12138,"Ġimpressed":12139,"Ġencountered":12140,"Ġbombing":12141,"ĠPalestine":12142,"ĠGust":12143,"Ġrefugees":12144,"atha":12145,"Ġvow":12146,"essa":12147,"ĠExam":12148,"ĠWu":12149,"fr":12150,"Ġ78":12151,"Ġcelebrate":12152,"Mr":12153,"Ġdust":12154,"ĠDelta":12155,"holders":12156,"Ġstolen":12157,"Ġtent":12158,"Ġplates":12159,"Ġdialogue":12160,"Ġeventual":12161,"oi":12162,"oan":12163,"ĠPra":12164,"ĠPrague":12165,"icken":12166,"ĠIntelligence":12167,"ints":12168,"Ġcommitment":12169,"umbled":12170,"Ġprivile":12171,"Ġupdated":12172,"ĠYu":12173,"ĠRhodes":12174,"ĠJar":12175,"Ġreleasing":12176,"Ġdece":12177,"Ġsheep":12178,"ugged":12179,"Ġforb":12180,"Ġmoderate":12181,"isch":12182,"Ġconflic":12183,"ĠMontana":12184,"Ġrunners":12185,"Ġphosph":12186,"ĠTrav":12187,"illes":12188,"ĠEld":12189,"Ġhospitals":12190,"Ġlux":12191,"Ġpermanently":12192,"ĠJunction":12193,"Ġseized":12194,"Ġ1869":12195,"erness":12196,"dal":12197,"ÄŁ":12198,"iability":12199,"Ġ73":12200,"Ġsuccession":12201,"founded":12202,"Ġsciences":12203,"Ġconfron":12204,"ĠGw":12205,"Ġimpressive":12206,"Ġexperts":12207,"ĠIraqi":12208,"ĠIsaac":12209,"Ġwished":12210,"eness":12211,"Ġshelter":12212,"Ġtriple":12213,"Ġcogn":12214,"Ġ1830":12215,"ĠLucy":12216,"ĠPalmer":12217,"Ġbeliefs":12218,"ĠKil":12219,"Ang":12220,"central":12221,"rific":12222,"ĠPul":12223,"ĠChes":12224,"sized":12225,"ĠMut":12226,"ĠBent":12227,"teries":12228,"axy":12229,"Ġmuscle":12230,"ĠMD":12231,"ĠMcM":12232,"ĠMust":12233,"Ġenact":12234,"Ġseverely":12235,"ĠSecondary":12236,"ĠMoz":12237,"Ġelite":12238,"enne":12239,"Ġpunk":12240,"Ġprogressive":12241,"Ġliteracy":12242,"ĠBond":12243,"Ġobservation":12244,"Ġranges":12245,"ju":12246,"via":12247,"Ġannouncement":12248,"Ġmissile":12249,"ĠArnold":12250,"ĠBog":12251,"IM":12252,"Ġcreates":12253,"Ġbears":12254,"Ġ2020":12255,"ĠUsing":12256,"Ġorb":12257,"entieth":12258,"ĠElementary":12259,"Ġ97":12260,"lend":12261,"Ġsegments":12262,"Ġpleasure":12263,"roe":12264,"agi":12265,"Ġautomatically":12266,"Ġrenewed":12267,"ups":12268,"BE":12269,"ucks":12270,"Ġradiation":12271,"Ġtransformed":12272,"ĠInterstate":12273,"Ġfluid":12274,"link":12275,"ĠBeh":12276,"Ġvirus":12277,"count":12278,"ĠVermont":12279,"ĠPhillips":12280,"CP":12281,"ahan":12282,"Ġnumbered":12283,"ĠHaz":12284,"opol":12285,"rage":12286,"Ġstairs":12287,"ĠHat":12288,"Ġsheet":12289,"umer":12290,"umph":12291,"istration":12292,"Ġregulation":12293,"Ġmaintains":12294,"Ġattitude":12295,"Ġ74":12296,"ĠObl":12297,"Ġbord":12298,"uns":12299,"Ġhandling":12300,"Ġrequiring":12301,"Ġmaid":12302,"Ġadmit":12303,"handed":12304,"Ġhref":12305,"ĠJoan":12306,"Ġremix":12307,"eto":12308,"Ġproperly":12309,"Ġsurvival":12310,"Ġpunishment":12311,"Ġsmoke":12312,"Î¹":12313,"></":12314,"Ġfreight":12315,"Ġclay":12316,"ĠCommerce":12317,"Ġlunch":12318,"Ġlighting":12319,"rolled":12320,"ĠHarvey":12321,"Ġfloors":12322,"Ġtel":12323,"ĠÅł":12324,"arvae":12325,"ĠAviation":12326,"ĠTodd":12327,"Ġdependent":12328,"Ġrevival":12329,"sup":12330,"umbai":12331,"iens":12332,"ĠCollection":12333,"Ġcustomer":12334,"Ġrocket":12335,"ĠChase":12336,"speed":12337,"Ø§":12338,"beat":12339,"ĠPerth":12340,"ambers":12341,"ĠMontgomery":12342,"ĠCDP":12343,"Ġuniversal":12344,"Ġadvertis":12345,"gi":12346,"Ġimmigration":12347,"Ġarrangements":12348,"aurus":12349,"addy":12350,"><":12351,"itches":12352,"entry":12353,"rowned":12354,"Ġorient":12355,"ĠWinn":12356,"Ġpsychology":12357,"Ġmirror":12358,"ĠAcadem":12359,"Ġcad":12360,"ĠContemporary":12361,"Ġsque":12362,"____":12363,"Ã©r":12364,"Ġkings":12365,"Ġabb":12366,"Ġartwork":12367,"Ġapolog":12368,"opened":12369,"arta":12370,"alin":12371,"Ġthorough":12372,"Ġoverwhel":12373,"Ġrebellion":12374,"Ġambassador":12375,"ĠPrice":12376,"cur":12377,"ĠAnglican":12378,"ĠFacebook":12379,"2001":12380,"ĠNature":12381,"ĠMarcus":12382,"ĠIndies":12383,"Ġhopes":12384,"Ġcommunist":12385,"Ġmagnetic":12386,"ĠPav":12387,"ĠTyler":12388,"adows":12389,"Ġdistant":12390,"ĠKerala":12391,"atra":12392,"ĠHus":12393,"Ġpatri":12394,"Ġforget":12395,"Ġobsc":12396,"Sch":12397,"ĠCrime":12398,"ĠStarting":12399,"ĠJin":12400,"ĠTransportation":12401,"Ġprofessionals":12402,"ĠSask":12403,"ĠJustin":12404,"ĠRepresentative":12405,"ĠSwan":12406,"Ġathlete":12407,"Ġowns":12408,"Ġdevast":12409,"ahl":12410,"ĠJen":12411,"Ġdevelopments":12412,"Ġpitcher":12413,"Ġvaried":12414,"Ġfortress":12415,"BL":12416,"Ġsignature":12417,"ĠKash":12418,"Ġdiesel":12419,"cz":12420,"omber":12421,"ĠBoulevard":12422,"Ġanx":12423,"ĠStef":12424,"kar":12425,"Ġunexpected":12426,"ĠJulian":12427,"ĠEconomics":12428,"Ġmanufacturers":12429,"aukee":12430,"Per":12431,"ĠLA":12432,"ĠNorthwest":12433,"Ġunanim":12434,"ĠMap":12435,"Red":12436,"Ġfung":12437,"ĠÃģ":12438,"ĠConservation":12439,"Ġstretch":12440,"ĠCreat":12441,"Ġreviewed":12442,"azed":12443,"Sw":12444,"Ġmartial":12445,"Ġwrapped":12446,"Ġconstantly":12447,"ĠOscar":12448,"Ġanyway":12449,"ded":12450,"quer":12451,"Ġpraise":12452,"Ġceiling":12453,"rien":12454,"Ġillustrated":12455,"Ġgri":12456,"Ġcoc":12457,"whe":12458,"Ġphotographer":12459,"March":12460,"Ġphotos":12461,"ullah":12462,"ĠNAS":12463,"ĠFam":12464,"ĠRailways":12465,"airo":12466,"Ġsomewhere":12467,"var":12468,"Ġswing":12469,"Ġbread":12470,"Ġsacrif":12471,"Ġnomine":12472,"books":12473,"ĠSak":12474,"Ġcream":12475,"Ġescort":12476,"inda":12477,"ĠLov":12478,"ĠValent":12479,"Ġmit":12480,"Ġbedroom":12481,"Ġgraphics":12482,"ĠKle":12483,"lesh":12484,"ĠVietnamese":12485,"isha":12486,"Ġ71":12487,"Ġentr":12488,"Ġcongregation":12489,"Ġweaken":12490,"tingham":12491,"Ġconfront":12492,"Ġ1800":12493,"atta":12494,"ĠSpencer":12495,"Ġhappens":12496,"mill":12497,"itol":12498,"gov":12499,"Ġmemb":12500,"Ġreserves":12501,"Ġrestrictions":12502,"Ġvolunteer":12503,"umni":12504,"Ã±a":12505,"ĠHein":12506,"Ġresource":12507,"Ġtut":12508,"Ġenabled":12509,"ittees":12510,"ĠPros":12511,"ĠCeltic":12512,"ĠArc":12513,"Ġvariations":12514,"Now":12515,"600":12516,"bin":12517,"Ġoptim":12518,"azi":12519,"ĠVern":12520,"ĠOg":12521,"arms":12522,"ilian":12523,"2003":12524,"Ġstriking":12525,"Ġeditorial":12526,"Mad":12527,"ipher":12528,"nal":12529,"ĠErnest":12530,"Ã¡s":12531,"Ġpresentation":12532,"ĠRevival":12533,"Ġreferend":12534,"Ġconvert":12535,"inated":12536,"quiry":12537,"ĠLeader":12538,"pense":12539,"ighting":12540,"Ġguidance":12541,"Ġallegedly":12542,"Ġintervention":12543,"first":12544,"makers":12545,"ĠDeep":12546,"Ġtram":12547,"vy":12548,"Ġseparation":12549,"Ġoccasional":12550,"Ġworried":12551,"ĠGrove":12552,"Ġsocieties":12553,"istani":12554,"ĠComputer":12555,"Ġrequirement":12556,"Co":12557,"Ġtributary":12558,"Ġcirculation":12559,"ĠStakes":12560,"thal":12561,"liga":12562,"ĠGothic":12563,"ometown":12564,"Ġjumped":12565,"Ġcriteria":12566,"LP":12567,"ĠLead":12568,"Ġinvented":12569,"ĠGas":12570,"ĠVilla":12571,"Ġupcoming":12572,"Ġcarved":12573,"Car":12574,"Ġpounds":12575,"ĠReed":12576,"ĠLog":12577,"Ġinterface":12578,"tn":12579,"Ġhiding":12580,"inae":12581,"ĠPanama":12582,"Ġsits":12583,"Ġconce":12584,"ĠManager":12585,"Ġrelatives":12586,"ĠCardinal":12587,"ĠSor":12588,"Ġcivilians":12589,"ĠDol":12590,"world":12591,"ĠCec":12592,"Ġshaped":12593,"oko":12594,"inite":12595,"ĠPlayStation":12596,"Ġhem":12597,"Ġmall":12598,"auer":12599,"Ġsurvivors":12600,"ĠIng":12601,"swick":12602,"ĠRah":12603,"Ġdeals":12604,"Ġprovisions":12605,"UC":12606,"Ġstatistics":12607,"Ġhonored":12608,"ĠAnim":12609,"ĠSof":12610,"ĠBach":12611,"ĠGra":12612,"Ġexterior":12613,"Ġanimation":12614,"Ġdrunk":12615,"ĠLisa":12616,"Ġordained":12617,"ĠAer":12618,"Ġmetropolitan":12619,"Ġhes":12620,"Ġol":12621,"Ġanywhere":12622,"ĠSha":12623,"ĠExpl":12624,"Ġcentres":12625,"ĠRams":12626,"ĠVent":12627,"overy":12628,"Ġaltered":12629,"Ġsimilarly":12630,"ĠCabinet":12631,"byter":12632,"ĠBennett":12633,"Ġnervous":12634,"Ġexile":12635,"ĠPon":12636,"Ġshrug":12637,"Int":12638,"Ġmorph":12639,"ussion":12640,"zed":12641,"Ġjet":12642,"Ġgrants":12643,"Ġfier":12644,"Ġproceeded":12645,"%),":12646,"Ġaudiences":12647,"ÅĤaw":12648,"ĠSudan":12649,"ĠArabia":12650,"ountain":12651,"pin":12652,"ĠChang":12653,"ignated":12654,"ĠRuth":12655,"ema":12656,"yers":12657,"Ġargue":12658,"apur":12659,"Ġkills":12660,"Ġanthrop":12661,"Ġwreck":12662,"Ġvoices":12663,"Ġpriests":12664,"ĠExped":12665,"itus":12666,"waukee":12667,"umberland":12668,"Ġloose":12669,"sed":12670,"Ġexplanation":12671,"Ġgoverning":12672,"Ġblend":12673,"Ġwidth":12674,"Ġmoist":12675,"Ġdoctors":12676,"ĠAmbassador":12677,"ĠBear":12678,"Ġneighbouring":12679,"ĠRoom":12680,"lining":12681,"Ġmolecular":12682,"ateral":12683,"ubb":12684,"lected":12685,"ĠEssex":12686,"Ġcollapsed":12687,"Ġhybrid":12688,"uros":12689,"ĠStein":12690,"Ġdarkness":12691,"asted":12692,"GM":12693,"ĠMidd":12694,"ĠEC":12695,"Ġadvocate":12696,"Ġfavourite":12697,"Ġsuggesting":12698,"ĠKrish":12699,"Ġliver":12700,"Ġ1857":12701,"UN":12702,"aca":12703,"ultural":12704,"Ġexport":12705,"ds":12706,"Ġaccomplished":12707,"Ġrevenge":12708,"Ġ92":12709,"Ġpreparing":12710,"Ġsoap":12711,"ĠCraw":12712,"Music":12713,"Ġtrio":12714,"tz":12715,"had":12716,"Ġprocedures":12717,"ĠDog":12718,"ĠRaymond":12719,"orr":12720,"Ġpursued":12721,"ĠHigher":12722,"2002":12723,"took":12724,"Ġdatabase":12725,"half":12726,"ĠSlav":12727,"sche":12728,"Ġpulling":12729,"bek":12730,"Ġcataly":12731,"Ġsongwriter":12732,"Ġattraction":12733,"Ġgray":12734,"Ġtoll":12735,"Ġtransit":12736,"Ġliterally":12737,"ĠIndonesian":12738,"Ġlistening":12739,"Ġacknowledged":12740,"Ġcanon":12741,"Ġfurniture":12742,"Ġelectro":12743,"Ġdispers":12744,"borg":12745,"Ġrivals":12746,"Ġmanual":12747,"oints":12748,"Ġrestore":12749,"eda":12750,"ĠRenaissance":12751,"Ġfisher":12752,"nut":12753,"ĠDays":12754,"Ġbearing":12755,"Ġvital":12756,"Ġimproving":12757,"ĠMumbai":12758,"ĠBlake":12759,"ĠSyn":12760,"fol":12761,"Ġcartoon":12762,"Ġlobby":12763,"Ġexplosion":12764,"ĠRus":12765,"ĠGener":12766,"Ġvaries":12767,"Ġprototype":12768,"Ġspecialist":12769,"Ġignored":12770,"Ġcrick":12771,"sur":12772,"Ġsoci":12773,"Ġkinds":12774,"oshi":12775,"Ġcreature":12776,"Ġib":12777,"Ġvibr":12778,"ĠShir":12779,"Ġstroke":12780,"ĠClarke":12781,"boro":12782,"iu":12783,"Ġautobi":12784,"ellation":12785,"Ġpracticed":12786,"Ġbold":12787,"harm":12788,"selling":12789,"ĠYet":12790,"ĠRif":12791,"Ġfo":12792,"ĠSaskat":12793,"omo":12794,"ĠFlow":12795,"iche":12796,"Ġcust":12797,".<":12798,"Ġpotentially":12799,"Ġequally":12800,"EM":12801,"Ġscar":12802,"ĠOwen":12803,"inyl":12804,"boys":12805,"Ġ1859":12806,"Ġpump":12807,"Ġquoted":12808,"Ġbore":12809,"Ġports":12810,"Ġautumn":12811,"Ġlawsuit":12812,"Ġprey":12813,"ĠGy":12814,"ĠCe":12815,"Ġstreams":12816,"Ġprivately":12817,"Ġthreats":12818,"Ġsymmet":12819,"ĠSomerset":12820,"ĠFat":12821,"King":12822,"2014":12823,"gral":12824,"Ġrepublic":12825,"Ġassessment":12826,"ĠDod":12827,"ĠHD":12828,"Ġrecruit":12829,"2015":12830,"Ġblues":12831,"ĠTradition":12832,"Ġrebels":12833,"ĠEmily":12834,"Ġnoting":12835,"haus":12836,"Ġcomplement":12837,"icia":12838,"iao":12839,"hop":12840,"ĠPerson":12841,"Ġconjunction":12842,"ĠAgriculture":12843,"Ġenlisted":12844,"Ġintegration":12845,"Euro":12846,"ĠStudent":12847,"quet":12848,"Time":12849,"ĠGand":12850,"ĠFoster":12851,"ĠDragon":12852,"ĠAirlines":12853,"Ġdiversity":12854,"ĠGuide":12855,"uba":12856,"Ġdivorced":12857,"ĠPete":12858,"senal":12859,"Ġevident":12860,"pol":12861,"ĠDaw":12862,"rys":12863,"ĠPlat":12864,"ĠGolf":12865,"ĠBM":12866,"Ġconspir":12867,"ĠColumbus":12868,"ĠChan":12869,"Ġhanging":12870,"ĠJava":12871,"Ġfract":12872,"Ġwheels":12873,"Ġcompat":12874,"erving":12875,"Ġinscription":12876,"Ġinsisted":12877,"hibition":12878,"ĠSF":12879,"atoes":12880,"avier":12881,"ategory":12882,"Ġauthorized":12883,"ĠPalestinian":12884,"ormal":12885,"arded":12886,"World":12887,"Ġferry":12888,"Ġtouched":12889,"ĠReading":12890,"Ġinhabited":12891,"ayers":12892,"ĠEnvironmental":12893,"ĠScout":12894,"Ġministers":12895,"Ġtension":12896,"adier":12897,"ĠLeices":12898,"Ġbicy":12899,"ente":12900,"East":12901,"Ġexpanding":12902,"avery":12903,"Ġampl":12904,"ĠApart":12905,"Ġreceiver":12906,"three":12907,"munition":12908,"Ġtract":12909,"ĠLamb":12910,"Ġcurriculum":12911,"ĠTong":12912,"Ġknife":12913,"ait":12914,"Ġclergy":12915,"Ġstoryline":12916,"asan":12917,"Ġgathering":12918,"Ġhitting":12919,"ĠArmed":12920,"ĠMarvel":12921,"Ġfindings":12922,"forming":12923,"ounted":12924,"Ġtravelling":12925,"nav":12926,"ĠWalt":12927,"ĠFriends":12928,"Ġdubbed":12929,"ovan":12930,"ĠLeonard":12931,"Ġhometown":12932,"Ġopens":12933,"Ġshallow":12934,"Ġfarms":12935,"Ġquestioned":12936,"Ġlessons":12937,"ailing":12938,"ĠAltern":12939,"Ġoperators":12940,"ĠArtillery":12941,"Ġburial":12942,"Ġspan":12943,"Ġpsychological":12944,"Ã©l":12945,"Ġtopic":12946,"Ġow":12947,"Ġtargeted":12948,"herent":12949,"tering":12950,"ĠStockholm":12951,"ections":12952,"Ġtables":12953,"Ġbinding":12954,"ĠLex":12955,"furt":12956,"Ġsingers":12957,"Ġnationwide":12958,"Ġexplore":12959,"Ġengineers":12960,"imen":12961,"ĠERA":12962,"arten":12963,"Ġbones":12964,"Ġjournals":12965,"Ġmatrix":12966,"ĠFinancial":12967,"Ġfounders":12968,"osophical":12969,"ĠTasman":12970,"1980":12971,"Ġha":12972,"Ġthesis":12973,"Ġconductor":12974,"800":12975,"ĠLot":12976,"Ġcommentary":12977,"Ġridge":12978,"page":12979,"enesis":12980,"Ġstair":12981,"Ġdelay":12982,"ctuary":12983,"Ġtonight":12984,"Ġinfer":12985,"ĠBrah":12986,"tershire":12987,"cos":12988,"Ġheadquartered":12989,"Ġregardless":12990,"umi":12991,"ags":12992,"Ġarmies":12993,"ĠWorkers":12994,"Ġhelicopter":12995,"Ġscattered":12996,"ĠAires":12997,"Ġminimal":12998,"Ġscandal":12999,"Ġaest":13000,"Ġwondered":13001,"ĠLak":13002,"Ġemerging":13003,"Ġcircular":13004,"Ġshadow":13005,"Ġnominations":13006,"ĠPent":13007,"habilit":13008,"ĠSullivan":13009,"Ġstaying":13010,"ucker":13011,"ĠKun":13012,"Ġindoor":13013,"Ġenable":13014,"Ġ93":13015,"tes":13016,"Ġentity":13017,"ĠMcL":13018,"ĠLink":13019,"Ġallegations":13020,"Ġbreed":13021,"Ġpublish":13022,"Ġlectures":13023,"ĠWals":13024,"ĠMagic":13025,"Ġdecrease":13026,"ĠSchol":13027,"Ġemotion":13028,"Ġinterrupted":13029,"ĠLess":13030,"orne":13031,"ĠJamaica":13032,"Ġvolunt":13033,"ĠLiu":13034,"ĠTall":13035,"TP":13036,"ĠWag":13037,"Ġauction":13038,"Ġpanels":13039,"ounce":13040,"ĠWald":13041,"ĠDiamond":13042,"mans":13043,"ulsion":13044,"omorph":13045,"iblings":13046,"Ġskull":13047,"you":13048,"apest":13049,"Ġtier":13050,"ĠNine":13051,"pher":13052,"uto":13053,"ĠSex":13054,"ĠKol":13055,"rox":13056,"Ġinstructions":13057,"ãģ":13058,"Ġbanking":13059,"Ġtemples":13060,"ĠRevolutionary":13061,"Ġnationally":13062,"ĠGeorgian":13063,"onso":13064,"imo":13065,"Ġperpet":13066,"ĠKab":13067,"ollo":13068,"ĠOakland":13069,"Ġsighed":13070,"Ġmood":13071,"omi":13072,"ĠMathemat":13073,"National":13074,"Ġcomfortable":13075,"umble":13076,"Ġservant":13077,"Ġgarrison":13078,"GO":13079,"Ġsew":13080,"ĠFlight":13081,"rified":13082,"Ġtackles":13083,"ulture":13084,"Ġquarters":13085,"Ġbulk":13086,"ĠOw":13087,"ĠCox":13088,"ĠProvincial":13089,"VA":13090,"ĠKnights":13091,"uting":13092,"atorial":13093,"Men":13094,"ango":13095,"ĠBA":13096,"Ġmansion":13097,"Ġaren":13098,"ĠLiterature":13099,"ĠBuc":13100,"Ġinfection":13101,"Ġconflicts":13102,"Ġruins":13103,"Ġlarvae":13104,"Ġwarfare":13105,"Ġing":13106,"Ġproportion":13107,"ĠBuddh":13108,"Ġgods":13109,"Ġdiocese":13110,"onnie":13111,"ĠInv":13112,"tor":13113,"brook":13114,"ĠManila":13115,"ĠFBI":13116,"Ġ81":13117,"Ġmutual":13118,"Ġartif":13119,"Ġbowl":13120,"Ġgrid":13121,"ĠFourth":13122,"ĠSussex":13123,"Ġcomprising":13124,"Ġrevolutionary":13125,"Ġinvolve":13126,"oslov":13127,"chair":13128,"ĠReturn":13129,"ĠOtto":13130,"Ġtowers":13131,"Ġware":13132,"Ġconducting":13133,"legraph":13134,"Ġanymore":13135,"ĠJulia":13136,"Ġmentions":13137,"Rober":13138,"Ġassociations":13139,"Ġinvestors":13140,"ĠSul":13141,"ĠRaf":13142,"Ġtransported":13143,"pling":13144,"ĠFranÃ§":13145,"adian":13146,"ĠCand":13147,"ĠDin":13148,"Pe":13149,"Ġpianist":13150,"ĠBrunswick":13151,"immer":13152,"Ġcodice":13153,"Ġbullet":13154,"Ġassembled":13155,"Ġirregular":13156,"Ġphenomenon":13157,"backs":13158,"Ġchapters":13159,"Ġparticles":13160,"Ġears":13161,"Ġtired":13162,"intendo":13163,"Ġcomprom":13164,"Ġsurrend":13165,"ashire":13166,"Ġrede":13167,"Ġabsolute":13168,"acular":13169,"ĠPod":13170,"Ġreferendum":13171,"ĠMoreover":13172,"IR":13173,"Ġbatting":13174,"Ġjournalists":13175,"Ġalph":13176,"ĠAncient":13177,"Ġconsultant":13178,"Ġintensity":13179,"ymph":13180,"Ġdreams":13181,"ocity":13182,"enhagen":13183,"Ġadopt":13184,"ĠLeft":13185,"ĠDevon":13186,"Ġtopped":13187,"shore":13188,"ĠForum":13189,"Ġvolleyball":13190,"isle":13191,"ĠYellow":13192,"ĠLegion":13193,"ĠFish":13194,"Ġconfirm":13195,"bet":13196,"Ġdemocracy":13197,"Ġrolling":13198,"Ġfru":13199,"ĠAnti":13200,"ilo":13201,"Ġsailing":13202,"Ġintermediate":13203,"ecraft":13204,"Ġ1854":13205,"adal":13206,"Ġgrandmother":13207,"ĠEve":13208,"ĠLegend":13209,"Ġinches":13210,"Ġvirtually":13211,"Ġ87":13212,"ĠEff":13213,"ĠWestminster":13214,"ĠRut":13215,"Ġrelay":13216,"ĠFul":13217,"Ġspecimens":13218,"Ġsearching":13219,"mid":13220,"Mal":13221,"ĠBros":13222,"ĠRaid":13223,"DE":13224,"Ġsolely":13225,"ĠWilhelm":13226,"ĠTrent":13227,"upid":13228,"Ġarbit":13229,"ĠNancy":13230,"ĠBosnia":13231,"Ġstreak":13232,"Ġstaged":13233,"Ġintend":13234,"ĠLakes":13235,"Ġactivists":13236,"holder":13237,"Ġdenomin":13238,"Ġsoutheastern":13239,"Ġweren":13240,"built":13241,"ĠNottingham":13242,"ĠAj":13243,"oding":13244,"Ġbuff":13245,"Ãī":13246,"Ġgoalkeeper":13247,"Ġov":13248,"ĠLiberty":13249,"sl":13250,"ĠKur":13251,"Ġduration":13252,"ĠBuenos":13253,"Ġblocked":13254,"ĠNASA":13255,"ĠCR":13256,"ĠLem":13257,"amped":13258,"San":13259,"Ġconsec":13260,"cano":13261,"ĠSO":13262,"Ġlayers":13263,"Ġgenerate":13264,"Ġconferences":13265,"Ġhydrogen":13266,"ĠAmazon":13267,"Ġstability":13268,"uate":13269,"Ġwickets":13270,"Ġdiscrimination":13271,"orey":13272,"Aust":13273,"rugu":13274,"Ġcouncill":13275,"Ġ1855":13276,"âĢľ":13277,"ĠDy":13278,"Ġupgraded":13279,"ĠSuff":13280,"ĠWednes":13281,"umm":13282,"ĠUnf":13283,"pring":13284,"imination":13285,"Ġ79":13286,"James":13287,"ounters":13288,"Ġapprent":13289,"Ag":13290,"Ġpin":13291,"Ġhaz":13292,"Ġconsent":13293,"Ġhandled":13294,"Ġhier":13295,"ĠAges":13296,"Ġacoustic":13297,"quarters":13298,"pit":13299,"vironments":13300,"Ġmarch":13301,"ĠVII":13302,"Ġvarying":13303,"Ġnights":13304,"ĠMcD":13305,"Ġeighteen":13306,"ugu":13307,"Ġwithdrawn":13308,"GBT":13309,"ĠHous":13310,"Ġprompted":13311,"Ġrational":13312,"elly":13313,"ĠBour":13314,"Ġcitizenship":13315,"ĠMotors":13316,"itious":13317,"ĠTriple":13318,"Ġhate":13319,"Ġnineteenth":13320,"ittle":13321,"ĠLancashire":13322,"ĠHeights":13323,"Ġobser":13324,"hl":13325,"Ġhull":13326,"Ġ101":13327,"Ġedges":13328,"Ġraw":13329,"Ġdepends":13330,"Ġcricketer":13331,"ĠEdition":13332,"angered":13333,"ĠDurham":13334,"Ġidentification":13335,"died":13336,"ĠFriedrich":13337,"Ġconsequences":13338,"Ġmild":13339,"ĠCongo":13340,"inguished":13341,"ĠTunis":13342,"cul":13343,"atories":13344,"ĠExpedition":13345,"Ġmemoir":13346,"ĠMilwaukee":13347,"Ġkicked":13348,"ĠWeekly":13349,"oop":13350,"ĠEagle":13351,"Ġrounded":13352,"Bar":13353,"Ġabsent":13354,"Ġinspect":13355,"ĠMiguel":13356,"Ġgoverned":13357,"Ġstuck":13358,"illiant":13359,"ĠIndianapolis":13360,"ĠLouise":13361,"Ġ700":13362,"veloped":13363,"iago":13364,"ĠDest":13365,"Fr":13366,"Ġstro":13367,"Ġphysically":13368,"Ġdesired":13369,"Ġ84":13370,"anthrop":13371,"green":13372,"ĠSerie":13373,"Ġlearns":13374,"ĠEllen":13375,"Ġdeposits":13376,"ĠMull":13377,"species":13378,"Ġcott":13379,"Ġunve":13380,"ĠAhmed":13381,"Ġderiv":13382,"Ġacquire":13383,"Ġestates":13384,"Ġdisappear":13385,"Ġdish":13386,"hou":13387,"vor":13388,"Ġessay":13389,"Ġsecular":13390,"ĠJak":13391,"ĠWool":13392,"Ġammunition":13393,"bery":13394,"Ġ110":13395,"Ġconsequence":13396,"Ġfirms":13397,"Ġdirections":13398,"ĠJur":13399,"Ġperformers":13400,"Ġproud":13401,"ĠTax":13402,"quest":13403,"Ġsupporter":13404,"alysis":13405,"Ġtestim":13406,"Ġintroduce":13407,"Ġoral":13408,"Ġwoods":13409,"ussels":13410,"Ġquantum":13411,"Ġreads":13412,"Ġcomics":13413,"Ġpreliminary":13414,"ĠEdmund":13415,"ĠWriting":13416,"oting":13417,"sing":13418,"direct":13419,"Ġcurve":13420,"Ġhealthy":13421,"Ġalgorithm":13422,"ĠNapoleon":13423,"ĠMorning":13424,"Ġrushed":13425,"dimensional":13426,"ĠNewport":13427,"Conn":13428,"250":13429,"Ġairfield":13430,"ĠSey":13431,"Ġ89":13432,"stage":13433,"Ġconvey":13434,"ĠJamie":13435,"Ġterrain":13436,"ĠRan":13437,"Ġwanting":13438,"uador":13439,"ĠPresbyter":13440,"ĠHeath":13441,"Ġsounded":13442,"eu":13443,"ordinary":13444,"ĠStrateg":13445,"Ġpolar":13446,"Ġic":13447,"kan":13448,"tage":13449,"ĠLaboratory":13450,"ĠTir":13451,"Ġonwards":13452,"ĠBeing":13453,"Ġintens":13454,"Ġbapt":13455,"ĠPi":13456,"Ġ1858":13457,"iatric":13458,"Ġsuffer":13459,"Ġneighb":13460,"Ġlibraries":13461,"ĠHIV":13462,"ĠChronic":13463,"Ġflooding":13464,"Ġchore":13465,"ĠFilms":13466,"ĠGardens":13467,"Ġtrips":13468,"ĠQuarter":13469,"intendent":13470,"Ġcompetitors":13471,"Ġimpression":13472,"ĠRovers":13473,"ĠCircle":13474,"Ġsyndrome":13475,"Ġabsorbed":13476,"hev":13477,"Ġdrawings":13478,"sal":13479,"Ġsumm":13480,"Ġmonarch":13481,"ĠChelsea":13482,"ĠKyle":13483,"Ġneighbourhood":13484,"Ġgastropod":13485,"Ġnortheastern":13486,"just":13487,"grand":13488,"hal":13489,"Ġwalks":13490,"ĠCornwall":13491,"Ġ86":13492,"Ġdefine":13493,"ĠFro":13494,"athi":13495,"ictions":13496,"Ġspotted":13497,"ĠMoh":13498,"last":13499,"Ġsiblings":13500,"Ġune":13501,"building":13502,"ĠLar":13503,"ethel":13504,"ichael":13505,"Ġdistinguish":13506,"Ġtourists":13507,"ĠPakistani":13508,"ĠPage":13509,"Ġtotally":13510,"Ġtrick":13511,"Ġber":13512,"Ġ91":13513,"ĠGlou":13514,"ĠKid":13515,"Family":13516,"Ġ1856":13517,"ichi":13518,"Ġnaturally":13519,"DI":13520,"eca":13521,"Ġlineup":13522,"south":13523,"Ġwelfare":13524,"ĠGang":13525,"Ġunemploy":13526,"ĠStevens":13527,"Ġinterpreted":13528,"zig":13529,"ĠSimilarly":13530,"Ġenorm":13531,"ĠCuban":13532,"Ġtransformation":13533,"Ġwarned":13534,"Ġrainfall":13535,"ĠIsle":13536,"ĠFranco":13537,"Ġcens":13538,"Ġtorpedo":13539,"Ġtalked":13540,"Ġbiography":13541,"Ġreserved":13542,"sted":13543,"ĠSox":13544,"Ġconfiguration":13545,"ĠLords":13546,"Ġintegral":13547,"utely":13548,"founder":13549,"ĠAub":13550,"NT":13551,"iology":13552,"Ġanime":13553,"Ġdeclar":13554,"ellers":13555,"Ġcro":13556,"Ġanchor":13557,"Ġkiller":13558,"qual":13559,"Ġ94":13560,"rate":13561,"Ġemotions":13562,"Ġassignment":13563,"ĠNC":13564,"Ġsear":13565,"Ġfarmer":13566,"ĠMik":13567,"Ġhoney":13568,"ĠOutstanding":13569,"ĠAA":13570,"ĠESP":13571,"ĠFerdin":13572,"Ġtale":13573,"Ġdoctorate":13574,"HF":13575,"Ġhomosexual":13576,"Ġachievements":13577,"ĠDame":13578,"ĠVolunte":13579,"Ġintr":13580,"insky":13581,"ĠArtist":13582,"azar":13583,"Ġcriticised":13584,"Ġpremier":13585,"Ġsensitive":13586,"Ġsleeping":13587,"ovsky":13588,"Ġauthent":13589,"Ġremn":13590,"Ġgraphic":13591,"Ġjudicial":13592,"Ġvariants":13593,"ĠDrake":13594,"ĠFig":13595,"Ġstyl":13596,"Ġthrowing":13597,"Ġcompensation":13598,"ĠPain":13599,"ĠNak":13600,"ĠCant":13601,"ĠKor":13602,"eme":13603,"ĠOthers":13604,"elong":13605,"ĠStri":13606,"ĠAlbanian":13607,"uania":13608,"Ġcompact":13609,"Ġweigh":13610,"ĠKas":13611,"Ġfool":13612,"terbury":13613,"LB":13614,"Sec":13615,"Ġoccurring":13616,"June":13617,"Cent":13618,"math":13619,"Ġscrap":13620,"ĠLok":13621,"Ġinsects":13622,"Ġthinks":13623,"isi":13624,"ĠRice":13625,"Ġbarn":13626,"Ġgram":13627,"Ġcolours":13628,"Ġbutt":13629,"ĠLiv":13630,"Ġgreet":13631,"Ġnecessarily":13632,"Ac":13633,"ĠCzechoslov":13634,"Ġbypass":13635,"ĠCypr":13636,"Ġpaus":13637,"arrass":13638,"Ġrally":13639,"Ġbottle":13640,"PP":13641,"Ġcompounds":13642,"ĠNintendo":13643,"Ġalumin":13644,"Ġmate":13645,"official":13646,"ĠOS":13647,"osophy":13648,"Ġ1851":13649,"iliary":13650,"(\"":13651,"ĠPorts":13652,"both":13653,"iscal":13654,"ĠScotia":13655,"RL":13656,"ĠKill":13657,"ĠPand":13658,"Ġdemocratic":13659,"Ïģ":13660,"izations":13661,"GS":13662,"Ġplanted":13663,"USA":13664,"Ġschem":13665,"Ġtheology":13666,"onal":13667,"ĠPerformance":13668,"agic":13669,"ĠArticle":13670,"Ġsequences":13671,"onde":13672,"Ġrook":13673,"Ġconsiderably":13674,"ologically":13675,"rish":13676,"Ġtun":13677,"py":13678,"Ġdoctrine":13679,"ĠShin":13680,"Ġcorporation":13681,"Ġfees":13682,"Ġmetab":13683,"ĠCopenhagen":13684,"ĠCrow":13685,"ĠMold":13686,"screen":13687,"dem":13688,"Ġcommanding":13689,"Ġbigger":13690,"Ġgates":13691,"Ġcreek":13692,"ĠMaurice":13693,"Ġharsh":13694,"ĠBag":13695,"iden":13696,"Ġbout":13697,"Ġspite":13698,"Ġimposed":13699,"Ġgrain":13700,"ĠGeoff":13701,"ĠBelarus":13702,"Ġsacred":13703,"phis":13704,"woman":13705,"produced":13706,"Ġlegendary":13707,"Ġshoes":13708,"Ġmistake":13709,"Ġacclaimed":13710,"Ġoct":13711,"Ġrefuses":13712,"wind":13713,"ĠDrama":13714,"ĠManit":13715,"ĠFuture":13716,"ĠKi":13717,"Ġholes":13718,"Ġmigration":13719,"ĠCF":13720,"aque":13721,"amy":13722,"ĠPrivate":13723,"ĠSubsequently":13724,"ĠRelations":13725,"Ġtreas":13726,"ĠPep":13727,"Ġadvised":13728,"Ġreactions":13729,"ĠCompan":13730,"ding":13731,"ĠEss":13732,"Ġcollecting":13733,"usters":13734,"Ġmillions":13735,"Ġmanor":13736,"Ġswall":13737,"á¹":13738,"1999":13739,"vas":13740,"ĠDuc":13741,"Ġbassist":13742,"Ġarray":13743,"ĠWatch":13744,"North":13745,"ĠFaith":13746,"ĠContinental":13747,"Ġunions":13748,"Ġcentered":13749,"ĠArmstrong":13750,"July":13751,"Ġenvironments":13752,"ĠRonald":13753,"iffe":13754,"alties":13755,"Em":13756,"Ġworkshops":13757,"ÅĽ":13758,"ĠOblast":13759,"ĠEcuador":13760,"Ġicon":13761,"ĠCut":13762,"ĠMead":13763,"ilion":13764,"alymp":13765,"hyll":13766,"Come":13767,"ĠData":13768,"Ġcosm":13769,"Ġcapabilities":13770,"Ġpuzz":13771,"Ġobservations":13772,"Ġcig":13773,"Ġvector":13774,"ĠRhode":13775,"ĠLogan":13776,"ĠThurs":13777,"ĠJacques":13778,"Ġhosting":13779,"imensions":13780,"ĠHolmes":13781,"ĠBelf":13782,"ĠKarn":13783,"Ġbasement":13784,"acional":13785,"Ġsporting":13786,"Ġprecip":13787,"Ġaster":13788,"Ġairing":13789,"etheless":13790,"Ġvarieties":13791,"Ġrushing":13792,"Ġgarn":13793,"prises":13794,"ĠPaulo":13795,"Ġdiscipline":13796,"Ġdevelopers":13797,"Ġ83":13798,"ĠGiov":13799,"ĠLodge":13800,"ilda":13801,"Ġuncon":13802,"Ġvoyage":13803,"stall":13804,"Ġitem":13805,"eping":13806,"GC":13807,"ĠEmmy":13808,"ĠSite":13809,"Ġkilometres":13810,"ĠOber":13811,"Ġfolded":13812,"Hey":13813,"Ġmysterious":13814,"Paul":13815,"Ġhyd":13816,"Ġcompanion":13817,"Ġcircles":13818,"Ġquietly":13819,"hend":13820,"Ġsteady":13821,"Ġdeveloper":13822,"Ġseal":13823,"Cap":13824,"Ġoutcome":13825,"Ġsymbols":13826,"Ġhect":13827,"ĠTab":13828,"illon":13829,"Ġpier":13830,"plete":13831,"ĠTat":13832,"Ġcreatures":13833,"ĠNg":13834,"ĠDavies":13835,"Ġsurfaces":13836,"ĠXV":13837,"talions":13838,"ĠEis":13839,"ĠBrussels":13840,"Ġmilitia":13841,"ĠRush":13842,"Ġvulnerable":13843,"ĠRaw":13844,"ĠChad":13845,"ĠDale":13846,"eting":13847,"bank":13848,"April":13849,"ĠCyr":13850,"Ġspecified":13851,"ĠView":13852,"ĠUrugu":13853,"ĠTrack":13854,"Ġglad":13855,"ocene":13856,"ĠCred":13857,"English":13858,"ĠPhot":13859,"ĠReid":13860,"Ġmystery":13861,"esar":13862,"Ġgently":13863,"Ġmud":13864,"Ġmanufacture":13865,"offs":13866,"Ġpoorly":13867,"ĠFranz":13868,"edge":13869,"ophone":13870,"Ġvegetation":13871,"uchy":13872,"press":13873,"ĠArtists":13874,"OT":13875,"ĠBrooks":13876,"ĠCC":13877,"ĠCardinals":13878,"Ġterritorial":13879,"Ġinnovative":13880,"ĠRoth":13881,"ĠBark":13882,"Every":13883,"ĠBenedict":13884,"Ġdad":13885,"uin":13886,"Ġslavery":13887,"rams":13888,"olith":13889,"ĠAdvisory":13890,"Ġaggressive":13891,"Ġdisagre":13892,"Ġlecturer":13893,"Ġassume":13894,"atem":13895,"Ġrape":13896,"ĠMam":13897,"Ġriders":13898,"ĠZhang":13899,"Ġjournalism":13900,"Ġcameras":13901,"Ġlots":13902,"this":13903,"Ġmanifest":13904,"Ġjoy":13905,"ĠChuck":13906,"Ġacclaim":13907,"ĠZimb":13908,"aji":13909,"Ġadvisor":13910,"Ġjoins":13911,"Char":13912,"ĠXI":13913,"Ġdecreased":13914,"Pol":13915,"Ġglow":13916,"Ġnaming":13917,"ĠMC":13918,"ĠHull":13919,"Ġimprisonment":13920,"apa":13921,"Ġgodd":13922,"ska":13923,"League":13924,"Ġensemble":13925,"Ġmarble":13926,"HC":13927,"ĠLocated":13928,"Ġverte":13929,"Ġundertaken":13930,"Ġabbre":13931,"ĠDad":13932,"ĠApost":13933,"ĠCardiff":13934,"Ġdors":13935,"Ġhonest":13936,"Ġvicinity":13937,"role":13938,"ĠLac":13939,"Ġrebounds":13940,"Ġcodes":13941,"Ġ--":13942,"October":13943,"Ġadoption":13944,"Ġsulf":13945,"Ġobst":13946,"Ġtwentieth":13947,"Ġque":13948,"Ġdynamic":13949,"abwe":13950,"ulates":13951,"Ġhumor":13952,"David":13953,"ĠFly":13954,"Ġboarding":13955,"stop":13956,"Ġtribal":13957,"Your":13958,"imity":13959,"Ġprosper":13960,"Ġimmun":13961,"Ġaccus":13962,"ĠCauc":13963,"September":13964,"Ġconfident":13965,"ĠPly":13966,"ĠAhmad":13967,"ĠStage":13968,"ĠAbdul":13969,"Ġdrives":13970,"Ġconsideration":13971,"Ġlease":13972,"sole":13973,"likely":13974,"ĠBod":13975,"Ġmagnitude":13976,"Ġunclear":13977,"Ġlogic":13978,"erek":13979,"Ġagrees":13980,"ĠKingston":13981,"ĠTwitter":13982,"Ġforever":13983,"Ġsuburbs":13984,"olics":13985,"ĠRabbi":13986,"ĠShield":13987,"iaz":13988,"stable":13989,"ĠFoot":13990,"Ġfatal":13991,"Ġaccordance":13992,"ĠWoods":13993,"ĠCyprus":13994,"Ġteammate":13995,"Ġexpelled":13996,"abi":13997,"DR":13998,"Ġexploration":13999,"Pal":14000,"ĠCitiz":14001,"Ġincidents":14002,"ĠPrinceton":14003,"ĠLithuania":14004,"Ġkissed":14005,"uras":14006,"ĠPick":14007,"ĠSheriff":14008,"ĠLGBT":14009,"Ġreconstruction":14010,"ĠBrid":14011,"Ġinteractions":14012,"Ġ1852":14013,"Ġmathematical":14014,"Ġrevived":14015,"stock":14016,"Her":14017,"Ġchorus":14018,"ĠOz":14019,"ĠCann":14020,"Ġproven":14021,"Ġpredicted":14022,"Ġnurse":14023,"nai":14024,"Af":14025,"iolet":14026,"Ġfires":14027,"naissance":14028,"ĠGeneva":14029,"ikes":14030,"ĠAndrews":14031,"Ġnotion":14032,"Ġease":14033,"Ġlover":14034,"2016":14035,"Ġballs":14036,"Life":14037,"Ġconsciousness":14038,"Ġstaring":14039,"ĠGrande":14040,"ĠCort":14041,"Ġ\"...":14042,"ĠSometimes":14043,"Ste":14044,"Ġexamined":14045,"ĠFerg":14046,"Ġsouthwestern":14047,"ento":14048,"ĠAw":14049,"ĠMeg":14050,"Ġlisting":14051,"ĠCanterbury":14052,"CAR":14053,"ĠMorr":14054,"wid":14055,"ĠHerm":14056,"Ġprobability":14057,"oriented":14058,"ashing":14059,"oline":14060,"Ġquart":14061,"Sal":14062,"unda":14063,"Ġfeeding":14064,"Ġpalm":14065,"Ġrotation":14066,"Met":14067,"Äĩ":14068,"ieu":14069,"Ġbreakfast":14070,"six":14071,"ĠSurrey":14072,"ĠSolomon":14073,"uanian":14074,"Ġlun":14075,"ewise":14076,"oque":14077,"ĠFlying":14078,"Ġmissionary":14079,"Ġconsensus":14080,"Ġdragon":14081,"Ġpig":14082,"ĠAdvanced":14083,"Ġhabitats":14084,"oku":14085,"Ġaerial":14086,"Ġlifestyle":14087,"IF":14088,"ĠUganda":14089,"ĠMang":14090,"lies":14091,"zing":14092,"roscop":14093,"Ġopposing":14094,"avin":14095,"Ġepit":14096,"Ġion":14097,"Ġdimin":14098,"Ġje":14099,"ĠTransit":14100,"ĠJohannes":14101,"Ġcomplicated":14102,"Ġspeaks":14103,"ĠSource":14104,"government":14105,"iblical":14106,"ÏĤ":14107,"Ġintellig":14108,"ĠUniverse":14109,"Ġbetray":14110,"ĠParalymp":14111,"ĠDuncan":14112,"Ġcant":14113,"erals":14114,"Ġtheoretical":14115,"Ġcurrency":14116,"sign":14117,"arians":14118,"ĠKazakh":14119,"Ġske":14120,"ĠBears":14121,"ĠDim":14122,"ĠGuang":14123,"Ġmonitoring":14124,"Ġmineral":14125,"Ġsubstance":14126,"Ġcopyright":14127,"Ġbills":14128,"Ġhumanity":14129,"Ġorph":14130,"Ġquit":14131,"Jos":14132,"Ġpurple":14133,"ĠCavalry":14134,"Ġinterviewed":14135,"Ġwarr":14136,"Ġattractive":14137,"Ġfed":14138,"best":14139,"Ġvoiced":14140,"oux":14141,"ĠAnnual":14142,"ĠEllis":14143,"ĠColin":14144,"Ġcer":14145,"ĠRank":14146,"ĠPublishing":14147,"Ġconvince":14148,"Ġseparately":14149,"Ġfinale":14150,"Ġdock":14151,"Ġdancer":14152,"Ġsaving":14153,"Ġadequ":14154,"ĠHindi":14155,"God":14156,"ĠMorocco":14157,"Ġtoss":14158,"Ġboost":14159,"cap":14160,"Ġmature":14161,"Ã©d":14162,"Ġrejoin":14163,"ancers":14164,"ĠJesse":14165,"Äģn":14166,"ĠEstate":14167,"Ġrode":14168,"Ġnavy":14169,"ĠHim":14170,"ĠCompetition":14171,"Ġ1853":14172,"bian":14173,"ylan":14174,"Ġalgebra":14175,"Ġrepairs":14176,"ĠEngineers":14177,"Ġlib":14178,"Ġproposals":14179,"ĠTestament":14180,"ĠLutheran":14181,"ĠCampus":14182,"Ġpreservation":14183,"ublished":14184,"ictionary":14185,"Ġgarage":14186,"ĠMalta":14187,"somet":14188,"missions":14189,"ĠBaronet":14190,"ĠHi":14191,"ĠPresbyterian":14192,"Ġslopes":14193,"ĠAlpha":14194,"Ġvig":14195,"Ġinclusion":14196,"Ġcolonel":14197,"Ġguided":14198,"Ġrings":14199,"Ġzones":14200,"OW":14201,"eri":14202,"non":14203,"ete":14204,"Ġrevol":14205,"ĠAna":14206,"idi":14207,"ĠTalk":14208,"Ġbacteria":14209,"Ġcha":14210,"arin":14211,"ĠDistinguished":14212,"ĠFerdinand":14213,"Ġcrashed":14214,"Ġoak":14215,"yd":14216,"Ġcondemned":14217,"Ġremoving":14218,"Ġconceived":14219,"songwriter":14220,"ĠTampa":14221,"Ġarmor":14222,"ĠKem":14223,"ĠAgre":14224,"ĠUnfortunately":14225,"ĠTree":14226,"ensen":14227,"ĠConstantin":14228,"Ġinvitation":14229,"division":14230,"itory":14231,"Ġwolf":14232,"ĠAur":14233,"andra":14234,"stanbul":14235,"ĠBasin":14236,"Ġregistration":14237,"Ġcrucial":14238,"Ġarguing":14239,"chewan":14240,"ĠDominican":14241,"Ġclimbed":14242,"lessly":14243,"thouse":14244,"Ġaveraged":14245,"ĠCycl":14246,"anca":14247,"Ġembarrass":14248,"cu":14249,"Ġsalary":14250,"Ġperforms":14251,"Ġanten":14252,"path":14253,"ahu":14254,"Ġarose":14255,"erie":14256,"Ġdining":14257,"Ġencl":14258,"Ġyes":14259,
[...]
