#version: 0.2 - Trained by `huggingface/tokenizers`
à ¤
à ¥
Ġ à¤
à¤ ¾
à¤ °
à¥ į
à¥ ĩ
à¤ ¿
Ġà¤ ķ
à¤ Ĥ
à¥ Ģ
à¤ ¨
à¤ ¤
à¤ ķ
à¤ ¯
à¥ ĭ
à¤ ¸
à¤ ²
Ġà¤ ¸
Ġà¤ ¹
à¤ ®
Ġà¤ ®
à¤ µ
Ġà¤ ª
à¥ Ī
à¤ ¹
à¥ ģ
Ġ à¥
à¤ ¦
à¤ ª
Ġà¥ ¤
à¥ĩ à¤Ĥ
Ġà¤ ľ
à¤ Ĺ
Ġ ,
Ġà¤ ħ
Ġà¤ µ
à¤ Ł
à¤ ľ
à¥ Ĥ
Ġà¤ ¨
Ġà¤ ¬
à¤ ¶
à¥ĭ à¤Ĥ
Ġà¤ ¦
Ġà¤ °
à¤ ·
à¤ ¡
à¤ ¬
à¤ §
Ġà¤ ²
à¤ ¥
à¤ £
Ġà¤ Ĺ
Ġà¤ Ķ
à¤ ļ
Ġà¤ ī
Ġà¤Ķ à¤°
Ġà¤ ı
Ġà¤ Ń
à¤ ¼
Ġà¤ ¤
à¤ ı
Ġà¤ Ĩ
à¤ Ń
Ġà¤ ¶
Ġà¤ķ à¤°
Ġ "
à¥Ī à¤Ĥ
à¤ ĸ
Ġà¤ª à¤°
Ġà¤ ĩ
Ġà¤ ¯
Ġà¤ı à¤ķ
Ġà¤ ¥
Ġ -
à¤ Ī
à¤ ĩ
Ġ )
Ġ .
Ġ (
Ġà¤ ļ
à¤° à¤¤
à¤¾ à¤Ĥ
à¤ «
Ġà¤¸ à¤®
Ġà¤ĩ à¤¸
Ġ 1
à¥ ĥ
à¤ª à¤¨
à¥ Į
Ġà¤ «
à¤ ģ
Ġà¤ħ à¤¨
à¤¤ à¤°
à¥ ī
à¤° à¤£
Ġà¤Ĺ à¤¯
à¤° à¤ķ
Ġà¤ ĸ
Ġà¤ī à¤¨
à¤¸ à¤ķ
à¥Ģ à¤Ĥ
à¤¿ à¤Ĥ
Ġ 2
à¤ Ĩ
à¤µ à¤°
à¤¾ à¤ģ
Ġà¤ķà¤° à¤¨
à¤ķ à¤°
Ġà¤ Ł
Ġà¤¯ à¤¹
Ġà¤ħ à¤ªà¤¨
à¤ ī
Ġà¤° à¤¹
Ġà¤ ¡
à¤° à¤®
à¤ ĵ
Ġà¤ħ à¤§
à¤ ł
à¤ Ľ
Ġà¤¬ à¤¨
Ġà¤µ à¤°
à¤¯ à¤ķ
Ġà¤ķà¤° à¤¤
Ġ :
à¤ľ à¤¨
à¤¼ à¤¾
à¤ĩ à¤¸
à¤ ħ
à¤° à¤¸
Ġà¤ª à¤¹
Ġà¤¸ à¤ķ
Ġà¤® à¤¹
Ġà¤ §
Ġà¤¨ à¤¹
Ġà¤ī à¤¤
à¥ ¦
0 0
à¤° à¤¦
à¤¯ à¤¹
Ġ '
Ġà¤ī à¤ª
â Ģ
à¤ª à¤°
§ à¥
Ġà¤¤ à¤¥
Ġ1 9
Ġà¤ķ à¤¹
à¤¸ à¤°
Ġà¤ľ à¤¨
Ġà¤¤ à¤ķ
à¤Ł à¤°
à¤¶ à¤¨
Ġà¤ ĺ
à¤µ à¤¤
à¤¨ à¤ķ
à¤ ¢
Ġà¤ Ľ
Ġ t
Ġà¤¸à¤ķ à¤¤
à¤¹ à¤°
Ġà¤² à¤Ĺ
Ġà¤ī à¤¸
à¤¯ à¤¨
Ġ =
à¤¼ à¥Ģ
Ġà¤īà¤¨ à¤ķ
à¤° à¤¹
à¤² à¤¨
i n
Ġà¤ħ à¤²
à¤Ĺ à¤°
à¤¬ à¤°
Ġà¤µ à¤¹
à¤µ à¤¨
o n
Ġà¤ªà¤¹ à¤²
à¤² à¤¤
à¤¸ à¤®
à¤¯ à¤®
à¤ ŀ
à¤¯ à¤°
a n
Ġà¤ Ī
à¤¸ à¤¨
à¤ ĺ
Ġà¥ §à¥
à¤Ĺ à¤¤
à¤¼ à¤¿
à¤¯ à¤¤
Ġà¤ķ à¤®
e r
Ġà¤¬ à¤¹
à¤· à¤£
à¤ļ à¤¨
Ġ2 0
Ġ /
Ġà¤¸ à¤¬
à¤² à¤¯
à¤® à¤¨
Ġà¤ĩà¤¸ à¤ķ
Ġà¤ī à¤¸à¤ķ
à¤ĩ à¤¨
a t
à¤® à¤ķ
Ġà¤ı à¤µ
à¤° à¤¯
à¤¦ à¤°
Ġà¤ ĵ
à¤ĩ à¤¸à¤ķ
Ġ âĢ
Ġà¤¸à¤® à¤¯
Ġà¤Ĩ à¤§
o r
Ġ s
Ġà¤ħ à¤°
Ġà¤ ĳ
Ġà¤¸ à¤¹
à¤¼ à¥ĩ
Ġà¥ ¨
Ġà¤ħ à¤Ń
a r
à¤° à¤µ
à¤µ à¤¸
à¤¤ à¤¨
Ġà¤ħ à¤®
h e
Ġà¤ Ĳ
à¤Ł à¤¨
Ġà¤ķ à¤Ī
Ġà¤¸ à¤°
Ġà¤¸ à¤Ń
Ġà¤ĩ à¤¨
Ġà¤Ĩ à¤¦
Ġà¤ª à¤¤
Ġà¤ľ à¤¬
a l
à¤ª à¤¤
Ġ ]
à¤ķ à¤²
Ġà¤¬ à¤¡
Ġ >
Ġ2 00
¯ à¥
Ġà¤° à¤ĸ
Ġà¤¸à¤¬ à¤¸
Ġ c
Ġ20 1
Ġà¤ī à¤¦
à¤ ĥ
Ġà¤Ĺ à¤ı
à¥ģ à¤Ĥ
à¤¤ à¤ķ
à¤µ à¤²
Ġà¤Ĺ à¤Ī
Ġ 3
Ġà¤¦ à¤°
e n
e s
à¤® à¤¤
à¥į âĢ
à¤¡ à¤²
Ġà¤ķ à¤²
Ġà¤Ĩ à¤¯
à¤ Ŀ
à¤ķ à¤°à¤£
i s
à¤¤ à¤®
à¤° à¤Ń
Ġà¤® à¤¨
à¤¶ à¤ķ
Ġà¤Ĩ à¤°
à¤¦ à¤¨
Ġà¤ª à¤¦
à¤Ĺ à¤²
Ġà¤ħ à¤ķ
Ġà¤ħ à¤µ
à¤ī à¤¨
Ġà¤¸ à¤¦
à¥įâĢ į
à¤µ à¤¹
Ġà¤īà¤ª à¤¯
Ġ f
Ġ ;
Ġ b
à¥¦ à¥
Ġt he
Ġà¤ Ĭ
Ġà¤Ĩ à¤µ
i t
e d
Ġà¤ħ à¤¤
Ġ p
Ġà¤ħ à¤¸
à¤§ à¤¨
Ġà¤ħ à¤ª
Ġ [
Ġà¤Ī à¤¸
Ġà¤¤ à¤°à¤¹
Ġà¤Ĩ à¤¤
Ġà¤ª à¤¶
à¤ª à¤ķ
Ġ a
l e
Ġà¤¹ à¤®
à¤° à¤¶
Ġà¤Ĳ à¤¸
i on
à¤¨ à¤¤
Ġ 4
Ġ 5
à¤² à¤¬
Ġà¤¬ à¤¢
Ġ in
Ġà¤¸ à¤°à¤ķ
Ġà¤¦ à¤ķ
Ġà¤ª à¤¡
Ġ |
Ġ T
à¤² à¤ķ
Ġà¤°à¤¹ à¤¤
i c
à¤£ à¤¨
à¤ķ à¤¨
1 9
Ġà¤¹ à¤°
Ġà¤¤ à¤¹
à¤Ń à¤Ĺ
Ġà¤¶ à¤¹à¤°
Ġà¤ļ à¤²
à¤° à¤¨
à¤¡ à¤°
à¤ĸ à¤¨
Ġà¤§ à¤°
Ġà¤®à¤¹ à¤¤
Ġà¥§à¥ ¯à¥
à¤Ł à¤ķ
Ġ w
Ġà¤ĵ à¤°
Ġ d
à¤ĩ à¤Ł
Ġà¤ľ à¤¹
Ġ <
à¤ľ à¤°
Ġ m
Ġà¤¶ à¤¬
Ġ M
à¤¨ à¤°
Ġà¤¬ à¤ļ
Ġà¤Ĩ à¤¨
Ġà¤® à¤§
à¤¬ à¤¨
r e
à¤µ à¤ª
Ġ o
Ġ S
à¤¨ à¤¸
à¤ı à¤ķ
Ġà¤¤ à¤°
à¤¥ à¤®
Ġ %
à¤°à¤¦ à¤°
Ġà¤ľ à¤²
Ġ1 8
Ġà¤ħà¤² à¤Ĺ
Ġà¤ Ŀ
Ġ n
Ġ 6
à¤Ł à¤²
Ġà¤²à¤Ĺ à¤Ńà¤Ĺ
a m
à¤® à¤²
Ġà¤ĳ à¤«
à¥ ¨
à¤¨ à¤µ
à¤ķ à¤¸
Ġà¤¬ à¤²
Ġà¤ħ à¤¬
à¤¸ à¤²
à¤¨ à¤®
Ġà¤¸à¤¦ à¤¸
Ġà¤¸ à¤¤
à¤ī à¤¨à¤ķ
Ġà¤ķà¤¹ à¤¤
Ġ C
Ġà¤ĩ à¤¤
Ġà¤Ĩ à¤ķ
à¤¨ à¤²
Ġà¤ī à¤ļ
Ġ 0
à¤® à¤°
in g
à¤¬ à¤²
à¤ķ à¤¤
Ġà¤¸ à¤¨
à¤µ à¤µ
Ġ 7
à¤ľ à¤¬
a s
o u
2 0
Ġà¤® à¤£
Ġà¤¶ à¤ķ
à¤¯ à¤µà¤¸
à¥ ®
Ġà¤¶ à¤°
à¤ Ĭ
à¤¤ à¤µ
à¤ı à¤¸
Ġà¤¨ à¤¦
Ġà¤¤à¤¹ à¤¸
Ġ P
Ġ19 9
Ġ A
Ġà¤¬ à¤¦
Ġà¤¬ à¤°
Ġà¤ķ à¤Ń
c t
à¤¯ à¤¦
à¤² à¤µ
à¤¼ à¥į
à¤ķ à¤Ł
Ġà¤ ł
à¤° à¤ª
Ġà¤¸ à¤«
à¤ħ à¤¨
Ġà¤ľ à¤°
Ġà¤¨ à¤µ
Ġ 9
Ġà¤Ĩ à¤Ĺ
à¤ª à¤¸
à¤Ĺ à¤¢
à¥ «
Ġà¤Ĩà¤µ à¤¶
o t
Ġà¤ķ à¤ª
Ġà¤ĺ à¤°
à¤° à¤ļ
a g
Ġà¤ĩ à¤²
Ġà¤² à¤ķ
Ġà¤ħ à¤Ĺ
Ġ 8
à¤° à¤¬
Ġà¤¨ à¤Ĺà¤°
à¤ł à¤¨
à¤° à¤¥à¤®
l y
à¤¯ à¤²
Ġà¥ §
à¤¥ à¤µ
à¥¦ à¥¦
à¤ĩ à¤¡
à¥ §à¥
Ġà¤Ĩ à¤Ī
Ġ an
Ġà¤¬ à¤¤
Ġo f
Ġà¤ª à¤ķ
u s
à¤° à¤ľ
Ġà¤¸à¤® à¤Ŀ
Ġà¥ °
Ġ I
o m
à¤¯ à¤ª
à¥ Ń
à¤· à¤ķ
à¤¹ à¤®
à¤ĩ à¤²
à¤ļ à¤°
Ġà¤ī à¤²
à¤¹ à¤¨
d e
en t
Ġà¤Ĩ à¤ľ
à¤ĸ à¤£
à¤¨ à¤¨
à¤¥ à¤²
Ġ1 0
Ġà¤ı à¤¸
à¤Ĩ à¤¤
Ġà¤ħ à¤ļ
Ġà¤µ à¤¸
à¤¹ à¤¤
Ġà¤ı à¤²
l o
e t
Ġà¤Ĩ à¤®
Ġà¤Ĩ à¤¸
Ġà¤Ĺ à¤°
e m
Ġà¤ķ à¤µ
Ġt o
Ġà¤ĩ à¤¨à¤ķ
à¤· à¤¯
à¤² à¤°
Ġà¤¤ à¤¬
à¤° à¤²
à¤® à¤¸
Ġà¤ ¢
Ġà¥ «
à¤· à¤¤
Ġà¤Ĩ à¤ª
à¤Ń à¤µ
Ġ h
à¤¯ à¤¸
Ġà¤Ń à¤°
Ġà¤Ĺ à¤¤
à¤¸ à¤¤
Ġà¤¶ à¤¤
à¤¯ à¤¯à¤¨
à¥ ©
à¤¸ à¤¸
ĠâĢ Ļ
Ġà¤¸à¤® à¤°
Ġà¤ħ à¤«
i g
à¤ĸ à¤²
Ġ1 5
Ġà¤² à¤¡
à¤µ à¤¯
Ġà¤ļ à¤°
Ġà¤° à¤ļà¤¨
à¤¹ à¤°à¤£
à¥ ª
Ġs p
à¥ ¬
à¤° à¤§
à¤¥ à¤¨
Ġà¤īà¤ª à¤²à¤¬
u r
à¤Ĺ à¤¨
Ġà¤° à¤ķ
à¤Ĺ à¤®
Ġà¤ľà¤¬ à¤ķ
Ġà¤® à¤¸
à¤ī à¤¸
ĠâĢ ĺ
00 0
à¥ĥ à¤Ĥ
Ġ l
Ġà¤® à¤¤
Ġ19 8
à¥Ĥ à¤Ĥ
u n
Ġà¤¬à¤¦ à¤²
Ġà¤¤ à¤¤
ĠT i
Ġà¥ ©
à¤Ĩ à¤Ī
Ġà¤¸ à¤ª
à¤§ à¤¤
Ġà¤¬ à¤¸
à¤µ à¤°à¤£
l u
Ġt h
Ġà¤ķà¤° à¤ķ
Ġà¥¨ à¥¦à¥
à¤µ à¤ķ
Ġ D
à¤¼ à¥ĭ
Ġ U
à¤ľ à¤¸
à¤² à¤®
Ġà¤ľ à¤Ĺ
à¤¦ à¤ķ
Ġà¤ķ à¤¨
à¤® à¤¹
Ġ1 7
à¤® à¤¦
Ġà¥¨ à¥¦
Ġà¤ħ à¤¥à¤µ
à¤ķ à¤ª
Ġà¤ľ à¤®
à¤¯ à¤µ
Ġf or
i l
à¤ Ĳ
à¤° à¤µà¤°
Ġà¤ī à¤ªà¤¨
u l
i d
Ġà¤® à¤°
à¤Ĺ à¤µ
Ġà¤ı à¤¨
Ġan d
Ġ W
Ġà¤® à¤¦
à¤¦ à¤®
Ġà¤¸à¤® à¤¸
i k
Ġ19 7
r o
Ġ1 2
Ġ B
à¤¸ à¤µ
à¤¼ à¥ĭà¤Ĥ
à¥ §
Ġ e
à¥ģ à¤ģ
at ion
Ġà¤ī à¤®
Ġ g
Ġ G
Ġà¤ı à¤®
Ġà¤¬ à¤ľ
Ġ1 6
à¤°à¤® à¤£
à¤Ĺ à¤łà¤¨
a p
o l
à¤µ à¤¶
Ġà¤ªà¤° à¤®
at e
Ġà¤¦ à¤¶à¤ķ
à¤ĺ à¤°
Ġ N
Ġà¤Ĭ à¤ªà¤°
Ġà¤Ĺ à¤£
à¤ĩ à¤¨à¤ķ
à¤ķ à¤¡
c lu
Ġ1 3
à¤§ à¤°
à¤Ł à¤®
Ġsp an
à¤² à¤¸
à¤¸ à¤¦
Ġà¤ĸ à¤°
Ġà¤Ĩ à¤¶
a c
Ġà¤°à¤¹ à¤¨
à¤¬ à¤¦
Ġ is
à¤¹ à¤²
à¤ĸ à¤¤
à¤Ĩ à¤°
Ġà¤ħà¤µ à¤§
à¤¤ à¤¤
à¤ļ à¤ķ
à¤µ à¤ľ
à¤ĩ à¤ķ
à¤ľ à¤¯
Ġ L
à¤ĩà¤¸ à¤®
Ġà¤²à¤Ĺ à¤¤
on ly
Ġà¤ľà¤Ĺ à¤¹
à¤ľ à¤¹
à¤¯à¤ķ à¤¤
à¤ľ à¤²
p l
Ġà¤ļ à¤²à¤¤
Ġà¤ħ à¤¦
à¥Ĥ à¤ģ
Ġ re
Ġ E
Ġà¤ĩà¤¸ à¤®
Ġà¤Ĩ à¤²
Ġà¤ı à¤¶
Ġà¤¯ à¤¦
clu de
Ġb e
à¤¡ à¤¨
Ġ19 6
Ġà¤¹ à¤µ
Ġà¤ ĭ
Ġà¤īà¤¸ à¤¨
Ġà¥¨à¥¦à¥ §à¥
Ġ H
Ġ1 1
2 00
ĠâĢ ĵ
Ġà¤ľà¤¨ à¤¸
Ġà¤°à¤ĸ à¤¨
Ġà¤ķ à¤¥
Ġà¤¦ à¤²
à¤ª à¤£
Ġà¥¨à¥¦ à¥¦à¥
à¤ı à¤²
Ġà¤ĺ à¤Łà¤¨
q u
Ġ1 4
à¤« à¤²
i v
à¤® à¤Ĺ
Ġà¤ħà¤° à¤¬
à¤Ĺ à¤¦
à¥ ħ
à¤¥ à¤°
à¤ı à¤Ĺ
o s
Ġà¤ĳ à¤¸
Ġin clude
à¤ļ à¤¯
à¤° à¤ªà¤¤
à¤ Ķ
à¤ı à¤®
à¤ī à¤¦
Ġà¤Ń à¤Ĺà¤µ
Ġ R
à¤® à¤£
e l
à¤ľ à¤ķ
à¤ª à¤·
Ġà¤¸ à¤²
à¤ª à¤²
Ġà¤¨ à¤ı
à¤¬ à¤¸
à¤· à¤®à¤¤
Ġà¤ĩà¤¸ à¤²
Ġinclude only
à¤ļ à¤²
Ġà¤µ à¤¨
Ġ ar
à¤ľ à¤®
Ġà¤°à¤ĸ à¤¤
à¤· à¤¦
à¤§ à¤ķ
Ġà¤ª à¤¢
o w
à¤Ľ à¤²
ct ion
Ġà¤° à¤¸
à¤ħ à¤§
Ġà¤¨ à¤¯
Ġ !
i m
à¤ĸ à¤°
à¤Ń à¤°
Ġà¤ľà¤¨ à¤µà¤°
à¤ĸ à¤ķ
Ġà¥ ª
Ġ19 5
à¤ª à¤¦
c h
Ġà¤ī à¤ł
1 8
Ġà¥ Ń
à¤ľ à¤§
à¤² à¤Ĺ
u t
Ġà¤Ĩ à¤ķà¤°
à¤¡ à¤®
a d
à¤ħ à¤ªà¤¨
Ġ F
Ġà¤® à¤Ī
à¥ ¯
Ġà¤§ à¤¨
à¤¬ à¤Ī
Ġ y
à¤ī à¤¸à¤ķ
à¤¶ à¤¤
Ġà¤Ĩ à¤¬
Ġà¤ħà¤Ĺ à¤¸
Ġà¥§à¥ ®
à¤¸ à¤ª
ag e
Ġà¤ªà¤¹ à¤ļ
à¤¶ à¤²
à¤ı à¤¨
Ġà¤¹ à¤ľ
à¤ħ à¤°
a y
Ġ us
Ġ ?
à¤¤ à¤²
Ġà¤ļ à¤ķ
Ġà¤¹ à¤¸
Ġà¤ħ à¤µà¤¸
Ġà¤ĩ à¤ķ
Ġà¤ķ à¤¡
à¤Ĳ à¤¸
er s
ik i
Ġà¤¦ à¤¸
Ġà¤ķ à¤¬
Ġ19 4
Ġà¤¤à¤ķ à¤¨
à¤¹ à¤ķ
à¤° à¤ĸ
Ġ r
à¤¯ à¤µà¤¹
à¤¨ à¤¯
i a
à¤¨à¤¸ à¤Ń
t h
u m
à¤Ĺ à¤£à¤¨
à¤° à¤ļà¤¨
à¤¼ à¥ģ
Ġà¤® à¤²
à¤ª à¤¯
Ġs t
à¤°à¤ļ à¤²
Ġà¤¨ à¤Ī
à¤ĩ à¤¤
à¥Į à¤Ĥ
à¤Ķ à¤°
Ġà¤Ĩ à¤°à¤®
Ġà¤®à¤¦ à¤¦
Ġà¤ī à¤°
Ġà¤¤ à¤®
o d
Ġà¤ĩ à¤®
Ġà¤ķ à¤ł
à¤² à¤ķà¤°
Ġà¤¤à¤¹ à¤¤
à¤ľ à¤ª
20 1
Ġ v
Ġà¤¹ à¤Ł
ig h
Ġà¤ľà¤¨ à¤Ĺà¤£à¤¨
Ġà¤¨ à¤°
Ġà¤ı à¤¡
à¤¤à¤° à¤£
à¤¨ à¤¦
à¤ľ à¤µ
à¤Ī à¤¸
à¤ħ à¤¤
Ġà¤¨ à¤ķ
a b
Ġ2 5
à¤· à¤°
à¤¤ à¤ª
Ġà¤ħ à¤ªà¤°
à¤· à¤®
Ġà¤¹à¤® à¤²
à¤¶à¤¨ à¤²
Ġà¤Ĭ à¤°
is t
à¤¯ à¤£
Ġà¤Ĩ à¤ªà¤ķ
à¤¨ à¤ķà¤°
à¤® à¤ļ
i r
Ġà¤Ĺ à¤¢
à¤¤à¤° à¤°
à¤ĩ à¤¯
à¤¥ à¤ķ
Ġà¤¤ à¤Ł
à¤ī à¤¤
Ġà¤µ à¤ķ
Ġ3 0
Ġà¤¸ à¤ļ
Ġ {
Ġà¤ī à¤¡
à¤° à¤Ĺ
Ġà¤īà¤ª à¤ķà¤°à¤£
à¤ħ à¤²
Ġ al
Ġà¤Ń à¤µ
Ġà¤ĩ à¤¤à¤¨
Ġà¤Ĳ à¤¤
à¤Ł à¤µ
Ġà¤¸à¤¹ à¤¯
s t
Ġà¤¸à¤« à¤²
Ġà¤¤ à¤²
T C
Ġà¥ ¬
à¤¨ à¤ª
à¤ĩ à¤®
i f
Ġà¤ħ à¤¶
Ġà¤ļ à¤°à¤£
Ġà¤« à¤°
lo c
Ġà¤ľà¤¨ à¤¤
Ġà¤īà¤ª à¤¸
à¤µ à¤ľà¤¨
à¤ķ à¤®
Ġ200 8
ĠU TC
Ġà¤¸à¤« à¤²à¤¤
Ġà¤¹ à¤²
Ġà¤ķà¤¹ à¤²
Ġà¤ĵ à¤²
à¤£ à¤¯
em pl
en d
Ġà¤ħ à¤ľ
à¤°à¤¹ à¤£
Ġà¤¤à¤° à¤«
Ġ19 3
à¤ª à¤®
ĠP h
Ġà¤ĩà¤¸ à¤¸
à¤Łà¤° à¤¨
à¤¹ à¤¸
à ¦
Ġà¤¸ à¤ľ
à¤ĩ à¤µ
Ġà¤µ à¤ľà¤¹
Ġ on
Ġ200 9
it h
Ġ or
à¤ķ à¤µ
à¥§à¥ ¯à¥
Ġà¤Ĺ à¤£à¤¨
Ġà¤ķ à¤¶
Ġà¤® à¤¶
Ġà¤ħà¤® à¤°
Ġ200 7
Ġà¤ĸ à¤¡
Ġ K
à¤¬ à¤¹
Ġà¤¸ à¤¡
o c
Ġà¤ı à¤¯à¤°
Ġà¤¹ à¤¤
t er
Ġà¤° à¤¨
à¤¦ à¤µ
à¤¡ à¤µ
c e
Ġ2 1
à¤® à¤§
à¤ĩ à¤ľ
Ġà¤Ľ à¤¤
à¥įâĢ Į
Ġ2 4
Ġt empl
à¤Ł à¤¬
Ġs e
à¤ ĳ
à¤¬ à¤®
à¤µ à¤ļ
Ġà¤Ĺ à¤¹à¤°
à¤® à¤¯
Ġà¥ ®
Ġ2 3
à¤ª à¤¹à¤²
Ġà¤ı à¤ľ
à¤« à¤°
à¤Ł à¤µà¤°
Ġà¤® à¤ľ
on t
à¤ĩà¤¨ à¤®
Ġà¤Ķ à¤¸à¤¤
Ġà¤īà¤¸ à¤¸
à¤ı à¤«
à¤Ł à¤¤
as s
Ġ Â
Ġ O
à¤ĩà¤¸ à¤¸
Ġà¤¬à¤¨ à¤¨
n d
Ġà¤ħà¤µ à¤¶
Ġ1 00
à¤ķ à¤Ī
Ġà¤² à¤®
Ġ +
Ġà¤ķ à¤Ł
à¤¦ à¤¯
un ction
ĠTi P
ĠTi T
à¥¦à¥¦ à¥¦
Ġà¤ķ à¤ķ
Ġ201 8
Ġp ar
Ġ2 2
Ġ $
à¤ħ à¤®
Ġà¤ħ à¤¸à¤®
à¤® à¤ª
à¤Ĺ à¤£
à¤ļ à¤¤
Ġà¤Ĩ à¤ı
Ġà¤« à¤²
à¤Ĩ à¤ľ
Ġà¤īà¤ª à¤ļ
Ġà¤¨ à¤®
à¤¦ à¤²
a v
Ġà¤Ĩ à¤®à¤¤
à¤¬ à¤¤
Ġà¤® à¤ķ
Ġ V
à¤¶ à¤°
Ġà¤ħà¤µ à¤¸à¤°
Ġ200 6
à¤ł à¤ķ
à¤ħ à¤¬
an g
Ġà¤Ĩ à¤ł
Ġà¤Ń à¤ķ
Ġà¤ª à¤Ł
Ġà¤® à¤ľà¤¬
Ġà¤¦ à¤¬
Ġà¤Ĩà¤¸ à¤ª
Ġà¤ħ à¤Ĺà¤²
Ġà¤Ĩ à¤ļ
qu ot
Ġà¤īà¤¨ à¤®
Ġà¤¬à¤¨ à¤¤
à¤¯ à¤§
19 9
à¤µ à¤Ł
Ġ5 0
Ġw ith
Ġà¤ĩ à¤°
Ġà¤¨ à¤ľ
r i
à¤² à¤Ń
Ġà¤¸ à¤µ
Ġ }
Ġà¤¤ à¤¨
1 7
1 5
à¤¨ à¤Ĺà¤°
Ġd e
Ġà¤ı à¤ļ
à¤ª à¤¶
à¤¸à¤² à¤®
à¤¹ à¤¤à¤°
Ġ201 0
à¤ª à¤ļ
1 0
Ġà¤īà¤¸ à¤®
Ġà¤ıà¤ķ à¤²
Ġà¥§à¥ «
Ġ201 9
à¤ĩà¤¸ à¤²
an d
Ġa s
Ġà¤ķà¤° à¤µ
à¤Ĺ à¤¡
Ġà¤ļ à¤®
Ġà¤ħ à¤Ĺà¤°
Ġà¤« à¤°à¤µà¤°
es s
à¤Ń à¤ķ
a k
à¤Ĺ à¤ľ
Ġ k
Ġà¤ª à¤¸
Ġth is
Ġ &
Ġà¤¦ à¤µ
Ġc l
Ġ19 2
à¤° à¤¥
Ġà¤ĩ à¤ļ
Ġà¤ľ à¤µ
Ġà¤ļ à¤²à¤¨
Ġ201 4
igh t
Ġ201 7
1 6
Ġ it
à¤¦ à¤¶
à¤ª à¤Ł
o p
Ġà¤ļ à¤¨
Ġ201 6
Ġà¤īà¤ª à¤°
Ġn ow
Ġth at
à¤µ à¤§
à¤ı à¤ļ
o g
il l
à¤¶ à¤µ
am e
à¤ī à¤ªà¤°
à¤ĩ à¤ª
Ġar e
à¤¨ à¤Ł
Ġà¥§à¥ Ń
à¤° à¤«
à¤¹ à¤¦
Ġà¤ħ à¤ĸ
Ġà¤ª à¤µ
Ġà¤ķà¤¹ à¤¨
Ġà¤ªà¤ķ à¤¡
T he
es t
5 0
Ġà¤Ľ à¤¹
à¥ ¯à¥
Ġà¤¬à¤¹ à¤¨
Ġà¤¨à¤µ à¤®
Ġe x
à¤¬ à¤ķ
à¤¡ à¤ķ
à¤ĩà¤¨ à¤²
à¤µ à¤¦
Ġ2 6
1 2
Ġtempl ate
n g
Ġà¥§à¥ ¨
iv e
à¤ī à¤Ł
Ġ201 5
à¤£ à¤¤
in k
Ġà¤ı à¤«
a in
Ġà¤Ĺ à¤łà¤¨
Ġà¤¸à¤® à¤ķ
Ġà¤Ń à¤µà¤¨
t ic
Ġà¤Ī à¤°
Ġnow iki
Ġà¤ª à¤²
ĠâĢ Ŀ
Ġy ou
à¤ķ à¤¤à¤°
Ġà¤ħ à¤¡
à¤¦ à¤Ĺ
or t
Ġà¤ªà¤° à¤¨
Ġà¤ıà¤ķ à¤¤
Ġà¥§à¥¯à¥ ¯à¥
Ġà¤ĸ à¤¤à¤°
Ġ2 7
Ġn ot
à¤² à¤ª
à¤ī à¤¸à¤¨
à¤ķ à¤¹
Ġ J
Ġs u
Ġ4 0
Ġà¤ħ à¤¹à¤®
à¤Ĩ à¤¨
à¤ħ à¤ķ
à¤ĺ à¤Łà¤¨
Ġ2 8
Ġfor m
à¤¸ à¤Ń
Ġw h
à¤¤ à¤¬
Ġ200 5
Ġà¥§à¥¯à¥ ®
Ġcl ass
ĠâĢ ľ
à¤°à¤ķ à¤Ł
1 4
Ġà¤ļ à¤¢
Ġà¤ķ à¤¸
Ġ201 3
à¤Ń à¤µà¤¤
à¤ĩ à¤¬
à¤ķ à¤²à¤¨
Ġ201 1
Ġà¥§à¥ ¬
s e
e b
Ġà¤Ĩ à¤¦à¤°
Ġà¤¸à¤¤ à¤¹
p t
Ġà¤®à¤¹ à¤²
Ġà¤Ĺ à¤²à¤¤
à¤¾ à¥ħ
à¤¯ à¤¶
Ġ200 0
Ġà¤Ī à¤¶
Ġp ro
à¤¯ à¤¯
à¤ľ à¤Ĺ
Ġ à
a x
Ġ201 2
o v
T h
Ġà¤ª à¤¨
à¤¶ à¤¯
Ġà¤¯ à¤¥
Ġ *
à¤Ĺ à¤ķà¤°
Ġà¤ıà¤ķ à¤®
Ġ #
à¤Ĩ à¤§
Ġà¤ªà¤¦ à¤ķ
Ġà¤¨ à¤·
à¤¯à¤¨ à¤¶
à¤¤ à¤ļ
Ġà¤Ķ à¤¦
à¤ķ à¤¥
e c
Ġf r
à¤® à¤µ
Ġà¤ı à¤ª
à¤µà¤¹ à¤¨
Ġà¥§ à¥¦
à¤ľ à¤¤
Ġà¥« à¥Ń
Ġà¥§à¥¯à¥ Ń
Ġà¥« à¥®
Ġà¤° à¤µ
Ġà¤ľ à¤Ł
ĠâĢ ĭ
à¤§ à¤µ
à¤¨ à¤¤à¤®
à¤°à¤ķ à¤°
Ġf unction
Ġà¥Ń à¥®
âĢ į
à¤¡ à¤¬
am et
Ġà¤ĳ à¤ķ
à¤°à¤® à¤¶
3 0
à¤¼ à¥Ī
Ġà¤ĭ à¤·
à¤· à¤§
Ġ â
er e
à¤° à¤Ĺà¤¤
à¤¨ à¤µà¤°
i al
Ġ Ø
à¤¸ à¤Ĺà¤¢
Ġà¤° à¤ļ
ic e
à¤ħ à¤ª
à¤Ĺ à¤¸
Ġc om
à¤² à¤¹
1 1
Ġà¤Ĩ à¤¯à¤°
Ġà¤Ĩ à¤ĸ
t t
Ġà¤² à¤ĺ
Ġà¤ª à¤Łà¤¨
Ġà¤ĩà¤¨ à¤®
Ġà¤Ń à¤¯
Ġà¤ķ à¤£
Ġà¤Ĩà¤Ī à¤¸
Ġà¤ļ à¤¯à¤¨
à¤µ à¤£
Ġ200 4
Ġà¤¸à¤° à¤²
Ġà¤¹ à¤¥
Ġs h
Ġ2 9
Ġà¤ľà¤¨ à¤°à¤²
1 3
l d
or m
Ġ19 0
ul a
Ġà¥ ¥
à¤· à¤ľ
it y
à¤¯ à¤Łà¤ķ
à¤°à¤¸ à¤¨
Ġà¤ķà¤ª à¤¡
Ġà¤ĺ à¤Ł
Ġà¤ļ à¤¤
Ġà¤ı à¤°
à¤ħ à¤Ń
in d
Ġà¤īà¤¨ à¤¸
Ġà¤īà¤ª à¤Ń
Ġà¥§à¥ ª
Ġà¤Ĺ à¤²
an t
à¤¦ à¤¬
s o
Ġà¤¦ à¤¶
Ġà¥§à¥¯à¥ ¬
à¤ķà¤¸ à¤Ń
19 8
ed ia
à¤® à¤ľ
à¤Ł à¤¸
à¤µ à¤Ń
à¤¡ à¤¸
à¤¨ à¤Ī
à¤¦ à¤ª
Ġà¤Ĩ à¤¹
i p
ent er
à¤® à¤¶
lo w
Ġb y
à¤ķ à¤²à¤¤
19 6
2 2
Ġpar amet
Ġà¤¸à¤®à¤Ŀ à¤¨
à¤Ĺ à¤ª
r a
Ġà¥ ¦
à¤¯ à¤ľ
in e
Ġà¤ľ à¤¡
Ġà¤ĭ à¤£
Ġà¤¹ à¤¦
Ġà¤ħ à¤£
e x
à¤ĺ à¤¨
Ġà¤Ĺ à¤ł
2 1
à¤¯ à¤Łà¤¨
Ġb r
Ġà¤ľà¤¨ à¤ľ
Ġà¥ ¯
Ġc on
Ġ20 20
Ġà¤ļ à¤Ł
loc k
Ġà¤¸à¤¹ à¤®à¤¤
à¤¨ à¤ļ
Ġà¤®à¤¤ à¤²à¤¬
Ġà¤® à¤Ĺ
ĠÂ °
Ġà¥§à¥ ©
Ġc an
y le
loc al
à¤ľà¤¨ à¤ķ
2 5
à¤ Ļ
ĠS E
à¤£ à¤ķ
à¤¬ à¤¡
Ġà¥§à¥ ¯
an s
à¤¸ à¤¬
Ġà¤¡ à¤¬
à¤² à¤ļ
Ġà¤ľà¤² à¤µ
Ġà¥§à¥¯à¥ ª
Ġ200 2
à¤°à¤¹ à¤µ
Ġà¤ī à¤ľ
à¤£ à¤µà¤¤
Ġ200 3
ul t
ĠT y
à¤ļ à¤µ
tt p
i es
v er
e w
Ġà¥§à¥¯à¥ «
ĠC at
ĠâĢ Ķ
Ġ un
à¤¥ à¤¶
Ġà¤Ĩà¤¦ à¤®
Ġà¤Ń à¤Ł
Ġà¤ħ à¤¹
ĠS ar
m ent
à¤£ à¤µ
Ġ7 0
Ġ 00
ĠM ag
Ġà¤ľ à¤¯
Ġà¤Ĺ à¤¦
at a
à¤¸ à¤«
Ġà¤ī à¤·
à¤ª à¤¥
Ġc ol
à¤° à¤«à¤²
à¥¨ à¥¦
e ct
ic al
à¤¨ à¤¹
ab le
Ġà¤¤ à¤¯
Ġ200 1
Ġà¤ľ à¤Ĺà¤¤
Ġà¤Ĩ à¤ªà¤¸
Ġà¤¯ à¤ľ
Ġà¤Ł à¤°
or d
as e
Ġ0 9
à¤ĸ à¤ķà¤°
à¤¯à¤¤ à¤¨
à¤Ī à¤Ł
Ġà¤Ĩ à¤Ĺà¤°
Ġà¤ħà¤¹à¤® à¤¦
ar t
Ġ18 9
ĠG am
Ġà¤īà¤ª à¤ľ
or e
Ġà¤ĩ à¤¬
à¤¤ à¤¸
Th is
Ġus e
p p
Ġà¤ĳ à¤ªà¤°
19 7
ĠM em
à¤° à¤°
Ġà¤ĺ à¤¨
ac k
Ġ u
ĠM ax
ar d
ĠL oc
Ġa d
ĠM ap
Ġ6 0
p ng
Ġc enter
Ġb lock
ig n
ĠD ur
C ap
à¤¤ à¤Ĺ
à¤ľà¤¨ à¤¸
Ġà¤Ĩ à¤īà¤Ł
Ġà¤ĩà¤¸ à¤¨
Ġp age
à¤¯ à¤°à¤¸
Ġà¤®à¤¹ à¤¸
Ġt r
ĠW id
Ġ3 1
§ à¥¦
Ġà¤¤ à¤¸
Ġà¤Ķ à¤·à¤§
ĠTi G
ĠPh Cap
ĠTiP B
ĠTiP E
ĠTiT B
ĠTiT E
ĠSar os
2 4
Ġst yle
o x
Ġà¤« à¤¸à¤²
_ _
Ġà¤²à¤ķ à¤¡
à¤¨ à¤¡
à¤¤ à¤ľ
à¤Ĺ à¤¶
à¤¶ à¤®
à¤¯ à¤ķà¤°
e e
Ġc h
à¤ł à¤Ń
Ġà¤ĸ à¤¨
à¤ª à¤¡
Ġ3 5
Ġ199 0
Ġà¤Ĺ à¤µà¤°
à¥¨ à¥¦à¥
i z
à¤£ à¤¸
Ġ8 0
Ġà¤ħ à¤¯
ou nd
Ġ at
ou r
2 3
Ġà¤¬ à¤®
at es
Ġar tic
at ed
Ġà¤¸ à¤°à¤¸
Ġà¤¹ à¤¡
à¤ļ à¤®
à¤ı à¤Ł
Ġà¤® à¤Ľà¤²
Ġà¤ķ à¤¦à¤®
à¤¤ à¤¥
p le
Ġ quot
Ġà¤¡ à¤°
ic h
à¤ħ à¤¸
Ġà¤ĳ à¤°
al l
5 7
i an
à¤ķ à¤¤à¤®
Ġ18 8
Ġà¤Ĺà¤£ à¤°
Ġà¤ķà¤® à¤ľ
à¤¸ à¤ļ
2 6
c om
à¤ı à¤¶à¤¨
à¤µ à¤¸à¤¨
à¤¦ à¤¤
Ġform ula
it e
Ġà¤īà¤ª à¤Ĺ
ex t
à¤¶ à¤¸
Ġg o
Ġà¤¨ à¤¸
Ġ le
Ġà¤ĵ à¤¡
à¤ĩ à¤°
Ġfr om
ac e
4 0
Ġà¤Ĳ à¤²
quot e
Ġà¤° à¤¤
Ġà¤° à¤ľ
Ġd is
Ġà¤ī à¤Ĺ
à¤ħ à¤Ĺà¤°
Ġà¤ķà¤® à¤°
Ġblock quote
2 8
Ġ im
à¤ĸà¤¨ à¤Ĭ
à¤ľ à¤¶
à¤Ł à¤«
Ġà¤¹ à¤¨
Ġus ed
Ġà¤Ń à¤²
Ġà¤ĸ à¤¤
Ġà¥¨ à¥«
Ġà¤ĩ à¤Łà¤²
Ġà¤Ĩ à¤Ń
à¤¸ à¤¬à¤¸
lo g
Ġ199 9
à¤° à¤ľà¤¨
Ġà¤¸ à¤Ł
Ġ X
à¤¯ à¤¡
à¤Ĩ à¤ª
à¤Ľ à¤¤
ou ld
à¤¼ à¥ī
Ġà¥ ¯à¥
ĠI n
Ġà¤īà¤¤ à¤¨
av e
Ġ en
Ġà¤ ·
i b
ar y
à¥§à¥ ®
Ġp r
u e
à¤¶ à¤¹à¤°
Ġà¤ĩ à¤ľ
th er
à¤¶ à¤ľ
à¤ľà¤¬ à¤ķ
à¤¼ à¥Ĥ
à¤² à¤¦
à¤¯ à¤Ĺà¤¢
6 0
f orm
Ġà¤Ķ à¤ªà¤ļ
od ice
à¤¦à¤° à¤Ĺ
p er
Ġ he
à¤· à¤°à¤¤
à¤° à¤·
Ġà¤ľ à¤¯à¤ª
Ġà¥§à¥¯à¥ ©
à¤¨ à¤¬
à¤µ à¤®
Ġà¤ı à¤Ł
Ġl ink
à¤ĩ à¤ķà¤²
Ġà¤¬à¤¨ à¤µ
Ø §
Ġà¤¨ à¤²
2 7
à¤¿ âĢį
Ġà¤ªà¤° à¤¤
Ġà¤ĺ à¤Łà¤ķ
à¤§ à¤ª
Ġà¤ĵ à¤µà¤°
as t
à¤ķ à¤¶
us t
um b
ag es
Ġà¤ķ à¤µà¤°
à¤¹ à¤¬
el l
Ġà¤Ľ à¤µ
Ġ198 0
' s
à¤Ī à¤²
Ġà¤ĸ à¤Ĺ
Ġal so
iki p
à¤Ĩ à¤®
à¤ī à¤²
Ġf ont
l es
Ġà¤ªà¤¹ à¤¨
Ġc ont
am es
Ġà¤ļ à¤®à¤ķ
Ġà¤¸à¤¬ à¤ķ
à¤¦ à¤¸
à¤ĩ à¤«
à¤¯ à¤Ń
Ġh igh
Ġà¤Ń à¤Ĺ
Ġà¤µ à¤¨à¤¸
à¤¯ à¤¥
ĠC h
Ġ x
is h
u b
Ġà¤°à¤¹ à¤¸
à¤° à¤ĸà¤£
Ġ199 8
Ġà¤ħ à¤µà¤°
Ġà¤¸ à¤¸
à¤Ĺ à¤¡à¤®
à¤¶ à¤¬
Ġà¥§à¥¯à¥ ¨
f er
Ġà¤® à¤²à¤¯
Ġ4 5
ar ch
Ġà¤° à¤£à¤¨
Ġcol or
4 7
Ġà¤ĭ à¤¤
à¤° à¤¬à¤¨
à¤£ à¤ª
Ġw eb
Ġà¤¬ à¤Ĺ
Ġà¥§à¥ §
Ġà¤®à¤¤ à¤¦
à¤¯ à¤Ł
u re
Ġà¤² à¤ĸà¤¨à¤Ĭ
Ġw ill
Ġa b
g r
o k
Ġà¤¬à¤ļ à¤ªà¤¨
Ġà¤¬à¤¦ à¤²à¤¨
Ġà¤¶ à¤²
Ġà¤ł à¤¹à¤°
Ġà¤ķ à¤ļ
n t
à¥¨à¥¦à¥ §à¥
l ight
ĠI I
Ġà¤¶ à¤¹
Ġà¤Ĩà¤¯à¤° à¤²
Ġà¤¦à¤° à¤¬
Ġà¤ªà¤° à¤¸
Ġà¤« à¤²à¤¸
Ġ13 5
Ġ i
à¤ķ à¤¬
or g
i re
à¥Ģ :
Ġà¤²à¤Ĺ à¤¨
p r
à¤° à¤¯à¤¤
à¤ľ à¤¦
Ġà¤ħà¤« à¤Ĺ
ur n
a h
Ġ18 7
à¤ī à¤ª
Ġà¤ĸ à¤£
p h
à¤¼ à¥ĩà¤Ĥ
Ġà¤Ń à¤°à¤¤
à¤« à¤¨
à¤¸à¤ķ à¤°
ikip edia
Ġà¤®à¤Ĺ à¤§
Ġ9 0
Ġà¤¡ à¤¬à¤²
Ġ199 6
Ġà¥¨à¥¦à¥¦à¥ ¯
à¤Ń à¤¦
Ġà¤¸à¤® à¤¨
Ġgo og
2 9
Ġà¤Ī à¤®
Ġà¤¨ à¤ľà¤°
Ġà¤ī à¤Ń
à¤Ĺ à¤ł
Ġà¤¤ à¤Ń
à¤ķ à¤Ń
à¤ļ à¤°à¤£
or y
à¤Ĺ à¤Łà¤¨
Ġà¤µà¤¨ à¤¡
Ġh ttp
Ġà¥¨à¥¦à¥ §à¥¦
Ġp l
à¤ĸ à¤Ń
Ġà¤¬ à¤ļà¤¨
he n
à¤Ĺ à¤ķ
ĠT he
Ġà¤¬à¤¹ à¤¤
Ġà¥© à¥¦
Ġà¤ª à¤ł
Ġ if
Ġà¤ħ à¤µà¤¤
Ġà¤¦ à¤¯
Ġ j
à¤¨ à¤Ĺ
8 0
t c
Ġ199 7
à¤² à¤ľ
à¤¸ à¤Ł
Ġà¤¶ à¤¨
Ġà¤Ľ à¤ł
à¤¶ à¤ª
Ġhigh light
Ġ197 0
Ù Ħ
Ġ3 6
Ġà¤īà¤ª à¤¦
Ġ3 3
Ġg tc
à¤¯ à¤°à¤¤
y p
à¤ı à¤¡
à¤® à¤¹à¤¤
19 5
o b
à¤£ à¤®
Ġà¥¨ à¥ª
Ġh ave
Ġ Y
Ġparamet er
Ġà¤® à¤ł
à¤¸ à¤¹
ĠS t
ang u
Ġad d
Ġà¤ħà¤¸ à¤«à¤²
o de
Ġà¤¸ à¤°à¤¦
à ®
à¤ª à¤£à¤¨
Ġà¤ıà¤¯à¤° à¤²
Ġà¤ħà¤ķ à¤¬à¤°
Ġ ed
à¤¸ à¤°à¤£
à¤¹ à¤Ł
Ġà¤¯ à¤®
Ġc odice
Ġà¤ī à¤¤à¤°
à¤ķ à¤¦à¤®
à¤Ł à¤ķà¤°
Ġà¤ı à¤¥à¤²
à¤²à¤Ĺ à¤Ńà¤Ĺ
n r
ĠI nd
Ġà¤ķà¤® à¤²
Ġà¤ª à¤¥
à¤· à¤ķà¤°
à¤« à¤²à¤¤
Ġà¤ĳ à¤Ł
à¤Łà¤ķ à¤¥
on g
Ġà¤§ à¤°à¤¤
Ġn ame
Ġ199 2
Ġt ext
Ġwh ich
i de
à¤¹ à¤µ
Ġà¥¨ à¥©
r y
Ġà¤ħà¤¸ à¤²
Ġn ames
à¤µà¤¤ à¤¨
Ġ5 00
ion s
Ġà¤ħ à¤Ł
à¤® à¤°à¤£
f t
Ġf nr
Ġà¤¬à¤¦ à¤²à¤¤
Ġà¤¦ à¤¤
Ġà¤¶ à¤°à¤£
à¤°à¤ľà¤¨ à¤¨
Ġà¤¨ à¤®à¤ķ
Ġ3 2
Ġ199 5
Ġ199 4
à¤Ĩ à¤²
Ġà¤®à¤ľ à¤¦
à¥¨à¥¦ à¥¦à¥
ĠA n
Ġà¤ª à¤¤à¤¨
Ġà¤ĳ à¤¨à¤²
à¤ª à¤°à¤®
ou t
à¤Ĩ à¤¯
Ġà¤ĩ à¤£
Ġ199 1
Ġà¤¦ à¤°à¤µ
Ġà¤µ à¤¯à¤¸
à¤¸ à¤¨à¤ķ
à¤ķ à¤£
à¤ļ à¤¤à¤®
Ġ3 7
Ġ199 3
Ġà¤¦ à¤®
u d
Ġà¥¨ à¥¨
à¤¯ à¤¬
Ġà¤ķà¤² à¤ķà¤¤
Ġ196 0
à¤¨ à¤ľ
Ġ00 7
Ġà¤¤à¤° à¤²
on e
ation al
Ġà¤µ à¤ľà¤¨
à¤ī à¤¥
g in
Ġà¤Ĺ à¤¨
à¤µ à¤¡
ac h
Ġà¤¯ à¤ķ
Ġà¤ķ à¤¤
it le
à¤¼ à¥Į
os t
Ġartic le
Ġà¤ª à¤ļ
Ġà¤ĳ à¤¨
à¤ıà¤¨ à¤ı
Ġà¤ī à¤Ńà¤°
Ġ3 4
Ù ħ
Ġà¤¸à¤¹ à¤ľ
Ġà¤īà¤¦ à¤¯
i le
e ar
à¤¡ à¤ķà¤°
à¤¸ à¤°à¤ķ
ter n
Ġà¤° à¤£
Ġà¤Ĩà¤Ĺ à¤®à¤¨
3 1
à¤ħ à¤Ĺà¤²
Ġà¤®à¤¶ à¤¹
p x
Ġà¤ħà¤ª à¤µ
à¤¬ à¤ļ
Ġ18 6
Ġà¤¸ à¤ĸ
à¤² à¤¡
Ġo ther
à¤®à¤ķ à¤°à¤£
à¤ ĭ
Ġà¤¬ à¤ķ
Ġà¤ªà¤¤ à¤²
Ġà¤Ĭ à¤¤à¤ķ
Ġà¥¨à¥¦à¥§à¥ §
à¤¹ à¤ľ
Ġà¤ĵ à¤®
4 8
Ġ Î
Ġ3 8
f f
ation s
Ġed it
a ct
c c
à¤ı à¤µ
à¤¤ à¤ķà¤°
3 7
à¥ Ĩ
3 6
à¤ªà¤° à¤¨
ul ar
Ġà¤ħ à¤Łà¤²
à¤ı à¤°
Ġà¤¨à¤¹ à¤°
Ġv al
Ġà¤ĩ à¤Ł
Ġà¤ļ à¤°à¤®
en ce
Ġà¤¸ à¤¦à¤¨
à¤ī à¤ļ
Ġb ig
Ġà¤µ à¤ľ
à¤ĩà¤¨ à¤°
à¤ĩà¤¸ à¤¨
Ġà¤¹ à¤ķ
4 5
3 5
Ġ7 5
à¤¶à¤ķ à¤¶
Ġd es
t urn
Ġà¤Ĩ à¤ªà¤¨
à¤Ī à¤¯
f unction
à¤® à¤®
Ġà¤ħ à¤·
à¤ª à¤¬
Ġà¤Ĩ à¤ĩ
Ġ7 1
Ù Ĩ
Ġà¤Ĺ à¤°à¤®
à¤Ĩ à¤ķ
Ġà¤ĺ à¤¡
Ġà¤ĳ à¤²
âĢ ¢
en s
Ġà¤ı à¤²à¤¬
200 7
à¤¸à¤® à¤¯
le ct
at h
Ġà¤ª à¤Łà¤ķà¤¥
à¤Ĺ à¤®à¤¨
Ġl ist
âĢ ĺ
à¤ĵ à¤¸
Ġd iv
à §
I n
à¤Ĺ à¤¦à¤°
Ġà¤¬ à¤Ł
Ġà¤Ł à¤¨
Ġà¤ļà¤² à¤ķà¤°
n ing
à °
Ġà¤¬ à¤¯
Ġ18 5
Ġà¤ĺ à¤¨à¤¤
Ġà¤µ à¤²
3 9
Ġà¥¨ à¥¬
ou s
à¤ĳ à¤¸
à¤¸ à¤ľ
Ø ±
Ġ198 9
Ġ5 5
à¤ ³
Ġ3 00
Ġ15 0
a il
Ġà¤Ĺà¤ł à¤¬
Ġd o
à¤ı à¤Łà¤°
Ġ4 8
u al
Ġà¥§à¥¯à¥ §à¥
Ġr es
Ġsu b
Ġà¤Ĭ à¤·
Ġà¤ī à¤ķ
Ġà¤ľ à¤¸
à¤ľà¤¨ à¤µà¤°
à¤§ à¤ķà¤°
Ġ195 0
9 9
Ġà¤ į
Ġà¤ľà¤¨ à¤ªà¤¦
à¤Ĩ à¤Ĺ
Ġà¤² à¤¹à¤°
à¤Ĺà¤² à¤ª
Ġin t
om e
à¤¦à¤° à¤²
Ġà¤¤ à¤ªà¤¸
Ġà¤¸à¤®à¤Ŀ à¤¤
Ġà¥¨à¥¦à¥§à¥ ª
à¤Ĩ à¤¦
S ee
à¤°à¤ķ à¤²
à¤¦à¤¨ à¤¶
Ġn o
à¤ľ à¤°à¤¤
3 8
à¥§à¥ «
Ġà¤¸à¤® à¤Ĺ
u g
à¤Ńà¤Ĺ à¤µ
à¤Ĩ à¤ªà¤ķ
Ġà¤ħà¤ĸ à¤¬
Ġà¤¤ à¤ª
a i
à¤µ à¤¯à¤¨
Ġà¤ı à¤¡à¤®
Ġà¤ħ à¤¸à¤°
201 2
e p
l l
ĠU S
d u
Ġre f
Ġ18 0
Ġon e
à¤ª à¤µ
Ġà¥¨à¥¦à¥¦à¥ Ń
Ġal l
à¤· à¤¸
ot e
Ġà¤ıà¤²à¤¬ à¤®
à¤° à¤¬à¤²
Ġà¤ı à¤£
Ġà¤®à¤¹ à¤°
Ġà¤Ĩ à¤°à¤ķ
Ġà¤² à¤²
ate g
Ġà¤¨à¤ľ à¤¦
Ġà¤¬à¤ľ à¤Ł
Ġà¤¸à¤¹ à¤¸
Ġà¤Ĺ à¤¹à¤¨
7 0
Ġà¤Ĳ à¤¨
Ġ7 2
à¤« à¤¡
or s
à¤² à¤ĸ
U s
Ġà¤ª à¤¬
er m
Ġ198 6
Ġà¥¨à¥¦à¥¦à¥ ®
Ġà¤® à¤¥
e ed
à¥§à¥ ¨
à¤ķ à¤ķ
ort al
à¤¿ à¤ĥ
Ġà¤¡ à¤ļ
à¤¨ à¤µà¤¤
an k
Ġà¤µ à¤§
ar i
Ġà¤ħà¤µ à¤¯à¤µ
Ġà¤ķ à¤¥à¤¨
Ġ198 4
Ġ198 8
Ġà¤ħà¤µ à¤ķ
à¥§à¥ Ń
Ġsh ould
r ic
Ġà¤¸ à¤ªà¤¨
or k
angu age
à¤Ľ à¤¡
c es
Ġà¥¨ à¥Ń
Ġà¤ĸ à¤¬à¤°
à¤Ľ à¤¨
Ġà¤¶ à¤¤à¤ķ
o log
à¤ł à¤¤
Ġ194 7
Ġà¥¨ à¥§
200 8
Ġà¤ķ à¤¦
9 0
à¤£ à¤ķà¤Ł
Ġà¤Ĺ à¤µ
I f
à¤¡ à¤ª
à¤°à¤£ à¤¤
Ġà¤Ł à¤ķà¤°
Ġs y
à¤¹ à¤ª
Ġà¤¬à¤¹ à¤¸
am ple
à¤¤à¤° à¤¦
Ġf ol
r it
Ġà¤° à¤¦
à¤¥ à¤¤
u le
Ġt itle
Ġà¥¨ à¥®
Ġsp ec
3 3
Ġ198 5
à¤¯ à¤Ĺ
Ġà¤² à¤µ
Û Į
Ġà¤ıà¤ķ à¤¡
Ġ6 5
Ġh as
à ´
Ġà¤¨ à¤°à¤¸
Ġp re
re e
à¤²à¤¹ à¤µ
à¤ª à¤Łà¤¨
Ġà¤¥ à¤°
Ġ4 2
a w
à¤ĵ à¤²
on d
à¤Ĭ à¤¦
Ġà¤®à¤¤ à¤Ń
Ġ4 7
Ġà¤ĵ à¤¬
4 4
Ġà¤¨ à¤¨
Ġde f
à¤ĳ à¤ķ
Ġ only
Ġw as
pl ay
Ġst r
Ġà¤°à¤ĸ à¤ķà¤°
p ut
Ġà¤¬ à¤ĸ
Ġà¥§ à¥¦à¥
à¤² à¤¯à¤¨
Ġà¤Ĺ à¤ľ
Ġb ut
Ġn umb
à¤® à¤Ī
Ġà¤ĩ à¤¶
à¤ķà¤Ł à¤¤à¤®
Ġs o
à ²
Ġtr ans
Ġm ore
à¤Ĳ à¤¤
Ġm e
Ġà¤ħà¤¸à¤® à¤°
ak e
Ġà¤¹ à¤®à¤¨
Ġan y
c ri
à¤¨ à¤¶
v e
Ġ198 7
à¤¸à¤® à¤¸
le ase
Ġà¥« à¥¦
Ġ197 1
201 1
i e
Ġ3 9
Ġparamet ers
a j
Ġà¤ĳ à¤¡
Ġà¥¨à¥¦à¥§à¥ ©
Ġ à¦
Ġp ortal
Ġà¤ĩà¤¨ à¤¸
Ù Ī
Ġ197 2
F or
Ġà¤ħà¤ª à¤®
ĠW ikipedia
Ġà¤Ľ à¤ª
Ġfol low
ĠT h
à¤¶ à¤¦
4 6
Ġà¤ĩ à¤ķà¤Ł
Ġm ay
ou nt
à¤ħ à¤«
Ġà¤ĩ à¤µ
Ġà¤ĸ à¤²
Ġà¥§à¥ §à¥
Ġ4 6
Ġ _
Ġà¤¨ à¤¶
Ġà¤Ĩà¤Ī à¤Ł
Ġà¤° à¤®
it ion
Ġà¤® à¤Ĺà¤°
an ce
à¤°à¤ļ à¤²à¤¨
Ġà¤ħà¤Ń à¤¯
Ġd ata
Ġà¥§à¥¯ à¥¦à¥
Ġ6 4
yp e
Ġà¤Ĩà¤¨ à¤¨
pt ion
7 5
Ġà¤® à¤ļ
à¤¸ à¤¤à¤¨
Ġà¤ı à¤¬
Ġ1 000
Ġ5 2
w w
à¤® à¤«
Ġà¤¹ à¤«
à¤¨ à¤¬à¤°
Ġà¤µ à¤ļà¤¨
Ġà¤ľ à¤¤
Ġà¤Ĺ à¤¡
ĠA r
Ġà¤Ĩà¤Ī à¤ª
Ġcom m
Ġà¤īà¤ª à¤ķ
Ġt t
à¥ģ à¤ĥ
Ġa pp
Ġà¤Ĩ à¤¯à¤¤
g e
Ġ Q
I t
à¤Ł à¤ª
ent s
Ġ197 7
Ġbe gin
ot h
Ġ5 6
à¤ļ à¤¸
à¤ĩ à¤µà¤°
à¤¯à¤° à¤²
à¤Łà¤° à¤«
Ġ197 5
Ġà¤īà¤ª à¤®à¤¹
on s
à¥§à¥ ¯
Ġà¤¤ à¤²à¤µ
à¤¶à¤¨ à¤°
Ġ4 4
200 6
3 4
Ġ0 8
Ġ id
à¤ľà¤¨ à¤¯
Ġ0 7
à¤ª à¤¹
ĠA l
3 2
à¤¦ à¤Ń
r ou
ar k
Ġ197 3
r ap
Ġ5 9
Ġà¤ķà¤¡ à¤ª
Ġà¤Ĩ à¤¯à¤¨
Ġ5 1
à¤ī à¤¡
à¤¯à¤® à¤¨
Ġ198 2
Ġdis play
á Ģ
Ġà¤ħà¤¨ à¤¨
à¤°à¤ķ à¤°à¤£
Ġà¥¨à¥¦à¥¦à¥ ¬
Ġtempl ates
à¤®à¤ķ à¤¤
Ġ9 9
j ect
à¥§à¥ ¬
ik e
Ġà¥¨à¥¦à¥§à¥ ¬
à¤ħ à¤ľ
in t
Ġre qu
Ġà¤ħ à¤µà¤²
Ġà¤ĵ à¤ªà¤¨
s h
Ġà¤¬à¤¦à¤² à¤ķà¤°
à¤ĩ à¤¬à¤°
à¤ħ à¤Ĺà¤¸
Ġse ction
Ġà¤īà¤ª à¤¹
Ġà¥§ à¥¦à¥¦
Ġà¤Ĩ à¤ªà¤°
Ġ qu
h y
à¤Ĺ à¤°à¤£
à¤² à¤¶
Ġà¤« à¤²à¤¨
Ġà¥¨à¥¦à¥§à¥ ¨
Ġà¤ĸ à¤ľ
Ġà¤ĵ à¤¸
à¤¨ à¤«
à¤ī à¤ªà¤¨
Ġyou r
ar e
à¤¹ à¤¯
Ġà¥¨ à¥¦à¥¦à¥¦
Ġà¤ķ à¤·
Ġ195 6
200 9
Ġà¤Ĩà¤ł à¤µ
à¤ļ à¤ķà¤°
à¤ĺ à¤µ
4 9
à¤¸ à¤¡
Ġ197 9
e g
Ġ5 8
Ġà¥¨à¥¦à¥§à¥ «
Ġ194 8
à¤¯ à¤µà¤°
Ġ4 00
Ġ0 5
à¤ī à¤ľ
à¤Ń à¤°à¤¤
ĠP art
ĠI S
Ġà¤ıà¤¡ à¤µà¤°
ir st
à¤ª à¤ı
à¤ĸ à¤¦
Ġ4 9
à¤¥ à¤¸
à¤Ĩ à¤ļ
t e
8 8
Ġ Z
à¤Ī à¤¨
B C
Ġ198 3
à¤µ à¤µà¤°
à¤¦ à¤¦
Ġ0 4
d ing
Ġà¤Ķ à¤¸à¤¤à¤¨
Ġà¤¨ à¤ķà¤²
à¤ĺ à¤Ł
Ġà¤¸ à¤¦à¤°
Ġà¤° à¤¥
Ġà¤² à¤¤
Ġà¤ľà¤² à¤ª
i x
à¤µ à¤°à¤ķ
Ġ0 6
à¥§à¥ ª
Ġà¤¢ à¤ķ
er r
à¤Ł à¤Ĺ
à¤ĩ à¤¡à¤°
ic s
d er
Ġb ack
Ġ4 1
Ġw e
Ġu p
Ġà¤² à¤ĸ
Ġà¤Ĳ à¤ķ
ĠU n
P A
Ġà¤¬ à¤¹à¤°
à¤ī à¤°
Ġ197 6
à ¨
à¤ħ à¤¶
en er
à¤® à¤¬
à¤· à¤ª
Ġà¤· à¤¡
4 3
à¤ī à¤¸à¤®
6 5
à¤¸ à¤¬à¤°
Ġà¤ľà¤¨ à¤¨
er t
Ġw ww
Ġà¤¥ à¤ķ
à¤µ à¤Ĺ
à¤ıà¤¸ à¤ı
ĠØ §
g h
Ġà¤Ķ à¤ªà¤¨
Ġà¤¸ à¤Ĺ
à¤Ĺ à¤µà¤¤
Ġà¤īà¤ªà¤¨ à¤Ĺà¤°
s s
Ġ Ã
is m
Us age
à¤° à¤ł
Ġ197 8
à¤²à¤ļ à¤¸
à¤Ĩ à¤¸
ĠC om
200 5
âĢ Į
à¥« à¥¦
Ġà¤¸ à¤¶à¤¸
Ġà¤¨ à¤Ĺ
Ġ9 5
Ġà¤¨ à¤¤
ow n
od ule
ro p
Ġà¤Ĺà¤£ à¤¤
à¤¦ à¤°à¤¤
Ġà¤¯ à¤¶
Ġ8 5
Ġ196 7
at ive
Ġà¤¸à¤¹ à¤ķ
Ġ198 1
Ġ196 5
Ġà¤¨ à¤¬
Ġà¤¦ à¤¹
à¤ĩ à¤Ĺ
à¤¦ à¤¹
à¤Ł à¤ĩ
Ġ4 3
à¤§ à¤®
à¤ķ à¤Ĺ
à¤ľ à¤Ń
Ġà¤° à¤ĺ
Ġà¤ĳ à¤µ
4 2
Ġà¤Īà¤¸ à¤µ
Ġ196 2
à¤Łà¤° à¤ª
Ġà¤¬à¤¨ à¤ķà¤°
à¤¸ à¤¶
Ġà¥ª à¥¦
à¥§à¥ ©
à¤Ĩà¤Ī à¤Ł
19 0
201 0
Ġ \
e y
à¤ĺ à¤ķ
à¤¸ à¤Ĺ
Ġà¤°à¤¹ à¤ķà¤°
Ġà¤¸à¤¤ à¤¤
ĠAn n
Ġà¤¶ à¤¸
Ġà¤¸à¤° à¤²à¤¤
à¤ı à¤¶
à¤Ĩ à¤µ
Ġà¤¸à¤® à¤¤à¤²
à¤īà¤¨ à¤®
Ġp o
Ġà¤¬à¤ļ à¤¤
Ġà¤¨à¤Ĺà¤° à¤ª
Ġà¤Ľ à¤²
I D
ĠS h
Ġ193 0
à¤ķà¤Ł à¤¤
à¤¹ à¤ľà¤¹
201 4
Ġà¤¬ à¤°à¤¸
à¤¤à¤¨ à¤¤
Ġ5 7
N A
Ġ196 9
Ġà¤¹ à¤¸à¤¨
à¤®à¤¹ à¤²
s p
Ġà¥¨à¥¦à¥§à¥ ®
Ġo ut
e ch
Ġà¤¦ à¤£
Ġ197 4
Ġ Ð
à¤¸à¤® à¤°
9 5
Ġm et
ĠP r
Ġspec if
Ġà¥¨à¥¦à¥§à¥ Ń
Ġà¤ĵ à¤ķ
Ġex ample
Ġà¤ľà¤¨ à¤ķ
à¤®à¤ķ à¤¥
Ġ5 3
c k
à¤° à¤Ĺà¤¢
à¤¨ à¤¸à¤¨
à¤¹ à¤£
Ġ0 1
os e
Ġà¤§ à¤®à¤ķ
Ġà¤ĸà¤¤à¤° à¤¨
ind i
__ __
a e
u p
Ġà¤Ń à¤¤
Ġp er
c i
à¤² à¤«
Ġà¤ªà¤° à¤µà¤°
Ġà¤Ŀ à¤°à¤¨
Ġus ing
Ġà¤« à¤¤
à¤Ĩà¤ľ à¤ķà¤²
gr ound
à¤¬ à¤Ł
Ġà¤Ń à¤°à¤¨
ĠPart ial
Ġà¤° à¤¬
Ġà¤¸à¤¹ à¤¨
8 5
à¤Ń à¤²
el d
Ġà¤Ĩà¤ľ à¤ķà¤²
Ġhttp s
Ġà¤Ń à¤¦
à¤°à¤® à¤°
Ġà¤® à¤°à¤¨
Ġà¤¸à¤ķ à¤²
¯ à¥¦
Ġà¤Ĩ à¤¸à¤¨
Ġà¤ıà¤ķ à¤¦
à¤² à¤¬à¤°
Ġa ut
à¤Ń à¤¨
Ġc re
Ġf irst
à¤Ĩ à¤¶
à¤ĺ à¤®
Ġ5 4
Ġà¤ıà¤¡ à¤µ
Ġbegin ning
à¤® à¤Ł
Ġnumb er
6 7
Ġâ ĺ
à¤ħ à¤µ
Ġ195 2
Ġà¤ī à¤§
à¤ī à¤ªà¤¯
Ġà¤®à¤ķ à¤¬à¤°
à¤ª à¤¸à¤®
Ġà¤ĩ à¤ľà¤°
Ġt w
at er
Ġ196 4
à¤° à¤Ĩà¤¨
al k
Ġw hen
Ġs et
ov e
Ġà¤ķà¤¹ à¤ķà¤°
à¥§à¥¯à¥ ¯à¥
Ġim age
à¤ĵ à¤¨
à¤ħ à¤µà¤¸
Ġà¤ı à¤Ĺ
iz e
à¤ħ à¤Ĺ
Ġà¤² à¤µà¤£
Ġà¤īà¤ª à¤µ
Ġ0 3
200 4
g et
h ttp
à¤ŀ à¤¤
ot al
Ġin f
à¤µà¤¤ à¤®
at t
a ult
r u
Ġà¤¸ à¤¶à¤ķ
Ġà¤®à¤¨ à¤®
st em
Ġà¤¤ à¤ĸ
Ġ6 1
à¤§ à¤¶
Ġà¤Ń à¤°à¤ª
Ġ6 6
à¤ļ à¤²à¤¨
Ġà¤Ĩ à¤µà¤°
Ġà¤Ĩ à¤ĺ
Ġartic les
A T
a us
c he
Ġ19 20
Ġà¤ĵ à¤ª
Ġà¤¬à¤¤ à¤²
Ġl anguage
à¤ķ à¤¦
Ġ196 8
199 0
Ġt able
Ġc ateg
à¤°à¤¶ à¤¸
Ġcom p
Ø ¯
Ġà¤¬ à¤¸à¤¨
Ġà¤µà¤° à¤¨
à¤Ĩà¤Ī à¤¸
à¤¥ à¤¯
A S
à¤¤ à¤Ń
à¤¯à¤² à¤Ł
arch ive
Ġl ike
à¤°à¤¸ à¤°
is s
à¥§ à¥¦
ĠAnn ular
E T
0 5
l ish
Ġà¤īà¤¦ à¤¯à¤ª
à¤¼ à¤¿à¤Ĥ
à¤Ī à¤ķ
à¦ ¾
i ed
t ion
Ġà¤µ à¤¶
Ġà¤¦ à¤®à¤¨
à¤¡ à¤«
à¤Ĩ à¤®à¤¤
Ġ196 6
Ġà¤īà¤ł à¤¤
Ġà¤ª à¤µà¤¨
Ġà¤Ĩ à¤ĩà¤¸
9 6
an y
Ġse e
Ġc o
im e
Ġ lo
à¤¹ à¤¡
Ġà¤ªà¤¹à¤² à¤µ
Ġp ages
ic ro
200 1
à¤« à¤°à¤µà¤°
Ġ1 20
à¤ħ à¤®à¤°
à¤² à¤Ŀ
Ġa m
Ġà¤ħà¤ª à¤¹à¤°à¤£
à¤°à¤ĸ à¤ª
an n
Ġà¤Ĩà¤ļ à¤°à¤£
i eld
Ġà¥§à¥® à¥®
ĠâĢ ¢
em b
ĠW W
er n
Ġà¥¨à¥¦à¥¦à¥ «
Ġval ue
Ġà¤° à¤ľà¤¤
Ġà¤ļà¤² à¤ļ
Ġ196 1
Ġà¤ª à¤£
à¤ıà¤¸ à¤¸
Ġback ground
Ġà¥¨à¥¦à¥¦à¥ §
à µ
à¤¤ à¤¶
9 8
Ġà¤ļ à¤®à¤¤
ur r
Ġ25 0
à¤ķ à¤ľ
à¥ģ :
Ġà¤ıà¤µ à¤®
Ġà¤Ł à¤ķ
5 00
e v
Ù Ĭ
Ġn eed
Ġ6 8
ro w
Ġ196 3
Ġà¤ĵ à¤²à¤®
Ġ0 2
Ġà¤¸ à¤Ĭà¤¦
à¤¯ à¤ļ
à¤µ à¤ļà¤¨
à¤Ń à¤ª
rou p
Ġà¤¦ à¤¸à¤µ
Ġà¤ªà¤¹ à¤¨à¤¨
Ġn ew
Ġin d
Ġà¤ľà¤Ĺ à¤¦
Ġ ~
Ġà¤¶ à¤µ
p ort
à¤Ĩ à¤ĸ
à¤ĵ à¤°
à¤Łà¤° à¤Ł
à¤ª à¤¹à¤°
Ġà¤ĳ à¤ª
it s
form ation
à¤¶ à¤²à¤¤
Ġin st
198 0
6 8
9 7
Ġà¤¬ à¤ķà¤°
à¤² à¤²
Ġà¤ī à¤®à¤°
Ġ194 0
à¤Ń à¤Ł
Ġà¤¸à¤ķ à¤¨
Ġ6 7
Ġâ Ĥ
Ġfollow ing
Ġà¤° à¤¶
Ġ195 5
4 1
à¤ķ à¤ļ
à¤ĸ à¤®
Ġ195 7
ang e
à¤¤à¤° à¤ª
à¤°à¤µ à¤£
Ġà¤® à¤°à¤®
olog y
0 7
à ¯
Ġà¤ī à¤¬
à¤¤à¤° à¤ķ
ĠE ng
Ġà¤ı à¤¥
à¤Ĩà¤Ī à¤µ
Ġà¤ªà¤° à¤µ
à¤ĩà¤¨ à¤¸
Ġà¤Ŀ à¤²à¤ķ
ire ct
Ġà¥¨à¥¦à¥¦à¥ ª
Ġà¥§à¥® à¥¯à¥
à¤¡ à¤Ł
Ġà¤§ à¤®à¤¨
à¤Łà¤² à¤°
Ġ7 7
Ġà¥§à¥® à¥«
w ay
Ġà¤Ĩà¤µ à¤°à¤£
Ġ194 9
I S
h ar
Ġà¤ķà¤° à¤£
at ing
à¤¤ à¤¦
Ġà¤¦ à¤«à¤¨
ĠII I
à¤¸ à¤ªà¤°
Ġ194 5
Ġà¤® à¤¦à¤¨
Ġà¤° à¤«
Ġà¤² à¤¦
à¤ı à¤ª
à¥¦à¥ ¨
à¤ĩ à¤¤à¤¨
re en
Ġà¤¸à¤®à¤ķ à¤ķ
Ġà¤¨à¤µ à¤ľ
Ġre turn
Ġà¤¸à¤® à¤¤
Ġà¤§ à¤®
Ġà¥¨à¥¦à¥¦à¥ ©
à¤ł à¤°
er v
Ġ195 4
Ġit s
o ok
Ġà¤§ à¤ķ
Ġar g
à¤ª à¤°à¤ķ
Ġà¤ħ à¤ľà¤®
à¤ĩ à¤Ĺà¤°
à¥§à¥¯à¥ ®
à¤µ à¤¨à¤ķ
ic k
Ġ `
à¤¸ à¤µà¤°
à¤ľ à¤¯à¤¨
Ġc ode
Ġp os
A A
Ġà¤ľ à¤Ĺà¤¨
Ġà¤® à¤¯
Ġà¤ľ à¤ľ
à¥ Ĭ
à¥ĩ à¥ĩ
Ġà¤² à¤Łà¤ķ
Ġth ere
à¥§à¥¯à¥ Ń
6 6
8 7
Ġà¤Ķà¤° à¤¤
Ġà¤ĸ à¤ªà¤¤
Ġ7 3
à¤Ł à¤°à¤¸
à¤Ĩ à¤īà¤Ł
at or
Ġ9 7
Ġà¤ħà¤¸ à¤¹
Ġà¤Ĩ à¤Ł
Ġà¤¶ à¤ªà¤¥
Ġà¤Ľ à¤¨
Ġw iki
i o
à¤¨ à¤¹à¤°
Ġà¤² à¤ļ
Ġà¤§ à¤¡
Ġbe en
ech n
Ã ©
à¤¬ à¤Ĺ
à¤¨ à¤®à¤¨
Ġà¤Ķ à¤ľ
Ġà¤®à¤¹ à¤®
Ġ6 2
Ġà¤ĭ à¤Ĺ
Ġà¤°à¤¹ à¤®
Ġab out
à¤· à¤¯à¤ķ
T o
er y
à¤® à¤ļà¤°
Ġà¤Ń à¤£
Ġg et
Ġà¤Ĩà¤ķ à¤²à¤¨
ĠInd ia
Ð °
à¤Ł à¤¡
Ġà¤ı à¤¹à¤¸
à¤ħ à¤¦
Ġd if
à¤Ĺ à¤ªà¤¤
Ġà¥¬ à¥¦
Ġà¤ħ à¤ľà¤¯
Ġà¤¬ à¤°à¤ķà¤°
à¤¼ à¤Ĥ
I I
Ġà¤Ĩà¤ª à¤¦
à¤® à¤Ń
à¤Ī à¤°
à¤¶ à¤Ĺ
à¤ħ à¤¸à¤²
as h
8 9
Ġà¤² à¤¨
à¤ĸ à¤¡
à¤® à¤Ĺà¤¢
à¥¦à¥ ©
Ġa c
200 3
ob ox
Ġà¤Ń à¤¡
Ġà¤Ŀ à¤Ĺà¤¡
à¤® à¤ļà¤¨
à¤¬ à¤¹à¤°
ĠT otal
à¥¨ à¥«
Ġà¤Ĩà¤¶ à¤¯
8 6
à¤¹ à¤¨à¤¤
à¤®à¤¨ à¤Ĺà¤°
à¤¡ à¤Ĺ
Ġà¤ªà¤¹ à¤¨à¤¤
Ġà¤ĩà¤¨ à¤ª
Ġw ork
ord er
à¤¯à¤® à¤¯
Ġfr ame
Ġ err
à¤ł à¤®
ĠA m
Ġsu ch
à¤¤ à¤¸à¤°
5 5
à ½
à¤ į
Ġà¤ħà¤° à¤°
Ġà¤Ĭ à¤¨
Ġ194 6
à¤ıà¤¸ à¤ıà¤¸
Ġlink s
Ġà¤° à¤ļà¤¯
à¤ĩ à¤°à¤¸
Ġ6 3
Ġà¤¹ à¤¬
à¤ĩà¤Ł à¤²
à¥¨ à¥©
Ġ195 1
Ġà¤ĸ à¤¦
Ġ195 9
ib le
Ġà¤ĵ à¤Ł
Ġin ter
T S
p ar
Ġà¤ĸ à¤®
Ġs ome
à¤°à¤ľ à¤Ń
à¤§ à¤°à¤£
Ġà¤ĩà¤¸ à¤°
à¤ĩ à¤ªà¤°
à¤°à¤¤ à¤µà¤°
re turn
Ġre l
Ġus er
à¤£à¤¤ à¤¯
à¤ľ à¤«
http s
Ġà¤¡ à¤ķ
à¤Ľ à¤µ
à¤ħ à¤°à¤¬
Ġà¤Ĺ à¤®
ĠT r
Ġdes ign
O S
Ġà¤ĸ à¤¨à¤¨
à¤°à¤¹ à¤®
à¥¨ à¥¬
ri b
A N
à¤® à¤¡
à¤¬ à¤ľ
Ġà¤Ńà¤Ĺ à¤µà¤¤
Ġ z
Ġ6 00
ĠN ational
2 000
à¤ł à¤²
Ġà¥© à¥«
à¤ľ à¤ķà¤¤
à¤¥ à¤Ĺ
Ġtw o
p ur
Ġ å
Ġà¤ľ à¤²à¤¨
Ġà¤¸à¤® à¤²
à¥ī à¤Ĥ
Ġà¤īà¤¨ à¤ªà¤°
Ġp h
à¥© à¥¦
c y
ĠW ik
t ed
à¤¨ à¤ı
in al
Ġ195 8
p g
ul l
8 2
à¤¦ à¤¡
Ġà¤¥ à¤²
Ġ18 57
Ġà¤°à¤£ à¤ľ
à¤Ī à¤ľ
Ġà¤Ĩà¤¦ à¤¤
Ġc he
à¥¨ à¥ª
à¤Ī à¤ĵ
à¤¹à¤° à¤²
Ġà¤ıà¤ķ à¤¦à¤®
Ġà¤īà¤¸ à¤ªà¤°
Ġg ener
v i
Ġà¤Ĩ à¤ªà¤¤
à¤ħ à¤ļ
à¥¨ à¥®
à¤ĸ à¤ª
à¤° à¤¡
Ġà¤ı à¤µà¤°
à¤¸à¤¦ à¤¸
Ġà¤ļà¤® à¤¡
Ġà¤Ĩ à¤«
à¤ī à¤®
Ġ7 6
Ġà¤¢ à¤²
0 3
à¤īà¤¨ à¤²
Ġ8 6
à¤¯à¤¸ à¤Ń
à¤Ĺ à¤¯
Ġth an
Ġà¥¨à¥¦à¥¦à¥ ¨
Ġm ess
h a
Ġà¤¯ à¤®à¤ķ
Ġ et
Ġà¤ªà¤° à¤¦
à¤°à¤¦ à¤¸
à¥¨ à¥Ń
Ġà¥§à¥® à¥Ń
à¤°à¤ķ à¤¤
Ġà¥¨ à¥¯
Ġin formation
Ġr ed
E x
o le
à¤µ à¤¥
Ġa cc
Ġ6 9
Ġà¤¨à¤ķ à¤¦
our ce
ĠP ro
Ġpro v
à¤¡ à¤°à¤¸à¤¨
à¤ıà¤® à¤ıà¤¸
Ġà¤ĩ à¤¥
à¤Ī à¤µ
Ġ9 6
201 3
à¤ıà¤ļ à¤¡
à¤¡ à¤¶
Ġre g
Ġr ight
u k
à¤ĩ à¤®à¤°
201 6
urr ent
Ġà¤¬ à¤Ĺà¤²
Ġà¤°à¤ĸ à¤°à¤ĸ
0 1
0 9
à¤¾ à¤ĥ
Ġà¥¨ à¥¦à¥¦
à¤Ĺà¤£ à¤ķ
Ġ end
à¤² à¤Ł
Ġs ame
Ġ194 2
Ġà¤¤à¤Ł à¤¸
Ġdef ault
ĠØ§ ÙĦ
Ġà¤¶ à¤®
à¥§à¥¯à¥ ¬
c l
Ġà¤ħ à¤ł
à¤¤à¤¨ à¤§
à¥§à¥ §
Ġà¤īà¤² à¤Ŀ
Ġà¤¯ à¤¤
Ġo ver
Ġ8 7
à¤¥ à¤ª
à¤Ĺà¤² à¤ķ
i um
y a
Ġà¤ĩà¤¸ à¤ªà¤°
Ġà¥§à¥¯à¥ ¯à¥¦
Ġà¥© à¥§
um ent
em ent
Ġ195 3
Ġà¥§à¥® à¥¬
A M
Ġt alk
is e
Ġb order
ow s
e ad
Ġ17 7
0 4
Ġà¤ı à¤¨à¤°
cri pt
b ox
b le
à ¸
5 6
i er
195 2
a z
m s
à¤¬à¤° à¤¨
it ed
Ġà¤ıà¤ļ à¤Ĩà¤Īà¤µ
à¤Ĺ à¤¹
à¤¡ à¤¹à¤°
Ġà¤Ŀ à¤Łà¤ķ
ĠC O
a ir
Ġà¤ı à¤²à¤¨
a de
à¤ĩ à¤ľà¤°
Ġsu pp
0 6
n e
Ġw ould
Ġ9 8
Ġ8 4
o h
à¤ ½
à¤® à¤ł
Ġthe y
Ġà¤® à¤µ
Ġv ar
à¤¤ à¤°à¤¤
Ġà¤ĸ à¤Ł
Ġà¤īà¤Ń à¤°à¤¤
à¤ı à¤ľ
aus e
Ġà¤Ń à¤ľà¤¨
à¤Ī à¤¡
Ġà¤Ľ à¤¡
9 3
r on
à¤ķà¤° à¤¨
Ġint o
Ġ8 8
à¤ª à¤Ĺà¤¢
Ġà¤ħà¤¨ à¤ľ
ĠC H
20 18
Ġà¤¹ à¤²à¤ķ
Ġà¤Ĩ à¤¯à¤¤à¤¨
am m
Ġà¥© à¥¬
200 2
à¤¤ à¤¹
al s
Ġm w
Ġà¤ĵ à¤µ
Ġà¤Ĳ à¤®
à¤¯à¤¤ à¤¯
en g
Ġto p
Ġre m
Ġcon s
Ġ193 6
Ġerr or
V D
Ð ¸
Ø ¨
à¤² à¤ĺ
à¥§à¥¯à¥ ª
9 4
Ġà¤¸à¤¹ à¤Ń
us s
0 8
c ed
Ġb ox
Ġpar t
197 0
Ġthe n
Ġ7 8
Ġf ield
ou gh
p en
Ġà¤ªà¤° à¤¶
201 7
Ġà¤² à¤¯
ĠÂ £
à¤® à¤¦à¤°
à¤ĵ à¤¡
Ġm ake
Ġà¤¸à¤« à¤°
Ġà¤ªà¤° à¤ľ
Ġà¤īà¤² à¤Ł
Ġdif fer
à¤¶ à¤Ńà¤ķ
à¤°à¤® à¤¨
à¤ł à¤µ
Ġhe l
Ġà¤ķ à¤¤à¤°
à¤® à¤Ĭ
à¤ª à¤°à¤¸
à¤Ł à¤¸à¤¨
Ġthe se
Ġ7 4
à¤Ĭ à¤ªà¤°
Ġ193 9
Ġâ Ī
I V
r om
Ġ em
à¤Ĺ à¤¬
Ġà¤µà¤° à¤¦
Ġà¤ĵ à¤ľ
Ġthe ir
Ġw ik
Ġd ate
Ġs im
al ly
Ġà¤ıà¤¯à¤° à¤ª
Ġà¤Ĩà¤īà¤Ł à¤ª
C C
à¤¸à¤² à¤°
as es
ab el
Ġà¤¶ à¤°à¤¦
201 5
6 4
Ġ19 00
à¤°à¤µ à¤ķ
Ġà¤Ĩà¤Ī à¤ıà¤¸
ĠE x
à¤® à¤µà¤°
à¤ľ à¤°à¤¨
ing s
ĠEng lish
9 2
in es
Ġc ite
Ġd et
Ġal ign
Ġà¤Ń à¤Ĺà¤¤
à¤ĩ à¤¶
Ġt ype
Ġa f
Ġà¥« à¥¦à¥¦
à¤Łà¤ķ à¤ķ
à¤ıà¤« à¤ı
à¥§à¥¯à¥ «
5 8
c ess
Ġà¤® à¤°à¤£
Ġà¤° à¤¤à¤¨
Ġg r
à¤ļ à¤¡
Ġà¤Ĳ à¤¶
u es
à¤Ĩ à¤ªà¤¨
ĠC D
un d
Ġinf obox
M A
Ġà¤ķ à¤ľ
à¤² à¤ªà¤¤
à¤ĩ à¤«à¤²
à¤°à¤¦ à¤¤
Ġt ime
ĠS p
ĠH indi
an a
à¥ª à¥¦
Ġe v
form ula
à¤¯ à¤¸à¤¨
à¤¦ à¤ķà¤¤
Ġà¤ıà¤ķ à¤ľ
Ġt ag
Ġà¤ħà¤ª à¤¶
Ġà¥® à¥¦
à¤¯à¤ķ à¤²
à¤ķà¤² à¤ķà¤°
à¤Ĩà¤Ī à¤ıà¤¸
im edia
Ġsy stem
er g
Ġà¤ľ à¤¯à¤¸
à¤Ľ à¤°
Ġà¤ıà¤¨ à¤¬
6 1
P lease
Ġb l
Ġin clu
Ġ8 1
Ú ©
en ces
Ġre fer
à¤°à¤£à¤¤ à¤¯
Ġs ize
Ġ8 00
Ġform at
à¤Ī à¤®
Ġà¤ĸ à¤²à¤¨
Ġ194 1
rib ut
u c
in clude
196 0
y s
à¤Ī à¤¶
à¤ī à¤£
Ġcont ain
M L
et w
Ġ193 2
e ver
h i
y n
à¤ª à¤ļà¤¯
Ġy ear
Ġpro du
à¤ķ à¤«
à¤ľ à¤®à¤¹à¤²
Ġc or
Ġà¤¦ à¤«
à¤Ī à¤ª
Ġà¤Ĩ à¤ĩà¤²
Ġà¤Ĩ à¤²à¤®
Ġdis c
Ġà¤° à¤Ĺ
Ġ193 1
5 3
Ġ æ
Ġ19 19
Ġc ount
lo p
Ġà¥¨à¥¦à¥§à¥ ¯
e f
lu m
à¤ıà¤« à¤¸
Ġà ´
à¤Ł à¤°à¤®
Ġ ro
Ġà¤ļ à¤¶
à¤ĺ à¤²
Ġa ct
am p
Ġ193 7
ĠO r
à¤· à¤¨
âĢ Ļ
Ġà¥ª à¥«
ical ly
à ª
Ġs c
Ġs ol
199 9
Ġà¤ĩ à¤«
à¤°à¤¦ à¤¯
Ġc all
Ġa v
Ġw ord
ĠS I
A R
B S
à¤ĵ à¤®
à¥¦à¥ ª
l ink
Ġà¤ĺ à¤Łà¤¤
à¤¡à¤° à¤²
ĠP l
à¤ķà¤Ł à¤µà¤°
om et
if ic
Ġ192 4
t r
à¤¬à¤° à¤²
199 8
à¤ľà¤¯à¤¨ à¤Ĺà¤°
it ut
Ġà¤ħà¤ª à¤Ń
ĠC on
0 2
Ġà¤ļ à¤¬
Ġd ist
8 3
Ġl ine
à¥¨à¥¦à¥§à¥ §
Ð ¾
à ±
à¤® à¤¥
Ġbe low
à¤ĩ à¤ļ
à¤µà¤° à¤ª
Ġh ere
pl es
Ġre c
Ġà¤§ à¤¨à¤°
Ġà¤ĳ à¤¬
Ġà¤ħ à¤¤à¤°
Ġà¤ķà¤µ à¤ļ
' t
l and
à¤¬ à¤§
à¤§ à¤¸
Ġà¤ļ à¤ļ
à¤« à¤¤
à¤ħà¤¤ à¤ıà¤µ
E C
à¤ªà¤° à¤µ
à¥¨ à¥§
Ġà¤¯ à¤°
t m
Ġà¤® à¤Ł
à¤µ à¤¸à¤®
Ġà¤ľ à¤¹à¤°
à¤ĩ à¤¥
à¥¦à¥ «
Ġ Ùħ
à¤° à¤Ł
Ġà¤µ à¤«
Ġo ption
Ø ³
à¤ľ à¤¤à¤¨
à¤ľ à¤²à¤µ
à¤°à¤¸ à¤µ
Ġà¤ľà¤² à¤¸
à¤ªà¤° à¤¹
Ġà¥© à¥ª
Ġà¥§à¥¯à¥® à¥¦
Ġà¤ħ à¤¯à¤¸
ol d
Ġk n
à¤ķ à¤¹à¤¤
Ġà¤¨ à¤°à¤®
à¤Ŀ à¤ķà¤°
Ġà¥§à¥¯à¥¯à¥ ®
Ġmess age
Ġhel p
M S
Ġà¤ħ à¤°à¤¸
à¤§ à¤²
à¤¢ à¤¨
Ġà¤µà¤¹ à¤¨
à¤² à¤ĸà¤£
Ġà¤¸ à¤²à¤®
Ġ192 8
à¤¬à¤¹à¤° à¤¹
r al
Ġ á
Ġà¤ħ à¤¥
Ġà¤ħ à¤Ľ
id th
Ġ8 2
Ġ193 5
Ġwh ere
196 2
6 3
à¤Ī à¤¦
Ġf e
ĠÃ Ĺ
ĠâĤ ¹
à¤· à¤Ĺ
Ġà¤īà¤ª à¤®
à§ į
Ġf il
7 7
Ġà¤¬ à¤°à¤¤
or ld
à¤ĭ à¤·
à¤¯à¤° à¤§
Ġb as
à¤ľà¤° à¤²
Ġe qu
Ġres ult
g an
à¤¦ à¤ľ
à¥¦à¥ §
Ġp lease
ĠF r
ote ction
Ġà¤¨ à¤µà¤°
Ġà¥Ń à¥¦
Ġ ent
à¤Ĺ à¤Ł
Ġà¤īà¤ª à¤¶
à¤®à¤¨ à¤¦
Ġin v
196 7
D A
Ġà¤ī à¤¦à¤°
it ies
à¥¨ à¥¨
Ġà¥¨à¥¦à¥ ¨
à¤ĩ à¤ĳà¤ķ
Ġm ain
Ġtrans l
Ġm er
g ment
à¤§ à¤¡
Ġà¤Ĩ à¤ķà¤¸
Ġà¤ķà¤² à¤®
Ġà¥§à¥¯à¥ª à¥Ń
Ġle ft
à¤Ĺà¤® à¤°à¤®à¤°
Ġ194 4
à¤¤ à¤¯
à¤¯ à¤°à¤®
à¤Ĩ à¤¬
à¥ĩ à¤¼
à¤® à¤¹à¤°
Ġà¤Ī à¤ķ
Ġà¤¸ à¤¯
Ġà¤ª à¤ĸ
Ġà¤ħà¤µ à¤¤à¤°à¤£
Ġn on
op y
Ġà¤¬ à¤Łà¤¨
l ic
à¤¬ à¤°à¤®
Ġd oc
lo ad
Ġg iv
à¤Ł à¤°à¤ķ
Ġà¤ĩ à¤¯
Ġà¤ħà¤µ à¤¤à¤°
Ġà¤ķà¤ł à¤ª
à ³
à¤¯ à¤ľà¤¨à¤ķ
à¤ĩ à¤Łà¤°
à¤ħ à¤¯
ĠD VD
T V
Ġ Ï
à¥ Ĳ
Ġc urrent
à¤Ĩà¤Ī à¤¡
Ġse gment
Ġà¥¯ à¥¦
S A
w ard
à¤ ±
Ġ19 18
at ure
Ġth umb
O T
Ġà¤¸ à¤¤à¤°
à¤ľ à¤¡
Ġl abel
Ġch ar
l ag
à¤ıà¤¸ à¤Ī
Ġdo es
8 4
h er
t s
à¤¾ à¤¼
à¤ķ à¤®à¤²
à¤µ à¤ķà¤°
à¤ĵ à¤ķ
t en
à¤¡ à¤¤
Ġà¤ľà¤¬ à¤²à¤ª
Ġm ap
Ġ8 3
Ġ193 8
ce pt
Ġas s
à¤ĵ à¤ª
ĠCom m
1 00
an i
à¥¦à¥ Ń
ir ed
à¤Ĺ à¤«
Ġà¤¨ à¤«
Ġà¤¯ à¤¨
Ġà¤Ł à¤°à¤¬
Ġà¥© à¥©
M ar
Ġà¤ĩ à¤·
Ġa g
am b
Ġof f
à¥¯ à¥¦
à¤¿ :
à¤Ł à¤ľ
à¥¦à¥ ¬
Ġ13 0
Ġ193 4
Ġdiffer ent
Ġà¤ķà¤² à¤°
Ġse c
à¥¯à¥ ®
à¥¨à¥¦à¥§à¥ ª
à¤¯à¤® à¤Ĺ
à¥Ī à¤ĥ
Ġà¤¦ à¤¹à¤¨
Ġà¤Ĩ à¤ıà¤Ĺ
and ard
ĠI P
ur es
à¤µà¤¨ à¤¸
Ġà¤ĵ à¤¨
à¤µà¤² à¤ªà¤®
19 57
Ġà¤¬à¤² à¤°
st itut
ĠâĪ Ĵ
I C
e en
à¤¨ à¤ĸ
à¤°à¤¤ à¤²
Ġe ach
empl ate
Ġ192 9
ment s
ĠInd ian
8 1
à¤° à¤¹à¤°
Ġà¤ķ à¤ļà¤°
à¤Ł à¤°à¤¸à¤¨
Ġà¥§à¥¯à¥¯à¥ ¯
9 1
j pg
Ġà¤Ĩ à¤¡
Ġà¤Ľ à¤¦
al e
Ġm ost
Ġà¤ıà¤® à¤¬
Ð µ
à¤¤à¤¨ à¤ª
t on
à¤¦ à¤ķà¤°
Ġà¤¨ à¤®à¤¸
ĠM odule
iv ers
Ġà¤ª à¤Łà¤°
à¤¯à¤ķ à¤°à¤£
Ġm on
oc i
Ġà ½
Ġsupp ort
f ore
Ġthe m
à¤°à¤¨ à¤ª
ew s
àµ į
D ec
Ġà¤Ĩ à¤°à¤¤
or th
t ing
à¤µ à¤°à¤¤
à¤ł à¤ķà¤°
Ġ19 12
am ed
ĠA d
Ġà¥© à¥¨
Ġal low
Ġ192 2
5 4
S P
Ġ194 3
Ġse arch
à¤¬à¤ļ à¤ªà¤¨
Ġà¤ķ à¤Ľ
Ġà¤® à¤®
Ġ9 3
Ġà¤® à¤ķà¤°
Ġà¤Ĩ à¤ī
à¤ħ à¤¹à¤®
he d
ĠH igh
Ġ ^
Ġà¤¬ à¤§
Ġm ark
un g
ind ows
Ġaf ter
Ġà¥ª à¥®
M ay
y m
à¤¨ à¤¯à¤¨
Ġà¤° à¤®à¤£
à¤¤à¤° à¤ľ
à¤ī à¤¡à¤°
Ġà¤Ĳ à¤¡
Ġ7 9
Ġà¤Ĩà¤Ī à¤¬
Ġ192 5
Ġà¤¤ à¤ķà¤°
Ġs m
à¤Ĺà¤² à¤µ
Ġ9 1
Ġ9 2
Ġà¥® à¥®
Ġcateg ory
à¤° à¤ĺ
à¤ķ à¤ł
Ġà¤ļ à¤¯
5 2
6 9
à¤ļ à¤¯à¤¨
Ġà¤¸à¤¤ à¤ª
A r
m in
Ġc ell
am ples
Ġà¤ħà¤« à¤¸à¤°
og rap
tern ational
à¤ļ à¤¤à¤°
à¤¼ à¤¾à¤Ĥ
Ġà¤Ĩ à¤¸à¤®
Ġà¤Ĳ à¤ª
is ion
Ġm odule
Ġbe c
Ġ193 3
Ġ192 6
Ġà¤¯ à¤®à¤¨
à¤µà¤° à¤®
Ġ8 9
Ġà¥§à¥® à¥ª
Ġà¤īà¤¤à¤° à¤¨
o id
à¤¿ à¤¼
Ġà¤¬ à¤¦à¤¨
à¤Ĩ à¤¹
ĠM ar
Ġà¥§ à¥¦à¥¦à¥¦
ĠI g
Ġde le
Ġ192 1
Ġex t
à¤ª à¤ª
Ġà¤§ à¤¬
Ġm ar
Ġà ¼
E R
Ġà¥© à¥Ń
p os
Ġà¤¶ à¤¤à¤°
Ġà¤ħà¤° à¤µ
à¯ į
F eb
O ct
c odice
Ġà¤ª à¤łà¤¨
Ġà¤¦à¤° à¤Ĺ
il ity
à¤°à¤®à¤£ à¤ķ
Ġà¥§à¥¯à¥¯à¥ ¬
Ġstr ing
F A
p or
à¤ķ à¤ħà¤ª
Ġt echn
à¤Ĩà¤Ī à¤ı
Ġre pl
Ġà¥§à¥¯à¥¬ à¥¦
à¤· à¤µ
Ġà¤² à¤¸
Ġà¤¶ à¤¶
Ġà¤ªà¤° à¤Ĺà¤¨
an e
om at
Ġà¤ħà¤« à¤µ
Ġe lect
6 2
à¤¬ à¤ª
ĠWW E
b r
à¤ľ à¤¯à¤ª
Ġ9 4
Ġex ist
a f
à¤® à¤¸à¤®à¤°
à¥Ī à¤ģ
à¤ľ à¤Ĺà¤¦
à¤£ à¤¦
Ġ19 14
ĠM icro
so ft
5 1
C A
Ġà¤¦ à¤¶à¤°
à¤¸à¤¨ à¤²
Ġ7 00
c on
Ø ª
Ġm at
ac es
ĠH T
J an
S ep
or ies
Ġcomm un
5 9
Y ou
à¤® à¤Ĺà¤°
Ġà¤ı à¤¨à¤¸
20 19
Ġà¥§à¥¯à¥¯à¥ §
Ä ģ
Ġà¤« à¤Ł
à¤¨à¤® à¤¸
Ġà¤Ĩà¤Ĺ à¤®
Ġà¥© à¥¦à¥¦
199 6
e le
à¤¶ à¤Ń
Ġà¤¤ à¤µ
Ġ9 00
ov er
A pr
C l
Ġà¤®à¤¨ à¤¸
à¥¦à¥ ®
Ġà¤°à¤ķ à¤®
Ġà¥§à¥® à¥©
h or
Ñ Ģ
à¤Ĺ à¤Ń
ar n
ĠC l
Ġre ad
Ġ11 0
Ġà¥§à¥¯à¥¯à¥ ¨
Ġà¤ħà¤¸ à¤¤
à¤ı à¤¯à¤°
in ed
Ġh ow
el f
Ġà¥§à¥¯à¥® à¥¯
angu ages
Ġà¤ķ à¤«
Ġà¤Ī à¤Ł
Ġà¥§à¥¯à¥Ń à¥¦
Ġà¥§à¥¯à¥Ń à¥§
____ ____
P ar
à¤° à¤Ĺà¤°
Ġà¤² à¤ª
Ġà¤ħà¤ª à¤¸
19 50
ad ding
I A
Ù ĩ
à¤°à¤¤ à¤®
Ġà¤« à¤²à¤ķ
Ġ19 17
à¥¬ à¥¦
m a
o od
Ġà¤¹ à¤Łà¤¨
Ġà¤¦ à¤¨
à¤· à¤°à¤£
à¤¬ à¤°à¤¤
Ġà¤ľà¤¨ à¤®
Ġà¥§à¥¯à¥« à¥¦
ual ly
7 2
à¤ķ à¤ķà¤°
Ġà¤¦à¤° à¤Ń
es ent
Ġf ree
Ġ12 5
Ġà¤ī à¤Ĺà¤¤
Ġm od
ur al
à¤ıà¤² à¤ı
à¥¯à¥ ¨
Ġà¤Ĩà¤¯à¤° à¤¨
Ġà¤ī à¤Ľ
Ġà¤ı à¤¬à¤°
es h
Ġà¤ħà¤¸ à¤«à¤²à¤¤
Ġ16 0
à¥§à¥¯à¥ ©
Ġà¥§à¥¯à¥® à¥ª
oth er
Ġà¤ª à¤¥à¤°
Ġà¤Ń à¤Łà¤ķ
Ġà¤ĩ à¤®à¤°
Ġc ap
ĠW indows
u il
à¤£ à¤°
à¤ĸ à¤µ
à¤ħ à¤ªà¤°
Ġt est
Ġm ult
ou n
ĠH IV
Ġ192 7
C O
Ġ14 0
ĠÂ ·
Ġab ove
Ġbec ause
N ov
Ġà¤° à¤¬à¤°
à¤¤à¤ķ à¤¨
Ġw ay
ĠR e
A ug
s er
à¤ī à¤ķ
en e
Ġf ind
à¤°à¤¨ à¤Ĺà¤°
Ġwh o
Û ģ
Ġà¤Ŀ à¤¡
Ġà¤ıà¤® à¤Ł
Ġà¥§à¥¯à¥¯à¥ «
Ġà¤ªà¤¨ à¤¡
à¤ĭ à¤Ĺ
l ed
à¤¨ à¤ľà¤¨à¤ķ
Ġ20 21
à¤ļà¤° à¤²
ad i
Ġ190 8
e op
à ¬
ĠS e
de x
id ian
Ġhe ad
J ul
N S
à¤ľ à¤ªà¤¤
Ġà¤ľà¤¨ à¤®à¤¤
Ġs ource
ar a
à¤Łà¤¨ à¤°
it al
ĠTh is
Ġà¤¸ à¤°à¤¹
à¤ª à¤ķà¤°
Ġà¤ľà¤¬ à¤°à¤¦à¤¸
Ġà¤¹à¤ľ à¤°à¤¤
7 3
o og
Ġin s
Ġd i
ĠM an
Ġ15 00
ĠU K
a u
Ð ½
à¤ķ à¤µà¤°
à¤Ĺ à¤ļ
à¤Ĺ à¤®à¤¤
à¤Ń à¤µà¤¨
âĢ İ
Ġde c
op e
Ġà¥§à¥¯à¥¯à¥ ª
Ġsh ow
iz ation
Ġcont ent
Ġà¤¬ à¤¬
à¤ħ à¤¹
à¥§à¥¯à¥ ¨
199 7
7 4
7 6
à¤° à¤¬à¤°
à¤§ à¤°à¤¨
à¤µà¤° à¤µ
Ġ19 11
Ġarg s
à¤¡ à¤¸à¤¨
Ġm ust
oc k
199 2
Ġ log
à¤ı à¤¬
et s
Ġe le
Ġà¼ ĭ
à¤ī à¤ªà¤ļ
qu e
f ul
i ly
à¤² à¤¹à¤°
Ġà¤ª à¤Łà¤²
Ġà¤µ à¤¤
Ġà¤ħà¤¨ à¤¦
à¤ĵ à¤µ
al a
ĠN BC
J un
à¤¾ :
à¤ľ à¤ķà¤°
à¤Ī à¤ıà¤«à¤ı
à¤ł à¤¶
Ġà¤ªà¤¦ à¤µ
Ġb ot
à¤ªà¤² à¤Ł
ow er
ers on
A l
N ET
à¤Ĩ à¤ĩ
19 47
Ġw idth
ĠC S
à¤Ĩà¤Ī à¤ª
Ġà¥Ń à¥«
à¤¯à¤² à¤°
A P
à¤ķ à¤«à¤°
à¤¶ à¤¹
Ġà¤¤ à¤¦
Ġà¤ªà¤° à¤«
à¤ıà¤¸ à¤ª
Ġ192 3
à¤¤ à¤¦à¤¨
Ġà¤ª à¤¸à¤¨
Ġà¤ī à¤§à¤°
à¤Ĺà¤² à¤¸
Ġo b
Ġl ong
Ġà¤¦à¤² à¤¦à¤²
Ġmer idian
à¤® à¤¸à¤¨
à¤ª à¤¸à¤¨
à¤ľ à¤Ł
à¤¡ à¤¬à¤°
Ġà¤®à¤¹ à¤ľ
Ġ19 10
Ġà¤Ī à¤¦
Ġl anguages
à¤Ķ à¤¦
Ġpro ject
ip le
oog le
à¥ĭ à¤ģ
à¤¶à¤¨ à¤¶
Ġ3 50
re at
à¤¨à¤µ à¤®
ction s
Ġà¥§à¥¯à¥Ń à¥¨
Ġdes cri
7 8
er ic
à¤µà¤² à¤ªà¤°
Ġa p
lo s
ĠD e
um m
Ġex p
Ġ190 5
Ġsol id
c ol
Ġà¤Ń à¤¸
ĠC E
Ġà¤ªà¤² à¤Ł
7 1
m an
Ġà¤® à¤¦à¤°
à¤¦ à¤¹à¤µ
Ġà¤ĩ à¤§à¤°
Ġpar tic
Ġà¥§à¥¯à¥ª à¥®
Ġâĺ ħ
Ġdisc uss
à¤¸ à¤°à¤¸
à¤ħ à¤ĸ
al i
à¥® à¥¦
Ġ10 8
ĠK h
Ġ007 21
Ġâĺ Ĩ
à¤® à¤°à¤¨
Ġà¤ª à¤®
à¤· à¤¶
Ġà¤¤ à¤°à¤ķ
à¤ĩ à¤Łà¤¨
à¤ħ à¤¸à¤®
Ġs er
Ġà¤Ĩà¤° à¤ıà¤¨à¤ı
à¤ľ à¤Ĺà¤£
à¤µà¤° à¤¸
à¥¨ à¥¯
Ġst art
Ġat t
à¤ı à¤ıà¤¸
à¤ĸ à¤²à¤¨
Ġ5 000
Ġ10 5
Ġcon f
pr ess
I T
i od
Ġà¤ī à¤ĸ
Ġà¤ī à¤łà¤¨
Ġà¤ī à¤¥à¤²
Ġà¤Ī à¤¯à¤°
d ed
à¤µ à¤¬
Ġà¤ı à¤®à¤¸
à¤ħ à¤¡
it ation
à¦ °
à¤ħà¤ķ à¤¬à¤°
iz ed
Ġsec ond
A n
Ġà¤Ĩ à¤ĩà¤Ł
ĠC o
E D
F C
f g
t y
à¤²à¤¨ à¤¶
Ġs ing
Ġw ant
Ġg roup
ĠE n
à¤¸ à¤Łà¤¨
à¤ª à¤ľ
Ġà¤ļ à¤ª
Ġs ign
à¤¡à¤° à¤Ł
etw een
Ġ Ù
à¥Ģ '
à¤Ł à¤¦
Ġà¤Ĩ à¤£
à¤ĸ à¤¸
Ġ19 16
Ġà¤Ī à¤ª
ed i
ers ion
Ġche ck
à¤ķà¤° à¤¶
Ġà¤ľà¤¨ à¤µ
à¥¯à¥ «
Ġprov id
Ġà¤ĩ à¤Ĺ
it t
Ġm any
à¤® à¤ķà¤°
à¤Ĺ à¤«à¤²
Ġà¤ħ à¤¥à¤°
à¤Ĩ à¤¦à¤°
Ġp ol
199 1
Ġpro per
Ġà ®
Ġcom ple
Ġà¤Ńà¤°à¤¤ à¤ª
O C
Ø Ń
à¤¹ à¤Ĺ
Ġà¤ľ à¤²à¤¤
à¤Ĺ à¤°à¤®
à¤ļ à¤Ł
ĠM S
ĠP ar
Ġà¤ħà¤¸à¤¹ à¤®à¤¤
Ġchar act
r ed
it u
v ent
y l
Ġà¤ªà¤° à¤ķ
Ġà¤ļ à¤¹
à¤®à¤¨ à¤µ
ĠB h
Ġpr otection
Ġet c
à¤Ł à¤Ł
Ġà¤¬ à¤«
Ġà¤ıà¤¸ à¤Ł
lo b
ir c
Ġà¥§à¥¯à¥¯à¥ Ń
Ġrequ ire
à¤ĸ à¤Ĺ
à¤ī à¤·
à¤ĸà¤¨ à¤¨
Ġà¥§à¥¯à¥® à¥«
b ack
à¤§ à¤ļ
à¥¦à¥ ¯
ac ed
Ġst andard
E S
L A
L C
à¤ľà¤¨ à¤¤
Ġà¤īà¤¤ à¤°à¤¤
à¤Ŀ à¤¸
à¥Ń à¥«
Ġà¥¬ à¥«
Ġpl ace
p ace
à¤°à¤® à¤¬à¤¦
Ġà¤§ à¤°à¤®
Ġà¤ħà¤ª à¤²
Ġh is
tm l
Ġà¤ı à¤¤
Ġpo int
o ol
à¤¤ à¤«
Ġ19 15
Ġà¤ħà¤² à¤µà¤°
à¤ŀ à¤ª
Ġin put
Ġm an
p ro
Ġà¤ĩ à¤¡
à¤« à¤Ł
à¤« à¤²à¤ķ
Ġb etween
Ġv ari
Ġà ¨
ĠØ ¨
Ġid ent
ĠMicro soft
m e
r es
à¤° à¤Ľ
Ġà¤ľ à¤ª
Ġà¤ĵ à¤¹
Ġà¤ĵ à¤¶
Ġà¤¬à¤¢ à¤¤
ĠS y
Ġà¥§à¥¯à¥® à¥¬
à¤ĩ à¤®à¤¨
7 9
l ine
à¥į à¤Ĥ
à¤¯ à¤¸à¤®
Ġà¤Ń à¤¨
à¤ĳ à¤°
Ġà¤¸ à¤ĺà¤¨
à¤ħ à¤²à¤Ĺ
Ġc ase
Ġ3 000
à¤¦à¤¨ à¤Ĺà¤°
Ġm y
Ġse lect
B A
M I
Ġà¤ħ à¤µà¤¨
à¤Ł à¤¯
Ġà¤¤ à¤¦à¤¨
Ġà¤ıà¤ķ à¤°
at s
Ġà¤ħà¤ª à¤¡
ak es
Th ere
ĠIS O
v al
Ġà¤ħà¤µ à¤Ĺà¤¤
ĠI V
Ġà¥« à¥«
Ġà¤ıà¤¯à¤° à¤µ
Ø§ ÙĨ
à¥ ¢
à¤¨ à¤ªà¤°
à¥ģ à¥ģ
Ġà¤ĸ à¤Ĺà¤¡
à¤¤à¤¨ à¤¶
ĠC ol
à¥§à¥ §à¥
Ġà¤ľ à¤¶
à¤¬ à¤¢
Ġà¤Ĩ à¤®à¤¨
Ġà¤Ľ à¤¤à¤°
à¤Ĭ à¤°
à¤ıà¤¸ à¤¡
pl ic
à¦ ¿
Ġor der
Ġpos s
F F
o f
t a
Ġà¤Ĩ à¤£à¤µ
el s
Ġà¥§à¥¯à¥Ń à¥«
Ġ007 20
o y
o z
Ġ loc
à¤° à¤Ī
à¤« à¤°à¤ª
Ġbe fore
à¤ıà¤® à¤ıà¤²
um ents
Ġà¤¦à¤¶ à¤®
Ġoption al
Ġà¤¹ à¤°à¤¦
Ġà¤ħà¤ļ à¤²
à¤ĳ à¤«
Ġspecif ic
Ġà¤¦à¤¶à¤° à¤¥
Ġà¤¬ à¤µ
Ġà¤ħà¤¨ à¤¸
Ġà¤ĵ à¤·à¤§
Ġà¤ªà¤¦ à¤ļ
D C
Ġà¤ħ à¤ĺ
Ġà¤ĺ à¤£
Ġc x
Ġp adding
à¤ªà¤ķ à¤¤
19 30
à¤Ĳ à¤²
Ġgiv en
Ġ ï
à¥© à¥«
ĠN H
eop le
à¤¹ à¤®à¤²
Ġà¤ªà¤ķ à¤µ
à¥Ń à¥¦
ri es
orm al
Ġà¤īà¤ª à¤ª
ad a
Ġun it
Ġinst ead
Ġsm all
4 00
à¤² à¤Ĺà¤°
à¤ª à¤ķà¤²
ar g
Ġw ere
re f
Ġn um
199 5
Ġapp ear
I N
e arch
n a
Ð »
Ñ ģ
à¤Ń à¤¯
in s
ĠB r
ĠG r
199 4
in a
Ġà¤ıà¤² à¤ľ
Ġsp ace
Ġv is
Ġà¥§à¥¯à¥¯à¥ ©
Ġun der
Ġval ues
l a
s c
à¤¨ à¤¸à¤°
Ġà¤¹ à¤ł
Ġà¤¶ à¤ĸ
Ġà¤¸à¤® à¤®
à¤°à¤® à¤ļ
ra ct
ĠHigh way
à¥ Ħ
à¤ı à¤¥
à¤ıà¤¸ à¤ıà¤®
id er
ink le
Ġà¥§à¥¯à¥® à¥®
Ġà¥§à¥¯à¥® à¥©
Ġà¥§à¥¯à¥¬ à¥¨
D P
Ġc opy
ĠN A
end ed
Ġwith out
Ġpro cess
ail able
h od
à¤¨ à¤°à¤¸
Ġà¤Ĳ à¤°
et ic
à¥¬ à¥«
Ġà¥§à¥¯à¥Ń à¥Ń
Ġà¤· à¤·
Ġà¤¨ à¤Ł
à¤µà¤¨ à¤¡
Ġâ Ĩ
Ë Ī
Ø ©
à¤Łà¤° à¤²
ou se
à¥© à¥§
ĠG e
Ġdesign ation
à¤Ń à¤¸
en cy
à¤ıà¤¸ à¤Ĩà¤Ī
Ġà¤ľà¤® à¤¶
Ġno include
Ġdoc ument
à¥Ģ à¤ģ
in ce
Ġ10 4
Ġà¤ķà¤µ à¤ķ
à¤Ĺ à¤§
Ġf ound
à¤®à¤² à¤°
ĠC or
Ġà¤¬à¤® à¤¬
Ġ007 19
sp an
emb er
7 00
C W
à¤Ĺ à¤µà¤°
à¤Ī à¤Ĺ
à¤ħ à¤µà¤§
an c
ar b
ou th
Ġà¥§à¥¯à¥® à¥¨
Ġà¥§à¥¯à¥« à¥¬
Ġ à¥į
à¤£ à¤Ĺ
he s
ĠH y
à¥¯à¥ ª
à¥¯à¥ ¬
Ġcre ate
à¤² à¤ĸà¤¨à¤Ĭ
Ġ19 13
à¤¸à¤¨ à¤°
ap p
à¥¯à¥ Ń
Ġim ages
iss ion
Ġà¥¨à¥¦à¥¨ à¥¦
R S
à¤ķ à¤¯
Ġà¤® à¤²à¤¬
Ġà¤ħ à¤¹à¤¸
à¤ı à¤²à¤¸
Ġà¤ħà¤® à¤²
Ġde p
m b
u ch
Ġà¤® à¤°à¤¤
à¤µ à¤¶à¤ķ
à¤ª à¤Ĺ
à¤¬ à¤µà¤¤
Ġà¤Ĺ à¤Ĺà¤¨
Ġin c
Ġm in
199 3
Ġ190 4
al le
Ġà¤ħà¤ª à¤µà¤°
à¤ıà¤¸ à¤Ł
Ġv i
end er
Ġj ust
Ġadd ed
Ġà¤Ł à¤®
à¤ĩà¤¸ à¤°
le ar
à¥© à¥Ń
id d
à¤ĳ à¤¨
Ġlo ok
g reen
à¤® à¤¦à¤¨
Ġà¤ľ à¤¯à¤¨
à¤Ĩ à¤°à¤¸
Ġà¤ıà¤¸ à¤¯
ay s
Ġà¥§à¥¯à¥Ń à¥¬
Ġ190 1
ord in
à¤¯à¤Ń à¤Ł
à ©
Ġ Ú©
à¤¾ à¤¾
Ġà¤ľ à¤¯à¤¦
Ġà¤¨ à¤°à¤ķ
à¤Łà¤° à¤µ
à¤µà¤² à¤ª
à¥ª à¥¨
Ġk m
Ġà¥§à¥¯à¥Ń à¥©
Ġà¤ľà¤¨ à¤°
ĠI PA
à¥ª à¥«
à¤Ĩà¤Ī à¤ıà¤²
à¤Ĩà¤° à¤¡
Ġbe ing
Ġk ey
Ġà¥§à¥¯à¥© à¥¦
ĠUn ivers
O L
Ġ q
à¤£ à¤ªà¤¤
à¤µà¤£ à¤ķ
L ink
O N
à¤° à¤²à¤¯
Ġà¤ķ à¤Ĺ
à¤ķ à¤ķà¤¥
Ġà¤ħà¤¨ à¤Ĺ
à¤¤à¤ķ à¤¥
Ġus es
tern al
Ġrequ ired
A L
n ame
Ġà¤° à¤¯
Ġà¤ĸ à¤¤à¤¨
Ġà¤ħà¤ª à¤ķ
am s
Ġe l
Ġwh at
Ġaut omat
r ight
Ġ ×
Ġà¤¨ à¤µà¤¨
à¤ľà¤¨ à¤¨
Ġb oth
Ġav ailable
n er
Î ±
à¤ī à¤¬
à¤Ľ à¤ł
Ġà¤ĳ à¤¨à¤°
à¤¤à¤® à¤¯
Ġà¥ª à¥¦à¥¦
ant s
T P
âĢ ľ
à¤°à¤µ à¤ļà¤¨
al se
Ġà¤ıà¤¨ à¤¡
Ġà¥§à¥¯à¥® à¥Ń
Ġ189 6
ĠIn ternational
W h
Ġ ã
Ġ ç
Ġà¤ª à¤Ĺ
à¤ľ à¤Ĺà¤¤
à¤µà¤° à¤¨
ĠL e
iv er
Ġ190 9
A d
Ġà¤¤à¤ķ à¤²
3 00
H O
à¤Ĩ à¤µà¤ľ
ĠA b
Ġà¤®à¤¦ à¤°à¤¸
Ġ190 6
Ġnumb ers
Ġreturn s
à¤® à¤ĺ
Ġà¤¬ à¤°à¤¨
à¤ĩ à¤¬à¤²
à¤ħ à¤Ł
à¤ħ à¤·
ar s
Ġfield s
à¤ħà¤¹à¤® à¤¦
à¤ª à¤Łà¤²
Ġà¤¶ à¤¹à¤¦
Ġà¥§à¥¯à¥¬ à¥«
R C
S M
à¤ļ à¤¬
à¤¼ à¤¾à¤ģ
à¤ı à¤®à¤¸
à¤¡à¤° à¤Ĺ
à¤®à¤² à¤µ
Ġ10 1
ĠR es
od y
Ġà¤ī à¤ķà¤¸
ĠâĢ İ
à¥¬ à¥§
ĠB C
ay a
A s
Ġà¤ª à¤ª
Ġà¤Ķ à¤ļ
Ġà¤Ī à¤¥à¤°
à¥¬ à¥Ń
Ġst at
ub lic
ĠHT ML
l i
Ġà¤ £
à¤Ĩ à¤°à¤®
Ġà¤īà¤ª à¤¸à¤°
à¤²à¤ķ à¤¤
Ġ10 6
Ġg u
Ġà¤Ńà¤¯ à¤Ń
à¤ħà¤« à¤Ĺ
v g
w iki
à¥ĩ à¤ģ
Ġà¤« à¤ķ
Ġà¤ªà¤¡ à¤¤
Ġà¤®à¤Ĺ à¤°à¤®à¤ļ
S t
Ġ local
à¤ĵ à¤Ĺ
à¤ĵ à¤µà¤°
Ġb uil
ĠI s
ve lop
A C
à¤¦ à¤£
à¤¶ à¤ķà¤°
Ġà¤īà¤¦ à¤¹
Ġà¤ħà¤µ à¤®
ĠS c
if y
Ġ190 7
Ġcon st
Ġtr ue
Ġà¤² à¤°
Ġf alse
it es
Ġd el
Ġth ree
à¤¤ à¤¶à¤¤
à¤¸ à¤¯
à¤¸ à¤°à¤¤
à¤Ł à¤¹
Ġà¤ªà¤° à¤¹
à¤« à¤²à¤¸
à¤ĵ à¤Ł
Ġc al
ĠS u
Ġch ang
Ġred irect
Ġà¤ķ à¤²à¤¨
Ġà¤¬à¤¨ à¤°
Ġà¤ĺ à¤¬à¤°
om in
à¥© à¥ª
Ġcommun ity
Ã ¡
Ġà¤ı à¤Ĩà¤Ī
Ġse par
Ġà¥§à¥« à¥¦
à¤· à¤ľà¤¨à¤ķ
Ġà¤Ĩ à¤ĩà¤¡
Ġà¤Ĩà¤Ī à¤ĵà¤¸
à¤Ĩà¤° à¤Ĩà¤Ī
Ġà¥ª à¥ª
Ġà¥¬ à¥ª
Ġà¤ħà¤Ł à¤ķà¤²
ĠWW F
H z
Ġà¤µ à¤¨à¤µ
à¤Ī à¤¬
Ġà¤Ī à¤µ
Ġà¥© à¥®
il d
Ð ²
à¤®à¤¨ à¤¸
ith er
ib r
ric t
Ġrequ est
à¤ľ à¤ªà¤°
Ġà¤ĵ à¤Ŀ
ed ic
Ġe ff
Ġà¤ĸà¤° à¤Ĺ
à¥¯à¥ ©
stitut e
à¤¯ à¤¦à¤°
Ġà¤ıà¤ķ à¤¸
Ġà¤ĸ à¤¸
Ġt e
à¤¦à¤° à¤ħà¤¸à¤²
Ġà¤ľà¤¬ à¤¡
Ġà¥« à¥¨
Ġ23 0
à¥¯à¥ ¯
Ġà¥§à¥¯à¥Ń à¥ª
Ġà¤® à¤ķà¤¸
Ġ1 19
Ġà¤Ľ à¤Ł
Ġw rit
Ġà¤Ĩà¤ľ à¤®
Ġà¤Ĩà¤¸ à¤µà¤¨
Ġà¥« à¥ª
à¦ ¨
à¥§à¥¯à¥ §à¥
à¤¦à¤¶ à¤¹à¤°
Ġch ange
O n
o ard
w are
Û Ĵ
à¤Ĺ à¤²à¤¨
à¤¡à¤² à¤°
Ġp erson
Ġà¤¤à¤² à¤¹à¤Ł
ĠÂ ²
Par amet
6 00
à¤° à¤ªà¤°
à¤¯ à¤¸à¤°
Ġà¤µ à¤¡
Ġà¤ĩ à¤ķà¤²
Ġt erm
he m
Ġ7 47
à¤Ĭ à¤¨
ĠA s
Ġà¤¸à¤®à¤Ŀ à¤ķà¤°
Ġà¥« à¥©
Ġv ery
a ur
Â ·
Ġà¤¹ à¤°à¤ķà¤¤
Ġà¤ħà¤µ à¤ķà¤²
as on
Ġà¤¸à¤ļ à¤®
Ġà¥§à¥¯à¥¬ à¥©
Ġle v
N ote
Î ¿
Ġà¤ķ à¤¸à¤®
Ġà¤¸à¤¹ à¤ķà¤°
it er
à¥« à¥Ń
Ġh y
Ġl ast
Ġposs ible
i ent
à¤¨ à¤Ĺà¤¢
à¤¯ à¤°à¤ķ
ic es
Ġd irect
ĠA D
om y
ur ing
ul ation
à¤ıà¤¨ à¤ıà¤¸
ist er
Ġà¥§à¥¯à¥ª à¥¯
Ġle t
ĠWik imedia
B N
S E
T A
à¥Ģ à¤¼
Ġà¤¬ à¤Ĺà¤¦
Ġà¤¶ à¤Łà¤²
Ġs cript
Ġw ar
re ad
Ġà¥ª à¥©
Ġà¥® à¥¬
Th ank
Ġà¥¯à¥ «
pr ot
à¤µ à¤°à¤ķà¤°
Ġà¤° à¤¡
Ġà¤ĩ à¤¯à¤°
ĠC ent
Ġà¥ª à¥¬
Ġdisplay ed
U n
W hen
à¤ĩ à¤§à¤°
à¤°à¤® à¤¸
Ġ18 00
Ġà¤ıà¤² à¤°
tic al
198 9
Ġout put
Ġ3 60
Ġo pt
ĠS ch
Ġ10 2
ist s
ver y
Ġà¤ļà¤®à¤ķ à¤¦
Ġà¤Ĩà¤ī à¤Łà¤²
Ġà¥ Ĳ
Ġà¤° à¤£à¤µ
à¤ĺ à¤Łà¤ķ
ĠE d
u ct
Ġà¤® à¤Ľ
Ġà¤° à¤®à¤¨
Ġà¤Ĩà¤Ī à¤¡
us h
Ġar ch
Ġà °
Ø§ Ø
Ġbas ed
b it
Ġà¤ªà¤° à¤²
à¤¸à¤® à¤ķ
ul es
Ġà¥ª à¥Ń
Ġà¤¦à¤¶ à¤¹à¤°
P M
m it
Ġà¤ª à¤²à¤ķ
Ġà¤ħ à¤ľà¤¨
Ġà¤¤ à¤¡
à¤°à¤£ à¤µ
Ġh ai
Ġ @
Ġ é
à¤¶à¤¨ à¤ķ
ĠH D
im al
rop ri
W iki
É Ļ
à¤¬ à¤ķà¤¤
Ġà¤« à¤°à¤®
Ġà¤ĳ à¤¯à¤²
Ġà¤ķà¤² à¤¶
Ġp eople
de f
à¤ĳ à¤ªà¤°
Ġ190 2
Ġpl ain
Ġà¤¬à¤°à¤¤ à¤¨
Ġà¤®à¤ķà¤¸ à¤¦
à¤² à¤¸à¤¨
Ġà¤¬ à¤°à¤®
à¤¡ à¤¹
à¤ı à¤ı
à¤Ĩ à¤°à¤ª
à¤°à¤¦ à¤¨
ag ar
ro ss
Ġà¥§à¥¯à¥¬ à¥§
Ġmon th
t om
Ġà¤¹ à¤°à¤®
Ġp ur
ic a
Ġr un
Ġà¤¹à¤Ł à¤ķà¤°
Ġà¤ıà¤ļ à¤¡
u a
à¤¯ à¤µà¤¤
Ġà¤¸ à¤Īà¤¦
à¤µ à¤Ńà¤°
Ġà¤° à¤ľà¤¨
à¤¼ à¤¼à¥ģ
à¤ı à¤ķà¤²
à¤°à¤¤ à¤Ł
à¥© à¥©
à¤ıà¤® à¤Ł
Ġà¥§à¥¯à¥® à¥§
Ġà¥§à¥¯à¥« à¥Ń
Ġà¤Ńà¤Ĺ à¤µà¤¨
Ġspecif ied
p o
à¤¤ à¤ļà¤°
à¤¹ à¤°à¤¤
Ġà¤Ĩ à¤ĩà¤ľ
Ġà¤¸à¤® à¤µ
à¤¤à¤° à¤¬
Ġà¤ªà¤¦ à¤Ń
Ġà¥« à¥§
Ġà¤Ĺà¤£ à¤ªà¤¤
Ġus ers
st r
Ġ189 5
S T
p s
w n
à¤° à¤µà¤¤
à¤® à¤ĸ
à¤ª à¤ĸ
Ġà¤ĩ à¤¤à¤°
Ġ2 20
à¤Ĩ à¤¯à¤°à¤²
Ġà¤¡ à¤²
Ġà¤ł à¤£
à¥Ń à¥ª
lu tion
Ġ185 8
eng th
l as
r am
w inkle
à¤® à¤ªà¤°
à¤ļ à¤µà¤°
Ġà¤ķà¤° à¤®
à¤¤à¤° à¤®
à¤ķà¤Ł à¤Ĺ
Ġ10 3
Ġth ose
Ġà¥§à¥¯à¥¬ à¥ª
Â Ń
à¤ĩà¤¸ à¤ªà¤°
Ġà¤īà¤ª à¤²à¤ķ
Ġà¤§à¤¨ à¤¬
Ġor gan
Ġà¤ıà¤¯à¤° à¤¬à¤¸
Ġà¥® à¥«
197 1
ĠâĨ Ĵ
Ð º
Ġà¤ ¿
à¤¬ à¤ĸ
à¤Ĩ à¤µà¤¶
Ġà¤¡ à¤Ĺà¤²à¤¸
Ġà¤§ à¤µà¤¨
à¤¸à¤° à¤²
Ġf am
Ġà¤ľà¤² à¤®
Ġà¤¬à¤² à¤µ
à¥® à¥«
ĠN ew
Ġ189 0
Ġmar gin
Ġ è
à¤¤ à¤µà¤°
à¤¤ à¤¹à¤¸
à¤Ī à¤¥
Ġà¤ļ à¤ªà¤Ł
Ġà¤« à¤¹à¤°
à¤Ĩ à¤ł
Ġà¤®à¤¸ à¤²à¤¨
Ġà ²
Ġà¥§à¥¯à¥¬ à¥¯
ition al
Ġpo em
Ġà¤¨à¤« à¤°à¤¤
ropri ate
p age
s vg
à¤® à¤²à¤¯
Ġà¤µ à¤Ĺ
à¤£ à¤§à¤°
Ġà¤Ĩ à¤ĩà¤¸à¤²
ot o
Ġà¥§à¥¯à¥¬ à¥¬
Ġà¤īà¤Ń à¤¯
S C
a ction
g g
à¤¹ à¤Ń
ot ype
ĠI m
im es
Ġà¥§à¥¯à¥¨ à¥¦
Ġà¤¸à¤°à¤¹ à¤¦
h an
i i
Ġà¤ľ à¤¬à¤°à¤¨
à¤¼ à¥Ģà¤Ĥ
ĠP o
il ar
ĠF or
Ġsh ort
Ġ189 9
ĠX X
Ġcont ribut
à¤īà¤ª à¤²à¤¬
A ll
Ġà¤¸ à¤¨à¤ķ
Ġà¤ļ à¤Łà¤°
in o
Ġw ikipedia
à¥¬ à¥¬
Ġà¥© à¥¦à¥¦à¥¦
Ġà¤ıà¤¨ à¤ıà¤ļ
Ġ11 5
ir d
t o
à¤° à¤ĸà¤°
à¤¤ à¤§
à¤® à¤Ľà¤²
à¤ª à¤¢
Ġà¤ªà¤¹ à¤°
Ġs em
à¤īà¤¨ à¤¸
19 20
ĠS O
ro l
Ġà¥§à¥¯à¥Ń à¥¯
Ġà¥§à¥¯à¥ª à¥¨
Ġà¥§à¥¯à¥ª à¥«
Ġà¤Ĩà¤īà¤Ł à¤¸
ĠY ou
ail s
w ar
Ġà¥ ł
à¤ĸ à¤Ł
al ign
Ġp ass
à¤°à¤¬ à¤ķ
ĠH e
Ġst ate
R I
à¤¶ à¤µà¤°
ic t
ĠP C
ĠG oogle
ĠØ ³
Ġà¥§à¥¯à¥¬ à¥Ń
H ow
R A
Ñ Ĥ
à¤ª à¤°à¤¤
Ġà¤¬ à¤ľà¤°
Ġà¤Ľ à¤ķ
à¤¸à¤® à¤Ŀ
à¤Ŀ à¤°
à¥« à¥¦à¥¦
Ġ188 0
ath er
à¤¤ à¤¡
à¤¸ à¤°à¤¦
à¤ľ à¤¯à¤µ
al ity
à¥Ń à¥¨
Ġh ap
Ġà¤ıà¤® à¤ı
Ġper iod
Ġco ordin
Ġrefer ence
Ġautomat ically
C om
w ik
Ã Ń
Ï Ĥ
Ġà¤ ŀ
Ġà¤ķ à¤¯
Ġà¤Ķ à¤²
Ġà¤ħà¤§ à¤°
à¤¦à¤° à¤¬
re ct
ĠI D
Ġà¥§à¥¯à¥ª à¥¦
Ġà¥¯à¥ ¬
Ġlist ed
P I
à¤Ľ à¤¹
à¤Ĺà¤° à¤ª
ĠA ss
à¥© à¥¬
à¤Ĩà¤° à¤ıà¤¸
rou gh
vi ew
D ata
Ġà¤ª à¤§
er a
ĠâĢ ¦
Ġp ost
le ction
Ġcount ry
Ġ ur
Ġà¤ķ à¤Łà¤ķ
à¤® à¤°à¤¸
Ġà¤ª à¤¨à¤ª
à¤Ĺ à¤°à¤ķ
à¤°à¤£ à¤µà¤¶
00 00
Ġt ab
Ġb i
ĠM et
à¥® à¥®
Ġà¥« à¥¬
Ġl a
à¤Ĳ à¤ķ
ĠO S
à¤ıà¤ļ à¤ĵ
Ġà¤ıà¤« à¤¬
198 4
198 6
T I
à¤ª à¤¦à¤ķ
à¤¬ à¤µ
Ġà¤Ĩ à¤°à¤£
à¤Ĩ à¤Ĺà¤°
at ch
à¤¤à¤¨ à¤®
Ġw ell
à¤Ĩà¤° à¤Ł
Ġà¥ª à¥¨
Ġcall ed
l ess
à¤Ł à¤¤à¤®
Ġà¤Ń à¤Łà¤¨
at i
Ġà¤ħà¤µ à¤ľ
Ġ18 60
Ġn amed
ĠP er
Ġv er
ĠØ ¹
197 2
Ġsing le
F D
R L
w h
Ġà¤ Ļ
Ġà¤¹ à¤²à¤µ
à¤¡ à¤¯
à¤ı à¤¨à¤¸
Ġà¤ıà¤ķ à¤ķ
à¤°à¤Ń à¤ķ
Ġà¤ħà¤¤ à¤ıà¤µ
à¤¨à¤µ à¤µ
Ġan other
id ata
Ġ12 8
Ġfunction s
Ġà¥§à¥¯à¥« à¥ª
Ġ189 8
Ġà¤łà¤¹à¤° à¤¨
ĠÎ ±
Ġà¤¹ à¤¯
à¤® à¤¢
Ġà¤ª à¤Ľ
al ism
it ive
Ġd ig
Ġn e
ĠW orld
ĠB e
Ġà¤¦à¤¶ à¤®à¤²à¤µ
Ġà¥§à¥¯à¥« à¥¯
Ġ187 0
ateg ory
Ġà¤ıà¤¬à¤° à¤¡
w ikipedia
Ġà¤® à¤¸à¤²
à¤µ à¤Ĺà¤¨
à¤ª à¤µà¤°
Ġà¤ľ à¤²à¤¯
à¤§ à¤®à¤¨
à¤Ń à¤°à¤£
le t
à¥« à¥«
à¥ª à¥®
Ġà¤¬à¤¸ à¤ª
Ġ190 3
ver t
Ġ007 22
Ġmet hod
Ġmult iple
R E
à¤ı à¤Łà¤²
à¤ī à¤§à¤°
à¤°à¤¸ à¤®
à¤¨à¤ķ à¤ª
à¤ĺ à¤¡
Ġà¤ĵ à¤µà¤²
Ġb ook
ĠI C
Ġà¥¬ à¥¦à¥¦
Ġà¤®à¤Ĺ à¤¹
Ġà¥§à¥¯à¥« à¥«
Ġ189 4
Ġ188 7
Ġà¥¯à¥ §
ph ab
Ġkn ow
Ġresult s
Ġà¤Ĺà¤Ĺà¤¨ à¤ļ
à¤¶ à¤²à¤®
Ġà¤² à¤ľ
à¤ĩ à¤¦
Ġà¤Ĩà¤® à¤¦à¤¨
Ġ12 00
Ġit em
Ġà¥§à¥¯à¥¬ à¥®
Ġà¥¯à¥ ¯
Ġcateg ories
Ex amples
Ġtechn ews
Ġà¤Ĩà¤ĩà¤Ł à¤®
h ip
t i
à¤¤ à¤ĸ
Ġà¤¨ à¤µà¤ª
à¤¯à¤ķ à¤µ
Ġà¤ĵ à¤ıà¤¸
Ġp op
à¤°à¤§ à¤°
Ġre pr
Ġen g
r ess
Ġà¤ħ à¤¹à¤²
Ġà¤² à¤¹
à¤Ŀ à¤¨
ĠA M
à¤°à¤ª à¤¦
Ġh i
ĠD r
Ġà¤ıà¤® à¤ıà¤¸
ol ar
od es
Ġk i
ĠJ oh
198 8
com e
Ġres p
Ġacc ess
W e
f ix
à¥ ¤
à¤¯ à¤¬à¤°
à¤¸ à¤ĺ
à¤· à¤¯à¤µà¤¸
à¤· à¤§à¤°
Ġà¤Ĺ à¤®à¤¨
Ġà¤ĩ à¤Ĺà¤²
Ġs ur
Ġs ite
Ġà¤¸à¤¹ à¤ª
Ġc ould
Ġf ull
Ġin dex
Ġto ol
à¥¬ à¥®
ĠO pen
à¥¯à¥ §
Ġà¤ıà¤« à¤¸
ect ed
ĠIn stitute
Ġà¥§à¥®à¥« à¥Ń
link s
à¤° à¤°à¤ķ
à¤¤ à¤Ł
à¤ī à¤¸à¤¸
Ġà¤¡ à¤°à¤¤
Ġt yp
ar get
à¥© à¥®
ur y
à¤Ķ à¤¸à¤¤
erg y
Ġdescri ption
c o
Ø ¹
Ġ low
Ġà¤² à¤¬
Ġà¤¸à¤° à¤¨
ion al
ĠM TV
Ġh indi
à¤ľà¤¯ à¤Ĺà¤¢
if ied
ak ing
Ġà¤ħà¤¹à¤® à¤¦à¤¨à¤Ĺà¤°
198 7
Ġà¥§à¥¯à¥« à¥¨
ĠUnivers ity
O M
r ation
à¤ķ à¤Ĩà¤īà¤Ł
Ġà¤ı à¤Łà¤²
à¤ı à¤¤
Ġb ar
à¥© à¥¯
à¥¬ à¥ª
18 57
Ġsh own
à¤¸ à¤Łà¤°
Ġà¤ľ à¤Ĺà¤®
à¤¬à¤² à¤ª
à¤¬à¤² à¤¡à¤¨
Ġ10 7
ist ory
Ġpro ble
Ġà¥§à¥¯à¥Ń à¥®
Ġ188 5
Ġim port
Ġcomm on
Ġapp ropriate
ĠSy stem
R M
à¤¸ à¤ĸ
Ġà¤¬ à¤ªà¤¤
à¤ļ à¤²à¤°
à¤Ī à¤«
Ġà¤ļ à¤°à¤ķ
à¤°à¤¹ à¤¸
Ġf lag
Ġà¤ıà¤¸ à¤¸
Ġsp ell
Ġ12 3
Ġà¤ıà¤® à¤ª
st er
ĠQ u
itu de
A D
T emplate
à¤¸ à¤«à¤°
Ġà¤¸ à¤¤à¤¨
Ġà¤¬ à¤ĺ
à¤¥ à¤¡
at ic
ĠT e
ĠM P
ĠC an
ĠA g
198 2
à¥¨à¥¦à¥ §à¥¦
Ġà¤ļà¤®à¤ķ à¤¤
Ġsub ject
Ġcre ated
Ġà¤¦ à¤°à¤®
à¤ı à¤Ī
Ġt d
Ġà¤Ī à¤Ĺà¤²
Ġà¤ħà¤ª à¤ĺà¤Łà¤¨
ĠA C
Ġe very
Ġ14 4
Ġà¥ª à¥¯
à¤ĳ à¤¦à¤°
198 5
à¤§à¤¶ à¤¤à¤ķ
Ġrepl ace
Ï ģ
Ġ áĢ
Ġà¤ ¾
à¤¦à¤° à¤ª
Ġ4 50
Ġà¤ıà¤¸ à¤ıà¤¸
Ġl aw
à¤Ĳ à¤¨
Ġv ersion
Ġ189 7
P S
à¤µ à¤¯à¤¸
Ġà¤µ à¤¯
Ġà¤¨ à¤Ĺà¤£
Ġà¤° à¤Ĺà¤¡
in c
Ġà¤Ī à¤¥
ĠP ers
Ġà¤Ĩà¤Ī à¤ľ
Ġ11 4
Ġà¤®à¤¶ à¤°
op h
à± į
l ist
v ed
Ë Ĳ
à¤ļ à¤ª
Ġà¤¯ à¤µà¤¨
Ġà¤Ī à¤²
Ġà¤ħà¤µ à¤¹
Ġh ad
Ġe ither
à¤ıà¤® à¤ı
The se
ov ern
Ġaut hor
ograp h
Paramet ers
R e
b e
Ġà¤¹ à¤µà¤¨
à¤Ł à¤ħà¤ª
Ġà¤¸à¤® à¤°à¤¸
à¤ķà¤° à¤®
Ġà¤ħà¤² à¤ķ
or n
19 40
Ġo per
à¥© à¥¨
Ġl im
Ġà¤ıà¤¨ à¤ľ
if e
ec ess
ub e
à¥¨à¥¦à¥¦à¥ §
lum n
col span
F ID
P ro
d ate
à¤¶ à¤°à¤£
à¤ĩ à¤ı
à¤ľà¤¨ à¤ªà¤¦
à¤ŀ à¤µà¤²
ĠM e
ĠM al
ĠI N
à¥Ń à¥Ń
Ġ12 4
Ġ13 2
à¤ĭ à¤¤
s y
à¤Łà¤° à¤¬à¤°
Ġc irc
Ġb o
Ġà¤ħà¤¸ à¤¹à¤¯
ĠM a
ĠA ct
ag n
ĠR aj
ist ent
Ġcon c
Ġcons ider
m p
u x
à¤¬ à¤²à¤¤
à¤§ à¤°à¤¤
Ġà¤¸à¤° à¤ª
Ġh and
Ġ12 1
Ġ12 6
ĠN e
à¦ ²
Ġtempl ated
Ġ188 9
Ġà¤Ńà¤°à¤¤ à¤¨
Ġedit ing
Ġsegment id
à¤¯ à¤ļà¤ķ
à¤¹ à¤¨à¤²
à¤ı à¤¡à¤®
Ġà¤Ĩ à¤ĸà¤°
Ġà¤« à¤²à¤¤
à¤µà¤° à¤²
à¤ľà¤¨ à¤²
ĠL a
à¤Ķ à¤·à¤§
Ġà¤¸à¤¡ à¤ķ
à¤īà¤ª à¤Ń
Ġwe ight
n ot
Ġà¤ľ à¤®à¤¨
à¤ĩ à¤ķà¤°
à¤Ĩ à¤Ń
à¤Ĩ à¤¯à¤¸
à¤ľà¤¨ à¤°à¤²
an j
ĠM us
ĠC ont
ĠA nd
Ġà¤ıà¤¸ à¤ª
ĠU N
Ġ12 2
Ġ188 2
Ġind ic
à³ į
Ġtemplated ata
T r
Ġà¤¸ à¤īà¤¦
à¤Ń à¤¤
à¤Ī à¤ļ
ar th
ĠB M
Ġk e
Ġun d
Ġ189 1
ĠâĤ ¬
Ã ³
à¤ķ à¤ĺà¤°
à¤² à¤Ī
à¤µ à¤²à¤¨
à¤ī à¤ľà¤°
ĠM y
Ġ17 0
Ġ13 8
iv es
pt y
Ġà¥¦ à¥¨
Ġ188 8
cc ess
à¥Ĩ à¤Ĥ
ru ct
prot otype
E E
f or
Ù ģ
à¤² à¤µà¤°
à¤ª à¤Łà¤ķà¤¥
Ġà¤¨ à¤ĸ
Ġà¤« à¤¡
à¤ħ à¤£
Ġth rough
Ġ12 7
Ġg e
Ġpr esent
Ġedit or
m y
v en
Ġà¤® à¤®à¤¤
à¤ª à¤²à¤¬
Ġà¤¬ à¤¸à¤¤
Ġà¤¤ à¤¬à¤²
à¤²à¤¤ à¤®
à¤¯à¤° à¤µ
is ed
ĠI t
Ġà¤²à¤¡ à¤ķ
Ġl ang
id es
Ġpr ot
Ġà¥§à¥¯à¥© à¥§
ust om
Ġqu est
d om
h o
Î ½
à¤¾ à¥ĩ
à¤° à¤ĸà¤¨
à¤Ĺ à¤Ĺ
à¤ľà¤¨ à¤µ
in ation
he l
ĠG u
ac ing
ill ion
fer ences
à¤¨ à¤Ń
Ġà¤° à¤¨à¤µ
Ġà¤² à¤ĸà¤¨
Ġà¤Ī à¤¡
ĠâĢ į
or a
Ġf act
ĠT V
à¤ĩà¤² à¤°
Ġà¤īà¤ªà¤¨ à¤¦
à¤ıà¤® à¤Ĩà¤Ī
Ġr ound
Ġà¤īà¤Ń à¤°à¤¨
Ġadd ing
du ct
S D
à¤® à¤¬à¤°
à¤µ à¤µà¤¤
Ġà¤ľ à¤ķ
Ġà¤ı à¤¨à¤ķ
Ġà¤¸à¤® à¤¶
Ġà¤« à¤µ
is hed
Ġb re
Ġ11 1
Ġpre fix
ĠUn ited
Ġcontain s
8 00
E G
i y
o o
Ġà¤µ à¤²à¤¯
Ġà¤Ń à¤°à¤ķà¤°
Ġà¤ªà¤° à¤ĸ
à¤°à¤¤ à¤µ
à¤ľà¤¨ à¤Ĺà¤£à¤¨
à¤¯à¤¨ à¤ľ
Ġd r
Ġ7 50
à¤¬à¤¦ à¤²
Ġà¥§à¥¯à¥« à¥®
Ġedit ors
Ġup load
Ex ample
Ġlet ter
à¤¾ '
Ġà¤ķ à¤¢
Ġà¤® à¤¡
à¤£ à¤ªà¤¶
à¤« à¤¸
Ġà¤ħà¤¨ à¤¶à¤¨
Ġt em
Ġs k
ic on
Ġe ast
Ġ11 2
Ġà¥ª à¥§
Ġà¤ĩà¤ķ à¤ł
form at
O R
à¤¨ à¤ļà¤°
à¤¹ à¤Ĺà¤¢
à¤¶ à¤¶
à¤· à¤µà¤°
à¤ĵ à¤¬
Ġw est
Ġm ov
ĠC al
à¥® à¥ª
Ġà¤ĩà¤ķ à¤¬
Ġpl aced
ĠAm eric
a ut
o ot
r an
Ù İ
à¤µ à¤§à¤°
Ġ10 9
ur b
Ġ11 6
Ġ14 5
Ġà¥¦ à¥«
à§ ĩ
r ay
Ġ ä
Ġà¤® à¤ĸ
Ġà¤ľ à¤ķà¤¡
Ġà¤ı à¤ıà¤®
Ġà¤¸à¤® à¤·
Ġà¤īà¤ª à¤¸à¤®
Ġt arget
ar h
Ġà¤Ĩà¤¯ à¤ķà¤°
Ġo pen
ĠA ll
Ġà¤ķà¤¥ à¤ķ
à¤¨à¤¹ à¤Łà¤¨
How ever
M E
Ġà¤ķ à¤Łà¤°
Ġà¤Ĺ à¤²à¤¨
à¤ı à¤²à¤¬
à¤°à¤® à¤²
à¤Łà¤¨ à¤®
Ġà¤ªà¤¦ à¤®
Ġd on
Ġn av
us ion
ent ial
Ġà¤ķà¤µ à¤¯
id ae
ĠW CW
Ġ11 7
Ġà¥Ń à¥¨
Ġpro gr
Ġà¥§à¥¯à¥© à¥¬
Ġà¤¹à¤ķ à¤¦
che s
U se
l er
Ġ row
à¤¨ à¤ľà¤°
Ġà¤ľ à¤ĸ
à¤¡ à¤¬à¤²
à¤¢ à¤ķ
on y
Ġà¤¦à¤° à¤ħà¤¸à¤²
Ġf ile
ĠT echn
à¤²à¤ķ à¤¨
à¤Ĭ à¤·
Ġà¤ıà¤¨ à¤Ł
Ġe as
197 7
à® ¿
à¥¨à¥¦à¥¦à¥ ¬
Ġco lumn
Ġà¤Ĩà¤Īà¤ıà¤¸ à¤ĵ
Ġdiscuss ion
à¤¹ à¤¥
à¤¡ à¤ļ
à¤ĸ à¤¬
Ġà¤¸à¤° à¤Ĺ
à¥Ń à¥®
ĠB l
iv al
Ġà¤ªà¤¢ à¤¨
um an
Ġwith in
Ġonly include
Ġche m
B M
L S
T winkle
á ŀ
Ġà¤¸ à¤°à¤¯
à¤® à¤°à¤ķ
à¤ľ à¤ĺà¤°
à¤¬ à¤°à¤¦à¤¸
à¤¤à¤° à¤«
à¤ł à¤Ĺ
es c
ĠC ar
à¤ıà¤¸ à¤¬
à¥ª à¥ª
un e
ro ll
Ġà¥§à¥¯à¥« à¥©
Ġ188 4
Ġà¥¯à¥ Ń
Ġnum er
i j
l ing
à¤ľ à¤ľ
à¤¥ à¤ľ
Ġà¤°à¤¹ à¤®à¤¤
Ġà¤ĺ à¤®
à¤¬à¤² à¤°
Ġà¤Ńà¤Ĺà¤µ à¤¦
ĠF ile
ist or
Ġà¤¹à¤² à¤ļà¤²
Ġun its
197 3
Ġ188 6
Ġà¥§à¥¯à¥¨ à¥®
Ġ007 18
à§ ģ
Ġinclu ding
à¤· à¤Ń
Ġà¤ı à¤ıà¤«à¤¸
à¤¢ à¤¤
Ġw r
Ġm ight
à¤¨à¤µ à¤ľ
à¥« à¥¬
Ġor ig
Ġex pl
à¥¨à¥¦à¥¦à¥ ®
Ġdocument ation
t ain
à¤ķ à¤Ĺà¤£
à¤¹ à¤¤à¤ķ
à¥ĩà¤Ĥ à¤Ĥ
à¤¤à¤° à¤¨
Ġà¤ĸ à¤°à¤¬
Ġà¤²à¤Ĺ à¤µ
en c
en se
à¤²à¤ķ à¤¡
ic ial
19 48
iv id
st yle
à¤ıà¤« à¤ıà¤¸
Ġà¤ıà¤« à¤¡
Ġkn own
R P
à¤Ł à¤Ń
Ġà¤ªà¤° à¤®à¤¹
Ġà¤īà¤ª à¤¤
à¤¯à¤° à¤¨
er c
Ġm icro
Ġm ade
Ġà¤¬à¤² à¤¦
lu e
ĠU ser
à¤¯à¤µ à¤§
Ġ11 8
Ġà¤¤à¤Ł à¤µà¤°
ĠIn t
olog ical
Ġà¤īà¤²à¤Ŀ à¤¨
Ġplain links
h ing
à¤¯ à¤Łà¤°
Ġà¤¸ à¤¹à¤°
Ġà¤¬ à¤¶à¤°
à¤ĸ à¤ľ
à¤¹à¤° à¤¨
Ġ4 000
ĠD i
à¤¯à¤µ à¤¶
il ink
Ġ189 3
Ġad min
Ġà¥§à¥¯à¥¨ à¥§
ĠTr ans
g ed
t able
à¤¤ à¤Ĺà¤¤
à¤² à¤¹à¤¨
à¤Ł à¤¶
à¤¡ à¤¨à¤°
Ġà¤ļ à¤£
Ġc y
Ġc fg
à¥® à¥Ń
Ġ13 3
ĠH S
ĠK ing
197 9
lob al
b ar
à¤¯ à¤«
Ġà¤® à¤°à¤ķ
Ġà¤¨ à¤µà¤²
Ġà¤ļ à¤®à¤Ĺ
à¤¨à¤ķ à¤²
Ġà¤ħà¤² à¤µ
à¤µà¤¨ à¤µ
à¤µà¤¨ à¤¶
ar ge
Ġà¤ĩà¤¨ à¤¡
à¤īà¤¨ à¤Ł
ĠD NA
ĠH ar
Ġà¤īà¤ł à¤ķà¤°
198 3
Ġà¤ļà¤Ł à¤Ĺ
197 5
log roup
Ġspec ial
ific ation
Ar g
Ġser ies
Ġhap logroup
p ose
à¤® à¤ªà¤¤
Ġà¤ľ à¤¯à¤ķ
à¤Ĺ à¤¹à¤°
Ġà¤¦ à¤ĸà¤²
à¤£ à¤ľ
Ġà¤¬à¤² à¤ª
et y
Ġ15 3
à¥ª à¥Ń
ĠK M
Ġà¥§à¥¯à¥ª à¥¬
Ġà¥§à¥¯à¥« à¥§
197 4
nt ax
ĠÎ ²
Ġdef ined
ĠCom p
ĠWik idata
alle l
Ġ ËĪ
à¤¯ à¤ľà¤²
Ġà¤ĩ à¤ª
Ġà¤« à¤«
Ġà¤¡ à¤®
à¤°à¤® à¤ª
er o
Ġc ases
ĠS an
ĠS er
Ġà¤¨à¤µ à¤¯
il i
Ġà¥® à¥©
196 5
Ġà¥¨à¥« à¥¦
Ġà¥¯à¥ ¨
Ġspecif y
Ġcharact er
S h
v ers
à «
Ġà¤ħà¤¨ à¤µà¤°à¤¤
at ory
Ġà¤Ĩà¤Ī à¤ıà¤®
Ġà¤ıà¤² à¤¸
ur a
Ġà¤ıà¤® à¤Ĩà¤Īà¤Ł
Ġ13 1
ĠV I
196 8
Ġà¥¯à¥ ®
Ġac cept
Ġrem ov
umm ary
Ġà¤¶ à¤®à¤¶
Ġà¤¯ à¤¸
à¤ī à¤®à¤°
à¤°à¤µ à¤¶
Ġc ar
Ġc ent
Ġp hy
ĠS i
à¥« à¥¯
à¤°à¤ļ à¤ķ
ĠE lect
à¦ ®
Ġà¥§à¥¯à¥© à¥Ń
Ġlev el
ĠJoh n
i or
Ġà¤ħ à¤¥à¤ķ
Ġà¤° à¤¨à¤°
à¤§ à¤µà¤°
Ġà¤Ķ à¤±
à¤ļ à¤Ĺ
Ġà¤ħà¤¨ à¤µà¤°
à¤ħ à¤°à¤¸
à¤¸à¤® à¤¤
Ġp ower
à¥ª à¥¬
Ġl at
ĠD C
ĠG E
Ġà¤ĭ à¤ļ
196 9
Ġ189 2
our n
Ġle ad
Ġ187 2
Ġà¤į à¤ķ
k s
Ġà¤ķ à¤ªà¤ķ
à¤Ł à¤£
à¤¥ à¤ķà¤¤
à¤¼ à¥ħ
Ġt ax
Ġà¤Ī à¤ľ
ĠM ah
Ġ18 48
Ġ14 1
Ġst ill
Ġuse ful
à¤ıà¤¡ à¤µà¤°
d es
ã ĥ
à¤ķ à¤®à¤°
à¤² à¤¨à¤ķ
à¤® à¤²à¤¤
Ġà¤® à¤Łà¤°
Ġà¤ª à¤Ĺà¤¡
à¥Ī à¤¾
Ġà¤µ à¤Ł
Ġà¤¬ à¤¸à¤°
Ġà¤īà¤ª à¤¬
à¤°à¤¹ à¤²
Ġo ur
ĠA p
ĠA ut
à¥Ń à¥¬
ent al
Ġà¥§à¥¯à¥© à¥¯
way s
Ġinclu ded
Ġcor rect
ograp hy
ĠIg las
velop ment
N O
t ip
Ġà¤ľ à¤¬à¤°
Ġà¤ħ à¤°à¤®
Ġà¤Ĺ à¤§
à¤Ń à¤§
à¤Ŀ à¤¡
Ġp ut
Ġà¤ħà¤¸ à¤¦
le x
Ġo wn
ĠS W
Ġà¤ľà¤² à¤§
à¥® à¥©
Ġ17 00
ĠN o
à¦ ¦
our ces
Ġà¥§à¥¯à¥© à¥«
Ġallow s
Ġbot tom
Ġopt ions
A F
Ġ 000
à¤² à¤®à¤¨
Ġà¤® à¤²à¤ķ
Ġà¤° à¤Īà¤¸
Ġà¤Ĺ à¤Ń
Ġà¤¯ à¤¶à¤µ
on es
à¤Ŀ à¤ķ
Ġà¤¹à¤® à¤¸
Ġà¤¹à¤° à¤Ĺ
ĠA nt
om en
ĠW iki
Ġ13 7
Ġ14 8
Ġar t
ĠF I
ĠF e
à¥§à¥¯à¥ ¯à¥¦
Ġà¥® à¥¦à¥¦
Ġde v
Ġk a
og n
Ġà¥§à¥¯à¥© à¥®
Ġà¥§à¥¯à¥¨ à¥¯
ĠIS BN
n o
à ¾
Ġ est
à¤ľ à¤®à¤°
à¤¶ à¤Ńà¤°
Ġà¤ļ à¤°à¤µ
à¤ħ à¤µà¤²
Ġc lear
à¤īà¤¨ à¤¶
à¥® à¥¬
Ġà¤Ĩà¤ľ à¤®à¤Ĺà¤¢
Ġà¥© à¥¯
Ġà¤ıà¤® à¤ľ
Ġ13 6
à¥ħ à¤Ĥ
à¤ıà¤® à¤ª
Ġv and
est ed
Ġà¥§à¥¯à¥© à¥ª
ibr ary
O r
à¤µ à¤¦à¤°
Ġà¤¬ à¤°à¤µ
Ġà¤Ĺ à¤¹
Ġà¤ī à¤Ĺà¤¨
à¤¸à¤® à¤¨
Ġà¤¸à¤¹ à¤¨à¤¶
Ġc r
Ġw ater
ĠC C
Ġà¤®à¤¦à¤¦ à¤Ĺ
à¦ ¬
oc ial
Ġnames pace
Ġà¥§à¥¯à¥§à¥ ¯
Ġfil m
________ ________
k h
Î ¹
à¤¨ à¤·
à¤¸ à¤Ī
à¤µ à¤Ĺà¤¢
à¤ļ à¤²à¤ķ
Ġà¤ĩ à¤°à¤µ
Ġà¤« à¤¨
Ġà¤¸à¤¹ à¤ľà¤¤
Ġà¤ĩà¤¨ à¤«
ĠM edia
ĠS T
à¥® à¥¨
Ġ13 4
Ġse ver
Ġpar allel
Ġ188 1
Ġà¥¯à¥ ª
195 6
Ġsim ilar
Ġeff ect
Ġfam ily
n ormal
à¤¯ à¤¨à¤ķ
à¤® à¤¹à¤®
à¤¹ à¤®à¤¨
Ġà¤¬ à¤Ľà¤¡
Ġà¤² à¤¹à¤ľ
à¤°à¤® à¤µ
à¤¯à¤° à¤«
Ġs and
Ġà¤ĳ à¤°à¤²
Ġà¤Ĳ à¤ľ
Ġw orld
Ġm c
20 20
Ġà¤¬à¤¦ à¤¤à¤°
à¤Ĩà¤Ī à¤¬
ĠB ar
ap e
Ġ14 2
Ġà¥Ń à¥¦à¥¦
ĠF ound
Ġal i
Ġnot e
com m
Q L
Ġà¤Ĩ à¤ĵ
Ġà¤ĩ à¤¦
à¤ĩ à¤¤à¤°
er ing
Ġs ide
al th
Ġc at
à¥Ń à¥©
Ġh er
à¤ĳ à¤²
Ġà¥¯à¥ ©
à¤ĭ à¤£
Ġà¤ªà¤°à¤µà¤° à¤¦
Ġdet ails
Ġsever al
P C
à¤¨ à¤¥
Ġà¤² à¤Ł
à¤¤à¤° à¤µ
à¤¯à¤¤ à¤®
à¤Ĺà¤² à¤ªà¤¨
le y
Ġn ecess
à¤ıà¤¸ à¤µ
Ġà¤ĺà¤° à¤ĺ
à¤®à¤¸ à¤²à¤¨
Ġ15 5
Ġ12 9
Ġ16 00
Ġà¥¬ à¥©
à¤ĳ à¤Ł
Ġwh ile
Ġà¤ĺà¤Ł à¤ķà¤°
Ġà¥¦ à¥¬
ĠIn c
Ġrel ated
Ġgener al
phab et
G E
à¤§ à¤¯
Ġà¤ı à¤¯à¤°à¤ķ
Ġà¤ħà¤¨ à¤®
à¤ł à¤¸
Ġà¤ħà¤® à¤°à¤ķ
Ġp H
Ġ18 50
Ġà¤ľà¤® à¤ķà¤°
ĠW h
ap s
à¤ıà¤¨ à¤ıà¤²
à¦ ¯
Ġ188 3
Ø§ ÙĦ
Ġà¥§à¥¯à¥¨ à¥«
Ġ186 1
à° ¾
Ġstr uct
ci ent
F ile
N T
k a
à¤¯ à¤«à¤²
Ġà¤µ à¤°à¤£
à¤¡ à¤®à¤°
à¤§ à¤¬
à¤ļ à¤¶
à¤ĩ à¤£
Ġà¤ħà¤¨ à¤§
à¤ĵ à¤ıà¤²
Ġà¤§ à¤°à¤¨
Ġà¤ĳ à¤ķà¤²
Ġà¤ĳ à¤Ĺà¤¸
al es
Ġc itation
à¤µà¤² à¤®
en n
is c
Ġà¤®à¤¨ à¤¨
ĠA pp
ĠB BC
Ġ14 6
ĠR eg
Ġr ender
Ġà¥¬ à¥¬
197 8
Ġà¥§à¥¯à¥© à¥¨
Ø§ Ø±
à¥¨à¥¦à¥¦à¥ ¯
Ġ186 7
Ġà¥§à¥¦à¥ ®
M T
i us
m ain
p e
Ø ²
Ġà¤ķ à¤¨à¤ķ
Ġà¤Ĩ à¤ĩà¤¨
Ġà¤¥ à¤®
à¤°à¤® à¤¦
à¥® à¥¯
ac y
Ġv ol
Ġ24 0
à¤ıà¤ļ à¤¸
Ġex per
Ġà¥§à¥¨ à¥¦
198 1
ĠIn ter
Ġpr on
à¥¨à¥¦à¥¦à¥ ª
Ġbl ack
Ġag ain
Ġconf ig
Ġcoordin ates
g er
l or
Ã ¶
Ġà¤² à¤²à¤ķ
Ġà¤ªà¤° à¤ª
à¤ĵ à¤ľ
Ġt ake
Ġà¤ĵ à¤«
Ġc ustom
is ation
Ġp at
Ġo ld
Ġà¤Ŀ à¤°
Ġà¤ħà¤¬ à¤¤à¤ķ
à¥ª à¥©
ĠF A
à¤ıà¤¨ à¤¬
av a
Ġex amples
Ġà¥§à¥¯à¥¨ à¥Ń
Ġà¥§à¥¯à¥¨ à¥©
Ġà¤¶à¤¹ à¤ľ
aj or
à¤ľà¤Ń à¤µà¤¨
Ġbl ank
Ġï ¿
É ª
Ġà¤ľ à¤¸à¤µ
Ġà¤¨ à¤°à¤Ńà¤ķ
Ġà¤¬ à¤¶
Ġs erv
19 45
à¤ľà¤° à¤¬
à¤ķà¤Ł à¤¸
Ġà¤¨à¤µ à¤Ĺ
à¥« à¥¨
om an
ĠR FID
ers t
Ġ25 00
à¤°à¤Ĺ à¤®à¤¨
ft ware
Ġnew s
Ġarg uments
B y
S I
d ro
× Ļ
à¤¨ à¤ªà¤¤
à¤ļ à¤¦
Ġà¤ļ à¤Łà¤¨
Ġs omet
ĠS C
ĠI T
Ġà¤ıà¤® à¤¡
ĠN T
à¤¨à¤¹ à¤Ł
Ġim ple
Ġen ergy
Ġà¤· à¤Ł
Ġ187 6
Ġà¤¸à¤Ĺ à¤°à¤®
Ġdele tion
Ġcopy right
g en
Ä «
Ø ¬
à¤ķ à¤°à¤¤
à¤µ à¤¥à¤¨
Ġà¤ª à¤ŀ
à¥Ī à¥Ī
à¤¦ à¤°à¤¸
Ġà¤Ń à¤°à¤£
Ġà¤ħà¤¨ à¤Ń
à¤ķà¤² à¤ķ
Ġw rap
ĠP al
à¥Ń à¥¯
à¤¹à¤¨ à¤Ĺà¤°
ĠD o
ĠD iv
ap ter
Ġre le
Ġhe ight
Ġà¥§à¥¯à¥¨ à¥¨
à® ¾
Ġint ended
Ġà¤§à¤°à¤® à¤ľà¤¯à¤Ĺà¤¢
à¤¯ à¤µà¤¨
Ġà¤Ń à¤°à¤®
à¤« à¤°à¤¨à¤Ĺà¤°
à¤Łà¤° à¤¡
Ġs ince
Ġà¤¸à¤¦ à¤®
Ġa ction
Ġm ode
ĠM on
ĠA N
Ġà¤¸à¤®à¤Ŀ à¤¦
à¤Ĩà¤° à¤ıà¤²
à¤ıà¤® à¤¡à¤¬
Ġà¥® à¥ª
Ġà¥§à¥¯à¥ª à¥©
Ġà¥§à¥¯à¥ª à¥ª
Ġen c
Ġval id
Ġneed s
Ġev en
wik imedia
f ace
à ·
à¤¡ à¤ľ
à¤¥ à¤°à¤¸
à¤« à¤®
Ġs w
Ġà¤¸à¤¹ à¤µ
Ġc rit
ĠT emplate
Ġd em
Ġh tml
ĠD ev
ĠE l
Ġ14 7
ak ist
Ġà¤ıà¤« à¤ıà¤®
Ġ186 5
S c
h am
à¤ķ à¤Łà¤¨
Ġà¤ľ à¤²à¤ķ
à¤ľ à¤¯à¤¸
Ġà¤ķà¤° à¤¦
Ġà¤īà¤¨ à¤¹
an th
à¤ªà¤¤ à¤µ
Ġb row
Ġd ay
ĠP re
Ġà¤¬à¤° à¤¬
à¥« à¥®
ĠW eb
Ġ14 3
ĠF O
Ġare a
ain s
196 6
Ġ187 3
à¥¨à¥¦à¥¦à¥ Ń
à¤Ĩà¤Īà¤ıà¤¸ à¤ĵ
Ġchang es
G P
Ã ¼
à¤ı à¤ıà¤«
à¤ħ à¤°à¤µ
Ġà¤īà¤ª à¤ĸ
Ġà¤¬à¤¹ à¤²
at ors
ĠA c
à¤¯à¤ª à¤¦
os is
op hy
H e
L E
w ise
Ð ´
Ġà¤¶ à¤®à¤¨
Ġs ort
Ġà¤°à¤ĸ à¤µ
Ġà¤īà¤¦ à¤ĺ
à¤®à¤¤ à¤¦
à¤£à¤¨ à¤«à¤²
ĠM ac
ĠA B
om b
ĠU RL
à¤Ĺà¤µ à¤¶
à¦ ¤
Ġnot ice
Ġcom b
fer ence
Ġi de
Ġ187 1
S S
o lution
v ant
Ñ ĥ
ð Ł
à¤ ©
à¤ª à¤µà¤¨
à¤¡ à¤µà¤°
Ġà¤ı à¤®à¤°
à¤ħ à¤ł
Ġo cc
ĠB i
ĠB as
Ġbe l
Ġ11 3
ab ility
end ing
tern ative
à¤ıà¤¸à¤ı à¤²à¤µ
Ġem pty
O ther
T E
k y
Ù Ĥ
à¤° à¤Ĺà¤®
à¤¤ à¤ķà¤²
à¤ĸ à¤®à¤°
à¤ĵ à¤ıà¤¸
Ġà¤ħà¤ķ à¤¸à¤°
Ġw he
Ġ15 1
à¥¬ à¥¨
ra ft
Ġà¥§à¥¯ à¥¦à¥¦
à¥¨à¥¦à¥§à¥ ¨
Ġrem ove
Ġà¤ħà¤ľà¤¨ à¤¬
ĠFound ation
m on
à¤ª à¤¤à¤°
à¤ľ à¤Ĺà¤¢
Ġà¤¨ à¤¯à¤¨
à¤°à¤£ à¤¯à¤¨
Ġà¤Ł à¤¹à¤¨
à¤Łà¤° à¤¶
re qu
ĠP ol
à¥« à¥©
à¥Ń à¥§
Ġà¥¦ à¥Ń
Ġà¥¦ à¥¯
ord s
Ġcont in
Ġà¤į à¤¨
Ġsy mb
ert ain
Ġyear s
Ġdist rict
G B
d i
g y
s et
u j
Å į
à¤® à¤¸à¤®
Ġà¤ħ à¤¦à¤°
Ġà¤Ĩ à¤²à¤¸
à¤¸à¤ķ à¤¤
à¤ħ à¤ľà¤¯
Ġà¤Ĳ à¤Ł
à¥« à¥§
Ġà¤Ĩà¤Ī à¤Ĩà¤Īà¤Ł
à¤°à¤ľ à¤¹
Ġ14 9
Ġ14 00
Ġsu ccess
196 4
Ġà¥§à¥¯à¥ª à¥§
ard s
à¥¨à¥¦à¥§à¥ ©
Ġ187 8
Ġstr ong
Ġpo ly
cy c
read y
Ġver tical
o ff
Ø ´
à¤¯ à¤·
Ġà¤ľ à¤łà¤°
Ġà¤Ĩ à¤ĩà¤µ
à¤Ľ à¤¦
Ġà¤ľà¤¨ à¤¹
Ġp ub
Ġà¤¸à¤¤ à¤²
Ġà¥« à¥¯
à¥¬ à¥©
à¥¬ à¥¯
ĠN a
Ġis s
Ġus age
ak sh
og en
Ġcon d
197 6
Ġgo od
Ġle g
Ġà¥§à¥¯à¥¨ à¥ª
ĠUS A
br id
Ġcomple x
Ġvi ew
P r
S ome
V I
W ikipedia
h al
i que
Ġà¤ħ à¤°à¤ķ
Ġà¤ħ à¤ĸà¤°
à¤¬ à¤¬
à¤§ à¤µà¤¨
à¤¥ à¤¦
Ġà¤ªà¤° à¤¬
à¤« à¤¹à¤®
à¤¤à¤° à¤ªà¤¶
Ġà¤ĸ à¤°à¤¸
Ġf our
it is
Ġa ir
ĠS o
ĠC ategory
Ġan g
Ġsp eed
ĠR am
Ġà¤ıà¤ļ à¤¬
Ġform att
Ġâ ĸ
Ġle tt
Ġ186 3
Ġprov ide
Ġprovid ed
Ġcharact ers
D N
à¤¤ à¤µà¤¨
à¤² à¤¯à¤®
Ġà¤Ĩ à¤¸à¤ķ
à¤Ī à¤ıà¤¸
à¤Ī à¤ħà¤¡
Ġà¤ħà¤² à¤®
Ġà¤ľà¤² à¤Ĺ
à¤¨à¤µ à¤¶
à¤Ĭ à¤¸
un ci
ĠW HO
el lo
Ġ187 5
Ġ185 9
ci ence
Ġind ivid
Ġtransl ate
Ġvand alism
m et
Ġà¤® à¤¨à¤ķ
à¤ı à¤ıà¤²
à¤¹à¤° à¤¬
er ia
à¤®à¤ķ à¤¹
ac le
Ġsu p
ec ial
Ġà¥¦ à¥®
ast e
Ġ187 7
Ġà¦ ¬
etw ork
Ġsem i
C P
E FA
f ig
t il
Ġà¤Ĩ à¤°à¤¸
Ġà¤Ĩ à¤¡à¤µ
à¤ĩ à¤ªà¤²
Ġc odes
Ġd own
Ġd uring
Ġà¤ł à¤ª
à¤µà¤¯ à¤µ
ik a
ro s
ace ae
Ġà¥§à¥¯à¥© à¥©
Ø§ Ùħ
ens ion
Ġele ment
i ous
à¤¿ à¤¾
à¤ķ à¤Łà¤°
à¤² à¤¶à¤¨
à¤² à¤µà¤¨
Ġà¤Ĺ à¤¦à¤°
Ġà¤« à¤Łà¤¨
à¤Łà¤° à¤¬
an ch
à¤ĺ à¤²à¤¨
ic y
ĠD ep
Ġà¤ĸà¤° à¤ªà¤¤à¤µ
à¤ıà¤¨ à¤ıà¤¨
à¤ĳ à¤¨à¤²
ak en
ĠCh ar
ob ile
à¥¨à¥¦à¥¦à¥ «
Ġ185 6
Ġà¥§à¥¯à¥§à¥ ®
ater ial
Ġvar ia
Ġwik it
Ġdirect ly
Ġlett ers
h tml
Ġà¤ ³
à¤Ĥ à¤Ĥ
à¤¨ à¤Ĺà¤²
à¤¸ à¤¹à¤¸
Ġà¤¸ à¤°à¤£
Ġà¤® à¤Ĭ
à¤µ à¤ĸ
à¤¡ à¤¦
à¤ļ à¤°à¤ķ
à¤°à¤¤ à¤¨
in n
ĠS ec
Ġà¤īà¤® à¤¡
pl ied
ĠE m
à¤¨à¤¦ à¤£
Ġà¤ıà¤ļ à¤ª
Ġà¤ıà¤ļ à¤Ł
ill i
Ġâ ī
Ġcol l
Ġtag s
Ġrefer ences
I M
R O
e ction
à¤¸ à¤ł
à¤¹ à¤¸à¤¨
à¤¦ à¤ļ
Ġà¤¨ à¤¸à¤²
Ġà¤° à¤¸à¤¦
Ġà¤° à¤¤à¤²
à¤£ à¤¶
Ġà¤Ł à¤¸
à¤°à¤® à¤ľ
à¤ł à¤¤à¤®
à¤¸à¤° à¤¶
in ite
à¤µà¤¨ à¤Ĺà¤°
at ur
ar ed
Ġm m
Ġm ed
ĠM ed
ĠS ing
Ġà¤¸à¤¨ à¤¸à¤¨
lo se
ĠG N
Ġal ready
Ġas k
Ġfollow s
Ġapp ro
Ġev ent
Ġfil es
Ġloc ation
U S
a id
s on
w a
x x
Ġ enter
Ġà¤¦ à¤§
à¤Ĩ à¤łà¤µ
à¤°à¤® à¤¯
à¤ĺ à¤¦
à¤ĺ à¤¨à¤¤
Ġthe ory
Ġm ot
Ġm ass
à¤ħà¤¨ à¤¨
Ġh yp
Ġ15 6
à¤®à¤¦ à¤Ĺ
ap ur
Ġ13 9
os s
ĠR ed
ad ata
overn ment
Ġnecess ary
P l
o ic
t ions
v an
× ķ
à ¶
Ġ ÙĨ
à¤¾ à¥ĩà¤Ĥ
à¤¯ à¤²à¤¯
Ġà¤¸ à¤°à¤µ
Ġà¤ľ à¤¯à¤°
Ġà¤ħ à¤®à¤¨
à¤Ł à¤²à¤ķ
à¤ľ à¤Ĺà¤¨
à¤¶ à¤ļ
Ġà¤ı à¤¨à¤µ
Ġà¤« à¤£
à¤¤à¤° à¤²
Ġà¤¸à¤¬ à¤²
ĠC P
ĠA f
ĠI Q
Ġà¤ıà¤¸ à¤ıà¤®à¤ıà¤¸
ur ther
Ġal ways
Ġà¥¦ à¥§
195 1
à® °
Ġwik ilink
Ġproper ty
C h
à¤ķ à¤¸à¤¨
à¤¸ à¤¥
à¤¸ à¤¦à¤¨
à¤ı à¤Ĩà¤Ī
Ġà¤ħà¤® à¤°à¤¨
à¤ĩà¤Ł à¤µ
ĠS al
Ġof ten
ĠG P
ir on
Ġà¥¬ à¥¨
if ier
Ġà¤ªà¤² à¤Łà¤¨
196 3
Ġcont rol
ĠBM W
Ġsymb ol
M icro
k e
Ġ ut
à¤¯ à¤ªà¤°
Ġà¤¨ à¤ª
Ġà¤¬ à¤²à¤¬
Ġà¤¡ à¤¨
Ġà¤ķà¤¹ à¤²à¤Ĺ
Ġà¤ľà¤¨ à¤ª
à¤°à¤¹ à¤¸à¤¨
à¤¯à¤° à¤ļà¤¨
Ġd one
Ġo mit
Ġ18 30
Ġ18 40
ĠC ap
ĠA ir
ĠI f
Ġl arge
Ġ17 5
ĠE C
Ġus ually
Ġr adi
Ġsu per
Ġà ¸
Ġà¥§à¥¯à¥¨ à¥¬
tern et
Ġà¤°à¤£ à¤¬
Ġ186 8
Ġ185 4
Ġà¥§à¥¯à¥§à¥ Ń
à¨ ¾
âĢĮ âĢĮ
Ġmet a
Ġimport ant
I P
h av
Ì ģ
Ð ¹
Ġà¤ª à¤ķà¤¨
à¤¹ à¤«
à¤Ł à¤ļ
à¤¡ à¤¯à¤¨
à¤ķà¤° à¤¦
à¤Ĺà¤¤ à¤¤
Ġs he
Ġà¤ĩà¤¨ à¤µ
Ġà¤Ĩà¤° à¤ª
Ġb et
à¤ªà¤ķ à¤¨
Ġ18 18
ĠC he
à¥« à¥ª
Ġà¤ķà¤ª à¤Ł
Ġà¤Ĩà¤Ī à¤µ
Ġà¤¢ à¤¹
Ġ15 9
Ġth ink
à¤ħà¤Ń à¤¯
ect or
Ġ187 9
ĠInd ic
Ġà¤Ĩà¤ĩ à¤ķà¤¨
Ġà¤īà¤Ńà¤¯ à¤ļà¤°
Ġrepr esent
F S
G A
f d
p end
Ġà¤ħ à¤ĸà¤£
Ġà¤ħà¤¨ à¤ª
à¤°à¤£ à¤¯
à¤Ĩ à¤Ł
à¤Ľ à¤Ł
à¤ªà¤° à¤¶
or ph
Ġc over
Ġm uch
ĠS ur
Ġ6 000
ĠR h
if f
à¥¨à¥¦à¥§à¥ «
à§ Ģ
Ġsim ple
Ġpartic ular
C ont
L ist
à¤¿ à¥į
à¤ķ à¤ķà¤²
Ġà¤ª à¤¦à¤¨
à¤¦ à¤°à¤®
à¤£ à¤Ń
Ġà¤Ĩ à¤¹à¤¤
à¤Ĩ à¤¡
à¤ªà¤° à¤«
Ġt it
Ġà¤ĵ à¤¤à¤ª
Ġà¤ħà¤ª à¤°à¤¦à¤¨
am o
à¤¨à¤µ à¤Ĺ
Ġ15 4
ĠE ur
im ate
Ġ28 0
Ġun n
ound s
Ġ186 6
Ġlist s
à° ²
Ġà¥§à¥¯à¥§à¥ §
erm an
ĠPers istent
sy ch
Ú ¯
Ġà¤ķ à¤Łà¤¨
Ġà¤¨ à¤¥
Ġà¤« à¤°à¤¹
in ess
19 46
à¤Ĩà¤Ī à¤ıà¤®
Ġà¤ľà¤Ĺ à¤ľ
il it
iv ity
ĠR ev
à¦ ķ
196 1
à° ¿
Ġà¥§à¥¦à¥ ¨
ÙĪ Ø±
Ġprodu ct
c ul
l ished
p ly
à¤¤ à¤²à¤¨
à¤ķ à¤§
Ġà¤® à¤ķà¤¡
à¤¡ à¤Ī
Ġà¤Ł à¤ļ
Ġà¤Ł à¤¨à¤ķà¤ª
à¤Ľ à¤ª
à¤¯à¤® à¤²
à¤Ńà¤Ĺ à¤µà¤¤
ĠP akist
Ġ15 2
ur ation
Ġe p
Ġg reen
ac eb
im um
ph p
195 4
Ġmet adata
Ġte am
b b
Ġ Ä
à¤ķ à¤·
Ġà¤Ĺ à¤¶
Ġà¤Ĩ à¤ĩà¤°
Ġt akes
in i
at ures
à¤ķà¤² à¤ķà¤¤
le ge
Ġ18 15
à¤¹à¤°à¤£ à¤¸
ĠD es
Ġ16 5
Ġsu gg
Ġà¥¦ à¥ª
ee p
Ġj o
ann er
à¥§à¥¯à¥® à¥¦
Ġexist ing
Ġvari ous
Ġorig inal
c fg
n ess
v a
à¤² à¤Łà¤¨
à¤¹ à¤°à¤¦
à¤ª à¤ł
à¤ľ à¤¯à¤¦
Ġà¤« à¤¸
à¤ľà¤¨ à¤¶
Ġà¤ľà¤¬ à¤¤à¤ķ
à¤µà¤² à¤°
Ġf inal
Ġm emb
à¥® à¥§
ig u
Ġà¤ļà¤° à¤ĸ
Ġre ason
um p
Ġà¥® à¥§
Ġweb s
Ġme an
Ġneed ed
oun c
Ġel se
m er
à Ń
Ġ __
Ġà¤ħ à¤¦à¤¨
à¤¡ à¤°à¤®
à¤ı à¤¦
Ġà¤¡ à¤¸
Ġà¥§à¥¯à¥ §à¥¦
ĠS w
à¤ķà¤¤ à¤µà¤°
om ic
à¤¹à¤°à¤£ à¤¤
à¥ª à¥§
ĠG ener
Ġre al
à¤ıà¤¨ à¤¡
Ġr ange
ĠV II
Ġà¤Ĺà¤²à¤¤ à¤«à¤¹à¤®
Ġà¥§à¥¯à¥§à¥ ¨
ix ed
à¯ ģ
ward s
R NA
c all
n ote
r en
á ¹
à¤¯ à¤ľà¤¨
à¤² à¤ļà¤°
à¤ª à¤²à¤°
Ġà¤ħ à¤¯à¤¨
à¤¬ à¤¯
à¤ļ à¤Ń
à¤Ń à¤Ĺà¤¤
à¤°à¤® à¤¤
Ġà¤Ľ à¤®
à¤²à¤ķ à¤®
à¤¡à¤° à¤°
ĠS he
Ġ18 20
à¤²à¤µ à¤ķ
Ġan t
Ġà¤ıà¤¸ à¤¡
Ġà¤¤à¤¬ à¤ķ
à¤µà¤ķ à¤ª
ĠF DA
ill age
ĠØ ¬
ĠSt ates
Ġà¥§à¥¯à¥§à¥ «
Ġà¤į à¤«
ĠUS B
Ġ180 3
ĠRes earch
L AN
o ch
Ĺ ı
à¤¤ à¤¬à¤²
Ġà¤ľ à¤«à¤°
Ġà¤µ à¤£
Ġà¤ıà¤ķ à¤µà¤ļà¤¨
à¤ĩ à¤¹
à¤ªà¤° à¤ľ
Ġà¤Ĳ à¤¬
à¤¡à¤² à¤®
Ġf lo
Ġf air
Ġb est
Ġd u
re g
Ġ9 28
Ġà¤ıà¤¸ à¤ı
à¤Ĩà¤Ī à¤Ĩà¤°
Ġà¤īà¤® à¤¯
Ġar ound
Ġà¥Ń à¥¬
Ġst ud
ist ic
av ing
and s
Ġex ternal
Ġà¥¦ à¥¦
ect ive
Ġsy ntax
rap h
Ġinclu des
ĠCor por
T itle
à¤¬ à¤ķà¤°
à¤¬ à¤°à¤¸
Ġà¤¯ à¤¶à¤¸
Ġ3 20
Ġf l
Ġà¤ħà¤ª à¤ĺà¤Ł
Ġà¤¤à¤¹ à¤ĸ
à¤¨à¤° à¤²
ĠS D
Ġn eg
Ġà¤ł à¤Ĺ
Ġà¥« à¥¦à¥¦à¥¦
ĠG roup
à¤ıà¤¨ à¤ª
Ġà¥¦ à¥©
Ġ186 9
vi ous
ĠCE O
cyc lop
F rom
I m
M C
M P
a im
Ġà¤ İ
à¤¾ âĢį
à¤ķ à¤Łà¤ķ
Ġà¤® à¤Ŀ
Ġà¤ħ à¤°à¤£
Ġà¤ħ à¤Łà¤ķ
à¤§ à¤Ĺ
Ġà¤ľà¤¨ à¤¸à¤®
Ġà¤¸à¤¬ à¤®
Ġà¤īà¤¦ à¤¯à¤¨
Ġf ew
it or
à¤¬à¤¨ à¤¡
à¤·à¤¤ à¤¯
ĠD ec
Ġà¤ıà¤¨ à¤ª
Ġ11 00
Ġà¥Ń à¥©
th an
end ar
ra de
our s
195 8
ĠAr ch
Ġwork s
ĠÏ Ģ
Ġoff icial
Ġpartic ip
ĠMS N
r r
Ï Ħ
Ġà¤¹ à¤°à¤ķ
Ġà¤¬ à¤¬à¤²
à¤§ à¤¦
Ġà¤ĩ à¤®à¤²
à¤ħ à¤µà¤ķ
Ġà¤§ à¤¨à¤µ
à¤µà¤¨ à¤¨
à¤®à¤ķ à¤²
Ġs ch
it ions
à¤ķà¤¨ à¤¸
ĠS outh
Ġan al
Ġà¤ħà¤¦ à¤²
ĠR ep
Ġà¤ħà¤¶ à¤°à¤«
Ġà¥® à¥¨
ĠO n
ak h
à¥¨à¥¦à¥§à¥ ¬
à¤īà¤ª à¤ķà¤°à¤£
Ġà¥§à¥¯à¥§à¥ ª
Ġphy s
Ġsand box
C on
p re
à¥ĩ à¥ĩà¤Ĥ
Ġà¤¹ à¤¨à¤¨
Ġà¤² à¤¹à¤¸
à¤Ĩ à¤ĩà¤µ
à¤µà¤¨ à¤°
à¤¦à¤° à¤Ń
Ġb ody
Ġp ag
Ġ5 50
Ġà¤ĵà¤° à¤Ľ
Ġd er
Ġd ou
Ġn il
Ġà¤¸à¤¨ à¤¹
ĠA t
à¤¥à¤¨ à¤Ĺà¤°
ĠE D
Ġà¥Ń à¥Ń
ad r
Ġà¥¬ à¥Ń
ĠØ ¯
Ġà¤Ĩà¤īà¤Ł à¤¡
Ġpr im
à¥§à¥¯à¥¬ à¥¦
Ġcomple te
Ġtab les
W A
u pp
à¤Ł à¤²à¤¨
Ġà¤ĸ à¤¸à¤°
à¤ķà¤° à¤µ
Ġà¤Ł à¤ķà¤¸
à¤¸à¤° à¤Ĺ
Ġà¤ħà¤² à¤ķà¤¨
à¤¸à¤¨ à¤µ
Ġ6 50
à¤°à¤ļ à¤°
ĠL ong
à¤ıà¤² à¤ľ
ist ics
Ġ26 4
Ġpl an
Ġ185 5
Ġmat ch
I nd
I TS
i qu
Ġ ê
à¥ £
à¤¹ à¤ļà¤°
Ġà¤° à¤®à¤ľ
à¤¡ à¤°à¤µ
à¤ªà¤¨ à¤¦
à¤ī à¤¡à¤¸
Ġà¤®à¤¹ à¤¨
Ġà¤īà¤ª à¤µà¤°
Ġà¤Ĩà¤° à¤¬
Ġà¤ªà¤¦ à¤¸
à¤Ĺà¤² à¤®
ĠS ub
Ġn ear
Ġn uc
Ġ8 88
ent ly
Ġl ater
ĠW e
ĠR iver
à¤¨à¤¦ à¤¯
ist r
à¦ ¼
ri p
Ġwh ite
Ġim m
à¤īà¤ª à¤Ĺ
à° °
yn ast
Ġmark up
Ġdele ted
idd en
b oard
d own
Ð ¼
à¤ª à¤Ń
Ġà¤¨ à¤®à¤¨
Ġà¤¦ à¤°à¤ķ
Ġà¤° à¤¬à¤¡
Ġà¤¶ à¤¯à¤¨
à¤« à¤ķ
à¤ĵ o
à¤¶à¤¨ à¤Ĺ
Ġà¤Ľ à¤ªà¤°
at us
Ġà¤¸à¤¹ à¤Ĺà¤²
Ġà¤ħà¤® à¤°à¤¤
Ġà¤ķà¤² à¤ļ
à¤Ŀ à¤¤
Ġà¤Ĭ à¤Ł
re m
ĠS oci
Ġn one
à¥¨ à¥¦à¥¦
ĠC N
Ġà¤ł à¤ķ
us e
Ġ15 8
ĠL in
ab ad
Ġà¥¬ à¥®
ill a
à¤Ńà¤µà¤¤ à¤¯
âĢį à¤¿
Ġà¤¨à¤ľà¤° à¤ħ
Ġà¥§à¥¯à¥¦à¥ «
Ġprodu ces
Ġins ert
ĠØ¨ ÙĨ
N o
s k
à¤¤ à¤ľà¤¨
à¤® à¤¸à¤°
à¤Ĺ à¤¨à¤²
Ġà¤¬ à¤ª
Ġà¤¬ à¤Łà¤²à¤°
à¤°à¤ķ à¤ª
à¤Ĩ à¤¸à¤ª
Ġb ase
Ġin it
19 36
19 39
Ġm edia
Ġm aterial
ĠS m
ĠC r
ĠD el
ĠB al
Ġg reat
ĠR FC
ain ing
ok e
Ġ187 4
Ġme as
Ġà¥§à¥§à¥ «
Ġà¥§à¥¯à¥¦à¥ Ń
Ġlo ad
à¥Ĭ à¤Ĥ
Ġav oid
à± ģ
Ġprovid es
Ġsepar ate
Ġur l
TI ON
Ġeng ine
Ġquest ions
S L
c ut
g ov
n one
r ish
w ork
Ù ĥ
à¤¤ à¤¤à¤®
à¤µ à¤«
à¤¡ à¤¡
Ġà¤Ĺ à¤ľà¤²
Ġà¤Ĩ à¤ĩà¤ª
Ġà¤ĺ à¤¸
Ġà¤Ľ à¤ªà¤¨
or ed
en a
ic ode
19 49
à¤Łà¤² à¤®
ĠA BC
à¤°à¤ľ à¤®à¤²
et h
Ġà¤Ĩà¤¸ à¤«
Ġ15 7
à¥§ à¥¦à¥¦
Ġ16 1
ol a
os ph
ĠR ec
Ġà ª
ult ure
à¥§à¥¯à¥¯à¥ §
Ġac id
ole c
Ġtransl ation
Ġcurrent ly
r d
Ġ emb
Ġà¤ħ à¤ªà¤¤
à¥ĭà¤Ĥ à¤Ĥ
à¤ħ à¤¸à¤¤
à¤Łà¤° à¤¹
Ġt aken
Ġà¤ħà¤² à¤¬
à¤ĺ à¤¨à¤¨
Ġà¤¸à¤¬ à¤µ
at ab
ĠM ay
Ġà¤ľà¤² à¤¸à¤¨
Ġà¤ľà¤² à¤¡à¤®à¤°
Ġ18 35
as k
as ed
à¤ıà¤¸ à¤ľ
Ġl ess
ĠU M
ĠU EFA
à¤ķà¤ª à¤¡
il ing
Ġ16 6
ĠH el
ĠK ar
Ġà¤ıà¤¯à¤° à¤«
Ġà¤ĩà¤° à¤«
ĠØ Ń
ip p
Ġim p
Ġcateg or
à¥§à¥¯à¥ª à¥Ń
orth y
Ġwikit ext
E d
W ith
a ul
m i
n i
Ġ Å
à¤µ à¤¬à¤¨
à¤Ĺ à¤ľà¤¨à¤ķ
à¤ľ à¤µà¤²
à¤¬ à¤°à¤ķ
à¤¤à¤° à¤¹
à¤Ĩ à¤¨à¤¨
à¤ľà¤¨ à¤®
Ġà¤Ĳ à¤¤à¤°
Ġà¤ħà¤ķ à¤¸
19 42
Ġm ax
Ġh al
à¥ª à¥¯
Ġth ough
ĠB E
Ġ16 4
Ġà¤ħà¤¦ à¤°à¤ķ
Ġr est
Ġex cept
ind ust
ĠAmeric an
I L
U C
y e
Ú º
Ú ¾
Ġ es
à¤¨ à¤¤à¤°
Ġà¤¹ à¤°à¤£
Ġà¤¬ à¤°à¤ķ
Ġà¤¬ à¤¦à¤°
à¤¬ à¤¤à¤ª
à¤ı à¤¨à¤°
à¤ĸ à¤°à¤¨
Ġà¤ªà¤¹ à¤¨à¤ķà¤°
it a
Ġd l
Ġo p
ĠP H
ot s
à¤¥à¤² à¤¹à¤®
un c
il le
ĠN Y
à¤īà¤¦ à¤¹
el come
Ġr ather
ab ly
Ġà¤¸à¤ľ à¤Ĺ
ĠØ ±
Ġcom put
Ġch art
Ġ185 1
Ġfe el
Ġinc re
Ġà¤ıà¤Łà¤² à¤¸
N OT
v es
à¤ķ à¤¨à¤ķ
à¤ķ à¤¬à¤¸
à¤¯ à¤¸à¤²
à¤¹ à¤ļ
Ġà¤¨ à¤¡
à¤¥ à¤ķà¤°
Ġà¤¶ à¤°à¤¤
Ġà¤ıà¤ķ à¤¤à¤°à¤«
à¤ħ à¤Łà¤²
Ġà¤Ī à¤¨
Ġp ublic
à¤ĩà¤Ł à¤¹
Ġm ajor
ĠS ant
am ent
à¤ıà¤¸ à¤ıà¤²
Ġà¤¬à¤¦ à¤®
id ge
Ġg ive
ol l
Ġre port
ĠF FD
Ġv ia
Ġpar ms
Ġcon ver
ans k
Ġj pg
Ġà¥§à¥§à¥ Ń
ys is
Ġword s
F orm
R T
o e
à¤® à¤²à¤ķ
Ġà¤® à¤¢
à¤Ĺ à¤²à¤¤
Ġà¤¨ à¤Łà¤°
Ġt ri
Ġà¤ĵ à¤¤
à¤ķà¤² à¤°
Ġ3 30
à¤¡à¤² à¤¸
19 19
à¤¡à¤° à¤¬
Ġ18 17
ag ement
Ġ8 000
à¤°à¤ľ à¤®
ent ion
et t
et er
ur s
ĠW M
ĠK al
ĠÂ ´
Ġ27 0
ĠJ an
ord ing
Ġpr ess
Ġdif f
amm art
yn am
ĠComm ons
Ġhead er
los ed
Ġpass ed
enc ies
Ġindivid ual
O H
V C
b re
m ed
u f
y r
à¥ Ĵ
à¤£ à¤§
Ġà¤ī à¤¬à¤°à¤¨
Ġà¤¤ à¤ľ
à¤Ī à¤Ī
Ġà¤« à¤¤à¤µ
âĢ Ŀ
à¤¹à¤° à¤ª
à¤¦à¤° à¤ľ
à¤°à¤Ń à¤¦
Ġà¤Ĩà¤µ à¤§
à¤ĩà¤Ł à¤¸
ig ation
id ent
à¤Ĩà¤° à¤ı
à¤ľà¤² à¤ª
Ġà¤ħà¤¦ à¤Ń
ĠE P
à¤ľà¤ķ à¤®à¤²
ad d
à¤ıà¤¨ à¤¯
Ġse lection
Ġà¤ĭà¤£ à¤¦
ikip edi
à® ķ
Ġà¥¨à¥© à¥¦
Ġà¤¦à¤® à¤¨à¤ķ
ff ic
à´ ¿
Ġper form
Ġwhe ther
Ã ¨
à¥ĩ à¥į
à¤¤ à¤¶à¤°
à¤¸ à¤Ĭà¤¦
Ġà¤¨ à¤ļ
à¤¥ à¤¹
à¤« à¤¸à¤²
Ġà¤ĸ à¤¯
à¤Ĩ à¤ķà¤°
à¤µà¤¨ à¤¯
Ġs elf
Ġà¤ªà¤¤ à¤Ŀà¤¡
it ch
as a
ĠA T
Ġ8 50
Ġre t
à¤īà¤¦ à¤¯à¤ª
Ġr ad
um ar
à¤ķà¤® à¤Ĺà¤¢
Ġà¤ıà¤ļ à¤¸
Ġim pro
ib ility
Ġà¥§à¥¯à¥¦à¥ ®
arb on
ammart ino
n et
à¤ľ à¤¦à¤°à¤¬
Ġà¤¤ à¤¹à¤°
à¤¸à¤ķ à¤²
à¤°à¤¸ à¤¤
Ġà¤ĵ à¤ªà¤²
ĠâĢ ²
es e
Ġà¤Ĩà¤° à¤ıà¤¸à¤ıà¤¸
à¤īà¤¨ à¤¹
19 37
Ġà¤¹à¤° à¤¨
ĠS P
am a
am il
ĠA I
Ġà¤Ĩà¤Ī à¤ıà¤ıà¤¸
Ġh istory
Ġfor ce
ap h
ĠN C
ĠH C
à¤ıà¤¨ à¤ľ
à¤ıà¤« à¤ıà¤²
Ġà¤¹à¤¡ à¤¸à¤¨
195 3
Ġadd itional
Ġ186 4
Ġ185 3
du ction
Ġso ftware
Ġà¤Ŀà¤²à¤ķ à¤¤
Ð¸ Ñ
Ġdet erm
Ġent ries
Al so
ĠHS V
B I
E M
o on
o ad
à¤µ à¤ĺà¤°
Ġà¤Ĩ à¤·
Ġà¤ļ à¤ķà¤¤
Ġà¤ħà¤¨ à¤ķ
Ġà¤ħà¤¨ à¤²
Ġà¤¡ à¤«
à¤ħ à¤µà¤°
à¤µà¤¤ à¤¶
Ġs qu
is ing
Ġà¤ħà¤ª à¤Ĺ
Ġa x
ĠM in
ĠA L
à¤²à¤µ à¤£
ot a
à¤°à¤ľ à¤¤
iv ed
Ġà¥Ń à¥ª
ad esh
ay er
à¤°à¤Ĺ à¤£
Ġ21 0
umb er
Ġadd ition
à¥¨à¥¦à¥¦à¥ ©
Ġà¥§à¥§à¥ ª
Ad d
ynast y
V al
a ff
b s
h ol
u ary
Î »
Ġ à¥ĩ
Ġà¤® à¤°à¤µ
à¤µ à¤¯à¤ķ
Ġà¤ıà¤ķ à¤¬
Ġà¤ļ à¤¡
à¤¤à¤° à¤¸
Ġ2 18
Ġà¤®à¤¹ à¤¬
Ġà¤Ī o
is on
19 28
Ġà¤¹à¤° à¤«
Ġd om
Ġm t
Ġm agn
Ġn ull
Ġto o
à¤¦à¤® à¤¯
ĠG DP
à¤Ķ à¤ªà¤ļ
Ġà¥Ń à¥¯
ist a
Ġ26 0
ĠJ u
Ġlink ed
195 9
à² ¿
por ary
Ġelect r
Ġexist s
D R
d iv
d ay
e h
à¤¤ à¤Ĺà¤£
à¤¯ à¤¬à¤²
à¤® à¤Ńà¤¦
à¤Ĺ à¤¡à¤¨
à¤ľ à¤¸à¤¤
à¤§ à¤ķà¤¤
à¤¤à¤° à¤Ĺà¤¤
à¤ī à¤Ĺ
Ġà¥§à¥ §à¥¦
er ation
ar ia
Ġà¤ħà¤µ à¤°à¤ķ
Ġb h
Ġm us
Ġà¤Ŀ à¤£
à¤ıà¤¸ à¤ıà¤«
Ġà¤ł à¤¹à¤°à¤¤
ĠI BM
de pend
Ġà¤«à¤² à¤¦
ĠV H
Ġà¥§à¥« à¥¦à¥¦
Ġex press
Ġà µ
Ġà¤ªà¤¨ à¤ªà¤¨
ĠØ ®
ip s
195 5
Ġpre c
Ġme ans
ĠIS DN
Ġext ra
ĠCS S
ØŃ Ùħ
Ġwrit ing
Ġunn amed
ĠCorpor ation
S R
g u
m ark
à¤¦ à¤¶à¤ķ
Ġà¤Ĺ à¤Ĺ
Ġà¤Ĺ à¤Ł
Ġà¤ı à¤¤à¤®
à¤Ń à¤µà¤µ
Ġà¤ļ à¤Łà¤ķ
à¤°à¤ķ à¤®
à¤ħ à¤¥à¤°
Ġà¤ħà¤¸ à¤Ń
19 00
ĠM c
ĠS im
Ġan n
ĠG SM
ĠN AS
ĠO H
Ġpro pos
Ġà¤ķà¤ļ à¤¹à¤°
Ġits elf
à¥§à¥¯à¥« à¥¦
Ġcell s
hem at
Ġbre ak
a on
b er
Î µ
ã Ĥ
à¤¿ à¥ĩ
Ġà¤¹ à¤°à¤¸
à¤® à¤µà¤¤
à¤® à¤¬à¤¤
Ġà¤ħ à¤ľà¤°à¤¬
à¤ı à¤²à¤¨
Ġà¤ıà¤ķ à¤¨
à¤°à¤® à¤ªà¤°
à¤ĵ à¤¯
à¤µà¤¨ à¤®
or eb
en ch
Ġà¤Ĭ à¤ļ
19 21
ĠA z
Ġà¤¤à¤² à¤Ľà¤Ł
Ġ23 5
Ġà¥§à¥© à¥¦
ĠTy po
Ġun c
ack ing
Ġà¥§à¥¦à¥ «
Ġà¥§à¥¯à¥¦à¥ ª
Ġà¥§à¥¯à¥¦à¥ ¬
oci ation
Ġproject s
edic ine
wh ere
Ġremov ed
Ġsomet hing
D o
N ame
S O
S ummary
T ube
n ow
t he
Ð ±
á ĥ
à¥ ĳ
à¤ķ à¤°à¤ķ
à¤ķ à¤ĩà¤¨
à¤® à¤Ŀ
Ġà¤® à¤ª
à¤¹ à¤²à¤µ
Ġà¤¦ à¤¯à¤¨
à¤¬ à¤¶
Ġà¤ī à¤¬à¤°
Ġà¤ı à¤Ŀ
Ġà¤¶ à¤¬à¤°
Ġà¤¥ à¤²à¤Ĺ
Ġà¤ħà¤¨ à¤°
à¤°à¤£ à¤¬
à¤Ĩ à¤ªà¤¸
à¤¼à¥Ģ :
à¤ĺ à¤µà¤¨
ar m
Ġà¤¬à¤ļ à¤ķà¤°
Ġ18 45
ĠC ount
Ġà¤Ĩà¤Ī à¤²
us iness
à¤µà¤°à¤£ à¤µ
Ġ17 2
Ġ16 9
ĠN av
os h
à¤¸à¤¹ à¤¯
Ġà¤Ĩà¤ĩ à¤¡à¤²
Ġà¥§à¥¯à¥§à¥ ¬
ank s
Ġà¥§à¥¦à¥ ª
Ġà¥§à¥§à¥ ¨
Ġà¥§à¥¯à¥¦à¥ §
Ġph ot
Ġob ject
res p
AL L
ĠMedia Wiki
1 20
h at
m ouse
à¤° à¤§à¤¨
à¤ķ à¤ĸ
à¤² à¤ļà¤¨
Ġà¤¸ à¤¨à¤°
Ġà¤ª à¤¸à¤²
à¤ľ à¤§à¤°
à¤ļ à¤²à¤¤
à¤Ń à¤£
Ġà¤ıà¤ķ à¤¸à¤®
à¤ī à¤ªà¤¸
Ġà¤¸à¤¬ à¤¨
à¤¤à¤¨ à¤Ĺà¤°
it ing
Ġd ue
Ġà¤ł à¤¨
Ġà¤¨à¤µ à¤Ĺà¤ł
ot t
Ġà¤¢ à¤²à¤µ
Ġ16 8
Ġà¥Ń à¥§
à¤ıà¤¨ à¤Ĩà¤°
ĠØ ª
ĠX I
ĠX P
ĠSt ate
Ġ180 5
Ġà¥§à¥§à¥ ®
à½ ¼
Ġfe ature
Ġà¤Ńà¤Łà¤ķ à¤¤
Ġbuil ding
H ello
à¤¦ à¤µà¤°
Ġà¤ħ à¤ķà¤²
Ġà¤µ à¤¸à¤¨
à¤¶ à¤§
Ġà¤Ľ à¤ªà¤¤
à¤°à¤¹ à¤¨
Ġs l
Ġc ity
Ġà¤®à¤¨ à¤µ
Ġà¤Ĩà¤° à¤ľ
Ġf eed
Ġa ff
à¤ıà¤ķ à¤¤
ĠD is
ap t
à¤ıà¤¨ à¤Ł
th ers
Ġon mouse
Ġà¤ªà¤¨ à¤ªà¤¤
Ġà¤īà¤Ń à¤¯à¤²
Ġà¤ļà¤°à¤® à¤ª
Ġà¥§à¥¦à¥ ©
à² °
Ġgr ay
EC TION
Ġproble ms
Ġpron unci
D I
D ef
R es
W ik
r ist
Ġà¤¸ à¤µà¤°
Ġà¤¸ à¤ķà¤°
à¤Ł à¤¯à¤®
Ġà¤¥ à¤ª
à¤ħ à¤µà¤¶
Ġà¤Ľ à¤¤à¤°à¤ª
an ia
Ġà¤¸à¤¹ à¤¦
Ġd en
Ġm akes
ĠM B
as c
à¤°à¤ª à¤Ł
un t
ro ad
à¤ıà¤® à¤ľ
à¤łà¤ķ à¤¥
orm ally
ra w
Ø§ Ø¯
Ġà¥§à¥¯à¥§à¥ ©
à¤¬à¤°à¤® à¤¤
Ġap plic
ĠÙ ¾
ĠHy brid
Thank s
y g
à¤¨ à¤·à¤¦
à¤ķ à¤¬à¤°
à¤µ à¤¯à¤®
Ġà¤ħ à¤¸à¤¨
Ġà¤µ à¤¤à¤¨
à¤Ł à¤¬à¤²
à¤§ à¤ªà¤¤
à¤°à¤£ à¤¨
à¤ł à¤¯à¤ķ
à¤¯à¤ķ à¤¶
à¤¶à¤¨ à¤¸
Ġt imes
à¤®à¤¨ à¤°
Ġà¤ĵ à¤Ĺ
Ġp e
Ġm iss
ĠS A
ĠS erv
Ġ18 47
Ġà¤¸à¤¨ à¤¦
as ter
lo y
ur i
Ġl ight
Ġ17 89
ĠL at
à¤®à¤Ĺ à¤§
à¤ıà¤® à¤¬
th ough
Ġà¤ıà¤« à¤ı
Ġwh y
Ġà ¬
Ġpr es
Ġ36 5
à® ®
Ġother wise
AT A
à¥§à¥¯à¥Ń à¥¦
Ġmess ages
Ġelect ron
Ġund erst
ĠKing dom
aceb ook
oreb its
9 00
L M
c ode
à¤ķ à¤¤à¤¨
Ġà¤ª à¤¯
à¤¹ à¤¶
Ġà¤ľ à¤¦
Ġà¤° à¤ľà¤µ
Ġà¤¤ à¤®à¤¸
à¤Ń à¤ķà¤°
Ġà¤īà¤ª à¤ķà¤²
Ġà¤Ľ à¤¬
à¤¯à¤¨ à¤µ
à¤¡à¤² à¤¬à¤°
à¤§à¤¨ à¤¤
à¤²à¤ķ à¤£
Ġ18 19
ot es
Ġl arg
Ġth ird
ĠB rit
Ġ16 7
Ġ13 00
ĠE RP
Ġà¥§à¥® à¥¦
Ġà¤ķà¤¬ à¤¡
ab led
Ġcl ick
ee k
du c
à´ ¾
Ġà¥§à¥¯à¥¦à¥ ¯
ĠAr t
Ġsection s
à¥§à¥¯à¥¯à¥ ¯
Ġarch ive
Ġbook s
aksh in
Ġomit ted
ounc il
C H
D M
O P
t itle
à¤¨ à¤µà¤¨
à¤¨ à¤µà¤²
à¤ķ à¤®à¤¤
à¤¡ à¤¸à¤°
à¤Ĩ à¤ĩà¤¸
Ġà¤ķà¤°à¤¤ à¤¬
Ġà¤ľà¤¨ à¤ķà¤ª
Ġà¤Ĳ à¤¡à¤®
19 17
ĠM ult
Ġn ormal
ĠC a
Ġ7 000
à¤°à¤¬ à¤¦à¤²
Ġà¤ıà¤² à¤¡
Ġh ard
à¤¯à¤¸ à¤µ
ĠD R
ĠU r
à¤²à¤® à¤£
Ġy es
ĠV is
à¤¦à¤¶ à¤®
The y
Ġ186 2
Ġà¤«à¤¤ à¤¹
Ġacc ount
ines e
OT NOT
ĠFO OTNOT
S p
w e
Ã §
Ï Ģ
à¤° à¤¶à¤¨
à¤® à¤ļà¤ķ
à¤£ à¤¹
Ġà¤Ĺ à¤¹à¤²
à¤°à¤¤ à¤°
à¤Ĩ à¤ªà¤°
à¤°à¤® à¤ķ
à¤ªà¤° à¤µà¤°
à¤µà¤¨ à¤ļà¤°
à¤Ĺà¤¤ à¤¨
Ġà¤ĵ à¤ľà¤¸
or r
à¤°à¤µ à¤ª
Ġà¤ĩà¤¨ à¤ªà¤°
Ġf ill
Ġf urther
Ġà¤ħà¤ª à¤¦
Ġm en
ĠS a
ĠS AP
as than
ĠE U
ĠH LA
à¤ıà¤® à¤Ī
à¤°à¤Ĺ à¤Ł
ĠÂ ½
Ġsu re
Ġsh ows
Ġà¤¬à¤® à¤µà¤°
Ġà¤Ľà¤ł à¤µ
190 6
Ġbox es
Ð¾ Ð²
Ġdec imal
Ġproble m
E L
F I
H A
i ans
u it
u ck
× ¨
à¤ķ à¤®à¤¹
à¤¯ à¤ĸ
à¥ģ à¤¼
Ġà¤¬ à¤°à¤¹
Ġà¤¬ à¤Ļ
Ġà¤ī à¤¬à¤²
à¤ı à¤¥à¤²
Ġà¤ķà¤° à¤ª
à¤Ĩ à¤²à¤®
à¤°à¤¸ à¤°à¤£
ar ies
à¤Ŀ à¤²
Ġp erm
Ġà¤ħà¤¸ à¤¤à¤¤
le ment
Ġ18 24
Ġ18 43
Ġn ext
ĠA S
om a
à¤Ĩà¤Ī à¤ľ
ĠN orth
ĠE p
ut ure
à¤ıà¤« à¤¬
Ġpro f
Ġà¤ĵà¤µà¤° à¤¡
à¥¨à¥¦à¥¦à¥ ¨
Ġ180 1
Ġà¥§à¥¦à¥ Ń
áĢ º
Ġqu ant
Ġrec ogn
Ġbas ic
ĠÏ ĥ
Ġdescri b
Ġstat us
Ġstruct ure
M OS
t ype
z e
Ġ ÙĪ
à¥ ĵ
à¤¨ à¤®à¤ķ
à¤¤ à¤²à¤ķ
à¤¯ à¤Ĺà¤£
à¤² à¤ªà¤²
Ġà¤¸ à¤Ĺà¤°
Ġà¤ª à¤Łà¤µ
à¤ľ à¤¤à¤°
à¤¬ à¤«
Ġà¤¯ à¤¶à¤ª
à¤ī à¤¦à¤°
à¤¯à¤¨ à¤®
Ġà¤¬à¤¹ à¤®à¤¨
Ġà¤ıà¤µ à¤ľ
Ġà¤Ĳ à¤ļ
al d
Ġà¤īà¤¦ à¤¯à¤¸
Ġà¤Ĩà¤¯ à¤¶
à¤¡à¤° à¤µà¤°
Ġà¤ĵà¤° à¤²
ĠM Hz
Ġ18 44
Ġ18 42
ĠA ng
à¤¸à¤¤ à¤¹
ur g
Ġ16 2
Ġ16 3
ĠL aw
Ġre comm
ist ry
Ġà¥¬ à¥§
Ġà¤ĭà¤· à¤Ńà¤¦
Ġch rom
à® ©
Ġà¥§à¥¯à¥¦à¥ ©
Ġpos ition
Ġact ive
ĠOr gan
Ġins ide
Ġgroup s
Ġwr ite
Ġà¤¹à¤°à¤« à¤¨à¤®
D akshin
N D
P G
R H
m ic
o j
p rop
v iron
à¤¿ à¤ģ
à¤¤ à¤¨à¤ķ
à¤² à¤ľà¤¯
Ġà¤ľ à¤¯à¤¶
à¤¡ à¤Ĺà¤¢
Ġà¤² à¤¶
à¤Ī à¤ı
Ġà¤ļ à¤°à¤¨
à¤¯à¤° à¤¬
Ġà¤¬à¤¹ à¤ķà¤°
Ġc os
Ġà¤ħà¤µ à¤ļ
Ġf in
Ġà¤¬à¤¢ à¤¨
Ġd ire
ĠM ad
ĠS ee
Ġ18 37
Ġ18 49
Ġn omin
as tic
ĠP at
à¤¥à¤² à¤°
Ġl ic
Ġ17 99
ĠW ar
ĠG a
ac he
ĠF C
Ġà¥§à¥® à¥¦à¥¦
à¤¯à¤£ à¤ª
Ġex act
à¤µà¤¦ à¤¤
les ia
Ġdef in
à² ¾
ie f
oz oic
Ġbet ter
amo orthy
Ġwebs ite
resp ond
Dakshin amoorthy
A b
à¤¨ à¤Ńà¤¦
à¤¤ à¤¬à¤¦
à¤¦ à¤ĸ
à¤¦ à¤¸à¤µ
à¤ı à¤®à¤ķ
Ġà¤Ĩ à¤ĩà¤ķ
Ġà¤¥ à¤²à¤¸
à¤¤à¤° à¤µà¤°
à¤Ĩ à¤µà¤°
Ġt otal
à¤µà¤¨ à¤¦
à¤µà¤² à¤¦
Ġà¤ħà¤µ à¤¦
Ġb old
19 31
Ġ18 14
ĠC BS
Ġà¤¬à¤° à¤Ĺà¤¦
un n
Ġ17 07
ĠG l
ĠH P
th ing
Ġà¤ıà¤¡ à¤Ĺà¤°
ip ur
ĠSt ud
à® ¤
Ġà¥§à¥§à¥ ¬
Ġcomm ons
à¤Ńà¤°à¤¤ à¤ª
Ġup d
Ġdist ance
Ġhead ing
itt le
ĠYou Tube
Ġà¥ł à¤·
ĠDiv X
Ġtit les
Ġsugg est
ansk rit
F L
b ase
Ï ĥ
Ù Ĳ
à¤¨ à¤Ŀ
Ġà¤® à¤ľà¤²
Ġà¤¤ à¤¶
à¤ı à¤¬à¤°
Ġà¤¶ à¤«
Ġà¤ıà¤ķ à¤®à¤¤
à¤°à¤¤ à¤ķ
Ġà¤Ľ à¤ľ
Ġt urn
at ural
à¤¦à¤° à¤µ
Ġs outh
en z
Ġf requ
Ġa ur
ĠT er
19 32
Ġd c
Ġm olec
Ġo thers
ĠS ir
ĠP e
ĠI CC
il er
ĠL im
à¤ıà¤² à¤ª
os p
Ġv o
ab or
Ġà¥® à¥Ń
ill s
ans l
Ġcol our
Ġà¤ĵà¤µà¤° à¤²
Ġsub page
Ġà¤²à¤µ à¤£à¤¤
rop down
ID S
Ġfe atures
Ġpol icy
Ġgu ide
Î¿ ÏĤ
ĠCent ral
Ġtyp es
ĠTechn ology
Ġtax on
indust an
G M
l ines
r ing
s ide
v ar
v is
à¤µ à¤¤à¤°
à¤¦ à¤¹à¤¨
à¤Ł à¤ľà¤°à¤²
Ġà¤¬ à¤ł
à¤¶ à¤°à¤¦
à¤ı à¤µà¤°
Ġà¤¸à¤® à¤¦
Ġà¤« à¤ľ
à¤Ĩ à¤°à¤¤
à¤Ĩ à¤Ľ
à¤ħ à¤¥à¤µ
à¤ħ à¤ľà¤®
in ary
à¤¯à¤° à¤¡
an ces
Ġà¤ĵ à¤ĸà¤²
Ġs ources
à¤°à¤µ à¤£à¤¤
re c
re ferences
Ġ18 2
ĠD NS
ĠW ork
Ġà¤ıà¤® à¤ıà¤®
ĠN O
ĠL ib
à¤ľà¤¹ à¤¬
Ġà¤ħà¤°à¤¬ à¤ªà¤¤
Ġst ub
Ġcom ment
ĠIn f
ah ar
ĠÎ ¼
Ġarg ument
cl usion
air s
Ġsim ply
ĠIg lesia
Ġterm s
Ġä ¸
Arg s
Ġï¿ ¼
ĠPakist an
D ate
F lag
e gr
s ch
u ff
Ñ ĭ
Ġà¤¸ à¤§
Ġà¤ª à¤Ľà¤¤
à¥ģ à¥į
à¤¦ à¤§
Ġà¤ħ à¤ķà¤°
Ġà¤¬ à¤ľà¤¨
à¤¶ à¤®à¤¨
Ġà¤ªà¤° à¤ĸà¤¨
Ġà¤« à¤Łà¤ķ
à¤Ĩ à¤¦à¤®
Ġà¤Ł à¤ĸà¤¨
à¤ľà¤¨ à¤°
on etic
an de
at o
or ough
Ġà¤¸à¤° à¤«
Ġà¤ķà¤² à¤¹
Ġin her
Ġin ternational
à¤Ńà¤Ĺ à¤µà¤¦
ĠA A
ĠA cc
ĠA ug
ĠA OL
Ġà¤¨à¤µ à¤¦
us ed
id s
ĠN SA
ĠE MI
à¤ıà¤² à¤ıà¤®
ch ange
Ġà¥¬ à¥¯
à¤ħà¤ª à¤µ
ah a
Ġsub st
Ġtrans clu
à¤ªà¤¹ à¤ļ
che d
TS C
c le
h ors
k i
p ages
Ã ±
à¤µ à¤ĺ
à¤ª à¤®à¤¤
Ġà¤ħ à¤¦à¤®
Ġà¤Ķ à¤ķ
à¤Ĩ à¤¸à¤¨
à¤ĵ à¤«
à¤°à¤¹ à¤¤
à¤®à¤¨ à¤ľ
Ġà¤ħà¤ª à¤ļ
à¥¨ à¥¦à¥¦à¥¦
Ġà¤²à¤ķ à¤µ
Ġà¤ıà¤² à¤ª
Ġg en
Ġà¤ķà¤¥ à¤ķà¤²
Ġà¤ļà¤ķ à¤®
Ġ25 6
à¤ıà¤ļ à¤ª
Ġà¥§à¥¨ à¥«
ip e
Ġadd s
ide o
Ġpre fer
cri ption
ĠAr m
190 8
Ġà¤ªà¤°à¤µ à¤²à¤¯
Ġà¤®à¤¦à¤¨ à¤®
Ġcount ries
Ġdig its
Ġlow er
Ġneg ative
S o
T able
b y
i ew
j s
l in
à º
Ġ Ûģ
à¤¸ à¤ªà¤¨
à¤² à¤§
Ġà¤¸ à¤¥
à¤µ à¤¦à¤¨
Ġà¤ª à¤Łà¤ķ
à¤¦ à¤¯à¤¤
à¤¥ à¤¬
à¤ļ à¤ľà¤¨
à¤ı à¤¬à¤²
Ġà¤¯ à¤µ
Ġà¤¯ à¤®à¤°
à¤·à¤£ à¤µ
Ġs in
Ġà¤ĳ à¤²à¤°
Ġà¤ĩà¤¨ à¤°
ic tion
19 12
19 22
19 41
Ġw ind
Ġd ial
Ġ18 39
Ġn m
Ġn orth
ĠA v
ĠA ust
à¤¯à¤¦ à¤²
ag on
ly mp
à¤Ĩà¤Ī à¤Ĩà¤Īà¤Ł
lu te
ĠD ist
Ġ17 70
Ġre action
im ent
od a
Ġv illage
end s
Ġà¤ħà¤ľ à¤Ĺà¤°
Ġde g
Ġk g
à¤ıà¤ļ à¤ıà¤¸
Ġà¥§à¥¨ à¥¦à¥¦
Ġà¤ıà¤« à¤Ł
ĠJ e
ult ural
Ġen cyclop
Ġedit s
Ġres earch
Ġqu al
Ġind ia
ĠOr acle
Ġass oci
ED ITS
Ġà¤ħà¤µà¤ķà¤² à¤ľ
à¤ıà¤²à¤¬ à¤®
NO EDITS
Ġali ases
ilit ary
Ġà¤ħà¤ªà¤¤ à¤Ł
NOEDITS ECTION
c at
t op
Î º
Ġ É
à¤° à¤µà¤¨
à¤¸ à¤§
à¤¸ à¤«à¤²
à¤¦ à¤ĸà¤²
à¤ľ à¤¯à¤°
Ġà¤¨ à¤µà¤µ
Ġà¤ī à¤Ł
à¤Ń à¤®
Ġà¤ĸ à¤ļ
à¤ķà¤° à¤ĺ
à¤ķà¤² à¤®
19 14
19 38
Ġd id
Ġà¤ħà¤« à¤°
Ġsp aces
à¥¬ à¥¦à¥¦
Ġ17 1
ĠW illi
Ġe ar
ĠG al
ĠN ag
ĠF orm
ĠÂ ±
ĠÂ º
ĠV al
Ġà¤ļà¤¯à¤¨ à¤ķà¤°
Ġle ast
Ġme et
ve y
Ġcor respond
land s
Ġent ry
Ġgiv es
Ġhow ever
Ġcap ital
Ġcal cul
Ġtem per
Ġpat tern
Ġrele vant
ĠSing h
Ġdou ble
atab ase
viron ment
E F
O D
S im
T ype
t ext
u z
Ð ³
Ġ icon
à¤² à¤Ĺà¤¤
à¤¼ à¥Īà¤Ĥ
Ġà¤¤ à¤®à¤¨
à¤Ĺà¤° à¤¨
à¤ļà¤¨ à¤ľ
Ġ20 22
Ġc lose
Ġà¤īà¤¦ à¤Ĺ
Ġ3 80
ĠT w
19 34
Ġm ove
Ġo pp
Ġ18 38
Ġà¤¸à¤¤ à¤¸à¤Ī
ĠI F
un ic
ĠW hen
Ġà¤ªà¤°à¤® à¤µ
ĠL LC
ĠH B
à¤ıà¤² à¤ıà¤«
im b
ch an
Ġal phabet
Ġon ce
Ġ22 5
Ġ00 2
ign ed
Ġch o
ell a
Ġà¤·à¤¡ à¤¯
Ġdoes n
Ġsupport ed
ĠCol lege
Ġbuil t
Ġmemb ers
Ġà¤İ à¤¸
Q u
R ed
g ar
j i
à¥ĩ '
Ġà¤¸ à¤¶
Ġà¤µ à¤®à¤¨
à¤ľ à¤²à¤ķ
à¤£ à¤²
à¤Ĩ à¤¦à¤¤
Ġà¤īà¤ª à¤µà¤¨
Ġà¤īà¤ª à¤ªà¤¤
à¤Łà¤° à¤Ĺ
in f
re t
ĠS ony
ĠA PI
Ġà¤Ĩà¤Ī à¤ıà¤¸à¤ıà¤¸
Ġl ength
Ġà¥© à¥«à¥¦
ĠW ALL
Ġre ce
Ġà¤ıà¤¯à¤° à¤Ł
Ġpar ent
Ġà¤ıà¤ļ à¤Ĩà¤ĩà¤µ
Ġtr y
ĠCh inese
Ġadd ress
Ġà¤į à¤²
Ġpre vious
Ġà¥§à¥§à¥ ¯à¥
Ġrec ord
Ġ900 1
ĠGe org
ĠSu per
def inite
C D
d ata
r um
à¤¤ à¤ªà¤°
à¤ķ à¤¹à¤¨
à¤¹ à¤µà¤°
à¤ı à¤£
Ġà¤ļ à¤ĸ
à¤°à¤ķ à¤¨
er i
19 24
à¤°à¤¨ à¤Ł
ĠM at
Ġà¤ľà¤² à¤¶
Ġ18 33
Ġ18 46
Ġn ative
à¤Łà¤² à¤¸
à¤ıà¤¸ à¤ıà¤¨à¤ıà¤²
ĠP ET
Ġà¤Ĩà¤ľ à¤¤à¤ķ
à¤Ńà¤µ à¤ľà¤¨
Ġh im
ĠD av
il es
Ġà¤ĭ à¤ķ
os a
oc ation
15 0
Ġà¥§à¥ª à¥¦
Ġpr int
Ġà¤°à¤£ à¤§
à¨ °
à¥§à¥¯à¥¯à¥ ®
Ġred u
Ġsystem s
Ñģ ÑĤ
Ġà¤¬à¤°à¤¨ à¤µ
Ġchem ical
D es
E N
H ere
b les
d a
k ar
Ã ł
à¥ĭ à¤¼
Ġà¤¹ à¤®à¤ķ
à¤ļ à¤ķà¤¤
Ġà¤ı à¤Łà¤ķ
Ġà¤¯ à¤¯
à¤ĩ à¤µà¤²
à¤¤à¤° à¤«à¤²à¤ķ
à¤Ĩ à¤£
à¤Ĩ à¤¯à¤¤
à¤Ĩ à¤°à¤¬
à¤ľà¤¨ à¤Ĺà¤°
Ġà¤ľà¤¨ à¤¶
Ġà¤Ĳ à¤¬à¤ķ
Ġà¤īà¤¦ à¤Ĺà¤®
Ġf ig
Ġf lu
it ations
Ġà¤Īà¤¸ à¤ª
Ġm aking
ĠS ud
Ġà¤¨à¤µ à¤°à¤¤
à¤¹à¤® à¤£
em a
Ġl iter
Ġ17 8
Ġ17 50
il m
ĠB D
Ġà¤¬à¤ľ à¤¤
Ġv ers
if t
à¦ ª
op s
Ġcan not
Ġsub stitut
Ġà¥§à¥¯à¥¦à¥ ¨
Ġapp ly
190 5
Ġà¥§à¥®à¥¯à¥ ¯
Ġgener ate
Ġwar ning
ĠMP EG
A nd
H D
Î ¼
Ġà¤ķ à¤¦à¤°
à¤µ à¤ªà¤°
à¤Ĺ à¤¨à¤µ
Ġà¤Ĺ à¤¬
Ġà¤ı à¤®à¤ķ
Ġà¤¶ à¤ļ
à¤Ī à¤¸à¤µ
à¤« à¤¬
Ġà¤ħà¤¨ à¤ªà¤¢
Ġà¤Ł à¤ª
à¤¸à¤® à¤Ĺ
à¤¯à¤® à¤£
à¤ķà¤² à¤µ
Ġc our
à¤¤à¤® à¤¸
à¤Ĺà¤² à¤Ĺ
Ġà¤ħà¤¸ à¤¹à¤ľ
19 18
ĠS QL
Ġ18 41
ĠC B
ag ari
et urn
em ents
Ġà¥¨à¥¦à¥ §
ĠN ov
Ġà¤Ĺà¤£ à¤®
ĠH er
Ġà¥§à¥® à¥¯à¥¦
à¤¦à¤² à¤ª
ort s
ach ine
Ġele ments
Ġitem s
Ġspeed y
×ķ ×
Ġunderst and
h u
i ers
á »
à¤¨ à¤¸à¤®
à¤¸ à¤ĵà¤µà¤°
à¤² à¤Ĺà¤¢
à¤ľ à¤Ī
Ġà¤¨ à¤µà¤¸
à¤¶ à¤£
Ġà¤¦ à¤¹à¤²
à¤¬ à¤°à¤¦
à¤£ à¤ļà¤¨
à¤ķà¤° à¤ª
Ġà¤ľà¤¨ à¤¶à¤ķ
Ġ20 6
Ġà¤ĵ à¤¯
à¤°à¤µ à¤¸
Ġà¤®à¤¨ à¤ļ
it able
19 29
Ġd ays
Ġà¤ľà¤¹ à¤¨
ĠM o
re et
Ġà¤ľà¤² à¤°
Ġn ational
à¥® à¥¦à¥¦
Ġ9 000
Ġto get
ig ger
un ity
ro ph
ac rit
à¤¬à¤¦ à¤¬
ĠE arth
end encies
à¤ĳ à¤ª
Ġà¤ħà¤¸à¤® à¤®
Ġde cl
à¤ıà¤ļ à¤Ĩà¤Īà¤µ
iz ing
ĠIn ternet
gr ess
Ġpl ay
à§ °
à´ °
à¨ ¿
à¤½ à¤¸
ĠCD MA
Ġro ot
Cl ass
Ġwrit ten
Ġpur pose
Ġconfig uration
×Ļ ×
ĠUM TS
ØŃÙħ Ø¯
Ġinher it
Ġtoget her
e el
l s
m ake
Î ¯
Ï Į
à¤ ´
à¤¾ à¤¿
à¤® à¤¯à¤¤
à¤® à¤®à¤¤
Ġà¤® à¤ľà¤¹à¤¬
à¤ª à¤¤à¤¨
Ġà¤¨ à¤²à¤ķ
Ġà¤¦ à¤¬à¤¦à¤¬
Ġà¤¶ à¤Łà¤²à¤ķ
à¥Īà¤Ĥ à¤Ĥ
Ġà¤ĸ à¤ª
Ġà¤Ł à¤Ł
Ġà¤®à¤¹ à¤«
Ġà¤īà¤ª à¤²
à¤¦à¤¨ à¤¹
ĠT em
ĠS ocial
Ġà¤ľà¤² à¤®à¤Ĺ
Ġn ormally
ing u
em ens
ate ly
à¤Ĩà¤° à¤ıà¤®
à¤ıà¤² à¤ıà¤¸
Ġal t
Ġà¤¸à¤ľ à¤¦
Ġde velopment
op ter
Ġwh ole
ĠØ ´
Ġà¤Ńà¤Ł à¤ķà¤¨
à¤¹à¤ľ à¤°à¤¤
Ġ185 2
olog ies
Ġà¤¸à¤°à¤²à¤¤ à¤®
Ġpos ter
à¤į à¤¸
Ġcontain ing
Ġprodu ce
Ġequ ival
Ġmat ter
ĠGener al
M ore
a ug
c a
t d
à¤² à¤µà¤¸
à¤ª à¤§
Ġà¤ľ à¤¯à¤¤
Ġà¤¨ à¤Ĺà¤²
Ġà¤ı à¤Łà¤®
Ġà¤¸à¤® à¤µà¤°
Ġà¤« à¤ľà¤²
à¤Ĩ à¤ĵ
Ġà¤¡ à¤Ł
in dex
à¤ĺ à¤²à¤¤
Ġ20 5
Ġà¤ĵ à¤¦
Ġc are
à¤®à¤¤ à¤¤
Ġà¤Ĩà¤¯ à¤²
à¥įâĢį à¤¿
19 33
Ġm obile
ĠS anskrit
Ġ18 25
am in
à¤Ĭ à¤Ł
ĠA G
Ġl ines
ĠD et
ĠD ay
Ġg l
ĠN i
à¤Ĩà¤° à¤ıà¤¨à¤ı
ĠL ibrary
ĠR NA
Ġal ternative
ak a
Ġcl aim
Ġnot ation
Ġà¥§à¥¬ à¥¦
Ġpro p
Ġà¤Ĺà¤ł à¤ľ
Ġpr om
ens us
ari ly
Ġà¥§à¥§à¥ ©
190 1
Ġcomp et
Ġà¥§à¥®à¥® à¥¦
Ġà¥§à¥®à¥¯à¥ ®
Ġà¥§à¥®à¥¯à¥ Ń
Ġà¤²à¤Łà¤ķ à¤¤
à¤į à¤«
ĠAss ociation
Ġsuccess ion
ĠSoci ety
Ġpress ure
Ġdire ction
ĠAug ust
3 50
H C
g arh
n ey
p aces
w an
Ø µ
Ġà¤ķ à¤Ľà¤µ
à¤¤ à¤¹à¤°
Ġà¤µ à¤¦
Ġà¤° à¤ªà¤Ł
à¤¼ à¤¼
à¤Ń à¤¡
à¤ĩ à¤¯à¤¤
à¤Ĩ à¤¯à¤¨
à¤ĩà¤¸ à¤µ
à¤ħ à¤¥
Ġà¤ĵ à¤ķà¤²
Ġà¤ªà¤¤ à¤µ
al u
Ġd im
Ġà¤ľà¤² à¤¸à¤®
Ġ18 32
Ġ6 39
ĠC L
ĠP A
ĠP ower
à¤°à¤¬ à¤²à¤¤
à¤¹à¤¨ à¤ľ
Ġà¤ıà¤¸ à¤ľ
à¥ª à¥¦à¥¦
Ġl ay
Ġ17 90
Ġ17 75
Ġ17 61
Ġà¤ıà¤¨ à¤ıà¤®
ĠB o
ĠG A
ĠG B
ĠL eg
ĠE r
à¤Ķ à¤ªà¤¨
à¤ªà¤¦ à¤£
Ġà¥§à¥® à¥§à¥«
ir th
Ġà¤ıà¤¯à¤° à¤¬
à¤ıà¤« à¤ª
ĠO ut
à¤¨à¤Ĺà¤° à¤ª
à¤¸à¤« à¤²à¤¤
ther n
Us ing
ĠPl an
Ġequ ation
ten ance
Ġmult i
Ġconst ant
Ġimple ment
P h
i ya
l am
p m
r c
r at
s m
â Ĺı
à¤° à¤Ĺà¤²
à¤¸ à¤²à¤¨
Ġà¤¸ à¤¬à¤°
Ġà¤¸ à¤²à¤µ
Ġà¤¹ à¤°à¤®à¤¨
Ġà¤¬ à¤ķà¤µ
à¤¬ à¤Łà¤¨
à¤£ à¤ķà¤°
Ġà¤Ĩ à¤ĩà¤¸à¤ķ
Ġà¤¸à¤® à¤Ń
on a
à¤®à¤¨ à¤®
à¤®à¤¨ à¤µà¤®
at note
Ġs ay
Ġc ross
Ġf oot
Ġ4 20
19 35
Ġà¤§à¤° à¤¹à¤°
ĠC A
ĠC I
ĠA AA
Ġ9 99
Ġà¤Ĩà¤Ī à¤¯
ĠI M
Ġh idden
Ġg re
ĠG H
ĠL ist
ĠF F
Ġà¤¹à¤Ł à¤¤
Ġà¤ıà¤ļ à¤ıà¤¸à¤µ
and er
Ġun til
ĠCh rist
Ġab br
à¥¨à¥¦à¥§à¥ ®
Ġà¤¶à¤¹ à¤¡
Ġ37 0
Ġà¥§à¥¦à¥ ¬
Ġbut ton
ĠUn ion
Ġà¥§à¥®à¥« à¥®
Ġreg ard
Ġà¥§à¥®à¥¬ à¥¦
omet er
Ġmod ules
Ġcal endar
ĠSi emens
Ġinit ial
E P
v ersion
Ã ¤
Å «
à¤° à¤¥à¤¨
à¤¨ à¤ľà¤¦
à¤¯ à¤°à¤¹
à¥ĭ à¤ĥ
à¤² à¤¥
à¤² à¤ĺà¤°
Ġà¤® à¤ķà¤Ī
à¤µ à¤Ľ
à¤¦ à¤®à¤¨
à¤ļ à¤¢
Ġà¤ı à¤ħà¤°
à¥ī à¤ģ
à¤¸à¤° à¤µ
à¤¹à¤° à¤µ
Ġà¤¬à¤¹ à¤ķ
à¤°à¤¯ à¤¦
à¤°à¤µ à¤²
Ġc losed
Ġà¤Ĩà¤° à¤Ł
it em
le an
ĠT o
Ġ18 21
Ġà¤¬à¤² à¤Ńà¤¦
ĠC y
à¥© à¥¦à¥¦
il s
à¤Ĳ à¤°
à¤ªà¤£ à¤ķ
Ġ100 00
à¤²à¤¹ à¤Ł
Ġbr ack
Ġle ave
Ġi i
à¤īà¤ª à¤µ
à§ ĭ
à¥§à¥¯à¥¯à¥ Ń
Ġà¥§à¥®à¥® à¥Ń
Ġac ross
àª ¾
Ġsign ific
ĠSch ool
2 10
B ut
D F
M y
M any
à¤ İ
à¤ķ à¤Ľ
à¤² à¤ªà¤°
à¤® à¤Ńà¤ķ
Ġà¤® à¤ľà¤°
à¤¹ à¤°à¤¸
à¤Ĺ à¤Ī
à¤§ à¤Ĺà¤¯
Ġà¤ªà¤° à¤¬à¤¤
à¤ĩ à¤¯à¤°
à¤ĩ à¤®à¤²
à¤°à¤ķ à¤¸
à¤¸à¤ķ à¤¨
Ġà¤§ à¤µà¤²
à¤µà¤¨ à¤ļà¤ķ
à¤¯à¤° à¤°
al og
à¤¤à¤® à¤¦
Ġb it
it ect
Ġ4 80
19 11
19 25
Ġm ag
ĠM or
ĠA P
Ġh ome
à¤Ĩà¤Ī à¤Ĩà¤Ī
à¤¸à¤µ à¤¦à¤¤
ĠG ar
ac ement
Ġre pe
ĠR ob
Ġv ir
à¦ ¸
Ġà¥® à¥¯
ĠV ol
Ġk o
12 5
12 6
à¤®à¤ľ à¤¦
Ġab le
ph a
Ġref link
Ġsy n
Ġ177 6
Ġà´ ķ
idd le
D NA
I d
Y Y
h m
w idth
Ø ®
Ġ ÙĦ
à¤¨ à¤¹à¤²
à¤¯ à¤ļà¤°
à¤¯ à¤µà¤ķ
à¤¯ à¤Ĺà¤¡
à¤² à¤ĸà¤¨
à¤µ à¤²à¤¨à¤¶
à¥Ĥ à¥Ĥ
Ġà¤¦ à¤Ĺ
à¤¬ à¤°à¤¹
à¤¬ à¤¸à¤¨
à¤¬ à¤īà¤²
Ġà¤² à¤ı
à¤ļ à¤¹
Ġà¤¤ à¤Łà¤°
Ġà¤¯ à¤ľà¤®
Ġà¤ļ à¤µ
à¤µà¤° à¤ľ
Ġà¤ķà¤¹ à¤°
à¤µà¤¨ à¤ª
Ġà¤Ī à¤ıà¤¸à¤ª
à¤·à¤£ à¤¤
Ġà¤ĵ à¤ªà¤°
Ġs ent
Ġs umm
al y
al am
Ġc ur
Ġà¤Ĭ à¤¤
Ġa ch
ĠT est
ĠS M
ĠS am
Ġ18 31
ĠC ouncil
Ġà¤Ĩà¤Ī à¤ıà¤¨à¤ıà¤¸
Ġl tr
ĠD ef
Ġ17 3
id a
à¤µà¤ľ à¤µ
ĠL and
à¤īà¤¦ à¤¯
ut e
Ġ21 2
à¤ıà¤« à¤Ł
Ġ22 4
ri al
Ġde velop
Ġk ar
Ġclass es
Ġà¤ªà¤¨ à¤¬
Ġch ild
ĠÎ ³
Ġà¤į à¤®
Ġ180 6
à¥§à¥¯à¥¯à¥ ¨
Ġam ong
Ġinst ance
Ġreg ion
Ġwik is
Ġtag ged
Ġinv ol
amb igu
ĠCl ass
Ġà¤Īà¤¥ à¤°à¤¨
ĠApp le
Ġformatt ed
Ġassoci ated
I K
M ost
X X
l anguage
â ĸ
à¤° à¤ľà¤¨à¤ķ
à¤¸ à¤¹à¤°
à¤² à¤ķà¤²
à¤µ à¤Ĺà¤£
Ġà¤ª à¤ªà¤¡
Ġà¤¨ à¤Ĺà¤¦
Ġà¤¦ à¤®à¤¦
Ġà¤Ń à¤µà¤¤
à¤Ĩ à¤¯à¤°
Ġà¤®à¤¹ à¤ķ
à¤¨à¤ķ à¤¦
Ġà¤ħà¤² à¤¸
or es
Ġà¤ħà¤® à¤°à¤¸
Ġà¤Ĩà¤¦ à¤°à¤£
Ġà¤ħà¤ķ à¤¡
Ġin form
ĠT amil
19 23
ĠM C
Ġ18 26
am i
Ġà¤¸à¤¤ à¤¯
ĠC T
ĠC enter
as m
ĠA SP
Ġà¤Ĩà¤Ī à¤®
Ġà¤Ĩà¤Ī à¤«
em pt
Ġà¤¶à¤¤ à¤ªà¤¥
un j
Ġ17 83
ĠW est
Ġà¤ıà¤® à¤Ĩà¤Ī
Ġre v
el low
im a
ut h
Ġcon vert
Ġà¤ĺà¤¨ à¤¶
ud d
Ġà¤°à¤£ à¤¥à¤®
Ġint ro
Ġcre ating
Ġreg ister
à¤ıà¤¸à¤Ī à¤ıà¤²
Ġrepl aced
Ð» Ð°
Ġhy dro
Ġtool s
ĠDep endencies
Ġvaria ble
ĠEur ope
ĠLin ux
Val ue
Ġdom ain
3 80
S ub
a ctions
g ing
Ġ Æ
à¤¾ à¥į
à¤¯ à¤Ĺà¤¤
Ġà¤¸ à¤¨à¤®
à¤µ à¤·
à¤µ à¤ķà¤²
à¤Ĺ à¤Ŀ
à¤ļ à¤°à¤®
Ġà¤¶ à¤¹à¤¤
Ġà¤īà¤ª à¤§
Ġt er
or i
à¤Łà¤¨ à¤Ĺà¤°
is k
is play
Ġf uture
Ġb lue
à¤°à¤¨ à¤²
Ġd ates
ĠM and
Ġ18 27
Ġ18 36
à¤¸à¤² à¤µ
ĠC ode
ĠA IDS
Ġà¤Ĩà¤Ī à¤¨
Ġl and
Ġà¤¦à¤² à¤¹à¤¨
ad u
Ġse en
Ġse qu
à¤Łà¤¤ à¤¯
à¤¶à¤µ à¤¦
Ġpro b
ect s
Ġme chan
Ġqu ality
ru ctions
Ġinst all
Ġread ers
led ge
itt ee
Ġà¤ľà¤Ĺà¤® à¤Ĺ
Ġpub lished
F T
G C
T T
à¤¨ à¤ªà¤¦
à¤² à¤¸à¤°
Ġà¤µ à¤°à¤®
à¤ľ à¤ĸ
Ġà¤¨ à¤°à¤µ
à¤§ à¤¹à¤¸
Ġà¤¶ à¤¦
à¤Ī à¤ıà¤®
Ġà¤ļ à¤ķà¤°
Ġà¤Ł à¤¨à¤²
Ġà¤Ī à¤¡à¤¨
Ġà¤ĵ à¤¹à¤¦
Ġà¥¨ à¥¨à¥¦
Ġc ause
en ame
Ġà¤Ĩà¤° à¤¡
19 26
Ġd ot
ĠM as
ĠM od
ĠM ount
re w
ĠB oard
ĠL anguage
ĠL ond
Ġre view
ch amp
18 80
ĠV OC
ang le
and a
ess age
ĠJ une
Ġform s
Ġ35 00
Ġed uc
Ġint egr
Ġ180 4
ric k
ĠEng ine
Ġà¥§à¥®à¥¯à¥ «
To ol
Ġdesign ated
ĠÙ Ĥ
à¥ģà¥ģ à¥ģ
ĠPo ly
Template Data
ĠComp any
ĠFI FA
Ġagain st
ĠRh D
Ġmeas ure
Ġchrom os
2 50
A t
C o
G I
H T
b l
l im
u h
u el
Ġà¤ķ à¤Łà¤µ
à¤² à¤Ĺà¤¨
à¤¦ à¤¶à¤°
à¤Ĺ à¤Ńà¤¦
Ġà¤Ĺ à¤ľà¤°
à¤ļ à¤°à¤¤
à¤ļ à¤°à¤¨
à¤°à¤¤ à¤²à¤¬
à¥ĥ à¥į
à¤ĵ à¤¤
à¤¶à¤¨ à¤Ĺà¤¢
Ġà¤ħà¤² à¤¬à¤°
an z
à¤¯à¤¤ à¤¤
Ġà¤ħà¤Ń à¤¦
Ġc ry
à¤Ŀ à¤®
Ġà¤ħà¤¸ à¤¹à¤¨
Ġà¤¹à¤® à¤¦
ĠT R
19 10
Ġw ish
Ġm om
Ġ18 34
Ġà¤ħà¤Ĺ à¤µ
om s
lo od
ur ed
Ġl ife
à¤²à¤® à¤¡
Ġ17 6
Ġg as
Ġg lobal
ĠG reat
ĠR el
ĠF ed
ĠPh onetic
ĠO per
ĠV ir
Ġun less
190 4
att aya
Ġdele te
col or
val ue
ograph ic
ĠMus ic
ĠGN U
A f
e in
t es
t ies
Ġ ì
à¤Ĺ à¤ĸ
Ġà¤¦ à¤ĸ
Ġà¤° à¤ļà¤¤
à¤§ à¤ĺ
Ġà¤² à¤µà¤²
Ġà¤Ĺ à¤¸
Ġà¤Ĺ à¤«
Ġà¤ī à¤«
à¤Ń à¤µà¤¹
Ġà¤¶ à¤¹à¤¨
Ġà¤ªà¤° à¤Ľ
Ġà¤¡ à¤°à¤¨
Ġà¤īà¤ª à¤Ĺà¤£
on ic
à¤¯à¤® à¤¶
à¤¯à¤® à¤µà¤°
à¤·à¤£ à¤ķ
à¤¦à¤° à¤«
Ġà¤ĵ à¤µà¤¨
or iz
Ġà¤ĩà¤¨ à¤Ł
Ġf ac
Ġà¤Ĭ à¤®
19 16
Ġw ide
ĠM I
Ġ18 28
Ġà¤Ŀ à¤ķ
ĠC ons
ĠI CA
un ch
Ġà¥¨à¥¦à¥ «
Ġ17 9
à¤®à¤¦ à¤ª
ĠB en
ĠN S
ĠL ua
ĠE nd
Ġar ray
18 90
Ġr ule
Ġst ep
ab les
ir es
à¤ĳ à¤¡
ĠÂ »
à¤²à¤Ń à¤¤
Ġex c
tic le
ĠØ £
ra ction
à¥¨à¥¦à¥ ¨
ĠIn formation
à¤ĩà¤« à¤Ł
ĠCh ina
Ġgoog le
ĠÎ ¸
ff ice
Ġà¤į à¤¸
ÛĮ Úº
à² ¨
Ġdisplay s
che ck
II I
Ġph on
Ġph ase
pos ition
Ġbo iler
ourn al
gy pt
UC N
B L
N C
O ne
b h
f lag
j a
Î ¬
á º
Ġ ill
Ġà¤¹ à¤ĸ
à¤µ à¤Ī
à¤µ à¤Ńà¤ķ
à¤Ĺ à¤¥
à¤Ĺ à¤°à¤¹
à¤Ĺ à¤§à¤°
Ġà¤¬ à¤«à¤°
à¤ĸ à¤¬à¤°
à¤ĸ à¤ªà¤¤
à¤Ĩ à¤°à¤ķ
à¤µà¤° à¤¹
Ġà¤¡ à¤Ĺ
à¤ł à¤¯
à¤¯à¤® à¤¸
à¤¸à¤¨ à¤ª
Ġ3 40
it ors
Ġp ort
Ġp aste
Ġà¤ħà¤ª à¤¦à¤¸
Ġin depend
à¤ķà¤¨ à¤°
Ġw elcome
ĠS il
ĠS ammartino
Ġà¤¤à¤° à¤¬
Ġ18 23
Ġ6 40
à¤°à¤ļ à¤£
Ġà¤ħà¤Ĺ à¤°à¤¤à¤²
à¤µà¤¯ à¤µà¤¤
Ġsp acing
à¤Ĺà¤® à¤Ĺ
à¤Ĳ à¤®
ĠL ee
ĠE ast
ĠH al
ĠH ind
ad ow
Ġv ector
Ġk ind
Ġà¤¹à¤¥ à¤ķà¤°à¤ĺ
ĠInd ust
Ġà¤į à¤ª
Ġfollow ed
à¥§à¥¯à¥¯à¥ ¬
port s
à¤ıà¤¸à¤ıà¤¸ à¤Ĩà¤°
par ent
Ġpart s
à³ ģ
Ġdi acrit
Ġlong er
ĠDe velopment
Ġatt ribut
Ġselect ed
Ġindic ate
Ġmiss ing
3 20
N G
f ord
i en
i et
p at
r ate
Ġ ðŁ
Ġà¤ķ à¤¸à¤ķà¤°
à¤¨ à¤§
à¤® à¤¨à¤ķ
à¤¶ à¤¡
à¤¡ à¤°à¤¸
à¤£ à¤Ńà¤Ł
Ġà¤Ĺ à¤ļ
Ġà¤Ĺ à¤ľà¤¨
Ġà¤Ĺ à¤°à¤ľ
Ġà¤ı à¤ıà¤¸
à¤ĸ à¤¯
Ġà¤ªà¤° à¤Ńà¤ķ
à¤ł à¤ª
à¤°à¤¦ à¤ķ
Ġ20 30
al ic
à¤Ĺà¤² à¤°
Ġp ot
19 43
ĠM ot
ĠS S
Ġ18 29
Ġà¤Ŀ à¤ľ
Ġà¤ħà¤Ĺ à¤®
ĠI R
à¤ĩà¤² à¤®
à¤¹à¤¨ à¤ª
Ġ15 26
Ġà¤®à¤¤ à¤²
Ġth us
ĠD ynasty
Ġ17 4
ĠW ikipedi
ol i
ĠH O
à¤¯à¤£ à¤¤
Ġal ong
Ġà¤ħà¤¶ à¤°
Ġà¤ļà¤°à¤£ à¤¬à¤¦
oc ene
ce an
Ġk bit
Ġà §
Ġcon duct
à¥¨à¥¦à¥§à¥ Ń
ĠSt andard
Ġà¤ªà¤¥ à¤ª
ĠÎ Ķ
à¤ĺà¤Ł à¤¨à¤ķ
190 7
Ġà¥§à¥®à¥® à¥¯
Ġwork ing
Ġgener ally
Ġ177 3
à¥§à¥¯à¥ª à¥®
Ġappear s
ĠBl ack
Ġlarg er
1 10
7 47
A B
I s
b a
c er
i ence
k m
k o
s ub
à¤° à¤¥à¤²
à¥ĩ à¤ĥ
Ġà¤ķ à¤ľà¤°
à¤¤ à¤£
à¤¯ à¤£à¤¨
Ġà¤¸ à¤Ļ
Ġà¤¹ à¤µà¤²à¤¦
à¤® à¤ªà¤¦
Ġà¤¬ à¤ĸà¤°
Ġà¤² à¤ªà¤Ł
à¤ļ à¤¨à¤ķ
Ġà¤ı à¤®à¤¨
Ġà¤¤ à¤¦à¤°
Ġà¤Ĩ à¤¬à¤¦
à¤« à¤Ĺ
à¤¸à¤® à¤²
Ġc ertain
Ġà¤ķà¤² à¤ķ
Ġà¤ħà¤ª à¤¶à¤¬
Ġm g
ĠP ot
Ġà¤¨à¤µ à¤µà¤°
à¤°à¤¬ à¤¦
ĠI AS
Ġh old
à¤Ĩà¤Ī à¤ıà¤ļ
ĠD h
Ġ17 88
Ġe con
ĠG reen
ap y
ĠN ar
ĠH a
ĠR ight
Ġy et
à¤¤à¤ª à¤°à¤¸
ont al
Ġpar se
av es
ri de
à¤²à¤Ń à¤Ń
Ġ27 5
Ġà¥¯ à¥¦à¥¦
Ġà¤ľà¤¯ à¤µà¤°
ĠX ML
Ġà¤īà¤Ń à¤°à¤ķà¤°
ÙĦ Ùĩ
Ġà¤īà¤¤à¤° à¤ķà¤°
ÛĮ ÙĨ
190 9
Ġcomp on
Ġà¥§à¥®à¥® à¥ª
Ġwiki base
Ġà¥§à¥®à¥Ń à¥¦
Ġdefault s
Ġover l
Ġent ire
Ġà½ ¢
Ġexp and
ĠRaj asthan
Ġang le
Ġsup plied
bre vi
S ince
T em
V ID
d d
l ength
m ar
É Ľ
Î ·
Ð ¿
Ġ Ê
Ġ ir
à¤° à¤ªà¤ķ
à¤¤ à¤®à¤¤
à¤¸ à¤¹à¤ķ
Ġà¤ª à¤ľ
à¤¦ à¤®à¤¤
à¤Ĺ à¤Ńà¤Ł
à¤§ à¤Ń
Ġà¤ı à¤¦
Ġà¤ħà¤¨ à¤¬
à¤¤à¤° à¤Ĺ
Ġà¤Ł à¤¬
à¤ī à¤¥à¤¶
Ġà¤īà¤¤ à¤ķ
Ġt ele
ar p
Ġà¤Ĳ à¤£
Ġc aus
Ġ3 25
is a
à¤¤à¤® à¤ľà¤¦
it z
ĠT ri
19 44
ĠM en
ĠM arch
à¤ıà¤ķ à¤¦
Ġ18 12
Ġà¤ĳà¤« à¤¸
à¤¸à¤² à¤ª
Ġà¤¸à¤¤ à¤Ĺ
as ons
ĠP an
à¤ĩà¤² à¤¸
à¤Ńà¤µ à¤®
Ġsp e
Ġ17 95
Ġ17 64
Ġ17 92
ĠB ook
Ġà¤Ĺà¤£ à¤¤à¤¨
iv ing
à¤Ķ à¤¨
Ġar r
Ġal g
Ġ23 2
Ġà¤ĭà¤· à¤Ń
pr il
à¤¸à¤¹ à¤ľ
ĠSt r
ĠSt at
à® ²
à® Ł
Ġà¦ ®
ĠPr ot
Ġcomp os
Ġà¥§à¥®à¥¯à¥ ª
Ġpos itive
Ġacc ording
Ġà¤²à¤¯ à¤¬à¤¦
Ġá ¸
Ġá ¹
à¤¤à¤¦à¤¨ à¤¨
Ġq id
Ġchang ed
Ġperson al
Ġà¤ļà¤°à¤ķ à¤¸
Ġlim ited
Ġimple ments
Ġappro x
Ġchart s
ĠJan uary
ĠAust ral
ĠWilli am
ĠLond on
2 30
A I
C E
e ase
g oogle
s w
à¤¨ à¤Łà¤¨
à¤² à¤µà¤²
Ġà¤® à¤ľà¤¨
à¤Ł à¤¬à¤¦
à¤§ à¤Ĺà¤®
à¤¥ à¤°à¤¨
Ġà¤¤ à¤Ĩà¤²
Ġà¤Ĩ à¤ķà¤²
Ġà¤¶ à¤²à¤Ń
Ġà¤ļ à¤®à¤¨
à¤ĵ à¤ªà¤¨
an cy
Ġà¤Ī à¤¯
Ġà¤ĵ à¤¶à¤¨
Ġà¤¸à¤¹ à¤°à¤¸
Ġà¤ĩà¤¨ à¤²
Ġ3 10
Ġà¤ħà¤µ à¤Ĺ
Ġp ap
Ġp ers
Ġà¤ħà¤¸ à¤«
ĠS ah
ĠS MS
Ġ18 1
Ġ18 16
ou l
Ġ9 50
Ġà¤¬à¤¤ à¤ĸ
Ġà¤Ĩà¤® à¤ļ
Ġh uman
Ġh aving
Ġl ittle
ĠD ig
à¤Ĳ à¤¶
Ġà¤ıà¤¨ à¤ĵà¤¸
pl ate
ĠE V
Ġbe hav
Ġà¤ĭ à¤ľ
ĠH uman
ĠPh ys
Ġ21 1
Ġ23 3
Ġk eep
ĠJ ose
Ġfr action
ian a
Ġlink ing
Ġà¤¨à¤ľà¤° à¤¬
ateg ories
Ġpre vent
Ġà¥§à¥¦à¥ §
Ġà¦ ¸
Ġqu ick
àµ ģ
Ð° Ð½
à½ Ħ
Ġinter wiki
Ġinter ested
Ġà¥§à¥®à¥Ń à¥¨
Ġsim pl
ĠSp ecial
Ġprodu ced
Ġpol it
Ġà¤ħà¤µà¤¨ à¤¤
Ġã ģ
Ġprogr amm
cient ific
b n
e a
i ac
n ers
n ail
o or
s elf
u ed
Ã ¦
Ġà¤ Ĥ
à¤¯ à¤¶à¤ķ
à¤® à¤®à¤¨
à¤® à¤«à¤²
à¥Ī à¤¼
à¤Ł à¤§
à¤ľ à¤ļ
à¤¬ à¤²à¤¨
à¤ļ à¤¤à¤¨
Ġà¤ī à¤ĸà¤¡
à¤ı à¤¸à¤ķ
à¤ªà¤° à¤¬
Ġt re
in ing
Ġs ites
he ad
à¤®à¤¤ à¤²à¤¬
à¤²à¤¬ à¤²
19 27
Ġà¤¨à¤µ à¤Ń
à¤¯à¤² à¤¸
Ġan ti
à¤°à¤ľ à¤ª
Ġ17 98
Ġà¤īà¤ªà¤¨ à¤¯à¤¨
Ġg overnment
ĠG W
ĠG erman
Ġà¤ıà¤® à¤ıà¤¸à¤¸
ĠE CW
à¤ıà¤® à¤¡
ist ration
Ġ24 5
Ġà¤ħà¤µà¤¸à¤° à¤µ
Th at
Ġsh are
Ġ29 0
ind ia
so lute
pp er
ell ig
ah i
ÙĦ ÛĮ
ens ive
Ġres ist
Ġspec ies
ĠAl phabet
har at
à¥§à¥¯à¥Ń à¥«
Ġà¥§à¥®à¥¬ à¥§
Ġ177 4
omet ry
Ġequ al
ĠFr ame
ĠSO A
Ġà¤Ĩà¤Īà¤ıà¤® à¤ıà¤«
d ar
n ames
s ol
s ers
à¤° à¤°à¤ļà¤¨
à¤¤ à¤ªà¤¤
à¤² à¤¦à¤°
Ġà¤ħ à¤ļà¤°
Ġà¤µ à¤ª
à¤ļ à¤®à¤ķ
Ġà¤ī à¤¹
Ġà¤ī à¤¥à¤®
Ġà¤ī à¤Ľà¤²
Ġà¤ī à¤§à¤®
Ġà¤Ń à¤ľ
Ġà¤Ń à¤Ĺà¤¦
Ġà¤ĩ à¤ķà¤¸
à¤ĩ à¤Łà¤ķ
à¤ĩ à¤°à¤²
à¤Łà¤° à¤ıà¤ķ
Ġà¤ħà¤² à¤°
Ġà¤ħà¤² à¤ĸ
à¤¬à¤° à¤µ
Ġà¤Ī à¤ĸ
Ġs ocial
Ġs aid
Ġc m
Ġà¤Ĩà¤° à¤ı
Ġf ar
Ġf und
Ġà¤¹à¤® à¤°
ĠS AT
ct or
Ġh a
Ġ17 57
Ġ17 65
il anguage
ĠB er
ĠG M
ĠG o
ĠN TSC
à¤ļà¤² à¤ļ
ĠF eb
ĠF ire
Ġr ational
Ġr aj
Ġà¤®à¤² à¤ľà¤²
Ġà¤¨à¤° à¤¹à¤°
ĠJ ava
Ġsh adow
Ġun ique
Ġdis ambigu
à¥§à¥® à¥«à¥Ń
à¤Ĺà¤ł à¤¬
Us er
Ġà¤Ĺà¤ľ à¤Ł
ĠUn icode
Ġcomp ound
Ġdesign ed
Ġå ¤
à¸ ²
Ġtop ic
Ġà¤ķà¤¤à¤° à¤¨
amp a
Ġdist ribut
ung er
af e
ock a
Ġexpl an
Ġbrow ser
Micro format
Ġnuc le
Ġtemper ature
Ġsignific ant
D S
G N
H industan
S QL
U K
f ield
Ú Ĩ
â ĺ
à¥Ģ à¤ĥ
Ġà¤¹ à¤¬à¤²
à¤¦ à¤°à¤ķ
à¤Ł à¤°à¤¤
à¤ľ à¤¯à¤ķ
à¤ľ à¤¸à¤®
à¤¶ à¤¤à¤°
à¤¶ à¤ļà¤¨
à¤§ à¤¹
Ġà¤ı à¤¸à¤ķ
Ġà¤ªà¤° à¤Ĺ
à¤Ī à¤µà¤°
à¤°à¤ķ à¤µ
Ġ2 19
à¤ķà¤° à¤¸
Ġà¤¡ à¤¬à¤°
an agari
à¤ĺ à¤¤
er al
Ġ20 3
à¤®à¤ķ à¤¬à¤°
Ġà¤ĵ à¤¢
Ġà¤ħà¤° à¤¶à¤¦
Ġà¤¸à¤¹ à¤ļà¤°
Ġf t
Ġf low
Ġà¤Ĭ à¤¬
Ġw ave
Ġw eek
ĠM art
re am
ĠS ym
ĠS cience
à¤ıà¤ķ à¤®
Ġn etwork
Ġ7 20
ot ic
ag ed
à¤ļà¤° à¤°
Ġà¤ıà¤² à¤ıà¤²à¤¬
Ġà¤¢ à¤ķà¤¨
Ġà¤ħà¤« à¤¸
ur ity
Ġl ibrary
Ġ17 87
Ġ17 84
ĠG T
ĠG od
ĠN etwork
ĠE ric
ĠE con
ĠE gypt
ĠH ol
iv en
18 96
ab a
ir a
Ġà¤ħà¤ľ à¤®à¤²
ĠO ne
ain ed
14 0
se lect
à¤ľà¤Ĺ à¤¹
ĠSE C
Ġab brevi
act ive
Ġsub t
ÛĮ Ø±
à´ ķ
Ġam ount
Ġà¤īà¤¬ à¤²à¤¤
à¥§à¥¯à¥Ń à¥¨
Ġinter est
Ġdesign ations
ĠPro ject
Ø³ Øª
Ġstart ed
Link s
Ġã ĥ
Ã¡ n
Ġspell ing
Ġlim it
Ġà¥¦à¥¨ à¥¯à¥¨
Ġquest ion
Ġadmin istr
Ġvol t
Ġserv ice
Ġhal f
Ġfeed back
à¤ıà¤¬à¤° à¤¡
Ġequival ent
Ġboiler plate
H i
c an
g es
i los
l ar
p ing
w ood
Ä ĵ
Ù ı
à¤° à¤Ŀ
à¤¤ à¤²à¤¬
à¤ķ à¤¥à¤¨
à¤¯ à¤²à¤ķ
Ġà¤¸ à¤¨à¤¸
à¥ģ à¥ħ
Ġà¤ħ à¤¸à¤ķ
Ġà¤ħ à¤¶à¤ķ
à¤ľ à¤¯à¤®
Ġà¤Ń à¤°à¤ķà¤®
Ġà¤ĩ à¤¬à¤°
Ġà¤īà¤¨ à¤²
à¤ĵ à¤¶
Ġà¤µà¤° à¤°
Ġà¤¨à¤¹ à¤¸
à¤²à¤¨ à¤¸
Ġà¤Ī à¤·
Ġà¤Ī à¤ĵ
à¤ĺ à¤ļ
à¤¤à¤¨ à¤µ
Ġb ul
it i
it ter
19 13
Ġw on
ĠS U
Ġà¤¤à¤° à¤ľ
Ġà¤¤à¤° à¤²à¤¤
à¤¨à¤® à¤°
ĠP R
ĠP et
ĠP ost
ĠP ublic
ĠA pril
Ġà¤ĩà¤² à¤¸
Ġà¤Ĩà¤Ī à¤Ĩà¤°
Ġan ch
à¤¹à¤¨ à¤¦
Ġ17 80
ĠB MI
ĠN I
à¤ľà¤¯ à¤¶
ĠH o
ĠR uss
ĠR oman
ĠF l
Ġà¥§à¥® à¥«à¥¦
Ġst ar
Ġor d
ĠK a
Ġà¤ľà¤¯ à¤ļ
In f
In definite
Ġsub s
Ġint eg
ie ve
Ġà¦ Ĩ
Ġà¤¬à¤¹à¤° à¤¹
Ġset ting
à¤ĩà¤ªà¤° à¤Ł
Ġz ero
Ġright s
ĠAd min
à© Ģ
On ly
Ġresp ective
Ġconsider ed
illion th
Ġcent ury
Ġmode l
Ġide a
ĠCP U
Ġpag el
Ð¸Ñ ĩ
Def ault
Ġchromos ome
Ġmom ent
ĠICA O
Hindustan ilanguage
C ol
K ey
S e
a a
c ases
f r
k ey
r as
v ing
Ñ ı
Ġ ly
à¥ĩ à¤¾
à¤¸ à¤¬à¤ķ
à¤² à¤°à¤¸
Ġà¤® à¤²à¤®
Ġà¤ľ à¤®à¤¦à¤Ĺ
à¤Ĺ à¤ªà¤Ł
Ġà¤ħ à¤Ļ
Ġà¤¬ à¤°à¤ķà¤¤
Ġà¤Ĺ à¤°à¤¬
à¤ĩ à¤¡à¤²
à¤ĩ à¤®à¤¸
à¤µà¤° à¤¯
Ġà¤Ł à¤²
à¤ħ à¤µà¤¤
à¤ħ à¤ĺ
00 1
âĢ ı
Ġà¤Ī à¤¬
Ġà¤Ī à¤²à¤®
at ter
à¤°à¤¯ à¤£
al ing
à¤µà¤² à¤¥à¤²
à¤¤à¤® à¤ª
à¤¦à¤¨ à¤ª
Ġf em
à¥¦à¥ §à¥
Ġ4 44
19 15
Ġm i
Ġm ac
ĠM i
ĠM ain
re l
Ġo x
ĠP y
ĠP sych
ĠA k
ag o
om as
Ġh ost
Ġh ref
Ġh istor
Ġ15 56
à¤Ĳ à¤¡
ĠB P
ĠG Hz
ĠG lobal
ĠH ot
iv il
ĠF in
Ġst ation
à¤·à¤® à¤¯
oc us
Ġ23 8
Ġ22 7
av el
ĠV LAN
ri ed
op tions
Ġ26 5
ĠJ ames
Ġà¥¨à¥« à¥¦à¥¦
ĠCh ang
Ġà¤Ĩà¤ĩ à¤ıà¤¸à¤¡
ĠAl t
190 2
ĠPr adesh
ru ary
Ġà¥§à¥®à¥® à¥¬
à¥§à¥¯à¥® à¥«
à¥§à¥¯à¥Ń à¥§
Ġget Args
Ġgener ated
ĠPro gr
Ġinfobox es
Ġsc reen
Ġconst ruct
Ġà¤ıà¤¨à¤ıà¤ļ à¤ıà¤²
Ġprogr am
Ġeas y
Res ult
Ġopp os
T echn
b erg
n um
s a
Ø ¦
à¤¤ à¤²à¤µ
à¤² à¤¸à¤®
à¤¡ à¤Ń
à¤¥ à¤Ĺà¤¨
Ġà¤Ĺ à¤µà¤²
à¤ļ à¤ļ
Ġà¤¤ à¤«
Ġà¤¤ à¤°à¤£
Ġà¤¶ à¤¯
Ġà¤ķà¤° à¤²
à¤ĸ à¤®à¤¯
Ġà¤¯ à¤²
à¤Ī à¤¯à¤¤
à¤°à¤ķ à¤¥
Ġà¤Ł à¤£
Ġà¤§ à¤°à¤£
à¤µà¤¨ à¤¤
à¤µà¤¨ à¤ªà¤°
Ġ20 2
al t
es ents
ĠM ov
re te
Ġ18 4
Ġ18 22
Ġà¤¬à¤² à¤Ĺà¤®
ĠC ity
ĠC PA
ing ton
ĠP ark
Ġà¤¬à¤¦ à¤¸
ĠI BS
Ġ15 50
un ct
Ġth erm
Ġ17 60
Ġ17 85
ĠB el
ĠB ra
ap an
Ġà¤ªà¤°à¤® à¤ª
Ġà¤Ĺà¤£ à¤ķ
ĠE qu
Ġbe com
ĠR a
à¤ıà¤« à¤¡
ĠO lymp
Ġà¤ıà¤ļ à¤ıà¤²à¤ı
Ġad j
Ġad v
Ġpage prop
Ġpl aces
Ġj a
act er
Ġà¤²à¤¹à¤° à¤¬
à¤ħà¤µ à¤¸à¤°
à¥§à¥¯à¥¯à¥ ©
Ġà¥§à¥®à¥¯à¥ ¬
Ġà¥§à¥®à¥« à¥¬
ĠWik im
à¥§à¥¯à¥¬ à¥¨
Ġà¥©à¥¬ à¥¦
Ġthumb nail
omat ic
Ġã Ģ
Ġrepr esents
ĠAM G
Ġprot ected
Ġest ab
rr or
ĠCount ry
Ġtransclu ded
ĠSud an
Ġpagel anguage
Ġpageprop s
M orebits
P D
d f
w ocka
y es
á Ł
à¤¾ à¥Ģ
à¤¸ à¤¡à¤°
Ġà¤¸ à¤ªà¤°
Ġà¤¸ à¤Ĩà¤¦à¤¤
Ġà¤ľ à¤®à¤¤
à¤Ĺ à¤®à¤°
à¤· à¤¦à¤°
à¤¡ à¤§
à¤¡ à¤°à¤¨
à¤ļ à¤«
Ġà¤ı à¤¡à¤²
Ġà¤Ĩ à¤ĩà¤¬
à¤ĩ à¤¥à¤¨
à¤µà¤° à¤ļ
à¤¾à¤ģ à¤ģ
à¤ī à¤ªà¤¦
Ġà¤¡ à¤µ
à¤ľà¤¨ à¤ľ
à¤ħ à¤²à¤ķ
à¤¯à¤¨ à¤°
er ve
Ġà¤¸à¤®à¤¯ à¤¸
Ġà¤ĳ à¤²à¤®
Ġà¤Ĳ à¤²à¤ķ
Ġc op
es tern
Ġf ive
Ġp al
à¤§à¤¨ à¤µ
ĠT a
Ġ18 3
Ġ18 10
à¤¬à¤² à¤¡
Ġà¤¬à¤° à¤ĸ
à¥¦à¥¦ à¥¦à¥¦
Ġà¤ıà¤¸ à¤¬
Ġà¤¤à¤¬ à¤¸
Ġ15 40
à¤®à¤¦ à¤¤
ĠB ill
Ġg row
ĠG en
Ġà¤¬à¤ľ à¤ķà¤°
ir i
ĠO b
Ġ22 1
à¥¯à¥ ¯à¥
ĠØ ¢
Ø§ Ø¨
Ġab s
gr ic
à¤īà¤ª à¤ľ
à¤¯à¤¬ à¤ĺà¤°
à° Ĥ
Ġà¤µà¤ļà¤¨ à¤¬à¤¦
Ġqu adr
ss on
ÙĬ ÙĨ
Ġà¥§à¥®à¥¯à¥ ©
AA A
à¥§à¥¯à¥Ń à¥Ń
Ġrel ative
lum e
Ġact iv
tr igger
ĠSe pt
An y
ĠÙ ģ
Ġproper ly
Ñģ Ðº
Ġà¤¹à¤ł à¤¯
ĠCent re
Ġà¥ł à¤¤
Ġcirc uit
Ġformatt ing
Ġmt DNA
Ġprec ision
2 20
S ource
c ont
i ro
Ã ¢
Ġà¤ķ à¤³
à¤¨ à¤§à¤°
à¤¤ à¤²à¤®
à¤µ à¤ªà¤¤
à¤¹ à¤°à¤®
à¤Ł à¤ļà¤°
à¤· à¤·
Ġà¤¤ à¤¬à¤°
Ġà¤¤ à¤¨à¤µ
Ġà¤Ł à¤ªà¤ķ
Ġà¤¡ à¤°à¤¹à¤®
à¤ħ à¤°à¤®
à¤¸à¤° à¤¨
Ġt ra
à¤ĺ à¤£
à¤ĩà¤¨ à¤µ
ĠâĢ Į
or em
Ġà¤ħà¤µ à¤ķà¤²à¤¨
Ġf a
Ġb di
Ġp ast
ĠS k
Ġn s
Ġà¤Ĩà¤ª à¤®
ur u
un a
ĠG h
à¤°à¤®à¤£ à¤¶
pl ace
ĠR oy
ad h
Ġà¥§à¥® à¥§à¥ª
ist ed
à¦ ¹
ĠK C
oc y
ĠO ct
Ġde b
10 8
16 6
à¥¯à¥ §à¥
Ġà¥¯à¥ ¯à¥
ĠÎ µ
ĠÎ »
ens is
In put
Ġ180 7
aw a
Ġaut hors
che me
Ġà¤ªà¤£ à¤ľ
à¥§à¥¯à¥® à¥ª
à¥ĩà¥ĩ à¥ĩ
Ġmain tenance
Ġoff ice
Ġcommun ities
Ġatt empt
Ġvis ual
hes is
Ġã Ĥ
Ġmonth s
ĠHe alth
Ġpop ulation
roll ed
ĠAut hor
ĠMed ical
iling ual
ĠHC V
Ġunc ertain
Ġpronunci ations
Ġcorrespond ing
Ġlay out
ĠFrame work
B e
D E
E A
U I
b i
b ody
c ent
c enter
l an
m en
t ar
Ù ĳ
Ġà¤ľ à¤¸à¤ª
à¤¶ à¤¤à¤ķ
à¤· à¤¡
à¤£ à¤¤à¤®
Ġà¤ı à¤ħ
Ġà¤ı à¤²à¤µ
Ġà¤Ĩ à¤²à¤µ
Ġà¤¯ à¤®à¤²
à¤¤à¤° à¤®à¤¹
à¤°à¤£ à¤ľ
à¤ī à¤§
à¤°à¤¹ à¤Ł
Ġà¤ķà¤® à¤¤à¤°
Ġ20 8
at io
Ġc ut
es is
Ġà¤Ĩà¤¯ à¤²à¤°
Ġf ix
it el
Ġin line
ic le
ĠS H
ĠS n
Ġà¤ľà¤² à¤ķà¤°
Ġ18 13
ĠC ast
ĠP s
ig er
ur ch
Ġà¤ľà¤Ĺ à¤¦à¤®
Ġ17 93
Ġfor ward
ĠW il
Ġe k
ĠG old
Ġà¤ıà¤® à¤µ
ĠN ap
ĠL ou
ĠH en
ĠH ouse
18 0
Ġr ot
Ġst ates
à¤ľà¤ª à¤¥
Ġà¤¤à¤Ł à¤°à¤ķ
if iers
ĠK umar
ce ption
Ġ21 7
Ġ22 6
12 3
Ġen ough
ud i
one y
Ġ180 2
Ġ180 9
ÙĪ ÙĨ
ĠAl so
Ġset t
Ġcomp any
à¥§à¥¯à¥Ń à¥®
Ġsome one
Ġmap s
Ġloc ated
Ġhy per
ĠSant a
ffic ient
Ġsqu are
ĠLim ited
B l
B ox
C he
E ach
N ew
j ar
k n
o S
Ġ esc
à¤° à¤ħ
à¤¤ à¤²à¤¤
Ġà¤¸ à¤¶à¤°
Ġà¤¸ à¤ĺà¤¨à¤¤
à¤ª à¤²à¤ķ
à¤Ĺ à¤¨à¤°
Ġà¤ħ à¤ľà¤µ
à¤ľ à¤¬à¤°
à¤· à¤¹
à¤£ à¤¬
Ġà¤Ĺ à¤ľà¤¨à¤µ
à¤Ī à¤¡à¤°
à¤ĩ à¤Ĩà¤ķ
à¤Ĩ à¤°à¤ľ
Ġà¤ħà¤² à¤«
à¤¦à¤° à¤Ĺà¤¢
Ġs rc
Ġc and
Ġà¤ªà¤¦ à¤¯
Ġp ict
Ġm ol
ĠM M
ĠM es
Ġà¤Ĩà¤ķ à¤¡
à¤Ĭ à¤¤à¤ķ
ĠP N
ĠA st
à¤ķà¤Ł à¤®
ag ram
ĠI A
ĠD a
à¤ķà¤ª à¤Ł
ul us
id ence
ĠR C
ĠR OM
à¤ħà¤² à¤µà¤°
Ġ21 5
ĠO R
ang a
ri end
10 2
Ġk ing
Ġà¥§à¥Ń à¥¦à¥¦
Ġcon n
Ġà¤ķà¤¤ à¤Ī
Ġà¦ ķ
ĠQ ue
à¥§à¥¯à¥¯à¥ «
Ġà¥§à¥®à¥® à¥®
Ġà¥§à¥®à¥® à¥«
à¥§à¥¯à¥Ń à¥¯
pur a
à¤ªà¤°à¤µ à¤²à¤¯
Ġà¤ħà¤µà¤¤à¤°à¤£ à¤ķ
Ġtest cases
press ion
Pro ject
Ġconc ern
________________ ________________
Ġmc B
Ġenc our
Ġbrow sers
Ġsch ool
ĠDel hi
ĠBrit ish
rec ated
Ġwind ow
Af ter
G S
U p
n ic
o int
t ra
à¤° à¤ľà¤¬
à¤¨ à¤µà¤¸
à¤¨ à¤Ĺà¤¨
à¤² à¤ļà¤ķ
à¤µ à¤²à¤¯
à¤Ł à¤Ī
à¤Ł à¤Ľ
à¤ľ à¤µà¤°
à¤ľ à¤°à¤µ
à¤¶ à¤«
Ġà¤¦ à¤¦
Ġà¤° à¤¦à¤°à¤«
à¤§ à¤¨à¤ķ
Ġà¤Ĺ à¤®à¤²
Ġà¤Ķ à¤¸
Ġà¤ı à¤ıà¤ļ
Ġà¤ħà¤¨ à¤¹
à¤Ĩ à¤Ĺà¤®
à¤ĵ à¤²à¤®
à¤ħ à¤¸à¤°
Ġà¤īà¤ª à¤ĸà¤£
on ia
ĠâĢ ļ
Ġà¤Ĩà¤§ à¤°
ar ning
Ġà¤¸à¤° à¤Ĺà¤¨
Ġà¤ħà¤ķ à¤¶
Ġb ond
it r
it ar
Ġp ix
à¤¨à¤¤ à¤¯
Ġ5 30
à¤²à¤¬ à¤¹
à¤²à¤ķ à¤ª
Ġm ath
ĠM E
ĠS uk
à¤¨à¤µ à¤¯
ĠP age
ĠA LS
Ġà¤¬à¤° à¤Ĺ
Ġà¤Ĩà¤Ĺ à¤¸
à¤Ńà¤µ à¤¶
Ġà¥¨à¥¦à¥ ¬
ĠD OS
il a
ul f
ul i
ul s
Ġà¤ıà¤¨ à¤Ĩà¤Īà¤Ł
ro id
ĠB ah
à¤Ĩà¤° à¤ıà¤«
à¤ľà¤¹ à¤¸
ĠE F
Ġbe come
Ġà¥ª à¥¦à¥¦à¥¦
ĠF ree
à¦ ¶
oc ument
Ġà¤ħà¤¸à¤® à¤¯
Ġ27 3
ind er
Ġtr ad
ĠCh and
Ġ37 5
du ces
ĠPr es
à¤Ńà¤² à¤Ĺà¤¢
à¥§à¥¯à¥¯à¥ ª
Ġà¥§à¥®à¥® à¥§
Ġind ust
Ġà¥§à¥®à¥¯à¥ §
à¥§à¥¯à¥® à¥¯
ole an
Ġ177 2
Ð¸ Ðº
ĠSp ace
Ġro ll
Ġà¥§à¥®à¥ª à¥®
Ġext ension
ĠHT TP
ĠIm age
Tem porary
ĠFeb ruary
ampa ign
D D
J ain
M ult
h as
m o
Ï ħ
à¤¨ à¤¡à¤¨
à¤¤ à¤¹à¤¤
à¤² à¤Ńà¤°
à¤® à¤°à¤¤
à¤® à¤¯à¤ķ
à¤¹ à¤²à¤¯
à¤ª à¤¦à¤®
Ġà¤ħ à¤¹à¤°
à¥Ĥ à¥ħ
Ġà¤¬ à¤²à¤¤
à¤· à¤°à¤ķà¤°
à¤ı à¤¨à¤ķ
Ġà¤¸à¤® à¤°à¤ķ
à¤Ĩ à¤ĺ
Ġà¤¡ à¤²à¤¹
âĢ Ķ
à¤¸à¤¨ à¤®
à¤ĺ à¤¸
Ġs n
Ġs ound
Ġà¤ħà¤° à¤¨
Ġc arbon
Ġb road
Ġp ath
Ġp sych
ĠM ark
à¤µà¤ª à¤²
ĠS un
Ġn b
ĠC IS
as is
ĠP ur
ĠI UCN
Ġà¤ıà¤² à¤Īà¤¡
Ġsp l
ĠU s
à¤²à¤® à¤ª
id ed
Ġà¤ıà¤¨ à¤ıà¤¸à¤Īà¤ıà¤²
ro c
ĠB A
ĠB eng
ĠN Z
ĠL ab
ĠL og
ĠL ive
Ġre asons
à¦ Ĺ
Ġà¥§à¥¬ à¥¦à¥¦
Ġpro ve
Ġcon se
Ġcont act
Ġnames paces
à´ Ĥ
áĢ ¸
sh ip
190 3
ĠÐ ¾
Ġinst ructions
Ġerr ors
à¥§à¥¯à¥¬ à¥«
Ġallow ed
con fig
Ġmat hemat
Ġmod ern
Ġproper ties
plic it
Ad apter
Ġrun ning
ĠCan ada
Ġfact or
vers e
Ġcrit eria
Ġvaria bles
van ced
Ġflo at
ansl ate
ĠDav id
eturn s
D iv
S F
S earch
T H
l ig
p art
Ù Ģ
à¤° à¤Ķà¤¨
à¤¤ à¤ªà¤¸
à¤ķ à¤¦à¤°
Ġà¤¹ à¤¶
à¤¦ à¤¯à¤¸
à¤ª à¤Łà¤¤
à¤ľ à¤łà¤°
à¤ľ à¤¬à¤²à¤ª
Ġà¤¨ à¤¸à¤°
Ġà¤¬ à¤Ľà¤µ
à¤¶ à¤¯à¤µ
à¤¡ à¤Ľ
à¤¡ à¤°à¤¶
Ġà¤ī à¤Īà¤Ĺ
Ġà¤ı à¤ĵà¤ıà¤²
Ġà¤ĩ à¤ĸ
à¤Ī à¤ıà¤²
à¤µà¤° à¤Ĺ
Ġà¤Ł à¤¹
on n
à¤¯à¤° à¤¶
à¤ļà¤¨ à¤ª
Ġs at
Ġc od
Ġ3 15
ĠT or
ĠT ur
Ġm s
ĠM GM
ĠS em
ĠS ev
Ġà¤Ŀ à¤²
Ġn or
as p
à¤ıà¤¸ à¤¯
ĠP a
ĠP ort
ĠP ortal
ĠI NS
om er
et a
Ġh ol
Ġ15 36
Ġl l
ĠD M
Ġ17 56
Ġ17 63
ĠB AF
ĠG overnment
ĠE v
ĠH M
qu est
ĠR I
ĠR AM
ĠR CA
ĠF M
Ġr a
ia b
Ġà¤Ĺà¤¢ à¤µ
à¦ ľ
ith m
Ġ22 8
ak k
Ġà¤ªà¤² à¤µà¤²
Ġà¤ķà¤¸ à¤°à¤¤
Ġcom ments
Ġà¤ĵà¤µà¤° à¤¹
hen s
ĠY am
Ġtrans parent
ÙĪ ÙĦ
har m
Ġ97 8
ĠAm b
Ġà¥§à¥®à¥¬ à¥«
Ġsc ale
Ġline ar
ĠFr ench
Ġent ity
Ġass um
Ġsupport s
oun ter
Ġident ity
Ġinc or
Ġsk in
Ġnav igation
ĠAN C
atur ed
Ġvers ions
ĠEngine ering
Ġà¤Ŀà¤ķ à¤Ŀ
C at
J PG
b d
b ook
m ost
p adding
r id
r ome
w ord
Ø ·
Ġ ign
Ġà¤ķ à¤¸à¤¨
Ġà¤® à¤¤à¤µ
à¤µ à¤Ĺà¤¤
à¤ª à¤¹à¤¸
Ġà¤ħ à¤ĸà¤¨
Ġà¤µ à¤¨à¤®
Ġà¤¦ à¤®à¤ķ
Ġà¤° à¤¸à¤®
à¤£ à¤ļ
Ġà¤ı à¤ı
Ġà¤Ĩ à¤¬à¤¨
à¤Ń à¤ľà¤¨
Ġà¤¸à¤® à¤ª
Ġà¤ĩà¤¸ à¤µ
Ġà¤ħà¤¨ à¤«
Ġà¤ĸ à¤°à¤µ
à¤ĵ à¤¹
à¤Ľ à¤ķ
à¤ħ à¤ªà¤ķ
à¤²à¤¨ à¤ķà¤°
Ġà¤Ī à¤ı
à¤¦à¤° à¤µà¤¨
Ġà¤ĵ à¤®à¤ª
or ry
Ġs ens
Ġs ummary
Ġc itations
Ġc lean
à¤¡à¤² à¤ķ
le te
ic o
Ġm is
Ġm em
Ġm and
ĠM os
ĠS R
Ġà¤ĳà¤« à¤°
Ġà¤ĳà¤« à¤²
Ġà¤¬à¤² à¤¶
ĠP P
ĠP ap
ĠP LC
ag a
ag ing
à¤ĩà¤¡ à¤¸
Ġà¤Ĩà¤Ī à¤ıà¤²
à¥Ń à¥¦à¥¦
Ġà¤ıà¤² à¤Ł
Ġsp ect
Ġth ings
ĠB ank
Ġg raph
ĠE duc
à¤®à¤£ à¤µ
à¤§à¤ķ à¤Ĺà¤£
st ruct
if orm
ĠO ri
16 0
ain t
ip h
ip al
à® ª
ath i
Ø± ÙĬ
à´ ¨
ĠCom put
sp ot
Ġaut o
Ġcomp ar
Ġà¥§à¥®à¥® à¥©
Ð° ÑĢ
à¥§à¥¯à¥« à¥¬
Ġbl urb
omet ric
Ġrec ent
Ġident ify
Ġï ¼
Ġà¤ķà¤²à¤¨ à¤µ
ÃŃ a
Ġdig it
Ġmethod s
Ġeng lish
Ã³ n
Ġradi us
ĠRep ublic
Ġes p
Ġeduc ation
ĠSept ember
A m
B R
C opy
E n
H ash
W D
m m
m ail
r ia
v est
É ĳ
Ù ī
á ¸
Ġ er
Ġ Ú¯
à¤° à¤°à¤¸
à¤² à¤Ľ
Ġà¤® à¤Łà¤ķ
Ġà¤® à¤°à¤ķà¤°
Ġà¤ľ à¤¸à¤¨
à¤¶ à¤Ł
à¤· à¤®à¤²
à¤¬ à¤ĺ
Ġà¤ī à¤£
Ġà¤ı à¤¯
Ġà¤ı à¤¬à¤²
Ġà¤ļ à¤®à¤ļ
à¤°à¤£ à¤ª
à¤ķà¤° à¤°
à¤ł à¤¡
à¤°à¤¸ à¤²
Ġà¤§ à¤ľ
à¤ªà¤° à¤°
Ġ19 1
Ġà¤ĺ à¤Ī
Ġà¤ĺ à¤°à¤µ
à¤¯à¤® à¤¸à¤¨
à¤ŀ à¤ķ
à¤¯à¤° à¤ª
Ġs ix
Ġs ounds
al an
à¤µà¤² à¤ķ
Ġf all
Ġp ri
Ġà¤ħà¤¸ à¤²à¤®
Ġà¤ħà¤ª à¤ķà¤°
Ġà¤¹à¤° à¤ª
à¤Łà¤ķ à¤Ł
Ġm ai
Ġm ilitary
ĠM er
ĠM ont
Ġà¤¬à¤¦ à¤ĸ
ag ue
un it
à¤Ĩà¤Ī à¤ĵ
Ġà¥¨à¥¦à¥ ª
Ġà¤ľà¤Ĺ à¤¦à¤²à¤ª
Ġ17 48
Ġfor e
à¤Ĳ à¤¤à¤°
ul ed
ĠB ang
Ġg lob
ĠG i
Ġà¤ıà¤® à¤Ĩà¤°à¤Ĩà¤Ī
ol f
ĠN ame
ĠR ich
à¤®à¤£ à¤Ĺà¤¢
18 60
18 70
Ġà¤¤à¤Ł à¤¬
Ġ30 2
empl ates
Ġà¤ħà¤ľ à¤¹à¤°
à¦ §
ĠK e
Ġ21 4
ĠO x
Ġk Hz
à¤ıà¤ļ à¤¬
ain er
ĠØ Į
ans ion
Ġà¤¡à¤° à¤¬à¤¨
Ġhe ld
Ġà¤īà¤¦à¤¯ à¤Ĺ
Ġà¤Ĩà¤ĩ à¤¶
ĠUS D
ĠAr ab
ĠÃ ī
ĠPr ess
Ġcomp at
AS IK
Ġà¥§à¥®à¥¯à¥ ¨
Ġà¥§à¥®à¥¬ à¥Ń
Ġformat s
Ġcontain er
Ġà¤Ĩà¤²à¤® à¤Ĺ
ĠÙħ ØŃÙħØ¯
gan j
à¥§à¥¯à¥¨ à¥¦
Ġvis ible
sc ope
ĠHy dro
Ġarch itect
Ġsur face
Ġiss ues
Ġcond ition
ĠAf ric
Ind ia
ynam ic
ĠJu ly
Ġelectr ons
ĠLat in
ĠFOOTNOT E
Ġà¤ĵà¤ĸà¤² à¤¢
ĠGeorg e
Ġdiacrit ics
ĠEric sson
B D
G O
S tr
U R
c urrent
n ew
y u
Ù ¹
á ±
Ġà¤ ±
à¤¨ à¤°à¤ķ
à¤² à¤¢
Ġà¤¸ à¤°à¤®
Ġà¤¹ à¤°à¤¯
à¤® à¤ľà¤¨
Ġà¤® à¤µà¤¨à¤¡
à¤Ĺ à¤°à¤¸
à¤ľ à¤¹à¤°
Ġà¤° à¤ľà¤¸
à¤· à¤ļ
à¤· à¤Ńà¤°
à¤¬ à¤¦à¤¨
Ġà¤² à¤«
Ġà¤¤ à¤²à¤¤
Ġà¤¤ à¤²à¤¬
à¤ı à¤ıà¤®
à¤ı à¤¡à¤µ
à¤°à¤¤ à¤¤
Ġà¤ħà¤¨ à¤¬à¤¨
à¤ī à¤ļà¤°
à¤°à¤® à¤®
à¤ł à¤¦
à¤ħ à¤¨à¤¸
Ġà¤§ à¤¤
à¤¶à¤¨ à¤®
à¤¸à¤¨ à¤Ĺà¤°
à¤ĺ à¤®à¤¶
à¤ĩà¤¨ à¤Ł
Ġs cience
à¤°à¤µ à¤§
à¤µà¤¸ à¤¤
Ġà¤Ĳ à¤Ĺ
Ġà¤¸à¤° à¤ľ
à¤¤à¤ķ à¤µ
Ġ3 22
Ġb log
à¤²à¤¬ à¤¦
Ġin ternal
à¤ĸà¤¨ à¤²
Ġo v
à¤¥à¤® à¤ª
à¤Ĭ à¤²
ĠP ri
ĠA R
à¤¯à¤² à¤²
à¤°à¤ľ à¤µ
ĠI d
ĠI MA
à¤¯à¤ª à¤Ł
Ġh ar
Ġh oriz
Ġ15 30
Ġ17 94
ĠN et
ĠN ews
ĠL i
ĠH istory
à¤®à¤Ĺ à¤¹
à¤Ķ à¤§
à¤ıà¤® à¤µ
à¤ıà¤® à¤Ĩà¤Īà¤Ł
Ġr ate
Ġr iver
Ġà¤ķà¤ł à¤¬
Ġv e
end ra
Ġon es
Ġon line
Ġse x
Ġk h
Ġare as
Ġwh ose
pt ions
Ġch apter
Ġpr inc
à¤ĩà¤« à¤¸
Ġi ii
pr otection
Ġà¥¨à¥ª à¥¦
à° ķ
à´ ®
Ġtw inkle
ru ction
erv ed
à¥§à¥¯à¥® à¥©
Ġinter face
à¥§à¥¯à¥ª à¥¦
Ġem p
Ġá º
Ġass igned
Ġtechn ical
Wh ile
ograph ical
ĠSer ies
Ġanal ysis
Ġcomput er
Ġdial og
ĠAAA AAA
Ġà§ ·
ellig ence
Ġà¤Ńà¤Ĺà¤¦ à¤¡
Ġdisambigu ation
N av
S upp
b ert
g a
g i
g o
h tm
l ang
n am
t ec
y al
Î ³
Ð ·
ï »
Ġ Ç
Ġ ib
Ġà¤ķ à¤ķà¤¡
à¤² à¤®à¤°
Ġà¤¹ à¤ļ
à¤® à¤²à¤¨
à¤ľ à¤°à¤¸
à¤ľ à¤¯à¤¤
à¤§ à¤Ĺà¤²à¤¨
à¤ļ à¤ªà¤°
Ġà¤ĩ à¤ĵà¤¨
à¤Ĩ à¤ĩà¤¸à¤²
à¤ī à¤µ
à¤Łà¤° à¤ļ
à¤¬à¤° à¤ª
an pur
à¤®à¤¨ à¤ª
Ġà¤¸à¤¹ à¤¤
Ġà¤ħà¤® à¤ľà¤¦
Ġà¤ĩà¤¨ à¤¹
Ġf ixed
Ġb anner
Ġb irth
Ġp ract
Ġa ward
ĠM D
Ġà¤Ŀ à¤ªà¤Ł
à¤®à¤² à¤¦
à¤¨à¤µ à¤ķ
Ġà¤¸à¤¤ à¤²à¤ľ
ĠA lex
ĠI ATA
à¤¸à¤¤ à¤¤
Ġà¥© à¥¨à¥¦
à¤Ĩà¤Ī à¤ıà¤¨à¤ıà¤¸
Ġà¥¨à¥¦à¥ ©
ĠD ata
ĠU C
ul ated
ĠB ad
Ġ16 20
Ġ16 60
ap se
Ġà¤Ĺà¤£ à¤ª
ĠL P
ĠL es
ĠL ife
à¤Ķ à¤¸à¤¤à¤¨
ĠR ad
ĠR aw
ĠR oad
Ġà¤¸à¤² à¤«
Ġà¥ª à¥«à¥¦
18 50
Ġà¤¸à¤ļ à¤¦
oc r
à¤¦à¤µ à¤Ī
Ġse ven
Ġ23 7
Ġà¤®à¤ķ à¤¦
10 7
Ġ28 5
Ġfr ont
à¤§à¤µ à¤Ĺà¤¢
Ġcom e
ĠGam es
our ced
Ġà¥¯à¥ §à¥
Ġen able
Ġhe at
Ġà¤ħà¤ķà¤¬à¤° à¤ª
In st
ail ed
Ġà¦ ª
Ġà¤°à¤¥ à¤¯
ann el
erv ation
Ġà¥§à¥®à¥¬ à¥¯
Ġà¥©à¥ª à¥¨à¥©
Ġà¤Ĩà¤ī à¤Łà¤°
Ġele ction
ĠEn ter
Wh at
RC ID
Ġredirect s
Ġlev els
ĠAmeric a
Ġlead ing
Ġenter ed
ĠDec ember
osph ere
Ġill ust
ĠBAF TA
1 16
1 30
L ike
N ot
O I
S cript
l ation
m ission
o is
r ical
t ure
â µ
Ġ era
à¤¾ à¥ĵ
à¤¨ à¤°à¤®
à¤² à¤¹à¤¸
à¤ª à¤«
Ġà¤ľ à¤ľà¤®
à¤Ĺ à¤¸à¤®
à¤Ł à¤ķà¤²
Ġà¤¬ à¤Ĺà¤¡
à¤¶ à¤®à¤¶
à¤§ à¤ķà¤²
à¤£ à¤ĺ
Ġà¤ī à¤ĩà¤Ĺ
Ġà¤ı à¤¹
à¤ı à¤Łà¤®
à¤Ń à¤¶
à¤Ī à¤Ĺà¤°
à¤« à¤°à¤¸à¤¨
Ġà¤Ł à¤ļà¤¸
à¤ł à¤²à¤¨
à¤ħ à¤µà¤¨
à¤¢ à¤°à¤ª
à¤¯à¤® à¤ķ
à¤ĺ à¤ľ
à¤·à¤£ à¤®
à¤°à¤µ à¤ļ
Ġà¤Ĳ à¤²à¤¨
al id
Ġc a
Ġà¤Ĩà¤° à¤ıà¤®
à¤Ĺà¤² à¤¬
Ġa ge
ĠM A
ĠM r
ot i
ly ing
à¤°à¤ľ à¤ķ
Ġà¤ıà¤¸ à¤µ
lo id
Ġh ope
Ġà¤Ńà¤° à¤¸à¤ķ
Ġth er
ĠU FC
ĠB y
ĠN u
ĠN BA
ĠE le
ĠH em
el ine
ut t
ut es
Ġst y
Ġ25 5
ist ers
à¤®à¤ļ à¤Ł
Ġor ange
à¤ıà¤« à¤ıà¤«
ĠO ffice
Ġà¤¤à¤¨ à¤ĸ
ĠJ ag
Ġcon version
Ø§ Øª
ĠThe ory
ĠY ork
Ġà¤ªà¤¥ à¤Ń
In v
Ġ180 8
à´ ¤
Ġà¥§à¥¦à¥ §à¥
Ġany thing
Ġcre ates
att le
Ġam b
Ġam pl
ĠEng land
à¤ĩà¤ªà¤° à¤²
Ġà¥§à¥®à¥Ń à¥©
ĠØ§ÙĦ Ùħ
cl us
Ġpart y
Ġà¤°à¤¤à¤¨ à¤¸
Ġact ual
Ðµ Ð²
vent ion
Ġpoint s
à© °
Ġbuil d
Ø§Ø ¦
Ġeas ily
Ġcolumn s
ĠSer ver
Ġmax imum
ĠmcB oto
0 30
C itation
D r
H S
L anguage
P re
V A
d en
k en
o a
p op
r ot
Â º
Ñ Į
à¤° à¤ªà¤¨
à¥į à¥į
à¤Ĥ à¥ĩ
à¤¤ à¤®à¤¨
à¤ķ à¤ļà¤°
Ġà¤¹ à¤°à¤¦à¤¯
Ġà¤® à¤·
à¤ª à¤µà¤¤
Ġà¤ħ à¤Łà¤°
à¤ľ à¤®à¤¨
à¤£ à¤®à¤¯
Ġà¤Ķ à¤«
Ġà¤ļ à¤¦
Ġà¤ļ à¤°à¤¸
Ġà¤ĩà¤¸ à¤¹
à¤Ĩ à¤«
à¤ī à¤°à¤ķ
on str
à¤¯à¤® à¤°
à¤¯à¤® à¤¤
Ġà¤Ī à¤§à¤¨
Ġ20 4
Ġ20 9
Ġà¤ķà¤Ī à¤¯
Ġp ipe
Ġà¤ħà¤ª à¤¹
à¤ªà¤ķ à¤¡
ĠT ele
Ġw in
Ġd ropdown
as i
ĠP M
ĠP S
ĠA ward
à¤ķà¤Ł à¤ª
ag h
Ġ8 80
us er
Ġà¤¤à¤¬ à¤¤à¤ķ
Ġà¤Ńà¤° à¤¥à¤°
Ġl ab
Ġà¥¨à¥¦à¥ Ń
ĠD em
Ġ17 40
Ġ17 39
Ġ17 68
ik h
ĠN D
ĠN or
à¤ıà¤² à¤Ł
à¤ķà¤® à¤ľ
ĠK ann
Ġ24 3
Ġpar am
Ġ22 3
Ġà¤¨à¤ľ à¤«
ri er
17 0
Ġà¥§à¥© à¥«
Ġun def
à¥¨à¥¦à¥§à¥ ¯
ob er
Ġà¤®à¤ł à¤µ
à® ¯
à® µ
Ġà¤°à¤£ à¤Ń
Ġdes ired
Ġso lution
Ġà¥§à¥§à¥ §à¥
ĠSh ah
Ġout side
Ġà¤Ĩà¤¸à¤¨ à¤¸
à¥§à¥¯à¥® à¥¨
ĠTr ack
ĠØ§ÙĦ ÙĦÙĩ
ĠCO VID
à¤¤à¤°à¤¤ à¤®
Ġá »
Ġà¨ ¸
ĠÚ© ÛĴ
Ġlaw s
Ġconc ent
anj i
EE E
Ġmov ement
tain ed
ĠInt el
ĠElect ron
ĠNT FS
Ġiss ue
Ġcover ed
Ġmean ing
Ġprim ary
Ġimpro ve
ĠDist rict
Ġcour se
ĠWikipedi as
âĺ ħ
Ġà¥¦à¥¨à¥¯à¥¨ à¥Ń
F air
G F
U M
f ox
p a
r anslate
u ous
Ï ī
Ġà¤¸ à¤ľà¤¨
à¤® à¤¬à¤²
Ġà¤ª à¤²à¤¨
à¤§ à¤§à¤°
Ġà¤Ń à¤°à¤¦
à¤ı à¤Ĩà¤°
Ġà¤ıà¤ķ à¤µà¤°
Ġà¤¥ à¤¨
Ġà¤¸à¤® à¤ľ
à¤°à¤£ à¤ķ
à¤°à¤ķ à¤¶
Ġà¤ĸ à¤ľà¤°
à¤ªà¤° à¤ª
in us
an o
à¤ĺ à¤µà¤°
Ġà¤ĵ à¤¨à¤²
Ġà¤Ĳ à¤µ
Ġà¤¸à¤° à¤¬à¤ľ
Ġ4 60
à¤ķà¤¨ à¤Ĺà¤°
à¤°à¤¨ à¤°
Ġm al
as ing
ĠA E
ent h
Ġ17 29
à¤ķà¤¡ à¤®
pl ies
Ġà¤ħà¤¦ à¤¬
ch a
ch i
ĠF re
th a
Ġà¤Ńà¤µ à¤Ń
à¤¨à¤ª à¤Ł
à¤ķà¤µ à¤ļ
ĠK n
Ġ23 4
Ġ23 9
ĠO C
à¤Ĺà¤£ à¤¤
à¤Ĺà¤£ à¤ªà¤¤
à¤²à¤Ń à¤¦
and om
Ġit alic
Ġ27 8
Ġnot es
ec ause
Ġà¤Ĩà¤¦à¤® à¤ĸ
Ġ80 2
à¤ļà¤® à¤¢
ian ce
Ġle arn
Ġen s
Ġà¤ĵà¤µà¤° à¤¸
Ġcont est
Ġcolor s
Ġab solute
Ġsub pages
à² ¤
aj a
ĠTh ere
Ġà¤ħà¤µà¤² à¤®
ĠÐ ¡
ÙĬ Ø©
à¥§à¥¯à¥® à¥Ń
à¥§à¥¯à¥® à¥¬
Ġà¥§à¥®à¥Ń à¥§
cript ions
Ġá ¼
Ġmar ath
Ġelect ric
Ġcap tion
ĠSe a
Ġknow ledge
Ġà¤®à¤ĸ à¤®à¤²
Arg uments
Ġsw itch
ĠAc ade
hol der
Ġlic ense
osp ital
' re
1 000
4 50
A ut
C all
E ng
S H
g est
r ich
Î ´
Ġ ë
à¤¨ à¤µà¤ª
à¤ķ à¤¶à¤¨
à¤ķ à¤¢
à¤ķ à¤¦à¤²
Ġà¤¹ à¤²à¤¸
à¥Ī à¥Īà¤Ĥ
à¤Ĺ à¤¬à¤²
Ġà¤µ à¤¸à¤²
à¤Ł à¤Ĩà¤īà¤Ł
à¤ľ à¤ĺ
Ġà¤¨ à¤Ĺà¤®
Ġà¤Ĺ à¤¹à¤¨à¤¤
Ġà¤Ĩ à¤Ĺà¤¤
Ġà¤ĩ à¤¡à¤²
à¤Ī à¤ĺà¤°
à¤Ī à¤ĳà¤ķ
à¤ĩ à¤ĸ
à¤µà¤° à¤¦
Ġà¤¡ à¤Łà¤ķà¤°
Ġà¤¡ à¤µà¤²à¤ªà¤®
à¤ľà¤¨ à¤¦
à¤ľà¤¨ à¤ķà¤°
Ġà¤Ľ à¤ªà¤µ
Ġà¤²à¤Ĺ à¤ķà¤°
à¤Ĺà¤° à¤ľ
à¤¸à¤® à¤¬à¤°
à¤¼à¤¿ âĢį
Ġs a
Ġs itu
à¤ªà¤¤ à¤²
Ġà¤¦à¤° à¤ĸ
à¤ķà¤°à¤£ à¤®
à¥įâĢį à¤¾
Ġà¤ªà¤¡ à¤°
ĠT al
ĠM oh
re me
ĠS ome
Ġn ever
à¤®à¤² à¤Ī
ĠC F
ou d
ĠP os
ot rop
à¤ĩà¤¡ à¤¨
à¤ĩà¤¡ à¤¬
Ġà¤īà¤² à¤®
Ġà¤Ĩà¤¸ à¤µ
Ġ15 45
Ġsp ir
Ġl i
Ġl ed
à¤Ĩà¤Ī à¤¯
à¤Ĩà¤Ī à¤ıà¤«
ĠD ate
ĠU l
Ġ17 86
à¤Ĳ à¤ª
ĠB ur
Ġ16 05
ĠN OT
ĠH ead
ĠR em
18 99
18 85
à¤²à¤Ĺ à¤ĩà¤¨
Ġà¥§à¥® à¥§à¥®
Ġr en
Ġr ating
Ġst op
ab il
Ġà¤ħà¤¶ à¤«
Ġse ason
à¤ħà¤® à¤°à¤ķ
and i
Ġex plicit
Ġnot ranslate
ĠJ h
art ment
Ġad ap
ple x
ĠX V
Ġfont s
ok ia
Ġà¤ħà¤µà¤¤ à¤²
Ġj ud
ĠY ear
Ġà¤ħà¤¸à¤° à¤Ĺ
ond a
ĠAr my
ann a
Ġà¥§à¥®à¥® à¥¨
row n
Ġà¥§à¥®à¥« à¥¯
har a
Ġreturn ed
Ġà¤®à¤¯ à¤ĸ
ĠComm ittee
Ġelect ro
à¥§à¥¯à¥© à¥¦
Ġman agement
Ġprocess ing
Ġlook s
ĠBC E
à¤ıà¤ı à¤ıà¤«
ĠXX X
ĠØ¹ Ø¨
Ġevery one
Ġcy cle
tip on
tip off
Ġà¤Ĺà¤¹ à¤®à¤°
ĠChar les
call back
ĠNY SE
Ġonmouse out
Ġonmouse over
ĠVis ual
Ġdefin ition
ĠHP V
Ġalphabet ical
unj ab
Ġter rit
ĠJose ph
ĠNap ster
Ġnb sp
' m
7 90
B E
H g
H atnote
L P
L ocation
N ames
O ption
R eg
S y
f ind
s is
Î ¸
Ñ ħ
Ù Ĵ
ð Ŀ
Ġ Û
à¤¸ à¤µà¤¨
à¤¸ à¤ĳà¤°
à¤² à¤¤à¤°
à¤¦ à¤¯à¤¨
Ġà¤ľ à¤Ĺà¤°
à¤Ĺ à¤¬à¤¹
Ġà¤ħ à¤ľà¤¬
à¤ľ à¤²à¤¸
à¤· à¤ļà¤°
à¤£ à¤µà¤°
à¤£ à¤Ńà¤ķ
Ġà¤¶ à¤Ĺ
Ġà¤ıà¤ķ à¤²à¤µ
à¤°à¤¤ à¤ª
Ġà¤ħà¤¨ à¤ļ
à¤ħ à¤²à¤¬
à¤°à¤¦ à¤ľ
Ġt reat
Ġt rade
à¤¯à¤¤ à¤ķ
à¤ĩà¤¨ à¤«
at ives
à¤¦à¤° à¤¨
Ġs us
à¤Ŀ à¤¬
Ġa k
Ġà¤¹à¤® à¤ľ
Ġ5 60
Ġ5 70
ĠT ar
ĠT winkle
Ġd atabase
ĠM IT
ĠS ol
am ine
ĠC re
à¤®à¤° à¤²
Ġà¤¨à¤µ à¤ķ
ag er
om i
à¤¯à¤ª à¤°à¤ķ
em ia
à¤®à¤¸ à¤Ń
Ġh o
Ġh app
Ġà¥© à¥©à¥¦
lu tions
Ġth orough
ĠD irect
ĠU P
Ġ17 91
ul ly
ĠE PA
ĠH ow
ĠR T
ĠF irst
à¤ıà¤¨ à¤ıà¤¸à¤ıà¤¸
Ġst ory
ir r
à¤ĩà¤® à¤Ł
Ġ21 00
10 1
ak er
à¤°à¤¥ à¤®à¤¤
op ic
tic s
ĠJ apan
Ġ40 4
Ġcon j
Ġgo es
ish ra
ail way
Ġso on
Ġyour self
sp acing
Ġà¥§à¥®à¥Ń à¥«
ĠØ§ÙĦ Ø
à¥§à¥¯à¥¬ à¥Ń
à¥§à¥¯à¥ª à¥«
Ġaf d
Ġá ŀ
ĠAd d
à¤ħà¤¹à¤® à¤¦à¤¨à¤Ĺà¤°
Ġcell padding
ĠMan agement
Ġvis it
anc ial
ĠÚ© ÛĮ
Ġkey board
Com m
ĠSystem s
Ġbo olean
ĠCont rol
Ġdem onstr
ĠDev anagari
Ġà¤¬à¤²à¤¬ à¤¨
Ġjo in
ĠLong champ
ĠWM V
ĠServ ice
Ġbrack ets
ĠRob ert
Ġsequ ence
Ġcry st
Ġvolt age
Ġinteg er
ĠAuthor ity
Ġprove it
Ġundef ined
3 40
D isplay
I F
L O
L ang
P ur
W B
b log
c el
d y
f low
h s
m at
m box
v ille
w ell
Ã ª
Î ²
ï ¿
à¤° à¤ıà¤µà¤°
à¤¨ à¤¯à¤ª
à¤² à¤ªà¤®
Ġà¤¹ à¤Ĺ
à¤® à¤¤à¤°
à¤® à¤°à¤®
Ġà¤® à¤ĸà¤¦
à¤¹ à¤¸à¤°
Ġà¤ľ à¤Ī
à¤Ĺ à¤¹à¤¨
à¤Ĺ à¤ĵà¤µà¤°
à¤ľ à¤¸à¤®à¤¨
Ġà¤¨ à¤Ń
Ġà¤¨ à¤²à¤µ
Ġà¤¨ à¤Łà¤µà¤°
Ġà¤¬ à¤Łà¤°
Ġà¤Ĺ à¤°à¤¦à¤¨
à¤ļ à¤ªà¤²
Ġà¤ī à¤µ
Ġà¤ı à¤ıà¤®à¤ıà¤²
Ġà¤¤ à¤°à¤¨
à¤ĸ à¤°à¤£
Ġà¤ªà¤° à¤ļ
à¤Ī à¤¹
à¤Ī à¤ĸ
Ġà¤ļ à¤Ĺ
à¤¾à¤Ĥ à¤Ĥ
à¤ľà¤¨ à¤ª
à¤¶à¤¨ à¤ª
in y
à¤¯à¤® à¤ª
Ġ20 23
Ġà¤¸à¤¹ à¤²
ar es
al me
Ġ3 23
Ġ3 26
à¤īà¤¨ à¤«
Ġf ocus
Ġà¤ħà¤¸ à¤Ĺà¤°
Ġa st
Ġ4 10
Ġà¤¤à¤¹ à¤²à¤ķ
Ġw omen
Ġm ember
re a
re es
ĠC hem
ĠC MOS
à¤ıà¤¸ à¤Ĩà¤°
ĠP op
ĠA V
Ġà¤Ĩà¤Ī à¤ķ
Ġà¤Ĩà¤Ī à¤ĵà¤ıà¤¸
Ġà¤ıà¤¸ à¤Īà¤¸
à¤·à¤¯ à¤Ĺà¤¤
un te
lu b
Ġà¤ķà¤¨ à¤«
Ġ16 89
ĠN ot
Ġre ally
ĠH istor
18 00
18 89
18 91
ĠF ord
à¤¶à¤¤ à¤ªà¤¥
ers e
Ġst age
Ġv fd
Ġ30 5
Ġal though
Ġ24 6
ĠV o
15 2
Ġà¤ıà¤ļ à¤ıà¤®à¤ıà¤¸
à¤ĩà¤ª à¤°à¤¸
The n
Ġ26 8
Ġà¥§à¥¨ à¥Ń
Ġà¤Ĺà¤² à¤«à¤¡
ip se
our t
ĠX box
Ġen abled
Ġx fd
à° ¨
Ġdef ine
à² ¦
rop ical
att r
IS O
à½ ´
Ġà¥§à¥®à¥Ń à¥®
Ġà¤Ĩà¤Īà¤ıà¤¸ à¤Ĩà¤Īà¤ıà¤¸
ĠEx pl
Ð¾ ÑĢ
Ġà¤ªà¤ĸ à¤µ
Ġtechn ology
Ġà¥§à¥®à¥© à¥Ń
Ġlong itude
Ġexp on
à¤ħà¤ĸ à¤¬
Ġatt ack
val id
Ġdep recated
Ġresp ons
Ġà¤ıà¤ıà¤® à¤ľ
Ġnumer als
ecial ly
ĠSec ond
Micro soft
ĠVII I
Ġrad io
Ġmus ic
Ġden omin
Ġrecomm ended
Ġexact ly
Ġupd ated
Ġfrequ ency
inf o
ĠNov ember
Ġphon ology
Che ck
Ġfore ign
B T
D O
N H
T B
× ľ
Ġ ic
à¤¤ à¤µà¤¤
à¤² à¤¹à¤®
Ġà¤¸ à¤Ī
à¤µ à¤¹à¤°
à¤¹ à¤¹
à¤¦ à¤¨à¤ķ
à¤ª à¤ŀ
Ġà¤¨ à¤°à¤µà¤°
Ġà¤° à¤¸à¤µ
à¤· à¤Ł
à¤· à¤ļà¤¨
à¤¬ à¤²à¤¬
Ġà¤ı à¤°à¤£
Ġà¤ı à¤°à¤²
Ġà¤ı à¤¡à¤²à¤°
à¤ı à¤ıà¤¨
Ġà¤ĸ à¤ªà¤°
à¤µà¤° à¤¬
à¤ī à¤Łà¤°
Ġà¤ľà¤¨ à¤Ĺà¤¢
à¤Łà¤° à¤¨à¤²
Ġà¤ĺ à¤¬à¤¡
Ġ20 25
Ġs i
Ġà¤ħà¤° à¤¹à¤°
Ġà¥¨ à¥§à¥«
Ġà¤Ĳ à¤ķà¤¡à¤®
à¤®à¤¤ à¤®
is er
à¤¤à¤® à¤²
à¤¦à¤¨ à¤µ
Ġà¤ħà¤µ à¤Ł
Ġf f
Ġà¤Ĭ à¤¬à¤¡
Ġp i
Ġp p
Ġ4 40
ĠT H
ic i
Ġà¤¤à¤¹ à¤ķ
Ġd ir
am ha
ĠP ict
ĠA VC
Ġà¤¬à¤¦ à¤¬
Ġh ide
Ġl b
un k
Ġ17 82
Ġfor ces
ĠB all
Ġe arth
Ġg al
Ġ16 58
ĠN ations
ĠN ote
à¤Ĩà¤° à¤ĵ
18 30
Ġà¥Ń à¥«à¥¦
ad o
Ġà¥§à¥® à¥¨à¥¬
Ġà¥§à¥® à¥ªà¥¦
Ġà¤īà¤° à¤Ĺ
Ġ25 8
Ġ24 1
ĠO d
ĠV C
15 7
Ġà¤ıà¤ļ à¤ıà¤ıà¤²
ive ly
Ġform er
Ġà¤īà¤ľ à¤¡
Ġun ivers
ĠIn s
Ġhe x
ĠCh amp
ah oo
Ġpl ant
ud io
ĠÎ ´
Ġà¤Ĩà¤ĩ à¤į
Ġdo ing
ree k
ie ved
ww w
áĢ ¬
áĢ ¯
Ġ77 7
Ġgener ates
Ġ177 9
ier arch
Ġdiffer ence
ĠComm ission
oid s
Ġext ract
Al ternative
ĠKh an
Ġstandard s
Ġman ually
Ġautomat ic
Paramet er
ĠPer iod
Ġcorrect ly
ĠBas ic
ĠAcc ount
Ġprob ably
amha Hash
C al
C ode
O ut
U N
h and
h ind
l ike
m ap
m ir
n u
n umber
o ir
r ast
s r
v in
Ġ È
Ġ ion
à¤° à¤Ĺà¤¨
à¤° à¤°à¤¥
à¤° à¤¡à¤¸
à¤ķ à¤Ĩà¤°
Ġà¤® à¤¬
Ġà¤ª à¤Łà¤µà¤°
Ġà¤ª à¤ľà¤¹à¤¸
à¤¦ à¤Ī
à¤Ĺ à¤Ĺà¤¨
Ġà¤ħ à¤Ŀ
à¤ľ à¤¡à¤¨
Ġà¤¬ à¤²à¤ķ
Ġà¤¬ à¤Łà¤µ
à¤£ à¤¯à¤¨
à¤ļ à¤§
à¤ļ à¤£
Ġà¤¤ à¤°à¤¸
à¤Ī à¤Ĩà¤°
à¤ĩ à¤ķà¤¸
Ġà¤ļ à¤¤à¤°
Ġà¤ļ à¤¹à¤°
Ġà¤ļ à¤¹à¤²
Ġà¤« à¤ĸà¤°
à¤°à¤£ à¤®
à¤Ĩ à¤¯à¤ķà¤°
Ġà¤Ł à¤°à¤ª
à¤¯à¤® à¤¨à¤¸
an Ã§
Ġ20 7
Ġà¤ĵ à¤¬à¤°
Ġà¤ĵ à¤¸à¤µ
Ġs al
al ysis
Ġc c
Ġc s
Ġb in
Ġb ank
Ġà¤Ĭ à¤§
Ġà¤ħà¤¸ à¤°à¤¦
Ġà¤ħà¤ª à¤ļà¤¯à¤¨
Ġà¤ªà¤¡ à¤¨
ĠT D
à¤Łà¤ķ à¤®
Ġm achine
Ġ6 25
am el
à¤®à¤² à¤ª
ĠC u
ĠC IA
ĠC RM
à¤¬à¤² à¤µ
ou ch
ĠP aul
Ġà¤ħà¤Ĺ à¤£
Ġà¤Ĩà¤Ī à¤Ĩà¤Īà¤ıà¤®
Ġan im
om ial
ent a
Ġà¤ıà¤¸ à¤¡à¤¬
Ġà¤ħà¤« à¤ľà¤²
Ġl ive
Ġà¤®à¤¤ à¤ªà¤¤
ĠD VI
ĠU tt
Ġ17 28
Ġ17 81
Ġ17 54
ĠW P
Ġe c
ĠG C
Ġ16 88
ĠN RH
ĠN atural
à¤ľà¤¯ à¤µà¤°
ĠR ef
Ġar c
Ġà¤°à¤¸ à¤Ĺ
18 98
ĠF IA
Ġà¥§à¥® à¥§à¥Ń
Ġ25 1
ir y
Ġal phab
end ers
Ġ23 1
Ġ22 2
ĠV A
10 5
and ing
Ġ26 6
eb ra
ax on
Th us
Ġ29 4
ver age
à¤ļà¤® à¤¡
à° ®
à´ ¯
ĠTh omas
hy a
ĠÐ ľ
ci ences
Ġinf o
Ġà¤ħà¤ªà¤¹à¤°à¤£ à¤ķà¤°
Ġinst itut
Ġà¥§à¥®à¥Ń à¥Ń
ĠPro cess
az on
az ar
Ð¸ Ð¹
ĠÏ Ĩ
Ġcell spacing
Ġprovid ing
irc raft
pro cess
Ġvi ol
Ġà¤ĵà¤Ŀ à¤²
Ġà¤ıà¤®à¤ıà¤¸ à¤ľ
Tr acking
Ġupload ed
ĠReg ion
Ġstud y
Im age
Ġdescrib ed
Ġencyclop edia
Ġsubstitut ed
ĠTem ple
opter a
Tool s
Techn ical
kn own
Ġadap ted
ðĿ Ĳ
ĠÛ Ķ
Ġà¤Ĩà¤ĩà¤į à¤®à¤Ī
1 18
1 15
B ook
D VD
I Q
N e
P er
S B
T R
i our
m w
r ender
v ard
à¤¤ à¤¦à¤°
à¤¯ à¤§à¤°
à¤¯ à¤¬à¤¦
à¤¸ à¤ıà¤ķ
à¤² à¤£
à¤® à¤ļà¤²
à¤µ à¤®à¤¨
à¤¹ à¤¬à¤²
à¤Ł à¤Ĺà¤¨
à¤Ł à¤ªà¤²
Ġà¤° à¤£à¤ķ
à¤· à¤²
à¤¬ à¤¹à¤¨
Ġà¤ı à¤¨à¤²
Ġà¤Ń à¤Ńà¤ķ
à¤ĸ à¤°à¤ª
à¤¤à¤° à¤Ń
Ġà¤ħà¤§ à¤®
à¤ł à¤ľ
à¤Ľ à¤®
à¤¢ à¤²
Ġt im
or er
or al
Ġs il
Ġs um
ar am
ar ma
al pur
Ġ5 43
ĠT erm
à¤ĩà¤Ł à¤¬
ĠM W
ĠM ich
à¤¬à¤¨ à¤²
ĠS N
Ġà¤¸à¤¨ à¤¶
as ic
as ia
ou thern
à¤Ĭ à¤ľ
ĠP O
ĠP attaya
ĠA F
Ġà¤¬à¤° à¤«
Ġh om
Ġh um
Ġ15 000
à¤īà¤¸ à¤«
à¤ľà¤¸ à¤Ń
ĠW estern
ĠB a
Ġ16 10
Ġ16 80
ĠN E
ĠN on
ĠN agar
ac ity
ĠE nt
Ġà¤¦à¤² à¤ªà¤¤
à¤ĸà¤° à¤Ĺ
18 92
ad es
ad get
ĠF und
Ġv ac
Ġà¤¨à¤° à¤Ĺ
à¤¤à¤°à¤£ à¤ķ
Ġ25 2
ir med
Ġal tern
Ġal most
Ġà¥¬ à¥¦à¥¦à¥¦
à¦ Ĥ
à¦ Ł
Ġ24 7
Ġ100 000
ĠV er
Ġde ath
10 6
Ġk W
Ġà¥§à¥Ń à¥¦à¥Ń
tic e
Ġ28 6
14 9
Ġ35 4
Ġ35 6
Ġle arning
Ġen vironment
Ġà¤ļà¤®à¤ķ à¤¨
Ġdiv ision
à° ¯
ai lu
Ġrequ ires
Ġcre ation
Ġnumber ed
Ġthere fore
Ġrel ations
Ġreg ular
Ġpart ial
ĠPl ay
à³ Ĩ
pos es
oun s
CO M
Ġway s
Ġlog o
Ġdiscuss ions
Ġconf lic
Ġlook ing
Ġ× Ķ
TP OS
Un protection
Ġdr ug
Ġrow s
Ġrender ed
Ġexper iment
Ġcomb ination
Ġide as
Ġincre ase
ĠWM F
uf act
Ġvo lume
Ġguide lines
Red irect
à¤¦à¤¶à¤° à¤¥
Ġpot ential
Ġcand id
Div X
Ġesp ecially
Pur pose
ĠNRH P
1 12
2 17
3 30
7 50
H R
N N
P age
V M
d r
f a
j e
m ore
p et
r is
r ane
v ision
æ ľ
Ġ Ë
à¤¨ à¤®à¤¤
à¤¤ à¤ªà¤¦
à¤¸ à¤ĸà¤£
à¤¸ à¤ıà¤®
à¤² à¤ªà¤ķ
à¤² à¤°à¤¶
à¤® à¤°à¤¹
à¤® à¤Ĺà¤¤
à¤® à¤ľà¤¬
à¤µ à¤ħà¤µà¤ķ
Ġà¤ľ à¤°à¤¦
à¤Ĺ à¤ľà¤¨
à¤Ĺ à¤®à¤¸
à¤Ł à¤ľà¤¨
à¤ľ à¤¸à¤¨
à¤ľ à¤¬à¤²
à¤§ à¤ľ
à¤¥ à¤ļ
Ġà¤Ķ à¤ª
Ġà¤ı à¤¥à¤¨
Ġà¤Ń à¤°à¤µ
Ġà¤Ĩ à¤¹à¤°
à¤ĸ à¤°à¤¤
à¤ĸ à¤¤à¤°
Ġà¤ĩ à¤ľà¤¹
à¤Ĩ à¤ī
Ġà¤¡ à¤®à¤°
à¤Ľ à¤ķà¤°
Ġà¤§ à¤¨à¤¸
à¤¸à¤° à¤¯
à¤°à¤¹ à¤¦
à¤Ĺà¤° à¤ĸ
à¤ŀ à¤¶
Ġà¤Ī à¤ıà¤®à¤Ĩà¤Ī
Ġà¤¸à¤¬ à¤ª
Ġà¤ĵ à¤·
Ġs am
Ġà¤ħà¤° à¤²
Ġà¥¨ à¥§à¥¨
Ġ3 28
à¤Ĺà¤² à¤¦
Ġf ace
Ġp air
à¤§à¤¨ à¤ª
Ġa z
Ġà¤¹à¤® à¤¦à¤°
Ġ5 40
Ġà¤¹à¤° à¤¬à¤°
à¤¡à¤° à¤¬à¤°
Ġd est
ĠS ab
ĠC av
Ġà¤¸à¤¨ à¤¡
ĠA RM
à¤°à¤ª à¤°à¤ķ
Ġto day
Ġà¤ħà¤« à¤²
ur l
ĠD B
ĠD J
ĠD on
Ġ17 97
Ġ17 03
ul er
Ġà¤ıà¤¨ à¤ıà¤«à¤ıà¤²
Ġ16 50
Ġà¤Ĺà¤£ à¤§à¤°
ĠE E
Ġbe am
qu ery
ĠR A
ĠR o
Ġar ia
ĠF ar
à¥¯ à¥¦à¥¦
à¤ıà¤¨ à¤ıà¤ļ
Ġr aw
um a
ĠPh il
ĠO SP
10 3
Ġà¤ħà¤Ĺà¤° à¤¬à¤¤
Ġà¥§à¥Ń à¥¦
ĠJ SP
se ud
Ġcol on
Ġu i
all i
Ġdis ease
à¤²à¤¦ à¤¹
Ġhigh er
ud h
Ġedit ed
à° Ĺ
Ġsy m
Ġcomm a
ĠZ e
à¨ ¤
à¨ ¨
Ġà¤īà¤§ à¤®à¤ª
Ġset s
ÙĬ Ø¯
à¥§à¥¯à¥® à¥§
Ã© e
à¤¬à¤ľ à¤Ł
Ġsupp ress
Ġà¤Ĩà¤Īà¤ıà¤¸ à¤¬
Ġact ually
ĠPl us
ĠCon c
Ġà¤īà¤¦à¤° à¤ª
ĠComm on
Ðµ Ð½
Ġà¥§à¥®à¥ª à¥©
plic ation
Ġsepar ated
Ġsepar ator
Ġpur poses
Ġne ur
Ġne ut
Ġcat alog
Ġsomet imes
Ġmot or
á¹ Ń
Ġnuc lear
ĠRec ords
Ġcho ose
Ġdim ens
ĠEurope an
ĠEF TPOS
ĠRI AA
tec s
A pp
D B
M ain
O b
S et
U L
W Y
b lock
p ed
w ara
Ä ±
Ê Ĭ
Ġ ult
Ġà¤ ½
Ġà¤ķ à¤²à¤¯
à¥Ģ à¤¾
à¤¨ à¤ĺ
à¤² à¤Ĺà¤®
Ġà¤¹ à¤°à¤Ń
à¤® à¤·
Ġà¤® à¤¸à¤¨à¤µ
à¤ª à¤¥à¤¨
Ġà¤ľ à¤¶à¤ª
à¤¶ à¤¯à¤¶
à¤¬ à¤Ĺà¤°
à¤£ à¤ªà¤ķ
à¤ļ à¤®à¤¹
à¤ļ à¤¤à¤¤
Ġà¤ı à¤Ĩà¤°
à¤ı à¤¯
Ġà¤¶ à¤Łà¤°
Ġà¤ķà¤° à¤ĺ
Ġà¤ĩ à¤°à¤¶
à¤Ī à¤ķà¤²
Ġà¤ļ à¤ªà¤°
à¤Ĩ à¤ªà¤¦
à¤ķà¤° à¤ľ
Ġà¤īà¤ª à¤ªà¤°
à¤¸à¤° à¤¹
Ġt en
à¤¹à¤° à¤Ĺà¤¢
à¤¯à¤¨ à¤¸
à¤µà¤¨ à¤²
à¤¸à¤® à¤µ
à¤ĩà¤¨ à¤ħà¤ª
Ġà¤ĵ à¤ĸ
Ġs cientific
à¤Łà¤¨ à¤°à¤¶
al g
Ġ3 13
à¤Ŀ à¤ªà¤¨
Ġà¤¸à¤¦ à¤Ń
Ġb b
Ġà¤Ĭ à¤¹
Ġp an
Ġp hen
à¤§à¤¨ à¤¬
Ġà¤¬à¤¢ à¤ķà¤°
Ġà¤¤à¤¹ à¤ľ
Ġm ill
Ġm ix
Ġm illion
Ġm edicine
ĠM ass
Ġ18 11
Ġ7 37
as ad
ĠP ed
ĠA sh
Ġà¤¬à¤° à¤ª
Ġ9 60
ĠI U
em s
à¤¸à¤¤ à¤ª
Ġà¤ħà¤« à¤ľ
un es
ĠTi m
lu t
ĠD ar
ĠD am
à¤ľà¤¸ à¤µ
Ġ17 20
ĠW ater
ĠB R
ĠB ab
ĠL ine
Ġre ach
ĠR ock
à¤ľà¤® à¤¶
Ġà¤°à¤¸ à¤Ńà¤°
18 18
Ġà¥Ń à¥©à¥Ń
ay am
Ġ25 4
à¤ķà¤® à¤¯
Ġ21 6
Ġ24 8
ang es
ak ar
Ġ26 2
Ġà¥§à¥¨ à¥®
Ġ27 4
Ġnot hing
Ġ29 3
13 5
Ġà¥§à¥ª à¥¦à¥¦
Ġà¥§à¥¯ à¥¦
à¤¸à¤¬ à¤µ
Ġtr ack
Ġ33 3
Ġ33 5
ong s
Ġà¤¦à¤® à¤¯à¤¨
Ġ34 3
Ø± ÛĮ
Ġres ources
Ġpre ced
Ġà¤Ĺà¤ľ à¤ªà¤¤
Ġà¥§à¥§à¥ §
Ġqu ery
Ġup date
att i
Ġà¥§à¥®à¥« à¥«
Ġà¤®à¤¦à¤¨ à¤²
à¥§à¥¯à¥® à¥®
à½ º
à¤į à¤®
Ġà¥§à¥®à¥Ń à¥¯
ĠEx t
ĠCon fig
Ġà½ ¦
Ġà¥§à¥®à¥ª à¥Ń
à¬ ¾
Al though
edi ans
à¤ıà¤¸à¤Ĩà¤Ī à¤Ĩà¤°
Ġdep ending
Ġstat ement
Ġà¤¸à¤®à¤°à¤¸ à¤¤
Ġoper ating
Ġchem istry
Ġnumer ical
Ġlat itude
Ġcontin ue
àŃ į
Ġphys ical
Ġemb ed
Sim ilar
ĠHB O
Ġindepend ent
Ġexplan ation
ĠYam ato
0 20
0 40
B ecause
C S
E IC
I nt
W F
i h
u v
u ation
Ê ģ
Ù ¾
à¥ ł
à¥į à¤¾
à¥ĩ âĢį
à¤¤ à¤Ī
à¤¤ à¤¬à¤¸
à¤ķ à¤ľà¤°
à¤¯ à¤ªà¤¤
Ġà¤ª à¤¥à¤®
à¤¹ à¤ķà¤°
à¤¹ à¤¦à¤°
Ġà¤ľ à¤¯à¤®
à¤ľ à¤²à¤®
Ġà¤¦ à¤²à¤¬
à¤· à¤ķà¤¤
à¤¡ à¤°à¤®à¤²
à¤ļ à¤®à¤¤
Ġà¤ķà¤° à¤Ĺ
Ġà¤¸à¤® à¤¯à¤°
à¤°à¤ķ à¤Łà¤¨
à¤µà¤° à¤°
Ġà¤¡ à¤£
à¤ħ à¤°à¤ķ
à¤ħ à¤ªà¤¸
à¤°à¤¦ à¤°à¤¹
Ġà¤īà¤ª à¤ľà¤¤
Ġà¤ĺ à¤Ĺ
à¤°à¤¹ à¤ķà¤°
à¤²à¤¨ à¤ª
on ym
er ozoic
à¤®à¤¨ à¤¨
Ġs ine
Ġà¤ĳ à¤µà¤°
à¤ķà¤² à¤¸
Ġc ov
is ch
Ġf ood
Ġà¤Ĩà¤µ à¤ķ
it ro
ĠT OC
Ġm il
Ġà¤ħà¤¬ à¤¦
à¤¨à¤® à¤¯
ĠC M
ĠP ub
ĠP LM
ĠA er
ĠI EC
Ġà¤ıà¤¸ à¤Ī
Ġà¤Ĩà¤® à¤°à¤£
Ġh ouse
ig inal
Ġ15 80
Ġ15 33
un s
ĠTi me
Ġà¤¬à¤¸ à¤µ
Ġà¥¨à¥¦à¥ ®
Ġ17 30
Ġ17 69
ĠB ay
ĠN okia
ĠL A
ĠL ASIK
ĠE ar
ĠE SP
ĠH z
à¤ıà¤¨ à¤ĵ
th is
Ġ30 1
Ġà¤¸à¤«à¤²à¤¤ à¤®
Ġ24 9
10 4
ess ion
à¤ıà¤ļ à¤ı
12 4
Th ough
à¤ħà¤ª à¤Ń
à¤Ļ à¤®
Ġà¤Ĩà¤īà¤Ł à¤«
ions hip
ost ec
Ġà¤°à¤£ à¤¥
Ġà¤į à¤°
Ġapp end
err or
PA C
à¨ ²
ĠÐ ļ
85 8
emb ly
Ġà¥§à¥®à¥« à¥©
à¥§à¥¯à¥Ń à¥©
par amet
Ġph oto
Ġà¥§à¥®à¥Ń à¥ª
à¥§à¥¯à¥¬ à¥©
Ġà¥§à¥®à¥¬ à¥®
à¸ £
Ġcons ensus
AR S
Ø³ ÙĦ
Ġinv alid
Ġà¥§à¥®à¥© à¥«
à¥§à¥¯à¥© à¥«
à¬ ¿
Ġexp ansion
Ġcheck ed
Ġmin utes
ify ing
Ġcontribut ions
Re ferences
ĠWh ite
Ġrele ased
Pl ace
Ġimm edi
ĠNSA ID
Ġrepe ated
ĠVOC s
HT ML
ĠRoy al
ĠFOOTNOTE Jain
ailu re
G et
K A
K F
L I
N otes
T O
U r
b o
d ra
f acebook
j ection
k top
r est
Ñ ĸ
Ö ¸
Ö ¼
Ġ iv
Ġà¤ķ à¤¸à¤°
Ġà¤ķ à¤¨à¤¸
à¤¤ à¤Ĺà¤¢
à¤ķ à¤³
à¤¯ à¤¥à¤¨
à¤¯ à¤°à¤¸à¤¨
à¤² à¤§à¤¨
Ġà¤® à¤ķà¤¤
Ġà¤ª à¤ķà¤¤
Ġà¤¨ à¤¸à¤¬
à¤£ à¤®à¤²
Ġà¤ī à¤Ĺà¤²
Ġà¤ı à¤ªà¤°
Ġà¤ı à¤¹à¤¤
à¤ı à¤¯à¤°à¤²
à¤ĸ à¤¶
Ġà¤ĩ à¤ķà¤¨
Ġà¤ıà¤ķ à¤µ
Ġà¤ıà¤ķ à¤Ń
à¤« à¤µ
Ġà¤ĸ à¤Łà¤ķ
à¤°à¤® à¤ļà¤¯
à¤ħ à¤®à¤²
à¤¸à¤® à¤®
at able
Ġà¤¸à¤®à¤¯ à¤¬à¤¦
or se
Ġs ave
à¤°à¤µ à¤¦
Ġc ities
à¤¤à¤ķ à¤®
à¤µà¤² à¤ľ
is es
à¤°à¤Ń à¤µ
Ġà¤®à¤¨ à¤Ĺà¤¢
Ġà¤ħà¤µ à¤¯à¤¸
Ġf ully
Ġb usiness
Ġp il
à¤ªà¤ķ à¤¥à¤¨
à¤°à¤¶ à¤°
ĠM el
ĠS L
am ar
à¤²à¤µ à¤®
Ġà¤¸à¤« à¤¦à¤°à¤ľ
Ġà¤ķà¤ª à¤²
ĠI l
de l
Ġà¤ıà¤¸ à¤ıà¤«
Ġth r
Ġ17 25
Ġ17 04
Ġ17 58
id ing
ĠB re
ĠB TS
ĠB usiness
ĠG ang
Ġ16 90
ac hed
ĠL td
Ġre lease
ĠH ans
ĠR en
el ves
18 67
18 81
Ġus ual
Ġr ules
Ġr atio
th umb
th rop
ab h
à¤ķà¤® à¤Ĺà¤²
ĠPh ot
ĠO RCID
âĢį âĢį
Ġâ Ļ
Ġcol lect
iz es
Ġgo ing
form ats
ud as
ath a
99 9
Ġà¤į à¤¡
Ġà¤į à¤£
ai ly
ÛĮ Ø¯
à² ²
à² ķ
Ġcomm only
ĠQ oS
Ġ58 5
Ġmet al
ield s
ern ame
IS BN
AN D
Ġ177 8
amm ad
ĠCD O
àª °
MS N
ĠFr anc
Ġinv est
ER P
Ġà¥©à¥Ń à¥¦
Ġà¥§à¥®à¥© à¥¨
Ġtest ing
Ġsing h
res ult
ĠAs ia
aur i
Un ited
Wiki Link
Ġcoordin ate
Ġblack list
ĠPol it
Ġmm Hg
RNA s
ĠNAS A
Ġrecomm end
Ġä¸ Ń
Ġear ly
Des cription
ĠHind u
Ġrational e
Ġdenomin ator
6 40
E lement
G ener
G roup
N ow
S he
T ag
c ast
r ain
s i
w al
z z
É Ķ
Ð Ĩ
à¤¸ à¤¦à¤°
à¤¸ à¤Ńà¤ķ
Ġà¤¹ à¤Ī
à¤¦ à¤°à¤¹
à¤¦ à¤Ĺà¤²
à¤Ł à¤ªà¤°
Ġà¤¬ à¤Ľ
Ġà¤¬ à¤°à¤¦
Ġà¤° à¤Ł
à¤¡ à¤°à¤ķ
à¤¬ à¤Ĺà¤²
à¤¬ à¤Ĺà¤¡
Ġà¤ı à¤Ĩà¤Īà¤¸
à¤ĸ à¤°à¤¸
à¤Ī à¤¤
à¤Ĩ à¤·
à¤Ĩ à¤ı
à¤ķà¤° à¤¹
à¤°à¤® à¤¹
à¤ĵ à¤ı
à¤ħ à¤ªà¤¶
à¤µà¤¤ à¤¤
in ter
à¤ŀ à¤¸
à¤¯à¤° à¤Ł
an ish
Ġ20 50
or b
or ate
à¤Łà¤¨ à¤µ
Ġà¤¸à¤° à¤Ĺà¤®
Ġc ulture
à¤®à¤¤ à¤ª
Ġà¤®à¤¨ à¤¹
ed ral
Ġp et
Ġà¤ħà¤ª à¤ĺà¤°
Ġa j
le g
Ġ4 30
Ġ4 70
Ġin ternet
19 2
Ġà¤¹à¤° à¤¬
Ġm id
ĠM il
à¤¨à¤° à¤ļ
Ġn ode
Ġ6 80
à¤ķà¤¸ à¤¤
à¤¬à¤² à¤®
à¤ķà¤Ł à¤µ
ag r
à¤ĩà¤² à¤Ł
lo ph
Ġto wards
ig on
à¤Ĺà¤® à¤¯
Ġth ous
ĠD D
ĠD eb
Ġ17 19
Ġ17 10
Ġ17 67
Ġà¤ıà¤¨ à¤«
Ġà¤ıà¤¨ à¤ıà¤¸
ĠB I
ol ic
ĠL ad
ĠE X
ĠE th
ĠE st
ĠH ill
ĠR os
Ġà¤°à¤¸ à¤ĸ
im age
18 94
18 77
18 84
ĠF ox
ĠF ilm
um in
Ġv ideo
Ġà¤«à¤° à¤¬à¤°
end ish
Ġ24 4
Ġ100 8
ĠV en
Ġà¤Ĩà¤ļ à¤®à¤¨
ak i
Ġnow rap
Ġ26 3
Ġà¥§à¥¨ à¥©
Ġà¥§à¥¨ à¥§
Ġ27 6
ĠØ ²
ĠCat edral
Ġà¤¹à¤¨ à¤«
Ġcont ents
ĠCh h
Ġ45 00
à¤īà¤¥ à¤ª
Ġres olution
Ġref lect
Ġà¦ ¦
áĢ ¼
ĠIS T
Ġà¤¦à¤¹ à¤¶à¤¤
Ġà¥§à¥®à¥« à¥§
IS T
à¥§à¥¯à¥Ń à¥¬
Ã© s
Ġrel ig
Ġà¥§à¥®à¥Ń à¥¬
à¥§à¥¯à¥¬ à¥§
Ġover ride
Ġgr ant
Ġev ents
Ġro ck
ĠFr ance
Ġmark et
Äģ n
ES T
Ġà¤ıà¤ķà¤¸ à¤¦à¤¨
iter ation
Ġscript s
po int
Ġorgan ic
Ġshort cut
Ġcontribut ing
ĠID E
Ġpop ular
ĠMus e
Ġexpl ain
Ġaccept ed
Ġdev ices
Ġserv ices
ogen ic
Ġdown load
ĠED ID
iqu id
à¦¼ à¦¾
Ġengine ering
Ġax is
Ġexpress ion
×¨ ×
Ġprefer red
ĠIF RS
Ġfig ure
ĠDet ail
Ġgre ater
ĠEV E
Ġbehav iour
Ġanch or
ĠÐ¾ Ð±
Ġhoriz ontal
ĠKann ada
ĠAcade my
8 50
F r
U P
U T
f ort
f ree
k u
l en
s ing
Ã ´
Ø ¶
Ġ ul
Ġ ess
à¤¿ ÂŃ
à¤¨ à¤°à¤µ
à¤ķ à¤¸à¤®
à¤ķ à¤ªà¤¤
à¤¸ à¤£
Ġà¤¸ à¤°à¤¤
à¤® à¤¥à¤¨
Ġà¤® à¤²à¤¨
à¤µ à¤¸à¤°
Ġà¤ª à¤Ĺà¤²
Ġà¤ª à¤²à¤¸
à¤¹ à¤²à¤ķ
à¤¹ à¤ķà¤¤
à¤¦ à¤²à¤¨
à¤¦ à¤µà¤ª
à¤ª à¤Łà¤°
Ġà¤ľ à¤«
Ġà¤ħ à¤ĩ
à¤ľ à¤²à¤¨
à¤ľ à¤Ĺà¤®
à¤¶ à¤Ĺà¤¤
Ġà¤² à¤ªà¤ķ
Ġà¤Ķ à¤¤
Ġà¤ĩ à¤ķà¤¤
à¤Ī à¤¨à¤°
à¤ªà¤¨ à¤Ĺà¤°
Ġà¤ħà¤¨ à¤Ĺà¤¢
à¤Ĩ à¤¯à¤°à¤¨
à¤ī à¤¹
à¤ĵ à¤¬à¤°
à¤ħ à¤ļà¤²
à¤ªà¤° à¤²
Ġà¤ľà¤¨ à¤ķà¤²
à¤µà¤¤ à¤ķ
Ġt iss
an es
à¤¸à¤¨ à¤¹
Ġà¤ķà¤® à¤¸
er ry
at omy
Ġà¤ĵ à¤Īà¤¸
or ial
Ġs oci
Ġà¤¸à¤¹ à¤®
Ġà¤¸à¤¹ à¤¬à¤¦
Ġà¥¨ à¥§à¥¬
Ġà¥¨ à¥§à¥ª
à¤Łà¤¨ à¤¬à¤°
Ġà¤¸à¤° à¤«à¤°
al is
Ġà¤¬à¤¡ à¤Ĺ
Ġc urr
Ġc ampaign
à¤Ŀ à¤Ł
is i
Ġà¤ªà¤¦ à¤¤
Ġb en
Ġb lood
Ġw all
Ġd a
ĠM ir
ĠM ech
ĠM obile
re ci
ĠS V
Ġà¤ľà¤² à¤ľ
Ġ6 32
ĠC op
ĠC amb
ĠA j
ĠI r
ĠD S
Ġ17 24
Ġ17 08
Ġà¤ıà¤¨ à¤ı
ĠB O
ĠG ood
ate ll
ĠN P
ĠN ic
ĠN am
ĠN AT
ĠL T
ĠE L
ĠE N
ĠE R
Ġà¤ıà¤¶ à¤²
el le
à¤ľà¤ķ à¤µ
Ġà¤¹à¤¸ à¤°à¤¤
Ġr oman
ist ing
if ies
if orn
ĠK am
av ity
tic les
ĠJ a
ĠJ ul
Ġà ¶
Ġ29 5
Ġà¥§à¥ª à¥«
ex p
Ġà¤Ĺà¤ł à¤¬à¤¨
Ġcon cept
Ġà¥§à¥© à¥¦à¥¦
Ġun s
Ġ35 5
Ġcont ext
ĠCh urch
Ġà¥§à¥§ à¥¦à¥¦
ens ed
ens ity
à° ¤
ail ing
Ġpre view
Ġà¦ ľ
Ġbegin s
Ġlike ly
Ġlo ss
Ġinst r
IS A
Ġà¤§à¤® à¤¤à¤°
à½ ¦
cl ipse
à¤½ à¤ª
à¥§à¥¯à¥« à¥ª
Ġro le
Ġtransl ated
ĠIP v
à¤ıà¤¯à¤° à¤¬à¤¸
ĠEn ergy
Ġà® ļ
Ġnum eric
Ġprocess es
Ġdep th
Ġstat istics
ites pace
Ġorgan ization
Ġcontribut e
Ġtyp ically
Ġà¤ıà¤ıà¤® à¤¡
Ġeas ier
à« Ģ
ĠSW AT
Ġà¤²à¤Ł à¤ķà¤¨
Ġpub lish
Cont ent
Ġproduct s
Ġparticip ate
Ġperform ance
Ġapplic ation
Ġmen u
Qu ery
ÑģÑĤ Ð¸
Ġbecom es
ĠOct ober
ĠHen ry
ocument ation
ĠEduc ation
ĠÐ¾Ð± Ð»Ð°
F irst
I X
T ext
b ot
c al
c ats
e am
i os
u y
y c
Ľ ½
à¤¨ à¤¹à¤®
à¤ķ à¤¹à¤®
à¤¯ à¤¶à¤µ
à¤¸ à¤Īà¤¦
Ġà¤® à¤²à¤¤
Ġà¤ª à¤ļà¤¨
Ġà¤ľ à¤¸à¤°
Ġà¤ľ à¤¯à¤µ
à¤Ĺ à¤¬à¤°
à¤Ł à¤¬à¤°
à¤¶ à¤¤à¤¤
à¤¥ à¤Ī
à¤ļ à¤°à¤¸
à¤ļ à¤²à¤®
Ġà¤ī à¤ľà¤¬
Ġà¤ı à¤ªà¤²
Ġà¤Ń à¤Ĺà¤¨
Ġà¤Ĩ à¤®à¤²
à¤ĸ à¤ļ
Ġà¤ĩ à¤¹
Ġà¤ĩ à¤ķà¤°
à¤ĩ à¤·
à¤« à¤¹
à¤ªà¤¨ à¤¹
à¤Ĩ à¤ľà¤®
à¤ī à¤ªà¤ķ
à¤ĵ à¤¦
à¤ħ à¤®à¤¨
Ġà¤īà¤¤ à¤ªà¤¨
Ġt ourn
in ci
Ġà¤ħà¤² à¤¹
à¤¸à¤® à¤¤à¤²
Ġà¤Ī à¤§
ĠâĢ ³
Ġs ister
ar ing
à¤Łà¤¨ à¤¸
à¤ķà¤² à¤¶
Ġc ast
Ġ3 12
Ġb al
Ġb ad
Ġà¤Ĭ à¤¦à¤¬
Ġa verage
Ġ5 25
ĠT W
Ġà¤¹à¤° à¤ľ
Ġd raw
Ġm el
ĠM u
Ġo il
ĠS in
Ġà¤¬à¤² à¤µà¤¤
ĠC irc
Ġà¤¸à¤¨ à¤«
ĠP eople
ĠA CC
Ġà¤¬à¤¦ à¤ķ
ĠI X
om ics
Ġ10 50
Ġà¤ıà¤¸ à¤ıà¤²
et ry
Ġà¥« à¥«à¥¦
ur is
Ġ17 43
Ġ17 55
ĠW i
Ġ12 50
ĠB il
Ġg ame
Ġ16 03
ol k
à¤µà¤¶ à¤¤
ĠL ink
ĠE s
Ġà¤ľà¤¨à¤¸ à¤Ń
à¤Ķ à¤²
Ġà¥§à¥® à¥¦à¥ª
Ġr pm
Ġst rip
Ġv ent
Ġ25 9
if er
ĠPh ilos
ĠK ur
ĠO p
ri x
Ġà¥§à¥« à¥ªà¥¦
Ġà¥§à¥Ń à¥¯à¥¦
Ġà¥§à¥¨ à¥ª
Ġà¤ªà¤² à¤¡
Ġà¤ķà¤¸ à¤¬
ra j
Ġhe alth
ph al
Ġpl ane
Ġpl ural
ĠSt ation
à® ļ
Ġà¤°à¤£ à¤¦
Ġà¤Ĩà¤ĩ à¤ı
Ġà¤Ĩà¤ĩ à¤µà¤°
Ġsub mit
Ġà¥¨à¥§ à¥¦
à´ ²
à² Ĥ
Ġtrans form
ÙĪ Ø¯
áĢ Ń
che m
ann ed
ÙĬ Ùħ
à¤°à¤µà¤£ à¤¬
Ġà¥§à¥®à¥« à¥ª
à¥§à¥¯à¥Ń à¥ª
Ġget s
à¥§à¥¯à¥ª à¥¯
Ġem it
à¥§à¥¯à¥« à¥¨
à¥§à¥¯à¥« à¥§
Ġev alu
ĠPl ant
ĠÙħ ÛĮÚº
Ġbas is
Ġass ess
ane ous
Ġà¤®à¤¨à¤¸ à¤¬à¤¦
IA C
ĠEn vironment
ool s
Ġvari ations
Ġident ifier
Ġmin or
ĠIm m
ĠáĢ Ļ
ĠMal ays
Ġmicro format
Ġaccept able
ĠST D
Ġali as
ĠRev iew
ĠMat hemat
Ġcaus es
ĠLou is
Ġpix els
ĠSev en
Ġà¤¹à¤°à¤Ń à¤ľà¤¨
0 28
1 17
B B
B W
C ategories
F ull
L e
T ime
b es
c ing
c us
f l
h in
i as
n av
u i
Î Ń
ã ģ
à¤¨ à¤¦à¤°
à¤² à¤ı
à¤² à¤ªà¤¨
Ġà¤¸ à¤ĺ
Ġà¤¸ à¤¨à¤¤
Ġà¤® à¤Łà¤®
Ġà¤ª à¤²à¤®
à¤¹ à¤²à¤¤
à¤¹ à¤Łà¤¨
à¤¹ à¤¸à¤ª
à¤¦ à¤°à¤¦
à¤¦ à¤¸à¤®
à¤ª à¤°à¤¦
à¤ª à¤²à¤¤
à¤ª à¤¥à¤°
Ġà¤ľ à¤ĺà¤¨
Ġà¤¬ à¤ķà¤²
Ġà¤¦ à¤ľà¤²
à¤¡ à¤£
à¤¡ à¤ªà¤®
à¤ļ à¤µà¤Ł
Ġà¤¤ à¤¸à¤²
à¤Ń à¤ľ
à¤Ń à¤ļ
à¤Ń à¤¨à¤¦
Ġà¤¯ à¤ĸ
à¤Ī à¤Łà¤°
Ġà¤ļ à¤°à¤¤
à¤« à¤«
Ġà¤ĩà¤¸ à¤ª
à¤°à¤£ à¤®à¤¯
Ġ2 200
Ġà¤Ł à¤¯
à¤ī à¤«
à¤ī à¤ł
Ġà¤ľà¤¨ à¤Ń
Ġt ell
à¤²à¤¨ à¤Ĺà¤°
on i
à¤®à¤ķ à¤¦
Ġs cheme
Ġà¤ĳ à¤¥
Ġà¥¨ à¥§à¥Ń
à¤°à¤µ à¤®à¤¯
Ġ200 00
Ġc er
Ġc red
Ġ3 24
Ġ3 27
à¤¡à¤² à¤Łà¤¨
Ġf ire
Ġb ro
à¥¦à¥ ¯à¥
Ġthe orem
it age
Ġp a
Ġp le
Ġin clusion
ĠT op
ĠT ext
ĠT CP
à¤°à¤¨ à¤Ĺ
Ġm anner
ĠM bit
ĠS l
ĠC R
ĠC AM
ĠP en
ĠP le
ĠP erson
ĠA qu
Ġ9 80
Ġ9 70
ot ing
ent i
Ġ10 24
Ġà¤Ĩà¤ª à¤²
Ġh ierarch
Ġà¤®à¤¤ à¤Ĺà¤£à¤¨
lu gu
à¤µà¤ķ à¤¥
ĠD X
Ġà¤ķà¤¨ à¤ĸà¤²
ĠW yl
ĠB ack
Ġà¤ıà¤® à¤Ī
Ġ16 70
ol it
ol low
ĠE M
os pace
18 95
18 93
18 76
Ġà¥§à¥® à¥¨à¥¯
ay at
Ġr ay
Ġ25 7
ir m
ir us
à¦ ·
ĠK ang
Ġ24 2
ĠO ld
ĠV ideo
ri an
Ġà¥§à¥Ń à¥«
Ġà¤ıà¤« à¤Ĩà¤Īà¤Ĩà¤°
Ġnot able
14 6
à¤¯à¤¶ à¤ª
Ġfunction ality
Ġâ Ħ
Ġcom press
Ġà¤¹à¤¥ à¤Ĺ
Ġà¤¹à¤¥ à¤ķà¤¡
13 7
à¤®à¤¶ à¤°à¤£
22 1
ect ing
ĠII T
pr int
ĠThe se
Ġ36 8
ÙĨ Ø¯
aw n
Ġstr ings
Ġà¥§à¥¦à¥ ¯
à² ®
Ġà¦ °
à¤ĩà¤¬à¤° à¤¨
à¨ ¹
à¯ Ī
Ġcons istent
Ġem ail
ĠEx ternal
Ġsol ar
Ġequ ations
ÑĢ Ð°
Ġà¤īà¤Ľ à¤²à¤¤
led on
à¥§à¥¯à¥¨ à¥§
Ġà® ķ
There fore
à¥§à¥§à¥ «
Ġsmall er
ĠFor ce
Ġpop up
Ġauthor ity
Ġwr ong
Ġcent ral
Ġvol unte
ĠSur vey
à¤¹à¤°à¤¦ à¤Ĺ
Ġimp ed
Form at
Ġpronunci ation
Ġfill ed
Ġrece ived
âĸ ª
Ġspe ak
Ġpolit ical
Ġking dom
Ġprinc iple
Ġib n
Ġsty les
ĠØ¹Ø¨ Ø¯
ĠUtt ar
0 90
6 39
C an
R el
d o
f c
g le
n agar
v id
Ã º
Ġ ÚĨ
à¤¨ à¤ĺà¤°
à¤¨ à¤Ńà¤°
à¤¤ à¤ĺ
à¤ķ à¤ªà¤°
à¤¯ à¤²à¤¨
à¤® à¤Ľ
à¤® à¤µà¤¨
Ġà¤ª à¤¨à¤µ
à¤¹ à¤°à¤®à¤¨
à¤¦ à¤¯à¤°
Ġà¤ľ à¤¯à¤²à¤²
Ġà¤µ à¤·
Ġà¤¬ à¤£
à¤¶ à¤°à¤¤
Ġà¤° à¤¸à¤¨
à¤· à¤ªà¤°
à¤¡ à¤ĸ
à¤¬ à¤ķà¤¨
Ġà¤Ĺ à¤ªà¤¶
Ġà¤ı à¤°à¤¨
Ġà¤¤ à¤¸à¤µ
à¤ı à¤¹
à¤ı à¤ķà¤°
à¤ı à¤Łà¤ķ
Ġà¤ĩ à¤°à¤ķ
à¤« à¤²à¤¨
Ġà¤« à¤°à¤ķ
à¤°à¤£ à¤ķà¤°
Ġà¤ĸ à¤²à¤¬à¤²
à¤Ĩ à¤°à¤µ
à¤ħ à¤¶à¤°
Ġà¤®à¤¹ à¤¦
à¤ªà¤° à¤Ĺ
à¤¸à¤° à¤ª
à¤¨à¤ķ à¤¨
à¤¨à¤ķ à¤¤
Ġà¤Ľ à¤²à¤¨
in et
à¤Ĺà¤° à¤Ĺà¤¢
Ġà¤ĵ à¤°à¤®
Ġà¤ħà¤® à¤°à¤¦
Ġà¤Ĳ à¤¡à¤µ
Ġc ard
Ġc ost
à¤¤à¤ķ à¤¤
à¤¤à¤ķ à¤¬à¤°
Ġ3 21
Ġ3 90
is ource
à¤µà¤¹ à¤¤
Ġf ailure
it am
ed u
Ġp m
Ġp x
Ġp airs
le ft
Ġm a
ĠM ur
ĠS qu
ĠS av
ĠS ex
ĠS up
Ġà¤ľà¤² à¤ļà¤°
ĠC ourt
à¤Ĭ à¤ªà¤¨
ĠA gric
Ġà¤¨à¤µ à¤¶
Ġà¤¨à¤Ĺà¤° à¤µ
ĠI TV
à¤¹à¤® à¤¦
Ġ15 20
Ġ15 17
Ġ15 34
Ġ15 41
ĠD I
ĠD SM
ĠU p
Ġ17 52
ul ate
ĠB F
ĠG S
ĠG RE
Ġ16 27
Ġ16 31
Ġ16 48
Ġ16 99
Ġ16 66
Ġà¤ªà¤°à¤® à¤¶
ac i
ĠE TS
ĠE mp
os c
el er
ĠF a
ĠF acebook
ay an
Ġr ank
um er
ist ical
Ġal one
st ein
ĠK at
ĠK ash
ĠK rish
ter ed
15 9
Ġà¥§à¥Ń à¥¬à¥¦
Ġ27 2
Ġ28 1
ec ut
ĠØ µ
11 3
40 4
Ġdis put
Ġdis abled
ib ri
à¤§à¤ª à¤°à¤ķ
Ġcont rolled
org an
ud a
Ø± ÙĪ
Ġres ol
ateg y
Ġdef e
Ġstr ess
Ġme ant
Ġany one
Ġà¦ Ń
It s
Ġâĺ İ
à½ ²
ĠEx per
à¥§à¥¯à¥« à¥«
Ġà¤°à¤¤à¤¨ à¤ª
ĠSp ec
Ġsc ope
Ġcall s
ĠMar ÃŃa
Ġmat ches
ĠSe arch
Ġdi agram
Ġident ifiers
IN G
Ġ119 2
def ault
ĠMal ay
ĠElect ric
Ġpron oun
Ġbel ieve
à¤¹à¤¸à¤¨ à¤ª
orph ism
Ġplan et
iqu es
ĠServ ices
rick et
Ġå¤ §
ĠPres ident
Ġther apy
blog spot
ĠÐ¾Ð±Ð»Ð° ÑģÑĤÐ¸
Ġà¤Ĺà¤ªà¤¶ à¤ª
0 50
2 18
C ite
D ear
a ft
h p
m us
m od
p ite
r ika
z a
Ê ²
Ï į
Ö °
× Ķ
Ø ¸
à ¹
ï º
à¥į ÂŃ
à¤¨ à¤Łà¤°
à¤¤ à¤µà¤²
Ġà¤¹ à¤ķà¤²
Ġà¤¹ à¤ľà¤°
à¤® à¤¶à¤ķ
Ġà¤® à¤ĺ
à¤¹ à¤µà¤¨
à¤¹ à¤®à¤¤
à¤ľ à¤ªà¤ķ
à¤¶ à¤ĸ
à¤£ à¤¹à¤°
Ġà¤Ĺ à¤ª
Ġà¤Ĺ à¤ĩ
Ġà¤Ķ à¤Ł
Ġà¤¤ à¤²à¤¨
Ġà¤¤ à¤ªà¤¤
à¤ı à¤¨à¤µ
Ġà¤Ĩ à¤¨à¤°
Ġà¤ķà¤° à¤¬
Ġà¤¸à¤® à¤¬
à¥Į à¤ģ
à¤ī à¤¥à¤µ
Ġà¤¬à¤¨ à¤¯
à¤¢ à¤°
Ġt ub
Ġà¤ħà¤² à¤¬à¤®
à¤¯à¤° à¤¨à¤®
à¤ĩà¤¨ à¤ªà¤°
or is
Ġà¤Ĳ à¤¡à¤¸
Ġà¤ľà¤¬ à¤¸
à¤ķà¤² à¤ļ
Ġà¤ķà¤² à¤¸
is che
Ġf ff
Ġf lex
Ġb ug
Ġthe ms
Ġà¤Ĭ à¤¦à¤²
Ġp df
Ġa im
ĠT N
ic ation
à¤¡à¤° à¤ª
Ġd ie
Ġd raft
ĠS olar
à¤¨à¤¸ à¤¸
Ġn a
Ġn ature
Ġn atural
Ġ6 30
Ġà¤¸à¤¤ à¤µ
20 5
ĠP G
à¤ħà¤¨ à¤µà¤°
ĠI EEE
Ġà¤¢ à¤¹à¤¨
à¤®à¤¹ à¤¸
Ġ17 18
Ġ17 53
ro y
Ġ12 000
Ġà¤ıà¤® à¤ıà¤²
Ġ16 28
ol ia
Ġ13 20
à¤¡à¤¨ à¤Ĺà¤°
ĠH Cl
el lu
Ġar m
18 65
18 87
18 82
18 61
ad s
ad ian
Ġà¥§à¥® à¥¦à¥©
Ġà¥§à¥® à¥©à¥¦
Ġà¥§à¥® à¥¨à¥ª
Ġà¥§à¥® à¥¨à¥¨
Ġus ername
Ġr are
od ym
Ġ30 3
Ġ30 7
Ġ30 9
st ub
Ġà¥¬ à¥«à¥¦
Ġà¤īà¤ªà¤¸ à¤Ń
à¤°à¤¹à¤£ à¤¶
à¦ ĩ
Ġor g
Ġse ar
Ġ23 6
Ġà¤ķà¤Ł à¤¹à¤²
Ġ22 9
10 9
op er
Ġ26 9
Ġsu ff
11 1
Ġbr idge
Ġcon ne
à¤²à¤ļ à¤Ł
Ġun known
pp ed
Ġtr im
ĠX IV
ĠIn dex
ib ly
60 28
Ġlink id
Ø§ Ú©
Ġà¤ªà¤°à¤¤ à¤¦
ĠCh ild
ĠSt ar
Ġà¤°à¤£ à¤®à¤²
ĠÎ º
act eria
à° ¦
à´ Ł
ÙĪ Ùħ
à¨ ¸
ru pt
cl ass
Ġà¤ĸà¤Ł à¤ĸà¤Ł
à¥§à¥¯à¥ª à¥¨
ĠâĪ ļ
Ġwik imedia
Ġà¤Ĩà¤Īà¤ıà¤¸ à¤ª
Ġgr ound
Ġæ Ŀ
Ġequ als
Ġinv oke
Ar ray
Ġà¥§à¥®à¥ª à¥«
à¥§à¥¯à¥© à¥¬
Ġsource Title
Ġà¤®à¤¦à¤° à¤¬
Ġvari ant
ĠGr and
Wh ere
Ġhap pen
ĠMet a
Ġcirc um
ho i
Ġà¤²à¤ĸà¤¨ à¤µ
Ġtarget From
Ġdev ice
Ġwrap per
Ã¼ r
ĠSo ftware
rem ove
Ġelectr ical
Ġdevelop ed
ĠMod ern
ĠRight s
Ġapprox imate
Ġrespective ly
ĠãĢ ĳ
Ġpict ure
Ġspl it
Ġmathemat ical
790 6028
odym ium
C ategory
E rror
K O
M edia
O ptions
S ammartino
T M
T w
f e
k an
n s
u is
à¤¾ à¥Ī
à¤° à¤¯à¤¨
à¤¤ à¤¬à¤°
à¤¤ à¤®à¤ķ
à¤ķ à¤ªà¤ķ
à¤¯ à¤Ĺà¤°
à¤¸ à¤°à¤®
Ġà¤® à¤¸à¤ķ
Ġà¤® à¤°à¤¦
Ġà¤ª à¤²à¤¤
à¤¦ à¤®à¤ķ
à¤ª à¤²à¤®
à¤Ĺ à¤¬à¤¤
Ġà¤ħ à¤ķà¤°à¤®
Ġà¤¨ à¤°à¤¹à¤¤
à¤¶ à¤§à¤°
à¤· à¤°à¤¶
à¤¬ à¤¯à¤°
Ġà¤Ķ à¤¬
Ġà¤Ķ à¤§
à¤ı à¤µà¤¸
à¤ı à¤²à¤°
Ġà¤¶ à¤®à¤¸
à¤Ī à¤ķà¤°
Ġà¤īà¤¨ à¤¤
à¤Ĩ à¤ĩà¤Ł
Ġà¤µà¤° à¤¸
à¤°à¤¸ à¤¦
Ġs ense
ar ian
Ġà¤Ĳ à¤ªà¤²
Ġ3 19
Ġ3 11
en i
à¤Ŀ à¤°à¤¨
Ġà¤®à¤¨ à¤ªà¤¸
Ġà¤¸à¤¦ à¤Ĺ
à¥įâĢį âĢĮ
Ġf ly
Ġf riend
Ġa ware
Ġa ster
ĠT en
19 3
Ġd am
à¤ĩà¤Ł à¤²à¤°
Ġm ist
Ġm ention
à¤¬à¤¨ à¤µ
Ġo cean
ĠS ad
Ġà¤Ŀ à¤Ł
am an
à¤¨à¤µ à¤¦
à¤¬à¤² à¤¦
Ġ7 80
à¤ľà¤¬ à¤¹
20 3
ĠP ass
ĠP OS
ĠP ale
ĠP DF
Ġ9 30
Ġ9 40
Ġà¤Ĩà¤Ĺ à¤ľà¤¨
Ġof fer
de c
lo ss
ig en
Ġ15 43
Ġ15 42
à¤Ĺà¤® à¤£
Ġl ate
ĠD DC
ĠU nd
Ġ17 22
Ġ17 49
Ġ17 66
Ġ17 59
ĠW omen
ro d
ĠB ul
ĠB ol
ĠG reek
Ġ16 18
Ġ16 32
Ġ16 65
ĠL o
ĠL ord
qu ick
ĠR S
el a
ch ar
18 48
18 97
18 78
18 71
ut s
ad or
ĠF i
Ġà¤®à¤² à¤®à¤²
Ġv on
Ġ30 6
ĠK on
Ġ21 3
Ġ24 00
Ġse p
ĠO s
Ġà¤®à¤ķ à¤¬
ri ev
and ra
Ġas p
à¤ıà¤ļ à¤ıà¤®
Ġà¥§à¥Ń à¥¯à¥¯
est ival
12 1
Ġà¥§à¥¨ à¥¬
Ġ27 1
Ġ28 3
Ġform ed
Ġà ¹
à¤¨à¤µà¤° à¤¹
Ġ29 2
à¤®à¤¶ à¤¹
Ġcon vers
Ġtr aining
Ġch ain
Ġch lor
ĠIn te
Ġpr iv
gr ou
ob i
ĠY YY
ĠY ahoo
ide a
Ġ34 5
36 5
Ġsub c
à´ ª
ĠAr th
ĠAr ticle
à¤ªà¤¹ à¤²à¤µ
ert y
Ġaut om
Ġå ħ
à¤Īà¤ĵ à¤µà¤°
Ġà¥§à¥®à¥¬ à¥ª
Ġà¥§à¥®à¥¬ à¥¬
Ġ177 7
Ð¸ Ð½
Ġdet ect
Ġà¤Ńà¤Ĺà¤¤ à¤¸
ĠCon gress
Ġrec ords
Ġmark ed
Ġà¥§à¥®à¥ª à¥¯
Ġread er
à¥§à¥¯à¥¨ à¥¨
ĠCS F
à¤ħà¤ķà¤¬à¤° à¤ª
Ġsecond ary
Ġcheck ing
Ġmin imum
ĠAD B
prot ect
wh ich
Re alme
Ġà¤«à¤¡ à¤£à¤µ
tain ment
Ġart ist
ĠDiv ision
Ġcrit ical
à¤ļà¤°à¤ķ à¤¸
ĠAir port
Ġà¤ħà¤²à¤ķà¤¨ à¤¨
ĠPH EIC
Ġconver ted
Ġmagn itude
Ġpattern s
Ġà¤Ĩà¤Īà¤ıà¤¸à¤ıà¤¸ à¤ıà¤«
Ġfig ures
Ph one
Ġintro du
ĠÆ Ĵ
Ġcompon ents
Ø³Øª Ø§ÙĨ
Inf obox
Ġindust ry
Ġmem ory
ï¿ ¼
ĠExpl orer
iforn ia
ĠWyl ie
Ġthems elves
ĠYYY Y
0 70
B h
C IS
D ep
F O
H I
J ump
T F
T op
T yp
V T
h ib
l on
m t
u lum
y i
É ¾
Ö ´
å Ń
Ġ lock
Ġà¤ ©
Ġà¤ķ à¤ĩ
à¤¤ à¤ªà¤¨
à¤ķ à¤¸à¤°
à¤² à¤§à¤°
Ġà¤¸ à¤ªà¤¤
à¤¹ à¤ľà¤¨à¤ķ
à¥ģ '
Ġà¤ľ à¤¯à¤®à¤²
à¤Ĺ à¤ªà¤°
Ġà¤ħ à¤¡à¤µ
Ġà¤¬ à¤Łà¤°à¤«
à¤¶ à¤ªà¤°
Ġà¤¦ à¤®à¤¯
à¤¬ à¤Ĺà¤¦
à¤£ à¤µà¤¨
Ġà¤ı à¤ıà¤¨
Ġà¤Ĩ à¤Ĭ
Ġà¤ķà¤° à¤µà¤Ł
à¤ªà¤¨ à¤µ
à¤¤à¤° à¤ķà¤¥
à¤Ĩ à¤ĩà¤¨
à¤°à¤® à¤¬
à¤ł à¤£
à¤Ľ à¤¬
à¤°à¤¸ à¤°à¤ķ
00 2
Ġt end
à¤°à¤¹ à¤ª
à¤µà¤¨ à¤¦à¤°
à¤ĺ à¤ķà¤°
à¤®à¤ķ à¤®
Ġà¤ıà¤µ à¤²
Ġà¤ĵ à¤®à¤ķ
or ption
Ġs om
Ġà¥¨ à¥¯à¥®
ar r
he st
Ġà¤¸à¤° à¤ªà¤°à¤¸
à¤µà¤² à¤¸
à¤¤à¤® à¤ľ
Ġb hi
Ġa q
le ts
Ġ4 11
Ġ5 12
ĠT s
ĠT rib
ĠT reat
Ġw atch
ĠS r
ĠS at
ĠS ciences
Ġ6 10
à¤®à¤² à¤®
à¤¤à¤µ à¤ķ
à¤ıà¤¸ à¤ĵ
ĠP E
ĠP lease
ĠA u
Ġà¤¬à¤° à¤¬à¤¸
à¤²à¤µ à¤¶
Ġ9 18
Ġ9 11
Ġà¤Ĩà¤Ī à¤Ĩà¤°à¤ıà¤¸
Ġan imal
us es
Ġ15 27
ĠD A
ĠD E
Ġ17 46
id i
id o
Ġà¤ıà¤¨ à¤ļ
ĠW he
ĠB SC
Ġà¤ıà¤® à¤ıà¤®à¤ıà¤¸
Ġ16 40
ĠN WA
ĠL ow
ĠL ev
Ġ11 50
iv a
ĠR at
18 68
Ġst and
st one
à¦ £
à¤ıà¤« à¤ĵ
av y
ĠV P
ĠV an
Ġex change
Ġ28 7
Ġà¥§à¥¬ à¥«
ov ery
Ġâ ĵ
Ġ29 8
13 1
ant e
Ġat m
Ġpr ed
per ty
Ġpl us
ud u
à¤¡à¤ķà¤° à¤µ
Ġà¤°à¤£ à¤Ľ
Ġ38 5
Ġedit ion
ens ing
Ø± Ùħ
Ġtrans fer
ĠÐ Ĳ
ĠÐ Ł
Ġam p
àµ ĩ
à¤ĵà¤° à¤Ľ
Ġph one
ĠPro f
à¥§à¥¯à¥¬ à¥ª
Ġsupp ly
Ġà¥©à¥¬ à¥«
à¥§à¥¯à¥« à¥¯
ef ore
lum b
Ġfil ms
Ġà¼ į
à¥§à¥¯à¥© à¥¯
Ġshow ing
ĠCS I
Ġap plies
back ground
Ġrequest s
ĠEd ward
wh ite
Ġà¤²à¤¹ à¤°à¤¦
Ġorig in
à« ĩ
Sc reen
Ġphys ics
ynam ics
Ġann oun
Ġmolec ule
Ġdeg rees
Ġimplement ed
âĸ ł
Ġhold s
ĠFire fox
Ġnucle us
ĠRuss ian
fr ame
ĠProgr am
Ġadj ust
Ġsett ings
Ġesc ape
ĠPN R
ĠSuk hoi
ĠRich ard
ĠIMA X
Inv oke
Call back
Ġic ons
ĠMich a
ĠMalays ia
ĠInte gr
' ll
2 14
B F
B r
C ard
G T
M e
N I
P os
R em
R ow
R aj
R eturns
T emplates
T unes
W eb
Y P
b all
m n
y an
ã Ģ
Ġ à¥ĭ
Ġà¤ķ à¤Łà¤¤
à¤¤ à¤ĭà¤·
à¤ķ à¤¬à¤²
à¤ķ à¤µà¤ķ
à¤ķ à¤ħà¤®
à¤¯ à¤¡à¤°
à¤¯ à¤Łà¤®
à¤¸ à¤²à¤¤
Ġà¤® à¤Ĺà¤²
Ġà¤ª à¤¸à¤°
à¤¦ à¤«
à¤Ĺ à¤¸à¤¨
à¤Ĺ à¤²à¤¯
Ġà¤ħ à¤¬à¤°
Ġà¤¨ à¤ľà¤®
Ġà¤¬ à¤¥
à¤· à¤¯à¤°
à¤¡ à¤µà¤¤
à¤§ à¤°à¤®à¤ª
à¤ļ à¤°à¤µ
Ġà¤ī à¤¶
à¤ı à¤ĵ
Ġà¤Ĩ à¤ĩà¤«
Ġà¤¶ à¤Ł
Ġà¤ķà¤° à¤®à¤ļ
à¤Ī à¤®à¤°
à¤ĩ à¤«à¤°
à¤°à¤¤ à¤Ń
à¤ªà¤¨ à¤¡
Ġà¤« à¤Ĺ
à¤ķà¤° à¤Ĺ
à¤ī à¤¤à¤°
Ġà¤¡ à¤Ĺà¤®à¤Ĺ
Ġà¤µà¤° à¤¦à¤°
à¤ľà¤¨ à¤¹
à¤¹à¤° à¤¶
à¤Ĺà¤° à¤µ
Ġà¤Ī à¤Ĺ
Ġs ourced
ar an
Ġc ou
Ġ3 16
en ed
Ġà¤Ĩà¤° à¤Ĩà¤°
Ġà¤Ĩà¤° à¤Ĩà¤Īà¤ı
à¤Ĺà¤² à¤ĸ
à¤Ĺà¤² à¤®à¤¯
Ġb all
Ġa way
Ġà¤¹à¤® à¤¶à¤ķ
Ġ4 90
ĠT able
ĠT itle
ĠT alk
ic us
ic ies
Ġà¤¹à¤° à¤°
Ġà¤ļà¤² à¤µ
Ġd ynasty
Ġm es
Ġm ut
ĠM L
ĠM RI
à¤¬à¤¨ à¤Ĺà¤°
re y
ĠS umm
Ġ6 60
ĠC ry
ĠC GI
ĠC ivil
ĠP unjab
Ġà¤ľà¤° à¤¥
ĠI MT
à¤ĩà¤² à¤ª
Ġà¤ıà¤¸ à¤ıà¤®
lo ok
Ġà¤Ĩà¤® à¤¦
Ġh u
Ġh ours
à¤¯à¤¯à¤¨ à¤°à¤¤
Ġ15 98
Ġl ot
Ġl ack
Ġth ing
ĠD O
ĠD en
ĠU I
Ġà¤ıà¤¨ à¤ıà¤¸à¤ı
Ġà¤ıà¤¨ à¤Ĩà¤°à¤Ĩà¤Ī
ĠB ag
ĠB ig
Ġg all
Ġ16 30
ĠN AA
ac c
ĠL ight
ĠL ake
ĠL AN
à¤ıà¤® à¤ĵ
à¤īà¤¦ à¤¯à¤¨
18 15
18 58
18 72
ĠF D
ĠF ort
Ġà¥§à¥® à¥¨à¥¦
od ies
Ġ25 3
ĠK i
ĠK ey
à¤ħà¤® à¤°à¤¨
av n
15 5
Ġà¤ıà¤ļ à¤ľ
Ġà¥§à¥« à¥«
ak s
16 8
ĠJ P
Ġ28 9
ov a
Ġsh ip
Ġà¥§à¥ª à¥®
Ġà¥§à¥ª à¥ª
ant i
so le
Ġà¤ĺà¤¨ à¤ĺ
log y
ĠIn vest
gr ay
Ġà¤Ńà¤°à¤¤ à¤®
Ġj Query
ÙĦ Ø§
Ġ33 4
Ġ33 7
Ġ37 7
ach i
Ġ38 4
lect ric
Ġlist ing
à° ¡
Ġsy nt
Ġapp reci
Ġà¥§à¥¦à¥¦ à¥¦à¥¦
Ġà¤¬à¤°à¤¸ à¤¤
erv oir
à¤ľà¤¯à¤¨ à¤Ĺà¤°à¤®
ĠAm azon
ĠØ§ÙĦ Ø±
à¥§à¥¯à¥¬ à¥¯
Ġà¥§à¥®à¥¬ à¥¨
Ø¨ ÙĬ
Ġà¤Ĩà¤Īà¤ıà¤¸ à¤Ĩà¤Īà¤ıà¤²
à¥§à¥¯à¥« à¥Ń
Ġprodu ction
Ġà´ ®
AR T
BS D
Ġfil ter
Ġà¥§à¥®à¥ª à¥¨
Ġrepl acement
adi ent
à¥§à¥§à¥ ¬
ĠBr un
Ġkey s
à¥§à¥¯à¥§à¥ ¯
aur us
ĠDr agon
ĠQu ick
ĠAg ency
iy e
Ġä º
Ġcomb in
Ġpoly m
ĠSec urity
Ġmot ion
ĠPakist ani
Ġdu plic
Ġê Ŀ
Ed it
Ġclick ing
Ġrecogn ized
Ġfrequ ently
Ġredu ce
Ġliter ature
ĠChrist ian
Ġmeasure ment
Ġprogramm ing
à¸² à¸
ĠEcon omic
Se lect
yes no
Ġà¤Łà¤¹ à¤²à¤¨
ĠComput er
ĠAfric a
à¤ļà¤ªà¤° à¤Ĺà¤¨
pop up
Out put
Ġalphab ets
ĠOSP F
áĢŃ áĢ¯
0 60
0 39
A tt
B oth
C urrent
D et
H F
L L
O f
R ef
W P
Y M
Y our
e er
f n
f old
g n
g color
k in
m ann
p u
Ã £
Ã ¬
Î ®
ê ¯
à¤° à¤Łà¤¨
à¥Ģ à¤¿
à¤¨ à¤²à¤ķ
à¤¸ à¤Ĺà¤°
à¤² à¤Ńà¤Ĺ
Ġà¤¹ à¤¹
Ġà¤® à¤°à¤¹
Ġà¤® à¤²à¤µ
Ġà¤® à¤Ĺà¤¨
Ġà¤® à¤°à¤¹à¤®
à¤ª à¤¶à¤¨
Ġà¤ħ à¤Ĺà¤¤
Ġà¤ħ à¤ľà¤°
Ġà¤µ à¤ļ
Ġà¤µ à¤°à¤ķ
Ġà¤¨ à¤°à¤ªà¤¤
à¤¶ à¤¬à¤°
Ġà¤¦ à¤²à¤µ
à¤¬ à¤¨à¤°
à¤§ à¤µà¤¸
Ġà¤ı à¤·
Ġà¤Ń à¤ıà¤ķ
Ġà¤¤ à¤Ĺà¤¡
Ġà¤Ĩ à¤°à¤µ
à¤Ń à¤µà¤¸
à¤ĸ à¤¹
Ġà¤ħà¤¨ à¤Ł
à¤ķà¤° à¤µà¤°
Ġà¤Ł à¤ªà¤ķà¤¤
Ġà¤¡ à¤°à¤ª
à¤ĵ à¤Ī
à¤Ľ à¤ķà¤Ł
Ġà¤ľà¤¨ à¤¸à¤¤
in ae
in ema
à¤¸à¤® à¤¦
à¤¯à¤° à¤ªà¤°
Ġà¤ķà¤® à¤¨
à¤ĩà¤¨ à¤ª
Ġs q
Ġà¤¦à¤° à¤ľ
à¤ķà¤°à¤£ à¤¶
Ġà¤®à¤¨ à¤¶
Ġb and
Ġb ound
Ġp ay
Ġp ip
Ġà¤ħà¤ª à¤¶à¤ķ
Ġ5 20
Ġ5 80
ĠT C
Ġm ount
Ġm iddle
Ġà¤¶à¤¬ à¤¨à¤®
ĠM O
ĠS et
ĠS AM
Ġn ahi
Ġ6 20
à¤¸à¤² à¤¦
à¤¨à¤® à¤£
ĠC er
ĠC ur
ĠC ell
Ġ7 60
as px
ĠP u
ĠP ad
ot he
Ġ8 14
Ġ8 60
à¤¹à¤® à¤¯
ent ric
Ġà¤µà¤¸ à¤Ī
Ġ15 12
Ġ15 55
Ġ15 64
Ġsp read
un its
ĠTi b
ĠD ise
ĠD isc
Ġ17 16
Ġ17 96
il ities
Ġà¤®à¤¦ à¤¤
ĠB at
ĠB os
ĠB lock
ĠB lue
Ġg old
ĠG ur
ĠG erm
Ġ16 12
Ġ16 42
ĠL al
ĠL ov
ĠE mb
ĠH I
à¤«à¤² à¤Ĺà¤°
os ity
ĠR GB
Ġà¤ªà¤¢ à¤¤
Ġà¤°à¤¸ à¤ª
ch ron
18 88
18 86
18 56
18 83
ĠF err
Ġà¥§à¥® à¥¨à¥Ń
od erm
Ġv ote
Ġà¤¸à¤ľ à¤Ĺà¤¤
ĠK ore
Ġà¤°à¤¨ à¤Ł
av i
av en
Ġà¥§à¥Ń à¥Ńà¥«
12 8
12 9
Ġà¥§à¥¨ à¥¨
ov t
ant a
à¤Ļ à¤ķ
Ġu pper
Ġat om
Ġà¤¸à¤°à¤¸ à¤¤
Ġi Tunes
à¤ıà¤¡ à¤Ĺà¤°
ĠY ol
ens or
ath y
Ġà¥¨à¥¬ à¥¦
Ġ150 5
Ġ150 9
Ġà¥¨à¥® à¥¦
Ġpre load
Ġà¥§à¥¦à¥ ¯à¥
à² µ
ĠQ ual
tion ary
ash a
à½ ĵ
Ġà¤¹à¤¬ à¤¶
Ġinter pre
box es
amm ar
Ø¨ Ø±
à¥§à¥¯à¥« à¥®
Ġrec ip
ĠFr ank
load Data
Ġmost ly
ele br
Ġà¥§à¥®à¥© à¥ª
Ġà¥§à¥®à¥© à¥¬
à¥§à¥¯à¥© à¥¨
Ġlog ic
Ġob s
ĠÙ ĥ
Ġpol icies
Ġloc ations
Ġvi ews
Ġgu itar
Î¿ Î½
def ine
Ġcontribut ors
ĠTe am
ĠSW OT
Ġside bar
ĠWh at
Ġexper ience
Ġâī ¥
Ġcoll apse
ĠNC AA
Ġmolec ular
Ġsent ence
Ġsumm ar
Ġinvol ved
Ġattribut es
ĠPot ter
Ġdistribut ion
Ġestab lished
Ġà¤ıà¤ħ à¤°à¤ª
ĠBeng ali
ĠChamp ionship
Ġimmedi ately
inci ples
Invoke F
ãĢ Ĳ
4 80
5 50
6 50
C har
D ev
H and
L og
L ength
O pen
P O
V P
Y es
f rom
k al
m edi
p us
r im
u an
y ear
Ã ī
Å ĭ
à¤ķ à¤«à¤²
à¥ĭ à¥ĩ
à¤¸ à¤ıà¤¶
à¤² à¤°à¤ķ
Ġà¤¸ à¤¦à¤°à¤²
Ġà¤¹ à¤°à¤µ
à¤® à¤¶à¤°
Ġà¤® à¤Łà¤¨
à¤µ à¤§à¤¨
à¤¦ à¤¤à¤¨
Ġà¤ħ à¤ĩà¤ľ
Ġà¤ħ à¤¹à¤¦
à¤Ł à¤Łà¤Ĺ
à¤ľ à¤ķà¤¨
à¤ľ à¤Ńà¤°
à¤ľ à¤Ĺà¤ľ
à¥Ĥ à¥į
Ġà¤¨ à¤¤à¤®à¤¸
à¤¶ à¤¬à¤¨
à¤· à¤°à¤®
à¤¡ à¤ħà¤²
Ġà¤² à¤¢
à¤¥ à¤«
à¤ļ à¤ķà¤¨
à¤ļ à¤®à¤Ĺ
Ġà¤ı à¤¸à¤°
Ġà¤ı à¤¹à¤²
à¤¼ à¥ģà¤Ĥ
Ġà¤¤ à¤Ĺ
à¤Ī à¤ıà¤«
à¤¾à¤Ĥ à¥ĩ
à¤« à¤Ī
Ġà¤« à¤°à¤¸
à¤ķà¤° à¤²
à¤ł à¤¤à¤°
à¤°à¤¸ à¤ĸ
à¤Łà¤° à¤ľ
Ġt et
à¤¹à¤° à¤°
on se
à¤ĺ à¤ª
Ġà¤¸à¤¬ à¤¬
à¤®à¤ķ à¤¨
à¤¤à¤¨ à¤ľ
Ġà¤Ĳ à¤²à¤¬
à¤ķà¤² à¤¹
Ġ3 29
Ġà¤ķà¤² à¤Ĺ
is ions
Ġf it
Ġf av
Ġb a
Ġp y
à¤§à¤¨ à¤°
à¤²à¤ķ à¤Ł
19 4
Ġw arn
à¤ľà¤° à¤ª
Ġm ere
ĠM ill
ĠM ach
ĠM ajor
ĠM edicine
ĠM iddle
Ġà¤Ĩà¤¨ à¤²
à¤µà¤ª à¤¦
ĠS ound
ĠS elf
Ġà¤ľà¤² à¤¦
am ing
am ental
20 2
ĠP ath
ĠP eter
ĠA tt
Ġà¤ĩà¤² à¤ľ
Ġ8 40
Ġ8 70
à¤ĩà¤¡ à¤®
Ġà¤Ĩà¤Ī à¤¡à¤¬
ent y
Ġto wn
Ġ15 82
Ġ15 58
Ġà¤²à¤¡ à¤¨
ĠD om
ĠD ie
à¤®à¤¹ à¤¬
Ġ17 14
Ġ17 21
Ġ17 02
ĠB et
ĠB ir
ĠB and
ĠB ox
ĠB ell
ĠB ern
ĠG reg
Ġ16 67
ĠN GO
Ġà¤Ĺà¤£ à¤Ĺ
Ġ13 50
à¤ľà¤¯ à¤ľ
ĠL ED
Ġre ct
ĠE uler
Ġà¤ıà¤¶ à¤°
ĠH R
ĠH ard
os hi
à¤ıà¤® à¤¯
à¤ıà¤® à¤ıà¤ķ
ĠR E
ĠR ub
el i
18 66
18 64
18 59
ĠF ixed
Ġà¤§à¤¨ à¤ª
Ġà¥§à¥® à¥¨à¥©
Ġr uled
ia ble
th al
Ġst ored
ab s
à¦ ļ
à¤ĳ à¤Ĺà¤¸
ĠÂ µ
ĠO f
à¤®à¤ª à¤Ł
à¤Ĺà¤£ à¤°
Ġk bd
16 3
16 5
ĠJ o
Ġ28 2
Ġ28 8
Ġwh itespace
Ġâ Ĺı
Ġ29 6
22 5
Ġbr ing
ĠMag n
ord ers
Ġdis able
per m
Ġhe m
Ø§ Ø³
ok en
ach ing
Ġ34 2
Ġint r
à² Ĺ
ie ce
Ġà¦ ¨
Ġà¦ ¹
ĠAl b
ĠAl i
áĢ ±
sh ow
sh ire
Ġmet ric
ĠWik isource
ĠØ§ÙĦ Ø¹
à¤½ à¤¨
Ġrem ain
Ġrem ember
à¥§à¥¯à¥« à¥©
Ġact ivity
Ġsc roll
SA P
ĠComm unity
Ðµ ÑĢ
Ġallow ing
Ġmod ified
ĠRe al
Ġcontent ed
Ġstart ing
Ġpol ar
Ġvari ants
Ġdep loy
Ġà¤ľà¤¯à¤¨ à¤Ĺà¤°
Ġel im
ĠIs lam
str ing
ĠØ¹ ÙĦ
ĠNe ur
ĠAnd roid
ho ea
ĠCal ifornia
erc ial
erc ase
Ġà¤¨à¤µà¤² à¤Ĺà¤¢
ãĥ ³
Ġexper im
met ry
ĠDep artment
ĠChe ck
eh icle
Ġperm ission
Ġquant um
reet ings
aug e
Ġregard ing
ĠMas dar
Ġcompon ent
ĠGW T
ĠWikim edians
áŁ Ĵ
Str ing
Ġconcent ration
Sy ntax
Ġsus p
Ġcryst al
Ġben ef
Ġimped ance
1 14
2 11
A z
D e
D ocumentation
M on
M an
O ver
T L
U til
b al
b ury
d h
h r
h t
h aps
k er
o pl
p i
t alk
t emplate
w rit
z u
Ã ¸
É ¡
Ê ĥ
â Ĩ
ê ł
Ġ Þ
Ġà¤ ĥ
à¤¾ âĢĮ
à¤° à¤ĵ
Ġà¤ķ à¤µà¤²
à¤¤ à¤Łà¤¸
à¤ķ à¤®à¤¨
à¤¸ à¤ļà¤°
à¤² à¤Ĩà¤īà¤Ł
Ġà¤ª à¤Ļ
à¤¹ à¤²à¤°
à¤¦ à¤Ĺà¤¢
à¤ª à¤¬à¤°
à¤ª à¤Ĺà¤¤
Ġà¤ľ à¤¦à¤¯
à¤Ĺ à¤Ľ
Ġà¤µ à¤²à¤¸
à¤ľ à¤£
à¤ľ à¤²à¤¤
Ġà¤¦ à¤¶à¤¨
à¤¡ à¤®à¤¨
à¤§ à¤¤à¤®
Ġà¤² à¤µà¤°
à¤¥ à¤¤à¤®
Ġà¤ī à¤ľà¤²
Ġà¤¤ à¤®à¤Ĺ
à¤ı à¤ªà¤¨
à¤ı à¤Ŀ
Ġà¤Ĩ à¤¡à¤®
Ġà¤ĩ à¤¹à¤²
à¤°à¤¤ à¤¨à¤ª
à¤« à¤ľ
à¤« à¤°à¤²
Ġà¤ĸ à¤µ
Ġà¤ĸ à¤¤à¤®
à¤ī à¤Ńà¤¯
Ġà¤¡ à¤°à¤ķà¤°
à¤ĵ à¤ıà¤®
Ġà¤¨à¤¹ à¤ª
à¤ªà¤° à¤ļ
à¤¯à¤¨ à¤ª
à¤°à¤¹ à¤ķ
à¤²à¤¨ à¤µ
à¤¬à¤° à¤¬
à¤²à¤¤ à¤ª
à¤¯à¤® à¤¬à¤¦
à¤®à¤¨ à¤Ń
à¤ĩà¤¨ à¤¹
Ġà¤ĵ à¤¨à¤°
Ġà¥¨ à¥¯à¥©
ar ter
à¤¤à¤¨ à¤Ń
he t
à¤®à¤¤ à¤²
Ġà¤®à¤¨ à¤°
Ġà¤Ĩà¤° à¤ıà¤ıà¤«
Ġa ircraft
Ġà¤¸à¤°à¤ķ à¤¶
ic ult
à¤ķà¤¨ à¤«
Ġà¤¹à¤° à¤¡
Ġm ig
Ġm ah
Ġm ission
ĠM un
ĠM oto
ĠS and
ĠS af
Ġ6 22
ĠC art
à¤Ĭ à¤¥
ĠP V
ĠA H
ĠA h
Ġà¤¨à¤µ à¤¯à¤¥
Ġ9 45
Ġ9 35
Ġà¤Ĩà¤Ī à¤ıà¤«
ĠI J
Ġ10 66
Ġà¤ıà¤² à¤ıà¤²
Ġà¤Ĩà¤® à¤ľà¤¨
Ġto x
à¤®à¤¸ à¤¤
à¤®à¤¹ à¤ľ
Ġ17 13
Ġ17 45
Ġ17 06
Ġfor est
id ation
ĠW A
ĠB or
à¥§ à¥¦à¥¨
Ġà¤ıà¤® à¤ıà¤¸à¤ıà¤®
à¤¬à¤¦ à¤²à¤¤
à¤¹à¤² à¤¹
à¤µà¤ľ à¤Ĺà¤¤
ĠL BW
ĠH u
ĠR ay
ch n
18 79
Ġà¥Ń à¥¦à¥¦à¥¦
ĠF am
Ġy a
Ġà¥§à¥® à¥¦à¥¯
à¤ıà¤¨ à¤Ĩà¤Ī
Ġr u
Ġr andom
Ġà¤®à¤² à¤ª
od ay
od ium
Ġv ill
Ġà¥¬ à¥ªà¥¦
Ġse ctor
à¤ĳ à¤¬
Ġpar s
Ġpar ser
Ġpar ams
17 9
15 8
16 7
à¤ĩà¤ª à¤«
Ġ40 5
Ġà¤ħà¤¹à¤® à¤¦à¤¶
Ġà¥§à¥¬ à¥«à¥¦
se ction
se arch
pt on
ra h
Ġcon ven
Ġà¥§à¥© à¥¬
ard en
à¤ħà¤¸ à¤¹à¤¯
Ġx x
Ġ33 2
ode l
ong o
out put
Ġres ervoir
eed y
ank ar
olog ist
aw an
Ġà¦ ļ
Ġcomm and
Ġqu ite
hy l
ĠØ§ ÛĮ
Ġà¤¨à¤¬ à¤µ
Ġspecif ies
à¤ħà¤µ à¤¤à¤°à¤£à¤ķ
Ġ97 89
à½ Ĥ
Ġå į
Ġgener ic
Ex t
à¥§à¥¯à¥¬ à¥¬
Ø¨ ÙĪ
Ġà´ ¨
Ġdist in
Ð¾ Ð»
EC D
Ġà¤¨à¤°à¤® à¤ª
Ġà¥¨à¥¦à¥¨ à¥§
ĠÏ Ħ
Ġlabel s
Ġchar ge
Ġà½ ĸ
Ġà½ ĺ
Ġmark s
Ġmark er
à¥§à¥¯à¥© à¥Ń
Ġcap s
Ġcap acity
Ġbot s
Ġpartic les
Ġà® ª
Ġman ufact
pro duces
à¥§à¥§à¥ ®
arg o
Ġappear ance
Ġà¤¹à¤ł à¤§à¤°
ĠIs land
AC P
Ø§Ø ²
ĠTechn ologies
ĠHar vard
SI WY
Ġâī ¡
Ġcoll aps
ĠDes ign
ĠDes ktop
Ġsugg ested
Ġimm un
Ġdiff icult
Ġpropos al
Ġdescrib es
imb ledon
ÏĮ ÏĤ
Ġcompet ition
ĠGA BA
ĠAdmin istr
illionth s
Ġmac ro
Ġpri or
Ġarchitect ure
Inst ead
result s
ĠMech an
Ġtourn ament
Ġcontented itable
' d
' ve
0 47
0 80
0 46
9 65
G oogle
I ON
J P
S W
W W
W orld
b or
c ite
c ss
h ere
j o
k it
× Ĳ
Ĺ ¥
Ġà¤ķ à¤«à¤¨
à¤¨ à¤°à¤¤
à¤¤ à¤Ĺà¤°
à¤¤ à¤³
à¤¯ à¤¯à¤µ
à¤¯ à¤¬à¤¹
à¤® à¤§à¤¨
à¤® à¤¯à¤¦
à¤µ à¤®à¤¤
à¤µ à¤®à¤£
à¤¦ à¤¸à¤°
à¤¦ à¤ķà¤²
à¤Ĺ à¤µà¤²
à¤Ł à¤¹à¤°
à¤Ł à¤µà¤²
à¥Ĥ '
Ġà¤¨ à¤°à¤ķà¤Ł
à¤¶ à¤°à¤®
Ġà¤¦ à¤¸à¤®
Ġà¤¦ à¤¦à¤°
Ġà¤° à¤ª
à¤¡ à¤²à¤¨
à¤¬ à¤¦à¤°
à¤¬ à¤ĺà¤°
à¤§ à¤°à¤®
Ġà¤² à¤Ľ
Ġà¤¤ à¤µà¤ľ
Ġà¤¶ à¤ķà¤°
à¤Ī à¤¯à¤¨
à¤Ī à¤¬à¤²
Ġà¤ļ à¤ªà¤¡
à¤°à¤¤ à¤Ĺ
Ġà¤¸à¤® à¤¥
Ġà¤¸à¤® à¤ªà¤¤
Ġà¤ħà¤¨ à¤µ
à¤Ĩ à¤°à¤£
à¤Ĩ à¤ķà¤¸
à¤Ĩ à¤£à¤µ
à¤Ľ à¤°à¤¦
à¤¯à¤ķ à¤¨
à¤ħ à¤ķà¤²
à¤ħ à¤°à¤²
à¤ħ à¤ĸà¤°
Ġà¤§ à¤¸
00 4
âĢ ĵ
à¤¸à¤° à¤¬
à¤¸à¤° à¤«
Ġt ree
Ġt ube
à¤¯à¤¨ à¤¤
à¤¸à¤¨ à¤¸
à¤ĺ à¤łà¤¨
Ġà¤ķà¤® à¤°à¤¬
à¤ļà¤¨ à¤°
Ġà¤ĵ à¤®à¤°
Ġà¤ĵ à¤µà¤°à¤ķ
Ġs ab
Ġà¤ĳ à¤²à¤¸
Ġà¥¨ à¥§à¥®
à¤°à¤µ à¤ĺà¤¨à¤¤
he tic
Ġà¤ľà¤¬ à¤²
Ġc ru
Ġà¤ķà¤² à¤ª
Ġà¤®à¤¨ à¤ľ
à¤Ĺà¤² à¤¸à¤°
à¤Ĺà¤² à¤ªà¤Ł
Ġf et
Ġf ast
Ġp unct
Ġa w
Ġ4 25
Ġà¤¸à¤°à¤ķ à¤¤
à¤²à¤ķ à¤µ
Ġw g
Ġd at
Ġd ys
Ġm oz
ĠM K
ĠS en
ĠS ign
Ġ6 70
Ġ7 87
20 4
ĠP ul
ĠP ac
ĠP ay
ĠA K
ĠA y
ĠA tom
Ġà¤¬à¤° à¤²
à¤¥à¤² à¤®
Ġà¤ıà¤¸ à¤ıà¤¸à¤¸
Ġh tm
à¤¯à¤¸ à¤¤
Ġ15 35
à¤Ĺà¤® à¤ª
Ġl iving
Ġ17 12
Ġ17 31
ul ates
Ġà¤ıà¤¨ à¤ıà¤ıà¤²
ĠB io
ĠB oy
ĠB omb
ĠG re
Ġ16 15
Ġ16 52
Ġ16 59
ĠN ik
ĠN ep
Ġ13 25
à¤µà¤ľ à¤¹
ĠL abor
Ġ14 50
ĠR et
à¤®à¤£ à¤¸
18 8
18 73
ĠF il
ĠF ood
Ġà¥§à¥® à¥¨à¥«
Ġà¥§à¥® à¥¦à¥§
ers hip
um e
Ġà¤ĩà¤® à¤°à¤¤
Ġà¤ķà¤ł à¤«
Ġv en
Ġà¤¹à¤Ł à¤µ
à¥§à¥¯à¥ §à¥¦
oc al
oc ol
ce ed
ĠV id
ang ement
ri e
Ġk r
16 4
op es
Ġà¥§à¥Ń à¥¬à¥«
Ġex pos
Ġ26 1
Ġ26 7
Ġ26 00
12 2
Ġ27 7
Ġ27 9
à¤²à¤ª à¤¥
Ġform al
Ġà¥§à¥¬ à¥¬
Ġà¤Ĩà¤¦à¤° à¤ª
Ġpro port
Ġfr ag
Ġâ ľ
Ġà¤°à¤ļ à¤ķà¤°
13 3
13 4
orm s
Ġcon vent
Ġà¤ļà¤Ł à¤ªà¤Ł
Ġà¥§à¥© à¥©
Ġà¤ľà¤Ĺà¤¤ à¤¸
Ġtr igon
Ġquot es
Ø§ Ùĩ
ell ing
Ġi Phone
Ġpl ants
à¤Ĺà¤ķ à¤£
Ġj i
Ġj ournal
Ġ33 1
Ġà¤¶à¤°à¤£ à¤¸
gin es
Ġ34 4
Ġ38 6
à´ ³
à´ µ
à² ¯
ĠAr g
Ġapp ar
ĠIS P
Ġà¤·à¤¡ à¤¯à¤¨
Ġà¤¨à¤Ĺ à¤°à¤ķ
ĠPr inc
ĠPr asad
ater al
ET Screen
IS S
Ã© n
à¤ĩà¤ªà¤° à¤ª
à¥§à¥¯à¥ª à¥¬
Ġà¤Ĩà¤Īà¤ıà¤¸ à¤Ĩà¤Ī
Ġgr adient
ĠOr der
EC T
Ġoption ally
Ġmain tain
Ġà½ Ĥ
à¤ķà¤ł à¤ª
Ġà¥§à¥®à¥ª à¥¬
Par am
à¥§à¥¯à¥© à¥®
Ġtest s
Ġà¤Ĩà¤°à¤ıà¤¨à¤ı à¤Ĩà¤Ī
Ġatt ention
Ġsecond s
Ġwant ed
Ġsign al
ĠCol or
à¥§à¥§à¥ ª
à¥§à¥§à¥ Ń
Ġdep end
Ġdel isted
Ġchang ing
à¥§à¥¯à¥§à¥ ®
Ø§Ø ¡
Ġperiod ic
Ġtool tip
ĠPers ian
Ġoper ation
Ùİ Ùĳ
Ġocc ur
Ġocc urr
Ġradi ation
Ġparticular ly
ĠArch ive
Ġder iv
Ġprim arily
now rap
Ð¾Ð² Ð¸Ñĩ
Ġmechan ics
Ġoverl ay
Ġconcern s
Ġincor rect
ĠId ent
Ġmarath on
Similar ly
Cite TB
ĠArth ur
A v
A cc
G H
G reetings
H el
H indi
J A
M ap
P F
W HO
b urg
e k
f ect
g ery
j an
m l
m ing
o ly
t z
w ari
y x
× ĳ
à¤ Ĵ
à¤° à¤°à¤¤
à¤° à¤¥à¤ķ
à¥į '
à¤¨ à¤ľà¤¨
à¤¤ à¤ĸà¤¤
à¤ķ à¤ı
à¤¸ à¤īà¤¦
à¤² à¤ħ
à¤² à¤ĸà¤°
à¤® à¤¬à¤¨
à¤® à¤®à¤¯
Ġà¤® à¤¶à¤ķ
Ġà¤® à¤¡à¤Ĺ
à¤µ à¤ļà¤°
à¤¦ à¤·
à¤¦ à¤²à¤¸
à¤ª à¤ľà¤¨
à¤Ł à¤ĸ
Ġà¤¦ à¤ľ
Ġà¤° à¤£à¤¸
à¤¬ à¤¸à¤°
à¤§ à¤ļà¤¨
Ġà¤Ĺ à¤¬à¤¨
Ġà¤ı à¤ıà¤¸à¤Ł
Ġà¤Ń à¤Ń
Ġà¤Ń à¤Ī
Ġà¤¤ à¤²à¤®
à¤ı à¤ķà¤¨
à¤ı à¤Ĩà¤°à¤¸
Ġà¤Ĩ à¤¥
Ġà¤Ĩ à¤ĩà¤¯
Ġà¤Ĩ à¤Ĭà¤Ł
à¤Ń à¤°à¤¹
Ġà¤ªà¤° à¤¸à¤°
à¤°à¤¤ à¤°à¤¤
à¤ªà¤¨ à¤ķ
Ġà¤« à¤®
Ġà¤ħà¤¨ à¤¤
à¤Ĩ à¤µà¤°à¤£
à¤ķà¤° à¤¬
à¤ī à¤Ń
à¤ī à¤ªà¤®
à¤¯à¤ķ à¤®
à¤ħ à¤¤à¤°
à¤ħ à¤Ľ
à¤ħ à¤®à¤¤
à¤ħ à¤¹à¤²
Ġà¤®à¤¹ à¤®à¤¦
Ġà¤§ à¤¨à¤¤
Ġà¤ķà¤¹ à¤µ
à¤Łà¤° à¤°
à¤µà¤¤ à¤ª
à¤µà¤¤ à¤Ń
à¤µà¤¤ à¤ĸ
à¤¯à¤¨ à¤¬
Ġà¤ħà¤² à¤¬à¤¤
à¤ŀ à¤¨
à¤·à¤£ à¤¶
à¤·à¤£ à¤ķà¤°
or p
Ġs ar
Ġà¤ĳ à¤ľà¤¬
Ġà¤¸à¤¹ à¤¯à¤¤
Ġà¥¨ à¥§à¥©
Ġà¥¨ à¥¯à¥«
Ġà¥¨ à¥¯à¥Ń
Ġà¤ħà¤® à¤ľ
Ġà¤ħà¤® à¤°à¤ª
he im
à¤¡à¤² à¤µ
is l
à¤Ĺà¤² à¤Ī
Ġf re
Ġp en
Ġà¤ħà¤ª à¤ļà¤¯
Ġ5 10
19 1
à¤°à¤¨ à¤µ
Ġd x
ĠM ic
ĠM ang
ĠM erc
re as
re hens
à¤µà¤ª à¤¥
ĠS ang
ĠS ri
Ġn ar
Ġn ested
ĠC G
ĠC e
ĠC ass
ĠC AT
ĠC AD
Ġà¤¨à¤¦ à¤µ
Ġà¤¬à¤¦ à¤¹
ct uary
Ġà¤ł à¤¹
Ġà¤ĺà¤° à¤ĺà¤°
om ot
à¤¹à¤¨ à¤¨
Ġà¤ıà¤¸ à¤Ĩà¤°
et es
Ġà¤Ĩà¤® à¤µ
à¤·à¤¯ à¤µ
Ġà¤¢ à¤¬
Ġ15 11
Ġ15 60
Ġ15 53
Ġ15 91
Ġ15 76
Ġl it
Ġl ingu
Ġl iquid
Ġà¥© à¥ªà¥¦
Ġà¥© à¥®à¥¦
ĠU V
Ġà¤ķà¤¨ à¤µà¤°
Ġ17 15
Ġ17 26
Ġ17 44
Ġ17 51
ĠW ind
Ġ12 96
ĠB AS
Ġg ly
ĠG n
ĠG ame
ĠG PS
Ġ16 24
Ġ16 53
ĠL ove
ĠE as
Ġ14 51
ĠR ah
18 69
ĠF CC
Ġr isk
Ġà¤Ĺà¤¢ à¤ª
Ġon to
Ġor ient
ĠK an
Ġse a
ass ic
ĠO P
ĠO ther
ĠO bs
ĠO cean
Ġcl ient
16 9
à¤ıà¤ļ à¤Ł
Ġà¥§à¥Ń à¥¯à¥ª
à¤°à¤« à¤¤
Ġà¤ıà¤« à¤Ĩà¤Īà¤¬
ort ing
ĠJ ournal
Ġ40 3
14 2
14 4
se qu
Ġà¤Ĩà¤¯à¤° à¤¨à¤¸
Ġ29 7
13 6
Ġcol lection
ical s
Ġtr acking
24 0
24 4
ee ch
Ġch a
Ġ35 1
all en
per ial
27 0
27 1
Ġx xx
ure a
Ġà¤īà¤Ń à¤¯à¤¨
Ġ33 9
act or
ÛĮ Ø§
Ġà¦ ħ
à¥§à¥¯ à¥¦à¥«
ĠAl pha
áĢ Ħ
eg a
Ġup on
à¤Ĩà¤¸ à¤µà¤¨
Ġà¤¸à¤¹à¤¨ à¤¶à¤ķ
att a
Ġ66 1
row span
à¯ ĩ
Ð° Ñı
Ġà¤ħà¤ľà¤¯ à¤Ĺà¤¢
ash ington
Ġinter language
Ġz one
Ġà¥©à¥« à¥¦à¥¦
ough t
Ġcall ing
ĠCon st
load er
Ġà¤ĩà¤®à¤° à¤ľ
à¥§à¥¯à¥¨ à¥¬
à¥§à¥¯à¥¨ à¥¯
Ġap plied
Ġà® ¤
Ġident ities
à¤®à¤¦à¤¨ à¤ª
à© ģ
ĠÚ© Ûģ
ĠUnivers al
ĠAb d
ĠSu pp
Ġà¤ħà¤Łà¤ķà¤² à¤¬
Ġrequest ing
ĠAs ian
ĠPo int
ird s
ĠTe lugu
Ġhand le
Ġà¤²à¤ĸà¤¨ à¤ª
duct or
Ġspecify ing
Ġfour th
Ġhyp hen
Ġsymbol s
âĢĮâĢĮ âĢĮ
Ġshe ll
Ġanal y
Con vert
ĠCN N
Ġop in
ĠAT M
Ġdeterm ine
Ġdeterm ined
Ġmagn etic
Ab out
unn el
ĠStud ies
Ġsuggest ions
iction ary
ĠIndust rial
Ġapprox im
Ġms g
Ġign ored
struct ures
ici ency
Alternative ly
Ġanim als
atell ite
à¤²à¤Ńà¤Ĺ à¤¢
0 25
F eel
G R
H M
L ee
L ong
M ac
N um
Q M
U B
b us
h ag
j u
o i
o om
p an
r idge
t ag
t ual
u um
w ide
y ing
â ´
Ġ iron
à¤¨ à¤ļà¤ķ
à¤ķ à¤§à¤°
à¤¸ à¤¶à¤¸
Ġà¤® à¤¯à¤®à¤¨à¤¸
Ġà¥ ¿
à¤¦ à¤¶à¤¨
à¤ª à¤ªà¤°
à¤ª à¤ļà¤°
Ġà¤¦ à¤¸à¤ķ
Ġà¤° à¤§
Ġà¤° à¤¸à¤°
à¤¬ à¤¹à¤¸
Ġà¤Ĺ à¤ľà¤¬
à¤ļ à¤ĸ
Ġà¤Ń à¤¨à¤ķ
Ġà¤¤ à¤ªà¤¶
à¤ı à¤ıà¤®à¤ıà¤²
Ġà¤¶ à¤µà¤¯
Ġà¤ĩ à¤Łà¤°
à¤ĩ à¤Ĳà¤¸
à¤ĩ à¤Ĩà¤¨
Ġà¤ļ à¤ķà¤²
Ġà¤ļ à¤ĸà¤¨
Ġà¤¸à¤® à¤¬à¤¨
à¤Ĩ à¤¸à¤®
Ġà¤¡ à¤²à¤µ
à¤ľà¤¨ à¤¯à¤ľ
à¤°à¤¸ à¤ª
Ġà¤§ à¤¨à¤ķ
00 7
Ġà¤īà¤ª à¤¬à¤¨
à¤ªà¤° à¤¯
Ġt our
Ġà¤Ī à¤ļ
à¤¯à¤¤ à¤ķà¤°
at ers
Ġà¤ĵ à¤¥
Ġà¤ĵ à¤ı
or ation
Ġs an
Ġs it
Ġà¤ĳ à¤Ĺ
Ġà¤Ĳ à¤¯
Ġc ited
Ġc ounter
Ġ201 50
Ġ3 18
Ġ3 99
à¤¡à¤² à¤ª
à¤Ŀ à¤ªà¤°
is hes
Ġà¤ħà¤µ à¤¹à¤Ł
Ġà¤¸à¤¦ à¤ķ
Ġf unc
Ġb oard
Ġà¤Ĭ à¤¦
ed er
Ġp g
ĠT ag
ĠT ra
à¤ķà¤¨ à¤ķà¤°
Ġw ood
Ġm erg
ĠM BS
à¤¬à¤¨ à¤Ł
re ate
ĠS on
ĠS pr
à¤¥à¤® à¤²à¤Ĺ
Ġà¤ľà¤² à¤ļ
à¤Łà¤² à¤ľ
à¤¨à¤µ à¤Ń
Ġ7 70
20 7
20 8
à¤ıà¤¸ à¤Ĩà¤°à¤Ł
ĠP WD
ĠA AS
ĠA ST
à¤ħà¤¨ à¤ľ
Ġan sw
Ġà¤īà¤² à¤Łà¤¨
ent e
Ġà¤ıà¤² à¤ı
em at
à¤°à¤² à¤®
Ġà¤¢ à¤²à¤¨
Ġh ook
Ġ15 28
Ġ15 65
Ġ15 96
Ġ15 61
à¤īà¤¸ à¤ªà¤°
ĠD u
ĠD RM
ĠD SL
ĠU se
Ġ17 23
à¤®à¤¦ à¤¯
Ġà¤ıà¤¨ à¤Ĩà¤Īà¤Ĩà¤Īà¤Ł
ĠB ot
ĠB RI
ĠB SD
Ġg ang
ĠG overn
ĠG DM
Ġ16 98
Ġ16 87
Ġ16 61
Ġ16 71
à¤ľà¤¯ à¤²à¤ķ
ĠL y
ĠL iter
Ġà¤ħà¤¦ à¤¹
à¤¡à¤¨ à¤¬à¤°
ĠH on
ĠH ome
ĠH ospital
à¤ıà¤® à¤Ĩà¤°
el ess
18 20
18 40
18 63
18 54
ut ch
ĠF ried
Ġy e
Ġà¥§à¥® à¥§à¥¯
Ġr ing
Ġst ock
ir l
Ġ30 4
Ġal pha
à¦ ¡
Ġor bit
Ġà¤ĸà¤¡ à¤¸
à¤ıà¤« à¤Ĩà¤Ī
ĠO K
av as
17 2
17 4
17 7
17 8
15 3
15 4
op tion
à¤ıà¤ļ à¤Ĩà¤°
ort ex
Ġsu itable
Ġ28 00
14 5
Ġà¥§à¥¬ à¥®
à¤¾à¥ħ à¤Ĥ
ax y
Ġcom pl
Ġ29 1
Ġ00 00
Ġcol lege
Ġch annel
Ġ35 2
Ġ35 3
Ġgo al
ĠX ia
Ġen gines
ib er
Ġ33 8
ob e
à¤¸à¤¹ à¤Ń
Ġà¥¨à¥© à¥«
Ġà¥¨à¥¨ à¥«
Ġà¥¨à¥¨ à¥ª
37 3
à° ª
38 6
à¤ªà¤Łà¤¨ à¤®
à¥§à¥¯ à¥¦à¥§
âĢĮ à¤¿
ĠSh ow
ĠÐ Ĵ
ĠPr otection
Ġspecif ically
Ġcomp ounds
any a
Ġlo st
Ġwork sh
à¤į à¤ª
ĠTr ust
Ġacc ur
Ġreg isters
à¥§à¥¯à¥¬ à¥®
à¸ ¢
az ine
eng ed
à¤®à¤¦à¤° à¤¶
ĠEx ample
Ġev idence
tr ans
Ġà¤¬à¤°à¤¤ à¤¤
Ġà¥¨à¥¦à¥¨ à¥¨
Ġdifferent i
Ġà¥§à¥®à¥© à¥§
Ġser ve
An other
ĠÚ© ÙĪ
Ġ× ŀ
ĠLe on
St ation
po ch
Ġà² ķ
ĠYou ng
ĠMet hod
Ġoper ations
Ġtem ple
ĠInt elligence
ĠHar ry
Ġbel ong
requ ire
Ġwebs ites
Ġcomplete ly
Ġpropos ed
ĠUr du
ĠJe an
Ġflu id
Ġà¤¦à¤®à¤¦ à¤®
ĠMount ains
Ġstep s
ĠAustral ia
Ġabbrevi ation
Ġoppos ite
Ġpsych ology
Ġast ron
Ġaltern ate
ĠCav endish
Ur l
Ġrecommend ations
Ġä¸Ń å
ĠIJ F
0 22
8 70
9 80
A c
E V
E X
H P
M as
N Y
R B
R ec
V is
c in
c ell
d s
d in
d ia
e i
f lu
g aon
h over
j ag
k l
l ier
n es
p ref
r ag
s u
Ã «
ð Ĳ
Ġ ÉĻ
à¤° à¤ı
à¥ĩ à¥Īà¤Ĥ
à¤¿ à¤¿
à¤ķ à¤ĳà¤«
à¤¸ à¤ļà¤®
Ġà¤¸ à¤¸à¤®
Ġà¤¹ à¤ı
Ġà¤¹ à¤¤à¤ª
Ġà¤¹ à¤¥à¤ķ
Ġà¤® à¤°à¤ľ
Ġà¤® à¤¦à¤ķ
à¤µ à¤®à¤¹
à¤µ à¤³
à¥Ī :
à¤¹ à¤°à¤ķ
à¤¹ à¤ł
à¥ģ âĢį
à¤¦ à¤¯à¤®
à¤ª à¤¦à¤¨
à¤ª à¤²à¤µ
à¤ª à¤¹à¤°à¤£
à¤ª à¤²à¤¸
à¤Ĺ à¤ľà¤°
à¤Ĺ à¤®à¤²
Ġà¤ħ à¤°à¤¦
à¤¶ à¤®à¤¯
Ġà¤¦ à¤²à¤¸
à¤¡ à¤Ĺà¤²à¤¸
à¤¬ à¤³
à¤§ à¤µà¤²
à¤§ à¤ļà¤°
à¤£ à¤¸à¤®
Ġà¤Ķ à¤·
à¤ļ à¤Łà¤Ĺ
Ġà¤ı à¤ıà¤¸à¤Ĩà¤Ī
Ġà¤ı à¤ıà¤®à¤¸
Ġà¤Ĩ à¤īà¤²
Ġà¤¶ à¤¯à¤¨à¤ķ
Ġà¤ĩ à¤µà¤¨
à¤Ī à¤¤à¤°
à¤ĩ à¤ľà¤¨
Ġà¤ļ à¤ķà¤¨
Ġà¤¸à¤® à¤¯à¤®
à¥ĥ à¥ĥ
Ġà¤Ł à¤«
à¤ĵ à¤ĵ
à¤ľà¤¨ à¤Ĺ
à¤ħ à¤²à¤®
à¤ħ à¤ªà¤®
Ġà¤ĺ à¤¨à¤µ
Ġà¤ĺ à¤¨à¤®
à¤¸à¤® à¤£
er b
er k
er ies
Ġà¤¸à¤¬ à¤¦
Ġà¤¸à¤¬ à¤Ł
Ġà¤ĵ à¤ľà¤ª
Ġs ed
Ġà¤ĳ à¤¨à¤¸
Ġc los
Ġ3 47
en ing
en ia
à¤¡à¤² à¤Ĺà¤¢
à¤¤à¤® à¤°
à¤¤à¤® à¤¬
Ġà¤®à¤¨ à¤Ń
Ġb il
it ud
ed ian
Ġà¤ħà¤¸ à¤Ĺ
le um
Ġ4 15
Ġ4 13
Ġ5 90
ĠT I
ĠT el
ĠT iger
à¤¡à¤° à¤«
ĠM NS
ĠM achine
ĠS ind
ĠS outhern
Ġà¤ľà¤² à¤Ń
Ġà¤¬à¤² à¤µà¤¨
ĠC W
ĠC el
à¤®à¤° à¤ĸ
Ġà¤¶à¤° à¤¬à¤¤
ĠP t
ĠP AL
à¤°à¤ª à¤µ
Ġ8 85
Ġà¤Ĩà¤Ī à¤°
à¤°à¤ľ à¤²
Ġà¤ıà¤¸ à¤Ĩà¤Ī
Ġà¤ıà¤¸ à¤ıà¤ļ
Ġto ok
Ġà¤Ĩà¤ª à¤Ł
Ġh r
Ġh ab
Ġh atnote
à¤¸à¤¤ à¤²
ig hest
Ġ15 39
Ġ15 75
Ġ15 88
Ġ15 72
ur t
Ġl n
ĠD an
ĠU L
Ġ17 27
Ġ17 62
ul ations
ĠW a
ĠW el
ĠW all
ĠW ood
Ġg auge
ĠG an
Ġ16 23
Ġ16 93
Ġ16 64
ĠN FL
à¤ķà¤¡ à¤Ĺà¤²
Ġ13 03
Ġre p
Ġre pro
ĠE S
ĠH am
ĠH eb
ĠH yp
ĠH ills
à¤ıà¤² à¤¡
ĠR od
ĠR EM
Ġà¤°à¤¸ à¤¶
18 75
18 43
Ġà¥§à¥® à¥§à¥¦
Ġà¥§à¥® à¥¨à¥®
à¤¤à¤² à¤ª
Ġà¤ļà¤ķ à¤µ
Ġà¤ĩà¤ķ à¤¹à¤°
Ġr ace
ab ar
Ġor th
Ġà¥® à¥¦à¥¦à¥¦
Ġà¤ªà¤Ł à¤¸à¤¨
17 00
17 61
15 00
Ġk ill
op al
Ġà¤ıà¤« à¤ª
Ġà¤ªà¤² à¤Łà¤ķà¤°
ĠJ am
14 1
14 8
à¤ħà¤ª à¤µà¤°
Ġsh ared
Ġ29 9
13 9
Ġà¤Ĩà¤¹ à¤Ł
Ġ35 8
iz er
ple ment
Ġquot e
57 0
ace a
ĠX VI
à¤²à¤¦ à¤¸
umb ai
à¤ĩà¤« à¤¨
ĠCh ief
à¤īà¤ª à¤µà¤¨
Ġ36 00
Ġ34 1
In ter
Ø± Ø¯
Ġ150 6
Ġref ers
ari o
Ġsy ll
aj i
Ġcomm ercial
à¥§à¥¯ à¥¦à¥®
ĠAl g
hy s
Ġà¤²à¤ĸ à¤ªà¤¤
ĠÐ ĵ
Ġac ade
Ġå °
Ġà¤Ĩà¤« à¤¤
ĠCH O
Ġmake InvokeF
Ġà¤Ĩà¤Īà¤ıà¤¸ à¤Ł
Ġæ ľ
Ġgiv ing
Ġag g
Ġà¥§à¥®à¥ª à¥ª
Ġà¥§à¥®à¥© à¥®
Ġread ing
à¬ °
à¥§à¥¯à¥¨ à¥ª
ful ly
Ġpartic le
Ġà¤ļà¤ª à¤²à¤¤
à¥§à¥§à¥ ¯à¥
Ð» Ðµ
alle y
ĠLe ague
Ġà¥¯à¥« à¥¦
let ter
ĠIC T
ĠIN C
not es
Tr ans
Ġadmin s
ĠTrans lation
à¾ ±
Î¹ Îº
NT s
Ġâī ¤
Ġmed ical
ĠGP RS
Ġmemb rane
Ġimp act
à¤Īà¤Ī à¤Ī
ĠJu an
ĠØ® Ø§ÙĨ
Ġapplic ations
ĠOrgan ization
Table Tools
Ġdeg ree
ĠForm er
Î¯ Î±
Ġexpand ed
Ġspect rum
anÃ§ a
Ġrelations hip
ĠMalay alam
Ġ9789 38
Ġà¤¸à¤®à¤ªà¤¤ à¤ļà¤ķ
Ġà¤¶à¤¯à¤¨à¤ķ à¤ķ
0 38
4 40
D one
D own
M M
M ania
N et
P ages
R FID
b ind
c s
k ins
l ie
n ik
n omial
r ine
r ub
t el
u lu
z y
Ã °
Ø º
Û Ŀ
Ġ à¥Ģ
à¤° à¤¸à¤ķ
à¤° à¤Ĩ
à¥ĩ à¥Ī
à¤Ĥ à¥ģ
à¤¨ à¤¡à¤°
à¤¨ à¤«à¤°
à¤ķ à¤¹à¤°
Ġà¤¸ à¤µà¤¨
à¤® à¤¹à¤¨
à¤µ à¤ªà¤¨
à¤µ à¤®à¤¯
Ġà¤ª à¤·
à¤ª à¤Ľ
à¤Ĺ à¤°à¤¤à¤Ł
à¤ľ à¤Ĺà¤°
à¤ľ à¤ķà¤ª
à¥Ĥ :
Ġà¤¬ à¤²à¤¯
Ġà¤° à¤ľà¤¬
à¤¬ à¤ľà¤°
à¤¬ à¤ķà¤®
à¤ļ à¤Ĺà¤µ
Ġà¤ī à¤ĺ
Ġà¤ı à¤¹à¤¦
Ġà¤Ń à¤·
à¤ı à¤¤à¤¨
Ġà¤Ĩ à¤¹à¤°à¤£
à¤Ń à¤¦à¤¤
Ġà¤¯ à¤®à¤¦
Ġà¤¯ à¤¶à¤°
Ġà¤¯ à¤°à¤µà¤¦
à¤Ī à¤Łà¤¨
à¤ĩ à¤²à¤¨
à¤ĩ à¤ķà¤¨
à¤ĩ à¤¬à¤¨
Ġà¤¸à¤® à¤¯à¤ķ
Ġà¤ħà¤¨ à¤¦à¤°
à¤°à¤£ à¤¸
à¤Ĩ à¤®à¤¨
à¤Ĩ à¤Ĺà¤®à¤¨
Ġà¤¡ à¤ľ
à¤ĵ à¤Ŀ
à¤ħ à¤ľà¤¨
à¤ħ à¤¯à¤¨
à¤ħ à¤¸à¤¦
Ġà¤Ľ à¤°
Ġt a
Ġà¤²à¤Ĺ à¤¯
Ġà¤ħà¤² à¤ª
à¤¬à¤° à¤Ĺ
Ġà¤ķà¤® à¤ļ
Ġà¤ķà¤® à¤²à¤¨
Ġà¤ĵ à¤¸à¤¬
ĠâĢ ı
or age
Ġs low
Ġà¤ħà¤° à¤ľ
Ġc is
Ġc ore
Ġ3 17
en ess
Ġà¤®à¤¨ à¤¸à¤¬
Ġà¤ħà¤µ à¤ķà¤°à¤£
à¤īà¤¨ à¤ªà¤°
Ġf at
Ġf if
Ġf oss
Ġb illion
it ic
it iz
Ġp in
Ġp ul
Ġa ap
Ġà¤¹à¤® à¤®
à¤¨à¤¤ à¤²
ĠT ata
à¤ķà¤¨ à¤µ
à¤ķà¤¨ à¤Ĺ
Ġd as
Ġd ol
Ġd uct
Ġm or
ĠM ake
ĠM HC
ĠM uh
re ement
ĠS AN
ĠS yn
ĠS ARS
à¤¨à¤¸ à¤¬à¤°
à¤Łà¤² à¤µ
am y
am ond
Ġà¤ħà¤¬ à¤²
ĠC hen
ĠC urrent
ĠC amp
ĠC ultural
Ġ7 75
à¤Ĭ à¤¤
ĠP ier
ĠA le
ĠA ge
Ġà¤¨à¤µ à¤¬
Ġ9 25
Ġ8 36
ly wood
us tice
om m
Ġà¤ıà¤² à¤ıà¤²à¤¸
et an
et te
et ics
Ġà¤ĩà¤¨à¤ķ à¤®
Ġh on
un ner
à¤Ĩà¤Ī à¤ĵà¤¸
à¤Ĩà¤Ī à¤ıà¤¸à¤¸
ĠD har
ĠD ts
à¤ľà¤¸ à¤ª
Ġ17 47
Ġ17 32
Ġ17 01
Ġ17 09
à¤Ĳ à¤Ł
à¤°à¤µà¤° à¤¸
ro om
ĠB est
ĠB orough
à¥§ à¥¦à¥Ń
Ġ16 11
Ġ16 22
Ġ16 41
ol es
ac o
ĠL C
ĠL D
ĠL ing
qu ial
ĠR F
ĠR i
ĠR s
Ġà¥ª à¥¬à¥¦
ĠF BI
Ġà¥§à¥® à¥§à¥¨
Ġà¥§à¥® à¥¨à¥§
à¤ħà¤° à¤°
Ġr h
Ġr enders
Ġst ri
Ġv ul
Ġv ow
à¤¯à¤£ à¤®
Ġà¤¤à¤² à¤ªà¤¡
loc ation
à¦ ĸ
ĠK o
ĠK r
ĠK el
ĠK ad
ĠK od
oc on
oc arp
Ġà¥® à¥«à¥¦
ĠÂ «
nd rome
à¤¦à¤¯ à¤Ĺà¤¤
ĠV T
ĠV ar
ĠV ista
Ġ50 5
17 5
ess ional
ain e
ĠJ ac
Ġsu fficient
14 3
Ġpro of
Ġà º
Ġà¥§à¥ª à¥¬
ra e
ult ation
Ġun like
Ġà¤ľà¤Ĺà¤¤ à¤ª
art i
Ġad vant
24 5
Ø§ Ùģ
ĠCh a
ure au
gr aph
ÙĦ ÙĪ
Ġ36 4
à® ¨
à® ±
à® ³
Ġà¤ħà¤Ł à¤ªà¤Ł
Ġà¥¨à¥¨ à¥¯
Ġà¤Ĩà¤ĩ à¤°à¤¨
à° µ
Ġsub stitute
Ġà¤ľà¤¸ à¤µà¤¨
33 3
Ġ65 6
Ġpre m
à² Ł
ĠTh ir
Ġà¤ıà¤¬ à¤Ł
à¥§à¥¯ à¥¦à¥Ń
Ġper cent
67 6
Ġà¤īà¤§ à¤®à¤¸
àµ Ĥ
à½ ĳ
à¤į à¤¨
ĠTr aining
Ġreg ions
Ġà¥§à¥®à¥¬ à¥©
rom agn
ĠEx press
Ġtag ging
Ġsc al
ĠPl ayer
ific ations
ĠÙħ ØŃ
Ġfe atured
Ġtransl iteration
ĠComm unic
Ġbec ame
arn a
âĢİ âĢİ
à¥§à¥¯à¥¨ à¥®
Ġlog ar
IT E
Ġrequire ments
Ġà¨ ®
à© ĭ
à¥§à¥¯à¥§à¥ §
à¥§à¥¯à¥§à¥ Ń
ĠEd it
Ġrun s
Ġbi har
ĠJoh ann
Ġsur vey
Ġimport ance
Ġcirc le
ĠMa ith
Ġmov ed
Ġmov ie
Ġnav ig
Ġaccept s
ĠWiki Project
Or acle
Ġï¿ ¸
Ġâĸ º
à¶ »
ĠRev olution
Ġstud ents
Ġmatch ing
ĠVH S
ĠMult ilingual
Ġcos ine
Ġupd ates
ĠInf obox
ĠArm ani
ĠÛģ ÛĴ
ĠNag la
Ġmeet ing
Ġprom ote
Ġcompos ite
Ġpap er
ĠDig ital
Ġquick ly
ĠMart in
Ġencour age
ĠNZ M
Ġemp loy
Ġterrit ory
Reg ards
ĠPub lish
Ġsuff ix
ĠMoto GP
0 23
0 96
3 25
C L
C ase
D on
E vent
F urther
G e
H em
N umber
O G
P attaya
W indows
d is
i ology
m ph
n n
p asa
r ase
r ana
v o
v ement
w in
w arn
z i
Å ¡
Ñ Ĩ
Þ ¦
à¤° à¤¨à¤ķ
à¥į à¤¿
à¥Ģ âĢĻ
à¤¤ à¤ªà¤²
à¤¯ à¤ľà¤°
à¥ĭ '
à¤¸ à¤¤à¤°
à¤¸ à¤²à¤¬
à¤² à¤°à¤®
à¤² à¤ªà¤Ł
Ġà¤¸ à¤ļà¤²
Ġà¤¹ à¤²à¤¨
à¤® à¤°à¤µ
Ġà¤® à¤®à¤²
Ġà¤® à¤¥à¤¨
à¤¹ à¤¨à¤µ
à¤¦ à¤ĺ
à¤ª à¤Łà¤ķ
Ġà¤ľ à¤°à¤¨à¤²
à¤Ĺ à¤ı
à¤Ĺ à¤³
Ġà¤ħ à¤ľà¤²
Ġà¤µ à¤¨à¤°
à¤ľ à¤Ńà¤ķ
à¤¬ à¤¥
à¤¬ à¤ł
à¤¬ à¤ķà¤²
à¤§ à¤ªà¤°
Ġà¤² à¤ļà¤¨
à¤£ à¤¦à¤°
Ġà¤Ĺ à¤²à¤Ĺ
Ġà¤Ķ à¤¡
Ġà¤Ķ à¤ı
à¤ļ à¤ªà¤¦
Ġà¤ı à¤Ī
Ġà¤ı à¤ıà¤¨à¤¸
Ġà¤¤ à¤²à¤ķà¤°
Ġà¤Ĩ à¤¸à¤°
Ġà¤ķà¤° à¤¹
à¤ĸ à¤°à¤µ
à¤ĸ à¤ªà¤Ł
Ġà¤ªà¤° à¤®à¤°
Ġà¤ĩ à¤ľà¤¨
Ġà¤¯ à¤°à¤²
à¤Ī à¤Ĩà¤°à¤Ł
Ġà¤« à¤°à¤¨
à¤Ĩ à¤ĸà¤°
à¤ī à¤²à¤°
Ġà¤µà¤° à¤Ĺ
à¤ľà¤¨ à¤ķà¤ª
à¤ħ à¤°à¤£
à¤ħ à¤¨à¤°
à¤ħ à¤¯à¤¸
à¤ħ à¤Ĺà¤µ
Ġà¤®à¤¹ à¤ķà¤®
00 5
à¤°à¤¦ à¤²
Ġt ask
à¤¸à¤¨ à¤¤
à¤¯à¤¤ à¤µ
er os
à¤²à¤¯ à¤ľ
à¤ĩà¤¨ à¤¡
or ian
Ġs un
Ġs urr
Ġà¤¸à¤¹ à¤ļ
Ġà¤¸à¤¹ à¤µà¤°
ar as
Ġà¤¸à¤° à¤µà¤°
à¤ªà¤¤ à¤®
Ġc elebr
Ġà¤īà¤¦ à¤¯à¤Ń
à¤¤à¤ķ à¤°à¤£
Ġà¤ķà¤² à¤µ
is en
à¤¦à¤¨ à¤®
Ġb ah
Ġb are
it ual
ed om
Ġp ad
Ġp seud
Ġ5 75
Ġin j
Ġw a
Ġw ee
Ġw ikipedi
Ġd L
Ġd s
Ġd ip
Ġd ark
Ġm ad
ĠM ust
ĠM ilitary
à¤¨à¤° à¤¹à¤°
Ġo w
ĠS ap
ĠS ov
ĠS ug
Ġà¤ľà¤² à¤ªà¤°
Ġà¤Ŀ à¤ªà¤ķ
Ġ6 24
ou le
à¤Ĭ à¤®
ĠP D
Ġà¤¬à¤° à¤ľ
Ġ9 20
Ġ9 23
Ġ9 27
ag ic
à¤°à¤¬ à¤¤
à¤¨à¤¨ à¤Ĺà¤°
Ġ10 18
Ġà¤ıà¤² à¤ıà¤¸à¤¡
et ype
Ġà¤¤à¤¬ à¤¦
Ġà¤¢ à¤²à¤¤
ig e
Ġ15 15
Ġ15 90
Ġ15 68
Ġ15 54
Ġ15 69
ur ai
Ġà¤®à¤¸ à¤ĸà¤°
ĠD atabase
Ġ17 17
Ġ17 36
Ġ17 33
Ġ17 05
il is
ul as
Ġà¤ıà¤¨ à¤¡à¤¬
ĠW B
ĠW al
ĠW imbledon
ĠB ow
Ġg a
Ġg ot
ĠG y
ĠG et
ĠG AA
Ġ16 16
Ġ16 38
Ġ16 75
Ġ16 01
Ġ16 72
ap ed
ol is
à¤µà¤¶ à¤°à¤£
ĠN at
ac a
ĠL ic
ĠL ast
ĠL ear
ĠL ep
pl asm
Ġbe hind
ĠH ong
à¤®à¤Ĺ à¤¡
os y
ĠR SS
Ġar bit
18 74
ut y
ĠF L
ĠF unction
Ġà¥§à¥® à¥¦à¥¨
Ġà¥§à¥® à¥¦à¥«
Ġr ub
à¤¯à¤£ à¤°
if fer
ĠK ir
ĠÂ ©
ĠÂ ®
ĠÂ ³
ĠO DI
ĠO ECD
Ġà¤ķà¤Ł à¤ķà¤°
Ġpar as
ĠV a
Ġà¤ıà¤ļ à¤Ĩà¤°
and ed
Ġk Wh
ight ing
16 00
à¤¦à¤¶ à¤®à¤²à¤µ
og a
Ġà¥§à¥Ń à¥©à¥¦
Ġà¥§à¥Ń à¥®à¥¦
Ġà¥§à¥Ń à¥¯à¥«
Ġà¥§à¥Ń à¥Ńà¥ª
Ġà¥§à¥Ń à¥Ńà¥¨
Ġà¥§à¥Ń à¥®à¥ª
Ġ40 6
Ġà¥§à¥¬ à¥§
Ġà¥§à¥¬ à¥¦à¥©
Ġà¥§à¥¬ à¥®à¥¦
Ġà¥§à¥¬ à¥®à¥¯
ĠØ ·
13 2
Ġbr anch
Ġà¥§à¥© à¥¨
Ġà¥§à¥© à¥Ń
Ġà¥§à¥© à¥§
Ġad apt
Ġat h
26 2
ĠX II
Ġhe n
ĠCh ak
Ġj query
yp es
Ġ34 8
ear s
Ġres on
à´ ±
à² ª
Ġà¦ ¶
Ġà¦ ı
à¥§à¥¯ à¥¦à¥¦
à¥§à¥¯ à¥¦à¥¬
à¤Ńà¤°à¤¤ à¤¨
ĠZ h
à¨ ¦
ĠØ§ ÙĨ
sp ace
ĠPr im
Ġlo op
Ġlo ve
ÙĬ Ø±
Ġget ting
Ġac com
ha ust
ĠPro v
uk e
uk h
Ġà¤īà¤²à¤Ŀ à¤¤
Ġ177 1
Ġcons ists
à¥§à¥¯à¥ª à¥©
à¥§à¥¯à¥ª à¥ª
Ġwik t
ĠEx p
Ġdet ection
Ġtype of
und a
Ġæ Ĺ¥
ĠCon ver
Ġhelp s
Ġhelp ful
ĠFr ont
Ġinv erse
Ġass ist
Ġoff ic
Ġdifferent ial
ER S
ER T
Ġà¥§à¥®à¥© à¥¯
Ġread s
à¥§à¥¯à¥© à¥§
ĠSe lect
Ġexp ected
Ġser ver
ĠEn cyclop
Ġposs ibly
Ġ× Ĳ
Ġconst ell
Ġà¤Ľà¤Ł à¤ªà¤Ł
à¥§à¥¯à¥§à¥ ª
On ce
ĠØ³ ÛĴ
Ġdig ital
Ġne ither
Ġtyp ing
Ïģ Î±
Ġnumer ator
ĠDi pl
Ġà¤®à¤°à¤ķ à¤ľ
ĠSan ctuary
à« į
ĠMah ar
ãĥ ¼
Ġold er
Ġwhe el
ĠPol icy
Ġcond itions
Ġleg al
Ġleg end
ĠRam an
Ġâĸ ĳ
Ġâĸ Ĵ
Ġâĸ ĵ
Ġindivid ually
Ġcoll abor
Ġwikilink s
Ġant ib
Ġinit i
cut ive
Ġthough t
Ġop tical
Ġyes no
Ġdefin itions
Ġà¤ªà¤°à¤µà¤²à¤¯ à¤ľ
ĠTw o
Ġcho ice
Ġdot ted
Ġlibrary Util
Ġà¤Īà¤ĵ à¤ıà¤¨
ĠAdmin istration
Ġhistor ical
Ø¦ ÛĴ
cont ent
Ġconse cutive
ĠPort ug
ĠMos que
Ġcompar ison
Ġamb igu
Ġampl ifier
Eng lish
Ġexplicit ly
Ġ585 858
ĠMuse um
ĠLT TE
Ġinstr ument
Ã£ o
SIWY G
6 60
B asic
C ons
F e
N on
S N
S a
V iew
Y A
b ut
c od
e z
l ife
n y
p ers
v ents
Å Ľ
Ö ·
× ł
ä º
à¤° à¤Ĩà¤¤
à¥ĩ à¤¿
à¥Ģ à¥ĩ
à¤¨ à¤Ĺà¤¤
à¤¨ à¤°à¤¨
à¤¨ à¤®à¤²
à¤¤ à¤¸à¤®
à¤ķ à¤ļà¤¨
à¤¯ à¤ĺ
à¤¸ à¤¬à¤¦
à¤¸ à¤ıà¤ª
à¤® à¤¤à¤ķ
Ġà¤ª à¤«
à¤¹ à¤¨à¤¸
Ġà¥ ²
à¤ª à¤ªà¤¤
à¤Ĺ à¤¸à¤°
à¤Ĺ à¤¨à¤¸
à¤Ł à¤®à¤°
à¥Ĥ à¤ĥ
à¤¶ à¤Ĺà¤°
à¤¶ à¤¹à¤ľ
Ġà¤¦ à¤¬à¤¨
Ġà¤° à¤²
Ġà¤° à¤¸à¤¸
Ġà¤² à¤¥
à¤¥ à¤ªà¤¨
Ġà¤Ĺ à¤Ļ
à¤ļ à¤¯à¤ª
Ġà¤¤ à¤¨à¤¨
à¤ı à¤ļà¤°
à¤ı à¤ļà¤¯
Ġà¤ķà¤° à¤ķà¤°
à¤ĸ à¤¸à¤°
à¤ĸ à¤¬à¤¦
Ġà¤ĩ à¤ħà¤°
Ġà¤¯ à¤Ĺ
Ġà¤ıà¤ķ à¤Ľà¤¤
à¤Ī à¤Łà¤²
à¤ĩ à¤°à¤ķ
à¤« à¤¯
à¥ĥ ÂŃ
à¤°à¤ķ à¤£
Ġà¤ĸ à¤°à¤¹
à¤Ĩ à¤ĩà¤¡
à¤µà¤° à¤«
à¤°à¤® à¤Ĺ
à¤ĵ à¤Ĩà¤Īà¤ª
à¤ľà¤¨ à¤®à¤¤
à¤¼à¤¾ à¥ħ
00 000
à¤¶à¤¨ à¤¦
Ġà¤ĺ à¤®à¤£
à¤¨à¤ķ à¤ķ
Ġt or
à¤¯à¤¨ à¤²
à¤µà¤¨ à¤Ĺ
à¤µà¤¨ à¤Ńà¤°
on ian
à¤®à¤ķ à¤¡
à¤®à¤ķ à¤£
Ġà¤ĵ à¤ıà¤¸à¤Ĩà¤Ī
or et
or um
Ġà¤ħà¤° à¤µà¤²
Ġà¤ĳ à¤°à¤µ
à¤°à¤µ à¤¯
à¤°à¤µ à¤ľ
à¤¤à¤¨ à¤¯
à¤Łà¤¨ à¤Ł
al low
Ġ] à¤¼
Ġc ame
Ġc ult
Ġà¤Ĩà¤° à¤ıà¤«à¤¸
Ġà¤Ĭ à¤ľ
it ative
Ġp ain
à¤§à¤¨ à¤®
à¤ªà¤ķ à¤µ
le ep
Ġ4 14
Ġ4 32
Ġ5 44
ĠT ax
ĠT rade
ic ed
à¤¡à¤° à¤¥à¤²
Ġd f
Ġd omin
Ġm p
Ġm ind
Ġm olar
ĠM T
ĠM iss
ĠM IN
ĠS ik
ĠS ource
à¤ıà¤ķ à¤ķ
Ġn ut
Ġn op
Ġà¤ħà¤¬ à¤¸
ĠC ole
ĠC AR
Ġ7 11
ou ble
20 21
ĠP ir
ĠA x
ĠA ch
ĠA SC
ct ic
ĠI de
Ġà¤ıà¤¸ à¤ıà¤¸à¤ª
Ġà¤ħà¤ļ à¤®
Ġto h
à¤®à¤¸ à¤¹
ig o
Ġ15 62
Ġ15 73
ĠD Q
ĠD own
ĠU A
à¤ľà¤¸ à¤ľ
il ibri
à¤Ĳ à¤ľ
ul ic
Ġà¤ıà¤¨ à¤¹
ĠW ol
ĠW ild
ĠW ashington
ĠB ut
ĠB road
ĠB udd
Ġà¤ıà¤® à¤ıà¤®à¤Ł
Ġ16 17
Ġ16 46
Ġ16 85
Ġ16 68
Ġ16 06
Ġ16 69
ap er
à¤ķà¤¡ à¤ª
ac ier
ĠL E
ĠL et
à¤ľà¤² à¤¦
à¤ľà¤² à¤Ĺ
ĠE c
ĠE ch
ĠH b
ĠH and
ĠH aw
ĠH udas
Ġ14 92
ĠR M
ĠR ud
ĠR ailway
ĠR ostec
à¤ľà¤® à¤Ĭ
ch ild
18 55
ĠF er
Ġr out
ist an
à¤¯à¤£ à¤¸
Ġ30 8
st ar
ĠK ap
ĠK ab
ter a
ter m
à¤ıà¤« à¤ıà¤ķ
à¤ıà¤« à¤Ĩà¤°
ĠÂ ¾
ĠO D
ĠO N
ĠV E
ĠV ict
Ġk ya
Ġà¥§à¥Ń à¥¨à¥¦
Ġà¥§à¥Ń à¥¨à¥§
Ġà¥§à¥Ń à¥¦à¥§
Ġà¥§à¥Ń à¥Ńà¥¦
Ġex tr
Ġà¤Ńà¤µà¤¨ à¤ª
ĠJ os
ĠJ ack
Ġ28 4
14 00
Ġà¤ļà¤¢ à¤¨
Ġà¥§à¥¬ à¥Ń
ĠØ ¥
Ġun icode
à¥¨à¥¦à¥ ©
26 0
26 5
Ġdis order
28 0
ĠX L
ĠIn depend
ust ain
Ġhigh ly
ph one
Ġpl ate
Ġ36 6
Ġ36 7
Ġ33 6
à® £
Ġ37 1
Ġ34 13
Ġà¤ļà¤°à¤® à¤°
à§ Ĥ
Ġ300 00
99 0
à¥§à¥« à¥¦
ank aj
Ġà¥¨à¥Ń à¥«
ÙĪ Úº
ĠZ i
Ġà¤¹à¤¸à¤¨ à¤ª
ĠÐ ł
à¯ ĭ
Ġà¥§à¥®à¥« à¥¨
IS C
ash ion
à½ ĸ
Ġå ®
Ġå Į
Ġå ľ
Ġph ones
Ġgener ation
cript s
ron ic
amm ing
Ġà¤°à¤¤à¤¨ à¤ľ
Ġà¤°à¤¤à¤¨ à¤Ĺà¤¢
Ġcor por
Ġresult ing
Ġent ities
Ġtransl ating
stitut ion
Ġsearch ing
Ar ch
Ġà¥§à¥®à¥ª à¥§
Äģ r
ele ction
Ùĩ Ø±
Ġfree ly
Ġhead ers
à¥§à¥¯à¥¨ à¥«
à¤Ĩà¤ĩ à¤ı
FC s
Ġcheck s
Ġà¤§à¤°à¤® à¤ª
à¥§à¥§à¥ ¨
à¥§à¥§à¥ ©
sc opic
ĠâĨ ĳ
ibr aries
Ġte ams
à¥§à¥¯à¥§à¥ ¨
Ġterm in
Ġopt im
ĠHD MI
Ġrun ners
Ġcontribut ion
Ġà¤ıà¤¨à¤ıà¤ļ à¤ıà¤¸
ĠIC D
ux sr
Ġke pt
Ġge ometry
Ġtarget Title
Ġopen ing
ogn itive
à· Ĭ
à· ı
Ġsort ed
met atable
Ġmed ium
Ġparticip ation
sk in
ĠSm ith
ĠHel p
ĠMc G
Ġbreak s
ĠAz tecs
SO A
Ġaff ect
ĠAng el
ĠTer rit
Ġsubst ance
Ġcapital ised
ĠHB OS
Ġtry ing
data Adapter
Ġdecl ared
Ġbrack et
à¤İ à¤¸
Ġchild ren
Ġattribut e
Ġtele vision
Ġpers ons
Ġresist ance
sol id
Ġà¤Ĩà¤Īà¤Ĩà¤° à¤ıà¤¨à¤ıà¤¸à¤ıà¤¸
Ġly mph
ĠPy th
ĠOlymp ic
Ġquadr angle
itel ink
Ġroll back
ĠArab ic
Ġve loc
ĠEnter tainment
Option al
Ġhapp y
ĠJapan ese
Ġconj unction
ĠPict ures
Ġconflic t
Ġdimens ional
Ġpreced ing
onym ous
itro gen
ĠACC A
Ê² Éª
Ġpolym orphism
ĠGerm any
Yes no
Ġà¤ıà¤®à¤ıà¤¸à¤ıà¤® à¤Ī
4 30
5 20
5 60
7 30
A g
A p
A OL
B est
E nt
M et
R OM
W o
a Ã±
b ur
b uil
d isplay
g ener
h ood
i at
i lo
j yu
l ive
l abel
m ax
n ag
r ite
w ith
Ã ¹
Ê Ĵ
× ¢
× ĵ
Ø «
á ¿
Ġ Ú
ģ Ħ
à¤° à¤¯à¤®
à¤° à¤ľà¤°
à¥į à¤¿à¥ĩ
Ġà¤ķ à¤¨à¤µ
Ġà¤ķ à¤ĩà¤¯
à¥Ģ âĢį
à¤¨ à¤°à¤¹
à¤¤ à¤¤à¤°
à¤¤ à¤ĸà¤£
à¤ķ à¤¥à¤ķ
à¤ķ à¤ĵà¤µà¤°
à¤¯ à¤ªà¤ķ
à¥ĭ à¥ĩà¤Ĥ
à¤¸ à¤ªà¤¤
à¤¸ à¤¹à¤¨
à¤² à¤µà¤¤
à¤² à¤®à¤¤
Ġà¤¹ à¤ª
Ġà¤¹ à¤¸à¤¦
Ġà¤® à¤ķà¤µ
à¤µ à¤®à¤¸
à¤µ à¤¦à¤¯
Ġà¤ª à¤¤à¤°
Ġà¤ª à¤¨à¤¤
Ġà¤ª à¤ļà¤®à¤¢
à¤¹ à¤ĩ
à¤¹ à¤¬à¤°
à¤¹ à¤¯à¤µ
à¤Ł à¤ķà¤¨
à¤Ł à¤Ńà¤ķ
à¤Ł à¤¶à¤¬
Ġà¤¨ à¤ĸà¤²
Ġà¤¨ à¤ĸà¤°
à¤¶ à¤ªà¤¤
Ġà¤° à¤¸à¤²
Ġà¤° à¤¥à¤ķ
Ġà¤° à¤¶à¤®
à¤· à¤¬
à¤¬ à¤µà¤¨
à¤¥ à¤Ĺà¤¤
Ġà¤Ĺ à¤ľà¤¸
Ġà¤Ķ à¤¨
Ġà¤Ń à¤ı
Ġà¤Ń à¤Ĺà¤£
Ġà¤Ĩ à¤¢
Ġà¤ªà¤° à¤°
à¤ĩ à¤ıà¤ľ
Ġà¤ļ à¤°à¤¬
à¤« à¤ª
à¤ªà¤¨ à¤ķà¤°
à¤Ĩ à¤ĩà¤ª
à¤ī à¤¥à¤²
à¤°à¤® à¤¥
Ġà¤¬à¤¨ à¤ľ
à¤ħ à¤¨à¤µ
à¤Łà¤° à¤¯
à¤¢ à¤ķà¤°
Ġt as
Ġt ract
à¤²à¤¨ à¤°
à¤¸à¤® à¤¶
à¤¸à¤® à¤°à¤¸
Ġà¤Ī à¤¤
à¤®à¤¨ à¤²
at re
Ġs av
Ġs afe
Ġà¥¨ 0
à¤Łà¤¨ à¤¹
Ġà¤Ĩà¤¦ à¤®à¤ķà¤¦
à¤ķà¤² à¤ª
Ġc arb
Ġc ivil
Ġc avity
Ġ3 14
Ġà¤ķà¤² à¤Ī
Ġf urn
Ġf ission
Ġf arm
ed ing
Ġp ure
le af
Ġ5 15
Ġ5 33
Ġà¤¸à¤°à¤ķ à¤¨
ĠT B
ĠT ol
Ġd ors
Ġd ensity
ĠM ess
ĠM ind
ĠM eg
ĠM essage
à¤¬à¤¨ à¤¨
re land
Ġo d
Ġo ct
ĠS aint
à¤ıà¤ķ à¤¬
Ġà¤Ŀ à¤¬à¤°
à¤®à¤² à¤¹
ĠC ab
ĠC AS
ĠC PI
ing er
Ġ7 15
Ġ7 40
à¤ľà¤¬ à¤¡
ou ver
Ġà¤¶à¤ķ à¤°à¤ķ
à¤Ĭ à¤ª
ĠA wards
ĠA WB
à¤²à¤µ à¤Ł
à¤°à¤ª à¤²
Ġ9 29
ag en
ag raph
Ġ8 47
Ġà¤Ĩà¤Ī à¤Ĩà¤°à¤¸
ĠI o
om ical
Ġà¤ıà¤¸ à¤Ĩà¤Īà¤ı
Ġh ighest
Ġ15 70
Ġ15 32
Ġ15 97
Ġ15 74
à¤Ĺà¤¨ à¤¬
Ġà¤®à¤¸ à¤ľ
à¤īà¤¸ à¤¬
Ġl ig
un i
ĠD og
à¤®à¤¹ à¤ķ
Ġ17 11
il ation
ĠW AP
ĠB an
ĠB lood
ĠB attle
à¥§ à¥¦à¥¬
Ġg h
Ġg i
ĠG or
ĠG as
ĠG mb
Ġà¤ıà¤® à¤«
Ġà¤¬à¤ľ à¤¹
Ġ16 25
Ġ16 44
Ġ16 02
ap id
ol ine
ĠN M
ĠN il
à¤Łà¤® à¤ª
Ġis n
à¤ĩà¤ķ à¤¬
pl er
pl ing
pl us
Ġre verse
ĠE ss
ĠE rror
ĠH an
qu al
qu es
Ġ14 98
os ter
à¤ıà¤® à¤ıà¤®
Ġar en
Ġà¤°à¤¸ à¤°à¤¤
18 35
18 01
18 62
à¤²à¤Ĺ à¤£à¤¨
ĠF ab
ĠF our
Ġà¥§à¥® à¥§à¥§
Ġr ain
Ġr anges
ia e
Ġst eel
Ġà¤¨à¤Ī à¤®
Ġv an
ir ing
ir able
ĠK er
à¤¬à¤¹ à¤®à¤¨
Ġse ems
ĠO M
ĠO ver
ang ed
ang ing
Ġà¤ªà¤Ł à¤ķà¤¨
17 6
and hi
op od
Ġà¥§à¥Ń à¥¯à¥¨
Ġà¥§à¥Ń à¥¯à¥¬
Ġà¥§à¥Ń à¥¯à¥Ń
Ġà¥§à¥Ń à¥Ńà¥®
Ġà¥§à¥Ń à¥®à¥Ń
Ġà¥§à¥Ń à¥Ńà¥¯
Ġex port
ĠJ er
ĠJ ay
Ġclass ification
14 7
ec k
à¤µà¤£ à¤Ĺ
à¤¦à¤¬ à¤°à¤¦
ip her
Ġà¤ħà¤¹ à¤ľ
Ġcol span
24 7
Ġ35 9
ple te
ich i
Ġà¥¨à¥« à¥¬
Ġhe art
Ø§ Ûģ
27 6
Ġcont rast
à¤īà¤ª à¤¹
ĠSt reet
Ġtext s
à¤®à¤°à¤£ à¤¶à¤ķ
48 4
45 8
Ġdiv ers
Ø± Ø¨
Ġ55 5
à¤³ à¤®
Ġ150 1
Ġsy s
ÛĮ Ú©
à² ¡
Ġ39 5
ĠTh erm
à¤ħà¤« à¤µ
ĠSh ri
AT E
aus s
iss ions
à¤¹à¤¡ à¤¸à¤¨
àµ Ģ
Ġà¤®à¤¦à¤¨ à¤ª
erv atory
à¥ĩà¥ĩ à¥ĩà¥ĩ
ĠTr ad
ĠTr ich
Ġover r
à¸ ´
à¸ ĩ
az a
Ġcons ervation
à¥§à¥¯à¥ª à¥§
ĠEx change
ribut ion
uc lear
Ġæ ĸ
Ġro ad
ĠOr th
ĠCon ference
Ġinv ok
Ġtransl ations
ĠÏ ĩ
ĠÏ ī
Ġass emb
Ġag o
Ġà¤¦à¤¹à¤¨ à¤¶
ĠIP KF
Ġà½ Ķ
Ġà¥ªà¥® à¥¦
Ar ticles
Ġà¥§à¥®à¥© à¥©
Ġread y
Ġconf irmed
Ġà® ®
Ġï ½
ĠGe o
à¥§à¥¯à¥§à¥ ¬
Ġarch ives
ÉĻ r
Ġconc rete
ĠCont in
hel m
áŀ ļ
à« ĭ
ĠElect ro
Ġlat est
Ġtax obox
Ġstruct ures
Ġrender ing
anth an
ophy ta
Ġocc up
ogen esis
Pr otection
apur am
ĠÙĨ ÛĴ
ĠAf gh
Ġwikilink ed
ĠCap ital
Ġrepresent ation
aceb o
Ġjo int
ĠSD LC
ĠED GE
ĠØŃ Ø³
Wik imedia
asc ular
orr hoea
Ġnomin ate
Ġgl ass
ĠDef ence
ĠIndust ries
Ġalg ebra
Ġtre ated
Ġfund amental
ĠJava Script
Result s
ĠMov ie
Ġincor por
Ġsens itive
Éĳ ËĲ
Ġcompat ible
Ġpract ice
Ġens ure
æľ ¬
Set ting
Ġphen omen
ĠTim es
rest le
Ġà¤ħà¤ĩ à¤®à¤Ĺ
ĠTreat y
avas cript
ĠXia omi
Ġacade mic
Ġwee ks
ilibri um
9 29
B BC
B efore
D b
F P
K S
K h
M essage
Q OP
U D
f ile
f red
g on
g al
h l
i w
l ate
m odule
n h
n ews
p al
r t
r in
r ut
s en
t it
w ind
y o
y ar
Ã ²
É Ĳ
Ð ¶
× ©
à¤° à¤¡à¤®
à¤Ĥ âĢį
à¥Ģ _
à¥Ģ à¥Ģ
à¤¨ à¤¨à¤ķ
à¤ķ à¤®à¤£
à¤¯ à¤¦à¤¨
à¤² à¤¹à¤ķ
à¤® à¤ªà¤¨
à¤µ à¤¡à¤°
Ġà¤ª à¤µà¤°
Ġà¤ª à¤¯à¤Ł
à¤¹ à¤ĸà¤£
à¤ª à¤Ī
à¤Ĺ à¤ĺ
à¤Ĺ à¤¸à¤®à¤¤
Ġà¤ħ à¤¥à¤®à¤²à¤Ĺ
Ġà¤µ à¤ĸ
à¤ľ à¤°à¤¦
à¤ľ à¤²à¤¯
Ġà¤¨ à¤®à¤¦
Ġà¤¬ à¤Ń
Ġà¤¬ à¤Ľà¤°
à¤¶ à¤¹à¤¦
Ġà¤¦ à¤°à¤¯
à¤· à¤°à¤§
à¤¬ à¤¹à¤²
Ġà¤² à¤¹à¤²à¤¹
à¤¥ à¤°à¤µ
à¤ļ à¤®à¤°
Ġà¤ı à¤ĸ
Ġà¤ı à¤ĩà¤¨
Ġà¤¤ à¤²à¤¸
à¤Ń à¤°à¤¨
Ġà¤¶ à¤°à¤®
à¥Īà¤Ĥ à¤ĥ
à¤Ī à¤Łà¤¸
à¤Ī à¤ıà¤®à¤ıà¤¸
à¤ĩ à¤²à¤ķ
à¤°à¤¤ à¤¯
Ġà¤« à¤¹à¤¦
à¤¤à¤° à¤ĸ
à¤¤à¤° à¤Ĩà¤§
à¤°à¤£ à¤§
à¤Ĩ à¤¸à¤«
Ġà¤¡ à¤¡à¤²
à¤ĵ à¤Ĩà¤Ī
à¤°à¤¸ à¤Ń
âĢ ¦
in S
Ġà¤ħà¤² à¤ķà¤¤à¤°
à¤¬à¤° à¤Ł
Ġà¤ªà¤¹à¤² à¤Ĺ
Ġà¤Ī à¤¶à¤¨
Ġà¤Ī à¤¦à¤Ĺ
à¤ĺ à¤Ī
à¤Ĺà¤¤ à¤ª
er ed
Ġs ays
Ġà¥¨ à¥¯à¥¬
Ġà¤ĩà¤¨ à¤¬
al and
al garh
Ġc atch
Ġ3 200
Ġà¤ªà¤¦ à¤ª
Ġb omb
Ġb inary
Ġb odies
Ġà¤Ĭ à¤²
Ġà¤Ĭ à¤¸à¤°
Ġà¤ħà¤¸ à¤µ
Ġà¤ħà¤ª à¤ª
Ġà¤ħà¤ª à¤Ł
Ġà¤ħà¤ª à¤°à¤¦
ion e
ĠT om
ic ular
à¤£à¤¨ à¤ĸà¤£
Ġw ild
Ġd B
ĠM ut
ĠM ary
ĠM ast
ĠM att
ĠS us
ĠS ut
Ġn r
Ġ6 47
ĠC am
ĠC ant
ĠC all
ĠC ru
ĠC ross
ĠC ulture
à¤¬à¤² à¤¸
as pur
ĠP ip
Ġà¤ł à¤ł
à¤°à¤ª à¤¥
Ġ9 36
Ġ9 65
ag u
Ġà¤ħà¤Ĺ à¤¹à¤¨
Ġ8 75
à¥§à¥ §à¥¦
Ġà¤Ĩà¤Ī à¤ı
ĠI b
ĠI RC
ĠI reland
om es
Ġà¤ıà¤¸ à¤Īà¤ľ
em i
Ġh ind
ig a
Ġà¥© à¥¨à¥¬
Ġà¥© à¥¨à¥Ń
Ġ17 38
il ed
il ic
à¤Ĳ à¤¬
Ġà¤ıà¤¨ à¤Ī
ĠW C
ro leum
Ġ12 36
Ġ12 90
ĠB u
ĠB ro
ĠB har
Ġg overn
Ġg mail
ĠG UI
Ġà¤ıà¤® à¤ıà¤ļà¤¸
Ġ16 26
Ġ16 47
Ġ16 36
Ġ16 09
Ġ16 94
Ġ16 83
Ġ16 74
ap ar
ĠN y
ĠN OL
à¤ľà¤² à¤ľ
à¤ľà¤² à¤¶
pl asia
ĠE u
ĠE ST
ĠH g
Ġ14 53
iv ation
ĠR ol
à¤ļà¤² à¤ķà¤°
im m
18 12
18 26
18 38
Ġy ellow
Ġà¥§à¥® à¥§à¥¬
Ġà¥§à¥® à¥¦à¥Ń
Ġà¥§à¥® à¥¦à¥¬
ay ed
Ġv ict
Ġv oic
igh th
Ġ25 000
à¤¯à¤£ à¤Ĺ
st on
Ġor b
oc hem
à¤ĳ à¤°à¤²
Ġpar agraph
à¤ħà¤¬ à¤¤à¤ķ
17 93
Ġde ep
Ġà¥§à¥« à¥¬
Ġà¥§à¥« à¥«à¥¬
ak ur
ak ash
Ġk ern
Ġcl ar
16 1
Ġà¥§à¥Ń à¥ªà¥¦
Ġà¥§à¥Ń à¥®à¥®
Ġà¥§à¥Ń à¥Ńà¥¬
Ġà¥§à¥Ń à¥®à¥¯
est ic
Ġ40 2
Ġà¥§à¥¬ à¥©
Ġà¥§à¥¬ à¥¬à¥¦
se lection
eb ral
ĠØ º
à¤ħà¤ª à¤¹à¤°à¤£
13 8
22 4
Ġbr aces
Ġcon ference
Ġà¤¡à¤¬ à¤µ
Ġun ited
Ġà¤ľà¤¯ à¤ļà¤¨
ase odymium
ard o
Ġblock ed
Ġtr ick
Ġtr avel
Ġ35 7
our ed
57 6
Ġà¤· à¤£
60 2
Ġhe ter
à¤īà¤² à¤Ł
ish ing
Ġi P
ph ere
Ġ36 3
ĠY our
ĠSt an
à® ´
à¤ªà¤°à¤® à¤¹
out ube
ear ing
ĠÎ £
Ġdes c
Ġà¤Ĩà¤ĩ à¤ıà¤ıà¤ıà¤«
ateg or
Ġsy ndrome
ÛĮ Ùħ
Ġ65 00
Ġso lutions
à² ¸
oth erm
áĢ Ļ
ĠZ n
Ġà¤¢à¤ķ à¤ķà¤°
à¨ ķ
ĠSh iv
ĠSh ort
up s
Ġcomp ared
Ġlo s
Ġà¤¡à¤ķ à¤µà¤°
inal s
Ġreg ards
uk a
ĠØ§ÙĦ ÙĨ
ĠCO M
ne um
Ġcons on
ĠOr ig
Ġsc atter
ĠCon f
Ð¾ Ð½
Ġrec ently
Ġfe et
Ġmain ly
Ġmer ge
à³ Ģ
Ġag ree
Ðµ Ð´
hed ral
Ġà¥©à¥Ń à¥«
Ġexist ence
Ġdec re
Ġdec ide
ĠCo lumb
Ġsign ed
Ġsign ature
Ġcomple ted
Ġident ified
ĠCol l
FF FD
oz illa
arg s
app end
à© Ĥ
Wh ich
ĠIs lands
ĠAs k
Ġoutput s
Ġperiod s
ĠIN R
Tr ansl
ĠGu jar
Ġtem porary
Ġmov es
Ġmicro formats
ophy ll
Ġocc urs
Ġcontin uous
Ġâĸ Ī
Ġut tar
Ġrepresent ing
Ġflo or
Ġsch olar
Ġplan ning
ĠSm all
Ġconver ts
Ġtri angle
Add itional
Ġbuilding s
ĠDis ney
Ġapplic able
Ġlarg est
ĠMult iple
Sp ec
Ġfin ancial
astic ity
Ġdecl ar
Ġprop ag
Ġregard less
Ġinstall ed
ĠFed eration
ĠOper a
ĠVir gin
ĠIAS T
Ġparse Param
ners hip
Ġfem ale
Ġestab lish
ĠBill board
Ġgrow th
Ġencour aged
Ġconse qu
Ġglob als
ĠAlex ander
ĠUC LA
ĠRad io
irr or
à¤Ĩà¤ī à¤Łà¤²
ĠIU PAC
Ġpil ot
Gener al
Ġtiss ue
Ġsoci ety
ĠEN IAC
ĠJul ian
Ġbro ken
Ġhierarch y
Ġvolunte ers
ĠKash mir
Ġpronoun ci
Ġsear ches
ĠBrun o
medi ate
Ġexpos ure
Acc ording
rehens ive
ĠEas tern
urea uc
Ġhen ce
ĠGmb H
ĠNOL ITE
0 29
1 200
3 60
5 30
B ar
C ount
H is
H ead
L abel
N SA
P T
R et
S ch
S har
c d
e et
j d
l amm
n ar
r ad
s z
t im
u ction
v t
x y
z h
Å Ĥ
Ï Ĩ
× ŀ
Ø °
á Ī
à¤¾ âĢĻ
à¤° à¤¶à¤ķ
à¤¨ à¤¯à¤¤
à¤¨ à¤ĸà¤°
à¤¯ à¤¡à¤²
à¤¸ à¤¬à¤²
à¤² à¤°à¤µ
à¤² à¤¡à¤ķ
Ġà¤¸ à¤ŀ
Ġà¤¹ à¤³
à¤® à¤Łà¤¨
à¤® à¤µà¤²
à¤® à¤¶à¤¤
Ġà¤® à¤°à¤¸
à¤¦ à¤Ł
à¤¦ à¤°à¤£
à¤¦ à¤ķà¤¨
à¤¦ à¤¯à¤µ
à¤ª à¤¸à¤°
Ġà¤ľ à¤®à¤°
à¤Ĺ à¤®à¤ķ
à¤Ł à¤¨à¤ķà¤ª
à¤ľ à¤¸à¤°
à¤ľ à¤°à¤¹
à¤ľ à¤®à¤¹
à¤¡ à¤ħà¤ª
à¤§ à¤¯à¤¨
à¤§ à¤µà¤ª
Ġà¤² à¤ļà¤ķ
à¤ļ à¤ķà¤²
Ġà¤ī à¤®à¤¸
Ġà¤ı à¤²à¤ķ
Ġà¤¤ à¤ªà¤¨
à¤ı à¤°à¤£
Ġà¤Ĩ à¤ľà¤¨
Ġà¤Ĩ à¤²à¤¯
Ġà¤¶ à¤ķà¤²
à¤Ī à¤Ĩà¤Ī
à¤ĩ à¤Ŀ
à¤ĩ à¤ªà¤¸
à¤« à¤£
Ġà¤¸à¤® à¤ļà¤¤
Ġà¤ħà¤¨ à¤¡
Ġà¤ĸ à¤°à¤¨
à¤ī à¤¸à¤°
à¤ī à¤ªà¤¶
à¤Ľ à¤¯
à¤°à¤¦ à¤¶
Ġà¤īà¤ª à¤®à¤¨
Ġà¤īà¤ª à¤ĩà¤ķ
à¤ªà¤° à¤Ł
Ġà¤Ľ à¤¨à¤¨
Ġt an
Ġt um
in ian
à¤µà¤¨ à¤«
an ies
Ġà¤Ī à¤ıà¤®à¤ıà¤¸
à¤·à¤£ à¤¸
à¤·à¤£ à¤ľ
à¤·à¤£ à¤Ń
à¤®à¤ķ à¤¸
or ter
Ġà¤ĳ à¤¥à¤°
Ġà¥¨ à¥¯à¥ª
al ia
Ġc lock
Ġ3 166
is f
à¤¦à¤¨ à¤ķà¤°
Ġf ib
Ġf light
Ġf ellow
Ġb io
Ġb orn
ed y
Ġp ig
Ġà¤ħà¤ª à¤¹à¤°
Ġà¤ħà¤ª à¤¸à¤°à¤£
Ġà¤Ĩà¤¤ à¤¤
à¤²à¤¬ à¤¨
Ġin e
Ġin sp
ĠT O
ĠT NA
Ġà¤¤à¤¹ à¤®
à¤°à¤¨ à¤¹
à¤ľà¤° à¤Ĺ
ĠM id
ĠM aj
ĠM ID
ĠM DR
ĠS om
ĠS ac
ĠS war
Ġà¤ľà¤² à¤Ńà¤°
Ġn om
Ġn Wo
à¤®à¤² à¤²
ĠC os
à¤ıà¤¸ à¤ıà¤ļ
ĠP enn
ĠP anch
à¤°à¤ª à¤¸
à¤ħà¤¨ à¤Ĺ
Ġ9 75
ag le
ag us
Ġ8 45
ly sis
à¤¯à¤² à¤®
à¤ĩà¤¡ à¤ķ
à¤°à¤ľ à¤¸
om on
Ġ10 80
Ġ10 55
Ġà¤ıà¤² à¤«
Ġà¤ıà¤² à¤¬à¤°
lo v
Ġh p
Ġh am
ig ma
Ġ15 10
Ġ15 22
Ġ15 25
Ġ15 47
Ġ15 31
Ġ15 44
Ġ15 89
Ġ15 81
ur ance
Ġà¤®à¤¸ à¤Ĭà¤¦
Ġà¥© à¥¦à¥¨
Ġà¥© à¥¨à¥«
Ġà¥© à¥¦à¥¯
Ġà¥¨à¥¦à¥ ¯
Ġà¥¨à¥¦à¥ ¯à¥
ĠD al
ĠU m
à¤®à¤¹ à¤¦
Ġ17 34
Ġ17 42
Ġfor t
il ia
ul in
ĠW in
ĠW rit
ĠB harat
ĠB ureau
Ġe ver
Ġe gg
Ġe clipse
ĠG on
ĠG ra
ĠG all
Ġ16 14
Ġ16 57
Ġ16 35
Ġ16 43
Ġ16 51
ĠN ight
ĠN ast
ĠN ames
ac hes
ĠL ew
ĠL amb
ĠE sc
ĠH ou
ĠH ay
ĠH ello
qu ired
à¤īà¤¦ à¤Ĺ
à¤īà¤¦ à¤¯à¤Ĺ
ĠR om
ĠR ange
ĠR ead
18 17
18 24
18 47
18 39
18 05
18 53
Ġà¤§à¤¨ à¤Ĺà¤°
à¤¶à¤² à¤ª
à¤¹à¤ķ à¤®
à¤°à¤ĸ à¤°à¤¤
Ġst ations
Ġv ert
à¤°à¤Ĺ à¤²à¤¨
ĠK y
ĠK or
à¤ĳ à¤¯à¤²
Ġ23 00
Ġ100 1
Ġà¤ħà¤¸à¤® à¤¤
ĠV i
ĠV alley
Ġ50 1
15 26
Ġde com
Ġà¥§à¥« à¥ªà¥¨
ess el
16 2
ill ary
Ġà¥§à¥Ń à¥®à¥©
Ġex clus
Ġà¤ıà¤« à¤ľ
ĠJ i
ĠJ ur
ĠJ un
ĠJ ud
Ġform ation
Ġà¥§à¥¬ à¥¯
Ġfunction al
Ġcom ing
Ġà¤ıà¤° à¤°
Ġà¥§à¥ª à¥©
ex port
Ġcon sole
Ġà¥§à¥© à¥¯
Ġà¤ľà¤¯ à¤ķà¤°
Ġcol ours
ore ign
Ġblock s
iz ations
26 3
Ġpr edic
ph er
Ġj s
80 50
Ġed ge
ĠInd ones
Ġ38 9
act s
35 2
Ġdiv ided
Ġ150 4
Ġà¤į à¤Ł
ĠUS S
Us ed
ric ts
33 4
Ġ42 17
ond er
Ġà¥§à¥§à¥ ¯
ĠAr ts
49 5
à¨ ľ
ĠSh im
ĠSh arma
NA ME
ĠÐ ĳ
ĠPr on
Ġind ent
Ġind ica
à¤ħà¤¦ à¤°à¤ķ
return s
Ġrel ief
Ġet h
ĠØ§ÙĦ Ø¯
az ily
à¤½ à¤°
à¤½ à¤¹
àª ¨
àª ®
àª µ
ĠCon vention
à± Ĩ
ĠÏ ģ
à¤ıà¤¸à¤Ī à¤¬
Ðµ Ð»
ivers ity
ĠAd vanced
ĠMar s
Ġext ended
à¤ľà¤Ĺà¤¦ à¤²à¤ª
Ġmod ify
Ġlog s
Ġdescri be
ĠEn jyu
ĠNH L
ĠIs ra
Ġconst itu
Ġà° ľ
Ø§Ø ¬
Ġla unch
Ġlow ercase
ĠQu ant
AD S
ĠCan adian
Ġà¤ıà¤¸à¤ıà¤¸ à¤ıà¤ļ
Ġindic ator
Ġfact ors
Ġlat ter
Ã¶ r
mon th
GB T
Ġpoly nomial
unci ation
Ġâī Ī
Ġhyp ot
Ġbet a
Ġdou b
Ġinsert ed
Ġindividual s
Ġperform ed
Ġmagn et
Ġexpress ed
Def ine
Ġprof ile
Ġquant ity
ĠHer itage
Ġmag ic
Ġà¥¨à¥¦à¥« à¥¦
à¥¨à¥¦à¥¨ à¥¦
ĠAustral ian
Ġadministr ator
Ġà¤Īà¤ĵ à¤¡à¤¬
ĠFin ancial
ĠOb ject
Ġactiv ities
ĠMark et
ĠRaw la
Names pace
ĠPlay Station
Ø³ÙĦ Ø§Ùħ
Ġess ential
Ġà¤®à¤²à¤¨ à¤¹
Ġcurr ency
ĠNAT O
Ġassess ment
ĠAgric ultural
Ġà¤Ĩà¤°à¤Ĩà¤Īà¤ı à¤ı
Ġduplic ate
ĠFerr ari
Ġveloc ity
restle Mania
0 37
0 36
2 12
3 10
3 27
9 30
9 40
9 38
B ot
E very
F DA
G adget
H igh
H istory
P R
P a
S ec
V L
W R
W ill
X C
b ed
b lue
c hen
d ale
e es
f b
f all
g l
h ot
m atch
n el
n uxsr
s ite
u los
v ol
° ĳ
± ±
Ä ĥ
Ê °
Ì ĥ
Ñ Ī
Õ ¡
å ¤
Ġ à¥Ī
Ġ il
à¤ º
à¤¾ _
à¤¾ à¥ĭ
Ġà¤ķ à¤¤à¤²
Ġà¤ķ à¤¨à¤ķà¤ª
à¤¤ à¤Ńà¤°
à¤ķ à¤ĩ
à¤¯ à¤¤à¤°
à¤¯ à¤ªà¤¸
à¤¸ à¤¤à¤ķ
à¤² à¤Łà¤°
à¤® à¤Ĺà¤²
à¤µ à¤¯à¤°
à¤µ à¤ªà¤ķ
à¤µ à¤¤à¤°à¤£
à¤¹ à¤Ĩà¤²à¤®
à¤¦ à¤°à¤¯
à¤ª à¤ķà¤°à¤£
à¤ª à¤łà¤¨
Ġà¤ľ à¤¯à¤ľ
à¤Ĺ à¤¹à¤²
Ġà¤µ à¤¡à¤ķ
à¤¶ à¤·
à¤¶ à¤µà¤¨
à¤¶ à¤°à¤¬
à¤¶ à¤µà¤ķ
à¤· à¤¨à¤°
à¤¡ à¤µà¤ª
à¤¬ à¤£
à¤¬ à¤ļà¤¨
à¤§ à¤®à¤¤
Ġà¤Ĺ à¤¡à¤¬
Ġà¤Ĺ à¤¡à¤ķà¤°
à¤ļ à¤®à¤¨
Ġà¤ī à¤°à¤¦
Ġà¤ı à¤ľà¤¬
Ġà¤ı à¤ļà¤ķ
Ġà¤ı à¤¤à¤¦
Ġà¤ı à¤ıà¤«à¤ª
Ġà¤¤ à¤®à¤ķ
à¤ı à¤·
à¤ı à¤²à¤µ
Ġà¤ķà¤° à¤¸à¤¨
à¥Īà¤Ĥ :
à¤ĸ à¤®à¤¨
Ġà¤ªà¤° à¤§
Ġà¤ªà¤° à¤Ńà¤£
Ġà¤ĩ à¤¦à¤°
Ġà¤¯ à¤¶à¤¦
à¤Ī à¤Ĩà¤ķ
à¤ĩ à¤°à¤¨
à¤ĩ à¤ıà¤¸
à¤« à¤°à¤®
Ġà¤ħà¤¨ à¤ķà¤¹
à¤µà¤° à¤Ł
à¤ī à¤ªà¤²
Ġà¤°à¤¹ à¤µ
à¤°à¤® à¤¦à¤°
à¤°à¤® à¤¹à¤²
Ġà¤µà¤° à¤²
à¤ħ à¤¦à¤¨
à¤ħ à¤ľà¤°à¤¬
à¤°à¤¸ à¤µà¤ķ
Ġà¤īà¤ª à¤ļà¤¯
Ġà¤ľà¤¨ à¤¨à¤ķ
Ġt el
Ġt err
à¤Ĺà¤° à¤¬
an as
à¤¯à¤¤ à¤Ńà¤°
Ġs ulf
Ġà¥¨ à¥¯à¥¨
ar pur
à¤¤à¤¨ à¤²
Ġà¤¸à¤° à¤µà¤¨
Ġc ord
Ġc art
Ġc ricket
en ced
Ġà¤ķà¤² à¤¬
is p
à¤°à¤Ń à¤°
à¤°à¤Ń à¤Ł
Ġf ed
Ġf ail
Ġf ever
Ġb urn
Ġb acteria
Ġp s
Ġp ng
Ġp ack
Ġp erman
Ġp ump
Ġ4 28
Ġ5 18
ĠT ab
ĠT ak
à¤²à¤ķ à¤®à¤²
ic ian
à¤ķà¤¨ à¤ª
à¤¡à¤° à¤¡
Ġd ynamic
Ġd aily
à¤ĩà¤Ł à¤®
Ġm ach
ĠM g
ĠM ant
à¤¬à¤¨ à¤¸
ĠS J
ĠS ul
ĠS ong
ĠS PA
ĠS CO
ĠS ky
Ġn et
Ġn ation
Ġn aming
am pur
am ination
ĠC K
ĠC as
ĠC ER
à¤¨à¤² à¤ª
Ġà¤¸à¤¨ à¤¨
as er
à¤Ĭ à¤«
ĠP and
ĠP rop
ĠA ff
Ġ9 47
Ġ9 38
Ġ9 88
Ġà¤Ĩà¤Ĺ à¤¨
Ġ8 20
à¤°à¤¬ à¤¹
Ġà¤Ĩà¤Ī à¤Ĺ
Ġà¤Ĩà¤Ī à¤ıà¤¨à¤ı
us ing
à¤¯à¤ª à¤²
à¤ļà¤° à¤ĸ
à¤¥à¤² à¤¸
Ġ10 10
Ġà¤ıà¤² à¤ıà¤®
à¤¯à¤¯à¤¨ à¤¶
Ġ15 19
Ġ15 85
Ġ15 83
Ġ15 63
Ġ15 59
Ġsp orts
ur ia
à¤Ĺà¤¨ à¤¯à¤¨
Ġà¥© à¥§à¥¬
lu c
lu k
ĠD F
ĠD ark
ĠD ead
à¤®à¤¦ à¤¶
il ly
à¤Ĳ à¤¡à¤®
ul ator
Ġà¤ıà¤¨ à¤ıà¤¸à¤ıà¤¸
ĠW Y
ĠW ay
ĠW ill
ĠW ales
Ġà¤®à¤¦ à¤¹
ro st
ĠB uil
ĠB eta
ĠB azar
à¥§ à¥¦à¥®
Ġe poch
ĠG em
Ġà¤ıà¤® à¤Ĩà¤°à¤ª
Ġ16 13
Ġ16 95
Ġ16 96
Ġ16 97
Ġ16 82
Ġ16 91
ĠN eg
à¤¬à¤¦ à¤¦
Ġis ol
ĠL u
ĠL ah
Ġbe aut
ĠH at
ĠH ir
ĠH imal
à¤ıà¤² à¤ĵ
Ġ14 80
ĠR IM
ĠR eturns
à¤®à¤£ à¤ª
im p
18 2
18 3
18 23
18 45
18 32
18 51
ad zu
Ġà¥§à¥® à¥§à¥©
ia z
Ġst ream
Ġst orage
od iac
Ġv ision
ab e
à¤°à¤Ĺ à¤¡
Ġal le
Ġal ter
ĠK ot
ĠK ong
ĠK har
ĠO l
av it
ĠV el
17 72
15 1
15 6
Ġà¥§à¥« à¥©
Ġà¥§à¥« à¥ª
Ġcl imate
op a
op t
op ia
og ene
Ġà¥§à¥Ń à¥¯à¥®
Ġà¥§à¥Ń à¥¬à¥Ń
Ġà¥§à¥Ń à¥«à¥Ń
Ġex haust
12 15
tic ip
Ġ27 00
Ġnot ify
Ġwh itel
Ġà¥§à¥¬ à¥®à¥®
Ġà¥§à¥¦ à¥¦à¥¨
à¤§à¤µ à¤Ĺ
Ġà¥§à¥ª à¥¯
Ġun ion
ord ance
art z
Ġad vanced
23 7
Ġà¤¸à¤°à¤¸ à¤°
Ġà¤¹à¤¡ à¤¤
57 4
Ġà¤īà¤Ĺ à¤²à¤¤
à¥§à¥® à¥¯à¥ª
Ġpr ime
Ġà¤ĵà¤µà¤° à¤Ł
ell i
ell ar
Ġcont ract
Ġj ata
à¤¨à¤Ĺ à¤Ī
Ġà¥¨à¥ª à¥®
ĠSt aff
ĠAn th
Ùħ Ø±
à¤ĭ à¤ļ
48 3
ĠÎ ¶
ĠÎ ļ
35 6
Ġà¥¨à¥¬ à¥¦à¥¦
Ġ55 00
Ġint elligence
ug h
ĠUS SR
à¥§à¥¨ à¥¦
rit is
Ġ47 6
Ġstr ategy
Ġso il
Ġso ft
Ġtrans clusion
Ġ39 1
aj rana
Ġ56 5
à¥§à¥¯ à¥¦à¥¯
Ġà¤Ĩà¤¯à¤¨ à¤¨
Ġdisplay ing
áĢ Ķ
Ġà¤ĵà¤ªà¤¨ à¤°
à¤īà¤ªà¤¨ à¤Ĺà¤°
ĠPart y
Ġà¤²à¤ĸ à¤®
à¨ ¬
à¨ ®
ĠÃ ĸ
Ġ95 00
ĠPr iv
Ġper haps
ater n
Ø¯ Ø±
iss a
Ġ120 6
erv ous
ick ing
Ġpos itional
Ã© t
Ð° Ð»
Ġå ¸
ĠØ§ÙĦ ØŃ
à¤Ĺà¤¹ à¤Ī
Ġtop ics
Ġcons ist
Ġem ph
ĠCD I
Ġæ Ń
Ġact in
à± Ĥ
Ø³ Ùħ
Ġequ ilibrium
à³ ĩ
Ġmap frame
Ġsec urity
àµį âĢį
à¥§à¥¯à¥© à¥©
ĠRe quest
Ġdec ision
Ġser ious
ĠCo ast
Ġsign s
val u
sc ill
ĠHy per
Ġrequest ed
ĠEd itor
Ġpost ed
ĠáĢ Ģ
ĠAct ive
Ġindic ating
Ġmicro scope
ĠDi amond
Ġcy st
Ġest im
Ġclear ly
Ġwrap ped
Ġenc losed
Ġsort ing
ĠBi har
Ġview ing
ĠEC M
Ġrepresent ed
Cont ainer
Ġep it
ĠSw ed
Ġgreat est
ipp ed
ĠPH P
Ġmajor ity
Ġrad ial
Ġpropos als
Ġobject s
Wik idata
ĠDR DO
Ġaccount s
Ġquant ities
ĠOrgan isation
ĠGl acier
ĠAv enged
Sim ple
Ġprevious ly
Ġsubstitut ion
Ġcare er
ĠCI O
Ġcur ve
Ġwide ly
ĠIR R
ĠGM O
select ed
ĠBra hm
Ġcop ied
Ġtra iling
ĠKC YM
ĠQue pasa
Mult ilingual
omer ism
Ġcandid ate
Ġmix ture
ĠFranc is
ĠPolit ical
Ġthous ands
ĠSeven fold
à¤ħà¤¶à¤° à¤«
Ġconne ction
ĠLov es
ĠYol mo
Ġvill ages
Ġpunct uation
Ġfrag ment
Ġtrigon ometric
Long champ
Ġagg reg
à¤°à¤Ĩ à¤Ĭà¤¨
Ġconstell ation
3 000
3 36
4 20
7 25
7 60
9 50
9 25
9 47
B ay
C ar
E m
E nd
E ven
G DP
I R
J ust
L D
M ah
P op
R AM
S ush
T rip
V R
W S
W ork
b on
b an
b and
b ank
d ot
f fer
g s
h on
h ard
m essage
o en
p c
r ant
r int
t u
w ill
w ant
w orld
Â µ
Ä į
Å Ł
ä ¸
ì Ŀ
Ġ ice
Ġ ip
Ġà¤ Ĵ
à¤° à¤°à¤¹
à¤° à¤²à¤µ
à¥į à¤ĥ
Ġà¤ķ à¤Łà¤²à¤°
à¤Ĥ à¤¾
à¥Ģ à¥į
à¤ķ à¤µà¤²
à¤ķ à¤¹à¤²
à¤¸ à¤ĺà¤¨
à¤® à¤ĺà¤¨
Ġà¤® à¤ŀ
à¤µ à¤ļà¤²
à¤¹ à¤łà¤¯
à¤¦ à¤µà¤¨
à¤ª à¤Ĺà¤¨
à¤Ĺ à¤¨à¤®
à¤Ĺ à¤Ļ
Ġà¤µ à¤¯à¤²
à¤Ł à¤®à¤¸
à¥Ĥ à¤¼
Ġà¤¨ à¤µà¤¤
à¤¶ à¤¯à¤¤
Ġà¤° à¤¸à¤®à¤¯
à¤· à¤¹à¤°
à¤· à¤®à¤£
Ġà¤² à¤Ń
à¤£ à¤¶à¤ķ
à¤£ à¤¤à¤¤
à¤£ à¤ªà¤Ł
Ġà¤ī à¤¥
Ġà¤ı à¤¡à¤°
Ġà¤ı à¤¡à¤¨
à¤¼ à¥Ĥà¤Ĥ
à¤ı à¤®à¤¨
à¤ı à¤ľà¤°
Ġà¤Ĩ à¤®à¤°
Ġà¤¶ à¤¹à¤¬
à¤ĸ à¤°à¤¹
à¤ĸ à¤¦à¤¤
Ġà¤ĩ à¤¡à¤°
à¤ĩ à¤ĵ
à¤ĩ à¤°à¤µ
à¤ĩ à¤ħà¤°
Ġ) à¤¿
Ġà¤« à¤ĸà¤°à¤ª
Ġà¤ħà¤¨ à¤Ľ
à¤¤à¤° à¤¶
à¤°à¤£ à¤Ń
à¥Ģà¤Ĥ à¤Ĥ
à¤Ĩ à¤ªà¤¤
à¤Ĩ à¤ĩà¤¯
à¤Ĩ à¤¯à¤¶
à¤Ĩ à¤¯à¤¤à¤¨
Ġà¤¡ à¤¯
Ġà¤ķà¤¹ à¤²à¤µ
Ġà¤ľà¤¨ à¤²
à¤¶à¤¨ à¤µ
à¤¨à¤ķ à¤µ
Ġà¤Ľ à¤²à¤ķ
Ġt u
Ġt un
à¤¯à¤¨ à¤¨
à¤¯à¤¨ à¤Ĺà¤°
à¤°à¤¹ à¤Ĺ
à¤Ĺà¤° à¤²
à¤²à¤¤ à¤«
Ġà¤Ī à¤Łà¤°
Ġà¤Ī à¤ıà¤ª
à¤Ĺà¤¤ à¤®
Ġà¤ķà¤® à¤¤
à¤®à¤¨ à¤Ĺ
à¤°à¤¯ à¤¸
or on
Ġs ac
Ġs ight
Ġs ample
Ġs vg
Ġà¤¸à¤¹ à¤¶
Ġà¤¸à¤¹ à¤¸à¤®
Ġà¤¸à¤¹ à¤ħà¤¸
à¤¤à¤¨ à¤¤à¤®
Ġà¤ħà¤® à¤²à¤¤
Ġà¤Ĳ à¤Łà¤²à¤¸
Ġà¤Ĩà¤¦ à¤¤à¤¨
al ai
Ġc ot
Ġ201 00
Ġà¤īà¤¦ à¤¦
à¤¤à¤ķ à¤¶
à¤Ŀ à¤²à¤ķ
is ode
Ġf er
Ġb ars
Ġà¤ħà¤¤ à¤²
Ġa h
Ġa er
Ġa wards
Ġa udio
le in
Ġ4 27
Ġ5 27
Ġin fer
ĠT ool
ĠT oy
Ġà¥§à¥¯à¥ ¯
Ġà¤ĵà¤° à¤ĸ
Ġd h
Ġd y
Ġd rop
à¤ĩà¤Ł à¤«
Ġm ail
Ġm orph
Ġm oney
Ġà¤¶à¤¬ à¤¦
ĠM U
ĠM ost
ĠM aur
ĠS id
ĠS ite
ĠS ide
Ġn ic
Ġn ouns
Ġ6 28
Ġ6 37
ĠC ard
Ġ7 12
as ion
as ure
ĠP RI
Ġà¤¬à¤° à¤Ĺà¤¢
à¤²à¤µ à¤§
Ġ9 90
Ġ9 67
ag i
Ġ8 22
Ġà¤Ĩà¤Ī à¤Ĩà¤Īà¤ıà¤ļ
Ġan cient
Ġà¤ªà¤ķ à¤¡à¤¨
ĠI W
ĠI NA
de v
em pty
Ġà¤¢ à¤ķà¤¤
Ġh our
Ġ15 18
Ġ15 24
Ġ15 29
Ġ15 86
à¤īà¤¸ à¤¹
Ġl ith
Ġl ibraries
à¤²à¤® à¤Ł
Ġ17 35
à¤ķà¤ª à¤²
ul ating
Ġà¤ıà¤¨ à¤ıà¤ıà¤¸
Ġà¤ıà¤¨ à¤ıà¤¸à¤ľ
ĠW ith
ĠW arn
ro ke
Ġ12 79
ĠB ac
ĠB od
à¥§ à¥¦à¥«
Ġe V
Ġg amet
ĠG er
ĠG MT
Ġà¤ıà¤® à¤¡à¤¬
Ġà¤ıà¤® à¤ĵà¤¯
Ġ16 45
Ġ16 39
Ġ16 49
Ġ16 08
Ġ16 78
ap on
ĠL V
ĠL os
ĠL ead
ĠL uc
ĠL oad
à¤ľà¤² à¤§
pl acement
Ġ11 11
Ġ14 14
à¤®à¤Ĺ à¤°à¤®à¤ļ
à¥ħ à¥Ĥ
à¤Ķ à¤¸
à¤Ķ à¤°à¤¤
ĠR og
ĠR Ã©
ĠR adi
à¤ľà¤® à¤¬à¤°
18 5
18 19
Ġà¥Ń à¥Ńà¥¦
ĠF estival
Ġr ailway
um i
Ġst ore
Ġst one
Ġst yl
Ġv oid
ab ha
à¤¨à¤ª à¤°à¤ķ
if olia
ĠÂ §
ĠO F
av id
ri age
17 07
Ġde ad
Ġà¤ıà¤ļ à¤µ
Ġà¤ħà¤Ĺà¤° à¤ļ
ess ions
op eration
à¤ıà¤ļ à¤ıà¤«
ill ar
Ġà¥§à¥Ń à¥¨à¥ª
Ġà¥§à¥Ń à¥¦à¥®
Ġà¥§à¥Ń à¥©à¥ª
à¤°à¤« à¤²à¤¨
est ial
Ġex ception
Ġà¥§à¥¨ à¥¯
Ġà¤ıà¤« à¤Ĩà¤Īà¤ıà¤ļ
Ġà¤Ńà¤µà¤¨ à¤¨
Ġpro ced
ov id
ov ie
à¤ķà¤¥ à¤ķà¤²
à¤ħà¤ª à¤ĺà¤Łà¤¨
Ġà¥§à¥ª à¥§
Ġà¤¦à¤¶ à¤ª
à¤¯à¤ľ à¤Ĺà¤¤
à¤ĺà¤¨ à¤¶
Ġà¥¯ à¥¦à¥¦à¥¦
Ġà¥§à¥© à¥®
ect ors
Ġtr ain
24 9
ox in
Ġat oms
23 6
57 7
com ing
28 2
ĠX Y
Ġen for
ary a
ary ng
Ġpr ote
Ġpr adesh
à¤¨à¤¬ à¤°à¤¸
ell ed
ĠCh ap
Ġab st
Ġà¤¶à¤² à¤ľà¤®
Ġà¤¨à¤ľà¤° à¤¬à¤¨
Ġpl ot
Ġj ourn
Ġà¥¨à¥© à¥§
Ġ500 00
ĠAn alysis
Ġ37 2
Ġ37 6
à¤¨à¤ľ à¤«
48 6
ĠÎ ©
ĠÎ ½
Ġ38 1
36 8
45 4
35 9
ric s
Ġà¥¨à¥Ń à¥©
olog ists
rit ion
Ġtrans clude
aj an
Ġà¦ Ĺ
Ġ46 7
Ġ56 2
int osh
Ġà¤ıà¤¡à¤µà¤° à¤Ł
te en
ert il
ĠÃ ·
ĠÐ ¼
ĠÐ ĺ
ĠÐ Ŀ
95 1
Ġset R
Ġinf inite
AS P
AS T
à¤ħà¤®à¤° à¤ª
àµ ĭ
Ġind ian
68 3
erv a
66 2
Ġ97 3
à½ ¢
rib s
Ġacc eler
Ġreg istration
Ġend ing
ĠØ§ÙĦ ÙĤ
Ġover all
Ġdiffer ences
Ġem ission
Ġwik im
Ġdet ailed
Ġà¥«à¥¦à¥¦ à¥¦à¥¦
ĠSp ect
ĠSp anish
Ġcontain ed
Ġà´ µ
Ġà´ ¹
Ġà¤ĩà¤« à¤ķ
ĠSI M
Ð¾ Ð´
Ġdoc uments
à¤Łà¤°à¤ķ à¤¨
Ġass ign
à¤ķà¤ł à¤¬
Ġà¤īà¤Ľ à¤²à¤¨
Ġhead ings
à¤Ĩà¤ĩ à¤ıà¤¸à¤¡
Ġob tained
ĠDe ut
Ġdiscuss ed
Ġdiscuss ing
ĠPar is
yl on
Ġvari ety
Ġspecific ation
ĠNH S
app ropriate
Ġ× Ļ
Ad ding
li que
St art
Ġà° ª
Ø§Ø ¹
Ġfam ous
ĠSO AP
ĠØ³ ÙĦ
ĠØ¹ ÙĦÛĮ
Ġresp onse
Ġaccess ible
Ġflag s
Ġà¤ıà¤¸à¤ıà¤¸ à¤Ĩà¤°
ruct ure
Ġpresent ed
Ġmov ing
Ġprogr ess
roll er
Ġnumer ous
ĠComp et
à¾ «
ĠCC D
à¤¦à¤°à¤¸ à¤²
à· Ĵ
ĠAB O
Ġbel ieved
ĠSo ft
Ġang les
Ġappro ach
Ġsuper ior
Ġload ed
Ġcategor ise
Ú¾ ÛĮ
ĠSim ple
à¤Ĩà¤²à¤® à¤ª
áĢº áĢ¸
Ġbold ed
Ġmolec ules
Ġredu ction
à¤¨à¤¸à¤® à¤µ
Ġplay ed
Ġvir us
bl ack
Ġecon omic
Î· ÏĤ
ĠStat istical
Ġsimpl ify
ĠFl ash
Key s
Ġbecom ing
Ġmand atory
Ġcompat ibility
ĠElectron ics
Ġtreat ment
Comm unity
ĠPop ulation
Ġexpon ential
Ġembed ded
paramet ers
Ġrelig ious
riev ed
Ġsubc ategories
Ġannoun ced
Ġsummar ize
ĠGreg orian
ĠØ¹ÙĦ ÙĬ
ĠFam ily
WW E
ĠGan esh
Ġsurr ound
ĠGAA P
ĠLear ning
Ġ3413 16
Ġtas ks
Ġà¤Ĩà¤Īà¤Ĩà¤Īà¤ıà¤ļ à¤ıà¤«
0 10
3 12
4 14
4 90
7 88
9 44
9 46
9 75
9 34
A ss
D uring
D ropdown
G SM
K D
L F
L et
L ater
L oad
M a
M c
M od
P res
Q ual
S pace
Y ear
b in
b ing
b ol
b atch
c ia
h ir
l ia
m g
m as
m atic
r av
r adi
s pl
w s
w ah
w ater
y ad
Ö ¹
à¤° à¤Łà¤°
à¤° à¤Łà¤²
à¤¨ à¤£
à¤¨ à¤ĵà¤µà¤°
à¤¯ à¤¯à¤¤
à¤¯ à¤ľà¤¨à¤¸
à¤® à¤Łà¤ķ
à¤® à¤łà¤¤
Ġà¤® à¤«
à¤µ à¤ķà¤¤
à¤µ à¤®à¤§
Ġà¤ª à¤ļà¤°
à¤¦ à¤µà¤²
à¤ª à¤°à¤£
à¤ª à¤ļà¤¨
Ġà¤ľ à¤°à¤¨
Ġà¤µ à¤¯à¤µà¤¸
à¤Ł à¤¥
à¤ľ à¤µà¤¨
à¥Ĥ âĢį
à¤¶ à¤ķà¤²
Ġà¤° à¤¯à¤¨
à¤· à¤°à¤¹
à¤¡ à¤ªà¤¤
à¤¡ à¤ķà¤Ł
à¤¬ à¤Łà¤²à¤°
à¤§ à¤§
à¤§ à¤ľà¤¨
Ġà¤² à¤²à¤¨
à¤¥ à¤Ń
à¤¥ à¤°à¤¬
Ġà¤Ĺ à¤¦à¤Ĺ
à¤ļ à¤¦à¤¶
Ġà¤ī à¤¬à¤¡
Ġà¤ı à¤ıà¤ı
Ġà¤¤ à¤ľà¤µ
Ġà¤¤ à¤°à¤£à¤¤
Ġà¤¤ à¤²à¤®à¤¡
à¤ı à¤¹à¤¸
Ġà¤Ĩ à¤µà¤¸
Ġà¤Ĩ à¤ĩà¤®
à¤Ń à¤¯à¤¤
Ġà¤¶ à¤°à¤®à¤¨
Ġà¤ªà¤° à¤µà¤²
Ġà¤ıà¤ķ à¤ªà¤ķ
à¤Ī à¤ķà¤°à¤£
à¤°à¤¤ à¤Ĺà¤¢
à¤« à¤°à¤¨
à¤ī à¤¶
Ġà¤¡ à¤¹
à¤ĵ à¤®à¤ķ
Ġà¤ħà¤§ à¤¸
à¤ł à¤¬
à¤ł à¤®à¤²
à¤Ľ à¤¤à¤°
à¤Ľ à¤¤à¤°à¤ª
à¤ħ à¤°à¤ª
à¤ħ à¤ªà¤²
à¤¨à¤ķ à¤¶
Ġt ail
Ġt urb
Ġt ropical
à¤°à¤¹ à¤ł
in put
à¤¬à¤° à¤ĸ
Ġà¤Ī à¤¡à¤°
Ġà¤Ī à¤ıà¤¸à¤Ł
à¤¸à¤¨ à¤¨
er ion
Ġà¤¸à¤¬ à¤®à¤°
ĠâĢ ķ
Ġà¤¸à¤®à¤¯ à¤ª
or ia
Ġs en
Ġs aw
Ġs ides
Ġà¤ĳ à¤°à¤¬
Ġà¥¨ à¥§à¥¯
ar sh
Ġà¤Ĳ à¤¹
Ġc ultural
à¤®à¤¤ à¤µ
à¤ķà¤°à¤£ à¤µ
Ġà¤Ĩà¤° à¤ıà¤«
Ġà¤ħà¤ķ à¤®à¤²
Ġb us
it o
it an
ed s
Ġa y
Ġa qu
Ġa ctions
Ġ4 26
Ġ5 46
Ġin tern
ĠT ul
à¤²à¤ķ à¤¶
ic ient
Ġà¤¹à¤° à¤²
à¤ĸà¤¨ à¤¶
Ġw ire
Ġw aves
Ġd ro
Ġd oll
Ġm u
ĠM ission
ĠM aster
à¤¨à¤° à¤Ĺ
à¤¨à¤° à¤µà¤°
re pr
Ġo k
ĠS ter
ĠS ult
ĠS AS
ĠS port
ĠS IV
ĠS cientific
à¤¥à¤® à¤²
Ġn itrogen
Ġ6 36
am ents
Ġà¤¬à¤² à¤Ĺ
à¤¨à¤® à¤Ĺ
ĠC en
ĠC up
à¤¬à¤² à¤Ńà¤¦
Ġ7 86
as y
as ma
20 22
ĠP GA
ĠA TC
ĠA ry
ĠA TP
ĠA AC
ĠA FI
ĠA rea
Ġà¤¬à¤° à¤Ľ
Ġ9 39
Ġ9 46
à¤°à¤ļ à¤¯
Ġ8 10
Ġ8 38
à¤ĩà¤¡ à¤µ
Ġà¤Ĩà¤Ī à¤Īà¤¸
Ġà¤Ĩà¤Ī à¤ıà¤«à¤ıà¤¸
Ġà¤Ĩà¤Ī à¤Īà¤Īà¤Ī
Ġan a
Ġan ten
à¤°à¤ľ à¤¯
ĠI L
à¤¯à¤ª à¤¶
à¤¹à¤® à¤ľ
Ġà¤īà¤² à¤Łà¤ķà¤°
de m
Ġ10 25
Ġà¤ıà¤² à¤®
et ary
Ġh it
ig arh
Ġ15 16
Ġ15 37
Ġ15 66
ur ric
Ġl ag
Ġl ayer
un der
Ġà¥© à¥¨à¥¨
à¤Ĩà¤Ī à¤¨
à¤Ĩà¤Ī à¤ıà¤¨
ĠD P
ĠD ub
à¤®à¤¦ à¤¦
Ġà¤ľà¤® à¤ĺà¤Ł
id y
ĠW TA
ĠW restleMania
ro g
ĠB on
ĠB arn
Ġe g
Ġe ll
Ġe ye
Ġg ave
Ġg ases
ĠG ab
Ġ16 33
Ġ16 07
Ġ16 04
Ġ16 63
ap or
ap ore
ol ith
Ġà¤ªà¤°à¤® à¤§
ĠN W
Ġis o
ĠL L
ĠL ingu
Ġbe ar
ĠH i
os en
à¤ıà¤® à¤ıà¤®à¤Ł
ĠR B
à¤®à¤£ à¤¤
Ġà¥ª à¥¨à¥¦
ĠF ou
ĠF AT
ĠF ull
ĠF rom
ĠF ever
ĠF oot
Ġà¥§à¥® à¥¦à¥®
à¤ıà¤¨ à¤Ĩà¤Īà¤Ł
Ġr ac
ia h
th at
Ġst ay
od ont
à¤®à¤ļ à¤°à¤£
if era
ĠK ol
à¤®à¤¯ à¤ľ
ont s
ĠO m
à¤¦à¤² à¤¦à¤²
ĠV ik
ĠV illage
ri ef
17 89
15 31
Ġà¥§à¥« à¥§
Ġà¥§à¥« à¥¨à¥¬
Ġà¥§à¥Ń à¥¬
Ġà¥§à¥Ń à¥ªà¥®
Ġà¥§à¥Ń à¥©à¥¯
Ġà¥§à¥Ń à¥«à¥¬
est ion
est hes
Ġà¤ıà¤« à¤ıà¤ķ
Ġà¤ªà¤² à¤Łà¤¤
Ġnot ed
ĠJ ones
Ġ40 1
se c
se y
amet er
30 3
22 6
ĠTy pe
ĠCat alan
Ġà¤ľà¤Ĺà¤¤ à¤¨
24 2
Ġat omic
57 5
Ġle af
ace ous
Ġdis s
Ġen v
ib a
ib li
à¥§à¥® à¥¯à¥¦
à¥§à¥® à¥¯à¥§
Ġhe avy
umb ers
ell er
ish i
Ġab err
org e
à¤īà¤ª à¤ª
Ġ90 7
29 0
Ġpl acebo
Ġ33 00
ob a
Ġà¥¨à¥ª à¥©
à¤¸à¤¹ à¤µ
ĠSt ory
ĠSt one
Ġà¥¨à¥© à¥®
ational e
Ġà¤ªà¤ļ à¤¡
Ùħ Ø§ÙĨ
Ġedit not
37 8
Ġdes criptions
à° Ł
Ġpre process
aw ar
Ġstr ength
Ġtrans ition
Ġtrans mission
Ġme ets
Ġà¦ ī
It em
PA A
à¤¦à¤°à¤¤ à¤®
ci ous
67 8
Ġtw ice
get Value
Ġco e
à¯ Ĩ
Ġà¤īà¤¬ à¤²à¤¨
io let
Ġz oom
Ġred und
uk hi
Ġend s
ĠØ§ÙĦ Ø¬
Ġover view
Ġover flow
à¸ ±
CC I
Ġdet ail
Ġà¤°à¤¤à¤¨ à¤²
Ġgr and
ĠSp ir
Ġrefer red
Ġcor ner
Ġdisc rete
Ġà´ ħ
àª ¤
àª ¦
AR C
ific ial
Ġinv ite
IC EF
à¥§à¥¯à¥¨ à¥Ń
ĠDe ath
ĠMS C
Ġplace holder
Ġcopy ing
anc ouver
app a
ordin ates
Ġstat ic
Ġà¤ıà¤Ĩà¤Ī à¤ıà¤«à¤ıà¤«
Ġeff ort
Ġ119 4
Î¿ Î»
Ġhy brid
à¤ıà¤¨à¤ıà¤¸ à¤ľ
ĠIm p
ĠPC I
ĠAss embly
Ġtab index
Ġbi as
ĠBe ach
Ġresp ect
Ġsubject s
ĠAC T
ĠMus lim
Ġbre aking
Ġupload s
ĠTechn ical
ĠBl urb
áŀ ¶
ĠCar l
Ġcy cl
Ġremov es
à¾ ²
Ġeffect s
enn ium
ĠIT U
Ġcrit ic
Ġcomb ined
Ġsup ers
ĠSec ret
ĠRed mi
ĠSal v
ĠÄ Ĳ
Ġstud ies
Ġpag ename
Ind ian
Ġmaterial s
ĠHel per
Ġreport ed
uf fer
Ð¸Ñ ı
Îµ Î¹
ĠXI X
Ġprof it
Ġrecogn ition
ĠMad hya
Ġgen us
ĠTw itter
Ġrecord ed
ĠCB T
Ġunderstand ing
à¨¿ à©°
aug h
ĠCL R
Ġmechan ical
Ġfac ilit
ĠMot or
Ġecon omy
itz er
à¤²à¤µà¤² à¤ķà¤°
Ġbehav ior
ĠPhys ics
Ġadministr ators
Ġanch ors
ĠHot Cat
Ġadv ance
Ġattempt s
Ġsat isf
Ġà¤¨à¤ľà¤« à¤Ĺà¤¢
ĠChem ical
ĠHistor ical
Ġneut ral
Get Data
ĠPhilos ophy
Rel ated
ellu lar
Ġaster oid
Ġmention ed
Ġsom ew
ĠJP EG
ĠDise ase
ĠChampionship s
Ġbenef it
ĠPac ific
ĠLabor atory
â´ °
ĠFried rich
Ġworksh op
Mas dar
ĠMuh ammad
romagn etic
Ġlogar ithm
ĠASC II
ĠColumb ia
Ġà¤Ĺà¤¡à¤¬ à¤¡
à¾« à½¼
0 48
4 27
5 000
5 25
7 45
9 60
A mb
B P
H ence
I B
I E
M H
S erv
U SA
W M
c reate
d ig
f light
f irst
j h
m os
m ult
o et
o oth
r ated
t v
t le
t ree
w i
w er
w as
w eb
w orth
w elcome
y am
z en
å ħ
Ġ à¥ģ
Ģ à¸
ĭ ħ
à¥ Ķ
à¤° à¤ĺà¤°
à¤° à¤¥à¤°
Ġà¤ķ à¤ı
Ġà¤ķ à¤¬à¤°
Ġà¤ķ à¤Łà¤²
Ġà¤ķ à¤¸à¤¤
à¤¨ à¤ªà¤¨
à¤¤ à¤ĵ
à¤ķ à¤ªà¤¨
à¤¸ à¤¹à¤¦
à¤² à¤¯à¤ķ
Ġà¤¹ à¤ľà¤®
Ġà¤¹ à¤¨à¤Ł
Ġà¤¹ à¤°à¤¦à¤¤
à¤® à¤ľà¤²
à¤® à¤Ńà¤Ł
à¤® à¤ķà¤°à¤¨
à¤µ à¤ł
à¤µ à¤¯à¤¤
à¤¹ à¤·
à¤¹ à¤ªà¤¤
à¤¦ à¤¯à¤ķ
à¤¦ à¤µà¤¤
à¤¦ à¤®à¤¸
à¤ª à¤¦à¤°
à¤ª à¤¸à¤²
à¤ª à¤ħà¤ª
à¤Ĺ à¤°à¤¤
Ġà¤ħ à¤°à¤¹
Ġà¤µ à¤Łà¤µ
à¤ľ à¤²à¤°
à¤ľ à¤°à¤®à¤²
à¤¶ à¤ªà¤¥
Ġà¤° à¤¸à¤ķ
à¤· à¤°à¤ķ
à¤¡ à¤ı
à¤¬ à¤¬à¤²
à¤§ à¤®à¤ķ
à¤§ à¤°à¤ª
à¤¥ à¤µà¤°
à¤¥ à¤ªà¤°à¤ķ
à¤£ à¤µà¤µ
à¤ļ à¤Łà¤°
à¤ļ à¤¯à¤µ
Ġà¤ı à¤¤à¤°
Ġà¤ı à¤°à¤ª
Ġà¤ı à¤¯à¤°à¤¸
Ġà¤¤ à¤¸à¤¬
Ġà¤Ĩ à¤²à¤°
à¤Ń à¤Łà¤¨
Ġà¤¶ à¤ľ
Ġà¤ķà¤° à¤ľ
Ġà¤ķà¤° à¤¬à¤²
Ġà¤ªà¤° à¤®à¤¤à¤¤
Ġà¤ĩ à¤Ľ
Ġà¤ıà¤ķ à¤°à¤¸à¤¤
Ġà¤¥ à¤ªà¤ķ
à¤Ī à¤¨à¤²
à¤Ī à¤²à¤°
à¤Ī à¤ľà¤¹
à¤Ī à¤¡à¤¨
à¤ĩ à¤Ĩ
Ġ1 190
Ġà¤« à¤Łà¤¤
à¤ģ à¤ģ
à¤¤à¤° à¤ªà¤£à¤¨
à¤¿à¤Ĥ à¥į
à¤ķà¤° à¤¨à¤ª
à¤ī à¤ĸ
à¤ĵ à¤Ĩà¤°
à¤¯à¤ķ à¤¥
à¤ĩà¤¸ à¤ª
à¤ħ à¤ķà¤¸
à¤ħ à¤ľà¤µ
à¤ħ à¤²à¤ķà¤¨
à¤°à¤¸ à¤¹
Ġà¤§ à¤§à¤ķà¤¤
Ġà¤¨à¤¹ à¤²
à¤°à¤¦ à¤®
à¤¸à¤° à¤²à¤¤à¤®
Ġà¤ľà¤¨ à¤Ĺ
à¤¶à¤¨ à¤¸à¤°
Ġt rib
Ġt aking
in ical
à¤¬à¤° à¤¨à¤µ
à¤²à¤¤ à¤¤
à¤¯à¤® à¤µ
à¤ŀ à¤¯
à¤ŀ à¤µ
Ġà¤Ī à¤Łà¤¨
à¤ĺ à¤¶
à¤ļà¤¨ à¤¶
à¤®à¤¨ à¤Ĺà¤¢
à¤ĩà¤¨ à¤¬
at en
at um
à¤®à¤ķ à¤¶
Ġà¤ĵ à¤Ĩà¤Īà¤¸
or ax
Ġs ak
Ġs light
Ġs orry
Ġà¥¨ à¥§à¥§
he sh
Ġà¤Ĳ à¤¥
Ġà¤Ĳ à¤«
al c
al ent
Ġc e
Ġc ow
Ġ201 10
Ġà¤Ĩà¤¯ à¤¡
is is
à¤¤à¤® à¤¶
à¤¤à¤® à¤£
Ġà¤ªà¤¦ à¤§
Ġf ri
Ġà¤Ĭ à¤Ĺ
it iv
it ext
it ary
Ġp ush
Ġa id
Ġa aa
le v
Ġ4 35
Ġ4 46
Ġ5 45
Ġ5 34
Ġin duction
Ġin appropriate
ĠT u
ĠT ap
ĠT ay
ĠT ech
Ġd q
Ġd op
Ġd ated
Ġm H
Ġm l
Ġm ya
Ġm other
Ġm ouse
ĠM ul
ĠM ong
ĠM ari
ĠM OS
ĠM AN
re ach
re ens
ĠS G
ĠS ans
à¤ıà¤ķ à¤µ
à¤®à¤² à¤¸
à¤®à¤² à¤ĸ
Ġà¤¬à¤² à¤®
ĠC ro
ĠC RA
ĠC MT
à¤®à¤° à¤¥
à¤¬à¤² à¤Ī
Ġ7 90
as ar
as al
as et
à¤Ĭ à¤¬
ĠP b
ĠP in
ĠP ter
ĠP ack
ĠP IN
ĠA ur
ĠA WA
à¤ķà¤Ł à¤°à¤®à¤¨
Ġ9 87
ot ion
Ġà¤Ĩà¤Ī à¤ıà¤²à¤ıà¤¸
Ġan onymous
om orph
Ġà¤īà¤² à¤Łà¤«
de hy
et ies
Ġh op
Ġh Card
Ġ15 21
Ġ15 48
Ġ15 95
Ġ15 84
Ġ15 71
Ġsp ort
à¤°à¤§ à¤°à¤ª
Ġl anthan
un ar
Ġà¥© à¥§à¥¨
Ġà¥© à¥§à¥¦
à¤Ĩà¤Ī à¤Ī
Ġà¤¬à¤¸ à¤µà¤¨
ĠD er
ĠD ip
ĠD utch
à¤ķà¤ª à¤¦
à¤Ĳ à¤ļ
id ity
Ġà¤ıà¤¨ à¤ıà¤¡
ĠW N
ĠW S
ĠW RC
ro quial
ĠB H
ĠB arb
ĠB apt
Ġe Bay
Ġg ain
Ġà¤ıà¤® à¤Ĩà¤°
Ġ16 84
Ġ16 81
Ġ16 76
ĠN F
ĠN AM
ĠN ature
ĠN ME
ĠN AND
Ġ13 94
ac s
ac ent
Ġis bn
ĠL am
ĠL ot
Ġre ag
Ġre ver
Ġre form
Ġre actions
ĠH un
ĠH ad
ĠH onda
Ġ11 000
Ġ14 44
Ġ14 85
à¤ıà¤® à¤ıà¤ļ
ĠR an
ĠR ang
ĠR oss
à¤®à¤£ à¤°
Ġà¤¸à¤² à¤ľ
Ġar my
im er
im port
im inal
ĠF ield
ĠF HM
Ġy M
Ġy ield
à¤¶à¤¤ à¤¯
à¤ıà¤¨ à¤ıà¤«
Ġà¤ļà¤ķ à¤®à¤ķ
Ġà¤ķà¤¡ à¤«
Ġr ib
Ġst ra
Ġst rict
od ynamics
Ġv ary
ab i
st atus
if est
à¦ Ļ
ĠK in
17 1
17 3
17 70
15 18
Ġà¥§à¥« à¥¨
Ġà¥§à¥« à¥ªà¥«
Ġà¥§à¥« à¥Ńà¥¨
Ġas c
op her
op hor
à¤ıà¤ļ à¤µ
à¤ıà¤ļ à¤ıà¤²
à¤ıà¤ļ à¤Īà¤ıà¤²
og gle
Ġà¥§à¥Ń à¥«à¥¦
Ġà¥§à¥Ń à¥¬à¥§
Ġà¥§à¥Ń à¥¯à¥©
Ġà¥§à¥Ń à¥©à¥¬
Ġà¥§à¥Ń à¥¬à¥©
ĠJ S
ĠJ al
ĠJ ST
Ġà¥§à¥¬ à¥ªà¥¨
30 1
Ġâ ĭħ
ial og
Ġsh all
Ġà¥§à¥ª à¥¨
22 8
25 00
Ġà¤ľà¤¯ à¤Ĺà¤¢
Ġà¤ľà¤Ĺà¤¤ à¤Ĺ
24 1
24 8
ox ide
à¥¨à¥¦à¥ ¬
à¥¨à¥¦à¥ ®
Ġà¤ħà¤¯ à¤¥
40 7
Ġim ag
Ø§ ØŃ
27 5
ĠCh annel
à¤£à¤ª à¤¦à¤ķ
ok a
à¤īà¤ª à¤ªà¤¤
ph i
Ġà¤īà¤Ń à¤¡
Ġpl ayer
Ġj ob
Ġ36 1
Ġ36 2
ob ic
Ġà¥¨à¥ª à¥¯
Ġà¥¨à¥© à¥¯
ĠAn atomy
à¤ķà¤£ à¤ķà¤°
Ġ37 9
Ġà¥¨à¥¨ à¥Ń
Ġ34 6
Ġ34 9
Ġ75 00
Ġdes pite
Ġdes irable
ens ions
Ġdo i
Ġ48 3
99 1
ug e
Ġref s
ric tion
Ġà¥¨à¥Ń à¥¦
Ġpre ference
Ġ47 1
Ġdef ines
Ġany where
ĠTh er
à¥§à¥¯ à¥¦à¥©
ark up
rap hy
áĢ Ĳ
hy d
ĠCom par
à¥§à¥© à¥¦
ID E
Ġout d
ĠÐ º
ĠÐ Ķ
up al
Ġinf lu
ET F
à¦¾ à¦Ĥ
à¤į à¤°
à¤į à¤²
par am
à¤ĩà¤ªà¤° à¤¬
Ġz odiac
Ex p
ĠPro duct
Ġreg ional
Ġà¤ĸà¤Ł à¤®à¤²
Ġdet ected
Ġdisc our
Ġdisc over
Ġæ ĺ
Ġact ing
ĠÙħ ÙĦ
cept ions
Ġag ent
ym e
Ġsm art
Ġmat rix
Ġcommun ication
à¥§à¥¯à¥© à¥ª
Ġfind s
Ġconf usion
Ġà® µ
ĠPar roquial
Ġà¤ļà¤¹ à¤ļà¤¹
ES CO
ĠCol lect
Ġorder ed
ĠGr ammar
ract ive
Ġdocument ed
Ġfound ed
à© ±
ĠBC P
li ament
Ġcal c
Ð² Ð°
à¥§à¥¯à¥§à¥ ©
Ġdirect ed
ĠCent auri
Ġà° ¤
ĠXX V
Ġpost s
0000 00
Ġflag icon
Ġevery thing
Ġge ographic
Ġprot ect
Ġround ing
ij ay
ĠSi O
ĠAnt i
Ġher b
Ġcopyright ed
ĠPal ae
ĠAN D
ĠWeb M
ĠMac intosh
Other wise
Ġcontin ued
Ġ1400 1
Ġpoly mer
Ġwikit able
ÙĪØ± ÛĮ
Ġ__ _
á¹ ĩ
ĠShe sh
ĠDec lar
ĠOn ly
Ġemb argo
Ġcomput ers
Ġincre ased
Ġincre asing
ĠMin or
Ġàµ »
Ġelectron ic
we ight
Ġnomin ated
ĠStud y
Ġear lier
Ġcalcul ated
Ġclose ly
roph y
Ġclaim s
ĠLeg end
Ġmag azine
ĠRel ig
Ġparse Input
Ġalg or
ĠRuss ia
Col or
ĠBP O
Ġabs orption
Ġfa ith
ĠMes ozoic
Ġconn ected
ĠQue en
ĠUs age
Ġcod ed
ĠOri ya
á¸ ¥
á¸ į
ĠPress ure
ĠAfric an
Supp orts
ocr acy
Not ice
rot erozoic
Ġsitu ation
Ġcandid ates
ĠË Į
à¥ł à¤·
paramet er
à¸£ à¸
dra ulic
Ġinvest ig
fort un
à¤Ĩà¤ľà¤® à¤Ĺà¤¢
Ġbal ance
ĠæĿ İ
Ġfriend ly
ĠUnd er
ĠTib etan
chron ous
Hand ler
Ġâľ ī
Ġconvent ions
Ġnar row
Ġopin ion
ĠDSL R
jag ran
ĠHeb rew
Ġ978938 8050
ĠPier re
Ġadvant age
ĠPublish ing
Ġds RNA
Ġarbit r
ĠAfgh an
ĠGujar ati
ĠIndones ia
ĠPron unciation
Õ¡ Õ
ĠWY SIWYG
ĠsetR anks
0 57
3 28
4 000
4 25
5 65
5 67
8 30
9 39
9 88
B ase
F unction
G LE
G iven
K V
L ook
M odule
S m
S uch
V AC
b at
b ers
b old
c ount
c ision
d on
f ish
f ire
h pur
j p
k v
l av
o idea
p ass
r ik
r ene
s ource
s yn
x t
Ç İ
× ª
Ú ĳ
Þ ª
á ½
å ľ
Ġà¤ ¼
à¤¨ à¤ļà¤¨
à¤¨ à¤¬à¤²
à¤¤ à¤µà¤¸
à¤¤ à¤µà¤ª
à¤¯ à¤¥à¤²
à¤¸ à¤ľà¤¨
à¤¸ à¤¯à¤¨
à¤¸ à¤¬à¤¨
à¤¸ à¤Ļ
à¤¸ à¤ıà¤®à¤ıà¤²
à¤² à¤ĵ
Ġà¤¸ à¤²à¤¤
Ġà¤¹ à¤°à¤¤
à¤® à¤¤à¤¨
à¤® à¤§à¤°
à¤® à¤ªà¤²
à¤® à¤ĸà¤¦
à¤µ à¤¦à¤²
à¥Ī âĢį
à¤¹ à¤ĸ
à¥ģ à¤¾
à¤¦ à¤¢
à¤¦ à¤Ĺà¤¤
à¤¦ à¤²à¤ķ
à¤ª à¤²à¤¨
Ġà¤ľ à¤ł
Ġà¤ľ à¤¸à¤®
à¤Ĺ à¤µà¤¨
à¤Ĺ à¤¬à¤¨
Ġà¤ħ à¤ŀ
à¤ľ à¤°à¤ķà¤°
Ġà¤¬ à¤®à¤°
Ġà¤¬ à¤¦à¤°à¤ª
à¤¶ à¤¯à¤¨
à¤¶ à¤¹à¤¨
à¤¶ à¤µà¤ļ
Ġà¤¦ à¤¡
Ġà¤¦ à¤¹à¤°
à¤· à¤¯à¤¨
à¤¡ à¤°à¤¤
à¤¬ à¤Ľ
à¤¬ à¤²à¤ķ
à¤¬ à¤®à¤°
à¤¬ à¤¸à¤µ
à¤§ à¤¯à¤®
à¤§ à¤µà¤¶
à¤¥ à¤ªà¤°
à¤£ à¤«
à¤£ à¤¯à¤¸
Ġà¤Ĺ à¤¨à¤°
à¤ļ à¤ķà¤ª
Ġà¤ī à¤¯
Ġà¤ı à¤ľà¤°
Ġà¤Ń à¤ł
à¤¼ à¥ĥ
à¤Ń à¤²à¤¨
à¤ĸ à¤¨à¤ķ
à¤ĸ à¤¤à¤¨
Ġà¤ªà¤° à¤ļà¤®
Ġà¤ĩ à¤°à¤¨
Ġà¤ĩ à¤¬à¤¨
Ġà¤ĩ à¤¥à¤¨
Ġà¤¯ à¤µà¤¤à¤®
Ġà¤ıà¤ķ à¤§
Ġà¤ıà¤ķ à¤ļ
Ġà¤ıà¤ķ à¤²à¤ķ
à¤ĩ à¤²à¤¬
à¤ĩ à¤ıà¤®
à¤ĩ à¤°à¤«
Ġà¤ļ à¤²à¤ķ
à¤°à¤£ à¤°
Ġà¤ĸ à¤¬
à¤¿à¤Ĥ à¤Ĥ
à¤µà¤° à¤µà¤°
à¤¾à¤ģ à¤Ĥ
Ġà¤Ł à¤¹à¤²
à¤ī à¤®à¤¯
à¤ī à¤§à¤®
Ġà¤ħà¤§ à¤¯à¤¯à¤¨
Ġà¤¬à¤¨ à¤ķ
à¤ħ à¤¶à¤¨
à¤ħ à¤§à¤°
à¤ħ à¤«à¤²
à¤ħ à¤µà¤¯à¤µ
à¤°à¤¸ à¤Ĺ
à¤ªà¤° à¤Ĺà¤°
à¤¢ à¤¬
Ġà¤Ľ à¤²à¤ª
in er
in th
in ated
à¤¯à¤® à¤®
Ġà¤Ī à¤ıà¤¸
Ġà¤Ī à¤ıà¤¸à¤ı
à¤¸à¤¨ à¤¦
Ġà¤¬à¤¹ à¤¤à¤°
Ġ20 24
at form
à¤°à¤¯ à¤µ
Ġà¤ĵ à¤ªà¤¸
ĠâĢ Ĳ
or us
or row
Ġs on
Ġà¤ħà¤° à¤ª
Ġà¤ĳ à¤¯à¤¨
Ġà¤ĳ à¤īà¤Ł
Ġà¤ĳ à¤¯à¤²à¤°
ar o
à¤°à¤µ à¤¹
he nd
Ġà¤¸à¤° à¤¬
Ġà¤ĩà¤¨ à¤Ĺ
Ġà¤Ĩà¤¦ à¤°à¤¸
al ics
Ġc iv
Ġc yl
à¤¤à¤ķ à¤ª
en ne
es ian
Ġà¤ķà¤² à¤ľ
Ġà¤ķà¤² à¤Ľ
Ġà¤Ĩà¤¯ à¤¨à¤ķ
à¤Ŀ à¤µ
à¤ķà¤°à¤£ à¤ķ
à¤¦à¤¨ à¤Ĺà¤¢
Ġà¤ħà¤µ à¤ª
à¤īà¤¨ à¤°
Ġf ine
Ġb ill
Ġb ud
Ġb harat
it he
ed a
Ġp lu
Ġp el
Ġp ull
Ġa ud
Ġ4 24
Ġ4 29
Ġ4 45
Ġ5 24
Ġ5 39
Ġ5 99
Ġin ert
Ġà¤¸à¤°à¤ķ à¤°
ĠT re
ĠT ru
ĠT EL
ĠT TT
ĠT ropical
ic ol
à¤£à¤¨ à¤Ĺà¤°
Ġw p
Ġw ikip
Ġw orth
Ġd d
Ġd og
Ġm o
Ġm ph
Ġm unic
Ġm irror
ĠM ak
ĠM uk
ĠM BA
ĠM odel
Ġo scill
ĠS TS
Ġn oc
Ġn ice
Ġ6 29
Ġ6 45
Ġ6 44
Ġ6 34
à¥¨ à¥§à¥ª
à¥¨ à¥«à¥¦
Ġà¤¸à¤¤ à¤¸
ĠC ann
ĠC AP
ĠC IN
Ġà¤ĩà¤¤ à¤ľ
Ġ7 35
ĠP ages
ĠP ear
ĠA W
ĠA IC
Ġà¤¬à¤¦ à¤²à¤µ
Ġ9 15
Ġ9 14
Ġ9 44
Ġ9 68
ot ed
ot ional
ag og
Ġ8 90
Ġ8 49
Ġà¤Ĩà¤Ī à¤Īà¤Ł
Ġà¤Ĩà¤Ī à¤ıà¤¨à¤¸
us a
ĠI ron
de t
et her
Ġà¤Ĩà¤® à¤Ł
em an
Ġà¥« à¥§à¥¨
Ġà¤Ĩà¤ª à¤¤à¤¨
Ġh ist
Ġh ole
à¥© à¥¨à¥¦
Ġ15 14
Ġ15 99
Ġ15 46
Ġ15 67
Ġ15 87
Ġ15 77
Ġ15 52
Ġà¤²à¤¡ à¤¤
Ġsp ot
Ġsp here
Ġà¤°à¤ķ à¤¬
Ġà¤®à¤¸ à¤ĸ
Ġl ib
Ġl ens
Ġà¥© à¥¦à¥«
Ġà¥© à¥¦à¥Ń
Ġà¥© à¥¦à¥¬
à¤Ĩà¤Ī à¤«
Ġth a
ĠD V
Ġ17 37
id ents
Ġà¤ıà¤¨ à¤Ĩà¤°
Ġà¤ıà¤¨ à¤ıà¤¸à¤¡
ĠW ord
ĠW ho
ĠW TO
ro duction
Ġ12 10
Ġ12 25
Ġ12 40
ĠB our
ĠB ond
ĠB ru
ĠB ird
à¥§ à¥¦à¥©
Ġe ight
Ġg on
ĠG ib
Ġ16 29
Ġ16 79
ĠN umber
clu ded
Ġ13 98
Ġ13 68
Ġis ot
ĠL ittle
ĠL CD
ĠE k
ĠE ug
ĠE sp
Ġbe gan
ĠH ist
ĠH ai
qu is
Ġ14 86
à¥ħ à¤¾
ĠR eturn
à¤®à¤£ à¤Ĺ
el t
Ġà¤µà¤¨ à¤µà¤°
18 9
18 22
18 37
18 03
ĠF al
ĠF ind
ĠF act
Ġà¤Ĩà¤¬ à¤ķ
à¤ıà¤¨ à¤ıà¤ļà¤¸
à¤¨à¤¯ à¤¶
Ġà¤®à¤² à¤¦
Ġst e
Ġst om
Ġà¤ıà¤¡ à¤¬
Ġà¤ıà¤¡ à¤ıà¤ķ
à¤¨à¤¦ à¤¤
à¤¤à¤ª à¤Łà¤²
à¤¯à¤£ à¤ķ
if ul
Ġà¤ħà¤ľ à¤¯à¤ª
à¤ĩà¤µ à¤Ł
ĠO tt
à¤¦à¤¯ à¤Ĺ
av er
av irus
ĠV in
17 83
17 84
Ġà¤ıà¤ļ à¤ıà¤¸
Ġà¥§à¥« à¥«à¥¦
Ġà¥§à¥« à¥¬à¥®
Ġà¥§à¥« à¥¬à¥¨
and h
ak ti
Ġk J
Ġk u
Ġk umar
op oda
Ġ2016 030
Ġà¥§à¥Ń à¥ª
Ġà¥§à¥Ń à¥§à¥¦
Ġà¥§à¥Ń à¥¨à¥¯
Ġà¥§à¥Ń à¥¯à¥§
Ġà¥§à¥Ń à¥®à¥¨
Ġà¥§à¥Ń à¥«à¥¨
est ine
Ġà¥§à¥¨ à¥§à¥«
ain i
ort ed
ĠJ r
ĠJ im
ĠJ BL
ĠJ oint
Ġ40 9
à¤ĩà¤¬ à¤°à¤¸
Ġà¥§à¥¬ à¥©à¥¦
Ġà¥§à¥¬ à¥¦à¥«
Ġà¥§à¥¬ à¥¯à¥¯
Ġfr anÃ§a
Ġcom es
22 2
Ġà¤ĭà¤£ à¤ªà¤¤
Ġun iform
Ġ70 5
Ġ00 0000
Ġà¤ľà¤¯ à¤ĺ
art a
ard a
ee v
23 2
23 3
23 9
57 9
26 8
Ġle aving
Ġdis sol
28 6
Ġà¥¨à¥« à¥§
ĠIn st
ĠIn str
ary ana
à¥§à¥® à¥¬à¥¯
ĠCh ange
ah an
Ġà¤Ńà¤°à¤¤ à¤µ
Ġpl anned
Ġà¥¨à¥© à¥¨
Ġà¥¨à¥© à¥¬
ĠAn y
ĠAn cient
Ġ37 4
à¤ĭ à¤ķ
37 6
36 7
35 5
Ġ150 3
Ġ150 8
Ġ48 6
Ġsub set
Ġsub sequ
99 8
ai ya
ĠUS DA
erm a
à´ £
ond ro
à² £
ÙĪ ÛĮ
ĠTh at
Ġcomm ittee
Ġà¤Ĩà¤¯à¤¨ à¤®
áĢ ¹
sh a
à¤Ĺà¤µà¤¤ à¤ª
ĠÃ ©
ĠÃ ł
ism s
Ġ85 5
Ġ85 00
sp ec
Ġper fect
à¤ħà¤µ à¤ķà¤²
Ġcomp are
Ġco ast
Ġco ok
ĠWW WF
àµ Ĩ
Ġneed le
Ġind oor
Ġinst ances
Ġà¤īà¤¬ à¤Łà¤¨
à¤Ĩà¤īà¤Ł à¤ª
Ġac et
à½ ĺ
à¤ĩà¤ªà¤° à¤«
ĠTr ainer
OS PF
Ġph rase
ull a
vi ews
Ġmw IQ
eng er
Ġcons ultation
Ġalign ment
cess ive
Ġcor ne
Ġà´ ª
Ġà´ ²
Ġdist ill
à± Ģ
à± ĩ
Ġinv ited
ĠDVD s
amb a
Ġoff ers
Ġà½ ĳ
Ar ticle
Ġà¤¬à¤¦à¤¨ à¤¸
ĠMar athi
ĠIg M
CA P
ĠCl imate
esh war
CO N
à¬ ¤
à¥§à¥¯à¥¨ à¥©
Ġob j
Ġexp iry
Ġser if
Ġà¤īà¤¥à¤² à¤ª
Ġà® ¨
Ġà¨ ľ
Ġà¤¤à¤¦à¤¨ à¤¨
anc ing
hes es
app y
à¤®à¤¦à¤¨ à¤²
ĠSc ott
Ġredirect ed
Ġeff icient
Un used
ĠFor est
ĠXX Y
à¤°à¤ĸà¤° à¤ĸ
war f
ĠAM D
ĠDr ug
Pro duces
ĠUN ICEF
Ġge o
ides mus
Ġprot ocol
ĠGu ide
Ġtem por
esc ence
ili ar
Ġremov ing
à¾ Ĵ
Ġsimilar ly
enn is
Ġcrit erion
Sc ore
ĠAB B
Ġcond ensed
Ġmed al
Ġshe et
List ing
à¤ľà¤¯à¤¦ à¤¶à¤®
ĠArch ae
ĠCN BC
Ġrest ored
Ġconver ter
Ġfin ish
ĠWork er
ched uled
Ġqual ifier
ĠOper ation
ĠØ£ Ø¨ÙĪ
ĠSil ver
ĠHal low
ien ced
Ġecon omics
ĠStat istics
Ġha em
Ġabbrevi ated
ĠSU V
ĠPsych ology
ĠCPA s
Ġtherm al
ĠWil helm
Ġrot ation
Mult iple
ĠBeng al
Ġmathemat ics
Ġcod ing
Ġhol der
ĠEv olution
ĠOri ental
ĠPri ze
ĠAR PA
Ġillust rate
ĠNor thern
UM TS
Ġak sh
ĠØ§ÙĦØ £
ĠË ļ
Ġcatalog ue
DB MS
ĠESP N
ĠNSAID s
ĠSqu are
Tw o
Ġautom ated
Ġcombin ations
Ġrecip roc
Ġexperim ents
ĠNep al
ĠBAS IC
Ġorient ed
allen ge
Ġansw er
Ġhab it
itiz ens
Ġow ner
ĠSov iet
ĠAngel es
Ġdivers ity
Ġassemb le
Ġpronounci ation
ĠShim adzu
Ġslight ly
dehy de
fortun ately
0 65
4 18
5 40
6 30
6 70
8 60
8 43
B O
C s
D iff
G lobal
H ar
I O
J SP
L ev
M o
M ake
N P
N ational
P ost
R F
R ead
R ationale
S ing
W L
b gcolor
c m
c ategory
e or
f are
g b
h ow
h ouse
i ary
k ha
n x
r ig
r ence
s b
s im
t hen
u er
u lo
y ah
y gen
¸ ı
Â §
Ã ¥
Ã ½
Ñ ĩ
× ¤
æ ²
í ķ
Ļ ı
à¥ĩ :
Ġà¤ķ à¤¦à¤²
à¤¤ à¤¶à¤ķ
à¤¤ à¤²à¤¸
à¤¤ à¤Łà¤µà¤°
à¤ķ à¤¶à¤ķ
à¤¸ à¤ıà¤²
Ġà¤¸ à¤£
Ġà¤¸ à¤Łà¤¨
Ġà¤¸ à¤°à¤®à¤¨
Ġà¤¹ à¤¯à¤Ĺ
à¤® à¤°à¤¦
Ġà¤® à¤¸à¤°
à¤¹ à¤¨à¤°
à¤¦ à¤Ĺà¤°
à¤¦ à¤²à¤®
à¤ª à¤µà¤ķ
à¤ª à¤Łà¤µ
à¤ª à¤Ĺà¤¡
à¤Ĺ à¤¤à¤°
à¤Ĺ à¤ªà¤¦
Ġà¤µ à¤ªà¤¨
Ġà¤µ à¤¯à¤ķ
Ġà¤µ à¤¨à¤ķ
Ġà¤µ à¤¡à¤¨à¤Ĺà¤°
à¤Ł à¤ħà¤¨
à¤Ł à¤£à¤®
à¤ľ à¤Ļ
Ġà¤¬ à¤°à¤¸à¤¨
à¤¡ à¤¸à¤®
à¤¡ à¤¡à¤°
à¤£ à¤ķà¤°à¤£
à¤£ à¤¸à¤²
à¤£ à¤Ńà¤¦
Ġà¤Ķ à¤Ĺ
Ġà¤Ķ à¤¡à¤µ
à¤ļ à¤Ĺà¤¨
Ġà¤Ķà¤° à¤¸
Ġà¤ı à¤ĵ
Ġà¤ı à¤ļà¤¯
Ġà¤¤ à¤°à¤¤
Ġà¤¤ à¤¶à¤°
Ġà¤¤ à¤°à¤¸à¤¤
à¤ı à¤®à¤°
à¤ı à¤ħà¤°
Ġà¤Ĩ à¤¥à¤°
à¤Ń à¤¹
à¤Ń à¤Ń
Ġà¤¶ à¤¸à¤ķ
à¤ĸ à¤ľà¤°
à¤ĸ à¤¤à¤°à¤¨
Ġà¤¯ à¤ľà¤¨
Ġà¤ıà¤ķ à¤¯
à¤Ī à¤ĺ
à¤Ī à¤¥à¤°
à¤Ī à¤¸à¤²à¤°
à¤ĩ à¤¯à¤¨
Ġà¤« à¤²à¤µ
à¤°à¤£ à¤¦
à¤°à¤ķ à¤¯
Ġà¤īà¤¨ à¤¨
à¤Ĩ à¤®à¤²
à¤Ĩ à¤ĩà¤°
à¤Ĩ à¤¡à¤²à¤ķ
Ġà¤Ł à¤µ
à¤ī à¤Ĩ
à¤ī à¤ľà¤¬
Ġà¤¡ à¤ļà¤®
à¤°à¤® à¤°à¤Ĺ
à¤ħ à¤ķà¤°
à¤ħ à¤¹à¤°
Ġà¤§ à¤°à¤ķà¤°
à¤ªà¤° à¤¡
à¤¨à¤ķ à¤¥
à¤¢ à¤µ
Ġà¤Ľ à¤®à¤¤
Ġt ap
Ġt anks
in it
in ia
Ġà¤ħà¤² à¤µà¤£
on om
à¤ĺ à¤µà¤¦
Ġà¤ķà¤® à¤£
er ge
à¤®à¤¨ à¤¶
at al
à¤¦à¤° à¤¬à¤¨
Ġà¤ĵ à¤£
Ġà¤ĵ à¤ł
Ġà¤ĵ à¤°à¤µ
Ġà¤ĵ à¤¨à¤¯
Ġà¤ĵ à¤£à¤®
Ġs ans
Ġs ock
Ġs itelink
Ġà¤ħà¤° à¤Ĺ
Ġà¥¨ à¥¯à¥§à¥
ar ant
he el
Ġà¤ĩà¤¨ à¤µà¤°
al ore
al ee
Ġc f
Ġc am
Ġc ss
Ġc ouncil
à¤Ŀ à¤Ĺà¤¡
à¤¤à¤® à¤®
Ġà¤ħà¤ķ à¤µ
Ġf uel
Ġb g
it Ã©
ed e
ed o
Ġp harm
Ġp iece
à¤§à¤¨ à¤¸
Ġà¤¹à¤® à¤ªà¤°
à¤¨à¤¤ à¤¶
Ġ4 37
Ġin de
ĠT A
ĠT ang
ĠT ai
à¤°à¤¨ à¤¬
à¤Łà¤ķ à¤¶
Ġm it
Ġm ent
ĠM ini
ĠM oon
ĠM ozilla
Ġà¤¬à¤ļ à¤ķ
ĠS ag
ĠS cript
Ġà¤Ŀ à¤ªà¤ķà¤¤
Ġn erve
Ġ6 12
Ġ6 38
Ġ6 67
am and
à¤®à¤² à¤ľ
ĠC ot
ĠC opy
ĠC lub
à¤ķà¤¤ à¤²
Ġà¤¸à¤¨ à¤Ī
à¤ıà¤¸ à¤ıà¤¨
ĠP il
ĠP DA
ĠA U
ĠA ri
Ġà¤¬à¤° à¤¡
Ġ9 66
Ġ8 25
Ġ8 26
Ġ8 48
Ġ8 39
Ġ8 65
Ġ8 95
Ġ8 87
Ġà¤¨à¤Ĺà¤° à¤µà¤§
à¤¯à¤² à¤ª
Ġan atomy
us ter
ĠI ng
om al
Ġ10 20
Ġ10 30
Ġà¤ıà¤¸ à¤ĵ
Ġà¤ıà¤¸ à¤ıà¤²à¤¸
Ġà¤ıà¤² à¤ĵà¤¸
Ġà¤ıà¤² à¤ıà¤²à¤ª
Ġh und
Ġh ota
Ġh unger
à¤¯à¤¸ à¤ª
Ġsp her
ur ana
Ġl ik
Ġl abor
Ġà¤®à¤¤ à¤¸
un ched
Ġà¥© à¥¨à¥©
ĠD y
ĠD as
ĠD ele
ĠU t
ĠU FO
Ġà¤ľà¤Ĺ à¤¦à¤Ĺ
à¤®à¤¦ à¤°à¤¸
Ġfor get
il us
il st
id ance
id ential
Ġà¤ıà¤¨ à¤ıà¤¸à¤¸
ĠW ikip
ro vers
ro logy
Ġ12 20
Ġ12 60
ĠB Y
ĠB ud
ĠB ody
ĠB ros
Ġg p
Ġg ast
ĠG L
ĠG es
ĠG MA
ĠG TA
Ġà¤ıà¤® à¤¹à¤°
Ġà¤ıà¤® à¤ıà¤²à¤ı
Ġ16 21
Ġ16 34
Ġ16 56
Ġ16 62
ap hy
ol ation
ol ite
ĠN an
ĠN ow
ĠN ay
ĠN uclear
Ġà¤Ĭà¤ªà¤° à¤µ
Ġ13 47
à¤¤à¤¤ à¤¤
à¤ļà¤ķ à¤®
ĠL ac
ĠL ower
ĠL GBT
Ġre in
Ġre ached
ĠE Y
ĠE t
Ġà¤Ĩà¤² à¤ª
ĠH aj
ĠH ero
Ġ14 60
Ġ14 94
os ed
à¤Ķ à¤ļ
à¤īà¤¦ à¤¯à¤¸
ow ers
Ġà¥ª à¥§à¥«
à¤ªà¤¦ à¤¸
18 36
18 33
18 49
18 02
18 52
ĠF all
ĠF oreign
Ġà¥§à¥® à¥§
Ġr am
Ġà¤ıà¤¡ à¤¸
ab ric
ir ation
Ġal b
Ġal k
Ġà¤īà¤ªà¤¸ à¤¹à¤¸
Ġà¤¹à¤² à¤«à¤¨
ĠK arn
Ġse ats
à¤ıà¤« à¤ıà¤®
ĠÂ ¸
ĠO v
av an
ĠV IA
ĠV GA
17 65
ak am
Ġk er
op us
Ġà¥§à¥Ń à¥¯
Ġà¥§à¥Ń à¥©à¥§
Ġà¥§à¥Ń à¥®à¥¬
Ġà¥§à¥Ń à¥ªà¥©
Ġà¥§à¥Ń à¥«à¥®
50 8
Ġex ecut
Ġà¥§à¥¨ à¥«à¥¦
Ġnot ices
Ġnot iced
à¤²à¤ª à¤¹
Ġsu ffer
Ġà¥§à¥¬ à¥¬à¥«
Ġfr actions
Ġà¥§à¥¦ à¥¦à¥®
à¤§à¤µ à¤ļà¤¨
ind a
Ġà¤Ĩà¤¹ à¤µ
ip ar
22 3
ine a
Ġà¤®à¤Ĺ à¤¹à¤°
à¤Ļ à¤²
art e
Ġch at
iz a
23 4
23 5
all er
Ġle x
28 5
Ġim pos
à¥§à¥® à¥¦à¥§
à¥§à¥® à¥Ńà¥©
ub a
Ġ45 1
Ġ45 2
47 3
Ġab ility
Ġab use
ah l
à¤īà¤ª à¤¸à¤°
à¤īà¤ª à¤ķà¤²
ph an
Ġà¤¡à¤¬à¤² à¤°
Ġj e
ob le
Ġà¥¨à¥ª à¥«
Ġà¥¨à¥ª à¥ª
ĠSt re
ĠSt ock
ĠÎ ł
act ic
37 0
45 9
35 8
ath on
à° ľ
Ġà¥¨à¥¬ à¥¬
à¤³ à¤ķà¤°
Ġ150 2
Ġ150 7
ai ro
à¤ªà¤µ à¤¯à¤¸
ateg ic
70 2
erm ann
ari um
Ġà¥¨à¥Ń à¥¨
ÛĮ ÙĦ
Ġ47 5
Ġtrans port
Ġ39 6
Ġà¤ĸà¤² à¤²
Ġ46 8
ĠAl ta
ark s
rap per
sh ah
49 7
eg et
Ġ58 9
à¤Ĺà¤µà¤¤ à¤®
sp eedy
ĠPr ince
67 2
ru k
Ġcomp act
AS S
iss ance
Ġco il
Ġà¤Łà¤ķ à¤Łà¤ķ
à¤µà¤ļà¤¨ à¤¸
Ð° Ð¹
Ġz yg
Ġå ¯
Ġå Ĳ
Ġph osph
Ġph ilos
ĠWik tionary
Ġà¤ıà¤µà¤° à¤²
Ex ternal
Ġend ed
à¸ ¸
à¸ Ļ
à¤Ĺà¤¹ à¤®à¤°
Ð¸ ÑĢ
Ø¨ Ø§Ø¯
ues e
ĠCD S
ribut e
ĠOr ion
Ġà½ £
Dec orate
ĠIg G
Ġext reme
Ġrepl aces
ele ment
ÑĢ Ðµ
à¤ıà¤¯à¤° à¤ª
Ġcap t
ene ur
à¬ ķ
Ġà¤¸à¤°à¤¹ à¤ª
Ġele v
ily o
à¤²à¤¹à¤° à¤¬
à¤Ĩà¤ĩ à¤ıà¤¸
Ġap art
ĠSy nt
plic ations
ĠÚ© Ø±
Ġ× ĳ
ĠAb out
ĠRes p
Ġstat ements
Ġconst ants
Ġdel ay
Ġsepar ation
Ġwrit er
ĠEd ge
las tic
Ġà¤¿ à¥Ī
Ġpoem s
Ġà¥ł à¤Ĺ
ĠØ³ ÙĨ
Ġbi ography
FD L
Ġresp ond
Ġsur gery
Re quest
Ġindic ates
Ġprefix es
ivid ual
Sh ock
Ġcar ac
Ġcar ry
ĠJohn son
ĠAp plied
ĠFe atured
Ġnecess arily
à¤¯à¤µà¤¨ à¤ª
ĠMon th
ĠPre m
GP RS
à¤ıà¤ıà¤« à¤ıà¤«
Ġsort key
Ñĥ ÑĢ
Ñĥ Ð±
Pr aseodymium
hal f
inn ers
illi ard
Ġà¤¸à¤°à¤µ à¤Ł
och tit
à¤Ĩà¤Īà¤Ĩà¤° à¤ıà¤¨à¤ıà¤¸à¤ıà¤¸
Ġstud ent
Ġanal og
Ġder ived
Ġnear est
Ġload ing
atab ases
With out
Ġreport s
Ġtri ple
ĠAL T
ison ing
Ġexpress ions
Wik ilink
Ġpe er
ĠSa avn
FI LE
Ġnomin ation
ĠStud io
ĠPe ace
Ġtaxon omic
Ñĭ Ð¹
ĠÛģ ÙĪ
Ġsin us
Ġdial ect
agon al
Ġencyclop edic
ĠWilli ams
Ġcour t
ĠLeg al
ĠEr n
Ġimplement ation
sm ilyo
ĠIM Db
Ġach ieved
Ġhydro gen
ĠMand ir
ĠTR X
ĠWikipedi ans
ĠPhys ical
ĠNI H
Ġhistor ic
ĠWikim ania
ĠSudan ese
Ġrelative ly
uls ion
iab ility
ÐµÐ² Ð¸Ñĩ
ĠND TV
ĠElectron ic
Ġmarath ons
Ġhapp ens
ĠØ§ÙĦØ ¥
Ġexpon ent
Ġgal axy
Cal endar
Ġsuppress ed
Ġdimens ions
ĠConfig uration
Ġà¤¦à¤²à¤¬ à¤¦à¤²
ĠEar ly
Ġà¤ĸà¤Łà¤ķ à¤¤
Ġthous and
ĠCamb ridge
ĠEmp ire
grou p
Ġintrodu ced
ĠMicha el
Az tecs
Ġproport ional
Ġderiv ative
itud inal
tel ius
ĠâĢı âĢİ
Ġvow el
ĠæĹ¥ æľ¬
ankaj smilyo
ĠIo T
Ġsys op
Ġoverr idden
wind ow
Ġnr hp
ureauc rat
ĠLew is
ĠIsra el
Ġà¤ľà¤¯à¤ľ à¤¯à¤ķ
ĠRequest s
Ġstra ight
ĠDeclar ation
ochtit lan
0 26
4 15
6 19
6 25
6 42
8 75
9 48
A ir
B i
C re
C ell
D V
F CC
G o
G en
G ET
K rish
L ic
L ine
M ed
N ews
N ormally
N TSC
P L
P s
P art
S u
S er
S emi
T e
T est
T ech
V S
V s
V ista
W G
d b
d n
d iff
d ropdown
f irmed
g ers
j j
k j
k ing
l at
l ad
l ong
m ol
m ay
m itt
n an
n il
n ov
o es
p y
p are
r if
t ons
v et
y ro
y outube
± ÙĦ
Ä ĩ
Ä Ł
Ï ĩ
Ñ į
Ò Ľ
× ĸ
æ ĸ
ç Ķ
ì Ħ
Ġ Ñģ
à¤° à¤Īà¤ķ
Ġà¤ķ à¤§
Ġà¤ķ à¤ľà¤²
à¤Ĥ à¥Ģ
à¤¨ à¤Ĺà¤®
à¤¨ à¤¬à¤¤
à¤ķ à¤·à¤£
à¤ķ à¤¶à¤¤
à¤¯ à¤¸à¤ķ
à¤¯ à¤¯à¤®
à¤¸ à¤ı
à¤² à¤®à¤ķ
à¤² à¤Ļ
à¤® à¤Łà¤°
à¤® à¤ŀ
à¤® à¤®à¤²
à¤® à¤ľà¤¸
Ġà¤® à¤°à¤®à¤°
à¤µ à¤²à¤¤
Ġà¤ª à¤Ī
Ġà¤ª à¤¦à¤°
à¥Ī à¥į
à¥Ī à¥ĩ
à¤¹ à¤Ĺà¤¡
à¤¦ à¤¤à¤°
à¤¦ à¤ªà¤¤
à¤¦ à¤¬à¤¦
Ġà¤ľ à¤ļ
Ġà¤ľ à¤²à¤¬
à¤Ĺ à¤°à¤¦
Ġà¤ħ à¤¢
Ġà¤µ à¤¦à¤¨
Ġà¤µ à¤ķà¤¤
à¤Ł à¤¬à¤¨
à¤Ł à¤§à¤°
à¤ľ à¤°à¤®
à¤ľ à¤ĺà¤¨
Ġà¤¨ à¤¨à¤¦
Ġà¤¬ à¤Ńà¤¨
Ġà¤¦ à¤·
Ġà¤¦ à¤¶à¤µ
Ġà¤° à¤®à¤¤
à¤¡ à¤µà¤²
à¤¡ à¤ıà¤ķ
à¤¬ à¤¨à¤ķ
Ġà¤² à¤ł
Ġà¤² à¤²à¤ļ
à¤£ à¤ľà¤¨
à¤£ à¤ªà¤°
à¤£ à¤Ĺà¤¢
Ġà¤Ĺ à¤Łà¤°
Ġà¤Ĺ à¤¹à¤¡
à¤ļ à¤®à¤¹à¤²
Ġà¤ı à¤Łà¤°
Ġà¤ı à¤¥à¤°
Ġà¤Ń à¤°à¤ķ
Ġà¤Ń à¤¦à¤°
Ġà¤¤ à¤ļ
Ġà¤¤ à¤ĸà¤¤
à¤Ń à¤µà¤ª
Ġà¤¶ à¤µà¤¸
à¤ĸ à¤°à¤ķ
à¤ĸ à¤°à¤ªà¤¤
Ġà¤ªà¤° à¤®à¤¤
Ġà¤ıà¤ķ à¤°à¤¸
Ġà¤¥ à¤ķà¤¤
à¤Ī à¤Łà¤®
à¤ĩ à¤°à¤¤
à¤°à¤¤ à¤¸
à¤°à¤¤ à¤ķà¤¥
à¤« à¤°à¤¸
à¤« à¤¸à¤¨
Ġà¤¸à¤® à¤°à¤ª
à¤°à¤£ à¤ķà¤²
Ġà¤ĸ à¤¶
à¤ķà¤° à¤Ń
Ġà¤Ł à¤ķà¤²
à¤ł à¤¹
Ġà¤¬à¤¨ à¤¬
à¤ĩà¤¸ à¤ľ
à¤ħ à¤°à¤¨
à¤ħ à¤µà¤Ł
Ġà¤®à¤¹ à¤µ
Ġà¤īà¤ª à¤¡
Ġà¤īà¤ª à¤ķà¤°
Ġà¤ľà¤¨ à¤ķà¤µ
Ġà¤¤à¤ķ à¤¬
Ġt on
Ġt ong
Ġt ank
Ġà¤²à¤Ĺ à¤Ń
Ġà¤²à¤Ĺ à¤¬à¤Ĺ
in ism
in ator
à¤¸à¤® à¤Ń
à¤¯à¤® à¤¹
à¤¯à¤® à¤ĸ
Ġà¤Ī à¤µà¤¨
Ġà¤Ī à¤Ĩà¤°
Ġà¤Ī à¤ıà¤¨
à¤¯à¤¤ à¤²
er ce
à¤®à¤¨ à¤¤
at ile
à¤¦à¤° à¤°
or o
or ic
or iginal
Ġs ul
Ġs ah
Ġs ession
Ġà¤¸à¤¹ à¤ľà¤¯
Ġà¥¨ à¥¯à¥¯à¥
à¤°à¤µ à¤¡
he ng
al p
al ian
Ġà¤¬à¤¡ à¤µ
à¤µà¤² à¤µ
à¤µà¤² à¤Ĺ
à¤µà¤² à¤ķà¤°
à¤Ĺà¤² à¤Łà¤¨
Ġà¤ħà¤ķ à¤¤
Ġf ashion
Ġb ol
Ġà¤Ĭ à¤¸
it les
Ġp ra
Ġp ick
Ġa u
le m
Ġ4 12
Ġ4 22
Ġ5 29
ĠT S
ĠT on
ĠT AR
ĠT urb
ĠT axon
à¤Ńà¤Ĺ à¤µà¤¨
Ġà¤¶à¤¹à¤° à¤µ
Ġà¤®à¤¹à¤¤ à¤µà¤ª
Ġd atabases
Ġm V
Ġm uc
Ġm ixed
Ġm RNA
Ġm ailing
ĠM k
ĠM umbai
à¤¬à¤¨ à¤Ĺ
ĠS che
ĠS CC
ĠS ams
ĠS atellite
à¤¨à¤¸ à¤²
à¤ıà¤ķ à¤¸
Ġà¤ľà¤² à¤¶à¤ķ
Ġà¤Ŀ à¤¨
Ġn ov
Ġn Co
Ġn Ã©e
Ġ6 18
à¤¨à¤µ à¤°à¤¤
Ġà¤¬à¤² à¤ĸ
Ġà¤¬à¤² à¤µà¤°
Ġà¤¬à¤² à¤ĺ
Ġà¤ħà¤¬ à¤ķ
ĠC are
ĠC ape
ĠC roc
ĠC ACP
à¤®à¤° à¤ľ
Ġà¤¸à¤¨ à¤¥
Ġ7 10
Ġ7 30
Ġ7 57
Ġ7 68
à¤Ĭ à¤¨à¤²
à¤ıà¤¸ à¤Īà¤¸
à¤ıà¤¸ à¤ıà¤®à¤ıà¤¸
ĠP erm
ĠP AT
ĠP BS
ĠA w
Ġà¤¸à¤« à¤µ
Ġ9 12
Ġ9 48
à¤°à¤ļ à¤ķà¤°
ag s
Ġ8 89
Ġ8 86
Ġà¤Ĩà¤Ī à¤ıà¤Ł
ĠI E
ĠI ran
ĠI GN
à¤¹à¤¨ à¤¤à¤ķà¤¶
de g
Ġ10 14
et i
em p
em y
em ption
à¤·à¤¯ à¤ľ
Ġh ot
Ġh ospital
à¤¸à¤¤ à¤¯
Ġ15 93
Ġ15 78
à¤¹à¤°à¤£ à¤¤à¤¯
Ġsp in
Ġà¤°à¤ķ à¤ħà¤¤
à¤Ĺà¤® à¤¹à¤²
Ġl k
Ġl es
Ġl azily
Ġà¥© à¥§à¥®
Ġà¥© à¥§à¥«
Ġà¥© à¥§à¥¯
Ġà¥© à¥§à¥©
Ġà¥© à¥¨à¥§
Ġà¥© à¥¦à¥®
à¤µà¤°à¤£ à¤ķ
lu or
Ġth anks
ĠD L
ĠD T
ĠD iff
ĠU GC
Ġà¤ľà¤Ĺ à¤ª
il luk
ĠW H
ĠB S
ĠB ase
ĠB PM
Ġg un
Ġg od
Ġg ene
ĠG ot
ĠG op
ĠG az
ĠG arden
Ġà¤ıà¤® à¤ĵ
Ġà¤ıà¤® à¤ıà¤®à¤ı
Ġ16 86
Ġ16 73
Ġà¤ªà¤°à¤® à¤¬
ate l
ĠN B
ĠN as
ĠN MOS
à¤ķà¤¡ à¤«
Ġ13 16
Ġ13 36
Ġ13 75
Ġ13 43
Ġ13 92
Ġà¤ĸà¤° à¤¡
ac et
ac ia
ĠL or
ĠL av
ĠE ra
ĠE ADS
Ġà¤ĭ à¤¦
ĠH or
ĠH is
ĠH amm
ĠH orse
Ġ11 89
à¤ªà¤£ à¤ľ
qu er
Ġ14 40
Ġ14 84
à¤Ķ à¤ľ
à¤ıà¤® à¤ıà¤«
ĠR ic
à¤ªà¤² à¤ª
Ġar ms
ch ing
18 4
18 7
18 13
18 41
à¤¡à¤® à¤¦à¤°
ad y
ĠF air
à¤ıà¤¨ à¤ıà¤¸à¤¸
ay e
Ġr cats
Ġst able
Ġst aff
Ġst uff
od en
Ġà¥¬ à¥©à¥¦
Ġà¤ļà¤°à¤£ à¤¦
Ġà¤¹à¤² à¤§à¤°
end ant
ith ms
ĠK it
ĠK os
ĠK ak
à¤ıà¤« à¤ľ
ĠÂ ¥
ĠO ur
ĠO cc
Ġ100 3
ri ya
17 57
17 60
17 90
17 64
à¤ªà¤¶ à¤¹à¤°
Ġà¥§à¥« à¥®
Ġà¥§à¥« à¥Ń
Ġà¥§à¥« à¥¦à¥«
Ġk in
Ġk il
ight s
16 60
og ram
à¤ĩà¤ª à¤ľ
Ġà¥§à¥Ń à¥Ńà¥©
Ġà¥§à¥¨ à¥¦à¥¦à¥¦
Ġà¤ªà¤² à¤Łà¤µ
ort ion
ĠJ ab
Ġà¥§à¥¬ à¥¨à¥¦
Ġà¥§à¥¬ à¥¦à¥¬
Ġà¥§à¥¬ à¥Ńà¥«
Ġà¥§à¥¬ à¥Ńà¥¦
Ġà¥§à¥¬ à¥ªà¥ª
eb y
pt a
Ġâ ±
Ġsh aft
ity a
Ġà¥§à¥ª à¥Ń
22 9
ra it
Ġbr on
Ġà¤ļà¤Ł à¤ĸ
Ġcan al
Ġun used
ĠLoc ation
Ġad vert
Ġch osen
à¥¨à¥¦à¥ ª
à¥¨à¥¦à¥ Ń
Ġquot ed
all a
57 3
Ġle p
Ġdis p
Ġà¤¹à¤¨ à¤¬à¤²
à¥§à¥® à¥¦à¥¦
à¥§à¥® à¥§à¥®
à¥§à¥® à¥©à¥¦
à¥§à¥® à¥Ńà¥¦
à¥§à¥® à¥ªà¥®
ĠCh am
Ġi OS
pr esent
ph ant
Ġ90 2
Ġj ump
80 6
80 7
ob ook
à¤¸à¤¹ à¤®à¤¤
ĠSt e
Ġà¥¨à¥© à¥©
Ġà¥¨à¥© à¥ª
ĠAn im
Ġ38 3
37 1
37 5
36 4
ens ation
Ġà¥¨à¥¬ à¥«
ous es
Ġ55 2
Ġsub div
Ġà¤į à¤ļ
ll i
ll ll
ors hip
erm at
ari us
à´ ¶
Ġpre par
Ġà¤¥à¤° à¤¥à¤°
Ġstr ike
Ġ39 2
Ġ39 8
ĠTh ree
Ġ46 1
ition ally
75 8
Ġapp oint
oth ers
à¥§à¥¯ à¥¦à¥¨
ĠAl bert
Ġ59 7
Ġqu e
Ġqu arter
à¨ ¼
à¨ Ĺ
à¨ ĺ
ĠCom plex
Ġà¤¦à¤¹ à¤ķà¤¤
ĠÐ ²
ci um
à¤ħà¤Ĺ à¤°à¤¤à¤²
AT ION
àµ ĥ
ÙĬ ÙĦ
Ð° Ñģ
55 5
par se
Ġå Ń
Ġgener ator
Ġ86 1
ha z
Ġend ors
amm a
ribut ions
uc le
Ġcount ing
omet ers
Ġdist ricts
Ð¾ Ñģ
à± ĭ
ĠÙħ ÙĨ
ĠÙħ ÙĪ
ĠÙħ Ø¹
Ġmer c
lic a
ĠComm un
amb er
IC S
ĠMar ia
con vert
other apy
ĠRe ferences
Ð½ Ð¾
Ġexp ect
Ġatt itude
ĠÙ ±ÙĦ
Ġcheck Type
Ġà¨ ª
Ġà¨ ķ
Ġident ical
à¥§à¥§à¥ §à¥
Ġloc ator
Ġunit code
Ġvis itors
sc ape
Ġà¤¨à¤Ł à¤ĸà¤Ł
Ġdep ends
idd har
à¤®à¤¦à¤¨ à¤®
à¤ĵà¤µà¤° à¤¡
ĠSc ot
Ġconst ruction
Ġdel im
Ġà¥«à¥ª à¥ª
à¥§à¥¯à¥§à¥ «
Ġà° ®
à¤ıà¤ķà¤² à¤µ
ps on
Ġfam iliar
Ġà² ®
Ġà¥¯à¥¬ à¥¦
Ġà¤ıà¤®à¤ıà¤¸ à¤ıà¤¨
Ïģ Î¹
Ġoper ator
Pro perty
ĠIN H
sy stem
Ġhand s
anj a
ĠAnd rew
Ġund ers
ĠMy c
Ġupload ing
Ġsk ills
esc ope
Ġwr ote
Ġremov al
ĠAut o
ĠFI R
kh urana
Ġexper ienced
Ġold est
ĠPal m
ĠAN GLE
Ġvalid ate
Ġdem and
à¤§à¤µà¤¨ à¤²
ĠGN D
Ġevent ually
Ġcontrol s
Ġunn ecess
Ġfinal s
Ġelse where
á¹ £
ĠSD K
Ġparticip ants
Ġpag etype
Ġê ŀ
Ġavoid ed
ask ar
ni h
Ġexcept ions
ett ers
ett ings
ĠEP OC
Ġprec ip
Ġprec ise
Ġann ual
áĥ Ĳ
ĠCount y
ĠMult i
we alth
Ġperm it
Ġvo ice
ĠVal idation
Ġrece ive
Ġprint ing
Ġflu x
ilm ishra
Î¼ Î±
Ġprom pt
Ġfoot note
Ġgre y
Ġach ieve
Ġinvol ving
adu ate
Ġmeasure ments
Ġconduct ed
Ġspe aking
field s
ĠVLAN s
Ġdeb ate
Ġà¥¯à¥¯à¥ ¯
ĠPs ion
Bl ack
________________________________ ________________________________
Ġclean up
Ġà¤ļà¤®à¤ļ à¤®
ĠHistor ic
ĠDB MS
Ġsym metry
Ġpan el
ĠPed ro
Ġà¤ıà¤¸à¤ıà¤² à¤Ĩà¤°
ĠEnvironment al
ĠMathemat ical
ĠMathemat ics
Ġdefe at
oper ative
Ġcircum st
quick form
quick Form
ĠNAA C
Ġäº º
ĠQual ity
Ġinterpre ted
Ġfav or
Ġmere ly
Ġconven ient
Hel p
à¤²à¤ħ à¤¡à¤¸
ĠObs ervatory
su per
Ġclos ing
Ġfif th
child ren
ĠJur assic
Ġactin ide
ĠWarn er
ĠDeut sch
ĠCompet ition
repr eneur
Ġredund ant
Ġsomew hat
ondro plasia
Ġassemble output
ĠnCo V
0 12
3 47
4 13
5 14
6 10
7 70
7 68
8 17
9 85
9 67
B G
C AR
C inema
D T
G r
G u
G reen
H er
H Cl
I PA
L U
M B
M W
M en
M ag
P at
P rop
Q S
R ep
R ev
R AN
R ostec
S ign
S orry
T RA
W idth
X T
Y C
b un
b ust
c ard
d ates
f i
j az
k g
l ers
l ast
m edia
o op
p ost
p upp
r s
r il
r ams
u ly
u its
x n
x iv
Ã ¯
Ö ¶
Ú Ī
å ı
Ġ Ü
Ġ Ùĩ
à¤° à¤²à¤ķ
à¤° à¤¯à¤¤à¤¨
à¥ĩ _
à¤¨ à¤Łà¤®
à¤¨ à¤ľà¤¹
à¤¨ à¤Łà¤µà¤°
à¤¤ à¤Ńà¤¦
à¤ķ à¤ľà¤¨
à¤ķ à¤²à¤¯
à¥ĭ âĢį
à¤² à¤·
Ġà¤¹ à¤°à¤¶
à¤® à¤ľà¤°
à¤® à¤¦à¤ķ
à¤¹ à¤ķà¤²
à¤¹ à¤¨à¤®
à¤¹ à¤¬à¤¤
à¤¦ à¤¯à¤ª
Ġà¤ľ à¤ķà¤°
Ġà¤ľ à¤¤à¤¨
Ġà¤ľ à¤¤à¤²
Ġà¤ľ à¤³
Ġà¤µ à¤²à¤¨
à¤Ł à¤ªà¤¤
à¤ľ à¤¶à¤ķ
à¤ľ à¤ªà¤¦
Ġà¤¨ à¤°à¤¨
Ġà¤¨ à¤ķà¤¸
Ġà¤¬ à¤¯à¤ķ
Ġà¤¬ à¤Ĺà¤°
Ġà¤° à¤ľà¤ķ
à¤· à¤ķà¤¨
à¤· à¤¹à¤°à¤£
à¤¬ à¤¤à¤¨
à¤¬ à¤ªà¤¤
à¤¬ à¤Ĺà¤¢
à¤¬ à¤ľà¤²
à¤§ à¤¬à¤¨
à¤§ à¤µà¤¦
à¤¥ à¤°à¤¤
à¤¥ à¤¤à¤¤
à¤¥ à¤Īà¤¸
à¤¥ à¤Łà¤¬
à¤ļ à¤Łà¤¨
Ġà¤Ķà¤° à¤Ĺ
Ġà¤ı à¤µà¤¨
Ġà¤ı à¤Łà¤¨
Ġà¤Ń à¤¯à¤¹
Ġà¤Ń à¤µà¤¸
Ġà¤Ń à¤Ĺà¤¶
Ġà¤¤ à¤°à¤µ
Ġà¤Ĩ à¤µà¤¤
à¤Ń à¤·
à¤Ń à¤Ńà¤ķ
Ġà¤¶ à¤ª
Ġà¤¶ à¤°à¤Ń
Ġà¤¶ à¤«à¤²
Ġà¤¶ à¤µà¤¦
Ġà¤ķà¤° à¤ķà¤Ł
à¤ĸ à¤ªà¤°
Ġà¤ªà¤° à¤®à¤¸à¤¤
Ġà¤ĩ à¤°à¤¤
Ġà¤ĩ à¤ĸà¤²
Ġà¤ıà¤ķ à¤¹
Ġà¤ıà¤ķ à¤¶
Ġà¤¥ à¤¡
à¤Ī à¤ªà¤°
à¤Ī à¤¬à¤°
à¤ĩ à¤Ĺà¤²
à¤ĩ à¤¦à¤®
Ġà¤ļ à¤ªà¤²
à¤« à¤¦
Ġà¤¸à¤® à¤§
à¤¤à¤° à¤ķà¤¨
à¤°à¤£ à¤Ľ
à¤°à¤ķ à¤ķ
Ġà¤ĸ à¤«
à¤¸à¤ķ à¤°à¤£
à¤Ĩ à¤ĩà¤ľ
à¤Ĩ à¤¶à¤¯
à¤Ĩ à¤Ĺà¤¸
à¤Ĩ à¤ªà¤¡
à¤Ĩ à¤¯à¤²à¤°
à¤µà¤° à¤¥
à¤ķà¤° à¤Ĺà¤£
Ġà¤Ł à¤Łà¤²
Ġà¤°à¤¹ à¤²
à¤ĵ à¤ĩà¤¡
à¤ł à¤¹à¤°à¤¨
Ġà¤¬à¤¨ à¤Ĺ
à¤ħ à¤²à¤µ
Ġà¤®à¤¹ à¤ķà¤¤
Ġà¤§ à¤²
Ġà¤īà¤¤ à¤ªà¤¤
00 8
âĢ Ĳ
à¤¢ à¤¸
Ġt ang
Ġt ick
à¤¹à¤° à¤Ĺ
à¤¹à¤° à¤ľ
à¤²à¤¨ à¤¹
in h
à¤Ĺà¤° à¤Ĺ
à¤¬à¤° à¤ľ
Ġà¤Ī à¤¸à¤°
à¤ĺ à¤¬à¤°
à¤ĺ à¤®à¤ķ
à¤ĺ à¤¬à¤¡
Ġà¤ķà¤® à¤¬à¤ĸ
à¤·à¤£ à¤¯
à¤·à¤£ à¤ª
à¤ļà¤¨ à¤®
Ġà¤¸à¤¬ à¤ľ
à¤²à¤¯ à¤¸
Ġà¤ĵ à¤®à¤¨
Ġs r
Ġs ap
Ġs outhern
Ġà¤ħà¤° à¤ĸ
Ġà¤ĳ à¤²à¤µ
Ġà¤¸à¤¹ à¤¬
ar c
ar ray
à¤µà¤¸ à¤Ń
Ġà¤Ĳ à¤¨à¤ķ
Ġà¤¸à¤° à¤ĸ
Ġà¤Ĩà¤¦ à¤®à¤ª
Ġà¤ªà¤¤ à¤ŀ
Ġc el
Ġc lut
Ġà¤īà¤¦ à¤®
Ġà¤īà¤¦ à¤§
à¤¤à¤ķ à¤£à¤¸
Ġà¤ķà¤² à¤°à¤µ
à¤Ŀ à¤£
Ġà¤Ĩà¤° à¤ıà¤¸à¤ı
Ġà¤ªà¤¦ à¤¬
à¤Ĺà¤² à¤¹
à¤Ĺà¤² à¤Ĺà¤¢
Ġà¤ħà¤µ à¤¬
Ġf i
Ġf ault
Ġb ur
Ġà¤Ĭ à¤ª
Ġp ent
à¤§à¤¨ à¤¶
Ġà¤¹à¤® à¤¸à¤«à¤°
Ġ4 19
Ġ4 18
Ġ4 21
Ġ5 22
ĠT an
ĠT our
ĠT ert
ĠT own
ic ide
à¤£à¤¨ à¤ĸ
à¤°à¤¨ à¤®
à¤°à¤¨ à¤¦
à¤°à¤¨ à¤®à¤²
Ġd ent
Ġm r
Ġm ic
Ġm box
Ġm ale
ĠM ik
ĠM AC
re ich
Ġ6 33
à¤®à¤² à¤Ĺ
à¤®à¤² à¤Ł
Ġà¤ħà¤¬ à¤ĸ
à¤¸à¤² à¤¸
ĠC oc
ĠC ord
ĠC OS
ĠC arn
ĠC arbon
Ġà¤ĩà¤¤ à¤µ
Ġ7 67
as an
as ant
à¤ıà¤¸ à¤ıà¤Ł
à¤ıà¤¸ à¤ıà¤¸à¤¸
ĠP or
ĠP ut
ĠP OP
ĠP seud
ĠA th
à¤²à¤µ à¤Ĺà¤£
Ġà¤ł à¤¸
Ġ9 31
Ġ9 34
à¤Ĺà¤¢ à¤µ
Ġà¤Ĩà¤µà¤¶ à¤¯à¤ķà¤¤
Ġà¤ĺà¤° à¤¬
ag ger
Ġ8 46
Ġ8 98
à¤°à¤¬ à¤¡
Ġà¤Ĩà¤Ī à¤ıà¤ıà¤«
Ġan throp
ĠI G
ĠI OC
ĠI TI
ĠI ETF
om acy
à¥Ń à¥«à¥¦
Ġà¤īà¤² à¤°
Ġ10 17
Ġ10 11
em e
em on
Ġh ain
ig an
ig ration
Ġà¤ļà¤° à¤ĺ
ur d
Ġl ar
à¤Ĩà¤Ī à¤ıà¤¸à¤ıà¤¸
ĠD H
ĠD um
ĠD ys
ĠU LAN
à¤Ĳ à¤¡à¤¸
ul am
Ġà¤ıà¤¨ à¤ıà¤«
ĠW olf
ik ar
ro ject
Ġ12 15
ĠB ed
ĠB lo
ĠB ish
ĠB ij
ĠB enz
Ġg ap
Ġg land
ĠG ir
ĠG andhi
ĠG FDL
Ġ16 19
Ġ16 77
à¤Ĺà¤łà¤¨ à¤ķà¤°
ap ura
ol ism
Ġà¤ªà¤°à¤® à¤ľ
Ġà¤ªà¤°à¤® à¤ªà¤¦
ĠN g
ĠN ET
Ġà¤Ĺà¤£ à¤µ
Ġà¤Ĺà¤£ à¤¦
à¤Łà¤® à¤¯
à¤Łà¤® à¤µ
à¤ĸà¤¤ à¤¯
ĠL H
ĠL ang
ĠL inn
pl an
Ġre ve
Ġbe y
Ġà¤ĭ à¤Ĺà¤µ
ĠH E
ĠH om
ĠH ish
ĠH unger
à¤ıà¤² à¤ıà¤²
à¤«à¤² à¤¦
ĠR D
ĠR un
ĠR ab
ĠR ome
ĠR cat
à¤®à¤£ à¤ķ
Ġà¤µà¤¨ à¤ªà¤°
Ġà¤ªà¤¢ à¤ķà¤°
ch us
18 16
18 21
18 25
18 46
18 42
18 06
ĠF X
ĠF at
ĠF em
ĠF TC
ĠF ont
ĠF uj
ĠF ISA
Ġà¥§à¥® à¥¨
à¤ıà¤¨ à¤ıà¤®
Ġus tr
Ġr cat
th ar
Ġst abil
od ynamic
Ġv s
Ġv es
Ġv iv
Ġà¤ıà¤¡ à¤¬à¤°
à¤ħà¤² à¤¬à¤°
st ruction
Ġà¤ħà¤ľ à¤¯à¤°
à¦ Ń
Ġà¤®à¤¶ à¤¹à¤¦
ĠK as
ĠK un
Ġse al
ĠO k
ĠO ff
Ġà¤ķà¤Ł à¤ĺà¤°
Ġpar k
à¤ħà¤® à¤°à¤¸
ĠV ic
ĠV RS
ĠV ancouver
17 40
17 99
17 75
17 67
17 94
17 92
17 76
Ġde al
Ġde aling
Ġà¥§à¥« à¥¬à¥¦
Ġà¥§à¥« à¥¬à¥«
Ġà¥§à¥« à¥¬à¥Ń
and y
and an
à¤°à¤¥ à¤¯
16 20
Ġit er
Ġit alics
ill es
à¤ĩà¤ª à¤°à¤®
Ġà¥§à¥Ń à¥§à¥¯
Ġà¥§à¥Ń à¥§à¥©
Ġà¥§à¥Ń à¥¨à¥¨
Ġà¥§à¥Ń à¥®à¥«
Ġà¥§à¥Ń à¥¬à¥ª
Ġà¥§à¥Ń à¥«à¥¯
à¤°à¤« à¤²à¤ķ
Ġà¤ªà¤µ à¤Ī
ink ing
Ġà¤ıà¤« à¤ıà¤®à¤¸
ĠJ A
ĠJ T
ĠJ VM
à¤Ĩà¤¨ à¤ľ
Ġà¤ļà¤¢ à¤¤
Ġà¥§à¥¬ à¥¨
Ġà¥§à¥¬ à¥ª
Ġà¥§à¥¬ à¥§à¥¨
Ġà¥§à¥¬ à¥§à¥¦
Ġà¥§à¥¬ à¥¨à¥®
Ġà¥§à¥¬ à¥ªà¥¦
Ġà¥§à¥¬ à¥ªà¥®
Ġà¥«à¥® à¥§
Ġâ ħ
ĠØ «
Ġcom pression
à¤²à¤¹ à¤ł
ind ra
Ġà¥§à¥ª à¥«à¥¦
Ġà¥§à¥ª à¥«à¥©
ant o
so lete
ex ceptions
à¤¸à¤¬ à¤ª
à¤Īà¤Ł à¤«
Ġ60 6
Ġtr av
Ġtr ust
Ġtr igger
à¥¨à¥¦à¥ «
iz z
iz ers
Ġà¤īà¤Ĺ à¤²à¤¨
log en
à¥§à¥® à¥«à¥¦
à¥§à¥® à¥Ńà¥«
à¥§à¥® à¥Ńà¥ª
à¥§à¥® à¥®à¥«
Ġpr ice
27 3
Ġà¤ĵà¤µà¤° à¤¬
ames e
ĠCh lor
Ġx y
Ġ45 8
gr am
pr ise
à¤īà¤ª à¤®à¤¹
ĠThe atre
Ġj avascript
ob ia
ĠY es
ĠSt ep
ĠInd o
ry s
Ġ37 3
Ġà¥¨à¥¨ à¥¬
Ġà¥¨à¥¨ à¥§
ost on
Ġà¤ªà¤ļ à¤ªà¤¨
ĠÎ ·
ĠÎ ĳ
36 6
Ġ75 6
ÙĨ ÛĴ
ens es
ath an
In s
In clude
ning s
Ġà¥¨à¥¬ à¥§
Ġres istor
Ġint ers
ug gle
Us ually
eed s
Ġfol k
33 2
Ġ65 5
à´ ·
Ġpre ferences
aw at
à² ³
ĠTh om
Ġ64 2
75 1
Ġ56 3
ĠAl fred
à¤ĩà¤¬à¤° à¤Ĩà¤¤
49 6
Ġ58 6
à¤Ńà¤°à¤¤ à¤®
te enth
ĠZ ub
à¨ µ
ĠØ§ Ùħ
Ġpo or
95 2
ci pl
67 7
Ġinf ection
AS H
emb ers
ev a
Ġ67 2
07 2
Ġpos itions
Ã© d
ash i
Ġrel iable
Ġph onetic
à¤¨à¤ı à¤¯à¤°
Ġà¤¥à¤² à¤ļà¤°
Ġ86 2
Ġet al
Ġacc ordance
09 1
Ġ87 7
Ġ87 8
à¤¥à¤ª à¤°à¤¤
Ġtalk page
à¸ Ĺ
ĠCO inS
rom eter
à¤Ĩà¤Īà¤ıà¤¸ à¤ıà¤«
yn a
Ġà´ °
Ġro om
Ġact ed
ĠOr b
àª ²
àª Ĥ
Ġcall names
Ġrec urs
Ġà¥©à¥ª à¥©
à¤ĭà¤· à¤Ńà¤¦
ĠFr anÃ§
Ġdifferent ly
ĠIP L
arn um
ser ver
Ġfind ing
à¬ ¨
Ġdec ade
ets c
Ġob tain
ĠKh o
Ġà¤¤à¤°à¤ķ à¤¶
Ġpol lution
Ġà® °
ĠBh ag
Ġinput s
Ġà¨ ¨
Ġselect ing
oz oa
ĠBr idge
Ġmin erva
AL S
li est
Ġeff orts
Ġeff iciency
ĠAD H
Ø§Ø ¶
ĠHD L
Ġorgan isation
Ġà¥ł à¤£
Com plex
Ġpost ing
Ġtyp ical
ĠáĢ Ľ
ograph ies
Re place
Ġhand ler
ĠCont ent
Tr ack
Ġge ometric
hel f
Ġexpl ained
Ġcy c
Ġcy to
à« ģ
ĠAp plication
ĠAnt on
Ġeffect ive
ĠReg ister
ĠSC LC
ĠMon ument
Ġide al
Ġspeed ily
Ġappro val
ĠGP T
Ġut ils
àŃ ģ
àŃ ĩ
ĠGener ation
á¹ ħ
ĠSD M
Im ages
ĠArch itect
[...]
