{"<s>": 0, "<pad>": 1, "</s>": 2, "<unk>": 3, "<mask>": 4, "!": 5, "\"": 6, "#": 7, "$": 8, "%": 9, "&": 10, "'": 11, "(": 12, ")": 13, "*": 14, "+": 15, ",": 16, "-": 17, ".": 18, "/": 19, "0": 20, "1": 21, "2": 22, "3": 23, "4": 24, "5": 25, "6": 26, "7": 27, "8": 28, "9": 29, ":": 30, ";": 31, "<": 32, "=": 33, ">": 34, "?": 35, "@": 36, "A": 37, "B": 38, "C": 39, "D": 40, "E": 41, "F": 42, "G": 43, "H": 44, "I": 45, "J": 46, "K": 47, "L": 48, "M": 49, "N": 50, "O": 51, "P": 52, "Q": 53, "R": 54, "S": 55, "T": 56, "U": 57, "V": 58, "W": 59, "X": 60, "Y": 61, "Z": 62, "[": 63, "\\": 64, "]": 65, "^": 66, "_": 67, "`": 68, "a": 69, "b": 70, "c": 71, "d": 72, "e": 73, "f": 74, "g": 75, "h": 76, "i": 77, "j": 78, "k": 79, "l": 80, "m": 81, "n": 82, "o": 83, "p": 84, "q": 85, "r": 86, "s": 87, "t": 88, "u": 89, "v": 90, "w": 91, "x": 92, "y": 93, "z": 94, "{": 95, "|": 96, "}": 97, "~": 98, "¡": 99, "¢": 100, "£": 101, "¤": 102, "¥": 103, "¦": 104, "§": 105, "¨": 106, "©": 107, "ª": 108, "«": 109, "¬": 110, "®": 111, "¯": 112, "°": 113, "±": 114, "²": 115, "³": 116, "´": 117, "µ": 118, "¶": 119, "·": 120, "¸": 121, "¹": 122, "º": 123, "»": 124, "¼": 125, "½": 126, "¾": 127, "¿": 128, "À": 129, "Á": 130, "Â": 131, "Ã": 132, "Ä": 133, "Å": 134, "Æ": 135, "Ç": 136, "È": 137, "É": 138, "Ê": 139, "Ë": 140, "Ì": 141, "Í": 142, "Î": 143, "Ï": 144, "Ð": 145, "Ñ": 146, "Ò": 147, "Ó": 148, "Ô": 149, "Õ": 150, "Ö": 151, "×": 152, "Ø": 153, "Ù": 154, "Ú": 155, "Û": 156, "Ü": 157, "Ý": 158, "Þ": 159, "ß": 160, "à": 161, "á": 162, "â": 163, "ã": 164, "ä": 165, "å": 166, "æ": 167, "ç": 168, "è": 169, "é": 170, "ê": 171, "ë": 172, "ì": 173, "í": 174, "î": 175, "ï": 176, "ð": 177, "ñ": 178, "ò": 179, "ó": 180, "ô": 181, "õ": 182, "ö": 183, "÷": 184, "ø": 185, "ù": 186, "ú": 187, "û": 188, "ü": 189, "ý": 190, "þ": 191, "ÿ": 192, "Ā": 193, "ā": 194, "Ă": 195, "ă": 196, "Ą": 197, "ą": 198, "Ć": 199, "ć": 200, "Ĉ": 201, "ĉ": 202, "Ċ": 203, "ċ": 204, "Č": 205, "č": 206, "Ď": 207, "ď": 208, "Đ": 209, "đ": 210, "Ē": 211, "ē": 212, "Ĕ": 213, "ĕ": 214, "Ė": 215, "ė": 216, "Ę": 217, "ę": 218, "Ě": 219, "ě": 220, "Ĝ": 221, "ĝ": 222, "Ğ": 223, "ğ": 224, "Ġ": 225, "ġ": 226, "Ģ": 227, "ģ": 228, "Ĥ": 229, "ĥ": 230, "Ħ": 231, "ħ": 232, "Ĩ": 233, "ĩ": 234, "Ī": 235, "ī": 236, "Ĭ": 237, "ĭ": 238, "Į": 239, "į": 240, "İ": 241, "ı": 242, "Ĳ": 243, "ĳ": 244, "Ĵ": 245, "ĵ": 246, "Ķ": 247, "ķ": 248, "ĸ": 249, "Ĺ": 250, "ĺ": 251, "Ļ": 252, "ļ": 253, "Ľ": 254, "ľ": 255, "Ŀ": 256, "ŀ": 257, "Ł": 258, "ł": 259, "Ń": 260, "à¤": 261, "à¥": 262, "Ġà¤": 263, "à¤¾": 264, "à¤°": 265, "à¥į": 266, "à¥ĩ": 267, "à¤¿": 268, "Ġà¤ķ": 269, "à¤Ĥ": 270, "à¥Ģ": 271, "à¤¨": 272, "à¤¤": 273, "à¤ķ": 274, "à¤¯": 275, "à¥ĭ": 276, "à¤¸": 277, "à¤²": 278, "Ġà¤¸": 279, "Ġà¤¹": 280, "à¤®": 281, "Ġà¤®": 282, "à¤µ": 283, "Ġà¤ª": 284, "à¥Ī": 285, "à¤¹": 286, "à¥ģ": 287, "Ġà¥": 288, "à¤¦": 289, "à¤ª": 290, "Ġà¥¤": 291, "à¥ĩà¤Ĥ": 292, "Ġà¤ľ": 293, "à¤Ĺ": 294, "Ġ,": 295, "Ġà¤ħ": 296, "Ġà¤µ": 297, "à¤Ł": 298, "à¤ľ": 299, "à¥Ĥ": 300, "Ġà¤¨": 301, "Ġà¤¬": 302, "à¤¶": 303, "à¥ĭà¤Ĥ": 304, "Ġà¤¦": 305, "Ġà¤°": 306, "à¤·": 307, "à¤¡": 308, "à¤¬": 309, "à¤§": 310, "Ġà¤²": 311, "à¤¥": 312, "à¤£": 313, "Ġà¤Ĺ": 314, "Ġà¤Ķ": 315, "à¤ļ": 316, "Ġà¤ī": 317, "Ġà¤Ķà¤°": 318, "Ġà¤ı": 319, "Ġà¤Ń": 320, "à¤¼": 321, "Ġà¤¤": 322, "à¤ı": 323, "Ġà¤Ĩ": 324, "à¤Ń": 325, "Ġà¤¶": 326, "Ġà¤ķà¤°": 327, "Ġ\"": 328, "à¥Īà¤Ĥ": 329, "à¤ĸ": 330, "Ġà¤ªà¤°": 331, "Ġà¤ĩ": 332, "Ġà¤¯": 333, "Ġà¤ıà¤ķ": 334, "Ġà¤¥": 335, "Ġ-": 336, "à¤Ī": 337, "à¤ĩ": 338, "Ġ)": 339, "Ġ.": 340, "Ġ(": 341, "Ġà¤ļ": 342, "à¤°à¤¤": 343, "à¤¾à¤Ĥ": 344, "à¤«": 345, "Ġà¤¸à¤®": 346, "Ġà¤ĩà¤¸": 347, "Ġ1": 348, "à¥ĥ": 349, "à¤ªà¤¨": 350, "à¥Į": 351, "Ġà¤«": 352, "à¤ģ": 353, "Ġà¤ħà¤¨": 354, "à¤¤à¤°": 355, "à¥ī": 356, "à¤°à¤£": 357, "Ġà¤Ĺà¤¯": 358, "à¤°à¤ķ": 359, "Ġà¤ĸ": 360, "Ġà¤īà¤¨": 361, "à¤¸à¤ķ": 362, "à¥Ģà¤Ĥ": 363, "à¤¿à¤Ĥ": 364, "Ġ2": 365, "à¤Ĩ": 366, "à¤µà¤°": 367, "à¤¾à¤ģ": 368, "Ġà¤ķà¤°à¤¨": 369, "à¤ķà¤°": 370, "Ġà¤Ł": 371, "Ġà¤¯à¤¹": 372, "Ġà¤ħà¤ªà¤¨": 373, "à¤ī": 374, "Ġà¤°à¤¹": 375, "Ġà¤¡": 376, "à¤°à¤®": 377, "à¤ĵ": 378, "Ġà¤ħà¤§": 379, "à¤ł": 380, "à¤Ľ": 381, "Ġà¤¬à¤¨": 382, "Ġà¤µà¤°": 383, "à¤¯à¤ķ": 384, "Ġà¤ķà¤°à¤¤": 385, "Ġ:": 386, "à¤ľà¤¨": 387, "à¤¼à¤¾": 388, "à¤ĩà¤¸": 389, "à¤ħ": 390, "à¤°à¤¸": 391, "Ġà¤ªà¤¹": 392, "Ġà¤¸à¤ķ": 393, "Ġà¤®à¤¹": 394, "Ġà¤§": 395, "Ġà¤¨à¤¹": 396, "Ġà¤īà¤¤": 397, "à¥¦": 398, "00": 399, "à¤°à¤¦": 400, "à¤¯à¤¹": 401, "Ġ'": 402, "Ġà¤īà¤ª": 403, "âĢ": 404, "à¤ªà¤°": 405, "§à¥": 406, "Ġà¤¤à¤¥": 407, "Ġ19": 408, "Ġà¤ķà¤¹": 409, "à¤¸à¤°": 410, "Ġà¤ľà¤¨": 411, "Ġà¤¤à¤ķ": 412, "à¤Łà¤°": 413, "à¤¶à¤¨": 414, "Ġà¤ĺ": 415, "à¤µà¤¤": 416, "à¤¨à¤ķ": 417, "à¤¢": 418, "Ġà¤Ľ": 419, "Ġt": 420, "Ġà¤¸à¤ķà¤¤": 421, "à¤¹à¤°": 422, "Ġà¤²à¤Ĺ": 423, "Ġà¤īà¤¸": 424, "à¤¯à¤¨": 425, "Ġ=": 426, "à¤¼à¥Ģ": 427, "Ġà¤īà¤¨à¤ķ": 428, "à¤°à¤¹": 429, "à¤²à¤¨": 430, "in": 431, "Ġà¤ħà¤²": 432, "à¤Ĺà¤°": 433, "à¤¬à¤°": 434, "Ġà¤µà¤¹": 435, "à¤µà¤¨": 436, "on": 437, "Ġà¤ªà¤¹à¤²": 438, "à¤²à¤¤": 439, "à¤¸à¤®": 440, "à¤¯à¤®": 441, "à¤ŀ": 442, "à¤¯à¤°": 443, "an": 444, "Ġà¤Ī": 445, "à¤¸à¤¨": 446, "à¤ĺ": 447, "Ġà¥§à¥": 448, "à¤Ĺà¤¤": 449, "à¤¼à¤¿": 450, "à¤¯à¤¤": 451, "Ġà¤ķà¤®": 452, "er": 453, "Ġà¤¬à¤¹": 454, "à¤·à¤£": 455, "à¤ļà¤¨": 456, "Ġ20": 457, "Ġ/": 458, "Ġà¤¸à¤¬": 459, "à¤²à¤¯": 460, "à¤®à¤¨": 461, "Ġà¤ĩà¤¸à¤ķ": 462, "Ġà¤īà¤¸à¤ķ": 463, "à¤ĩà¤¨": 464, "at": 465, "à¤®à¤ķ": 466, "Ġà¤ıà¤µ": 467, "à¤°à¤¯": 468, "à¤¦à¤°": 469, "Ġà¤ĵ": 470, "à¤ĩà¤¸à¤ķ": 471, "ĠâĢ": 472, "Ġà¤¸à¤®à¤¯": 473, "Ġà¤Ĩà¤§": 474, "or": 475, "Ġs": 476, "Ġà¤ħà¤°": 477, "Ġà¤ĳ": 478, "Ġà¤¸à¤¹": 479, "à¤¼à¥ĩ": 480, "Ġà¥¨": 481, "Ġà¤ħà¤Ń": 482, "ar": 483, "à¤°à¤µ": 484, "à¤µà¤¸": 485, "à¤¤à¤¨": 486, "Ġà¤ħà¤®": 487, "he": 488, "Ġà¤Ĳ": 489, "à¤Łà¤¨": 490, "Ġà¤ķà¤Ī": 491, "Ġà¤¸à¤°": 492, "Ġà¤¸à¤Ń": 493, "Ġà¤ĩà¤¨": 494, "Ġà¤Ĩà¤¦": 495, "Ġà¤ªà¤¤": 496, "Ġà¤ľà¤¬": 497, "al": 498, "à¤ªà¤¤": 499, "Ġ]": 500, "à¤ķà¤²": 501, "Ġà¤¬à¤¡": 502, "Ġ>": 503, "Ġ200": 504, "¯à¥": 505, "Ġà¤°à¤ĸ": 506, "Ġà¤¸à¤¬à¤¸": 507, "Ġc": 508, "Ġ201": 509, "Ġà¤īà¤¦": 510, "à¤ĥ": 511, "Ġà¤Ĺà¤ı": 512, "à¥ģà¤Ĥ": 513, "à¤¤à¤ķ": 514, "à¤µà¤²": 515, "Ġà¤Ĺà¤Ī": 516, "Ġ3": 517, "Ġà¤¦à¤°": 518, "en": 519, "es": 520, "à¤®à¤¤": 521, "à¥įâĢ": 522, "à¤¡à¤²": 523, "Ġà¤ķà¤²": 524, "Ġà¤Ĩà¤¯": 525, "à¤Ŀ": 526, "à¤ķà¤°à¤£": 527, "is": 528, "à¤¤à¤®": 529, "à¤°à¤Ń": 530, "Ġà¤®à¤¨": 531, "à¤¶à¤ķ": 532, "Ġà¤Ĩà¤°": 533, "à¤¦à¤¨": 534, "Ġà¤ªà¤¦": 535, "à¤Ĺà¤²": 536, "Ġà¤ħà¤ķ": 537, "Ġà¤ħà¤µ": 538, "à¤īà¤¨": 539, "Ġà¤¸à¤¦": 540, "à¥įâĢį": 541, "à¤µà¤¹": 542, "Ġà¤īà¤ªà¤¯": 543, "Ġf": 544, "Ġ;": 545, "Ġb": 546, "à¥¦à¥": 547, "Ġthe": 548, "Ġà¤Ĭ": 549, "Ġà¤Ĩà¤µ": 550, "it": 551, "ed": 552, "Ġà¤ħà¤¤": 553, "Ġp": 554, "Ġà¤ħà¤¸": 555, "à¤§à¤¨": 556, "Ġà¤ħà¤ª": 557, "Ġ[": 558, "Ġà¤Īà¤¸": 559, "Ġà¤¤à¤°à¤¹": 560, "Ġà¤Ĩà¤¤": 561, "Ġà¤ªà¤¶": 562, "à¤ªà¤ķ": 563, "Ġa": 564, "le": 565, "Ġà¤¹à¤®": 566, "à¤°à¤¶": 567, "Ġà¤Ĳà¤¸": 568, "ion": 569, "à¤¨à¤¤": 570, "Ġ4": 571, "Ġ5": 572, "à¤²à¤¬": 573, "Ġà¤¬à¤¢": 574, "Ġin": 575, "Ġà¤¸à¤°à¤ķ": 576, "Ġà¤¦à¤ķ": 577, "Ġà¤ªà¤¡": 578, "Ġ|": 579, "ĠT": 580, "à¤²à¤ķ": 581, "Ġà¤°à¤¹à¤¤": 582, "ic": 583, "à¤£à¤¨": 584, "à¤ķà¤¨": 585, "19": 586, "Ġà¤¹à¤°": 587, "Ġà¤¤à¤¹": 588, "à¤Ńà¤Ĺ": 589, "Ġà¤¶à¤¹à¤°": 590, "Ġà¤ļà¤²": 591, "à¤°à¤¨": 592, "à¤¡à¤°": 593, "à¤ĸà¤¨": 594, "Ġà¤§à¤°": 595, "Ġà¤®à¤¹à¤¤": 596, "Ġà¥§à¥¯à¥": 597, "à¤Łà¤ķ": 598, "Ġw": 599, "Ġà¤ĵà¤°": 600, "Ġd": 601, "à¤ĩà¤Ł": 602, "Ġà¤ľà¤¹": 603, "Ġ<": 604, "à¤ľà¤°": 605, "Ġm": 606, "Ġà¤¶à¤¬": 607, "ĠM": 608, "à¤¨à¤°": 609, "Ġà¤¬à¤ļ": 610, "Ġà¤Ĩà¤¨": 611, "Ġà¤®à¤§": 612, "à¤¬à¤¨": 613, "re": 614, "à¤µà¤ª": 615, "Ġo": 616, "ĠS": 617, "à¤¨à¤¸": 618, "à¤ıà¤ķ": 619, "Ġà¤¤à¤°": 620, "à¤¥à¤®": 621, "Ġ%": 622, "à¤°à¤¦à¤°": 623, "Ġà¤ľà¤²": 624, "Ġ18": 625, "Ġà¤ħà¤²à¤Ĺ": 626, "Ġà¤Ŀ": 627, "Ġn": 628, "Ġ6": 629, "à¤Łà¤²": 630, "Ġà¤²à¤Ĺà¤Ńà¤Ĺ": 631, "am": 632, "à¤®à¤²": 633, "Ġà¤ĳà¤«": 634, "à¥¨": 635, "à¤¨à¤µ": 636, "à¤ķà¤¸": 637, "Ġà¤¬à¤²": 638, "Ġà¤ħà¤¬": 639, "à¤¸à¤²": 640, "à¤¨à¤®": 641, "Ġà¤¸à¤¦à¤¸": 642, "Ġà¤¸à¤¤": 643, "à¤īà¤¨à¤ķ": 644, "Ġà¤ķà¤¹à¤¤": 645, "ĠC": 646, "Ġà¤ĩà¤¤": 647, "Ġà¤Ĩà¤ķ": 648, "à¤¨à¤²": 649, "Ġà¤īà¤ļ": 650, "Ġ0": 651, "à¤®à¤°": 652, "ing": 653, "à¤¬à¤²": 654, "à¤ķà¤¤": 655, "Ġà¤¸à¤¨": 656, "à¤µà¤µ": 657, "Ġ7": 658, "à¤ľà¤¬": 659, "as": 660, "ou": 661, "20": 662, "Ġà¤®à¤£": 663, "Ġà¤¶à¤ķ": 664, "à¤¯à¤µà¤¸": 665, "à¥®": 666, "Ġà¤¶à¤°": 667, "à¤Ĭ": 668, "à¤¤à¤µ": 669, "à¤ıà¤¸": 670, "Ġà¤¨à¤¦": 671, "Ġà¤¤à¤¹à¤¸": 672, "ĠP": 673, "Ġ199": 674, "ĠA": 675, "Ġà¤¬à¤¦": 676, "Ġà¤¬à¤°": 677, "Ġà¤ķà¤Ń": 678, "ct": 679, "à¤¯à¤¦": 680, "à¤²à¤µ": 681, "à¤¼à¥į": 682, "à¤ķà¤Ł": 683, "Ġà¤ł": 684, "à¤°à¤ª": 685, "Ġà¤¸à¤«": 686, "à¤ħà¤¨": 687, "Ġà¤ľà¤°": 688, "Ġà¤¨à¤µ": 689, "Ġ9": 690, "Ġà¤Ĩà¤Ĺ": 691, "à¤ªà¤¸": 692, "à¤Ĺà¤¢": 693, "à¥«": 694, "Ġà¤Ĩà¤µà¤¶": 695, "ot": 696, "Ġà¤ķà¤ª": 697, "Ġà¤ĺà¤°": 698, "à¤°à¤ļ": 699, "ag": 700, "Ġà¤ĩà¤²": 701, "Ġà¤²à¤ķ": 702, "Ġà¤ħà¤Ĺ": 703, "Ġ8": 704, "à¤°à¤¬": 705, "Ġà¤¨à¤Ĺà¤°": 706, "à¤łà¤¨": 707, "à¤°à¤¥à¤®": 708, "ly": 709, "à¤¯à¤²": 710, "Ġà¥§": 711, "à¤¥à¤µ": 712, "à¥¦à¥¦": 713, "à¤ĩà¤¡": 714, "à¥§à¥": 715, "Ġà¤Ĩà¤Ī": 716, "Ġan": 717, "Ġà¤¬à¤¤": 718, "Ġof": 719, "Ġà¤ªà¤ķ": 720, "us": 721, "à¤°à¤ľ": 722, "Ġà¤¸à¤®à¤Ŀ": 723, "Ġà¥°": 724, "ĠI": 725, "om": 726, "à¤¯à¤ª": 727, "à¥Ń": 728, "à¤·à¤ķ": 729, "à¤¹à¤®": 730, "à¤ĩà¤²": 731, "à¤ļà¤°": 732, "Ġà¤īà¤²": 733, "à¤¹à¤¨": 734, "de": 735, "ent": 736, "Ġà¤Ĩà¤ľ": 737, "à¤ĸà¤£": 738, "à¤¨à¤¨": 739, "à¤¥à¤²": 740, "Ġ10": 741, "Ġà¤ıà¤¸": 742, "à¤Ĩà¤¤": 743, "Ġà¤ħà¤ļ": 744, "Ġà¤µà¤¸": 745, "à¤¹à¤¤": 746, "Ġà¤ıà¤²": 747, "lo": 748, "et": 749, "Ġà¤Ĩà¤®": 750, "Ġà¤Ĩà¤¸": 751, "Ġà¤Ĺà¤°": 752, "em": 753, "Ġà¤ķà¤µ": 754, "Ġto": 755, "Ġà¤ĩà¤¨à¤ķ": 756, "à¤·à¤¯": 757, "à¤²à¤°": 758, "Ġà¤¤à¤¬": 759, "à¤°à¤²": 760, "à¤®à¤¸": 761, "Ġà¤¢": 762, "Ġà¥«": 763, "à¤·à¤¤": 764, "Ġà¤Ĩà¤ª": 765, "à¤Ńà¤µ": 766, "Ġh": 767, "à¤¯à¤¸": 768, "Ġà¤Ńà¤°": 769, "Ġà¤Ĺà¤¤": 770, "à¤¸à¤¤": 771, "Ġà¤¶à¤¤": 772, "à¤¯à¤¯à¤¨": 773, "à¥©": 774, "à¤¸à¤¸": 775, "ĠâĢĻ": 776, "Ġà¤¸à¤®à¤°": 777, "Ġà¤ħà¤«": 778, "ig": 779, "à¤ĸà¤²": 780, "Ġ15": 781, "Ġà¤²à¤¡": 782, "à¤µà¤¯": 783, "Ġà¤ļà¤°": 784, "Ġà¤°à¤ļà¤¨": 785, "à¤¹à¤°à¤£": 786, "à¥ª": 787, "Ġsp": 788, "à¥¬": 789, "à¤°à¤§": 790, "à¤¥à¤¨": 791, "Ġà¤īà¤ªà¤²à¤¬": 792, "ur": 793, "à¤Ĺà¤¨": 794, "Ġà¤°à¤ķ": 795, "à¤Ĺà¤®": 796, "Ġà¤ľà¤¬à¤ķ": 797, "Ġà¤®à¤¸": 798, "à¤īà¤¸": 799, "ĠâĢĺ": 800, "000": 801, "à¥ĥà¤Ĥ": 802, "Ġl": 803, "Ġà¤®à¤¤": 804, "Ġ198": 805, "à¥Ĥà¤Ĥ": 806, "un": 807, "Ġà¤¬à¤¦à¤²": 808, "Ġà¤¤à¤¤": 809, "ĠTi": 810, "Ġà¥©": 811, "à¤Ĩà¤Ī": 812, "Ġà¤¸à¤ª": 813, "à¤§à¤¤": 814, "Ġà¤¬à¤¸": 815, "à¤µà¤°à¤£": 816, "lu": 817, "Ġth": 818, "Ġà¤ķà¤°à¤ķ": 819, "Ġà¥¨à¥¦à¥": 820, "à¤µà¤ķ": 821, "ĠD": 822, "à¤¼à¥ĭ": 823, "ĠU": 824, "à¤ľà¤¸": 825, "à¤²à¤®": 826, "Ġà¤ľà¤Ĺ": 827, "à¤¦à¤ķ": 828, "Ġà¤ķà¤¨": 829, "à¤®à¤¹": 830, "Ġ17": 831, "à¤®à¤¦": 832, "Ġà¥¨à¥¦": 833, "Ġà¤ħà¤¥à¤µ": 834, "à¤ķà¤ª": 835, "Ġà¤ľà¤®": 836, "à¤¯à¤µ": 837, "Ġfor": 838, "il": 839, "à¤Ĳ": 840, "à¤°à¤µà¤°": 841, "Ġà¤īà¤ªà¤¨": 842, "ul": 843, "id": 844, "Ġà¤®à¤°": 845, "à¤Ĺà¤µ": 846, "Ġà¤ıà¤¨": 847, "Ġand": 848, "ĠW": 849, "Ġà¤®à¤¦": 850, "à¤¦à¤®": 851, "Ġà¤¸à¤®à¤¸": 852, "ik": 853, "Ġ197": 854, "ro": 855, "Ġ12": 856, "ĠB": 857, "à¤¸à¤µ": 858, "à¤¼à¥ĭà¤Ĥ": 859, "à¥§": 860, "Ġe": 861, "à¥ģà¤ģ": 862, "ation": 863, "Ġà¤īà¤®": 864, "Ġg": 865, "ĠG": 866, "Ġà¤ıà¤®": 867, "Ġà¤¬à¤ľ": 868, "Ġ16": 869, "à¤°à¤®à¤£": 870, "à¤Ĺà¤łà¤¨": 871, "ap": 872, "ol": 873, "à¤µà¤¶": 874, "Ġà¤ªà¤°à¤®": 875, "ate": 876, "Ġà¤¦à¤¶à¤ķ": 877, "à¤ĺà¤°": 878, "ĠN": 879, "Ġà¤Ĭà¤ªà¤°": 880, "Ġà¤Ĺà¤£": 881, "à¤ĩà¤¨à¤ķ": 882, "à¤ķà¤¡": 883, "clu": 884, "Ġ13": 885, "à¤§à¤°": 886, "à¤Łà¤®": 887, "Ġspan": 888, "à¤²à¤¸": 889, "à¤¸à¤¦": 890, "Ġà¤ĸà¤°": 891, "Ġà¤Ĩà¤¶": 892, "ac": 893, "Ġà¤°à¤¹à¤¨": 894, "à¤¬à¤¦": 895, "Ġis": 896, "à¤¹à¤²": 897, "à¤ĸà¤¤": 898, "à¤Ĩà¤°": 899, "Ġà¤ħà¤µà¤§": 900, "à¤¤à¤¤": 901, "à¤ļà¤ķ": 902, "à¤µà¤ľ": 903, "à¤ĩà¤ķ": 904, "à¤ľà¤¯": 905, "ĠL": 906, "à¤ĩà¤¸à¤®": 907, "Ġà¤²à¤Ĺà¤¤": 908, "only": 909, "Ġà¤ľà¤Ĺà¤¹": 910, "à¤ľà¤¹": 911, "à¤¯à¤ķà¤¤": 912, "à¤ľà¤²": 913, "pl": 914, "Ġà¤ļà¤²à¤¤": 915, "Ġà¤ħà¤¦": 916, "à¥Ĥà¤ģ": 917, "Ġre": 918, "ĠE": 919, "Ġà¤ĩà¤¸à¤®": 920, "Ġà¤Ĩà¤²": 921, "Ġà¤ıà¤¶": 922, "Ġà¤¯à¤¦": 923, "clude": 924, "Ġbe": 925, "à¤¡à¤¨": 926, "Ġ196": 927, "Ġà¤¹à¤µ": 928, "Ġà¤ĭ": 929, "Ġà¤īà¤¸à¤¨": 930, "Ġà¥¨à¥¦à¥§à¥": 931, "ĠH": 932, "Ġ11": 933, "200": 934, "ĠâĢĵ": 935, "Ġà¤ľà¤¨à¤¸": 936, "Ġà¤°à¤ĸà¤¨": 937, "Ġà¤ķà¤¥": 938, "Ġà¤¦à¤²": 939, "à¤ªà¤£": 940, "Ġà¥¨à¥¦à¥¦à¥": 941, "à¤ıà¤²": 942, "Ġà¤ĺà¤Łà¤¨": 943, "qu": 944, "Ġ14": 945, "à¤«à¤²": 946, "iv": 947, "à¤®à¤Ĺ": 948, "Ġà¤ħà¤°à¤¬": 949, "à¤Ĺà¤¦": 950, "à¥ħ": 951, "à¤¥à¤°": 952, "à¤ıà¤Ĺ": 953, "os": 954, "Ġà¤ĳà¤¸": 955, "Ġinclude": 956, "à¤ļà¤¯": 957, "à¤°à¤ªà¤¤": 958, "à¤Ķ": 959, "à¤ıà¤®": 960, "à¤īà¤¦": 961, "Ġà¤Ńà¤Ĺà¤µ": 962, "ĠR": 963, "à¤®à¤£": 964, "el": 965, "à¤ľà¤ķ": 966, "à¤ªà¤·": 967, "Ġà¤¸à¤²": 968, "à¤ªà¤²": 969, "Ġà¤¨à¤ı": 970, "à¤¬à¤¸": 971, "à¤·à¤®à¤¤": 972, "Ġà¤ĩà¤¸à¤²": 973, "Ġincludeonly": 974, "à¤ļà¤²": 975, "Ġà¤µà¤¨": 976, "Ġar": 977, "à¤ľà¤®": 978, "Ġà¤°à¤ĸà¤¤": 979, "à¤·à¤¦": 980, "à¤§à¤ķ": 981, "Ġà¤ªà¤¢": 982, "ow": 983, "à¤Ľà¤²": 984, "ction": 985, "Ġà¤°à¤¸": 986, "à¤ħà¤§": 987, "Ġà¤¨à¤¯": 988, "Ġ!": 989, "im": 990, "à¤ĸà¤°": 991, "à¤Ńà¤°": 992, "Ġà¤ľà¤¨à¤µà¤°": 993, "à¤ĸà¤ķ": 994, "Ġà¥ª": 995, "Ġ195": 996, "à¤ªà¤¦": 997, "ch": 998, "Ġà¤īà¤ł": 999, "18": 1000, "Ġà¥Ń": 1001, "à¤ľà¤§": 1002, "à¤²à¤Ĺ": 1003, "ut": 1004, "Ġà¤Ĩà¤ķà¤°": 1005, "à¤¡à¤®": 1006, "ad": 1007, "à¤ħà¤ªà¤¨": 1008, "ĠF": 1009, "Ġà¤®à¤Ī": 1010, "à¥¯": 1011, "Ġà¤§à¤¨": 1012, "à¤¬à¤Ī": 1013, "Ġy": 1014, "à¤īà¤¸à¤ķ": 1015, "à¤¶à¤¤": 1016, "Ġà¤Ĩà¤¬": 1017, "Ġà¤ħà¤Ĺà¤¸": 1018, "Ġà¥§à¥®": 1019, "à¤¸à¤ª": 1020, "age": 1021, "Ġà¤ªà¤¹à¤ļ": 1022, "à¤¶à¤²": 1023, "à¤ıà¤¨": 1024, "Ġà¤¹à¤ľ": 1025, "à¤ħà¤°": 1026, "ay": 1027, "Ġus": 1028, "Ġ?": 1029, "à¤¤à¤²": 1030, "Ġà¤ļà¤ķ": 1031, "Ġà¤¹à¤¸": 1032, "Ġà¤ħà¤µà¤¸": 1033, "Ġà¤ĩà¤ķ": 1034, "Ġà¤ķà¤¡": 1035, "à¤Ĳà¤¸": 1036, "ers": 1037, "iki": 1038, "Ġà¤¦à¤¸": 1039, "Ġà¤ķà¤¬": 1040, "Ġ194": 1041, "Ġà¤¤à¤ķà¤¨": 1042, "à¤¹à¤ķ": 1043, "à¤°à¤ĸ": 1044, "Ġr": 1045, "à¤¯à¤µà¤¹": 1046, "à¤¨à¤¯": 1047, "ia": 1048, "à¤¨à¤¸à¤Ń": 1049, "th": 1050, "um": 1051, "à¤Ĺà¤£à¤¨": 1052, "à¤°à¤ļà¤¨": 1053, "à¤¼à¥ģ": 1054, "Ġà¤®à¤²": 1055, "à¤ªà¤¯": 1056, "Ġst": 1057, "à¤°à¤ļà¤²": 1058, "Ġà¤¨à¤Ī": 1059, "à¤ĩà¤¤": 1060, "à¥Įà¤Ĥ": 1061, "à¤Ķà¤°": 1062, "Ġà¤Ĩà¤°à¤®": 1063, "Ġà¤®à¤¦à¤¦": 1064, "Ġà¤īà¤°": 1065, "Ġà¤¤à¤®": 1066, "od": 1067, "Ġà¤ĩà¤®": 1068, "Ġà¤ķà¤ł": 1069, "à¤²à¤ķà¤°": 1070, "Ġà¤¤à¤¹à¤¤": 1071, "à¤ľà¤ª": 1072, "201": 1073, "Ġv": 1074, "Ġà¤¹à¤Ł": 1075, "igh": 1076, "Ġà¤ľà¤¨à¤Ĺà¤£à¤¨": 1077, "Ġà¤¨à¤°": 1078, "Ġà¤ıà¤¡": 1079, "à¤¤à¤°à¤£": 1080, "à¤¨à¤¦": 1081, "à¤ľà¤µ": 1082, "à¤Īà¤¸": 1083, "à¤ħà¤¤": 1084, "Ġà¤¨à¤ķ": 1085, "ab": 1086, "Ġ25": 1087, "à¤·à¤°": 1088, "à¤¤à¤ª": 1089, "Ġà¤ħà¤ªà¤°": 1090, "à¤·à¤®": 1091, "Ġà¤¹à¤®à¤²": 1092, "à¤¶à¤¨à¤²": 1093, "Ġà¤Ĭà¤°": 1094, "ist": 1095, "à¤¯à¤£": 1096, "Ġà¤Ĩà¤ªà¤ķ": 1097, "à¤¨à¤ķà¤°": 1098, "à¤®à¤ļ": 1099, "ir": 1100, "Ġà¤Ĺà¤¢": 1101, "à¤¤à¤°à¤°": 1102, "à¤ĩà¤¯": 1103, "à¤¥à¤ķ": 1104, "Ġà¤¤à¤Ł": 1105, "à¤īà¤¤": 1106, "Ġà¤µà¤ķ": 1107, "Ġ30": 1108, "Ġà¤¸à¤ļ": 1109, "Ġ{": 1110, "Ġà¤īà¤¡": 1111, "à¤°à¤Ĺ": 1112, "Ġà¤īà¤ªà¤ķà¤°à¤£": 1113, "à¤ħà¤²": 1114, "Ġal": 1115, "Ġà¤Ńà¤µ": 1116, "Ġà¤ĩà¤¤à¤¨": 1117, "Ġà¤Ĳà¤¤": 1118, "à¤Łà¤µ": 1119, "Ġà¤¸à¤¹à¤¯": 1120, "st": 1121, "Ġà¤¸à¤«à¤²": 1122, "Ġà¤¤à¤²": 1123, "TC": 1124, "Ġà¥¬": 1125, "à¤¨à¤ª": 1126, "à¤ĩà¤®": 1127, "if": 1128, "Ġà¤ħà¤¶": 1129, "Ġà¤ļà¤°à¤£": 1130, "Ġà¤«à¤°": 1131, "loc": 1132, "Ġà¤ľà¤¨à¤¤": 1133, "Ġà¤īà¤ªà¤¸": 1134, "à¤µà¤ľà¤¨": 1135, "à¤ķà¤®": 1136, "Ġ2008": 1137, "ĠUTC": 1138, "Ġà¤¸à¤«à¤²à¤¤": 1139, "Ġà¤¹à¤²": 1140, "Ġà¤ķà¤¹à¤²": 1141, "Ġà¤ĵà¤²": 1142, "à¤£à¤¯": 1143, "empl": 1144, "end": 1145, "Ġà¤ħà¤ľ": 1146, "à¤°à¤¹à¤£": 1147, "Ġà¤¤à¤°à¤«": 1148, "Ġ193": 1149, "à¤ªà¤®": 1150, "ĠPh": 1151, "Ġà¤ĩà¤¸à¤¸": 1152, "à¤Łà¤°à¤¨": 1153, "à¤¹à¤¸": 1154, "à¦": 1155, "Ġà¤¸à¤ľ": 1156, "à¤ĩà¤µ": 1157, "Ġà¤µà¤ľà¤¹": 1158, "Ġon": 1159, "Ġ2009": 1160, "ith": 1161, "Ġor": 1162, "à¤ķà¤µ": 1163, "à¥§à¥¯à¥": 1164, "Ġà¤Ĺà¤£à¤¨": 1165, "Ġà¤ķà¤¶": 1166, "Ġà¤®à¤¶": 1167, "Ġà¤ħà¤®à¤°": 1168, "Ġ2007": 1169, "Ġà¤ĸà¤¡": 1170, "ĠK": 1171, "à¤¬à¤¹": 1172, "Ġà¤¸à¤¡": 1173, "oc": 1174, "Ġà¤ıà¤¯à¤°": 1175, "Ġà¤¹à¤¤": 1176, "ter": 1177, "Ġà¤°à¤¨": 1178, "à¤¦à¤µ": 1179, "à¤¡à¤µ": 1180, "ce": 1181, "Ġ21": 1182, "à¤®à¤§": 1183, "à¤ĩà¤ľ": 1184, "Ġà¤Ľà¤¤": 1185, "à¥įâĢĮ": 1186, "Ġ24": 1187, "Ġtempl": 1188, "à¤Łà¤¬": 1189, "Ġse": 1190, "à¤ĳ": 1191, "à¤¬à¤®": 1192, "à¤µà¤ļ": 1193, "Ġà¤Ĺà¤¹à¤°": 1194, "à¤®à¤¯": 1195, "Ġà¥®": 1196, "Ġ23": 1197, "à¤ªà¤¹à¤²": 1198, "Ġà¤ıà¤ľ": 1199, "à¤«à¤°": 1200, "à¤Łà¤µà¤°": 1201, "Ġà¤®à¤ľ": 1202, "ont": 1203, "à¤ĩà¤¨à¤®": 1204, "Ġà¤Ķà¤¸à¤¤": 1205, "Ġà¤īà¤¸à¤¸": 1206, "à¤ıà¤«": 1207, "à¤Łà¤¤": 1208, "ass": 1209, "ĠÂ": 1210, "ĠO": 1211, "à¤ĩà¤¸à¤¸": 1212, "Ġà¤¬à¤¨à¤¨": 1213, "nd": 1214, "Ġà¤ħà¤µà¤¶": 1215, "Ġ100": 1216, "à¤ķà¤Ī": 1217, "Ġà¤²à¤®": 1218, "Ġ+": 1219, "Ġà¤ķà¤Ł": 1220, "à¤¦à¤¯": 1221, "unction": 1222, "ĠTiP": 1223, "ĠTiT": 1224, "à¥¦à¥¦à¥¦": 1225, "Ġà¤ķà¤ķ": 1226, "Ġ2018": 1227, "Ġpar": 1228, "Ġ22": 1229, "Ġ$": 1230, "à¤ħà¤®": 1231, "Ġà¤ħà¤¸à¤®": 1232, "à¤®à¤ª": 1233, "à¤Ĺà¤£": 1234, "à¤ļà¤¤": 1235, "Ġà¤Ĩà¤ı": 1236, "Ġà¤«à¤²": 1237, "à¤Ĩà¤ľ": 1238, "Ġà¤īà¤ªà¤ļ": 1239, "Ġà¤¨à¤®": 1240, "à¤¦à¤²": 1241, "av": 1242, "Ġà¤Ĩà¤®à¤¤": 1243, "à¤¬à¤¤": 1244, "Ġà¤®à¤ķ": 1245, "ĠV": 1246, "à¤¶à¤°": 1247, "Ġà¤ħà¤µà¤¸à¤°": 1248, "Ġ2006": 1249, "à¤łà¤ķ": 1250, "à¤ħà¤¬": 1251, "ang": 1252, "Ġà¤Ĩà¤ł": 1253, "Ġà¤Ńà¤ķ": 1254, "Ġà¤ªà¤Ł": 1255, "Ġà¤®à¤ľà¤¬": 1256, "Ġà¤¦à¤¬": 1257, "Ġà¤Ĩà¤¸à¤ª": 1258, "Ġà¤ħà¤Ĺà¤²": 1259, "Ġà¤Ĩà¤ļ": 1260, "quot": 1261, "Ġà¤īà¤¨à¤®": 1262, "Ġà¤¬à¤¨à¤¤": 1263, "à¤¯à¤§": 1264, "199": 1265, "à¤µà¤Ł": 1266, "Ġ50": 1267, "Ġwith": 1268, "Ġà¤ĩà¤°": 1269, "Ġà¤¨à¤ľ": 1270, "ri": 1271, "à¤²à¤Ń": 1272, "Ġà¤¸à¤µ": 1273, "Ġ}": 1274, "Ġà¤¤à¤¨": 1275, "17": 1276, "15": 1277, "à¤¨à¤Ĺà¤°": 1278, "Ġde": 1279, "Ġà¤ıà¤ļ": 1280, "à¤ªà¤¶": 1281, "à¤¸à¤²à¤®": 1282, "à¤¹à¤¤à¤°": 1283, "Ġ2010": 1284, "à¤ªà¤ļ": 1285, "10": 1286, "Ġà¤īà¤¸à¤®": 1287, "Ġà¤ıà¤ķà¤²": 1288, "Ġà¥§à¥«": 1289, "Ġ2019": 1290, "à¤ĩà¤¸à¤²": 1291, "and": 1292, "Ġas": 1293, "Ġà¤ķà¤°à¤µ": 1294, "à¤Ĺà¤¡": 1295, "Ġà¤ļà¤®": 1296, "Ġà¤ħà¤Ĺà¤°": 1297, "Ġà¤«à¤°à¤µà¤°": 1298, "ess": 1299, "à¤Ńà¤ķ": 1300, "ak": 1301, "à¤Ĺà¤ľ": 1302, "Ġk": 1303, "Ġà¤ªà¤¸": 1304, "Ġthis": 1305, "Ġ&": 1306, "Ġà¤¦à¤µ": 1307, "Ġcl": 1308, "Ġ192": 1309, "à¤°à¤¥": 1310, "Ġà¤ĩà¤ļ": 1311, "Ġà¤ľà¤µ": 1312, "Ġà¤ļà¤²à¤¨": 1313, "Ġ2014": 1314, "ight": 1315, "Ġ2017": 1316, "16": 1317, "Ġit": 1318, "à¤¦à¤¶": 1319, "à¤ªà¤Ł": 1320, "op": 1321, "Ġà¤ļà¤¨": 1322, "Ġ2016": 1323, "Ġà¤īà¤ªà¤°": 1324, "Ġnow": 1325, "Ġthat": 1326, "à¤µà¤§": 1327, "à¤ıà¤ļ": 1328, "og": 1329, "ill": 1330, "à¤¶à¤µ": 1331, "ame": 1332, "à¤īà¤ªà¤°": 1333, "à¤ĩà¤ª": 1334, "Ġare": 1335, "à¤¨à¤Ł": 1336, "Ġà¥§à¥Ń": 1337, "à¤°à¤«": 1338, "à¤¹à¤¦": 1339, "Ġà¤ħà¤ĸ": 1340, "Ġà¤ªà¤µ": 1341, "Ġà¤ķà¤¹à¤¨": 1342, "Ġà¤ªà¤ķà¤¡": 1343, "The": 1344, "est": 1345, "50": 1346, "Ġà¤Ľà¤¹": 1347, "à¥¯à¥": 1348, "Ġà¤¬à¤¹à¤¨": 1349, "Ġà¤¨à¤µà¤®": 1350, "Ġex": 1351, "à¤¬à¤ķ": 1352, "à¤¡à¤ķ": 1353, "à¤ĩà¤¨à¤²": 1354, "à¤µà¤¦": 1355, "Ġ26": 1356, "12": 1357, "Ġtemplate": 1358, "ng": 1359, "Ġà¥§à¥¨": 1360, "ive": 1361, "à¤īà¤Ł": 1362, "Ġ2015": 1363, "à¤£à¤¤": 1364, "ink": 1365, "Ġà¤ıà¤«": 1366, "ain": 1367, "Ġà¤Ĺà¤łà¤¨": 1368, "Ġà¤¸à¤®à¤ķ": 1369, "Ġà¤Ńà¤µà¤¨": 1370, "tic": 1371, "Ġà¤Īà¤°": 1372, "Ġnowiki": 1373, "Ġà¤ªà¤²": 1374, "ĠâĢĿ": 1375, "Ġyou": 1376, "à¤ķà¤¤à¤°": 1377, "Ġà¤ħà¤¡": 1378, "à¤¦à¤Ĺ": 1379, "ort": 1380, "Ġà¤ªà¤°à¤¨": 1381, "Ġà¤ıà¤ķà¤¤": 1382, "Ġà¥§à¥¯à¥¯à¥": 1383, "Ġà¤ĸà¤¤à¤°": 1384, "Ġ27": 1385, "Ġnot": 1386, "à¤²à¤ª": 1387, "à¤īà¤¸à¤¨": 1388, "à¤ķà¤¹": 1389, "ĠJ": 1390, "Ġsu": 1391, "Ġ40": 1392, "Ġà¤ħà¤¹à¤®": 1393, "à¤Ĩà¤¨": 1394, "à¤ħà¤ķ": 1395, "à¤ĺà¤Łà¤¨": 1396, "Ġ28": 1397, "Ġform": 1398, "à¤¸à¤Ń": 1399, "Ġwh": 1400, "à¤¤à¤¬": 1401, "Ġ2005": 1402, "Ġà¥§à¥¯à¥®": 1403, "Ġclass": 1404, "ĠâĢľ": 1405, "à¤°à¤ķà¤Ł": 1406, "14": 1407, "Ġà¤ļà¤¢": 1408, "Ġà¤ķà¤¸": 1409, "Ġ2013": 1410, "à¤Ńà¤µà¤¤": 1411, "à¤ĩà¤¬": 1412, "à¤ķà¤²à¤¨": 1413, "Ġ2011": 1414, "Ġà¥§à¥¬": 1415, "se": 1416, "eb": 1417, "Ġà¤Ĩà¤¦à¤°": 1418, "Ġà¤¸à¤¤à¤¹": 1419, "pt": 1420, "Ġà¤®à¤¹à¤²": 1421, "Ġà¤Ĺà¤²à¤¤": 1422, "à¤¾à¥ħ": 1423, "à¤¯à¤¶": 1424, "Ġ2000": 1425, "Ġà¤Īà¤¶": 1426, "Ġpro": 1427, "à¤¯à¤¯": 1428, "à¤ľà¤Ĺ": 1429, "Ġà": 1430, "ax": 1431, "Ġ2012": 1432, "ov": 1433, "Th": 1434, "Ġà¤ªà¤¨": 1435, "à¤¶à¤¯": 1436, "Ġà¤¯à¤¥": 1437, "Ġ*": 1438, "à¤Ĺà¤ķà¤°": 1439, "Ġà¤ıà¤ķà¤®": 1440, "Ġ#": 1441, "à¤Ĩà¤§": 1442, "Ġà¤ªà¤¦à¤ķ": 1443, "Ġà¤¨à¤·": 1444, "à¤¯à¤¨à¤¶": 1445, "à¤¤à¤ļ": 1446, "Ġà¤Ķà¤¦": 1447, "à¤ķà¤¥": 1448, "ec": 1449, "Ġfr": 1450, "à¤®à¤µ": 1451, "Ġà¤ıà¤ª": 1452, "à¤µà¤¹à¤¨": 1453, "Ġà¥§à¥¦": 1454, "à¤ľà¤¤": 1455, "Ġà¥«à¥Ń": 1456, "Ġà¥§à¥¯à¥Ń": 1457, "Ġà¥«à¥®": 1458, "Ġà¤°à¤µ": 1459, "Ġà¤ľà¤Ł": 1460, "ĠâĢĭ": 1461, "à¤§à¤µ": 1462, "à¤¨à¤¤à¤®": 1463, "à¤°à¤ķà¤°": 1464, "Ġfunction": 1465, "Ġà¥Ńà¥®": 1466, "âĢį": 1467, "à¤¡à¤¬": 1468, "amet": 1469, "Ġà¤ĳà¤ķ": 1470, "à¤°à¤®à¤¶": 1471, "30": 1472, "à¤¼à¥Ī": 1473, "Ġà¤ĭà¤·": 1474, "à¤·à¤§": 1475, "Ġâ": 1476, "ere": 1477, "à¤°à¤Ĺà¤¤": 1478, "à¤¨à¤µà¤°": 1479, "ial": 1480, "ĠØ": 1481, "à¤¸à¤Ĺà¤¢": 1482, "Ġà¤°à¤ļ": 1483, "ice": 1484, "à¤ħà¤ª": 1485, "à¤Ĺà¤¸": 1486, "Ġcom": 1487, "à¤²à¤¹": 1488, "11": 1489, "Ġà¤Ĩà¤¯à¤°": 1490, "Ġà¤Ĩà¤ĸ": 1491, "tt": 1492, "Ġà¤²à¤ĺ": 1493, "Ġà¤ªà¤Łà¤¨": 1494, "Ġà¤ĩà¤¨à¤®": 1495, "Ġà¤Ńà¤¯": 1496, "Ġà¤ķà¤£": 1497, "Ġà¤Ĩà¤Īà¤¸": 1498, "Ġà¤ļà¤¯à¤¨": 1499, "à¤µà¤£": 1500, "Ġ2004": 1501, "Ġà¤¸à¤°à¤²": 1502, "Ġà¤¹à¤¥": 1503, "Ġsh": 1504, "Ġ29": 1505, "Ġà¤ľà¤¨à¤°à¤²": 1506, "13": 1507, "ld": 1508, "orm": 1509, "Ġ190": 1510, "ula": 1511, "Ġà¥¥": 1512, "à¤·à¤ľ": 1513, "ity": 1514, "à¤¯à¤Łà¤ķ": 1515, "à¤°à¤¸à¤¨": 1516, "Ġà¤ķà¤ªà¤¡": 1517, "Ġà¤ĺà¤Ł": 1518, "Ġà¤ļà¤¤": 1519, "Ġà¤ıà¤°": 1520, "à¤ħà¤Ń": 1521, "ind": 1522, "Ġà¤īà¤¨à¤¸": 1523, "Ġà¤īà¤ªà¤Ń": 1524, "Ġà¥§à¥ª": 1525, "Ġà¤Ĺà¤²": 1526, "ant": 1527, "à¤¦à¤¬": 1528, "so": 1529, "Ġà¤¦à¤¶": 1530, "Ġà¥§à¥¯à¥¬": 1531, "à¤ķà¤¸à¤Ń": 1532, "198": 1533, "edia": 1534, "à¤®à¤ľ": 1535, "à¤Łà¤¸": 1536, "à¤µà¤Ń": 1537, "à¤¡à¤¸": 1538, "à¤¨à¤Ī": 1539, "à¤¦à¤ª": 1540, "Ġà¤Ĩà¤¹": 1541, "ip": 1542, "enter": 1543, "à¤®à¤¶": 1544, "low": 1545, "Ġby": 1546, "à¤ķà¤²à¤¤": 1547, "196": 1548, "22": 1549, "Ġparamet": 1550, "Ġà¤¸à¤®à¤Ŀà¤¨": 1551, "à¤Ĺà¤ª": 1552, "ra": 1553, "Ġà¥¦": 1554, "à¤¯à¤ľ": 1555, "ine": 1556, "Ġà¤ľà¤¡": 1557, "Ġà¤ĭà¤£": 1558, "Ġà¤¹à¤¦": 1559, "Ġà¤ħà¤£": 1560, "ex": 1561, "à¤ĺà¤¨": 1562, "Ġà¤Ĺà¤ł": 1563, "21": 1564, "à¤¯à¤Łà¤¨": 1565, "Ġbr": 1566, "Ġà¤ľà¤¨à¤ľ": 1567, "Ġà¥¯": 1568, "Ġcon": 1569, "Ġ2020": 1570, "Ġà¤ļà¤Ł": 1571, "lock": 1572, "Ġà¤¸à¤¹à¤®à¤¤": 1573, "à¤¨à¤ļ": 1574, "Ġà¤®à¤¤à¤²à¤¬": 1575, "Ġà¤®à¤Ĺ": 1576, "ĠÂ°": 1577, "Ġà¥§à¥©": 1578, "Ġcan": 1579, "yle": 1580, "local": 1581, "à¤ľà¤¨à¤ķ": 1582, "25": 1583, "à¤Ļ": 1584, "ĠSE": 1585, "à¤£à¤ķ": 1586, "à¤¬à¤¡": 1587, "Ġà¥§à¥¯": 1588, "ans": 1589, "à¤¸à¤¬": 1590, "Ġà¤¡à¤¬": 1591, "à¤²à¤ļ": 1592, "Ġà¤ľà¤²à¤µ": 1593, "Ġà¥§à¥¯à¥ª": 1594, "Ġ2002": 1595, "à¤°à¤¹à¤µ": 1596, "Ġà¤īà¤ľ": 1597, "à¤£à¤µà¤¤": 1598, "Ġ2003": 1599, "ult": 1600, "ĠTy": 1601, "à¤ļà¤µ": 1602, "ttp": 1603, "ies": 1604, "ver": 1605, "ew": 1606, "Ġà¥§à¥¯à¥«": 1607, "ĠCat": 1608, "ĠâĢĶ": 1609, "Ġun": 1610, "à¤¥à¤¶": 1611, "Ġà¤Ĩà¤¦à¤®": 1612, "Ġà¤Ńà¤Ł": 1613, "Ġà¤ħà¤¹": 1614, "ĠSar": 1615, "ment": 1616, "à¤£à¤µ": 1617, "Ġ70": 1618, "Ġ00": 1619, "ĠMag": 1620, "Ġà¤ľà¤¯": 1621, "Ġà¤Ĺà¤¦": 1622, "ata": 1623, "à¤¸à¤«": 1624, "Ġà¤īà¤·": 1625, "à¤ªà¤¥": 1626, "Ġcol": 1627, "à¤°à¤«à¤²": 1628, "à¥¨à¥¦": 1629, "ect": 1630, "ical": 1631, "à¤¨à¤¹": 1632, "able": 1633, "Ġà¤¤à¤¯": 1634, "Ġ2001": 1635, "Ġà¤ľà¤Ĺà¤¤": 1636, "Ġà¤Ĩà¤ªà¤¸": 1637, "Ġà¤¯à¤ľ": 1638, "Ġà¤Łà¤°": 1639, "ord": 1640, "ase": 1641, "Ġ09": 1642, "à¤ĸà¤ķà¤°": 1643, "à¤¯à¤¤à¤¨": 1644, "à¤Īà¤Ł": 1645, "Ġà¤Ĩà¤Ĺà¤°": 1646, "Ġà¤ħà¤¹à¤®à¤¦": 1647, "art": 1648, "Ġ189": 1649, "ĠGam": 1650, "Ġà¤īà¤ªà¤ľ": 1651, "ore": 1652, "Ġà¤ĩà¤¬": 1653, "à¤¤à¤¸": 1654, "This": 1655, "Ġuse": 1656, "pp": 1657, "Ġà¤ĳà¤ªà¤°": 1658, "197": 1659, "ĠMem": 1660, "à¤°à¤°": 1661, "Ġà¤ĺà¤¨": 1662, "ack": 1663, "Ġu": 1664, "ĠMax": 1665, "ard": 1666, "ĠLoc": 1667, "Ġad": 1668, "ĠMap": 1669, "Ġ60": 1670, "png": 1671, "Ġcenter": 1672, "Ġblock": 1673, "ign": 1674, "ĠDur": 1675, "Cap": 1676, "à¤¤à¤Ĺ": 1677, "à¤ľà¤¨à¤¸": 1678, "Ġà¤Ĩà¤īà¤Ł": 1679, "Ġà¤ĩà¤¸à¤¨": 1680, "Ġpage": 1681, "à¤¯à¤°à¤¸": 1682, "Ġà¤®à¤¹à¤¸": 1683, "Ġtr": 1684, "ĠWid": 1685, "Ġ31": 1686, "§à¥¦": 1687, "Ġà¤¤à¤¸": 1688, "Ġà¤Ķà¤·à¤§": 1689, "ĠTiG": 1690, "ĠPhCap": 1691, "ĠTiPB": 1692, "ĠTiPE": 1693, "ĠTiTB": 1694, "ĠTiTE": 1695, "ĠSaros": 1696, "24": 1697, "Ġstyle": 1698, "ox": 1699, "Ġà¤«à¤¸à¤²": 1700, "__": 1701, "Ġà¤²à¤ķà¤¡": 1702, "à¤¨à¤¡": 1703, "à¤¤à¤ľ": 1704, "à¤Ĺà¤¶": 1705, "à¤¶à¤®": 1706, "à¤¯à¤ķà¤°": 1707, "ee": 1708, "Ġch": 1709, "à¤łà¤Ń": 1710, "Ġà¤ĸà¤¨": 1711, "à¤ªà¤¡": 1712, "Ġ35": 1713, "Ġ1990": 1714, "Ġà¤Ĺà¤µà¤°": 1715, "à¥¨à¥¦à¥": 1716, "iz": 1717, "à¤£à¤¸": 1718, "Ġ80": 1719, "Ġà¤ħà¤¯": 1720, "ound": 1721, "Ġat": 1722, "our": 1723, "23": 1724, "Ġà¤¬à¤®": 1725, "ates": 1726, "Ġartic": 1727, "ated": 1728, "Ġà¤¸à¤°à¤¸": 1729, "Ġà¤¹à¤¡": 1730, "à¤ļà¤®": 1731, "à¤ıà¤Ł": 1732, "Ġà¤®à¤Ľà¤²": 1733, "Ġà¤ķà¤¦à¤®": 1734, "à¤¤à¤¥": 1735, "ple": 1736, "Ġquot": 1737, "Ġà¤¡à¤°": 1738, "ich": 1739, "à¤ħà¤¸": 1740, "Ġà¤ĳà¤°": 1741, "all": 1742, "57": 1743, "ian": 1744, "à¤ķà¤¤à¤®": 1745, "Ġ188": 1746, "Ġà¤Ĺà¤£à¤°": 1747, "Ġà¤ķà¤®à¤ľ": 1748, "à¤¸à¤ļ": 1749, "26": 1750, "com": 1751, "à¤ıà¤¶à¤¨": 1752, "à¤µà¤¸à¤¨": 1753, "à¤¦à¤¤": 1754, "Ġformula": 1755, "ite": 1756, "Ġà¤īà¤ªà¤Ĺ": 1757, "ext": 1758, "à¤¶à¤¸": 1759, "Ġgo": 1760, "Ġà¤¨à¤¸": 1761, "Ġle": 1762, "Ġà¤ĵà¤¡": 1763, "à¤ĩà¤°": 1764, "Ġfrom": 1765, "ace": 1766, "40": 1767, "Ġà¤Ĳà¤²": 1768, "quote": 1769, "Ġà¤°à¤¤": 1770, "Ġà¤°à¤ľ": 1771, "Ġdis": 1772, "Ġà¤īà¤Ĺ": 1773, "à¤ħà¤Ĺà¤°": 1774, "Ġà¤ķà¤®à¤°": 1775, "Ġblockquote": 1776, "28": 1777, "Ġim": 1778, "à¤ĸà¤¨à¤Ĭ": 1779, "à¤ľà¤¶": 1780, "à¤Łà¤«": 1781, "Ġà¤¹à¤¨": 1782, "Ġused": 1783, "Ġà¤Ńà¤²": 1784, "Ġà¤ĸà¤¤": 1785, "Ġà¥¨à¥«": 1786, "Ġà¤ĩà¤Łà¤²": 1787, "Ġà¤Ĩà¤Ń": 1788, "à¤¸à¤¬à¤¸": 1789, "log": 1790, "Ġ1999": 1791, "à¤°à¤ľà¤¨": 1792, "Ġà¤¸à¤Ł": 1793, "ĠX": 1794, "à¤¯à¤¡": 1795, "à¤Ĩà¤ª": 1796, "à¤Ľà¤¤": 1797, "ould": 1798, "à¤¼à¥ī": 1799, "Ġà¥¯à¥": 1800, "ĠIn": 1801, "Ġà¤īà¤¤à¤¨": 1802, "ave": 1803, "Ġen": 1804, "Ġà¤·": 1805, "ib": 1806, "ary": 1807, "à¥§à¥®": 1808, "Ġpr": 1809, "ue": 1810, "à¤¶à¤¹à¤°": 1811, "Ġà¤ĩà¤ľ": 1812, "ther": 1813, "à¤¶à¤ľ": 1814, "à¤ľà¤¬à¤ķ": 1815, "à¤¼à¥Ĥ": 1816, "à¤²à¤¦": 1817, "à¤¯à¤Ĺà¤¢": 1818, "60": 1819, "form": 1820, "Ġà¤Ķà¤ªà¤ļ": 1821, "odice": 1822, "à¤¦à¤°à¤Ĺ": 1823, "per": 1824, "Ġhe": 1825, "à¤·à¤°à¤¤": 1826, "à¤°à¤·": 1827, "Ġà¤ľà¤¯à¤ª": 1828, "Ġà¥§à¥¯à¥©": 1829, "à¤¨à¤¬": 1830, "à¤µà¤®": 1831, "Ġà¤ıà¤Ł": 1832, "Ġlink": 1833, "à¤ĩà¤ķà¤²": 1834, "Ġà¤¬à¤¨à¤µ": 1835, "Ø§": 1836, "Ġà¤¨à¤²": 1837, "27": 1838, "à¤¿âĢį": 1839, "Ġà¤ªà¤°à¤¤": 1840, "Ġà¤ĺà¤Łà¤ķ": 1841, "à¤§à¤ª": 1842, "Ġà¤ĵà¤µà¤°": 1843, "ast": 1844, "à¤ķà¤¶": 1845, "ust": 1846, "umb": 1847, "ages": 1848, "Ġà¤ķà¤µà¤°": 1849, "à¤¹à¤¬": 1850, "ell": 1851, "Ġà¤Ľà¤µ": 1852, "Ġ1980": 1853, "'s": 1854, "à¤Īà¤²": 1855, "Ġà¤ĸà¤Ĺ": 1856, "Ġalso": 1857, "ikip": 1858, "à¤Ĩà¤®": 1859, "à¤īà¤²": 1860, "Ġfont": 1861, "les": 1862, "Ġà¤ªà¤¹à¤¨": 1863, "Ġcont": 1864, "ames": 1865, "Ġà¤ļà¤®à¤ķ": 1866, "Ġà¤¸à¤¬à¤ķ": 1867, "à¤¦à¤¸": 1868, "à¤ĩà¤«": 1869, "à¤¯à¤Ń": 1870, "Ġhigh": 1871, "Ġà¤Ńà¤Ĺ": 1872, "Ġà¤µà¤¨à¤¸": 1873, "à¤¯à¤¥": 1874, "ĠCh": 1875, "Ġx": 1876, "ish": 1877, "ub": 1878, "Ġà¤°à¤¹à¤¸": 1879, "à¤°à¤ĸà¤£": 1880, "Ġ1998": 1881, "Ġà¤ħà¤µà¤°": 1882, "Ġà¤¸à¤¸": 1883, "à¤Ĺà¤¡à¤®": 1884, "à¤¶à¤¬": 1885, "Ġà¥§à¥¯à¥¨": 1886, "fer": 1887, "Ġà¤®à¤²à¤¯": 1888, "Ġ45": 1889, "arch": 1890, "Ġà¤°à¤£à¤¨": 1891, "Ġcolor": 1892, "47": 1893, "Ġà¤ĭà¤¤": 1894, "à¤°à¤¬à¤¨": 1895, "à¤£à¤ª": 1896, "Ġweb": 1897, "Ġà¤¬à¤Ĺ": 1898, "Ġà¥§à¥§": 1899, "Ġà¤®à¤¤à¤¦": 1900, "à¤¯à¤Ł": 1901, "ure": 1902, "Ġà¤²à¤ĸà¤¨à¤Ĭ": 1903, "Ġwill": 1904, "Ġab": 1905, "gr": 1906, "ok": 1907, "Ġà¤¬à¤ļà¤ªà¤¨": 1908, "Ġà¤¬à¤¦à¤²à¤¨": 1909, "Ġà¤¶à¤²": 1910, "Ġà¤łà¤¹à¤°": 1911, "Ġà¤ķà¤ļ": 1912, "nt": 1913, "à¥¨à¥¦à¥§à¥": 1914, "light": 1915, "ĠII": 1916, "Ġà¤¶à¤¹": 1917, "Ġà¤Ĩà¤¯à¤°à¤²": 1918, "Ġà¤¦à¤°à¤¬": 1919, "Ġà¤ªà¤°à¤¸": 1920, "Ġà¤«à¤²à¤¸": 1921, "Ġ135": 1922, "Ġi": 1923, "à¤ķà¤¬": 1924, "org": 1925, "ire": 1926, "à¥Ģ:": 1927, "Ġà¤²à¤Ĺà¤¨": 1928, "pr": 1929, "à¤°à¤¯à¤¤": 1930, "à¤ľà¤¦": 1931, "Ġà¤ħà¤«à¤Ĺ": 1932, "urn": 1933, "ah": 1934, "Ġ187": 1935, "à¤īà¤ª": 1936, "Ġà¤ĸà¤£": 1937, "ph": 1938, "à¤¼à¥ĩà¤Ĥ": 1939, "Ġà¤Ńà¤°à¤¤": 1940, "à¤«à¤¨": 1941, "à¤¸à¤ķà¤°": 1942, "ikipedia": 1943, "Ġà¤®à¤Ĺà¤§": 1944, "Ġ90": 1945, "Ġà¤¡à¤¬à¤²": 1946, "Ġ1996": 1947, "Ġà¥¨à¥¦à¥¦à¥¯": 1948, "à¤Ńà¤¦": 1949, "Ġà¤¸à¤®à¤¨": 1950, "Ġgoog": 1951, "29": 1952, "Ġà¤Īà¤®": 1953, "Ġà¤¨à¤ľà¤°": 1954, "Ġà¤īà¤Ń": 1955, "à¤Ĺà¤ł": 1956, "Ġà¤¤à¤Ń": 1957, "à¤ķà¤Ń": 1958, "à¤ļà¤°à¤£": 1959, "ory": 1960, "à¤Ĺà¤Łà¤¨": 1961, "Ġà¤µà¤¨à¤¡": 1962, "Ġhttp": 1963, "Ġà¥¨à¥¦à¥§à¥¦": 1964, "Ġpl": 1965, "à¤ĸà¤Ń": 1966, "Ġà¤¬à¤ļà¤¨": 1967, "hen": 1968, "à¤Ĺà¤ķ": 1969, "ĠThe": 1970, "Ġà¤¬à¤¹à¤¤": 1971, "Ġà¥©à¥¦": 1972, "Ġà¤ªà¤ł": 1973, "Ġif": 1974, "Ġà¤ħà¤µà¤¤": 1975, "Ġà¤¦à¤¯": 1976, "Ġj": 1977, "à¤¨à¤Ĺ": 1978, "80": 1979, "tc": 1980, "Ġ1997": 1981, "à¤²à¤ľ": 1982, "à¤¸à¤Ł": 1983, "Ġà¤¶à¤¨": 1984, "Ġà¤Ľà¤ł": 1985, "à¤¶à¤ª": 1986, "Ġhighlight": 1987, "Ġ1970": 1988, "ÙĦ": 1989, "Ġ36": 1990, "Ġà¤īà¤ªà¤¦": 1991, "Ġ33": 1992, "Ġgtc": 1993, "à¤¯à¤°à¤¤": 1994, "yp": 1995, "à¤ıà¤¡": 1996, "à¤®à¤¹à¤¤": 1997, "195": 1998, "ob": 1999, "à¤£à¤®": 2000, "Ġà¥¨à¥ª": 2001, "Ġhave": 2002, "ĠY": 2003, "Ġparameter": 2004, "Ġà¤®à¤ł": 2005, "à¤¸à¤¹": 2006, "ĠSt": 2007, "angu": 2008, "Ġadd": 2009, "Ġà¤ħà¤¸à¤«à¤²": 2010, "ode": 2011, "Ġà¤¸à¤°à¤¦": 2012, "à®": 2013, "à¤ªà¤£à¤¨": 2014, "Ġà¤ıà¤¯à¤°à¤²": 2015, "Ġà¤ħà¤ķà¤¬à¤°": 2016, "Ġed": 2017, "à¤¸à¤°à¤£": 2018, "à¤¹à¤Ł": 2019, "Ġà¤¯à¤®": 2020, "Ġcodice": 2021, "Ġà¤īà¤¤à¤°": 2022, "à¤ķà¤¦à¤®": 2023, "à¤Łà¤ķà¤°": 2024, "Ġà¤ıà¤¥à¤²": 2025, "à¤²à¤Ĺà¤Ńà¤Ĺ": 2026, "nr": 2027, "ĠInd": 2028, "Ġà¤ķà¤®à¤²": 2029, "Ġà¤ªà¤¥": 2030, "à¤·à¤ķà¤°": 2031, "à¤«à¤²à¤¤": 2032, "Ġà¤ĳà¤Ł": 2033, "à¤Łà¤ķà¤¥": 2034, "ong": 2035, "Ġà¤§à¤°à¤¤": 2036, "Ġname": 2037, "Ġ1992": 2038, "Ġtext": 2039, "Ġwhich": 2040, "ide": 2041, "à¤¹à¤µ": 2042, "Ġà¥¨à¥©": 2043, "ry": 2044, "Ġà¤ħà¤¸à¤²": 2045, "Ġnames": 2046, "à¤µà¤¤à¤¨": 2047, "Ġ500": 2048, "ions": 2049, "Ġà¤ħà¤Ł": 2050, "à¤®à¤°à¤£": 2051, "ft": 2052, "Ġfnr": 2053, "Ġà¤¬à¤¦à¤²à¤¤": 2054, "Ġà¤¦à¤¤": 2055, "Ġà¤¶à¤°à¤£": 2056, "à¤°à¤ľà¤¨à¤¨": 2057, "Ġà¤¨à¤®à¤ķ": 2058, "Ġ32": 2059, "Ġ1995": 2060, "Ġ1994": 2061, "à¤Ĩà¤²": 2062, "Ġà¤®à¤ľà¤¦": 2063, "à¥¨à¥¦à¥¦à¥": 2064, "ĠAn": 2065, "Ġà¤ªà¤¤à¤¨": 2066, "Ġà¤ĳà¤¨à¤²": 2067, "à¤ªà¤°à¤®": 2068, "out": 2069, "à¤Ĩà¤¯": 2070, "Ġà¤ĩà¤£": 2071, "Ġ1991": 2072, "Ġà¤¦à¤°à¤µ": 2073, "Ġà¤µà¤¯à¤¸": 2074, "à¤¸à¤¨à¤ķ": 2075, "à¤ķà¤£": 2076, "à¤ļà¤¤à¤®": 2077, "Ġ37": 2078, "Ġ1993": 2079, "Ġà¤¦à¤®": 2080, "ud": 2081, "Ġà¥¨à¥¨": 2082, "à¤¯à¤¬": 2083, "Ġà¤ķà¤²à¤ķà¤¤": 2084, "Ġ1960": 2085, "à¤¨à¤ľ": 2086, "Ġ007": 2087, "Ġà¤¤à¤°à¤²": 2088, "one": 2089, "ational": 2090, "Ġà¤µà¤ľà¤¨": 2091, "à¤īà¤¥": 2092, "gin": 2093, "Ġà¤Ĺà¤¨": 2094, "à¤µà¤¡": 2095, "ach": 2096, "Ġà¤¯à¤ķ": 2097, "Ġà¤ķà¤¤": 2098, "itle": 2099, "à¤¼à¥Į": 2100, "ost": 2101, "Ġarticle": 2102, "Ġà¤ªà¤ļ": 2103, "Ġà¤ĳà¤¨": 2104, "à¤ıà¤¨à¤ı": 2105, "Ġà¤īà¤Ńà¤°": 2106, "Ġ34": 2107, "Ùħ": 2108, "Ġà¤¸à¤¹à¤ľ": 2109, "Ġà¤īà¤¦à¤¯": 2110, "ile": 2111, "ear": 2112, "à¤¡à¤ķà¤°": 2113, "à¤¸à¤°à¤ķ": 2114, "tern": 2115, "Ġà¤°à¤£": 2116, "Ġà¤Ĩà¤Ĺà¤®à¤¨": 2117, "31": 2118, "à¤ħà¤Ĺà¤²": 2119, "Ġà¤®à¤¶à¤¹": 2120, "px": 2121, "Ġà¤ħà¤ªà¤µ": 2122, "à¤¬à¤ļ": 2123, "Ġ186": 2124, "Ġà¤¸à¤ĸ": 2125, "à¤²à¤¡": 2126, "Ġother": 2127, "à¤®à¤ķà¤°à¤£": 2128, "à¤ĭ": 2129, "Ġà¤¬à¤ķ": 2130, "Ġà¤ªà¤¤à¤²": 2131, "Ġà¤Ĭà¤¤à¤ķ": 2132, "Ġà¥¨à¥¦à¥§à¥§": 2133, "à¤¹à¤ľ": 2134, "Ġà¤ĵà¤®": 2135, "48": 2136, "ĠÎ": 2137, "Ġ38": 2138, "ff": 2139, "ations": 2140, "Ġedit": 2141, "act": 2142, "cc": 2143, "à¤ıà¤µ": 2144, "à¤¤à¤ķà¤°": 2145, "37": 2146, "à¥Ĩ": 2147, "36": 2148, "à¤ªà¤°à¤¨": 2149, "ular": 2150, "Ġà¤ħà¤Łà¤²": 2151, "à¤ıà¤°": 2152, "Ġà¤¨à¤¹à¤°": 2153, "Ġval": 2154, "Ġà¤ĩà¤Ł": 2155, "Ġà¤ļà¤°à¤®": 2156, "ence": 2157, "Ġà¤¸à¤¦à¤¨": 2158, "à¤īà¤ļ": 2159, "Ġbig": 2160, "Ġà¤µà¤ľ": 2161, "à¤ĩà¤¨à¤°": 2162, "à¤ĩà¤¸à¤¨": 2163, "Ġà¤¹à¤ķ": 2164, "45": 2165, "35": 2166, "Ġ75": 2167, "à¤¶à¤ķà¤¶": 2168, "Ġdes": 2169, "turn": 2170, "Ġà¤Ĩà¤ªà¤¨": 2171, "à¤Īà¤¯": 2172, "function": 2173, "à¤®à¤®": 2174, "Ġà¤ħà¤·": 2175, "à¤ªà¤¬": 2176, "Ġà¤Ĩà¤ĩ": 2177, "Ġ71": 2178, "ÙĨ": 2179, "Ġà¤Ĺà¤°à¤®": 2180, "à¤Ĩà¤ķ": 2181, "Ġà¤ĺà¤¡": 2182, "Ġà¤ĳà¤²": 2183, "âĢ¢": 2184, "ens": 2185, "Ġà¤ıà¤²à¤¬": 2186, "2007": 2187, "à¤¸à¤®à¤¯": 2188, "lect": 2189, "ath": 2190, "Ġà¤ªà¤Łà¤ķà¤¥": 2191, "à¤Ĺà¤®à¤¨": 2192, "Ġlist": 2193, "âĢĺ": 2194, "à¤ĵà¤¸": 2195, "Ġdiv": 2196, "à§": 2197, "In": 2198, "à¤Ĺà¤¦à¤°": 2199, "Ġà¤¬à¤Ł": 2200, "Ġà¤Łà¤¨": 2201, "Ġà¤ļà¤²à¤ķà¤°": 2202, "ning": 2203, "à°": 2204, "Ġà¤¬à¤¯": 2205, "Ġ185": 2206, "Ġà¤ĺà¤¨à¤¤": 2207, "Ġà¤µà¤²": 2208, "39": 2209, "Ġà¥¨à¥¬": 2210, "ous": 2211, "à¤ĳà¤¸": 2212, "à¤¸à¤ľ": 2213, "Ø±": 2214, "Ġ1989": 2215, "Ġ55": 2216, "à¤³": 2217, "Ġ300": 2218, "Ġ150": 2219, "ail": 2220, "Ġà¤Ĺà¤łà¤¬": 2221, "Ġdo": 2222, "à¤ıà¤Łà¤°": 2223, "Ġ48": 2224, "ual": 2225, "Ġà¥§à¥¯à¥§à¥": 2226, "Ġres": 2227, "Ġsub": 2228, "Ġà¤Ĭà¤·": 2229, "Ġà¤īà¤ķ": 2230, "Ġà¤ľà¤¸": 2231, "à¤ľà¤¨à¤µà¤°": 2232, "à¤§à¤ķà¤°": 2233, "Ġ1950": 2234, "99": 2235, "Ġà¤į": 2236, "Ġà¤ľà¤¨à¤ªà¤¦": 2237, "à¤Ĩà¤Ĺ": 2238, "Ġà¤²à¤¹à¤°": 2239, "à¤Ĺà¤²à¤ª": 2240, "Ġint": 2241, "ome": 2242, "à¤¦à¤°à¤²": 2243, "Ġà¤¤à¤ªà¤¸": 2244, "Ġà¤¸à¤®à¤Ŀà¤¤": 2245, "Ġà¥¨à¥¦à¥§à¥ª": 2246, "à¤Ĩà¤¦": 2247, "See": 2248, "à¤°à¤ķà¤²": 2249, "à¤¦à¤¨à¤¶": 2250, "Ġno": 2251, "à¤ľà¤°à¤¤": 2252, "38": 2253, "à¥§à¥«": 2254, "Ġà¤¸à¤®à¤Ĺ": 2255, "ug": 2256, "à¤Ńà¤Ĺà¤µ": 2257, "à¤Ĩà¤ªà¤ķ": 2258, "Ġà¤ħà¤ĸà¤¬": 2259, "Ġà¤¤à¤ª": 2260, "ai": 2261, "à¤µà¤¯à¤¨": 2262, "Ġà¤ıà¤¡à¤®": 2263, "Ġà¤ħà¤¸à¤°": 2264, "2012": 2265, "ep": 2266, "ll": 2267, "ĠUS": 2268, "du": 2269, "Ġref": 2270, "Ġ180": 2271, "Ġone": 2272, "à¤ªà¤µ": 2273, "Ġà¥¨à¥¦à¥¦à¥Ń": 2274, "Ġall": 2275, "à¤·à¤¸": 2276, "ote": 2277, "Ġà¤ıà¤²à¤¬à¤®": 2278, "à¤°à¤¬à¤²": 2279, "Ġà¤ıà¤£": 2280, "Ġà¤®à¤¹à¤°": 2281, "Ġà¤Ĩà¤°à¤ķ": 2282, "Ġà¤²à¤²": 2283, "ateg": 2284, "Ġà¤¨à¤ľà¤¦": 2285, "Ġà¤¬à¤ľà¤Ł": 2286, "Ġà¤¸à¤¹à¤¸": 2287, "Ġà¤Ĺà¤¹à¤¨": 2288, "70": 2289, "Ġà¤Ĳà¤¨": 2290, "Ġ72": 2291, "à¤«à¤¡": 2292, "ors": 2293, "à¤²à¤ĸ": 2294, "Us": 2295, "Ġà¤ªà¤¬": 2296, "erm": 2297, "Ġ1986": 2298, "Ġà¥¨à¥¦à¥¦à¥®": 2299, "Ġà¤®à¤¥": 2300, "eed": 2301, "à¥§à¥¨": 2302, "à¤ķà¤ķ": 2303, "ortal": 2304, "à¤¿à¤ĥ": 2305, "Ġà¤¡à¤ļ": 2306, "à¤¨à¤µà¤¤": 2307, "ank": 2308, "Ġà¤µà¤§": 2309, "ari": 2310, "Ġà¤ħà¤µà¤¯à¤µ": 2311, "Ġà¤ķà¤¥à¤¨": 2312, "Ġ1984": 2313, "Ġ1988": 2314, "Ġà¤ħà¤µà¤ķ": 2315, "à¥§à¥Ń": 2316, "Ġshould": 2317, "ric": 2318, "Ġà¤¸à¤ªà¤¨": 2319, "ork": 2320, "anguage": 2321, "à¤Ľà¤¡": 2322, "ces": 2323, "Ġà¥¨à¥Ń": 2324, "Ġà¤ĸà¤¬à¤°": 2325, "à¤Ľà¤¨": 2326, "Ġà¤¶à¤¤à¤ķ": 2327, "olog": 2328, "à¤łà¤¤": 2329, "Ġ1947": 2330, "Ġà¥¨à¥§": 2331, "2008": 2332, "Ġà¤ķà¤¦": 2333, "90": 2334, "à¤£à¤ķà¤Ł": 2335, "Ġà¤Ĺà¤µ": 2336, "If": 2337, "à¤¡à¤ª": 2338, "à¤°à¤£à¤¤": 2339, "Ġà¤Łà¤ķà¤°": 2340, "Ġsy": 2341, "à¤¹à¤ª": 2342, "Ġà¤¬à¤¹à¤¸": 2343, "ample": 2344, "à¤¤à¤°à¤¦": 2345, "Ġfol": 2346, "rit": 2347, "Ġà¤°à¤¦": 2348, "à¤¥à¤¤": 2349, "ule": 2350, "Ġtitle": 2351, "Ġà¥¨à¥®": 2352, "Ġspec": 2353, "33": 2354, "Ġ1985": 2355, "à¤¯à¤Ĺ": 2356, "Ġà¤²à¤µ": 2357, "ÛĮ": 2358, "Ġà¤ıà¤ķà¤¡": 2359, "Ġ65": 2360, "Ġhas": 2361, "à´": 2362, "Ġà¤¨à¤°à¤¸": 2363, "Ġpre": 2364, "ree": 2365, "à¤²à¤¹à¤µ": 2366, "à¤ªà¤Łà¤¨": 2367, "Ġà¤¥à¤°": 2368, "Ġ42": 2369, "aw": 2370, "à¤ĵà¤²": 2371, "ond": 2372, "à¤Ĭà¤¦": 2373, "Ġà¤®à¤¤à¤Ń": 2374, "Ġ47": 2375, "Ġà¤ĵà¤¬": 2376, "44": 2377, "Ġà¤¨à¤¨": 2378, "Ġdef": 2379, "à¤ĳà¤ķ": 2380, "Ġonly": 2381, "Ġwas": 2382, "play": 2383, "Ġstr": 2384, "Ġà¤°à¤ĸà¤ķà¤°": 2385, "put": 2386, "Ġà¤¬à¤ĸ": 2387, "Ġà¥§à¥¦à¥": 2388, "à¤²à¤¯à¤¨": 2389, "Ġà¤Ĺà¤ľ": 2390, "Ġbut": 2391, "Ġnumb": 2392, "à¤®à¤Ī": 2393, "Ġà¤ĩà¤¶": 2394, "à¤ķà¤Łà¤¤à¤®": 2395, "Ġso": 2396, "à²": 2397, "Ġtrans": 2398, "Ġmore": 2399, "à¤Ĳà¤¤": 2400, "Ġme": 2401, "Ġà¤ħà¤¸à¤®à¤°": 2402, "ake": 2403, "Ġà¤¹à¤®à¤¨": 2404, "Ġany": 2405, "cri": 2406, "à¤¨à¤¶": 2407, "ve": 2408, "Ġ1987": 2409, "à¤¸à¤®à¤¸": 2410, "lease": 2411, "Ġà¥«à¥¦": 2412, "Ġ1971": 2413, "2011": 2414, "ie": 2415, "Ġ39": 2416, "Ġparameters": 2417, "aj": 2418, "Ġà¤ĳà¤¡": 2419, "Ġà¥¨à¥¦à¥§à¥©": 2420, "Ġà¦": 2421, "Ġportal": 2422, "Ġà¤ĩà¤¨à¤¸": 2423, "ÙĪ": 2424, "Ġ1972": 2425, "For": 2426, "Ġà¤ħà¤ªà¤®": 2427, "ĠWikipedia": 2428, "Ġà¤Ľà¤ª": 2429, "Ġfollow": 2430, "ĠTh": 2431, "à¤¶à¤¦": 2432, "46": 2433, "Ġà¤ĩà¤ķà¤Ł": 2434, "Ġmay": 2435, "ount": 2436, "à¤ħà¤«": 2437, "Ġà¤ĩà¤µ": 2438, "Ġà¤ĸà¤²": 2439, "Ġà¥§à¥§à¥": 2440, "Ġ46": 2441, "Ġ_": 2442, "Ġà¤¨à¤¶": 2443, "Ġà¤Ĩà¤Īà¤Ł": 2444, "Ġà¤°à¤®": 2445, "ition": 2446, "Ġà¤®à¤Ĺà¤°": 2447, "ance": 2448, "à¤°à¤ļà¤²à¤¨": 2449, "Ġà¤ħà¤Ńà¤¯": 2450, "Ġdata": 2451, "Ġà¥§à¥¯à¥¦à¥": 2452, "Ġ64": 2453, "ype": 2454, "Ġà¤Ĩà¤¨à¤¨": 2455, "ption": 2456, "75": 2457, "Ġà¤®à¤ļ": 2458, "à¤¸à¤¤à¤¨": 2459, "Ġà¤ıà¤¬": 2460, "Ġ1000": 2461, "Ġ52": 2462, "ww": 2463, "à¤®à¤«": 2464, "Ġà¤¹à¤«": 2465, "à¤¨à¤¬à¤°": 2466, "Ġà¤µà¤ļà¤¨": 2467, "Ġà¤ľà¤¤": 2468, "Ġà¤Ĺà¤¡": 2469, "ĠAr": 2470, "Ġà¤Ĩà¤Īà¤ª": 2471, "Ġcomm": 2472, "Ġà¤īà¤ªà¤ķ": 2473, "Ġtt": 2474, "à¥ģà¤ĥ": 2475, "Ġapp": 2476, "Ġà¤Ĩà¤¯à¤¤": 2477, "ge": 2478, "ĠQ": 2479, "It": 2480, "à¤Łà¤ª": 2481, "ents": 2482, "Ġ1977": 2483, "Ġbegin": 2484, "oth": 2485, "Ġ56": 2486, "à¤ļà¤¸": 2487, "à¤ĩà¤µà¤°": 2488, "à¤¯à¤°à¤²": 2489, "à¤Łà¤°à¤«": 2490, "Ġ1975": 2491, "Ġà¤īà¤ªà¤®à¤¹": 2492, "ons": 2493, "à¥§à¥¯": 2494, "Ġà¤¤à¤²à¤µ": 2495, "à¤¶à¤¨à¤°": 2496, "Ġ44": 2497, "2006": 2498, "34": 2499, "Ġ08": 2500, "Ġid": 2501, "à¤ľà¤¨à¤¯": 2502, "Ġ07": 2503, "à¤ªà¤¹": 2504, "ĠAl": 2505, "32": 2506, "à¤¦à¤Ń": 2507, "rou": 2508, "ark": 2509, "Ġ1973": 2510, "rap": 2511, "Ġ59": 2512, "Ġà¤ķà¤¡à¤ª": 2513, "Ġà¤Ĩà¤¯à¤¨": 2514, "Ġ51": 2515, "à¤īà¤¡": 2516, "à¤¯à¤®à¤¨": 2517, "Ġ1982": 2518, "Ġdisplay": 2519, "áĢ": 2520, "Ġà¤ħà¤¨à¤¨": 2521, "à¤°à¤ķà¤°à¤£": 2522, "Ġà¥¨à¥¦à¥¦à¥¬": 2523, "Ġtemplates": 2524, "à¤®à¤ķà¤¤": 2525, "Ġ99": 2526, "ject": 2527, "à¥§à¥¬": 2528, "ike": 2529, "Ġà¥¨à¥¦à¥§à¥¬": 2530, "à¤ħà¤ľ": 2531, "int": 2532, "Ġrequ": 2533, "Ġà¤ħà¤µà¤²": 2534, "Ġà¤ĵà¤ªà¤¨": 2535, "sh": 2536, "Ġà¤¬à¤¦à¤²à¤ķà¤°": 2537, "à¤ĩà¤¬à¤°": 2538, "à¤ħà¤Ĺà¤¸": 2539, "Ġsection": 2540, "Ġà¤īà¤ªà¤¹": 2541, "Ġà¥§à¥¦à¥¦": 2542, "Ġà¤Ĩà¤ªà¤°": 2543, "Ġqu": 2544, "hy": 2545, "à¤Ĺà¤°à¤£": 2546, "à¤²à¤¶": 2547, "Ġà¤«à¤²à¤¨": 2548, "Ġà¥¨à¥¦à¥§à¥¨": 2549, "Ġà¤ĸà¤ľ": 2550, "Ġà¤ĵà¤¸": 2551, "à¤¨à¤«": 2552, "à¤īà¤ªà¤¨": 2553, "Ġyour": 2554, "are": 2555, "à¤¹à¤¯": 2556, "Ġà¥¨à¥¦à¥¦à¥¦": 2557, "Ġà¤ķà¤·": 2558, "Ġ1956": 2559, "2009": 2560, "Ġà¤Ĩà¤łà¤µ": 2561, "à¤ļà¤ķà¤°": 2562, "à¤ĺà¤µ": 2563, "49": 2564, "à¤¸à¤¡": 2565, "Ġ1979": 2566, "eg": 2567, "Ġ58": 2568, "Ġà¥¨à¥¦à¥§à¥«": 2569, "Ġ1948": 2570, "à¤¯à¤µà¤°": 2571, "Ġ400": 2572, "Ġ05": 2573, "à¤īà¤ľ": 2574, "à¤Ńà¤°à¤¤": 2575, "ĠPart": 2576, "ĠIS": 2577, "Ġà¤ıà¤¡à¤µà¤°": 2578, "irst": 2579, "à¤ªà¤ı": 2580, "à¤ĸà¤¦": 2581, "Ġ49": 2582, "à¤¥à¤¸": 2583, "à¤Ĩà¤ļ": 2584, "te": 2585, "88": 2586, "ĠZ": 2587, "à¤Īà¤¨": 2588, "BC": 2589, "Ġ1983": 2590, "à¤µà¤µà¤°": 2591, "à¤¦à¤¦": 2592, "Ġ04": 2593, "ding": 2594, "Ġà¤Ķà¤¸à¤¤à¤¨": 2595, "Ġà¤¨à¤ķà¤²": 2596, "à¤ĺà¤Ł": 2597, "Ġà¤¸à¤¦à¤°": 2598, "Ġà¤°à¤¥": 2599, "Ġà¤²à¤¤": 2600, "Ġà¤ľà¤²à¤ª": 2601, "ix": 2602, "à¤µà¤°à¤ķ": 2603, "Ġ06": 2604, "à¥§à¥ª": 2605, "Ġà¤¢à¤ķ": 2606, "err": 2607, "à¤Łà¤Ĺ": 2608, "à¤ĩà¤¡à¤°": 2609, "ics": 2610, "der": 2611, "Ġback": 2612, "Ġ41": 2613, "Ġwe": 2614, "Ġup": 2615, "Ġà¤²à¤ĸ": 2616, "Ġà¤Ĳà¤ķ": 2617, "ĠUn": 2618, "PA": 2619, "Ġà¤¬à¤¹à¤°": 2620, "à¤īà¤°": 2621, "Ġ1976": 2622, "à¨": 2623, "à¤ħà¤¶": 2624, "ener": 2625, "à¤®à¤¬": 2626, "à¤·à¤ª": 2627, "Ġà¤·à¤¡": 2628, "43": 2629, "à¤īà¤¸à¤®": 2630, "65": 2631, "à¤¸à¤¬à¤°": 2632, "Ġà¤ľà¤¨à¤¨": 2633, "ert": 2634, "Ġwww": 2635, "Ġà¤¥à¤ķ": 2636, "à¤µà¤Ĺ": 2637, "à¤ıà¤¸à¤ı": 2638, "ĠØ§": 2639, "gh": 2640, "Ġà¤Ķà¤ªà¤¨": 2641, "Ġà¤¸à¤Ĺ": 2642, "à¤Ĺà¤µà¤¤": 2643, "Ġà¤īà¤ªà¤¨à¤Ĺà¤°": 2644, "ss": 2645, "ĠÃ": 2646, "ism": 2647, "Usage": 2648, "à¤°à¤ł": 2649, "Ġ1978": 2650, "à¤²à¤ļà¤¸": 2651, "à¤Ĩà¤¸": 2652, "ĠCom": 2653, "2005": 2654, "âĢĮ": 2655, "à¥«à¥¦": 2656, "Ġà¤¸à¤¶à¤¸": 2657, "Ġà¤¨à¤Ĺ": 2658, "Ġ95": 2659, "Ġà¤¨à¤¤": 2660, "own": 2661, "odule": 2662, "rop": 2663, "Ġà¤Ĺà¤£à¤¤": 2664, "à¤¦à¤°à¤¤": 2665, "Ġà¤¯à¤¶": 2666, "Ġ85": 2667, "Ġ1967": 2668, "ative": 2669, "Ġà¤¸à¤¹à¤ķ": 2670, "Ġ1981": 2671, "Ġ1965": 2672, "Ġà¤¨à¤¬": 2673, "Ġà¤¦à¤¹": 2674, "à¤ĩà¤Ĺ": 2675, "à¤¦à¤¹": 2676, "à¤Łà¤ĩ": 2677, "Ġ43": 2678, "à¤§à¤®": 2679, "à¤ķà¤Ĺ": 2680, "à¤ľà¤Ń": 2681, "Ġà¤°à¤ĺ": 2682, "Ġà¤ĳà¤µ": 2683, "42": 2684, "Ġà¤Īà¤¸à¤µ": 2685, "Ġ1962": 2686, "à¤Łà¤°à¤ª": 2687, "Ġà¤¬à¤¨à¤ķà¤°": 2688, "à¤¸à¤¶": 2689, "Ġà¥ªà¥¦": 2690, "à¥§à¥©": 2691, "à¤Ĩà¤Īà¤Ł": 2692, "190": 2693, "2010": 2694, "Ġ\\": 2695, "ey": 2696, "à¤ĺà¤ķ": 2697, "à¤¸à¤Ĺ": 2698, "Ġà¤°à¤¹à¤ķà¤°": 2699, "Ġà¤¸à¤¤à¤¤": 2700, "ĠAnn": 2701, "Ġà¤¶à¤¸": 2702, "Ġà¤¸à¤°à¤²à¤¤": 2703, "à¤ıà¤¶": 2704, "à¤Ĩà¤µ": 2705, "Ġà¤¸à¤®à¤¤à¤²": 2706, "à¤īà¤¨à¤®": 2707, "Ġpo": 2708, "Ġà¤¬à¤ļà¤¤": 2709, "Ġà¤¨à¤Ĺà¤°à¤ª": 2710, "Ġà¤Ľà¤²": 2711, "ID": 2712, "ĠSh": 2713, "Ġ1930": 2714, "à¤ķà¤Łà¤¤": 2715, "à¤¹à¤ľà¤¹": 2716, "2014": 2717, "Ġà¤¬à¤°à¤¸": 2718, "à¤¤à¤¨à¤¤": 2719, "Ġ57": 2720, "NA": 2721, "Ġ1969": 2722, "Ġà¤¹à¤¸à¤¨": 2723, "à¤®à¤¹à¤²": 2724, "sp": 2725, "Ġà¥¨à¥¦à¥§à¥®": 2726, "Ġout": 2727, "ech": 2728, "Ġà¤¦à¤£": 2729, "Ġ1974": 2730, "ĠÐ": 2731, "à¤¸à¤®à¤°": 2732, "95": 2733, "Ġmet": 2734, "ĠPr": 2735, "Ġspecif": 2736, "Ġà¥¨à¥¦à¥§à¥Ń": 2737, "Ġà¤ĵà¤ķ": 2738, "Ġexample": 2739, "Ġà¤ľà¤¨à¤ķ": 2740, "à¤®à¤ķà¤¥": 2741, "Ġ53": 2742, "ck": 2743, "à¤°à¤Ĺà¤¢": 2744, "à¤¨à¤¸à¤¨": 2745, "à¤¹à¤£": 2746, "Ġ01": 2747, "ose": 2748, "Ġà¤§à¤®à¤ķ": 2749, "Ġà¤ĸà¤¤à¤°à¤¨": 2750, "indi": 2751, "____": 2752, "ae": 2753, "up": 2754, "Ġà¤Ńà¤¤": 2755, "Ġper": 2756, "ci": 2757, "à¤²à¤«": 2758, "Ġà¤ªà¤°à¤µà¤°": 2759, "Ġà¤Ŀà¤°à¤¨": 2760, "Ġusing": 2761, "Ġà¤«à¤¤": 2762, "à¤Ĩà¤ľà¤ķà¤²": 2763, "ground": 2764, "à¤¬à¤Ł": 2765, "Ġà¤Ńà¤°à¤¨": 2766, "ĠPartial": 2767, "Ġà¤°à¤¬": 2768, "Ġà¤¸à¤¹à¤¨": 2769, "85": 2770, "à¤Ńà¤²": 2771, "eld": 2772, "Ġà¤Ĩà¤ľà¤ķà¤²": 2773, "Ġhttps": 2774, "Ġà¤Ńà¤¦": 2775, "à¤°à¤®à¤°": 2776, "Ġà¤®à¤°à¤¨": 2777, "Ġà¤¸à¤ķà¤²": 2778, "¯à¥¦": 2779, "Ġà¤Ĩà¤¸à¤¨": 2780, "Ġà¤ıà¤ķà¤¦": 2781, "à¤²à¤¬à¤°": 2782, "Ġaut": 2783, "à¤Ńà¤¨": 2784, "Ġcre": 2785, "Ġfirst": 2786, "à¤Ĩà¤¶": 2787, "à¤ĺà¤®": 2788, "Ġ54": 2789, "Ġà¤ıà¤¡à¤µ": 2790, "Ġbeginning": 2791, "à¤®à¤Ł": 2792, "Ġnumber": 2793, "67": 2794, "Ġâĺ": 2795, "à¤ħà¤µ": 2796, "Ġ1952": 2797, "Ġà¤īà¤§": 2798, "à¤īà¤ªà¤¯": 2799, "Ġà¤®à¤ķà¤¬à¤°": 2800, "à¤ªà¤¸à¤®": 2801, "Ġà¤ĩà¤ľà¤°": 2802, "Ġtw": 2803, "ater": 2804, "Ġ1964": 2805, "à¤°à¤Ĩà¤¨": 2806, "alk": 2807, "Ġwhen": 2808, "Ġset": 2809, "ove": 2810, "Ġà¤ķà¤¹à¤ķà¤°": 2811, "à¥§à¥¯à¥¯à¥": 2812, "Ġimage": 2813, "à¤ĵà¤¨": 2814, "à¤ħà¤µà¤¸": 2815, "Ġà¤ıà¤Ĺ": 2816, "ize": 2817, "à¤ħà¤Ĺ": 2818, "Ġà¤²à¤µà¤£": 2819, "Ġà¤īà¤ªà¤µ": 2820, "Ġ03": 2821, "2004": 2822, "get": 2823, "http": 2824, "à¤ŀà¤¤": 2825, "otal": 2826, "Ġinf": 2827, "à¤µà¤¤à¤®": 2828, "att": 2829, "ault": 2830, "ru": 2831, "Ġà¤¸à¤¶à¤ķ": 2832, "Ġà¤®à¤¨à¤®": 2833, "stem": 2834, "Ġà¤¤à¤ĸ": 2835, "Ġ61": 2836, "à¤§à¤¶": 2837, "Ġà¤Ńà¤°à¤ª": 2838, "Ġ66": 2839, "à¤ļà¤²à¤¨": 2840, "Ġà¤Ĩà¤µà¤°": 2841, "Ġà¤Ĩà¤ĺ": 2842, "Ġarticles": 2843, "AT": 2844, "aus": 2845, "che": 2846, "Ġ1920": 2847, "Ġà¤ĵà¤ª": 2848, "Ġà¤¬à¤¤à¤²": 2849, "Ġlanguage": 2850, "à¤ķà¤¦": 2851, "Ġ1968": 2852, "1990": 2853, "Ġtable": 2854, "Ġcateg": 2855, "à¤°à¤¶à¤¸": 2856, "Ġcomp": 2857, "Ø¯": 2858, "Ġà¤¬à¤¸à¤¨": 2859, "Ġà¤µà¤°à¤¨": 2860, "à¤Ĩà¤Īà¤¸": 2861, "à¤¥à¤¯": 2862, "AS": 2863, "à¤¤à¤Ń": 2864, "à¤¯à¤²à¤Ł": 2865, "archive": 2866, "Ġlike": 2867, "à¤°à¤¸à¤°": 2868, "iss": 2869, "à¥§à¥¦": 2870, "ĠAnnular": 2871, "ET": 2872, "05": 2873, "lish": 2874, "Ġà¤īà¤¦à¤¯à¤ª": 2875, "à¤¼à¤¿à¤Ĥ": 2876, "à¤Īà¤ķ": 2877, "à¦¾": 2878, "ied": 2879, "tion": 2880, "Ġà¤µà¤¶": 2881, "Ġà¤¦à¤®à¤¨": 2882, "à¤¡à¤«": 2883, "à¤Ĩà¤®à¤¤": 2884, "Ġ1966": 2885, "Ġà¤īà¤łà¤¤": 2886, "Ġà¤ªà¤µà¤¨": 2887, "Ġà¤Ĩà¤ĩà¤¸": 2888, "96": 2889, "any": 2890, "Ġsee": 2891, "Ġco": 2892, "ime": 2893, "Ġlo": 2894, "à¤¹à¤¡": 2895, "Ġà¤ªà¤¹à¤²à¤µ": 2896, "Ġpages": 2897, "icro": 2898, "2001": 2899, "à¤«à¤°à¤µà¤°": 2900, "Ġ120": 2901, "à¤ħà¤®à¤°": 2902, "à¤²à¤Ŀ": 2903, "Ġam": 2904, "Ġà¤ħà¤ªà¤¹à¤°à¤£": 2905, "à¤°à¤ĸà¤ª": 2906, "ann": 2907, "Ġà¤Ĩà¤ļà¤°à¤£": 2908, "ield": 2909, "Ġà¥§à¥®à¥®": 2910, "ĠâĢ¢": 2911, "emb": 2912, "ĠWW": 2913, "ern": 2914, "Ġà¥¨à¥¦à¥¦à¥«": 2915, "Ġvalue": 2916, "Ġà¤°à¤ľà¤¤": 2917, "Ġà¤ļà¤²à¤ļ": 2918, "Ġ1961": 2919, "Ġà¤ªà¤£": 2920, "à¤ıà¤¸à¤¸": 2921, "Ġbackground": 2922, "Ġà¥¨à¥¦à¥¦à¥§": 2923, "àµ": 2924, "à¤¤à¤¶": 2925, "98": 2926, "Ġà¤ļà¤®à¤¤": 2927, "urr": 2928, "Ġ250": 2929, "à¤ķà¤ľ": 2930, "à¥ģ:": 2931, "Ġà¤ıà¤µà¤®": 2932, "Ġà¤Łà¤ķ": 2933, "500": 2934, "ev": 2935, "ÙĬ": 2936, "Ġneed": 2937, "Ġ68": 2938, "row": 2939, "Ġ1963": 2940, "Ġà¤ĵà¤²à¤®": 2941, "Ġ02": 2942, "Ġà¤¸à¤Ĭà¤¦": 2943, "à¤¯à¤ļ": 2944, "à¤µà¤ļà¤¨": 2945, "à¤Ńà¤ª": 2946, "roup": 2947, "Ġà¤¦à¤¸à¤µ": 2948, "Ġà¤ªà¤¹à¤¨à¤¨": 2949, "Ġnew": 2950, "Ġind": 2951, "Ġà¤ľà¤Ĺà¤¦": 2952, "Ġ~": 2953, "Ġà¤¶à¤µ": 2954, "port": 2955, "à¤Ĩà¤ĸ": 2956, "à¤ĵà¤°": 2957, "à¤Łà¤°à¤Ł": 2958, "à¤ªà¤¹à¤°": 2959, "Ġà¤ĳà¤ª": 2960, "its": 2961, "formation": 2962, "à¤¶à¤²à¤¤": 2963, "Ġinst": 2964, "1980": 2965, "68": 2966, "97": 2967, "Ġà¤¬à¤ķà¤°": 2968, "à¤²à¤²": 2969, "Ġà¤īà¤®à¤°": 2970, "Ġ1940": 2971, "à¤Ńà¤Ł": 2972, "Ġà¤¸à¤ķà¤¨": 2973, "Ġ67": 2974, "ĠâĤ": 2975, "Ġfollowing": 2976, "Ġà¤°à¤¶": 2977, "Ġ1955": 2978, "41": 2979, "à¤ķà¤ļ": 2980, "à¤ĸà¤®": 2981, "Ġ1957": 2982, "ange": 2983, "à¤¤à¤°à¤ª": 2984, "à¤°à¤µà¤£": 2985, "Ġà¤®à¤°à¤®": 2986, "ology": 2987, "07": 2988, "à¯": 2989, "Ġà¤īà¤¬": 2990, "à¤¤à¤°à¤ķ": 2991, "ĠEng": 2992, "Ġà¤ıà¤¥": 2993, "à¤Ĩà¤Īà¤µ": 2994, "Ġà¤ªà¤°à¤µ": 2995, "à¤ĩà¤¨à¤¸": 2996, "Ġà¤Ŀà¤²à¤ķ": 2997, "irect": 2998, "Ġà¥¨à¥¦à¥¦à¥ª": 2999, "Ġà¥§à¥®à¥¯à¥": 3000, "à¤¡à¤Ł": 3001, "Ġà¤§à¤®à¤¨": 3002, "à¤Łà¤²à¤°": 3003, "Ġ77": 3004, "Ġà¥§à¥®à¥«": 3005, "way": 3006, "Ġà¤Ĩà¤µà¤°à¤£": 3007, "Ġ1949": 3008, "IS": 3009, "har": 3010, "Ġà¤ķà¤°à¤£": 3011, "ating": 3012, "à¤¤à¤¦": 3013, "Ġà¤¦à¤«à¤¨": 3014, "ĠIII": 3015, "à¤¸à¤ªà¤°": 3016, "Ġ1945": 3017, "Ġà¤®à¤¦à¤¨": 3018, "Ġà¤°à¤«": 3019, "Ġà¤²à¤¦": 3020, "à¤ıà¤ª": 3021, "à¥¦à¥¨": 3022, "à¤ĩà¤¤à¤¨": 3023, "reen": 3024, "Ġà¤¸à¤®à¤ķà¤ķ": 3025, "Ġà¤¨à¤µà¤ľ": 3026, "Ġreturn": 3027, "Ġà¤¸à¤®à¤¤": 3028, "Ġà¤§à¤®": 3029, "Ġà¥¨à¥¦à¥¦à¥©": 3030, "à¤łà¤°": 3031, "erv": 3032, "Ġ1954": 3033, "Ġits": 3034, "ook": 3035, "Ġà¤§à¤ķ": 3036, "Ġarg": 3037, "à¤ªà¤°à¤ķ": 3038, "Ġà¤ħà¤ľà¤®": 3039, "à¤ĩà¤Ĺà¤°": 3040, "à¥§à¥¯à¥®": 3041, "à¤µà¤¨à¤ķ": 3042, "ick": 3043, "Ġ`": 3044, "à¤¸à¤µà¤°": 3045, "à¤ľà¤¯à¤¨": 3046, "Ġcode": 3047, "Ġpos": 3048, "AA": 3049, "Ġà¤ľà¤Ĺà¤¨": 3050, "Ġà¤®à¤¯": 3051, "Ġà¤ľà¤ľ": 3052, "à¥Ĭ": 3053, "à¥ĩà¥ĩ": 3054, "Ġà¤²à¤Łà¤ķ": 3055, "Ġthere": 3056, "à¥§à¥¯à¥Ń": 3057, "66": 3058, "87": 3059, "Ġà¤Ķà¤°à¤¤": 3060, "Ġà¤ĸà¤ªà¤¤": 3061, "Ġ73": 3062, "à¤Łà¤°à¤¸": 3063, "à¤Ĩà¤īà¤Ł": 3064, "ator": 3065, "Ġ97": 3066, "Ġà¤ħà¤¸à¤¹": 3067, "Ġà¤Ĩà¤Ł": 3068, "Ġà¤¶à¤ªà¤¥": 3069, "Ġà¤Ľà¤¨": 3070, "Ġwiki": 3071, "io": 3072, "à¤¨à¤¹à¤°": 3073, "Ġà¤²à¤ļ": 3074, "Ġà¤§à¤¡": 3075, "Ġbeen": 3076, "echn": 3077, "Ã©": 3078, "à¤¬à¤Ĺ": 3079, "à¤¨à¤®à¤¨": 3080, "Ġà¤Ķà¤ľ": 3081, "Ġà¤®à¤¹à¤®": 3082, "Ġ62": 3083, "Ġà¤ĭà¤Ĺ": 3084, "Ġà¤°à¤¹à¤®": 3085, "Ġabout": 3086, "à¤·à¤¯à¤ķ": 3087, "To": 3088, "ery": 3089, "à¤®à¤ļà¤°": 3090, "Ġà¤Ńà¤£": 3091, "Ġget": 3092, "Ġà¤Ĩà¤ķà¤²à¤¨": 3093, "ĠIndia": 3094, "Ð°": 3095, "à¤Łà¤¡": 3096, "Ġà¤ıà¤¹à¤¸": 3097, "à¤ħà¤¦": 3098, "Ġdif": 3099, "à¤Ĺà¤ªà¤¤": 3100, "Ġà¥¬à¥¦": 3101, "Ġà¤ħà¤ľà¤¯": 3102, "Ġà¤¬à¤°à¤ķà¤°": 3103, "à¤¼à¤Ĥ": 3104, "II": 3105, "Ġà¤Ĩà¤ªà¤¦": 3106, "à¤®à¤Ń": 3107, "à¤Īà¤°": 3108, "à¤¶à¤Ĺ": 3109, "à¤ħà¤¸à¤²": 3110, "ash": 3111, "89": 3112, "Ġà¤²à¤¨": 3113, "à¤ĸà¤¡": 3114, "à¤®à¤Ĺà¤¢": 3115, "à¥¦à¥©": 3116, "Ġac": 3117, "2003": 3118, "obox": 3119, "Ġà¤Ńà¤¡": 3120, "Ġà¤Ŀà¤Ĺà¤¡": 3121, "à¤®à¤ļà¤¨": 3122, "à¤¬à¤¹à¤°": 3123, "ĠTotal": 3124, "à¥¨à¥«": 3125, "Ġà¤Ĩà¤¶à¤¯": 3126, "86": 3127, "à¤¹à¤¨à¤¤": 3128, "à¤®à¤¨à¤Ĺà¤°": 3129, "à¤¡à¤Ĺ": 3130, "Ġà¤ªà¤¹à¤¨à¤¤": 3131, "Ġà¤ĩà¤¨à¤ª": 3132, "Ġwork": 3133, "order": 3134, "à¤¯à¤®à¤¯": 3135, "Ġframe": 3136, "Ġerr": 3137, "à¤łà¤®": 3138, "ĠAm": 3139, "Ġsuch": 3140, "à¤¤à¤¸à¤°": 3141, "55": 3142, "à½": 3143, "à¤į": 3144, "Ġà¤ħà¤°à¤°": 3145, "Ġà¤Ĭà¤¨": 3146, "Ġ1946": 3147, "à¤ıà¤¸à¤ıà¤¸": 3148, "Ġlinks": 3149, "Ġà¤°à¤ļà¤¯": 3150, "à¤ĩà¤°à¤¸": 3151, "Ġ63": 3152, "Ġà¤¹à¤¬": 3153, "à¤ĩà¤Łà¤²": 3154, "à¥¨à¥©": 3155, "Ġ1951": 3156, "Ġà¤ĸà¤¦": 3157, "Ġ1959": 3158, "ible": 3159, "Ġà¤ĵà¤Ł": 3160, "Ġinter": 3161, "TS": 3162, "par": 3163, "Ġà¤ĸà¤®": 3164, "Ġsome": 3165, "à¤°à¤ľà¤Ń": 3166, "à¤§à¤°à¤£": 3167, "Ġà¤ĩà¤¸à¤°": 3168, "à¤ĩà¤ªà¤°": 3169, "à¤°à¤¤à¤µà¤°": 3170, "return": 3171, "Ġrel": 3172, "Ġuser": 3173, "à¤£à¤¤à¤¯": 3174, "à¤ľà¤«": 3175, "https": 3176, "Ġà¤¡à¤ķ": 3177, "à¤Ľà¤µ": 3178, "à¤ħà¤°à¤¬": 3179, "Ġà¤Ĺà¤®": 3180, "ĠTr": 3181, "Ġdesign": 3182, "OS": 3183, "Ġà¤ĸà¤¨à¤¨": 3184, "à¤°à¤¹à¤®": 3185, "à¥¨à¥¬": 3186, "rib": 3187, "AN": 3188, "à¤®à¤¡": 3189, "à¤¬à¤ľ": 3190, "Ġà¤Ńà¤Ĺà¤µà¤¤": 3191, "Ġz": 3192, "Ġ600": 3193, "ĠNational": 3194, "2000": 3195, "à¤łà¤²": 3196, "Ġà¥©à¥«": 3197, "à¤ľà¤ķà¤¤": 3198, "à¤¥à¤Ĺ": 3199, "Ġtwo": 3200, "pur": 3201, "Ġå": 3202, "Ġà¤ľà¤²à¤¨": 3203, "Ġà¤¸à¤®à¤²": 3204, "à¥īà¤Ĥ": 3205, "Ġà¤īà¤¨à¤ªà¤°": 3206, "Ġph": 3207, "à¥©à¥¦": 3208, "cy": 3209, "ĠWik": 3210, "ted": 3211, "à¤¨à¤ı": 3212, "inal": 3213, "Ġ1958": 3214, "pg": 3215, "ull": 3216, "82": 3217, "à¤¦à¤¡": 3218, "Ġà¤¥à¤²": 3219, "Ġ1857": 3220, "Ġà¤°à¤£à¤ľ": 3221, "à¤Īà¤ľ": 3222, "Ġà¤Ĩà¤¦à¤¤": 3223, "Ġche": 3224, "à¥¨à¥ª": 3225, "à¤Īà¤ĵ": 3226, "à¤¹à¤°à¤²": 3227, "Ġà¤ıà¤ķà¤¦à¤®": 3228, "Ġà¤īà¤¸à¤ªà¤°": 3229, "Ġgener": 3230, "vi": 3231, "Ġà¤Ĩà¤ªà¤¤": 3232, "à¤ħà¤ļ": 3233, "à¥¨à¥®": 3234, "à¤ĸà¤ª": 3235, "à¤°à¤¡": 3236, "Ġà¤ıà¤µà¤°": 3237, "à¤¸à¤¦à¤¸": 3238, "Ġà¤ļà¤®à¤¡": 3239, "Ġà¤Ĩà¤«": 3240, "à¤īà¤®": 3241, "Ġ76": 3242, "Ġà¤¢à¤²": 3243, "03": 3244, "à¤īà¤¨à¤²": 3245, "Ġ86": 3246, "à¤¯à¤¸à¤Ń": 3247, "à¤Ĺà¤¯": 3248, "Ġthan": 3249, "Ġà¥¨à¥¦à¥¦à¥¨": 3250, "Ġmess": 3251, "ha": 3252, "Ġà¤¯à¤®à¤ķ": 3253, "Ġet": 3254, "Ġà¤ªà¤°à¤¦": 3255, "à¤°à¤¦à¤¸": 3256, "à¥¨à¥Ń": 3257, "Ġà¥§à¥®à¥Ń": 3258, "à¤°à¤ķà¤¤": 3259, "Ġà¥¨à¥¯": 3260, "Ġinformation": 3261, "Ġred": 3262, "Ex": 3263, "ole": 3264, "à¤µà¤¥": 3265, "Ġacc": 3266, "Ġ69": 3267, "Ġà¤¨à¤ķà¤¦": 3268, "ource": 3269, "ĠPro": 3270, "Ġprov": 3271, "à¤¡à¤°à¤¸à¤¨": 3272, "à¤ıà¤®à¤ıà¤¸": 3273, "Ġà¤ĩà¤¥": 3274, "à¤Īà¤µ": 3275, "Ġ96": 3276, "2013": 3277, "à¤ıà¤ļà¤¡": 3278, "à¤¡à¤¶": 3279, "Ġreg": 3280, "Ġright": 3281, "uk": 3282, "à¤ĩà¤®à¤°": 3283, "2016": 3284, "urrent": 3285, "Ġà¤¬à¤Ĺà¤²": 3286, "Ġà¤°à¤ĸà¤°à¤ĸ": 3287, "01": 3288, "09": 3289, "à¤¾à¤ĥ": 3290, "Ġà¥¨à¥¦à¥¦": 3291, "à¤Ĺà¤£à¤ķ": 3292, "Ġend": 3293, "à¤²à¤Ł": 3294, "Ġsame": 3295, "Ġ1942": 3296, "Ġà¤¤à¤Łà¤¸": 3297, "Ġdefault": 3298, "ĠØ§ÙĦ": 3299, "Ġà¤¶à¤®": 3300, "à¥§à¥¯à¥¬": 3301, "cl": 3302, "Ġà¤ħà¤ł": 3303, "à¤¤à¤¨à¤§": 3304, "à¥§à¥§": 3305, "Ġà¤īà¤²à¤Ŀ": 3306, "Ġà¤¯à¤¤": 3307, "Ġover": 3308, "Ġ87": 3309, "à¤¥à¤ª": 3310, "à¤Ĺà¤²à¤ķ": 3311, "ium": 3312, "ya": 3313, "Ġà¤ĩà¤¸à¤ªà¤°": 3314, "Ġà¥§à¥¯à¥¯à¥¦": 3315, "Ġà¥©à¥§": 3316, "ument": 3317, "ement": 3318, "Ġ1953": 3319, "Ġà¥§à¥®à¥¬": 3320, "AM": 3321, "Ġtalk": 3322, "ise": 3323, "Ġborder": 3324, "ows": 3325, "ead": 3326, "Ġ177": 3327, "04": 3328, "Ġà¤ıà¤¨à¤°": 3329, "cript": 3330, "box": 3331, "ble": 3332, "à¸": 3333, "56": 3334, "ier": 3335, "1952": 3336, "az": 3337, "ms": 3338, "à¤¬à¤°à¤¨": 3339, "ited": 3340, "Ġà¤ıà¤ļà¤Ĩà¤Īà¤µ": 3341, "à¤Ĺà¤¹": 3342, "à¤¡à¤¹à¤°": 3343, "Ġà¤Ŀà¤Łà¤ķ": 3344, "ĠCO": 3345, "air": 3346, "Ġà¤ıà¤²à¤¨": 3347, "ade": 3348, "à¤ĩà¤ľà¤°": 3349, "Ġsupp": 3350, "06": 3351, "ne": 3352, "Ġwould": 3353, "Ġ98": 3354, "Ġ84": 3355, "oh": 3356, "à¤½": 3357, "à¤®à¤ł": 3358, "Ġthey": 3359, "Ġà¤®à¤µ": 3360, "Ġvar": 3361, "à¤¤à¤°à¤¤": 3362, "Ġà¤ĸà¤Ł": 3363, "Ġà¤īà¤Ńà¤°à¤¤": 3364, "à¤ıà¤ľ": 3365, "ause": 3366, "Ġà¤Ńà¤ľà¤¨": 3367, "à¤Īà¤¡": 3368, "Ġà¤Ľà¤¡": 3369, "93": 3370, "ron": 3371, "à¤ķà¤°à¤¨": 3372, "Ġinto": 3373, "Ġ88": 3374, "à¤ªà¤Ĺà¤¢": 3375, "Ġà¤ħà¤¨à¤ľ": 3376, "ĠCH": 3377, "2018": 3378, "Ġà¤¹à¤²à¤ķ": 3379, "Ġà¤Ĩà¤¯à¤¤à¤¨": 3380, "amm": 3381, "Ġà¥©à¥¬": 3382, "2002": 3383, "à¤¤à¤¹": 3384, "als": 3385, "Ġmw": 3386, "Ġà¤ĵà¤µ": 3387, "Ġà¤Ĳà¤®": 3388, "à¤¯à¤¤à¤¯": 3389, "eng": 3390, "Ġtop": 3391, "Ġrem": 3392, "Ġcons": 3393, "Ġ1936": 3394, "Ġerror": 3395, "VD": 3396, "Ð¸": 3397, "Ø¨": 3398, "à¤²à¤ĺ": 3399, "à¥§à¥¯à¥ª": 3400, "94": 3401, "Ġà¤¸à¤¹à¤Ń": 3402, "uss": 3403, "08": 3404, "ced": 3405, "Ġbox": 3406, "Ġpart": 3407, "1970": 3408, "Ġthen": 3409, "Ġ78": 3410, "Ġfield": 3411, "ough": 3412, "pen": 3413, "Ġà¤ªà¤°à¤¶": 3414, "2017": 3415, "Ġà¤²à¤¯": 3416, "ĠÂ£": 3417, "à¤®à¤¦à¤°": 3418, "à¤ĵà¤¡": 3419, "Ġmake": 3420, "Ġà¤¸à¤«à¤°": 3421, "Ġà¤ªà¤°à¤ľ": 3422, "Ġà¤īà¤²à¤Ł": 3423, "Ġdiffer": 3424, "à¤¶à¤Ńà¤ķ": 3425, "à¤°à¤®à¤¨": 3426, "à¤łà¤µ": 3427, "Ġhel": 3428, "Ġà¤ķà¤¤à¤°": 3429, "à¤®à¤Ĭ": 3430, "à¤ªà¤°à¤¸": 3431, "à¤Łà¤¸à¤¨": 3432, "Ġthese": 3433, "Ġ74": 3434, "à¤Ĭà¤ªà¤°": 3435, "Ġ1939": 3436, "ĠâĪ": 3437, "IV": 3438, "rom": 3439, "Ġem": 3440, "à¤Ĺà¤¬": 3441, "Ġà¤µà¤°à¤¦": 3442, "Ġà¤ĵà¤ľ": 3443, "Ġtheir": 3444, "Ġwik": 3445, "Ġdate": 3446, "Ġsim": 3447, "ally": 3448, "Ġà¤ıà¤¯à¤°à¤ª": 3449, "Ġà¤Ĩà¤īà¤Łà¤ª": 3450, "CC": 3451, "à¤¸à¤²à¤°": 3452, "ases": 3453, "abel": 3454, "Ġà¤¶à¤°à¤¦": 3455, "2015": 3456, "64": 3457, "Ġ1900": 3458, "à¤°à¤µà¤ķ": 3459, "Ġà¤Ĩà¤Īà¤ıà¤¸": 3460, "ĠEx": 3461, "à¤®à¤µà¤°": 3462, "à¤ľà¤°à¤¨": 3463, "ings": 3464, "ĠEnglish": 3465, "92": 3466, "ines": 3467, "Ġcite": 3468, "Ġdet": 3469, "Ġalign": 3470, "Ġà¤Ńà¤Ĺà¤¤": 3471, "à¤ĩà¤¶": 3472, "Ġtype": 3473, "Ġaf": 3474, "Ġà¥«à¥¦à¥¦": 3475, "à¤Łà¤ķà¤ķ": 3476, "à¤ıà¤«à¤ı": 3477, "à¥§à¥¯à¥«": 3478, "58": 3479, "cess": 3480, "Ġà¤®à¤°à¤£": 3481, "Ġà¤°à¤¤à¤¨": 3482, "Ġgr": 3483, "à¤ļà¤¡": 3484, "Ġà¤Ĳà¤¶": 3485, "ues": 3486, "à¤Ĩà¤ªà¤¨": 3487, "ĠCD": 3488, "und": 3489, "Ġinfobox": 3490, "MA": 3491, "Ġà¤ķà¤ľ": 3492, "à¤²à¤ªà¤¤": 3493, "à¤ĩà¤«à¤²": 3494, "à¤°à¤¦à¤¤": 3495, "Ġtime": 3496, "ĠSp": 3497, "ĠHindi": 3498, "ana": 3499, "à¥ªà¥¦": 3500, "Ġev": 3501, "formula": 3502, "à¤¯à¤¸à¤¨": 3503, "à¤¦à¤ķà¤¤": 3504, "Ġà¤ıà¤ķà¤ľ": 3505, "Ġtag": 3506, "Ġà¤ħà¤ªà¤¶": 3507, "Ġà¥®à¥¦": 3508, "à¤¯à¤ķà¤²": 3509, "à¤ķà¤²à¤ķà¤°": 3510, "à¤Ĩà¤Īà¤ıà¤¸": 3511, "imedia": 3512, "Ġsystem": 3513, "erg": 3514, "Ġà¤ľà¤¯à¤¸": 3515, "à¤Ľà¤°": 3516, "Ġà¤ıà¤¨à¤¬": 3517, "61": 3518, "Please": 3519, "Ġbl": 3520, "Ġinclu": 3521, "Ġ81": 3522, "Ú©": 3523, "ences": 3524, "Ġrefer": 3525, "à¤°à¤£à¤¤à¤¯": 3526, "Ġsize": 3527, "Ġ800": 3528, "Ġformat": 3529, "à¤Īà¤®": 3530, "Ġà¤ĸà¤²à¤¨": 3531, "Ġ1941": 3532, "ribut": 3533, "uc": 3534, "include": 3535, "1960": 3536, "ys": 3537, "à¤Īà¤¶": 3538, "à¤īà¤£": 3539, "Ġcontain": 3540, "ML": 3541, "etw": 3542, "Ġ1932": 3543, "ever": 3544, "hi": 3545, "yn": 3546, "à¤ªà¤ļà¤¯": 3547, "Ġyear": 3548, "Ġprodu": 3549, "à¤ķà¤«": 3550, "à¤ľà¤®à¤¹à¤²": 3551, "Ġcor": 3552, "Ġà¤¦à¤«": 3553, "à¤Īà¤ª": 3554, "Ġà¤Ĩà¤ĩà¤²": 3555, "Ġà¤Ĩà¤²à¤®": 3556, "Ġdisc": 3557, "Ġà¤°à¤Ĺ": 3558, "Ġ1931": 3559, "53": 3560, "Ġæ": 3561, "Ġ1919": 3562, "Ġcount": 3563, "lop": 3564, "Ġà¥¨à¥¦à¥§à¥¯": 3565, "ef": 3566, "lum": 3567, "à¤ıà¤«à¤¸": 3568, "Ġà´": 3569, "à¤Łà¤°à¤®": 3570, "Ġro": 3571, "Ġà¤ļà¤¶": 3572, "à¤ĺà¤²": 3573, "Ġact": 3574, "amp": 3575, "Ġ1937": 3576, "ĠOr": 3577, "à¤·à¤¨": 3578, "âĢĻ": 3579, "Ġà¥ªà¥«": 3580, "ically": 3581, "àª": 3582, "Ġsc": 3583, "Ġsol": 3584, "1999": 3585, "Ġà¤ĩà¤«": 3586, "à¤°à¤¦à¤¯": 3587, "Ġcall": 3588, "Ġav": 3589, "Ġword": 3590, "ĠSI": 3591, "AR": 3592, "BS": 3593, "à¤ĵà¤®": 3594, "à¥¦à¥ª": 3595, "link": 3596, "Ġà¤ĺà¤Łà¤¤": 3597, "à¤¡à¤°à¤²": 3598, "ĠPl": 3599, "à¤ķà¤Łà¤µà¤°": 3600, "omet": 3601, "ific": 3602, "Ġ1924": 3603, "tr": 3604, "à¤¬à¤°à¤²": 3605, "1998": 3606, "à¤ľà¤¯à¤¨à¤Ĺà¤°": 3607, "itut": 3608, "Ġà¤ħà¤ªà¤Ń": 3609, "ĠCon": 3610, "02": 3611, "Ġà¤ļà¤¬": 3612, "Ġdist": 3613, "83": 3614, "Ġline": 3615, "à¥¨à¥¦à¥§à¥§": 3616, "Ð¾": 3617, "à±": 3618, "à¤®à¤¥": 3619, "Ġbelow": 3620, "à¤ĩà¤ļ": 3621, "à¤µà¤°à¤ª": 3622, "Ġhere": 3623, "ples": 3624, "Ġrec": 3625, "Ġà¤§à¤¨à¤°": 3626, "Ġà¤ĳà¤¬": 3627, "Ġà¤ħà¤¤à¤°": 3628, "Ġà¤ķà¤µà¤ļ": 3629, "'t": 3630, "land": 3631, "à¤¬à¤§": 3632, "à¤§à¤¸": 3633, "Ġà¤ļà¤ļ": 3634, "à¤«à¤¤": 3635, "à¤ħà¤¤à¤ıà¤µ": 3636, "EC": 3637, "à¤ªà¤°à¤µ": 3638, "à¥¨à¥§": 3639, "Ġà¤¯à¤°": 3640, "tm": 3641, "Ġà¤®à¤Ł": 3642, "à¤µà¤¸à¤®": 3643, "Ġà¤ľà¤¹à¤°": 3644, "à¤ĩà¤¥": 3645, "à¥¦à¥«": 3646, "ĠÙħ": 3647, "à¤°à¤Ł": 3648, "Ġà¤µà¤«": 3649, "Ġoption": 3650, "Ø³": 3651, "à¤ľà¤¤à¤¨": 3652, "à¤ľà¤²à¤µ": 3653, "à¤°à¤¸à¤µ": 3654, "Ġà¤ľà¤²à¤¸": 3655, "à¤ªà¤°à¤¹": 3656, "Ġà¥©à¥ª": 3657, "Ġà¥§à¥¯à¥®à¥¦": 3658, "Ġà¤ħà¤¯à¤¸": 3659, "old": 3660, "Ġkn": 3661, "à¤ķà¤¹à¤¤": 3662, "Ġà¤¨à¤°à¤®": 3663, "à¤Ŀà¤ķà¤°": 3664, "Ġà¥§à¥¯à¥¯à¥®": 3665, "Ġmessage": 3666, "Ġhelp": 3667, "MS": 3668, "Ġà¤ħà¤°à¤¸": 3669, "à¤§à¤²": 3670, "à¤¢à¤¨": 3671, "Ġà¤µà¤¹à¤¨": 3672, "à¤²à¤ĸà¤£": 3673, "Ġà¤¸à¤²à¤®": 3674, "Ġ1928": 3675, "à¤¬à¤¹à¤°à¤¹": 3676, "ral": 3677, "Ġá": 3678, "Ġà¤ħà¤¥": 3679, "Ġà¤ħà¤Ľ": 3680, "idth": 3681, "Ġ82": 3682, "Ġ1935": 3683, "Ġwhere": 3684, "1962": 3685, "63": 3686, "à¤Īà¤¦": 3687, "Ġfe": 3688, "ĠÃĹ": 3689, "ĠâĤ¹": 3690, "à¤·à¤Ĺ": 3691, "Ġà¤īà¤ªà¤®": 3692, "à§į": 3693, "Ġfil": 3694, "77": 3695, "Ġà¤¬à¤°à¤¤": 3696, "orld": 3697, "à¤ĭà¤·": 3698, "à¤¯à¤°à¤§": 3699, "Ġbas": 3700, "à¤ľà¤°à¤²": 3701, "Ġequ": 3702, "Ġresult": 3703, "gan": 3704, "à¤¦à¤ľ": 3705, "à¥¦à¥§": 3706, "Ġplease": 3707, "ĠFr": 3708, "otection": 3709, "Ġà¤¨à¤µà¤°": 3710, "Ġà¥Ńà¥¦": 3711, "Ġent": 3712, "à¤Ĺà¤Ł": 3713, "Ġà¤īà¤ªà¤¶": 3714, "à¤®à¤¨à¤¦": 3715, "Ġinv": 3716, "1967": 3717, "DA": 3718, "Ġà¤īà¤¦à¤°": 3719, "ities": 3720, "à¥¨à¥¨": 3721, "Ġà¥¨à¥¦à¥¨": 3722, "à¤ĩà¤ĳà¤ķ": 3723, "Ġmain": 3724, "Ġtransl": 3725, "Ġmer": 3726, "gment": 3727, "à¤§à¤¡": 3728, "Ġà¤Ĩà¤ķà¤¸": 3729, "Ġà¤ķà¤²à¤®": 3730, "Ġà¥§à¥¯à¥ªà¥Ń": 3731, "Ġleft": 3732, "à¤Ĺà¤®à¤°à¤®à¤°": 3733, "Ġ1944": 3734, "à¤¤à¤¯": 3735, "à¤¯à¤°à¤®": 3736, "à¤Ĩà¤¬": 3737, "à¥ĩà¤¼": 3738, "à¤®à¤¹à¤°": 3739, "Ġà¤Īà¤ķ": 3740, "Ġà¤¸à¤¯": 3741, "Ġà¤ªà¤ĸ": 3742, "Ġà¤ħà¤µà¤¤à¤°à¤£": 3743, "Ġnon": 3744, "opy": 3745, "Ġà¤¬à¤Łà¤¨": 3746, "lic": 3747, "à¤¬à¤°à¤®": 3748, "Ġdoc": 3749, "load": 3750, "Ġgiv": 3751, "à¤Łà¤°à¤ķ": 3752, "Ġà¤ĩà¤¯": 3753, "Ġà¤ħà¤µà¤¤à¤°": 3754, "Ġà¤ķà¤łà¤ª": 3755, "à³": 3756, "à¤¯à¤ľà¤¨à¤ķ": 3757, "à¤ĩà¤Łà¤°": 3758, "à¤ħà¤¯": 3759, "ĠDVD": 3760, "TV": 3761, "ĠÏ": 3762, "à¥Ĳ": 3763, "Ġcurrent": 3764, "à¤Ĩà¤Īà¤¡": 3765, "Ġsegment": 3766, "Ġà¥¯à¥¦": 3767, "SA": 3768, "ward": 3769, "à¤±": 3770, "Ġ1918": 3771, "ature": 3772, "Ġthumb": 3773, "OT": 3774, "Ġà¤¸à¤¤à¤°": 3775, "à¤ľà¤¡": 3776, "Ġlabel": 3777, "Ġchar": 3778, "lag": 3779, "à¤ıà¤¸à¤Ī": 3780, "Ġdoes": 3781, "84": 3782, "her": 3783, "ts": 3784, "à¤¾à¤¼": 3785, "à¤ķà¤®à¤²": 3786, "à¤µà¤ķà¤°": 3787, "à¤ĵà¤ķ": 3788, "ten": 3789, "à¤¡à¤¤": 3790, "Ġà¤ľà¤¬à¤²à¤ª": 3791, "Ġmap": 3792, "Ġ83": 3793, "Ġ1938": 3794, "cept": 3795, "Ġass": 3796, "à¤ĵà¤ª": 3797, "ĠComm": 3798, "100": 3799, "ani": 3800, "à¥¦à¥Ń": 3801, "ired": 3802, "à¤Ĺà¤«": 3803, "Ġà¤¨à¤«": 3804, "Ġà¤¯à¤¨": 3805, "Ġà¤Łà¤°à¤¬": 3806, "Ġà¥©à¥©": 3807, "Mar": 3808, "Ġà¤ĩà¤·": 3809, "Ġag": 3810, "amb": 3811, "Ġoff": 3812, "à¥¯à¥¦": 3813, "à¤¿:": 3814, "à¤Łà¤ľ": 3815, "à¥¦à¥¬": 3816, "Ġ130": 3817, "Ġ1934": 3818, "Ġdifferent": 3819, "Ġà¤ķà¤²à¤°": 3820, "Ġsec": 3821, "à¥¯à¥®": 3822, "à¥¨à¥¦à¥§à¥ª": 3823, "à¤¯à¤®à¤Ĺ": 3824, "à¥Īà¤ĥ": 3825, "Ġà¤¦à¤¹à¤¨": 3826, "Ġà¤Ĩà¤ıà¤Ĺ": 3827, "andard": 3828, "ĠIP": 3829, "ures": 3830, "à¤µà¤¨à¤¸": 3831, "Ġà¤ĵà¤¨": 3832, "à¤µà¤²à¤ªà¤®": 3833, "1957": 3834, "Ġà¤¬à¤²à¤°": 3835, "stitut": 3836, "ĠâĪĴ": 3837, "IC": 3838, "een": 3839, "à¤¨à¤ĸ": 3840, "à¤°à¤¤à¤²": 3841, "Ġeach": 3842, "emplate": 3843, "Ġ1929": 3844, "ments": 3845, "ĠIndian": 3846, "81": 3847, "à¤°à¤¹à¤°": 3848, "Ġà¤ķà¤ļà¤°": 3849, "à¤Łà¤°à¤¸à¤¨": 3850, "Ġà¥§à¥¯à¥¯à¥¯": 3851, "91": 3852, "jpg": 3853, "Ġà¤Ĩà¤¡": 3854, "Ġà¤Ľà¤¦": 3855, "ale": 3856, "Ġmost": 3857, "Ġà¤ıà¤®à¤¬": 3858, "Ðµ": 3859, "à¤¤à¤¨à¤ª": 3860, "ton": 3861, "à¤¦à¤ķà¤°": 3862, "Ġà¤¨à¤®à¤¸": 3863, "ĠModule": 3864, "ivers": 3865, "Ġà¤ªà¤Łà¤°": 3866, "à¤¯à¤ķà¤°à¤£": 3867, "Ġmon": 3868, "oci": 3869, "Ġà½": 3870, "Ġsupport": 3871, "fore": 3872, "Ġthem": 3873, "à¤°à¤¨à¤ª": 3874, "ews": 3875, "àµį": 3876, "Dec": 3877, "Ġà¤Ĩà¤°à¤¤": 3878, "orth": 3879, "ting": 3880, "à¤µà¤°à¤¤": 3881, "à¤łà¤ķà¤°": 3882, "Ġ1912": 3883, "amed": 3884, "ĠAd": 3885, "Ġà¥©à¥¨": 3886, "Ġallow": 3887, "Ġ1922": 3888, "54": 3889, "SP": 3890, "Ġ1943": 3891, "Ġsearch": 3892, "à¤¬à¤ļà¤ªà¤¨": 3893, "Ġà¤ķà¤Ľ": 3894, "Ġà¤®à¤®": 3895, "Ġ93": 3896, "Ġà¤®à¤ķà¤°": 3897, "Ġà¤Ĩà¤ī": 3898, "à¤ħà¤¹à¤®": 3899, "hed": 3900, "ĠHigh": 3901, "Ġ^": 3902, "Ġà¤¬à¤§": 3903, "Ġmark": 3904, "ung": 3905, "indows": 3906, "Ġafter": 3907, "Ġà¥ªà¥®": 3908, "May": 3909, "ym": 3910, "à¤¨à¤¯à¤¨": 3911, "Ġà¤°à¤®à¤£": 3912, "à¤¤à¤°à¤ľ": 3913, "à¤īà¤¡à¤°": 3914, "Ġà¤Ĳà¤¡": 3915, "Ġ79": 3916, "Ġà¤Ĩà¤Īà¤¬": 3917, "Ġ1925": 3918, "Ġà¤¤à¤ķà¤°": 3919, "Ġsm": 3920, "à¤Ĺà¤²à¤µ": 3921, "Ġ91": 3922, "Ġ92": 3923, "Ġà¥®à¥®": 3924, "Ġcategory": 3925, "à¤°à¤ĺ": 3926, "à¤ķà¤ł": 3927, "Ġà¤ļà¤¯": 3928, "52": 3929, "69": 3930, "à¤ļà¤¯à¤¨": 3931, "Ġà¤¸à¤¤à¤ª": 3932, "Ar": 3933, "min": 3934, "Ġcell": 3935, "amples": 3936, "Ġà¤ħà¤«à¤¸à¤°": 3937, "ograp": 3938, "ternational": 3939, "à¤ļà¤¤à¤°": 3940, "à¤¼à¤¾à¤Ĥ": 3941, "Ġà¤Ĩà¤¸à¤®": 3942, "Ġà¤Ĳà¤ª": 3943, "ision": 3944, "Ġmodule": 3945, "Ġbec": 3946, "Ġ1933": 3947, "Ġ1926": 3948, "Ġà¤¯à¤®à¤¨": 3949, "à¤µà¤°à¤®": 3950, "Ġ89": 3951, "Ġà¥§à¥®à¥ª": 3952, "Ġà¤īà¤¤à¤°à¤¨": 3953, "oid": 3954, "à¤¿à¤¼": 3955, "Ġà¤¬à¤¦à¤¨": 3956, "à¤Ĩà¤¹": 3957, "ĠMar": 3958, "Ġà¥§à¥¦à¥¦à¥¦": 3959, "ĠIg": 3960, "Ġdele": 3961, "Ġ1921": 3962, "Ġext": 3963, "à¤ªà¤ª": 3964, "Ġà¤§à¤¬": 3965, "Ġmar": 3966, "Ġà¼": 3967, "ER": 3968, "Ġà¥©à¥Ń": 3969, "pos": 3970, "Ġà¤¶à¤¤à¤°": 3971, "Ġà¤ħà¤°à¤µ": 3972, "à¯į": 3973, "Feb": 3974, "Oct": 3975, "codice": 3976, "Ġà¤ªà¤łà¤¨": 3977, "Ġà¤¦à¤°à¤Ĺ": 3978, "ility": 3979, "à¤°à¤®à¤£à¤ķ": 3980, "Ġà¥§à¥¯à¥¯à¥¬": 3981, "Ġstring": 3982, "FA": 3983, "por": 3984, "à¤ķà¤ħà¤ª": 3985, "Ġtechn": 3986, "à¤Ĩà¤Īà¤ı": 3987, "Ġrepl": 3988, "Ġà¥§à¥¯à¥¬à¥¦": 3989, "à¤·à¤µ": 3990, "Ġà¤²à¤¸": 3991, "Ġà¤¶à¤¶": 3992, "Ġà¤ªà¤°à¤Ĺà¤¨": 3993, "ane": 3994, "omat": 3995, "Ġà¤ħà¤«à¤µ": 3996, "Ġelect": 3997, "62": 3998, "à¤¬à¤ª": 3999, "ĠWWE": 4000, "br": 4001, "à¤ľà¤¯à¤ª": 4002, "Ġ94": 4003, "Ġexist": 4004, "af": 4005, "à¤®à¤¸à¤®à¤°": 4006, "à¥Īà¤ģ": 4007, "à¤ľà¤Ĺà¤¦": 4008, "à¤£à¤¦": 4009, "Ġ1914": 4010, "ĠMicro": 4011, "soft": 4012, "51": 4013, "CA": 4014, "Ġà¤¦à¤¶à¤°": 4015, "à¤¸à¤¨à¤²": 4016, "Ġ700": 4017, "con": 4018, "Øª": 4019, "Ġmat": 4020, "aces": 4021, "ĠHT": 4022, "Jan": 4023, "Sep": 4024, "ories": 4025, "Ġcommun": 4026, "59": 4027, "You": 4028, "à¤®à¤Ĺà¤°": 4029, "Ġà¤ıà¤¨à¤¸": 4030, "2019": 4031, "Ġà¥§à¥¯à¥¯à¥§": 4032, "Äģ": 4033, "Ġà¤«à¤Ł": 4034, "à¤¨à¤®à¤¸": 4035, "Ġà¤Ĩà¤Ĺà¤®": 4036, "Ġà¥©à¥¦à¥¦": 4037, "1996": 4038, "ele": 4039, "à¤¶à¤Ń": 4040, "Ġà¤¤à¤µ": 4041, "Ġ900": 4042, "over": 4043, "Apr": 4044, "Cl": 4045, "Ġà¤®à¤¨à¤¸": 4046, "à¥¦à¥®": 4047, "Ġà¤°à¤ķà¤®": 4048, "Ġà¥§à¥®à¥©": 4049, "hor": 4050, "ÑĢ": 4051, "à¤Ĺà¤Ń": 4052, "arn": 4053, "ĠCl": 4054, "Ġread": 4055, "Ġ110": 4056, "Ġà¥§à¥¯à¥¯à¥¨": 4057, "Ġà¤ħà¤¸à¤¤": 4058, "à¤ıà¤¯à¤°": 4059, "ined": 4060, "Ġhow": 4061, "elf": 4062, "Ġà¥§à¥¯à¥®à¥¯": 4063, "anguages": 4064, "Ġà¤ķà¤«": 4065, "Ġà¤Īà¤Ł": 4066, "Ġà¥§à¥¯à¥Ńà¥¦": 4067, "Ġà¥§à¥¯à¥Ńà¥§": 4068, "________": 4069, "Par": 4070, "à¤°à¤Ĺà¤°": 4071, "Ġà¤²à¤ª": 4072, "Ġà¤ħà¤ªà¤¸": 4073, "1950": 4074, "adding": 4075, "IA": 4076, "Ùĩ": 4077, "à¤°à¤¤à¤®": 4078, "Ġà¤«à¤²à¤ķ": 4079, "Ġ1917": 4080, "à¥¬à¥¦": 4081, "ma": 4082, "ood": 4083, "Ġà¤¹à¤Łà¤¨": 4084, "Ġà¤¦à¤¨": 4085, "à¤·à¤°à¤£": 4086, "à¤¬à¤°à¤¤": 4087, "Ġà¤ľà¤¨à¤®": 4088, "Ġà¥§à¥¯à¥«à¥¦": 4089, "ually": 4090, "72": 4091, "à¤ķà¤ķà¤°": 4092, "Ġà¤¦à¤°à¤Ń": 4093, "esent": 4094, "Ġfree": 4095, "Ġ125": 4096, "Ġà¤īà¤Ĺà¤¤": 4097, "Ġmod": 4098, "ural": 4099, "à¤ıà¤²à¤ı": 4100, "à¥¯à¥¨": 4101, "Ġà¤Ĩà¤¯à¤°à¤¨": 4102, "Ġà¤īà¤Ľ": 4103, "Ġà¤ıà¤¬à¤°": 4104, "esh": 4105, "Ġà¤ħà¤¸à¤«à¤²à¤¤": 4106, "Ġ160": 4107, "à¥§à¥¯à¥©": 4108, "Ġà¥§à¥¯à¥®à¥ª": 4109, "other": 4110, "Ġà¤ªà¤¥à¤°": 4111, "Ġà¤Ńà¤Łà¤ķ": 4112, "Ġà¤ĩà¤®à¤°": 4113, "Ġcap": 4114, "ĠWindows": 4115, "uil": 4116, "à¤£à¤°": 4117, "à¤ĸà¤µ": 4118, "à¤ħà¤ªà¤°": 4119, "Ġtest": 4120, "Ġmult": 4121, "oun": 4122, "ĠHIV": 4123, "Ġ1927": 4124, "CO": 4125, "Ġ140": 4126, "ĠÂ·": 4127, "Ġabove": 4128, "Ġbecause": 4129, "Nov": 4130, "Ġà¤°à¤¬à¤°": 4131, "à¤¤à¤ķà¤¨": 4132, "Ġway": 4133, "ĠRe": 4134, "Aug": 4135, "ser": 4136, "à¤īà¤ķ": 4137, "ene": 4138, "Ġfind": 4139, "à¤°à¤¨à¤Ĺà¤°": 4140, "Ġwho": 4141, "Ûģ": 4142, "Ġà¤Ŀà¤¡": 4143, "Ġà¤ıà¤®à¤Ł": 4144, "Ġà¥§à¥¯à¥¯à¥«": 4145, "Ġà¤ªà¤¨à¤¡": 4146, "à¤ĭà¤Ĺ": 4147, "led": 4148, "à¤¨à¤ľà¤¨à¤ķ": 4149, "Ġ2021": 4150, "à¤ļà¤°à¤²": 4151, "adi": 4152, "Ġ1908": 4153, "eop": 4154, "à¬": 4155, "ĠSe": 4156, "dex": 4157, "idian": 4158, "Ġhead": 4159, "Jul": 4160, "NS": 4161, "à¤ľà¤ªà¤¤": 4162, "Ġà¤ľà¤¨à¤®à¤¤": 4163, "Ġsource": 4164, "ara": 4165, "à¤Łà¤¨à¤°": 4166, "ital": 4167, "ĠThis": 4168, "Ġà¤¸à¤°à¤¹": 4169, "à¤ªà¤ķà¤°": 4170, "Ġà¤ľà¤¬à¤°à¤¦à¤¸": 4171, "Ġà¤¹à¤ľà¤°à¤¤": 4172, "73": 4173, "oog": 4174, "Ġins": 4175, "Ġdi": 4176, "ĠMan": 4177, "Ġ1500": 4178, "ĠUK": 4179, "au": 4180, "Ð½": 4181, "à¤ķà¤µà¤°": 4182, "à¤Ĺà¤ļ": 4183, "à¤Ĺà¤®à¤¤": 4184, "à¤Ńà¤µà¤¨": 4185, "âĢİ": 4186, "Ġdec": 4187, "ope": 4188, "Ġà¥§à¥¯à¥¯à¥ª": 4189, "Ġshow": 4190, "ization": 4191, "Ġcontent": 4192, "Ġà¤¬à¤¬": 4193, "à¤ħà¤¹": 4194, "à¥§à¥¯à¥¨": 4195, "1997": 4196, "74": 4197, "76": 4198, "à¤°à¤¬à¤°": 4199, "à¤§à¤°à¤¨": 4200, "à¤µà¤°à¤µ": 4201, "Ġ1911": 4202, "Ġargs": 4203, "à¤¡à¤¸à¤¨": 4204, "Ġmust": 4205, "ock": 4206, "1992": 4207, "Ġlog": 4208, "à¤ıà¤¬": 4209, "ets": 4210, "Ġele": 4211, "Ġà¼ĭ": 4212, "à¤īà¤ªà¤ļ": 4213, "que": 4214, "ful": 4215, "ily": 4216, "à¤²à¤¹à¤°": 4217, "Ġà¤ªà¤Łà¤²": 4218, "Ġà¤µà¤¤": 4219, "Ġà¤ħà¤¨à¤¦": 4220, "à¤ĵà¤µ": 4221, "ala": 4222, "ĠNBC": 4223, "Jun": 4224, "à¤¾:": 4225, "à¤ľà¤ķà¤°": 4226, "à¤Īà¤ıà¤«à¤ı": 4227, "à¤łà¤¶": 4228, "Ġà¤ªà¤¦à¤µ": 4229, "Ġbot": 4230, "à¤ªà¤²à¤Ł": 4231, "ower": 4232, "erson": 4233, "Al": 4234, "NET": 4235, "à¤Ĩà¤ĩ": 4236, "1947": 4237, "Ġwidth": 4238, "ĠCS": 4239, "à¤Ĩà¤Īà¤ª": 4240, "Ġà¥Ńà¥«": 4241, "à¤¯à¤²à¤°": 4242, "AP": 4243, "à¤ķà¤«à¤°": 4244, "à¤¶à¤¹": 4245, "Ġà¤¤à¤¦": 4246, "Ġà¤ªà¤°à¤«": 4247, "à¤ıà¤¸à¤ª": 4248, "Ġ1923": 4249, "à¤¤à¤¦à¤¨": 4250, "Ġà¤ªà¤¸à¤¨": 4251, "Ġà¤īà¤§à¤°": 4252, "à¤Ĺà¤²à¤¸": 4253, "Ġob": 4254, "Ġlong": 4255, "Ġà¤¦à¤²à¤¦à¤²": 4256, "Ġmeridian": 4257, "à¤®à¤¸à¤¨": 4258, "à¤ªà¤¸à¤¨": 4259, "à¤ľà¤Ł": 4260, "à¤¡à¤¬à¤°": 4261, "Ġà¤®à¤¹à¤ľ": 4262, "Ġ1910": 4263, "Ġà¤Īà¤¦": 4264, "Ġlanguages": 4265, "à¤Ķà¤¦": 4266, "Ġproject": 4267, "iple": 4268, "oogle": 4269, "à¥ĭà¤ģ": 4270, "à¤¶à¤¨à¤¶": 4271, "Ġ350": 4272, "reat": 4273, "à¤¨à¤µà¤®": 4274, "ctions": 4275, "Ġà¥§à¥¯à¥Ńà¥¨": 4276, "Ġdescri": 4277, "78": 4278, "eric": 4279, "à¤µà¤²à¤ªà¤°": 4280, "Ġap": 4281, "los": 4282, "ĠDe": 4283, "umm": 4284, "Ġexp": 4285, "Ġ1905": 4286, "Ġsolid": 4287, "col": 4288, "Ġà¤Ńà¤¸": 4289, "ĠCE": 4290, "Ġà¤ªà¤²à¤Ł": 4291, "71": 4292, "man": 4293, "Ġà¤®à¤¦à¤°": 4294, "à¤¦à¤¹à¤µ": 4295, "Ġà¤ĩà¤§à¤°": 4296, "Ġpartic": 4297, "Ġà¥§à¥¯à¥ªà¥®": 4298, "Ġâĺħ": 4299, "Ġdiscuss": 4300, "à¤¸à¤°à¤¸": 4301, "à¤ħà¤ĸ": 4302, "ali": 4303, "à¥®à¥¦": 4304, "Ġ108": 4305, "ĠKh": 4306, "Ġ00721": 4307, "ĠâĺĨ": 4308, "à¤®à¤°à¤¨": 4309, "Ġà¤ªà¤®": 4310, "à¤·à¤¶": 4311, "Ġà¤¤à¤°à¤ķ": 4312, "à¤ĩà¤Łà¤¨": 4313, "à¤ħà¤¸à¤®": 4314, "Ġser": 4315, "Ġà¤Ĩà¤°à¤ıà¤¨à¤ı": 4316, "à¤ľà¤Ĺà¤£": 4317, "à¤µà¤°à¤¸": 4318, "à¥¨à¥¯": 4319, "Ġstart": 4320, "Ġatt": 4321, "à¤ıà¤ıà¤¸": 4322, "à¤ĸà¤²à¤¨": 4323, "Ġ5000": 4324, "Ġ105": 4325, "Ġconf": 4326, "press": 4327, "IT": 4328, "iod": 4329, "Ġà¤īà¤ĸ": 4330, "Ġà¤īà¤łà¤¨": 4331, "Ġà¤īà¤¥à¤²": 4332, "Ġà¤Īà¤¯à¤°": 4333, "ded": 4334, "à¤µà¤¬": 4335, "Ġà¤ıà¤®à¤¸": 4336, "à¤ħà¤¡": 4337, "itation": 4338, "à¦°": 4339, "à¤ħà¤ķà¤¬à¤°": 4340, "ized": 4341, "Ġsecond": 4342, "An": 4343, "Ġà¤Ĩà¤ĩà¤Ł": 4344, "ĠCo": 4345, "ED": 4346, "FC": 4347, "fg": 4348, "ty": 4349, "à¤²à¤¨à¤¶": 4350, "Ġsing": 4351, "Ġwant": 4352, "Ġgroup": 4353, "ĠEn": 4354, "à¤¸à¤Łà¤¨": 4355, "à¤ªà¤ľ": 4356, "Ġà¤ļà¤ª": 4357, "Ġsign": 4358, "à¤¡à¤°à¤Ł": 4359, "etween": 4360, "ĠÙ": 4361, "à¥Ģ'": 4362, "à¤Łà¤¦": 4363, "Ġà¤Ĩà¤£": 4364, "à¤ĸà¤¸": 4365, "Ġ1916": 4366, "Ġà¤Īà¤ª": 4367, "edi": 4368, "ersion": 4369, "Ġcheck": 4370, "à¤ķà¤°à¤¶": 4371, "Ġà¤ľà¤¨à¤µ": 4372, "à¥¯à¥«": 4373, "Ġprovid": 4374, "Ġà¤ĩà¤Ĺ": 4375, "itt": 4376, "Ġmany": 4377, "à¤®à¤ķà¤°": 4378, "à¤Ĺà¤«à¤²": 4379, "Ġà¤ħà¤¥à¤°": 4380, "à¤Ĩà¤¦à¤°": 4381, "Ġpol": 4382, "1991": 4383, "Ġproper": 4384, "Ġà®": 4385, "Ġcomple": 4386, "Ġà¤Ńà¤°à¤¤à¤ª": 4387, "OC": 4388, "ØŃ": 4389, "à¤¹à¤Ĺ": 4390, "Ġà¤ľà¤²à¤¤": 4391, "à¤Ĺà¤°à¤®": 4392, "à¤ļà¤Ł": 4393, "ĠMS": 4394, "ĠPar": 4395, "Ġà¤ħà¤¸à¤¹à¤®à¤¤": 4396, "Ġcharact": 4397, "red": 4398, "itu": 4399, "vent": 4400, "yl": 4401, "Ġà¤ªà¤°à¤ķ": 4402, "Ġà¤ļà¤¹": 4403, "à¤®à¤¨à¤µ": 4404, "ĠBh": 4405, "Ġprotection": 4406, "Ġetc": 4407, "à¤Łà¤Ł": 4408, "Ġà¤¬à¤«": 4409, "Ġà¤ıà¤¸à¤Ł": 4410, "lob": 4411, "irc": 4412, "Ġà¥§à¥¯à¥¯à¥Ń": 4413, "Ġrequire": 4414, "à¤ĸà¤Ĺ": 4415, "à¤īà¤·": 4416, "à¤ĸà¤¨à¤¨": 4417, "Ġà¥§à¥¯à¥®à¥«": 4418, "back": 4419, "à¤§à¤ļ": 4420, "à¥¦à¥¯": 4421, "aced": 4422, "Ġstandard": 4423, "ES": 4424, "LA": 4425, "LC": 4426, "à¤ľà¤¨à¤¤": 4427, "Ġà¤īà¤¤à¤°à¤¤": 4428, "à¤Ŀà¤¸": 4429, "à¥Ńà¥«": 4430, "Ġà¥¬à¥«": 4431, "Ġplace": 4432, "pace": 4433, "à¤°à¤®à¤¬à¤¦": 4434, "Ġà¤§à¤°à¤®": 4435, "Ġà¤ħà¤ªà¤²": 4436, "Ġhis": 4437, "tml": 4438, "Ġà¤ıà¤¤": 4439, "Ġpoint": 4440, "ool": 4441, "à¤¤à¤«": 4442, "Ġ1915": 4443, "Ġà¤ħà¤²à¤µà¤°": 4444, "à¤ŀà¤ª": 4445, "Ġinput": 4446, "Ġman": 4447, "pro": 4448, "Ġà¤ĩà¤¡": 4449, "à¤«à¤Ł": 4450, "à¤«à¤²à¤ķ": 4451, "Ġbetween": 4452, "Ġvari": 4453, "Ġà¨": 4454, "ĠØ¨": 4455, "Ġident": 4456, "ĠMicrosoft": 4457, "me": 4458, "res": 4459, "à¤°à¤Ľ": 4460, "Ġà¤ľà¤ª": 4461, "Ġà¤ĵà¤¹": 4462, "Ġà¤ĵà¤¶": 4463, "Ġà¤¬à¤¢à¤¤": 4464, "ĠSy": 4465, "Ġà¥§à¥¯à¥®à¥¬": 4466, "à¤ĩà¤®à¤¨": 4467, "79": 4468, "line": 4469, "à¥įà¤Ĥ": 4470, "à¤¯à¤¸à¤®": 4471, "Ġà¤Ńà¤¨": 4472, "à¤ĳà¤°": 4473, "Ġà¤¸à¤ĺà¤¨": 4474, "à¤ħà¤²à¤Ĺ": 4475, "Ġcase": 4476, "Ġ3000": 4477, "à¤¦à¤¨à¤Ĺà¤°": 4478, "Ġmy": 4479, "Ġselect": 4480, "BA": 4481, "MI": 4482, "Ġà¤ħà¤µà¤¨": 4483, "à¤Łà¤¯": 4484, "Ġà¤¤à¤¦à¤¨": 4485, "Ġà¤ıà¤ķà¤°": 4486, "ats": 4487, "Ġà¤ħà¤ªà¤¡": 4488, "akes": 4489, "There": 4490, "ĠISO": 4491, "val": 4492, "Ġà¤ħà¤µà¤Ĺà¤¤": 4493, "ĠIV": 4494, "Ġà¥«à¥«": 4495, "Ġà¤ıà¤¯à¤°à¤µ": 4496, "Ø§ÙĨ": 4497, "à¥¢": 4498, "à¤¨à¤ªà¤°": 4499, "à¥ģà¥ģ": 4500, "Ġà¤ĸà¤Ĺà¤¡": 4501, "à¤¤à¤¨à¤¶": 4502, "ĠCol": 4503, "à¥§à¥§à¥": 4504, "Ġà¤ľà¤¶": 4505, "à¤¬à¤¢": 4506, "Ġà¤Ĩà¤®à¤¨": 4507, "Ġà¤Ľà¤¤à¤°": 4508, "à¤Ĭà¤°": 4509, "à¤ıà¤¸à¤¡": 4510, "plic": 4511, "à¦¿": 4512, "Ġorder": 4513, "Ġposs": 4514, "FF": 4515, "of": 4516, "ta": 4517, "Ġà¤Ĩà¤£à¤µ": 4518, "els": 4519, "Ġà¥§à¥¯à¥Ńà¥«": 4520, "Ġ00720": 4521, "oy": 4522, "oz": 4523, "Ġloc": 4524, "à¤°à¤Ī": 4525, "à¤«à¤°à¤ª": 4526, "Ġbefore": 4527, "à¤ıà¤®à¤ıà¤²": 4528, "uments": 4529, "Ġà¤¦à¤¶à¤®": 4530, "Ġoptional": 4531, "Ġà¤¹à¤°à¤¦": 4532, "Ġà¤ħà¤ļà¤²": 4533, "à¤ĳà¤«": 4534, "Ġspecific": 4535, "Ġà¤¦à¤¶à¤°à¤¥": 4536, "Ġà¤¬à¤µ": 4537, "Ġà¤ħà¤¨à¤¸": 4538, "Ġà¤ĵà¤·à¤§": 4539, "Ġà¤ªà¤¦à¤ļ": 4540, "DC": 4541, "Ġà¤ħà¤ĺ": 4542, "Ġà¤ĺà¤£": 4543, "Ġcx": 4544, "Ġpadding": 4545, "à¤ªà¤ķà¤¤": 4546, "1930": 4547, "à¤Ĳà¤²": 4548, "Ġgiven": 4549, "Ġï": 4550, "à¥©à¥«": 4551, "ĠNH": 4552, "eople": 4553, "à¤¹à¤®à¤²": 4554, "Ġà¤ªà¤ķà¤µ": 4555, "à¥Ńà¥¦": 4556, "ries": 4557, "ormal": 4558, "Ġà¤īà¤ªà¤ª": 4559, "ada": 4560, "Ġunit": 4561, "Ġinstead": 4562, "Ġsmall": 4563, "400": 4564, "à¤²à¤Ĺà¤°": 4565, "à¤ªà¤ķà¤²": 4566, "arg": 4567, "Ġwere": 4568, "ref": 4569, "Ġnum": 4570, "1995": 4571, "Ġappear": 4572, "IN": 4573, "earch": 4574, "na": 4575, "Ð»": 4576, "Ñģ": 4577, "à¤Ńà¤¯": 4578, "ins": 4579, "ĠBr": 4580, "ĠGr": 4581, "1994": 4582, "ina": 4583, "Ġà¤ıà¤²à¤ľ": 4584, "Ġspace": 4585, "Ġvis": 4586, "Ġà¥§à¥¯à¥¯à¥©": 4587, "Ġunder": 4588, "Ġvalues": 4589, "la": 4590, "sc": 4591, "à¤¨à¤¸à¤°": 4592, "Ġà¤¹à¤ł": 4593, "Ġà¤¶à¤ĸ": 4594, "Ġà¤¸à¤®à¤®": 4595, "à¤°à¤®à¤ļ": 4596, "ract": 4597, "ĠHighway": 4598, "à¥Ħ": 4599, "à¤ıà¤¥": 4600, "à¤ıà¤¸à¤ıà¤®": 4601, "ider": 4602, "inkle": 4603, "Ġà¥§à¥¯à¥®à¥®": 4604, "Ġà¥§à¥¯à¥®à¥©": 4605, "Ġà¥§à¥¯à¥¬à¥¨": 4606, "DP": 4607, "Ġcopy": 4608, "ĠNA": 4609, "ended": 4610, "Ġwithout": 4611, "Ġprocess": 4612, "ailable": 4613, "hod": 4614, "à¤¨à¤°à¤¸": 4615, "Ġà¤Ĳà¤°": 4616, "etic": 4617, "à¥¬à¥«": 4618, "Ġà¥§à¥¯à¥Ńà¥Ń": 4619, "Ġà¤·à¤·": 4620, "Ġà¤¨à¤Ł": 4621, "à¤µà¤¨à¤¡": 4622, "ĠâĨ": 4623, "ËĪ": 4624, "Ø©": 4625, "à¤Łà¤°à¤²": 4626, "ouse": 4627, "à¥©à¥§": 4628, "ĠGe": 4629, "Ġdesignation": 4630, "à¤Ńà¤¸": 4631, "ency": 4632, "à¤ıà¤¸à¤Ĩà¤Ī": 4633, "Ġà¤ľà¤®à¤¶": 4634, "Ġnoinclude": 4635, "Ġdocument": 4636, "à¥Ģà¤ģ": 4637, "ince": 4638, "Ġ104": 4639, "Ġà¤ķà¤µà¤ķ": 4640, "à¤Ĺà¤§": 4641, "Ġfound": 4642, "à¤®à¤²à¤°": 4643, "ĠCor": 4644, "Ġà¤¬à¤®à¤¬": 4645, "Ġ00719": 4646, "span": 4647, "ember": 4648, "700": 4649, "CW": 4650, "à¤Ĺà¤µà¤°": 4651, "à¤Īà¤Ĺ": 4652, "à¤ħà¤µà¤§": 4653, "anc": 4654, "arb": 4655, "outh": 4656, "Ġà¥§à¥¯à¥®à¥¨": 4657, "Ġà¥§à¥¯à¥«à¥¬": 4658, "Ġà¥į": 4659, "à¤£à¤Ĺ": 4660, "hes": 4661, "ĠHy": 4662, "à¥¯à¥ª": 4663, "à¥¯à¥¬": 4664, "Ġcreate": 4665, "à¤²à¤ĸà¤¨à¤Ĭ": 4666, "Ġ1913": 4667, "à¤¸à¤¨à¤°": 4668, "app": 4669, "à¥¯à¥Ń": 4670, "Ġimages": 4671, "ission": 4672, "Ġà¥¨à¥¦à¥¨à¥¦": 4673, "RS": 4674, "à¤ķà¤¯": 4675, "Ġà¤®à¤²à¤¬": 4676, "Ġà¤ħà¤¹à¤¸": 4677, "à¤ıà¤²à¤¸": 4678, "Ġà¤ħà¤®à¤²": 4679, "Ġdep": 4680, "mb": 4681, "uch": 4682, "Ġà¤®à¤°à¤¤": 4683, "à¤µà¤¶à¤ķ": 4684, "à¤ªà¤Ĺ": 4685, "à¤¬à¤µà¤¤": 4686, "Ġà¤Ĺà¤Ĺà¤¨": 4687, "Ġinc": 4688, "Ġmin": 4689, "1993": 4690, "Ġ1904": 4691, "alle": 4692, "Ġà¤ħà¤ªà¤µà¤°": 4693, "à¤ıà¤¸à¤Ł": 4694, "Ġvi": 4695, "ender": 4696, "Ġjust": 4697, "Ġadded": 4698, "Ġà¤Łà¤®": 4699, "à¤ĩà¤¸à¤°": 4700, "lear": 4701, "à¥©à¥Ń": 4702, "idd": 4703, "à¤ĳà¤¨": 4704, "Ġlook": 4705, "green": 4706, "à¤®à¤¦à¤¨": 4707, "Ġà¤ľà¤¯à¤¨": 4708, "à¤Ĩà¤°à¤¸": 4709, "Ġà¤ıà¤¸à¤¯": 4710, "ays": 4711, "Ġà¥§à¥¯à¥Ńà¥¬": 4712, "Ġ1901": 4713, "ordin": 4714, "à¤¯à¤Ńà¤Ł": 4715, "à©": 4716, "ĠÚ©": 4717, "à¤¾à¤¾": 4718, "Ġà¤ľà¤¯à¤¦": 4719, "Ġà¤¨à¤°à¤ķ": 4720, "à¤Łà¤°à¤µ": 4721, "à¤µà¤²à¤ª": 4722, "à¥ªà¥¨": 4723, "Ġkm": 4724, "Ġà¥§à¥¯à¥Ńà¥©": 4725, "Ġà¤ľà¤¨à¤°": 4726, "ĠIPA": 4727, "à¥ªà¥«": 4728, "à¤Ĩà¤Īà¤ıà¤²": 4729, "à¤Ĩà¤°à¤¡": 4730, "Ġbeing": 4731, "Ġkey": 4732, "Ġà¥§à¥¯à¥©à¥¦": 4733, "ĠUnivers": 4734, "OL": 4735, "Ġq": 4736, "à¤£à¤ªà¤¤": 4737, "à¤µà¤£à¤ķ": 4738, "Link": 4739, "ON": 4740, "à¤°à¤²à¤¯": 4741, "Ġà¤ķà¤Ĺ": 4742, "à¤ķà¤ķà¤¥": 4743, "Ġà¤ħà¤¨à¤Ĺ": 4744, "à¤¤à¤ķà¤¥": 4745, "Ġuses": 4746, "ternal": 4747, "Ġrequired": 4748, "AL": 4749, "name": 4750, "Ġà¤°à¤¯": 4751, "Ġà¤ĸà¤¤à¤¨": 4752, "Ġà¤ħà¤ªà¤ķ": 4753, "ams": 4754, "Ġel": 4755, "Ġwhat": 4756, "Ġautomat": 4757, "right": 4758, "Ġ×": 4759, "Ġà¤¨à¤µà¤¨": 4760, "à¤ľà¤¨à¤¨": 4761, "Ġboth": 4762, "Ġavailable": 4763, "ner": 4764, "Î±": 4765, "à¤īà¤¬": 4766, "à¤Ľà¤ł": 4767, "Ġà¤ĳà¤¨à¤°": 4768, "à¤¤à¤®à¤¯": 4769, "Ġà¥ªà¥¦à¥¦": 4770, "ants": 4771, "TP": 4772, "âĢľ": 4773, "à¤°à¤µà¤ļà¤¨": 4774, "alse": 4775, "Ġà¤ıà¤¨à¤¡": 4776, "Ġà¥§à¥¯à¥®à¥Ń": 4777, "Ġ1896": 4778, "ĠInternational": 4779, "Wh": 4780, "Ġã": 4781, "Ġç": 4782, "Ġà¤ªà¤Ĺ": 4783, "à¤ľà¤Ĺà¤¤": 4784, "à¤µà¤°à¤¨": 4785, "ĠLe": 4786, "iver": 4787, "Ġ1909": 4788, "Ad": 4789, "Ġà¤¤à¤ķà¤²": 4790, "300": 4791, "HO": 4792, "à¤Ĩà¤µà¤ľ": 4793, "ĠAb": 4794, "Ġà¤®à¤¦à¤°à¤¸": 4795, "Ġ1906": 4796, "Ġnumbers": 4797, "Ġreturns": 4798, "à¤®à¤ĺ": 4799, "Ġà¤¬à¤°à¤¨": 4800, "à¤ĩà¤¬à¤²": 4801, "à¤ħà¤Ł": 4802, "à¤ħà¤·": 4803, "ars": 4804, "Ġfields": 4805, "à¤ħà¤¹à¤®à¤¦": 4806, "à¤ªà¤Łà¤²": 4807, "Ġà¤¶à¤¹à¤¦": 4808, "Ġà¥§à¥¯à¥¬à¥«": 4809, "RC": 4810, "SM": 4811, "à¤ļà¤¬": 4812, "à¤¼à¤¾à¤ģ": 4813, "à¤ıà¤®à¤¸": 4814, "à¤¡à¤°à¤Ĺ": 4815, "à¤®à¤²à¤µ": 4816, "Ġ101": 4817, "ĠRes": 4818, "ody": 4819, "Ġà¤īà¤ķà¤¸": 4820, "ĠâĢİ": 4821, "à¥¬à¥§": 4822, "ĠBC": 4823, "aya": 4824, "As": 4825, "Ġà¤ªà¤ª": 4826, "Ġà¤Ķà¤ļ": 4827, "Ġà¤Īà¤¥à¤°": 4828, "à¥¬à¥Ń": 4829, "Ġstat": 4830, "ublic": 4831, "ĠHTML": 4832, "li": 4833, "Ġà¤£": 4834, "à¤Ĩà¤°à¤®": 4835, "Ġà¤īà¤ªà¤¸à¤°": 4836, "à¤²à¤ķà¤¤": 4837, "Ġ106": 4838, "Ġgu": 4839, "Ġà¤Ńà¤¯à¤Ń": 4840, "à¤ħà¤«à¤Ĺ": 4841, "vg": 4842, "wiki": 4843, "à¥ĩà¤ģ": 4844, "Ġà¤«à¤ķ": 4845, "Ġà¤ªà¤¡à¤¤": 4846, "Ġà¤®à¤Ĺà¤°à¤®à¤ļ": 4847, "St": 4848, "Ġlocal": 4849, "à¤ĵà¤Ĺ": 4850, "à¤ĵà¤µà¤°": 4851, "Ġbuil": 4852, "ĠIs": 4853, "velop": 4854, "AC": 4855, "à¤¦à¤£": 4856, "à¤¶à¤ķà¤°": 4857, "Ġà¤īà¤¦à¤¹": 4858, "Ġà¤ħà¤µà¤®": 4859, "ĠSc": 4860, "ify": 4861, "Ġ1907": 4862, "Ġconst": 4863, "Ġtrue": 4864, "Ġà¤²à¤°": 4865, "Ġfalse": 4866, "ites": 4867, "Ġdel": 4868, "Ġthree": 4869, "à¤¤à¤¶à¤¤": 4870, "à¤¸à¤¯": 4871, "à¤¸à¤°à¤¤": 4872, "à¤Łà¤¹": 4873, "Ġà¤ªà¤°à¤¹": 4874, "à¤«à¤²à¤¸": 4875, "à¤ĵà¤Ł": 4876, "Ġcal": 4877, "ĠSu": 4878, "Ġchang": 4879, "Ġredirect": 4880, "Ġà¤ķà¤²à¤¨": 4881, "Ġà¤¬à¤¨à¤°": 4882, "Ġà¤ĺà¤¬à¤°": 4883, "omin": 4884, "à¥©à¥ª": 4885, "Ġcommunity": 4886, "Ã¡": 4887, "Ġà¤ıà¤Ĩà¤Ī": 4888, "Ġsepar": 4889, "Ġà¥§à¥«à¥¦": 4890, "à¤·à¤ľà¤¨à¤ķ": 4891, "Ġà¤Ĩà¤ĩà¤¡": 4892, "Ġà¤Ĩà¤Īà¤ĵà¤¸": 4893, "à¤Ĩà¤°à¤Ĩà¤Ī": 4894, "Ġà¥ªà¥ª": 4895, "Ġà¥¬à¥ª": 4896, "Ġà¤ħà¤Łà¤ķà¤²": 4897, "ĠWWF": 4898, "Hz": 4899, "Ġà¤µà¤¨à¤µ": 4900, "à¤Īà¤¬": 4901, "Ġà¤Īà¤µ": 4902, "Ġà¥©à¥®": 4903, "ild": 4904, "Ð²": 4905, "à¤®à¤¨à¤¸": 4906, "ither": 4907, "ibr": 4908, "rict": 4909, "Ġrequest": 4910, "à¤ľà¤ªà¤°": 4911, "Ġà¤ĵà¤Ŀ": 4912, "edic": 4913, "Ġeff": 4914, "Ġà¤ĸà¤°à¤Ĺ": 4915, "à¥¯à¥©": 4916, "stitute": 4917, "à¤¯à¤¦à¤°": 4918, "Ġà¤ıà¤ķà¤¸": 4919, "Ġà¤ĸà¤¸": 4920, "Ġte": 4921, "à¤¦à¤°à¤ħà¤¸à¤²": 4922, "Ġà¤ľà¤¬à¤¡": 4923, "Ġà¥«à¥¨": 4924, "Ġ230": 4925, "à¥¯à¥¯": 4926, "Ġà¥§à¥¯à¥Ńà¥ª": 4927, "Ġà¤®à¤ķà¤¸": 4928, "Ġ119": 4929, "Ġà¤Ľà¤Ł": 4930, "Ġwrit": 4931, "Ġà¤Ĩà¤ľà¤®": 4932, "Ġà¤Ĩà¤¸à¤µà¤¨": 4933, "Ġà¥«à¥ª": 4934, "à¦¨": 4935, "à¥§à¥¯à¥§à¥": 4936, "à¤¦à¤¶à¤¹à¤°": 4937, "Ġchange": 4938, "On": 4939, "oard": 4940, "ware": 4941, "ÛĴ": 4942, "à¤Ĺà¤²à¤¨": 4943, "à¤¡à¤²à¤°": 4944, "Ġperson": 4945, "Ġà¤¤à¤²à¤¹à¤Ł": 4946, "ĠÂ²": 4947, "Paramet": 4948, "600": 4949, "à¤°à¤ªà¤°": 4950, "à¤¯à¤¸à¤°": 4951, "Ġà¤µà¤¡": 4952, "Ġà¤ĩà¤ķà¤²": 4953, "Ġterm": 4954, "hem": 4955, "Ġ747": 4956, "à¤Ĭà¤¨": 4957, "ĠAs": 4958, "Ġà¤¸à¤®à¤Ŀà¤ķà¤°": 4959, "Ġà¥«à¥©": 4960, "Ġvery": 4961, "aur": 4962, "Â·": 4963, "Ġà¤¹à¤°à¤ķà¤¤": 4964, "Ġà¤ħà¤µà¤ķà¤²": 4965, "ason": 4966, "Ġà¤¸à¤ļà¤®": 4967, "Ġà¥§à¥¯à¥¬à¥©": 4968, "Ġlev": 4969, "Note": 4970, "Î¿": 4971, "Ġà¤ķà¤¸à¤®": 4972, "Ġà¤¸à¤¹à¤ķà¤°": 4973, "iter": 4974, "à¥«à¥Ń": 4975, "Ġhy": 4976, "Ġlast": 4977, "Ġpossible": 4978, "ient": 4979, "à¤¨à¤Ĺà¤¢": 4980, "à¤¯à¤°à¤ķ": 4981, "ices": 4982, "Ġdirect": 4983, "ĠAD": 4984, "omy": 4985, "uring": 4986, "ulation": 4987, "à¤ıà¤¨à¤ıà¤¸": 4988, "ister": 4989, "Ġà¥§à¥¯à¥ªà¥¯": 4990, "Ġlet": 4991, "ĠWikimedia": 4992, "BN": 4993, "SE": 4994, "TA": 4995, "à¥Ģà¤¼": 4996, "Ġà¤¬à¤Ĺà¤¦": 4997, "Ġà¤¶à¤Łà¤²": 4998, "Ġscript": 4999, "Ġwar": 5000, "read": 5001, "Ġà¥ªà¥©": 5002, "Ġà¥®à¥¬": 5003, "Thank": 5004, "Ġà¥¯à¥«": 5005, "prot": 5006, "à¤µà¤°à¤ķà¤°": 5007, "Ġà¤°à¤¡": 5008, "Ġà¤ĩà¤¯à¤°": 5009, "ĠCent": 5010, "Ġà¥ªà¥¬": 5011, "Ġdisplayed": 5012, "Un": 5013, "When": 5014, "à¤ĩà¤§à¤°": 5015, "à¤°à¤®à¤¸": 5016, "Ġ1800": 5017, "Ġà¤ıà¤²à¤°": 5018, "tical": 5019, "1989": 5020, "Ġoutput": 5021, "Ġ360": 5022, "Ġopt": 5023, "ĠSch": 5024, "Ġ102": 5025, "ists": 5026, "very": 5027, "Ġà¤ļà¤®à¤ķà¤¦": 5028, "Ġà¤Ĩà¤īà¤Łà¤²": 5029, "Ġà¥Ĳ": 5030, "Ġà¤°à¤£à¤µ": 5031, "à¤ĺà¤Łà¤ķ": 5032, "ĠEd": 5033, "uct": 5034, "Ġà¤®à¤Ľ": 5035, "Ġà¤°à¤®à¤¨": 5036, "Ġà¤Ĩà¤Īà¤¡": 5037, "ush": 5038, "Ġarch": 5039, "Ġà°": 5040, "Ø§Ø": 5041, "Ġbased": 5042, "bit": 5043, "Ġà¤ªà¤°à¤²": 5044, "à¤¸à¤®à¤ķ": 5045, "ules": 5046, "Ġà¥ªà¥Ń": 5047, "Ġà¤¦à¤¶à¤¹à¤°": 5048, "PM": 5049, "mit": 5050, "Ġà¤ªà¤²à¤ķ": 5051, "Ġà¤ħà¤ľà¤¨": 5052, "Ġà¤¤à¤¡": 5053, "à¤°à¤£à¤µ": 5054, "Ġhai": 5055, "Ġ@": 5056, "Ġé": 5057, "à¤¶à¤¨à¤ķ": 5058, "ĠHD": 5059, "imal": 5060, "ropri": 5061, "Wiki": 5062, "ÉĻ": 5063, "à¤¬à¤ķà¤¤": 5064, "Ġà¤«à¤°à¤®": 5065, "Ġà¤ĳà¤¯à¤²": 5066, "Ġà¤ķà¤²à¤¶": 5067, "Ġpeople": 5068, "def": 5069, "à¤ĳà¤ªà¤°": 5070, "Ġ1902": 5071, "Ġplain": 5072, "Ġà¤¬à¤°à¤¤à¤¨": 5073, "Ġà¤®à¤ķà¤¸à¤¦": 5074, "à¤²à¤¸à¤¨": 5075, "Ġà¤¬à¤°à¤®": 5076, "à¤¡à¤¹": 5077, "à¤ıà¤ı": 5078, "à¤Ĩà¤°à¤ª": 5079, "à¤°à¤¦à¤¨": 5080, "agar": 5081, "ross": 5082, "Ġà¥§à¥¯à¥¬à¥§": 5083, "Ġmonth": 5084, "tom": 5085, "Ġà¤¹à¤°à¤®": 5086, "Ġpur": 5087, "ica": 5088, "Ġrun": 5089, "Ġà¤¹à¤Łà¤ķà¤°": 5090, "Ġà¤ıà¤ļà¤¡": 5091, "ua": 5092, "à¤¯à¤µà¤¤": 5093, "Ġà¤¸à¤Īà¤¦": 5094, "à¤µà¤Ńà¤°": 5095, "Ġà¤°à¤ľà¤¨": 5096, "à¤¼à¤¼à¥ģ": 5097, "à¤ıà¤ķà¤²": 5098, "à¤°à¤¤à¤Ł": 5099, "à¥©à¥©": 5100, "à¤ıà¤®à¤Ł": 5101, "Ġà¥§à¥¯à¥®à¥§": 5102, "Ġà¥§à¥¯à¥«à¥Ń": 5103, "Ġà¤Ńà¤Ĺà¤µà¤¨": 5104, "Ġspecified": 5105, "po": 5106, "à¤¤à¤ļà¤°": 5107, "à¤¹à¤°à¤¤": 5108, "Ġà¤Ĩà¤ĩà¤ľ": 5109, "Ġà¤¸à¤®à¤µ": 5110, "à¤¤à¤°à¤¬": 5111, "Ġà¤ªà¤¦à¤Ń": 5112, "Ġà¥«à¥§": 5113, "Ġà¤Ĺà¤£à¤ªà¤¤": 5114, "Ġusers": 5115, "str": 5116, "Ġ1895": 5117, "ST": 5118, "ps": 5119, "wn": 5120, "à¤°à¤µà¤¤": 5121, "à¤®à¤ĸ": 5122, "à¤ªà¤ĸ": 5123, "Ġà¤ĩà¤¤à¤°": 5124, "Ġ220": 5125, "à¤Ĩà¤¯à¤°à¤²": 5126, "Ġà¤¡à¤²": 5127, "Ġà¤łà¤£": 5128, "à¥Ńà¥ª": 5129, "lution": 5130, "Ġ1858": 5131, "ength": 5132, "las": 5133, "ram": 5134, "winkle": 5135, "à¤®à¤ªà¤°": 5136, "à¤ļà¤µà¤°": 5137, "Ġà¤ķà¤°à¤®": 5138, "à¤¤à¤°à¤®": 5139, "à¤ķà¤Łà¤Ĺ": 5140, "Ġ103": 5141, "Ġthose": 5142, "Ġà¥§à¥¯à¥¬à¥ª": 5143, "ÂŃ": 5144, "à¤ĩà¤¸à¤ªà¤°": 5145, "Ġà¤īà¤ªà¤²à¤ķ": 5146, "Ġà¤§à¤¨à¤¬": 5147, "Ġorgan": 5148, "Ġà¤ıà¤¯à¤°à¤¬à¤¸": 5149, "Ġà¥®à¥«": 5150, "1971": 5151, "ĠâĨĴ": 5152, "Ðº": 5153, "Ġà¤¿": 5154, "à¤¬à¤ĸ": 5155, "à¤Ĩà¤µà¤¶": 5156, "Ġà¤¡à¤Ĺà¤²à¤¸": 5157, "Ġà¤§à¤µà¤¨": 5158, "à¤¸à¤°à¤²": 5159, "Ġfam": 5160, "Ġà¤ľà¤²à¤®": 5161, "Ġà¤¬à¤²à¤µ": 5162, "à¥®à¥«": 5163, "ĠNew": 5164, "Ġ1890": 5165, "Ġmargin": 5166, "Ġè": 5167, "à¤¤à¤µà¤°": 5168, "à¤¤à¤¹à¤¸": 5169, "à¤Īà¤¥": 5170, "Ġà¤ļà¤ªà¤Ł": 5171, "Ġà¤«à¤¹à¤°": 5172, "à¤Ĩà¤ł": 5173, "Ġà¤®à¤¸à¤²à¤¨": 5174, "Ġà²": 5175, "Ġà¥§à¥¯à¥¬à¥¯": 5176, "itional": 5177, "Ġpoem": 5178, "Ġà¤¨à¤«à¤°à¤¤": 5179, "ropriate": 5180, "page": 5181, "svg": 5182, "à¤®à¤²à¤¯": 5183, "Ġà¤µà¤Ĺ": 5184, "à¤£à¤§à¤°": 5185, "Ġà¤Ĩà¤ĩà¤¸à¤²": 5186, "oto": 5187, "Ġà¥§à¥¯à¥¬à¥¬": 5188, "Ġà¤īà¤Ńà¤¯": 5189, "SC": 5190, "action": 5191, "gg": 5192, "à¤¹à¤Ń": 5193, "otype": 5194, "ĠIm": 5195, "imes": 5196, "Ġà¥§à¥¯à¥¨à¥¦": 5197, "Ġà¤¸à¤°à¤¹à¤¦": 5198, "han": 5199, "ii": 5200, "Ġà¤ľà¤¬à¤°à¤¨": 5201, "à¤¼à¥Ģà¤Ĥ": 5202, "ĠPo": 5203, "ilar": 5204, "ĠFor": 5205, "Ġshort": 5206, "Ġ1899": 5207, "ĠXX": 5208, "Ġcontribut": 5209, "à¤īà¤ªà¤²à¤¬": 5210, "All": 5211, "Ġà¤¸à¤¨à¤ķ": 5212, "Ġà¤ļà¤Łà¤°": 5213, "ino": 5214, "Ġwikipedia": 5215, "à¥¬à¥¬": 5216, "Ġà¥©à¥¦à¥¦à¥¦": 5217, "Ġà¤ıà¤¨à¤ıà¤ļ": 5218, "Ġ115": 5219, "ird": 5220, "to": 5221, "à¤°à¤ĸà¤°": 5222, "à¤¤à¤§": 5223, "à¤®à¤Ľà¤²": 5224, "à¤ªà¤¢": 5225, "Ġà¤ªà¤¹à¤°": 5226, "Ġsem": 5227, "à¤īà¤¨à¤¸": 5228, "1920": 5229, "ĠSO": 5230, "rol": 5231, "Ġà¥§à¥¯à¥Ńà¥¯": 5232, "Ġà¥§à¥¯à¥ªà¥¨": 5233, "Ġà¥§à¥¯à¥ªà¥«": 5234, "Ġà¤Ĩà¤īà¤Łà¤¸": 5235, "ĠYou": 5236, "ails": 5237, "war": 5238, "Ġà¥ł": 5239, "à¤ĸà¤Ł": 5240, "align": 5241, "Ġpass": 5242, "à¤°à¤¬à¤ķ": 5243, "ĠHe": 5244, "Ġstate": 5245, "RI": 5246, "à¤¶à¤µà¤°": 5247, "ict": 5248, "ĠPC": 5249, "ĠGoogle": 5250, "ĠØ³": 5251, "Ġà¥§à¥¯à¥¬à¥Ń": 5252, "How": 5253, "RA": 5254, "ÑĤ": 5255, "à¤ªà¤°à¤¤": 5256, "Ġà¤¬à¤ľà¤°": 5257, "Ġà¤Ľà¤ķ": 5258, "à¤¸à¤®à¤Ŀ": 5259, "à¤Ŀà¤°": 5260, "à¥«à¥¦à¥¦": 5261, "Ġ1880": 5262, "ather": 5263, "à¤¤à¤¡": 5264, "à¤¸à¤°à¤¦": 5265, "à¤ľà¤¯à¤µ": 5266, "ality": 5267, "à¥Ńà¥¨": 5268, "Ġhap": 5269, "Ġà¤ıà¤®à¤ı": 5270, "Ġperiod": 5271, "Ġcoordin": 5272, "Ġreference": 5273, "Ġautomatically": 5274, "Com": 5275, "wik": 5276, "ÃŃ": 5277, "ÏĤ": 5278, "Ġà¤ŀ": 5279, "Ġà¤ķà¤¯": 5280, "Ġà¤Ķà¤²": 5281, "Ġà¤ħà¤§à¤°": 5282, "à¤¦à¤°à¤¬": 5283, "rect": 5284, "ĠID": 5285, "Ġà¥§à¥¯à¥ªà¥¦": 5286, "Ġà¥¯à¥¬": 5287, "Ġlisted": 5288, "PI": 5289, "à¤Ľà¤¹": 5290, "à¤Ĺà¤°à¤ª": 5291, "ĠAss": 5292, "à¥©à¥¬": 5293, "à¤Ĩà¤°à¤ıà¤¸": 5294, "rough": 5295, "view": 5296, "Data": 5297, "Ġà¤ªà¤§": 5298, "era": 5299, "ĠâĢ¦": 5300, "Ġpost": 5301, "lection": 5302, "Ġcountry": 5303, "Ġur": 5304, "Ġà¤ķà¤Łà¤ķ": 5305, "à¤®à¤°à¤¸": 5306, "Ġà¤ªà¤¨à¤ª": 5307, "à¤Ĺà¤°à¤ķ": 5308, "à¤°à¤£à¤µà¤¶": 5309, "0000": 5310, "Ġtab": 5311, "Ġbi": 5312, "ĠMet": 5313, "à¥®à¥®": 5314, "Ġà¥«à¥¬": 5315, "Ġla": 5316, "à¤Ĳà¤ķ": 5317, "ĠOS": 5318, "à¤ıà¤ļà¤ĵ": 5319, "Ġà¤ıà¤«à¤¬": 5320, "1984": 5321, "1986": 5322, "TI": 5323, "à¤ªà¤¦à¤ķ": 5324, "à¤¬à¤µ": 5325, "Ġà¤Ĩà¤°à¤£": 5326, "à¤Ĩà¤Ĺà¤°": 5327, "atch": 5328, "à¤¤à¤¨à¤®": 5329, "Ġwell": 5330, "à¤Ĩà¤°à¤Ł": 5331, "Ġà¥ªà¥¨": 5332, "Ġcalled": 5333, "less": 5334, "à¤Łà¤¤à¤®": 5335, "Ġà¤Ńà¤Łà¤¨": 5336, "ati": 5337, "Ġà¤ħà¤µà¤ľ": 5338, "Ġ1860": 5339, "Ġnamed": 5340, "ĠPer": 5341, "Ġver": 5342, "ĠØ¹": 5343, "1972": 5344, "Ġsingle": 5345, "FD": 5346, "RL": 5347, "wh": 5348, "Ġà¤Ļ": 5349, "Ġà¤¹à¤²à¤µ": 5350, "à¤¡à¤¯": 5351, "à¤ıà¤¨à¤¸": 5352, "Ġà¤ıà¤ķà¤ķ": 5353, "à¤°à¤Ńà¤ķ": 5354, "Ġà¤ħà¤¤à¤ıà¤µ": 5355, "à¤¨à¤µà¤µ": 5356, "Ġanother": 5357, "idata": 5358, "Ġ128": 5359, "Ġfunctions": 5360, "Ġà¥§à¥¯à¥«à¥ª": 5361, "Ġ1898": 5362, "Ġà¤łà¤¹à¤°à¤¨": 5363, "ĠÎ±": 5364, "Ġà¤¹à¤¯": 5365, "à¤®à¤¢": 5366, "Ġà¤ªà¤Ľ": 5367, "alism": 5368, "itive": 5369, "Ġdig": 5370, "Ġne": 5371, "ĠWorld": 5372, "ĠBe": 5373, "Ġà¤¦à¤¶à¤®à¤²à¤µ": 5374, "Ġà¥§à¥¯à¥«à¥¯": 5375, "Ġ1870": 5376, "ategory": 5377, "Ġà¤ıà¤¬à¤°à¤¡": 5378, "wikipedia": 5379, "Ġà¤®à¤¸à¤²": 5380, "à¤µà¤Ĺà¤¨": 5381, "à¤ªà¤µà¤°": 5382, "Ġà¤ľà¤²à¤¯": 5383, "à¤§à¤®à¤¨": 5384, "à¤Ńà¤°à¤£": 5385, "let": 5386, "à¥«à¥«": 5387, "à¥ªà¥®": 5388, "Ġà¤¬à¤¸à¤ª": 5389, "Ġ1903": 5390, "vert": 5391, "Ġ00722": 5392, "Ġmethod": 5393, "Ġmultiple": 5394, "RE": 5395, "à¤ıà¤Łà¤²": 5396, "à¤īà¤§à¤°": 5397, "à¤°à¤¸à¤®": 5398, "à¤¨à¤ķà¤ª": 5399, "à¤ĺà¤¡": 5400, "Ġà¤ĵà¤µà¤²": 5401, "Ġbook": 5402, "ĠIC": 5403, "Ġà¥¬à¥¦à¥¦": 5404, "Ġà¤®à¤Ĺà¤¹": 5405, "Ġà¥§à¥¯à¥«à¥«": 5406, "Ġ1894": 5407, "Ġ1887": 5408, "Ġà¥¯à¥§": 5409, "phab": 5410, "Ġknow": 5411, "Ġresults": 5412, "Ġà¤Ĺà¤Ĺà¤¨à¤ļ": 5413, "à¤¶à¤²à¤®": 5414, "Ġà¤²à¤ľ": 5415, "à¤ĩà¤¦": 5416, "Ġà¤Ĩà¤®à¤¦à¤¨": 5417, "Ġ1200": 5418, "Ġitem": 5419, "Ġà¥§à¥¯à¥¬à¥®": 5420, "Ġà¥¯à¥¯": 5421, "Ġcategories": 5422, "Examples": 5423, "Ġtechnews": 5424, "Ġà¤Ĩà¤ĩà¤Łà¤®": 5425, "hip": 5426, "ti": 5427, "à¤¤à¤ĸ": 5428, "Ġà¤¨à¤µà¤ª": 5429, "à¤¯à¤ķà¤µ": 5430, "Ġà¤ĵà¤ıà¤¸": 5431, "Ġpop": 5432, "à¤°à¤§à¤°": 5433, "Ġrepr": 5434, "Ġeng": 5435, "ress": 5436, "Ġà¤ħà¤¹à¤²": 5437, "Ġà¤²à¤¹": 5438, "à¤Ŀà¤¨": 5439, "ĠAM": 5440, "à¤°à¤ªà¤¦": 5441, "Ġhi": 5442, "ĠDr": 5443, "Ġà¤ıà¤®à¤ıà¤¸": 5444, "olar": 5445, "odes": 5446, "Ġki": 5447, "ĠJoh": 5448, "1988": 5449, "come": 5450, "Ġresp": 5451, "Ġaccess": 5452, "We": 5453, "fix": 5454, "à¥¤": 5455, "à¤¯à¤¬à¤°": 5456, "à¤¸à¤ĺ": 5457, "à¤·à¤¯à¤µà¤¸": 5458, "à¤·à¤§à¤°": 5459, "Ġà¤Ĺà¤®à¤¨": 5460, "Ġà¤ĩà¤Ĺà¤²": 5461, "Ġsur": 5462, "Ġsite": 5463, "Ġà¤¸à¤¹à¤ª": 5464, "Ġcould": 5465, "Ġfull": 5466, "Ġindex": 5467, "Ġtool": 5468, "à¥¬à¥®": 5469, "ĠOpen": 5470, "à¥¯à¥§": 5471, "Ġà¤ıà¤«à¤¸": 5472, "ected": 5473, "ĠInstitute": 5474, "Ġà¥§à¥®à¥«à¥Ń": 5475, "links": 5476, "à¤°à¤°à¤ķ": 5477, "à¤¤à¤Ł": 5478, "à¤īà¤¸à¤¸": 5479, "Ġà¤¡à¤°à¤¤": 5480, "Ġtyp": 5481, "arget": 5482, "à¥©à¥®": 5483, "ury": 5484, "à¤Ķà¤¸à¤¤": 5485, "ergy": 5486, "Ġdescription": 5487, "co": 5488, "Ø¹": 5489, "Ġlow": 5490, "Ġà¤²à¤¬": 5491, "Ġà¤¸à¤°à¤¨": 5492, "ional": 5493, "ĠMTV": 5494, "Ġhindi": 5495, "à¤ľà¤¯à¤Ĺà¤¢": 5496, "ified": 5497, "aking": 5498, "Ġà¤ħà¤¹à¤®à¤¦à¤¨à¤Ĺà¤°": 5499, "1987": 5500, "Ġà¥§à¥¯à¥«à¥¨": 5501, "ĠUniversity": 5502, "OM": 5503, "ration": 5504, "à¤ķà¤Ĩà¤īà¤Ł": 5505, "Ġà¤ıà¤Łà¤²": 5506, "à¤ıà¤¤": 5507, "Ġbar": 5508, "à¥©à¥¯": 5509, "à¥¬à¥ª": 5510, "1857": 5511, "Ġshown": 5512, "à¤¸à¤Łà¤°": 5513, "Ġà¤ľà¤Ĺà¤®": 5514, "à¤¬à¤²à¤ª": 5515, "à¤¬à¤²à¤¡à¤¨": 5516, "Ġ107": 5517, "istory": 5518, "Ġproble": 5519, "Ġà¥§à¥¯à¥Ńà¥®": 5520, "Ġ1885": 5521, "Ġimport": 5522, "Ġcommon": 5523, "Ġappropriate": 5524, "ĠSystem": 5525, "RM": 5526, "à¤¸à¤ĸ": 5527, "Ġà¤¬à¤ªà¤¤": 5528, "à¤ļà¤²à¤°": 5529, "à¤Īà¤«": 5530, "Ġà¤ļà¤°à¤ķ": 5531, "à¤°à¤¹à¤¸": 5532, "Ġflag": 5533, "Ġà¤ıà¤¸à¤¸": 5534, "Ġspell": 5535, "Ġ123": 5536, "Ġà¤ıà¤®à¤ª": 5537, "ster": 5538, "ĠQu": 5539, "itude": 5540, "AD": 5541, "Template": 5542, "à¤¸à¤«à¤°": 5543, "Ġà¤¸à¤¤à¤¨": 5544, "Ġà¤¬à¤ĺ": 5545, "à¤¥à¤¡": 5546, "atic": 5547, "ĠTe": 5548, "ĠMP": 5549, "ĠCan": 5550, "ĠAg": 5551, "1982": 5552, "à¥¨à¥¦à¥§à¥¦": 5553, "Ġà¤ļà¤®à¤ķà¤¤": 5554, "Ġsubject": 5555, "Ġcreated": 5556, "Ġà¤¦à¤°à¤®": 5557, "à¤ıà¤Ī": 5558, "Ġtd": 5559, "Ġà¤Īà¤Ĺà¤²": 5560, "Ġà¤ħà¤ªà¤ĺà¤Łà¤¨": 5561, "ĠAC": 5562, "Ġevery": 5563, "Ġ144": 5564, "Ġà¥ªà¥¯": 5565, "à¤ĳà¤¦à¤°": 5566, "1985": 5567, "à¤§à¤¶à¤¤à¤ķ": 5568, "Ġreplace": 5569, "Ïģ": 5570, "ĠáĢ": 5571, "Ġà¤¾": 5572, "à¤¦à¤°à¤ª": 5573, "Ġ450": 5574, "Ġà¤ıà¤¸à¤ıà¤¸": 5575, "Ġlaw": 5576, "à¤Ĳà¤¨": 5577, "Ġversion": 5578, "Ġ1897": 5579, "PS": 5580, "à¤µà¤¯à¤¸": 5581, "Ġà¤µà¤¯": 5582, "Ġà¤¨à¤Ĺà¤£": 5583, "Ġà¤°à¤Ĺà¤¡": 5584, "inc": 5585, "Ġà¤Īà¤¥": 5586, "ĠPers": 5587, "Ġà¤Ĩà¤Īà¤ľ": 5588, "Ġ114": 5589, "Ġà¤®à¤¶à¤°": 5590, "oph": 5591, "à±į": 5592, "list": 5593, "ved": 5594, "ËĲ": 5595, "à¤ļà¤ª": 5596, "Ġà¤¯à¤µà¤¨": 5597, "Ġà¤Īà¤²": 5598, "Ġà¤ħà¤µà¤¹": 5599, "Ġhad": 5600, "Ġeither": 5601, "à¤ıà¤®à¤ı": 5602, "These": 5603, "overn": 5604, "Ġauthor": 5605, "ograph": 5606, "Parameters": 5607, "Re": 5608, "be": 5609, "Ġà¤¹à¤µà¤¨": 5610, "à¤Łà¤ħà¤ª": 5611, "Ġà¤¸à¤®à¤°à¤¸": 5612, "à¤ķà¤°à¤®": 5613, "Ġà¤ħà¤²à¤ķ": 5614, "orn": 5615, "1940": 5616, "Ġoper": 5617, "à¥©à¥¨": 5618, "Ġlim": 5619, "Ġà¤ıà¤¨à¤ľ": 5620, "ife": 5621, "ecess": 5622, "ube": 5623, "à¥¨à¥¦à¥¦à¥§": 5624, "lumn": 5625, "colspan": 5626, "FID": 5627, "Pro": 5628, "date": 5629, "à¤¶à¤°à¤£": 5630, "à¤ĩà¤ı": 5631, "à¤ľà¤¨à¤ªà¤¦": 5632, "à¤ŀà¤µà¤²": 5633, "ĠMe": 5634, "ĠMal": 5635, "ĠIN": 5636, "à¥Ńà¥Ń": 5637, "Ġ124": 5638, "Ġ132": 5639, "à¤ĭà¤¤": 5640, "sy": 5641, "à¤Łà¤°à¤¬à¤°": 5642, "Ġcirc": 5643, "Ġbo": 5644, "Ġà¤ħà¤¸à¤¹à¤¯": 5645, "ĠMa": 5646, "ĠAct": 5647, "agn": 5648, "ĠRaj": 5649, "istent": 5650, "Ġconc": 5651, "Ġconsider": 5652, "mp": 5653, "ux": 5654, "à¤¬à¤²à¤¤": 5655, "à¤§à¤°à¤¤": 5656, "Ġà¤¸à¤°à¤ª": 5657, "Ġhand": 5658, "Ġ121": 5659, "Ġ126": 5660, "ĠNe": 5661, "à¦²": 5662, "Ġtemplated": 5663, "Ġ1889": 5664, "Ġà¤Ńà¤°à¤¤à¤¨": 5665, "Ġediting": 5666, "Ġsegmentid": 5667, "à¤¯à¤ļà¤ķ": 5668, "à¤¹à¤¨à¤²": 5669, "à¤ıà¤¡à¤®": 5670, "Ġà¤Ĩà¤ĸà¤°": 5671, "Ġà¤«à¤²à¤¤": 5672, "à¤µà¤°à¤²": 5673, "à¤ľà¤¨à¤²": 5674, "ĠLa": 5675, "à¤Ķà¤·à¤§": 5676, "Ġà¤¸à¤¡à¤ķ": 5677, "à¤īà¤ªà¤Ń": 5678, "Ġweight": 5679, "not": 5680, "Ġà¤ľà¤®à¤¨": 5681, "à¤ĩà¤ķà¤°": 5682, "à¤Ĩà¤Ń": 5683, "à¤Ĩà¤¯à¤¸": 5684, "à¤ľà¤¨à¤°à¤²": 5685, "anj": 5686, "ĠMus": 5687, "ĠCont": 5688, "ĠAnd": 5689, "Ġà¤ıà¤¸à¤ª": 5690, "ĠUN": 5691, "Ġ122": 5692, "Ġ1882": 5693, "Ġindic": 5694, "à³į": 5695, "Ġtemplatedata": 5696, "Tr": 5697, "Ġà¤¸à¤īà¤¦": 5698, "à¤Ńà¤¤": 5699, "à¤Īà¤ļ": 5700, "arth": 5701, "ĠBM": 5702, "Ġke": 5703, "Ġund": 5704, "Ġ1891": 5705, "ĠâĤ¬": 5706, "Ã³": 5707, "à¤ķà¤ĺà¤°": 5708, "à¤²à¤Ī": 5709, "à¤µà¤²à¤¨": 5710, "à¤īà¤ľà¤°": 5711, "ĠMy": 5712, "Ġ170": 5713, "Ġ138": 5714, "ives": 5715, "pty": 5716, "Ġà¥¦à¥¨": 5717, "Ġ1888": 5718, "ccess": 5719, "à¥Ĩà¤Ĥ": 5720, "ruct": 5721, "prototype": 5722, "EE": 5723, "for": 5724, "Ùģ": 5725, "à¤²à¤µà¤°": 5726, "à¤ªà¤Łà¤ķà¤¥": 5727, "Ġà¤¨à¤ĸ": 5728, "Ġà¤«à¤¡": 5729, "à¤ħà¤£": 5730, "Ġthrough": 5731, "Ġ127": 5732, "Ġge": 5733, "Ġpresent": 5734, "Ġeditor": 5735, "my": 5736, "ven": 5737, "Ġà¤®à¤®à¤¤": 5738, "à¤ªà¤²à¤¬": 5739, "Ġà¤¬à¤¸à¤¤": 5740, "Ġà¤¤à¤¬à¤²": 5741, "à¤²à¤¤à¤®": 5742, "à¤¯à¤°à¤µ": 5743, "ised": 5744, "ĠIt": 5745, "Ġà¤²à¤¡à¤ķ": 5746, "Ġlang": 5747, "ides": 5748, "Ġprot": 5749, "Ġà¥§à¥¯à¥©à¥§": 5750, "ustom": 5751, "Ġquest": 5752, "dom": 5753, "ho": 5754, "Î½": 5755, "à¤¾à¥ĩ": 5756, "à¤°à¤ĸà¤¨": 5757, "à¤Ĺà¤Ĺ": 5758, "à¤ľà¤¨à¤µ": 5759, "ination": 5760, "hel": 5761, "ĠGu": 5762, "acing": 5763, "illion": 5764, "ferences": 5765, "à¤¨à¤Ń": 5766, "Ġà¤°à¤¨à¤µ": 5767, "Ġà¤²à¤ĸà¤¨": 5768, "Ġà¤Īà¤¡": 5769, "ĠâĢį": 5770, "ora": 5771, "Ġfact": 5772, "ĠTV": 5773, "à¤ĩà¤²à¤°": 5774, "Ġà¤īà¤ªà¤¨à¤¦": 5775, "à¤ıà¤®à¤Ĩà¤Ī": 5776, "Ġround": 5777, "Ġà¤īà¤Ńà¤°à¤¨": 5778, "Ġadding": 5779, "duct": 5780, "SD": 5781, "à¤®à¤¬à¤°": 5782, "à¤µà¤µà¤¤": 5783, "Ġà¤ľà¤ķ": 5784, "Ġà¤ıà¤¨à¤ķ": 5785, "Ġà¤¸à¤®à¤¶": 5786, "Ġà¤«à¤µ": 5787, "ished": 5788, "Ġbre": 5789, "Ġ111": 5790, "Ġprefix": 5791, "ĠUnited": 5792, "Ġcontains": 5793, "800": 5794, "EG": 5795, "iy": 5796, "oo": 5797, "Ġà¤µà¤²à¤¯": 5798, "Ġà¤Ńà¤°à¤ķà¤°": 5799, "Ġà¤ªà¤°à¤ĸ": 5800, "à¤°à¤¤à¤µ": 5801, "à¤ľà¤¨à¤Ĺà¤£à¤¨": 5802, "à¤¯à¤¨à¤ľ": 5803, "Ġdr": 5804, "Ġ750": 5805, "à¤¬à¤¦à¤²": 5806, "Ġà¥§à¥¯à¥«à¥®": 5807, "Ġeditors": 5808, "Ġupload": 5809, "Example": 5810, "Ġletter": 5811, "à¤¾'": 5812, "Ġà¤ķà¤¢": 5813, "Ġà¤®à¤¡": 5814, "à¤£à¤ªà¤¶": 5815, "à¤«à¤¸": 5816, "Ġà¤ħà¤¨à¤¶à¤¨": 5817, "Ġtem": 5818, "Ġsk": 5819, "icon": 5820, "Ġeast": 5821, "Ġ112": 5822, "Ġà¥ªà¥§": 5823, "Ġà¤ĩà¤ķà¤ł": 5824, "format": 5825, "OR": 5826, "à¤¨à¤ļà¤°": 5827, "à¤¹à¤Ĺà¤¢": 5828, "à¤¶à¤¶": 5829, "à¤·à¤µà¤°": 5830, "à¤ĵà¤¬": 5831, "Ġwest": 5832, "Ġmov": 5833, "ĠCal": 5834, "à¥®à¥ª": 5835, "Ġà¤ĩà¤ķà¤¬": 5836, "Ġplaced": 5837, "ĠAmeric": 5838, "aut": 5839, "oot": 5840, "ran": 5841, "Ùİ": 5842, "à¤µà¤§à¤°": 5843, "Ġ109": 5844, "urb": 5845, "Ġ116": 5846, "Ġ145": 5847, "Ġà¥¦à¥«": 5848, "à§ĩ": 5849, "ray": 5850, "Ġä": 5851, "Ġà¤®à¤ĸ": 5852, "Ġà¤ľà¤ķà¤¡": 5853, "Ġà¤ıà¤ıà¤®": 5854, "Ġà¤¸à¤®à¤·": 5855, "Ġà¤īà¤ªà¤¸à¤®": 5856, "Ġtarget": 5857, "arh": 5858, "Ġà¤Ĩà¤¯à¤ķà¤°": 5859, "Ġopen": 5860, "ĠAll": 5861, "Ġà¤ķà¤¥à¤ķ": 5862, "à¤¨à¤¹à¤Łà¤¨": 5863, "However": 5864, "ME": 5865, "Ġà¤ķà¤Łà¤°": 5866, "Ġà¤Ĺà¤²à¤¨": 5867, "à¤ıà¤²à¤¬": 5868, "à¤°à¤®à¤²": 5869, "à¤Łà¤¨à¤®": 5870, "Ġà¤ªà¤¦à¤®": 5871, "Ġdon": 5872, "Ġnav": 5873, "usion": 5874, "ential": 5875, "Ġà¤ķà¤µà¤¯": 5876, "idae": 5877, "ĠWCW": 5878, "Ġ117": 5879, "Ġà¥Ńà¥¨": 5880, "Ġprogr": 5881, "Ġà¥§à¥¯à¥©à¥¬": 5882, "Ġà¤¹à¤ķà¤¦": 5883, "ches": 5884, "Use": 5885, "ler": 5886, "Ġrow": 5887, "à¤¨à¤ľà¤°": 5888, "Ġà¤ľà¤ĸ": 5889, "à¤¡à¤¬à¤²": 5890, "à¤¢à¤ķ": 5891, "ony": 5892, "Ġà¤¦à¤°à¤ħà¤¸à¤²": 5893, "Ġfile": 5894, "ĠTechn": 5895, "à¤²à¤ķà¤¨": 5896, "à¤Ĭà¤·": 5897, "Ġà¤ıà¤¨à¤Ł": 5898, "Ġeas": 5899, "1977": 5900, "à®¿": 5901, "à¥¨à¥¦à¥¦à¥¬": 5902, "Ġcolumn": 5903, "Ġà¤Ĩà¤Īà¤ıà¤¸à¤ĵ": 5904, "Ġdiscussion": 5905, "à¤¹à¤¥": 5906, "à¤¡à¤ļ": 5907, "à¤ĸà¤¬": 5908, "Ġà¤¸à¤°à¤Ĺ": 5909, "à¥Ńà¥®": 5910, "ĠBl": 5911, "ival": 5912, "Ġà¤ªà¤¢à¤¨": 5913, "uman": 5914, "Ġwithin": 5915, "Ġonlyinclude": 5916, "Ġchem": 5917, "BM": 5918, "LS": 5919, "Twinkle": 5920, "áŀ": 5921, "Ġà¤¸à¤°à¤¯": 5922, "à¤®à¤°à¤ķ": 5923, "à¤ľà¤ĺà¤°": 5924, "à¤¬à¤°à¤¦à¤¸": 5925, "à¤¤à¤°à¤«": 5926, "à¤łà¤Ĺ": 5927, "esc": 5928, "ĠCar": 5929, "à¤ıà¤¸à¤¬": 5930, "à¥ªà¥ª": 5931, "une": 5932, "roll": 5933, "Ġà¥§à¥¯à¥«à¥©": 5934, "Ġ1884": 5935, "Ġà¥¯à¥Ń": 5936, "Ġnumer": 5937, "ij": 5938, "ling": 5939, "à¤ľà¤ľ": 5940, "à¤¥à¤ľ": 5941, "Ġà¤°à¤¹à¤®à¤¤": 5942, "Ġà¤ĺà¤®": 5943, "à¤¬à¤²à¤°": 5944, "Ġà¤Ńà¤Ĺà¤µà¤¦": 5945, "ĠFile": 5946, "istor": 5947, "Ġà¤¹à¤²à¤ļà¤²": 5948, "Ġunits": 5949, "1973": 5950, "Ġ1886": 5951, "Ġà¥§à¥¯à¥¨à¥®": 5952, "Ġ00718": 5953, "à§ģ": 5954, "Ġincluding": 5955, "à¤·à¤Ń": 5956, "Ġà¤ıà¤ıà¤«à¤¸": 5957, "à¤¢à¤¤": 5958, "Ġwr": 5959, "Ġmight": 5960, "à¤¨à¤µà¤ľ": 5961, "à¥«à¥¬": 5962, "Ġorig": 5963, "Ġexpl": 5964, "à¥¨à¥¦à¥¦à¥®": 5965, "Ġdocumentation": 5966, "tain": 5967, "à¤ķà¤Ĺà¤£": 5968, "à¤¹à¤¤à¤ķ": 5969, "à¥ĩà¤Ĥà¤Ĥ": 5970, "à¤¤à¤°à¤¨": 5971, "Ġà¤ĸà¤°à¤¬": 5972, "Ġà¤²à¤Ĺà¤µ": 5973, "enc": 5974, "ense": 5975, "à¤²à¤ķà¤¡": 5976, "icial": 5977, "1948": 5978, "ivid": 5979, "style": 5980, "à¤ıà¤«à¤ıà¤¸": 5981, "Ġà¤ıà¤«à¤¡": 5982, "Ġknown": 5983, "RP": 5984, "à¤Łà¤Ń": 5985, "Ġà¤ªà¤°à¤®à¤¹": 5986, "Ġà¤īà¤ªà¤¤": 5987, "à¤¯à¤°à¤¨": 5988, "erc": 5989, "Ġmicro": 5990, "Ġmade": 5991, "Ġà¤¬à¤²à¤¦": 5992, "lue": 5993, "ĠUser": 5994, "à¤¯à¤µà¤§": 5995, "Ġ118": 5996, "Ġà¤¤à¤Łà¤µà¤°": 5997, "ĠInt": 5998, "ological": 5999, "Ġà¤īà¤²à¤Ŀà¤¨": 6000, "Ġplainlinks": 6001, "hing": 6002, "à¤¯à¤Łà¤°": 6003, "Ġà¤¸à¤¹à¤°": 6004, "Ġà¤¬à¤¶à¤°": 6005, "à¤ĸà¤ľ": 6006, "à¤¹à¤°à¤¨": 6007, "Ġ4000": 6008, "ĠDi": 6009, "à¤¯à¤µà¤¶": 6010, "ilink": 6011, "Ġ1893": 6012, "Ġadmin": 6013, "Ġà¥§à¥¯à¥¨à¥§": 6014, "ĠTrans": 6015, "ged": 6016, "table": 6017, "à¤¤à¤Ĺà¤¤": 6018, "à¤²à¤¹à¤¨": 6019, "à¤Łà¤¶": 6020, "à¤¡à¤¨à¤°": 6021, "Ġà¤ļà¤£": 6022, "Ġcy": 6023, "Ġcfg": 6024, "à¥®à¥Ń": 6025, "Ġ133": 6026, "ĠHS": 6027, "ĠKing": 6028, "1979": 6029, "lobal": 6030, "bar": 6031, "à¤¯à¤«": 6032, "Ġà¤®à¤°à¤ķ": 6033, "Ġà¤¨à¤µà¤²": 6034, "Ġà¤ļà¤®à¤Ĺ": 6035, "à¤¨à¤ķà¤²": 6036, "Ġà¤ħà¤²à¤µ": 6037, "à¤µà¤¨à¤µ": 6038, "à¤µà¤¨à¤¶": 6039, "arge": 6040, "Ġà¤ĩà¤¨à¤¡": 6041, "à¤īà¤¨à¤Ł": 6042, "ĠDNA": 6043, "ĠHar": 6044, "Ġà¤īà¤łà¤ķà¤°": 6045, "1983": 6046, "Ġà¤ļà¤Łà¤Ĺ": 6047, "1975": 6048, "logroup": 6049, "Ġspecial": 6050, "ification": 6051, "Arg": 6052, "Ġseries": 6053, "Ġhaplogroup": 6054, "pose": 6055, "à¤®à¤ªà¤¤": 6056, "Ġà¤ľà¤¯à¤ķ": 6057, "à¤Ĺà¤¹à¤°": 6058, "Ġà¤¦à¤ĸà¤²": 6059, "à¤£à¤ľ": 6060, "Ġà¤¬à¤²à¤ª": 6061, "ety": 6062, "Ġ153": 6063, "à¥ªà¥Ń": 6064, "ĠKM": 6065, "Ġà¥§à¥¯à¥ªà¥¬": 6066, "Ġà¥§à¥¯à¥«à¥§": 6067, "1974": 6068, "ntax": 6069, "ĠÎ²": 6070, "Ġdefined": 6071, "ĠComp": 6072, "ĠWikidata": 6073, "allel": 6074, "ĠËĪ": 6075, "à¤¯à¤ľà¤²": 6076, "Ġà¤ĩà¤ª": 6077, "Ġà¤«à¤«": 6078, "Ġà¤¡à¤®": 6079, "à¤°à¤®à¤ª": 6080, "ero": 6081, "Ġcases": 6082, "ĠSan": 6083, "ĠSer": 6084, "Ġà¤¨à¤µà¤¯": 6085, "ili": 6086, "Ġà¥®à¥©": 6087, "1965": 6088, "Ġà¥¨à¥«à¥¦": 6089, "Ġà¥¯à¥¨": 6090, "Ġspecify": 6091, "Ġcharacter": 6092, "Sh": 6093, "vers": 6094, "à«": 6095, "Ġà¤ħà¤¨à¤µà¤°à¤¤": 6096, "atory": 6097, "Ġà¤Ĩà¤Īà¤ıà¤®": 6098, "Ġà¤ıà¤²à¤¸": 6099, "ura": 6100, "Ġà¤ıà¤®à¤Ĩà¤Īà¤Ł": 6101, "Ġ131": 6102, "ĠVI": 6103, "1968": 6104, "Ġà¥¯à¥®": 6105, "Ġaccept": 6106, "Ġremov": 6107, "ummary": 6108, "Ġà¤¶à¤®à¤¶": 6109, "Ġà¤¯à¤¸": 6110, "à¤īà¤®à¤°": 6111, "à¤°à¤µà¤¶": 6112, "Ġcar": 6113, "Ġcent": 6114, "Ġphy": 6115, "ĠSi": 6116, "à¥«à¥¯": 6117, "à¤°à¤ļà¤ķ": 6118, "ĠElect": 6119, "à¦®": 6120, "Ġà¥§à¥¯à¥©à¥Ń": 6121, "Ġlevel": 6122, "ĠJohn": 6123, "ior": 6124, "Ġà¤ħà¤¥à¤ķ": 6125, "Ġà¤°à¤¨à¤°": 6126, "à¤§à¤µà¤°": 6127, "Ġà¤Ķà¤±": 6128, "à¤ļà¤Ĺ": 6129, "Ġà¤ħà¤¨à¤µà¤°": 6130, "à¤ħà¤°à¤¸": 6131, "à¤¸à¤®à¤¤": 6132, "Ġpower": 6133, "à¥ªà¥¬": 6134, "Ġlat": 6135, "ĠDC": 6136, "ĠGE": 6137, "Ġà¤ĭà¤ļ": 6138, "1969": 6139, "Ġ1892": 6140, "ourn": 6141, "Ġlead": 6142, "Ġ1872": 6143, "Ġà¤įà¤ķ": 6144, "ks": 6145, "Ġà¤ķà¤ªà¤ķ": 6146, "à¤Łà¤£": 6147, "à¤¥à¤ķà¤¤": 6148, "à¤¼à¥ħ": 6149, "Ġtax": 6150, "Ġà¤Īà¤ľ": 6151, "ĠMah": 6152, "Ġ1848": 6153, "Ġ141": 6154, "Ġstill": 6155, "Ġuseful": 6156, "à¤ıà¤¡à¤µà¤°": 6157, "des": 6158, "ãĥ": 6159, "à¤ķà¤®à¤°": 6160, "à¤²à¤¨à¤ķ": 6161, "à¤®à¤²à¤¤": 6162, "Ġà¤®à¤Łà¤°": 6163, "Ġà¤ªà¤Ĺà¤¡": 6164, "à¥Īà¤¾": 6165, "Ġà¤µà¤Ł": 6166, "Ġà¤¬à¤¸à¤°": 6167, "Ġà¤īà¤ªà¤¬": 6168, "à¤°à¤¹à¤²": 6169, "Ġour": 6170, "ĠAp": 6171, "ĠAut": 6172, "à¥Ńà¥¬": 6173, "ental": 6174, "Ġà¥§à¥¯à¥©à¥¯": 6175, "ways": 6176, "Ġincluded": 6177, "Ġcorrect": 6178, "ography": 6179, "ĠIglas": 6180, "velopment": 6181, "NO": 6182, "tip": 6183, "Ġà¤ľà¤¬à¤°": 6184, "Ġà¤ħà¤°à¤®": 6185, "Ġà¤Ĺà¤§": 6186, "à¤Ńà¤§": 6187, "à¤Ŀà¤¡": 6188, "Ġput": 6189, "Ġà¤ħà¤¸à¤¦": 6190, "lex": 6191, "Ġown": 6192, "ĠSW": 6193, "Ġà¤ľà¤²à¤§": 6194, "à¥®à¥©": 6195, "Ġ1700": 6196, "ĠNo": 6197, "à¦¦": 6198, "ources": 6199, "Ġà¥§à¥¯à¥©à¥«": 6200, "Ġallows": 6201, "Ġbottom": 6202, "Ġoptions": 6203, "AF": 6204, "Ġ000": 6205, "à¤²à¤®à¤¨": 6206, "Ġà¤®à¤²à¤ķ": 6207, "Ġà¤°à¤Īà¤¸": 6208, "Ġà¤Ĺà¤Ń": 6209, "Ġà¤¯à¤¶à¤µ": 6210, "ones": 6211, "à¤Ŀà¤ķ": 6212, "Ġà¤¹à¤®à¤¸": 6213, "Ġà¤¹à¤°à¤Ĺ": 6214, "ĠAnt": 6215, "omen": 6216, "ĠWiki": 6217, "Ġ137": 6218, "Ġ148": 6219, "Ġart": 6220, "ĠFI": 6221, "ĠFe": 6222, "à¥§à¥¯à¥¯à¥¦": 6223, "Ġà¥®à¥¦à¥¦": 6224, "Ġdev": 6225, "Ġka": 6226, "ogn": 6227, "Ġà¥§à¥¯à¥©à¥®": 6228, "Ġà¥§à¥¯à¥¨à¥¯": 6229, "ĠISBN": 6230, "no": 6231, "à¾": 6232, "Ġest": 6233, "à¤ľà¤®à¤°": 6234, "à¤¶à¤Ńà¤°": 6235, "Ġà¤ļà¤°à¤µ": 6236, "à¤ħà¤µà¤²": 6237, "Ġclear": 6238, "à¤īà¤¨à¤¶": 6239, "à¥®à¥¬": 6240, "Ġà¤Ĩà¤ľà¤®à¤Ĺà¤¢": 6241, "Ġà¥©à¥¯": 6242, "Ġà¤ıà¤®à¤ľ": 6243, "Ġ136": 6244, "à¥ħà¤Ĥ": 6245, "à¤ıà¤®à¤ª": 6246, "Ġvand": 6247, "ested": 6248, "Ġà¥§à¥¯à¥©à¥ª": 6249, "ibrary": 6250, "Or": 6251, "à¤µà¤¦à¤°": 6252, "Ġà¤¬à¤°à¤µ": 6253, "Ġà¤Ĺà¤¹": 6254, "Ġà¤īà¤Ĺà¤¨": 6255, "à¤¸à¤®à¤¨": 6256, "Ġà¤¸à¤¹à¤¨à¤¶": 6257, "Ġcr": 6258, "Ġwater": 6259, "ĠCC": 6260, "Ġà¤®à¤¦à¤¦à¤Ĺ": 6261, "à¦¬": 6262, "ocial": 6263, "Ġnamespace": 6264, "Ġà¥§à¥¯à¥§à¥¯": 6265, "Ġfilm": 6266, "________________": 6267, "kh": 6268, "Î¹": 6269, "à¤¨à¤·": 6270, "à¤¸à¤Ī": 6271, "à¤µà¤Ĺà¤¢": 6272, "à¤ļà¤²à¤ķ": 6273, "Ġà¤ĩà¤°à¤µ": 6274, "Ġà¤«à¤¨": 6275, "Ġà¤¸à¤¹à¤ľà¤¤": 6276, "Ġà¤ĩà¤¨à¤«": 6277, "ĠMedia": 6278, "ĠST": 6279, "à¥®à¥¨": 6280, "Ġ134": 6281, "Ġsever": 6282, "Ġparallel": 6283, "Ġ1881": 6284, "Ġà¥¯à¥ª": 6285, "1956": 6286, "Ġsimilar": 6287, "Ġeffect": 6288, "Ġfamily": 6289, "normal": 6290, "à¤¯à¤¨à¤ķ": 6291, "à¤®à¤¹à¤®": 6292, "à¤¹à¤®à¤¨": 6293, "Ġà¤¬à¤Ľà¤¡": 6294, "Ġà¤²à¤¹à¤ľ": 6295, "à¤°à¤®à¤µ": 6296, "à¤¯à¤°à¤«": 6297, "Ġsand": 6298, "Ġà¤ĳà¤°à¤²": 6299, "Ġà¤Ĳà¤ľ": 6300, "Ġworld": 6301, "Ġmc": 6302, "2020": 6303, "Ġà¤¬à¤¦à¤¤à¤°": 6304, "à¤Ĩà¤Īà¤¬": 6305, "ĠBar": 6306, "ape": 6307, "Ġ142": 6308, "Ġà¥Ńà¥¦à¥¦": 6309, "ĠFound": 6310, "Ġali": 6311, "Ġnote": 6312, "comm": 6313, "QL": 6314, "Ġà¤Ĩà¤ĵ": 6315, "Ġà¤ĩà¤¦": 6316, "à¤ĩà¤¤à¤°": 6317, "ering": 6318, "Ġside": 6319, "alth": 6320, "Ġcat": 6321, "à¥Ńà¥©": 6322, "Ġher": 6323, "à¤ĳà¤²": 6324, "Ġà¥¯à¥©": 6325, "à¤ĭà¤£": 6326, "Ġà¤ªà¤°à¤µà¤°à¤¦": 6327, "Ġdetails": 6328, "Ġseveral": 6329, "PC": 6330, "à¤¨à¤¥": 6331, "Ġà¤²à¤Ł": 6332, "à¤¤à¤°à¤µ": 6333, "à¤¯à¤¤à¤®": 6334, "à¤Ĺà¤²à¤ªà¤¨": 6335, "ley": 6336, "Ġnecess": 6337, "à¤ıà¤¸à¤µ": 6338, "Ġà¤ĺà¤°à¤ĺ": 6339, "à¤®à¤¸à¤²à¤¨": 6340, "Ġ155": 6341, "Ġ129": 6342, "Ġ1600": 6343, "Ġà¥¬à¥©": 6344, "à¤ĳà¤Ł": 6345, "Ġwhile": 6346, "Ġà¤ĺà¤Łà¤ķà¤°": 6347, "Ġà¥¦à¥¬": 6348, "ĠInc": 6349, "Ġrelated": 6350, "Ġgeneral": 6351, "phabet": 6352, "GE": 6353, "à¤§à¤¯": 6354, "Ġà¤ıà¤¯à¤°à¤ķ": 6355, "Ġà¤ħà¤¨à¤®": 6356, "à¤łà¤¸": 6357, "Ġà¤ħà¤®à¤°à¤ķ": 6358, "ĠpH": 6359, "Ġ1850": 6360, "Ġà¤ľà¤®à¤ķà¤°": 6361, "ĠWh": 6362, "aps": 6363, "à¤ıà¤¨à¤ıà¤²": 6364, "à¦¯": 6365, "Ġ1883": 6366, "Ø§ÙĦ": 6367, "Ġà¥§à¥¯à¥¨à¥«": 6368, "Ġ1861": 6369, "à°¾": 6370, "Ġstruct": 6371, "cient": 6372, "File": 6373, "NT": 6374, "ka": 6375, "à¤¯à¤«à¤²": 6376, "Ġà¤µà¤°à¤£": 6377, "à¤¡à¤®à¤°": 6378, "à¤§à¤¬": 6379, "à¤ļà¤¶": 6380, "à¤ĩà¤£": 6381, "Ġà¤ħà¤¨à¤§": 6382, "à¤ĵà¤ıà¤²": 6383, "Ġà¤§à¤°à¤¨": 6384, "Ġà¤ĳà¤ķà¤²": 6385, "Ġà¤ĳà¤Ĺà¤¸": 6386, "ales": 6387, "Ġcitation": 6388, "à¤µà¤²à¤®": 6389, "enn": 6390, "isc": 6391, "Ġà¤®à¤¨à¤¨": 6392, "ĠApp": 6393, "ĠBBC": 6394, "Ġ146": 6395, "ĠReg": 6396, "Ġrender": 6397, "Ġà¥¬à¥¬": 6398, "1978": 6399, "Ġà¥§à¥¯à¥©à¥¨": 6400, "Ø§Ø±": 6401, "à¥¨à¥¦à¥¦à¥¯": 6402, "Ġ1867": 6403, "Ġà¥§à¥¦à¥®": 6404, "MT": 6405, "ius": 6406, "main": 6407, "pe": 6408, "Ø²": 6409, "Ġà¤ķà¤¨à¤ķ": 6410, "Ġà¤Ĩà¤ĩà¤¨": 6411, "Ġà¤¥à¤®": 6412, "à¤°à¤®à¤¦": 6413, "à¥®à¥¯": 6414, "acy": 6415, "Ġvol": 6416, "Ġ240": 6417, "à¤ıà¤ļà¤¸": 6418, "Ġexper": 6419, "Ġà¥§à¥¨à¥¦": 6420, "1981": 6421, "ĠInter": 6422, "Ġpron": 6423, "à¥¨à¥¦à¥¦à¥ª": 6424, "Ġblack": 6425, "Ġagain": 6426, "Ġconfig": 6427, "Ġcoordinates": 6428, "ger": 6429, "lor": 6430, "Ã¶": 6431, "Ġà¤²à¤²à¤ķ": 6432, "Ġà¤ªà¤°à¤ª": 6433, "à¤ĵà¤ľ": 6434, "Ġtake": 6435, "Ġà¤ĵà¤«": 6436, "Ġcustom": 6437, "isation": 6438, "Ġpat": 6439, "Ġold": 6440, "Ġà¤Ŀà¤°": 6441, "Ġà¤ħà¤¬à¤¤à¤ķ": 6442, "à¥ªà¥©": 6443, "ĠFA": 6444, "à¤ıà¤¨à¤¬": 6445, "ava": 6446, "Ġexamples": 6447, "Ġà¥§à¥¯à¥¨à¥Ń": 6448, "Ġà¥§à¥¯à¥¨à¥©": 6449, "Ġà¤¶à¤¹à¤ľ": 6450, "ajor": 6451, "à¤ľà¤Ńà¤µà¤¨": 6452, "Ġblank": 6453, "Ġï¿": 6454, "Éª": 6455, "Ġà¤ľà¤¸à¤µ": 6456, "Ġà¤¨à¤°à¤Ńà¤ķ": 6457, "Ġà¤¬à¤¶": 6458, "Ġserv": 6459, "1945": 6460, "à¤ľà¤°à¤¬": 6461, "à¤ķà¤Łà¤¸": 6462, "Ġà¤¨à¤µà¤Ĺ": 6463, "à¥«à¥¨": 6464, "oman": 6465, "ĠRFID": 6466, "erst": 6467, "Ġ2500": 6468, "à¤°à¤Ĺà¤®à¤¨": 6469, "ftware": 6470, "Ġnews": 6471, "Ġarguments": 6472, "By": 6473, "SI": 6474, "dro": 6475, "×Ļ": 6476, "à¤¨à¤ªà¤¤": 6477, "à¤ļà¤¦": 6478, "Ġà¤ļà¤Łà¤¨": 6479, "Ġsomet": 6480, "ĠSC": 6481, "ĠIT": 6482, "Ġà¤ıà¤®à¤¡": 6483, "ĠNT": 6484, "à¤¨à¤¹à¤Ł": 6485, "Ġimple": 6486, "Ġenergy": 6487, "Ġà¤·à¤Ł": 6488, "Ġ1876": 6489, "Ġà¤¸à¤Ĺà¤°à¤®": 6490, "Ġdeletion": 6491, "Ġcopyright": 6492, "gen": 6493, "Ä«": 6494, "Ø¬": 6495, "à¤ķà¤°à¤¤": 6496, "à¤µà¤¥à¤¨": 6497, "Ġà¤ªà¤ŀ": 6498, "à¥Īà¥Ī": 6499, "à¤¦à¤°à¤¸": 6500, "Ġà¤Ńà¤°à¤£": 6501, "Ġà¤ħà¤¨à¤Ń": 6502, "à¤ķà¤²à¤ķ": 6503, "Ġwrap": 6504, "ĠPal": 6505, "à¥Ńà¥¯": 6506, "à¤¹à¤¨à¤Ĺà¤°": 6507, "ĠDo": 6508, "ĠDiv": 6509, "apter": 6510, "Ġrele": 6511, "Ġheight": 6512, "Ġà¥§à¥¯à¥¨à¥¨": 6513, "à®¾": 6514, "Ġintended": 6515, "Ġà¤§à¤°à¤®à¤ľà¤¯à¤Ĺà¤¢": 6516, "à¤¯à¤µà¤¨": 6517, "Ġà¤Ńà¤°à¤®": 6518, "à¤«à¤°à¤¨à¤Ĺà¤°": 6519, "à¤Łà¤°à¤¡": 6520, "Ġsince": 6521, "Ġà¤¸à¤¦à¤®": 6522, "Ġaction": 6523, "Ġmode": 6524, "ĠMon": 6525, "ĠAN": 6526, "Ġà¤¸à¤®à¤Ŀà¤¦": 6527, "à¤Ĩà¤°à¤ıà¤²": 6528, "à¤ıà¤®à¤¡à¤¬": 6529, "Ġà¥®à¥ª": 6530, "Ġà¥§à¥¯à¥ªà¥©": 6531, "Ġà¥§à¥¯à¥ªà¥ª": 6532, "Ġenc": 6533, "Ġvalid": 6534, "Ġneeds": 6535, "Ġeven": 6536, "wikimedia": 6537, "face": 6538, "à·": 6539, "à¤¡à¤ľ": 6540, "à¤¥à¤°à¤¸": 6541, "à¤«à¤®": 6542, "Ġsw": 6543, "Ġà¤¸à¤¹à¤µ": 6544, "Ġcrit": 6545, "ĠTemplate": 6546, "Ġdem": 6547, "Ġhtml": 6548, "ĠDev": 6549, "ĠEl": 6550, "Ġ147": 6551, "akist": 6552, "Ġà¤ıà¤«à¤ıà¤®": 6553, "Ġ1865": 6554, "Sc": 6555, "ham": 6556, "à¤ķà¤Łà¤¨": 6557, "Ġà¤ľà¤²à¤ķ": 6558, "à¤ľà¤¯à¤¸": 6559, "Ġà¤ķà¤°à¤¦": 6560, "Ġà¤īà¤¨à¤¹": 6561, "anth": 6562, "à¤ªà¤¤à¤µ": 6563, "Ġbrow": 6564, "Ġday": 6565, "ĠPre": 6566, "Ġà¤¬à¤°à¤¬": 6567, "à¥«à¥®": 6568, "ĠWeb": 6569, "Ġ143": 6570, "ĠFO": 6571, "Ġarea": 6572, "ains": 6573, "1966": 6574, "Ġ1873": 6575, "à¥¨à¥¦à¥¦à¥Ń": 6576, "à¤Ĩà¤Īà¤ıà¤¸à¤ĵ": 6577, "Ġchanges": 6578, "GP": 6579, "Ã¼": 6580, "à¤ıà¤ıà¤«": 6581, "à¤ħà¤°à¤µ": 6582, "Ġà¤īà¤ªà¤ĸ": 6583, "Ġà¤¬à¤¹à¤²": 6584, "ators": 6585, "ĠAc": 6586, "à¤¯à¤ªà¤¦": 6587, "osis": 6588, "ophy": 6589, "He": 6590, "LE": 6591, "wise": 6592, "Ð´": 6593, "Ġà¤¶à¤®à¤¨": 6594, "Ġsort": 6595, "Ġà¤°à¤ĸà¤µ": 6596, "Ġà¤īà¤¦à¤ĺ": 6597, "à¤®à¤¤à¤¦": 6598, "à¤£à¤¨à¤«à¤²": 6599, "ĠMac": 6600, "ĠAB": 6601, "omb": 6602, "ĠURL": 6603, "à¤Ĺà¤µà¤¶": 6604, "à¦¤": 6605, "Ġnotice": 6606, "Ġcomb": 6607, "ference": 6608, "Ġide": 6609, "Ġ1871": 6610, "SS": 6611, "olution": 6612, "vant": 6613, "Ñĥ": 6614, "ðŁ": 6615, "à¤©": 6616, "à¤ªà¤µà¤¨": 6617, "à¤¡à¤µà¤°": 6618, "Ġà¤ıà¤®à¤°": 6619, "à¤ħà¤ł": 6620, "Ġocc": 6621, "ĠBi": 6622, "ĠBas": 6623, "Ġbel": 6624, "Ġ113": 6625, "ability": 6626, "ending": 6627, "ternative": 6628, "à¤ıà¤¸à¤ıà¤²à¤µ": 6629, "Ġempty": 6630, "Other": 6631, "TE": 6632, "ky": 6633, "ÙĤ": 6634, "à¤°à¤Ĺà¤®": 6635, "à¤¤à¤ķà¤²": 6636, "à¤ĸà¤®à¤°": 6637, "à¤ĵà¤ıà¤¸": 6638, "Ġà¤ħà¤ķà¤¸à¤°": 6639, "Ġwhe": 6640, "Ġ151": 6641, "à¥¬à¥¨": 6642, "raft": 6643, "Ġà¥§à¥¯à¥¦à¥¦": 6644, "à¥¨à¥¦à¥§à¥¨": 6645, "Ġremove": 6646, "Ġà¤ħà¤ľà¤¨à¤¬": 6647, "ĠFoundation": 6648, "mon": 6649, "à¤ªà¤¤à¤°": 6650, "à¤ľà¤Ĺà¤¢": 6651, "Ġà¤¨à¤¯à¤¨": 6652, "à¤°à¤£à¤¯à¤¨": 6653, "Ġà¤Łà¤¹à¤¨": 6654, "à¤Łà¤°à¤¶": 6655, "requ": 6656, "ĠPol": 6657, "à¥«à¥©": 6658, "à¥Ńà¥§": 6659, "Ġà¥¦à¥Ń": 6660, "Ġà¥¦à¥¯": 6661, "ords": 6662, "Ġcontin": 6663, "Ġà¤įà¤¨": 6664, "Ġsymb": 6665, "ertain": 6666, "Ġyears": 6667, "Ġdistrict": 6668, "GB": 6669, "di": 6670, "gy": 6671, "set": 6672, "uj": 6673, "Åį": 6674, "à¤®à¤¸à¤®": 6675, "Ġà¤ħà¤¦à¤°": 6676, "Ġà¤Ĩà¤²à¤¸": 6677, "à¤¸à¤ķà¤¤": 6678, "à¤ħà¤ľà¤¯": 6679, "Ġà¤Ĳà¤Ł": 6680, "à¥«à¥§": 6681, "Ġà¤Ĩà¤Īà¤Ĩà¤Īà¤Ł": 6682, "à¤°à¤ľà¤¹": 6683, "Ġ149": 6684, "Ġ1400": 6685, "Ġsuccess": 6686, "1964": 6687, "Ġà¥§à¥¯à¥ªà¥§": 6688, "ards": 6689, "à¥¨à¥¦à¥§à¥©": 6690, "Ġ1878": 6691, "Ġstrong": 6692, "Ġpoly": 6693, "cyc": 6694, "ready": 6695, "Ġvertical": 6696, "off": 6697, "Ø´": 6698, "à¤¯à¤·": 6699, "Ġà¤ľà¤łà¤°": 6700, "Ġà¤Ĩà¤ĩà¤µ": 6701, "à¤Ľà¤¦": 6702, "Ġà¤ľà¤¨à¤¹": 6703, "Ġpub": 6704, "Ġà¤¸à¤¤à¤²": 6705, "Ġà¥«à¥¯": 6706, "à¥¬à¥©": 6707, "à¥¬à¥¯": 6708, "ĠNa": 6709, "Ġiss": 6710, "Ġusage": 6711, "aksh": 6712, "ogen": 6713, "Ġcond": 6714, "1976": 6715, "Ġgood": 6716, "Ġleg": 6717, "Ġà¥§à¥¯à¥¨à¥ª": 6718, "ĠUSA": 6719, "brid": 6720, "Ġcomplex": 6721, "Ġview": 6722, "Pr": 6723, "Some": 6724, "VI": 6725, "Wikipedia": 6726, "hal": 6727, "ique": 6728, "Ġà¤ħà¤°à¤ķ": 6729, "Ġà¤ħà¤ĸà¤°": 6730, "à¤¬à¤¬": 6731, "à¤§à¤µà¤¨": 6732, "à¤¥à¤¦": 6733, "Ġà¤ªà¤°à¤¬": 6734, "à¤«à¤¹à¤®": 6735, "à¤¤à¤°à¤ªà¤¶": 6736, "Ġà¤ĸà¤°à¤¸": 6737, "Ġfour": 6738, "itis": 6739, "Ġair": 6740, "ĠSo": 6741, "ĠCategory": 6742, "Ġang": 6743, "Ġspeed": 6744, "ĠRam": 6745, "Ġà¤ıà¤ļà¤¬": 6746, "Ġformatt": 6747, "Ġâĸ": 6748, "Ġlett": 6749, "Ġ1863": 6750, "Ġprovide": 6751, "Ġprovided": 6752, "Ġcharacters": 6753, "DN": 6754, "à¤¤à¤µà¤¨": 6755, "à¤²à¤¯à¤®": 6756, "Ġà¤Ĩà¤¸à¤ķ": 6757, "à¤Īà¤ıà¤¸": 6758, "à¤Īà¤ħà¤¡": 6759, "Ġà¤ħà¤²à¤®": 6760, "Ġà¤ľà¤²à¤Ĺ": 6761, "à¤¨à¤µà¤¶": 6762, "à¤Ĭà¤¸": 6763, "unci": 6764, "ĠWHO": 6765, "ello": 6766, "Ġ1875": 6767, "Ġ1859": 6768, "cience": 6769, "Ġindivid": 6770, "Ġtranslate": 6771, "Ġvandalism": 6772, "met": 6773, "Ġà¤®à¤¨à¤ķ": 6774, "à¤ıà¤ıà¤²": 6775, "à¤¹à¤°à¤¬": 6776, "eria": 6777, "à¤®à¤ķà¤¹": 6778, "acle": 6779, "Ġsup": 6780, "ecial": 6781, "Ġà¥¦à¥®": 6782, "aste": 6783, "Ġ1877": 6784, "Ġà¦¬": 6785, "etwork": 6786, "Ġsemi": 6787, "CP": 6788, "EFA": 6789, "fig": 6790, "til": 6791, "Ġà¤Ĩà¤°à¤¸": 6792, "Ġà¤Ĩà¤¡à¤µ": 6793, "à¤ĩà¤ªà¤²": 6794, "Ġcodes": 6795, "Ġdown": 6796, "Ġduring": 6797, "Ġà¤łà¤ª": 6798, "à¤µà¤¯à¤µ": 6799, "ika": 6800, "ros": 6801, "aceae": 6802, "Ġà¥§à¥¯à¥©à¥©": 6803, "Ø§Ùħ": 6804, "ension": 6805, "Ġelement": 6806, "ious": 6807, "à¤¿à¤¾": 6808, "à¤ķà¤Łà¤°": 6809, "à¤²à¤¶à¤¨": 6810, "à¤²à¤µà¤¨": 6811, "Ġà¤Ĺà¤¦à¤°": 6812, "Ġà¤«à¤Łà¤¨": 6813, "à¤Łà¤°à¤¬": 6814, "anch": 6815, "à¤ĺà¤²à¤¨": 6816, "icy": 6817, "ĠDep": 6818, "Ġà¤ĸà¤°à¤ªà¤¤à¤µ": 6819, "à¤ıà¤¨à¤ıà¤¨": 6820, "à¤ĳà¤¨à¤²": 6821, "aken": 6822, "ĠChar": 6823, "obile": 6824, "à¥¨à¥¦à¥¦à¥«": 6825, "Ġ1856": 6826, "Ġà¥§à¥¯à¥§à¥®": 6827, "aterial": 6828, "Ġvaria": 6829, "Ġwikit": 6830, "Ġdirectly": 6831, "Ġletters": 6832, "html": 6833, "Ġà¤³": 6834, "à¤Ĥà¤Ĥ": 6835, "à¤¨à¤Ĺà¤²": 6836, "à¤¸à¤¹à¤¸": 6837, "Ġà¤¸à¤°à¤£": 6838, "Ġà¤®à¤Ĭ": 6839, "à¤µà¤ĸ": 6840, "à¤¡à¤¦": 6841, "à¤ļà¤°à¤ķ": 6842, "à¤°à¤¤à¤¨": 6843, "inn": 6844, "ĠSec": 6845, "Ġà¤īà¤®à¤¡": 6846, "plied": 6847, "ĠEm": 6848, "à¤¨à¤¦à¤£": 6849, "Ġà¤ıà¤ļà¤ª": 6850, "Ġà¤ıà¤ļà¤Ł": 6851, "illi": 6852, "Ġâī": 6853, "Ġcoll": 6854, "Ġtags": 6855, "Ġreferences": 6856, "IM": 6857, "RO": 6858, "ection": 6859, "à¤¸à¤ł": 6860, "à¤¹à¤¸à¤¨": 6861, "à¤¦à¤ļ": 6862, "Ġà¤¨à¤¸à¤²": 6863, "Ġà¤°à¤¸à¤¦": 6864, "Ġà¤°à¤¤à¤²": 6865, "à¤£à¤¶": 6866, "Ġà¤Łà¤¸": 6867, "à¤°à¤®à¤ľ": 6868, "à¤łà¤¤à¤®": 6869, "à¤¸à¤°à¤¶": 6870, "inite": 6871, "à¤µà¤¨à¤Ĺà¤°": 6872, "atur": 6873, "ared": 6874, "Ġmm": 6875, "Ġmed": 6876, "ĠMed": 6877, "ĠSing": 6878, "Ġà¤¸à¤¨à¤¸à¤¨": 6879, "lose": 6880, "ĠGN": 6881, "Ġalready": 6882, "Ġask": 6883, "Ġfollows": 6884, "Ġappro": 6885, "Ġevent": 6886, "Ġfiles": 6887, "Ġlocation": 6888, "US": 6889, "aid": 6890, "son": 6891, "wa": 6892, "xx": 6893, "Ġenter": 6894, "Ġà¤¦à¤§": 6895, "à¤Ĩà¤łà¤µ": 6896, "à¤°à¤®à¤¯": 6897, "à¤ĺà¤¦": 6898, "à¤ĺà¤¨à¤¤": 6899, "Ġtheory": 6900, "Ġmot": 6901, "Ġmass": 6902, "à¤ħà¤¨à¤¨": 6903, "Ġhyp": 6904, "Ġ156": 6905, "à¤®à¤¦à¤Ĺ": 6906, "apur": 6907, "Ġ139": 6908, "oss": 6909, "ĠRed": 6910, "adata": 6911, "overnment": 6912, "Ġnecessary": 6913, "Pl": 6914, "oic": 6915, "tions": 6916, "van": 6917, "×ķ": 6918, "à¶": 6919, "ĠÙĨ": 6920, "à¤¾à¥ĩà¤Ĥ": 6921, "à¤¯à¤²à¤¯": 6922, "Ġà¤¸à¤°à¤µ": 6923, "Ġà¤ľà¤¯à¤°": 6924, "Ġà¤ħà¤®à¤¨": 6925, "à¤Łà¤²à¤ķ": 6926, "à¤ľà¤Ĺà¤¨": 6927, "à¤¶à¤ļ": 6928, "Ġà¤ıà¤¨à¤µ": 6929, "Ġà¤«à¤£": 6930, "à¤¤à¤°à¤²": 6931, "Ġà¤¸à¤¬à¤²": 6932, "ĠCP": 6933, "ĠAf": 6934, "ĠIQ": 6935, "Ġà¤ıà¤¸à¤ıà¤®à¤ıà¤¸": 6936, "urther": 6937, "Ġalways": 6938, "Ġà¥¦à¥§": 6939, "1951": 6940, "à®°": 6941, "Ġwikilink": 6942, "Ġproperty": 6943, "Ch": 6944, "à¤ķà¤¸à¤¨": 6945, "à¤¸à¤¥": 6946, "à¤¸à¤¦à¤¨": 6947, "à¤ıà¤Ĩà¤Ī": 6948, "Ġà¤ħà¤®à¤°à¤¨": 6949, "à¤ĩà¤Łà¤µ": 6950, "ĠSal": 6951, "Ġoften": 6952, "ĠGP": 6953, "iron": 6954, "Ġà¥¬à¥¨": 6955, "ifier": 6956, "Ġà¤ªà¤²à¤Łà¤¨": 6957, "1963": 6958, "Ġcontrol": 6959, "ĠBMW": 6960, "Ġsymbol": 6961, "Micro": 6962, "ke": 6963, "Ġut": 6964, "à¤¯à¤ªà¤°": 6965, "Ġà¤¨à¤ª": 6966, "Ġà¤¬à¤²à¤¬": 6967, "Ġà¤¡à¤¨": 6968, "Ġà¤ķà¤¹à¤²à¤Ĺ": 6969, "Ġà¤ľà¤¨à¤ª": 6970, "à¤°à¤¹à¤¸à¤¨": 6971, "à¤¯à¤°à¤ļà¤¨": 6972, "Ġdone": 6973, "Ġomit": 6974, "Ġ1830": 6975, "Ġ1840": 6976, "ĠCap": 6977, "ĠAir": 6978, "ĠIf": 6979, "Ġlarge": 6980, "Ġ175": 6981, "ĠEC": 6982, "Ġusually": 6983, "Ġradi": 6984, "Ġsuper": 6985, "Ġà¸": 6986, "Ġà¥§à¥¯à¥¨à¥¬": 6987, "ternet": 6988, "Ġà¤°à¤£à¤¬": 6989, "Ġ1868": 6990, "Ġ1854": 6991, "Ġà¥§à¥¯à¥§à¥Ń": 6992, "à¨¾": 6993, "âĢĮâĢĮ": 6994, "Ġmeta": 6995, "Ġimportant": 6996, "IP": 6997, "hav": 6998, "Ìģ": 6999, "Ð¹": 7000, "Ġà¤ªà¤ķà¤¨": 7001, "à¤¹à¤«": 7002, "à¤Łà¤ļ": 7003, "à¤¡à¤¯à¤¨": 7004, "à¤ķà¤°à¤¦": 7005, "à¤Ĺà¤¤à¤¤": 7006, "Ġshe": 7007, "Ġà¤ĩà¤¨à¤µ": 7008, "Ġà¤Ĩà¤°à¤ª": 7009, "Ġbet": 7010, "à¤ªà¤ķà¤¨": 7011, "Ġ1818": 7012, "ĠChe": 7013, "à¥«à¥ª": 7014, "Ġà¤ķà¤ªà¤Ł": 7015, "Ġà¤Ĩà¤Īà¤µ": 7016, "Ġà¤¢à¤¹": 7017, "Ġ159": 7018, "Ġthink": 7019, "à¤ħà¤Ńà¤¯": 7020, "ector": 7021, "Ġ1879": 7022, "ĠIndic": 7023, "Ġà¤Ĩà¤ĩà¤ķà¤¨": 7024, "Ġà¤īà¤Ńà¤¯à¤ļà¤°": 7025, "Ġrepresent": 7026, "FS": 7027, "GA": 7028, "fd": 7029, "pend": 7030, "Ġà¤ħà¤ĸà¤£": 7031, "Ġà¤ħà¤¨à¤ª": 7032, "à¤°à¤£à¤¯": 7033, "à¤Ĩà¤Ł": 7034, "à¤Ľà¤Ł": 7035, "à¤ªà¤°à¤¶": 7036, "orph": 7037, "Ġcover": 7038, "Ġmuch": 7039, "ĠSur": 7040, "Ġ6000": 7041, "ĠRh": 7042, "iff": 7043, "à¥¨à¥¦à¥§à¥«": 7044, "à§Ģ": 7045, "Ġsimple": 7046, "Ġparticular": 7047, "Cont": 7048, "List": 7049, "à¤¿à¥į": 7050, "à¤ķà¤ķà¤²": 7051, "Ġà¤ªà¤¦à¤¨": 7052, "à¤¦à¤°à¤®": 7053, "à¤£à¤Ń": 7054, "Ġà¤Ĩà¤¹à¤¤": 7055, "à¤Ĩà¤¡": 7056, "à¤ªà¤°à¤«": 7057, "Ġtit": 7058, "Ġà¤ĵà¤¤à¤ª": 7059, "Ġà¤ħà¤ªà¤°à¤¦à¤¨": 7060, "amo": 7061, "à¤¨à¤µà¤Ĺ": 7062, "Ġ154": 7063, "ĠEur": 7064, "imate": 7065, "Ġ280": 7066, "Ġunn": 7067, "ounds": 7068, "Ġ1866": 7069, "Ġlists": 7070, "à°²": 7071, "Ġà¥§à¥¯à¥§à¥§": 7072, "erman": 7073, "ĠPersistent": 7074, "sych": 7075, "Ú¯": 7076, "Ġà¤ķà¤Łà¤¨": 7077, "Ġà¤¨à¤¥": 7078, "Ġà¤«à¤°à¤¹": 7079, "iness": 7080, "1946": 7081, "à¤Ĩà¤Īà¤ıà¤®": 7082, "Ġà¤ľà¤Ĺà¤ľ": 7083, "ilit": 7084, "ivity": 7085, "ĠRev": 7086, "à¦ķ": 7087, "1961": 7088, "à°¿": 7089, "Ġà¥§à¥¦à¥¨": 7090, "ÙĪØ±": 7091, "Ġproduct": 7092, "cul": 7093, "lished": 7094, "ply": 7095, "à¤¤à¤²à¤¨": 7096, "à¤ķà¤§": 7097, "Ġà¤®à¤ķà¤¡": 7098, "à¤¡à¤Ī": 7099, "Ġà¤Łà¤ļ": 7100, "Ġà¤Łà¤¨à¤ķà¤ª": 7101, "à¤Ľà¤ª": 7102, "à¤¯à¤®à¤²": 7103, "à¤Ńà¤Ĺà¤µà¤¤": 7104, "ĠPakist": 7105, "Ġ152": 7106, "uration": 7107, "Ġep": 7108, "Ġgreen": 7109, "aceb": 7110, "imum": 7111, "php": 7112, "1954": 7113, "Ġmetadata": 7114, "Ġteam": 7115, "bb": 7116, "ĠÄ": 7117, "à¤ķà¤·": 7118, "Ġà¤Ĺà¤¶": 7119, "Ġà¤Ĩà¤ĩà¤°": 7120, "Ġtakes": 7121, "ini": 7122, "atures": 7123, "à¤ķà¤²à¤ķà¤¤": 7124, "lege": 7125, "Ġ1815": 7126, "à¤¹à¤°à¤£à¤¸": 7127, "ĠDes": 7128, "Ġ165": 7129, "Ġsugg": 7130, "Ġà¥¦à¥ª": 7131, "eep": 7132, "Ġjo": 7133, "anner": 7134, "à¥§à¥¯à¥®à¥¦": 7135, "Ġexisting": 7136, "Ġvarious": 7137, "Ġoriginal": 7138, "cfg": 7139, "ness": 7140, "va": 7141, "à¤²à¤Łà¤¨": 7142, "à¤¹à¤°à¤¦": 7143, "à¤ªà¤ł": 7144, "à¤ľà¤¯à¤¦": 7145, "Ġà¤«à¤¸": 7146, "à¤ľà¤¨à¤¶": 7147, "Ġà¤ľà¤¬à¤¤à¤ķ": 7148, "à¤µà¤²à¤°": 7149, "Ġfinal": 7150, "Ġmemb": 7151, "à¥®à¥§": 7152, "igu": 7153, "Ġà¤ļà¤°à¤ĸ": 7154, "Ġreason": 7155, "ump": 7156, "Ġà¥®à¥§": 7157, "Ġwebs": 7158, "Ġmean": 7159, "Ġneeded": 7160, "ounc": 7161, "Ġelse": 7162, "mer": 7163, "àŃ": 7164, "Ġ__": 7165, "Ġà¤ħà¤¦à¤¨": 7166, "à¤¡à¤°à¤®": 7167, "à¤ıà¤¦": 7168, "Ġà¤¡à¤¸": 7169, "Ġà¥§à¥¯à¥§à¥¦": 7170, "ĠSw": 7171, "à¤ķà¤¤à¤µà¤°": 7172, "omic": 7173, "à¤¹à¤°à¤£à¤¤": 7174, "à¥ªà¥§": 7175, "ĠGener": 7176, "Ġreal": 7177, "à¤ıà¤¨à¤¡": 7178, "Ġrange": 7179, "ĠVII": 7180, "Ġà¤Ĺà¤²à¤¤à¤«à¤¹à¤®": 7181, "Ġà¥§à¥¯à¥§à¥¨": 7182, "ixed": 7183, "à¯ģ": 7184, "wards": 7185, "RNA": 7186, "call": 7187, "note": 7188, "ren": 7189, "á¹": 7190, "à¤¯à¤ľà¤¨": 7191, "à¤²à¤ļà¤°": 7192, "à¤ªà¤²à¤°": 7193, "Ġà¤ħà¤¯à¤¨": 7194, "à¤¬à¤¯": 7195, "à¤ļà¤Ń": 7196, "à¤Ńà¤Ĺà¤¤": 7197, "à¤°à¤®à¤¤": 7198, "Ġà¤Ľà¤®": 7199, "à¤²à¤ķà¤®": 7200, "à¤¡à¤°à¤°": 7201, "ĠShe": 7202, "Ġ1820": 7203, "à¤²à¤µà¤ķ": 7204, "Ġant": 7205, "Ġà¤ıà¤¸à¤¡": 7206, "Ġà¤¤à¤¬à¤ķ": 7207, "à¤µà¤ķà¤ª": 7208, "ĠFDA": 7209, "illage": 7210, "ĠØ¬": 7211, "ĠStates": 7212, "Ġà¥§à¥¯à¥§à¥«": 7213, "Ġà¤įà¤«": 7214, "ĠUSB": 7215, "Ġ1803": 7216, "ĠResearch": 7217, "LAN": 7218, "och": 7219, "Ĺı": 7220, "à¤¤à¤¬à¤²": 7221, "Ġà¤ľà¤«à¤°": 7222, "Ġà¤µà¤£": 7223, "Ġà¤ıà¤ķà¤µà¤ļà¤¨": 7224, "à¤ĩà¤¹": 7225, "à¤ªà¤°à¤ľ": 7226, "Ġà¤Ĳà¤¬": 7227, "à¤¡à¤²à¤®": 7228, "Ġflo": 7229, "Ġfair": 7230, "Ġbest": 7231, "Ġdu": 7232, "reg": 7233, "Ġ928": 7234, "Ġà¤ıà¤¸à¤ı": 7235, "à¤Ĩà¤Īà¤Ĩà¤°": 7236, "Ġà¤īà¤®à¤¯": 7237, "Ġaround": 7238, "Ġà¥Ńà¥¬": 7239, "Ġstud": 7240, "istic": 7241, "aving": 7242, "ands": 7243, "Ġexternal": 7244, "Ġà¥¦à¥¦": 7245, "ective": 7246, "Ġsyntax": 7247, "raph": 7248, "Ġincludes": 7249, "ĠCorpor": 7250, "Title": 7251, "à¤¬à¤ķà¤°": 7252, "à¤¬à¤°à¤¸": 7253, "Ġà¤¯à¤¶à¤¸": 7254, "Ġ320": 7255, "Ġfl": 7256, "Ġà¤ħà¤ªà¤ĺà¤Ł": 7257, "Ġà¤¤à¤¹à¤ĸ": 7258, "à¤¨à¤°à¤²": 7259, "ĠSD": 7260, "Ġneg": 7261, "Ġà¤łà¤Ĺ": 7262, "Ġà¥«à¥¦à¥¦à¥¦": 7263, "ĠGroup": 7264, "à¤ıà¤¨à¤ª": 7265, "Ġà¥¦à¥©": 7266, "Ġ1869": 7267, "vious": 7268, "ĠCEO": 7269, "cyclop": 7270, "From": 7271, "Im": 7272, "MC": 7273, "MP": 7274, "aim": 7275, "Ġà¤İ": 7276, "à¤¾âĢį": 7277, "à¤ķà¤Łà¤ķ": 7278, "Ġà¤®à¤Ŀ": 7279, "Ġà¤ħà¤°à¤£": 7280, "Ġà¤ħà¤Łà¤ķ": 7281, "à¤§à¤Ĺ": 7282, "Ġà¤ľà¤¨à¤¸à¤®": 7283, "Ġà¤¸à¤¬à¤®": 7284, "Ġà¤īà¤¦à¤¯à¤¨": 7285, "Ġfew": 7286, "itor": 7287, "à¤¬à¤¨à¤¡": 7288, "à¤·à¤¤à¤¯": 7289, "ĠDec": 7290, "Ġà¤ıà¤¨à¤ª": 7291, "Ġ1100": 7292, "Ġà¥Ńà¥©": 7293, "than": 7294, "endar": 7295, "rade": 7296, "ours": 7297, "1958": 7298, "ĠArch": 7299, "Ġworks": 7300, "ĠÏĢ": 7301, "Ġofficial": 7302, "Ġparticip": 7303, "ĠMSN": 7304, "rr": 7305, "ÏĦ": 7306, "Ġà¤¹à¤°à¤ķ": 7307, "Ġà¤¬à¤¬à¤²": 7308, "à¤§à¤¦": 7309, "Ġà¤ĩà¤®à¤²": 7310, "à¤ħà¤µà¤ķ": 7311, "Ġà¤§à¤¨à¤µ": 7312, "à¤µà¤¨à¤¨": 7313, "à¤®à¤ķà¤²": 7314, "Ġsch": 7315, "itions": 7316, "à¤ķà¤¨à¤¸": 7317, "ĠSouth": 7318, "Ġanal": 7319, "Ġà¤ħà¤¦à¤²": 7320, "ĠRep": 7321, "Ġà¤ħà¤¶à¤°à¤«": 7322, "Ġà¥®à¥¨": 7323, "ĠOn": 7324, "akh": 7325, "à¥¨à¥¦à¥§à¥¬": 7326, "à¤īà¤ªà¤ķà¤°à¤£": 7327, "Ġà¥§à¥¯à¥§à¥ª": 7328, "Ġphys": 7329, "Ġsandbox": 7330, "Con": 7331, "pre": 7332, "à¥ĩà¥ĩà¤Ĥ": 7333, "Ġà¤¹à¤¨à¤¨": 7334, "Ġà¤²à¤¹à¤¸": 7335, "à¤Ĩà¤ĩà¤µ": 7336, "à¤µà¤¨à¤°": 7337, "à¤¦à¤°à¤Ń": 7338, "Ġbody": 7339, "Ġpag": 7340, "Ġ550": 7341, "Ġà¤ĵà¤°à¤Ľ": 7342, "Ġder": 7343, "Ġdou": 7344, "Ġnil": 7345, "Ġà¤¸à¤¨à¤¹": 7346, "ĠAt": 7347, "à¤¥à¤¨à¤Ĺà¤°": 7348, "ĠED": 7349, "Ġà¥Ńà¥Ń": 7350, "adr": 7351, "Ġà¥¬à¥Ń": 7352, "ĠØ¯": 7353, "Ġà¤Ĩà¤īà¤Łà¤¡": 7354, "Ġprim": 7355, "à¥§à¥¯à¥¬à¥¦": 7356, "Ġcomplete": 7357, "Ġtables": 7358, "WA": 7359, "upp": 7360, "à¤Łà¤²à¤¨": 7361, "Ġà¤ĸà¤¸à¤°": 7362, "à¤ķà¤°à¤µ": 7363, "Ġà¤Łà¤ķà¤¸": 7364, "à¤¸à¤°à¤Ĺ": 7365, "Ġà¤ħà¤²à¤ķà¤¨": 7366, "à¤¸à¤¨à¤µ": 7367, "Ġ650": 7368, "à¤°à¤ļà¤°": 7369, "ĠLong": 7370, "à¤ıà¤²à¤ľ": 7371, "istics": 7372, "Ġ264": 7373, "Ġplan": 7374, "Ġ1855": 7375, "Ġmatch": 7376, "Ind": 7377, "ITS": 7378, "iqu": 7379, "Ġê": 7380, "à¥£": 7381, "à¤¹à¤ļà¤°": 7382, "Ġà¤°à¤®à¤ľ": 7383, "à¤¡à¤°à¤µ": 7384, "à¤ªà¤¨à¤¦": 7385, "à¤īà¤¡à¤¸": 7386, "Ġà¤®à¤¹à¤¨": 7387, "Ġà¤īà¤ªà¤µà¤°": 7388, "Ġà¤Ĩà¤°à¤¬": 7389, "Ġà¤ªà¤¦à¤¸": 7390, "à¤Ĺà¤²à¤®": 7391, "ĠSub": 7392, "Ġnear": 7393, "Ġnuc": 7394, "Ġ888": 7395, "ently": 7396, "Ġlater": 7397, "ĠWe": 7398, "ĠRiver": 7399, "à¤¨à¤¦à¤¯": 7400, "istr": 7401, "à¦¼": 7402, "rip": 7403, "Ġwhite": 7404, "Ġimm": 7405, "à¤īà¤ªà¤Ĺ": 7406, "à°°": 7407, "ynast": 7408, "Ġmarkup": 7409, "Ġdeleted": 7410, "idden": 7411, "board": 7412, "down": 7413, "Ð¼": 7414, "à¤ªà¤Ń": 7415, "Ġà¤¨à¤®à¤¨": 7416, "Ġà¤¦à¤°à¤ķ": 7417, "Ġà¤°à¤¬à¤¡": 7418, "Ġà¤¶à¤¯à¤¨": 7419, "à¤«à¤ķ": 7420, "à¤ĵo": 7421, "à¤¶à¤¨à¤Ĺ": 7422, "Ġà¤Ľà¤ªà¤°": 7423, "atus": 7424, "Ġà¤¸à¤¹à¤Ĺà¤²": 7425, "Ġà¤ħà¤®à¤°à¤¤": 7426, "Ġà¤ķà¤²à¤ļ": 7427, "à¤Ŀà¤¤": 7428, "Ġà¤Ĭà¤Ł": 7429, "rem": 7430, "ĠSoci": 7431, "Ġnone": 7432, "à¥¨à¥¦à¥¦": 7433, "ĠCN": 7434, "Ġà¤łà¤ķ": 7435, "use": 7436, "Ġ158": 7437, "ĠLin": 7438, "abad": 7439, "Ġà¥¬à¥®": 7440, "illa": 7441, "à¤Ńà¤µà¤¤à¤¯": 7442, "âĢįà¤¿": 7443, "Ġà¤¨à¤ľà¤°à¤ħ": 7444, "Ġà¥§à¥¯à¥¦à¥«": 7445, "Ġproduces": 7446, "Ġinsert": 7447, "ĠØ¨ÙĨ": 7448, "No": 7449, "sk": 7450, "à¤¤à¤ľà¤¨": 7451, "à¤®à¤¸à¤°": 7452, "à¤Ĺà¤¨à¤²": 7453, "Ġà¤¬à¤ª": 7454, "Ġà¤¬à¤Łà¤²à¤°": 7455, "à¤°à¤ķà¤ª": 7456, "à¤Ĩà¤¸à¤ª": 7457, "Ġbase": 7458, "Ġinit": 7459, "1936": 7460, "1939": 7461, "Ġmedia": 7462, "Ġmaterial": 7463, "ĠSm": 7464, "ĠCr": 7465, "ĠDel": 7466, "ĠBal": 7467, "Ġgreat": 7468, "ĠRFC": 7469, "aining": 7470, "oke": 7471, "Ġ1874": 7472, "Ġmeas": 7473, "Ġà¥§à¥§à¥«": 7474, "Ġà¥§à¥¯à¥¦à¥Ń": 7475, "Ġload": 7476, "à¥Ĭà¤Ĥ": 7477, "Ġavoid": 7478, "à±ģ": 7479, "Ġprovides": 7480, "Ġseparate": 7481, "Ġurl": 7482, "TION": 7483, "Ġengine": 7484, "Ġquestions": 7485, "SL": 7486, "cut": 7487, "gov": 7488, "none": 7489, "rish": 7490, "work": 7491, "Ùĥ": 7492, "à¤¤à¤¤à¤®": 7493, "à¤µà¤«": 7494, "à¤¡à¤¡": 7495, "Ġà¤Ĺà¤ľà¤²": 7496, "Ġà¤Ĩà¤ĩà¤ª": 7497, "Ġà¤ĺà¤¸": 7498, "Ġà¤Ľà¤ªà¤¨": 7499, "ored": 7500, "ena": 7501, "icode": 7502, "1949": 7503, "à¤Łà¤²à¤®": 7504, "ĠABC": 7505, "à¤°à¤ľà¤®à¤²": 7506, "eth": 7507, "Ġà¤Ĩà¤¸à¤«": 7508, "Ġ157": 7509, "à¥§à¥¦à¥¦": 7510, "Ġ161": 7511, "ola": 7512, "osph": 7513, "ĠRec": 7514, "Ġàª": 7515, "ulture": 7516, "à¥§à¥¯à¥¯à¥§": 7517, "Ġacid": 7518, "olec": 7519, "Ġtranslation": 7520, "Ġcurrently": 7521, "rd": 7522, "Ġemb": 7523, "Ġà¤ħà¤ªà¤¤": 7524, "à¥ĭà¤Ĥà¤Ĥ": 7525, "à¤ħà¤¸à¤¤": 7526, "à¤Łà¤°à¤¹": 7527, "Ġtaken": 7528, "Ġà¤ħà¤²à¤¬": 7529, "à¤ĺà¤¨à¤¨": 7530, "Ġà¤¸à¤¬à¤µ": 7531, "atab": 7532, "ĠMay": 7533, "Ġà¤ľà¤²à¤¸à¤¨": 7534, "Ġà¤ľà¤²à¤¡à¤®à¤°": 7535, "Ġ1835": 7536, "ask": 7537, "ased": 7538, "à¤ıà¤¸à¤ľ": 7539, "Ġless": 7540, "ĠUM": 7541, "ĠUEFA": 7542, "à¤ķà¤ªà¤¡": 7543, "iling": 7544, "Ġ166": 7545, "ĠHel": 7546, "ĠKar": 7547, "Ġà¤ıà¤¯à¤°à¤«": 7548, "Ġà¤ĩà¤°à¤«": 7549, "ĠØŃ": 7550, "ipp": 7551, "Ġimp": 7552, "Ġcategor": 7553, "à¥§à¥¯à¥ªà¥Ń": 7554, "orthy": 7555, "Ġwikitext": 7556, "Ed": 7557, "With": 7558, "aul": 7559, "mi": 7560, "ni": 7561, "ĠÅ": 7562, "à¤µà¤¬à¤¨": 7563, "à¤Ĺà¤ľà¤¨à¤ķ": 7564, "à¤ľà¤µà¤²": 7565, "à¤¬à¤°à¤ķ": 7566, "à¤¤à¤°à¤¹": 7567, "à¤Ĩà¤¨à¤¨": 7568, "à¤ľà¤¨à¤®": 7569, "Ġà¤Ĳà¤¤à¤°": 7570, "Ġà¤ħà¤ķà¤¸": 7571, "1942": 7572, "Ġmax": 7573, "Ġhal": 7574, "à¥ªà¥¯": 7575, "Ġthough": 7576, "ĠBE": 7577, "Ġ164": 7578, "Ġà¤ħà¤¦à¤°à¤ķ": 7579, "Ġrest": 7580, "Ġexcept": 7581, "indust": 7582, "ĠAmerican": 7583, "IL": 7584, "UC": 7585, "ye": 7586, "Úº": 7587, "Ú¾": 7588, "Ġes": 7589, "à¤¨à¤¤à¤°": 7590, "Ġà¤¹à¤°à¤£": 7591, "Ġà¤¬à¤°à¤ķ": 7592, "Ġà¤¬à¤¦à¤°": 7593, "à¤¬à¤¤à¤ª": 7594, "à¤ıà¤¨à¤°": 7595, "à¤ĸà¤°à¤¨": 7596, "Ġà¤ªà¤¹à¤¨à¤ķà¤°": 7597, "ita": 7598, "Ġdl": 7599, "Ġop": 7600, "ĠPH": 7601, "ots": 7602, "à¤¥à¤²à¤¹à¤®": 7603, "unc": 7604, "ille": 7605, "ĠNY": 7606, "à¤īà¤¦à¤¹": 7607, "elcome": 7608, "Ġrather": 7609, "ably": 7610, "Ġà¤¸à¤ľà¤Ĺ": 7611, "ĠØ±": 7612, "Ġcomput": 7613, "Ġchart": 7614, "Ġ1851": 7615, "Ġfeel": 7616, "Ġincre": 7617, "Ġà¤ıà¤Łà¤²à¤¸": 7618, "NOT": 7619, "ves": 7620, "à¤ķà¤¨à¤ķ": 7621, "à¤ķà¤¬à¤¸": 7622, "à¤¯à¤¸à¤²": 7623, "à¤¹à¤ļ": 7624, "Ġà¤¨à¤¡": 7625, "à¤¥à¤ķà¤°": 7626, "Ġà¤¶à¤°à¤¤": 7627, "Ġà¤ıà¤ķà¤¤à¤°à¤«": 7628, "à¤ħà¤Łà¤²": 7629, "Ġà¤Īà¤¨": 7630, "Ġpublic": 7631, "à¤ĩà¤Łà¤¹": 7632, "Ġmajor": 7633, "ĠSant": 7634, "ament": 7635, "à¤ıà¤¸à¤ıà¤²": 7636, "Ġà¤¬à¤¦à¤®": 7637, "idge": 7638, "Ġgive": 7639, "oll": 7640, "Ġreport": 7641, "ĠFFD": 7642, "Ġvia": 7643, "Ġparms": 7644, "Ġconver": 7645, "ansk": 7646, "Ġjpg": 7647, "Ġà¥§à¥§à¥Ń": 7648, "ysis": 7649, "Ġwords": 7650, "Form": 7651, "RT": 7652, "oe": 7653, "à¤®à¤²à¤ķ": 7654, "Ġà¤®à¤¢": 7655, "à¤Ĺà¤²à¤¤": 7656, "Ġà¤¨à¤Łà¤°": 7657, "Ġtri": 7658, "Ġà¤ĵà¤¤": 7659, "à¤ķà¤²à¤°": 7660, "Ġ330": 7661, "à¤¡à¤²à¤¸": 7662, "1919": 7663, "à¤¡à¤°à¤¬": 7664, "Ġ1817": 7665, "agement": 7666, "Ġ8000": 7667, "à¤°à¤ľà¤®": 7668, "ention": 7669, "ett": 7670, "eter": 7671, "urs": 7672, "ĠWM": 7673, "ĠKal": 7674, "ĠÂ´": 7675, "Ġ270": 7676, "ĠJan": 7677, "ording": 7678, "Ġpress": 7679, "Ġdiff": 7680, "ammart": 7681, "ynam": 7682, "ĠCommons": 7683, "Ġheader": 7684, "losed": 7685, "Ġpassed": 7686, "encies": 7687, "Ġindividual": 7688, "OH": 7689, "VC": 7690, "bre": 7691, "med": 7692, "uf": 7693, "yr": 7694, "à¥Ĵ": 7695, "à¤£à¤§": 7696, "Ġà¤īà¤¬à¤°à¤¨": 7697, "Ġà¤¤à¤ľ": 7698, "à¤Īà¤Ī": 7699, "Ġà¤«à¤¤à¤µ": 7700, "âĢĿ": 7701, "à¤¹à¤°à¤ª": 7702, "à¤¦à¤°à¤ľ": 7703, "à¤°à¤Ńà¤¦": 7704, "Ġà¤Ĩà¤µà¤§": 7705, "à¤ĩà¤Łà¤¸": 7706, "igation": 7707, "ident": 7708, "à¤Ĩà¤°à¤ı": 7709, "à¤ľà¤²à¤ª": 7710, "Ġà¤ħà¤¦à¤Ń": 7711, "ĠEP": 7712, "à¤ľà¤ķà¤®à¤²": 7713, "add": 7714, "à¤ıà¤¨à¤¯": 7715, "Ġselection": 7716, "Ġà¤ĭà¤£à¤¦": 7717, "ikipedi": 7718, "à®ķ": 7719, "Ġà¥¨à¥©à¥¦": 7720, "Ġà¤¦à¤®à¤¨à¤ķ": 7721, "ffic": 7722, "à´¿": 7723, "Ġperform": 7724, "Ġwhether": 7725, "Ã¨": 7726, "à¥ĩà¥į": 7727, "à¤¤à¤¶à¤°": 7728, "à¤¸à¤Ĭà¤¦": 7729, "Ġà¤¨à¤ļ": 7730, "à¤¥à¤¹": 7731, "à¤«à¤¸à¤²": 7732, "Ġà¤ĸà¤¯": 7733, "à¤Ĩà¤ķà¤°": 7734, "à¤µà¤¨à¤¯": 7735, "Ġself": 7736, "Ġà¤ªà¤¤à¤Ŀà¤¡": 7737, "itch": 7738, "asa": 7739, "ĠAT": 7740, "Ġ850": 7741, "Ġret": 7742, "à¤īà¤¦à¤¯à¤ª": 7743, "Ġrad": 7744, "umar": 7745, "à¤ķà¤®à¤Ĺà¤¢": 7746, "Ġà¤ıà¤ļà¤¸": 7747, "Ġimpro": 7748, "ibility": 7749, "Ġà¥§à¥¯à¥¦à¥®": 7750, "arbon": 7751, "ammartino": 7752, "net": 7753, "à¤ľà¤¦à¤°à¤¬": 7754, "Ġà¤¤à¤¹à¤°": 7755, "à¤¸à¤ķà¤²": 7756, "à¤°à¤¸à¤¤": 7757, "Ġà¤ĵà¤ªà¤²": 7758, "ĠâĢ²": 7759, "ese": 7760, "Ġà¤Ĩà¤°à¤ıà¤¸à¤ıà¤¸": 7761, "à¤īà¤¨à¤¹": 7762, "1937": 7763, "Ġà¤¹à¤°à¤¨": 7764, "ĠSP": 7765, "ama": 7766, "amil": 7767, "ĠAI": 7768, "Ġà¤Ĩà¤Īà¤ıà¤ıà¤¸": 7769, "Ġhistory": 7770, "Ġforce": 7771, "aph": 7772, "ĠNC": 7773, "ĠHC": 7774, "à¤ıà¤¨à¤ľ": 7775, "à¤ıà¤«à¤ıà¤²": 7776, "Ġà¤¹à¤¡à¤¸à¤¨": 7777, "1953": 7778, "Ġadditional": 7779, "Ġ1864": 7780, "Ġ1853": 7781, "duction": 7782, "Ġsoftware": 7783, "Ġà¤Ŀà¤²à¤ķà¤¤": 7784, "Ð¸Ñ": 7785, "Ġdeterm": 7786, "Ġentries": 7787, "Also": 7788, "ĠHSV": 7789, "BI": 7790, "EM": 7791, "oon": 7792, "oad": 7793, "à¤µà¤ĺà¤°": 7794, "Ġà¤Ĩà¤·": 7795, "Ġà¤ļà¤ķà¤¤": 7796, "Ġà¤ħà¤¨à¤ķ": 7797, "Ġà¤ħà¤¨à¤²": 7798, "Ġà¤¡à¤«": 7799, "à¤ħà¤µà¤°": 7800, "à¤µà¤¤à¤¶": 7801, "Ġsqu": 7802, "ising": 7803, "Ġà¤ħà¤ªà¤Ĺ": 7804, "Ġax": 7805, "ĠMin": 7806, "ĠAL": 7807, "à¤²à¤µà¤£": 7808, "ota": 7809, "à¤°à¤ľà¤¤": 7810, "ived": 7811, "Ġà¥Ńà¥ª": 7812, "adesh": 7813, "ayer": 7814, "à¤°à¤Ĺà¤£": 7815, "Ġ210": 7816, "umber": 7817, "Ġaddition": 7818, "à¥¨à¥¦à¥¦à¥©": 7819, "Ġà¥§à¥§à¥ª": 7820, "Add": 7821, "ynasty": 7822, "Val": 7823, "aff": 7824, "bs": 7825, "hol": 7826, "uary": 7827, "Î»": 7828, "Ġà¥ĩ": 7829, "Ġà¤®à¤°à¤µ": 7830, "à¤µà¤¯à¤ķ": 7831, "Ġà¤ıà¤ķà¤¬": 7832, "Ġà¤ļà¤¡": 7833, "à¤¤à¤°à¤¸": 7834, "Ġ218": 7835, "Ġà¤®à¤¹à¤¬": 7836, "Ġà¤Īo": 7837, "ison": 7838, "1928": 7839, "Ġà¤¹à¤°à¤«": 7840, "Ġdom": 7841, "Ġmt": 7842, "Ġmagn": 7843, "Ġnull": 7844, "Ġtoo": 7845, "à¤¦à¤®à¤¯": 7846, "ĠGDP": 7847, "à¤Ķà¤ªà¤ļ": 7848, "Ġà¥Ńà¥¯": 7849, "ista": 7850, "Ġ260": 7851, "ĠJu": 7852, "Ġlinked": 7853, "1959": 7854, "à²¿": 7855, "porary": 7856, "Ġelectr": 7857, "Ġexists": 7858, "DR": 7859, "div": 7860, "day": 7861, "eh": 7862, "à¤¤à¤Ĺà¤£": 7863, "à¤¯à¤¬à¤²": 7864, "à¤®à¤Ńà¤¦": 7865, "à¤Ĺà¤¡à¤¨": 7866, "à¤ľà¤¸à¤¤": 7867, "à¤§à¤ķà¤¤": 7868, "à¤¤à¤°à¤Ĺà¤¤": 7869, "à¤īà¤Ĺ": 7870, "Ġà¥§à¥§à¥¦": 7871, "eration": 7872, "aria": 7873, "Ġà¤ħà¤µà¤°à¤ķ": 7874, "Ġbh": 7875, "Ġmus": 7876, "Ġà¤Ŀà¤£": 7877, "à¤ıà¤¸à¤ıà¤«": 7878, "Ġà¤łà¤¹à¤°à¤¤": 7879, "ĠIBM": 7880, "depend": 7881, "Ġà¤«à¤²à¤¦": 7882, "ĠVH": 7883, "Ġà¥§à¥«à¥¦à¥¦": 7884, "Ġexpress": 7885, "Ġàµ": 7886, "Ġà¤ªà¤¨à¤ªà¤¨": 7887, "ĠØ®": 7888, "ips": 7889, "1955": 7890, "Ġprec": 7891, "Ġmeans": 7892, "ĠISDN": 7893, "Ġextra": 7894, "ĠCSS": 7895, "ØŃÙħ": 7896, "Ġwriting": 7897, "Ġunnamed": 7898, "ĠCorporation": 7899, "SR": 7900, "gu": 7901, "mark": 7902, "à¤¦à¤¶à¤ķ": 7903, "Ġà¤Ĺà¤Ĺ": 7904, "Ġà¤Ĺà¤Ł": 7905, "Ġà¤ıà¤¤à¤®": 7906, "à¤Ńà¤µà¤µ": 7907, "Ġà¤ļà¤Łà¤ķ": 7908, "à¤°à¤ķà¤®": 7909, "à¤ħà¤¥à¤°": 7910, "Ġà¤ħà¤¸à¤Ń": 7911, "1900": 7912, "ĠMc": 7913, "ĠSim": 7914, "Ġann": 7915, "ĠGSM": 7916, "ĠNAS": 7917, "ĠOH": 7918, "Ġpropos": 7919, "Ġà¤ķà¤ļà¤¹à¤°": 7920, "Ġitself": 7921, "à¥§à¥¯à¥«à¥¦": 7922, "Ġcells": 7923, "hemat": 7924, "Ġbreak": 7925, "aon": 7926, "ber": 7927, "Îµ": 7928, "ãĤ": 7929, "à¤¿à¥ĩ": 7930, "Ġà¤¹à¤°à¤¸": 7931, "à¤®à¤µà¤¤": 7932, "à¤®à¤¬à¤¤": 7933, "Ġà¤ħà¤ľà¤°à¤¬": 7934, "à¤ıà¤²à¤¨": 7935, "Ġà¤ıà¤ķà¤¨": 7936, "à¤°à¤®à¤ªà¤°": 7937, "à¤ĵà¤¯": 7938, "à¤µà¤¨à¤®": 7939, "oreb": 7940, "ench": 7941, "Ġà¤Ĭà¤ļ": 7942, "1921": 7943, "ĠAz": 7944, "Ġà¤¤à¤²à¤Ľà¤Ł": 7945, "Ġ235": 7946, "Ġà¥§à¥©à¥¦": 7947, "ĠTypo": 7948, "Ġunc": 7949, "acking": 7950, "Ġà¥§à¥¦à¥«": 7951, "Ġà¥§à¥¯à¥¦à¥ª": 7952, "Ġà¥§à¥¯à¥¦à¥¬": 7953, "ociation": 7954, "Ġprojects": 7955, "edicine": 7956, "where": 7957, "Ġremoved": 7958, "Ġsomething": 7959, "Do": 7960, "Name": 7961, "SO": 7962, "Summary": 7963, "Tube": 7964, "now": 7965, "the": 7966, "Ð±": 7967, "áĥ": 7968, "à¥ĳ": 7969, "à¤ķà¤°à¤ķ": 7970, "à¤ķà¤ĩà¤¨": 7971, "à¤®à¤Ŀ": 7972, "Ġà¤®à¤ª": 7973, "à¤¹à¤²à¤µ": 7974, "Ġà¤¦à¤¯à¤¨": 7975, "à¤¬à¤¶": 7976, "Ġà¤īà¤¬à¤°": 7977, "Ġà¤ıà¤Ŀ": 7978, "Ġà¤¶à¤¬à¤°": 7979, "Ġà¤¥à¤²à¤Ĺ": 7980, "Ġà¤ħà¤¨à¤°": 7981, "à¤°à¤£à¤¬": 7982, "à¤Ĩà¤ªà¤¸": 7983, "à¤¼à¥Ģ:": 7984, "à¤ĺà¤µà¤¨": 7985, "arm": 7986, "Ġà¤¬à¤ļà¤ķà¤°": 7987, "Ġ1845": 7988, "ĠCount": 7989, "Ġà¤Ĩà¤Īà¤²": 7990, "usiness": 7991, "à¤µà¤°à¤£à¤µ": 7992, "Ġ172": 7993, "Ġ169": 7994, "ĠNav": 7995, "osh": 7996, "à¤¸à¤¹à¤¯": 7997, "Ġà¤Ĩà¤ĩà¤¡à¤²": 7998, "Ġà¥§à¥¯à¥§à¥¬": 7999, "anks": 8000, "Ġà¥§à¥¦à¥ª": 8001, "Ġà¥§à¥§à¥¨": 8002, "Ġà¥§à¥¯à¥¦à¥§": 8003, "Ġphot": 8004, "Ġobject": 8005, "resp": 8006, "ALL": 8007, "ĠMediaWiki": 8008, "120": 8009, "hat": 8010, "mouse": 8011, "à¤°à¤§à¤¨": 8012, "à¤ķà¤ĸ": 8013, "à¤²à¤ļà¤¨": 8014, "Ġà¤¸à¤¨à¤°": 8015, "Ġà¤ªà¤¸à¤²": 8016, "à¤ľà¤§à¤°": 8017, "à¤ļà¤²à¤¤": 8018, "à¤Ńà¤£": 8019, "Ġà¤ıà¤ķà¤¸à¤®": 8020, "à¤īà¤ªà¤¸": 8021, "Ġà¤¸à¤¬à¤¨": 8022, "à¤¤à¤¨à¤Ĺà¤°": 8023, "iting": 8024, "Ġdue": 8025, "Ġà¤łà¤¨": 8026, "Ġà¤¨à¤µà¤Ĺà¤ł": 8027, "ott": 8028, "Ġà¤¢à¤²à¤µ": 8029, "Ġ168": 8030, "Ġà¥Ńà¥§": 8031, "à¤ıà¤¨à¤Ĩà¤°": 8032, "ĠØª": 8033, "ĠXI": 8034, "ĠXP": 8035, "ĠState": 8036, "Ġ1805": 8037, "Ġà¥§à¥§à¥®": 8038, "à½¼": 8039, "Ġfeature": 8040, "Ġà¤Ńà¤Łà¤ķà¤¤": 8041, "Ġbuilding": 8042, "Hello": 8043, "à¤¦à¤µà¤°": 8044, "Ġà¤ħà¤ķà¤²": 8045, "Ġà¤µà¤¸à¤¨": 8046, "à¤¶à¤§": 8047, "Ġà¤Ľà¤ªà¤¤": 8048, "à¤°à¤¹à¤¨": 8049, "Ġsl": 8050, "Ġcity": 8051, "Ġà¤®à¤¨à¤µ": 8052, "Ġà¤Ĩà¤°à¤ľ": 8053, "Ġfeed": 8054, "Ġaff": 8055, "à¤ıà¤ķà¤¤": 8056, "ĠDis": 8057, "apt": 8058, "à¤ıà¤¨à¤Ł": 8059, "thers": 8060, "Ġonmouse": 8061, "Ġà¤ªà¤¨à¤ªà¤¤": 8062, "Ġà¤īà¤Ńà¤¯à¤²": 8063, "Ġà¤ļà¤°à¤®à¤ª": 8064, "Ġà¥§à¥¦à¥©": 8065, "à²°": 8066, "Ġgray": 8067, "ECTION": 8068, "Ġproblems": 8069, "Ġpronunci": 8070, "DI": 8071, "Def": 8072, "Res": 8073, "Wik": 8074, "rist": 8075, "Ġà¤¸à¤µà¤°": 8076, "Ġà¤¸à¤ķà¤°": 8077, "à¤Łà¤¯à¤®": 8078, "Ġà¤¥à¤ª": 8079, "à¤ħà¤µà¤¶": 8080, "Ġà¤Ľà¤¤à¤°à¤ª": 8081, "ania": 8082, "Ġà¤¸à¤¹à¤¦": 8083, "Ġden": 8084, "Ġmakes": 8085, "ĠMB": 8086, "asc": 8087, "à¤°à¤ªà¤Ł": 8088, "unt": 8089, "road": 8090, "à¤ıà¤®à¤ľ": 8091, "à¤łà¤ķà¤¥": 8092, "ormally": 8093, "raw": 8094, "Ø§Ø¯": 8095, "Ġà¥§à¥¯à¥§à¥©": 8096, "à¤¬à¤°à¤®à¤¤": 8097, "Ġapplic": 8098, "ĠÙ¾": 8099, "ĠHybrid": 8100, "Thanks": 8101, "yg": 8102, "à¤¨à¤·à¤¦": 8103, "à¤ķà¤¬à¤°": 8104, "à¤µà¤¯à¤®": 8105, "Ġà¤ħà¤¸à¤¨": 8106, "Ġà¤µà¤¤à¤¨": 8107, "à¤Łà¤¬à¤²": 8108, "à¤§à¤ªà¤¤": 8109, "à¤°à¤£à¤¨": 8110, "à¤łà¤¯à¤ķ": 8111, "à¤¯à¤ķà¤¶": 8112, "à¤¶à¤¨à¤¸": 8113, "Ġtimes": 8114, "à¤®à¤¨à¤°": 8115, "Ġà¤ĵà¤Ĺ": 8116, "Ġpe": 8117, "Ġmiss": 8118, "ĠSA": 8119, "ĠServ": 8120, "Ġ1847": 8121, "Ġà¤¸à¤¨à¤¦": 8122, "aster": 8123, "loy": 8124, "uri": 8125, "Ġlight": 8126, "Ġ1789": 8127, "ĠLat": 8128, "à¤®à¤Ĺà¤§": 8129, "à¤ıà¤®à¤¬": 8130, "though": 8131, "Ġà¤ıà¤«à¤ı": 8132, "Ġwhy": 8133, "Ġà¬": 8134, "Ġpres": 8135, "Ġ365": 8136, "à®®": 8137, "Ġotherwise": 8138, "ATA": 8139, "à¥§à¥¯à¥Ńà¥¦": 8140, "Ġmessages": 8141, "Ġelectron": 8142, "Ġunderst": 8143, "ĠKingdom": 8144, "acebook": 8145, "orebits": 8146, "900": 8147, "LM": 8148, "code": 8149, "à¤ķà¤¤à¤¨": 8150, "Ġà¤ªà¤¯": 8151, "à¤¹à¤¶": 8152, "Ġà¤ľà¤¦": 8153, "Ġà¤°à¤ľà¤µ": 8154, "Ġà¤¤à¤®à¤¸": 8155, "à¤Ńà¤ķà¤°": 8156, "Ġà¤īà¤ªà¤ķà¤²": 8157, "Ġà¤Ľà¤¬": 8158, "à¤¯à¤¨à¤µ": 8159, "à¤¡à¤²à¤¬à¤°": 8160, "à¤§à¤¨à¤¤": 8161, "à¤²à¤ķà¤£": 8162, "Ġ1819": 8163, "otes": 8164, "Ġlarg": 8165, "Ġthird": 8166, "ĠBrit": 8167, "Ġ167": 8168, "Ġ1300": 8169, "ĠERP": 8170, "Ġà¥§à¥®à¥¦": 8171, "Ġà¤ķà¤¬à¤¡": 8172, "abled": 8173, "Ġclick": 8174, "eek": 8175, "duc": 8176, "à´¾": 8177, "Ġà¥§à¥¯à¥¦à¥¯": 8178, "ĠArt": 8179, "Ġsections": 8180, "à¥§à¥¯à¥¯à¥¯": 8181, "Ġarchive": 8182, "Ġbooks": 8183, "akshin": 8184, "Ġomitted": 8185, "ouncil": 8186, "CH": 8187, "DM": 8188, "OP": 8189, "title": 8190, "à¤¨à¤µà¤¨": 8191, "à¤¨à¤µà¤²": 8192, "à¤ķà¤®à¤¤": 8193, "à¤¡à¤¸à¤°": 8194, "à¤Ĩà¤ĩà¤¸": 8195, "Ġà¤ķà¤°à¤¤à¤¬": 8196, "Ġà¤ľà¤¨à¤ķà¤ª": 8197, "Ġà¤Ĳà¤¡à¤®": 8198, "1917": 8199, "ĠMult": 8200, "Ġnormal": 8201, "ĠCa": 8202, "Ġ7000": 8203, "à¤°à¤¬à¤¦à¤²": 8204, "Ġà¤ıà¤²à¤¡": 8205, "Ġhard": 8206, "à¤¯à¤¸à¤µ": 8207, "ĠDR": 8208, "ĠUr": 8209, "à¤²à¤®à¤£": 8210, "Ġyes": 8211, "ĠVis": 8212, "à¤¦à¤¶à¤®": 8213, "They": 8214, "Ġ1862": 8215, "Ġà¤«à¤¤à¤¹": 8216, "Ġaccount": 8217, "inese": 8218, "OTNOT": 8219, "ĠFOOTNOT": 8220, "Sp": 8221, "we": 8222, "Ã§": 8223, "ÏĢ": 8224, "à¤°à¤¶à¤¨": 8225, "à¤®à¤ļà¤ķ": 8226, "à¤£à¤¹": 8227, "Ġà¤Ĺà¤¹à¤²": 8228, "à¤°à¤¤à¤°": 8229, "à¤Ĩà¤ªà¤°": 8230, "à¤°à¤®à¤ķ": 8231, "à¤ªà¤°à¤µà¤°": 8232, "à¤µà¤¨à¤ļà¤°": 8233, "à¤Ĺà¤¤à¤¨": 8234, "Ġà¤ĵà¤ľà¤¸": 8235, "orr": 8236, "à¤°à¤µà¤ª": 8237, "Ġà¤ĩà¤¨à¤ªà¤°": 8238, "Ġfill": 8239, "Ġfurther": 8240, "Ġà¤ħà¤ªà¤¦": 8241, "Ġmen": 8242, "ĠSa": 8243, "ĠSAP": 8244, "asthan": 8245, "ĠEU": 8246, "ĠHLA": 8247, "à¤ıà¤®à¤Ī": 8248, "à¤°à¤Ĺà¤Ł": 8249, "ĠÂ½": 8250, "Ġsure": 8251, "Ġshows": 8252, "Ġà¤¬à¤®à¤µà¤°": 8253, "Ġà¤Ľà¤łà¤µ": 8254, "1906": 8255, "Ġboxes": 8256, "Ð¾Ð²": 8257, "Ġdecimal": 8258, "Ġproblem": 8259, "EL": 8260, "FI": 8261, "HA": 8262, "ians": 8263, "uit": 8264, "uck": 8265, "×¨": 8266, "à¤ķà¤®à¤¹": 8267, "à¤¯à¤ĸ": 8268, "à¥ģà¤¼": 8269, "Ġà¤¬à¤°à¤¹": 8270, "Ġà¤¬à¤Ļ": 8271, "Ġà¤īà¤¬à¤²": 8272, "à¤ıà¤¥à¤²": 8273, "Ġà¤ķà¤°à¤ª": 8274, "à¤Ĩà¤²à¤®": 8275, "à¤°à¤¸à¤°à¤£": 8276, "aries": 8277, "à¤Ŀà¤²": 8278, "Ġperm": 8279, "Ġà¤ħà¤¸à¤¤à¤¤": 8280, "lement": 8281, "Ġ1824": 8282, "Ġ1843": 8283, "Ġnext": 8284, "ĠAS": 8285, "oma": 8286, "à¤Ĩà¤Īà¤ľ": 8287, "ĠNorth": 8288, "ĠEp": 8289, "uture": 8290, "à¤ıà¤«à¤¬": 8291, "Ġprof": 8292, "Ġà¤ĵà¤µà¤°à¤¡": 8293, "à¥¨à¥¦à¥¦à¥¨": 8294, "Ġ1801": 8295, "Ġà¥§à¥¦à¥Ń": 8296, "áĢº": 8297, "Ġquant": 8298, "Ġrecogn": 8299, "Ġbasic": 8300, "ĠÏĥ": 8301, "Ġdescrib": 8302, "Ġstatus": 8303, "Ġstructure": 8304, "MOS": 8305, "type": 8306, "ze": 8307, "ĠÙĪ": 8308, "à¥ĵ": 8309, "à¤¨à¤®à¤ķ": 8310, "à¤¤à¤²à¤ķ": 8311, "à¤¯à¤Ĺà¤£": 8312, "à¤²à¤ªà¤²": 8313, "Ġà¤¸à¤Ĺà¤°": 8314, "Ġà¤ªà¤Łà¤µ": 8315, "à¤ľà¤¤à¤°": 8316, "à¤¬à¤«": 8317, "Ġà¤¯à¤¶à¤ª": 8318, "à¤īà¤¦à¤°": 8319, "à¤¯à¤¨à¤®": 8320, "Ġà¤¬à¤¹à¤®à¤¨": 8321, "Ġà¤ıà¤µà¤ľ": 8322, "Ġà¤Ĳà¤ļ": 8323, "ald": 8324, "Ġà¤īà¤¦à¤¯à¤¸": 8325, "Ġà¤Ĩà¤¯à¤¶": 8326, "à¤¡à¤°à¤µà¤°": 8327, "Ġà¤ĵà¤°à¤²": 8328, "ĠMHz": 8329, "Ġ1844": 8330, "Ġ1842": 8331, "ĠAng": 8332, "à¤¸à¤¤à¤¹": 8333, "urg": 8334, "Ġ162": 8335, "Ġ163": 8336, "ĠLaw": 8337, "Ġrecomm": 8338, "istry": 8339, "Ġà¥¬à¥§": 8340, "Ġà¤ĭà¤·à¤Ńà¤¦": 8341, "Ġchrom": 8342, "à®©": 8343, "Ġà¥§à¥¯à¥¦à¥©": 8344, "Ġposition": 8345, "Ġactive": 8346, "ĠOrgan": 8347, "Ġinside": 8348, "Ġgroups": 8349, "Ġwrite": 8350, "Ġà¤¹à¤°à¤«à¤¨à¤®": 8351, "Dakshin": 8352, "ND": 8353, "PG": 8354, "RH": 8355, "mic": 8356, "oj": 8357, "prop": 8358, "viron": 8359, "à¤¿à¤ģ": 8360, "à¤¤à¤¨à¤ķ": 8361, "à¤²à¤ľà¤¯": 8362, "Ġà¤ľà¤¯à¤¶": 8363, "à¤¡à¤Ĺà¤¢": 8364, "Ġà¤²à¤¶": 8365, "à¤Īà¤ı": 8366, "Ġà¤ļà¤°à¤¨": 8367, "à¤¯à¤°à¤¬": 8368, "Ġà¤¬à¤¹à¤ķà¤°": 8369, "Ġcos": 8370, "Ġà¤ħà¤µà¤ļ": 8371, "Ġfin": 8372, "Ġà¤¬à¤¢à¤¨": 8373, "Ġdire": 8374, "ĠMad": 8375, "ĠSee": 8376, "Ġ1837": 8377, "Ġ1849": 8378, "Ġnomin": 8379, "astic": 8380, "ĠPat": 8381, "à¤¥à¤²à¤°": 8382, "Ġlic": 8383, "Ġ1799": 8384, "ĠWar": 8385, "ĠGa": 8386, "ache": 8387, "ĠFC": 8388, "Ġà¥§à¥®à¥¦à¥¦": 8389, "à¤¯à¤£à¤ª": 8390, "Ġexact": 8391, "à¤µà¤¦à¤¤": 8392, "lesia": 8393, "Ġdefin": 8394, "à²¾": 8395, "ief": 8396, "ozoic": 8397, "Ġbetter": 8398, "amoorthy": 8399, "Ġwebsite": 8400, "respond": 8401, "Dakshinamoorthy": 8402, "Ab": 8403, "à¤¨à¤Ńà¤¦": 8404, "à¤¤à¤¬à¤¦": 8405, "à¤¦à¤ĸ": 8406, "à¤¦à¤¸à¤µ": 8407, "à¤ıà¤®à¤ķ": 8408, "Ġà¤Ĩà¤ĩà¤ķ": 8409, "Ġà¤¥à¤²à¤¸": 8410, "à¤¤à¤°à¤µà¤°": 8411, "à¤Ĩà¤µà¤°": 8412, "Ġtotal": 8413, "à¤µà¤¨à¤¦": 8414, "à¤µà¤²à¤¦": 8415, "Ġà¤ħà¤µà¤¦": 8416, "Ġbold": 8417, "1931": 8418, "Ġ1814": 8419, "ĠCBS": 8420, "Ġà¤¬à¤°à¤Ĺà¤¦": 8421, "unn": 8422, "Ġ1707": 8423, "ĠGl": 8424, "ĠHP": 8425, "thing": 8426, "Ġà¤ıà¤¡à¤Ĺà¤°": 8427, "ipur": 8428, "ĠStud": 8429, "à®¤": 8430, "Ġà¥§à¥§à¥¬": 8431, "Ġcommons": 8432, "à¤Ńà¤°à¤¤à¤ª": 8433, "Ġupd": 8434, "Ġdistance": 8435, "Ġheading": 8436, "ittle": 8437, "ĠYouTube": 8438, "Ġà¥łà¤·": 8439, "ĠDivX": 8440, "Ġtitles": 8441, "Ġsuggest": 8442, "anskrit": 8443, "FL": 8444, "base": 8445, "Ïĥ": 8446, "ÙĲ": 8447, "à¤¨à¤Ŀ": 8448, "Ġà¤®à¤ľà¤²": 8449, "Ġà¤¤à¤¶": 8450, "à¤ıà¤¬à¤°": 8451, "Ġà¤¶à¤«": 8452, "Ġà¤ıà¤ķà¤®à¤¤": 8453, "à¤°à¤¤à¤ķ": 8454, "Ġà¤Ľà¤ľ": 8455, "Ġturn": 8456, "atural": 8457, "à¤¦à¤°à¤µ": 8458, "Ġsouth": 8459, "enz": 8460, "Ġfrequ": 8461, "Ġaur": 8462, "ĠTer": 8463, "1932": 8464, "Ġdc": 8465, "Ġmolec": 8466, "Ġothers": 8467, "ĠSir": 8468, "ĠPe": 8469, "ĠICC": 8470, "iler": 8471, "ĠLim": 8472, "à¤ıà¤²à¤ª": 8473, "osp": 8474, "Ġvo": 8475, "abor": 8476, "Ġà¥®à¥Ń": 8477, "ills": 8478, "ansl": 8479, "Ġcolour": 8480, "Ġà¤ĵà¤µà¤°à¤²": 8481, "Ġsubpage": 8482, "Ġà¤²à¤µà¤£à¤¤": 8483, "ropdown": 8484, "IDS": 8485, "Ġfeatures": 8486, "Ġpolicy": 8487, "Ġguide": 8488, "Î¿ÏĤ": 8489, "ĠCentral": 8490, "Ġtypes": 8491, "ĠTechnology": 8492, "Ġtaxon": 8493, "industan": 8494, "GM": 8495, "lines": 8496, "ring": 8497, "side": 8498, "var": 8499, "vis": 8500, "à¤µà¤¤à¤°": 8501, "à¤¦à¤¹à¤¨": 8502, "à¤Łà¤ľà¤°à¤²": 8503, "Ġà¤¬à¤ł": 8504, "à¤¶à¤°à¤¦": 8505, "à¤ıà¤µà¤°": 8506, "Ġà¤¸à¤®à¤¦": 8507, "Ġà¤«à¤ľ": 8508, "à¤Ĩà¤°à¤¤": 8509, "à¤Ĩà¤Ľ": 8510, "à¤ħà¤¥à¤µ": 8511, "à¤ħà¤ľà¤®": 8512, "inary": 8513, "à¤¯à¤°à¤¡": 8514, "ances": 8515, "Ġà¤ĵà¤ĸà¤²": 8516, "Ġsources": 8517, "à¤°à¤µà¤£à¤¤": 8518, "rec": 8519, "references": 8520, "Ġ182": 8521, "ĠDNS": 8522, "ĠWork": 8523, "Ġà¤ıà¤®à¤ıà¤®": 8524, "ĠNO": 8525, "ĠLib": 8526, "à¤ľà¤¹à¤¬": 8527, "Ġà¤ħà¤°à¤¬à¤ªà¤¤": 8528, "Ġstub": 8529, "Ġcomment": 8530, "ĠInf": 8531, "ahar": 8532, "ĠÎ¼": 8533, "Ġargument": 8534, "clusion": 8535, "airs": 8536, "Ġsimply": 8537, "ĠIglesia": 8538, "Ġterms": 8539, "Ġä¸": 8540, "Args": 8541, "Ġï¿¼": 8542, "ĠPakistan": 8543, "Date": 8544, "Flag": 8545, "egr": 8546, "sch": 8547, "uff": 8548, "Ñĭ": 8549, "Ġà¤¸à¤§": 8550, "Ġà¤ªà¤Ľà¤¤": 8551, "à¥ģà¥į": 8552, "à¤¦à¤§": 8553, "Ġà¤ħà¤ķà¤°": 8554, "Ġà¤¬à¤ľà¤¨": 8555, "à¤¶à¤®à¤¨": 8556, "Ġà¤ªà¤°à¤ĸà¤¨": 8557, "Ġà¤«à¤Łà¤ķ": 8558, "à¤Ĩà¤¦à¤®": 8559, "Ġà¤Łà¤ĸà¤¨": 8560, "à¤ľà¤¨à¤°": 8561, "onetic": 8562, "ande": 8563, "ato": 8564, "orough": 8565, "Ġà¤¸à¤°à¤«": 8566, "Ġà¤ķà¤²à¤¹": 8567, "Ġinher": 8568, "Ġinternational": 8569, "à¤Ńà¤Ĺà¤µà¤¦": 8570, "ĠAA": 8571, "ĠAcc": 8572, "ĠAug": 8573, "ĠAOL": 8574, "Ġà¤¨à¤µà¤¦": 8575, "used": 8576, "ids": 8577, "ĠNSA": 8578, "ĠEMI": 8579, "à¤ıà¤²à¤ıà¤®": 8580, "change": 8581, "Ġà¥¬à¥¯": 8582, "à¤ħà¤ªà¤µ": 8583, "aha": 8584, "Ġsubst": 8585, "Ġtransclu": 8586, "à¤ªà¤¹à¤ļ": 8587, "ched": 8588, "TSC": 8589, "cle": 8590, "hors": 8591, "ki": 8592, "pages": 8593, "Ã±": 8594, "à¤µà¤ĺ": 8595, "à¤ªà¤®à¤¤": 8596, "Ġà¤ħà¤¦à¤®": 8597, "Ġà¤Ķà¤ķ": 8598, "à¤Ĩà¤¸à¤¨": 8599, "à¤ĵà¤«": 8600, "à¤°à¤¹à¤¤": 8601, "à¤®à¤¨à¤ľ": 8602, "Ġà¤ħà¤ªà¤ļ": 8603, "à¥¨à¥¦à¥¦à¥¦": 8604, "Ġà¤²à¤ķà¤µ": 8605, "Ġà¤ıà¤²à¤ª": 8606, "Ġgen": 8607, "Ġà¤ķà¤¥à¤ķà¤²": 8608, "Ġà¤ļà¤ķà¤®": 8609, "Ġ256": 8610, "à¤ıà¤ļà¤ª": 8611, "Ġà¥§à¥¨à¥«": 8612, "ipe": 8613, "Ġadds": 8614, "ideo": 8615, "Ġprefer": 8616, "cription": 8617, "ĠArm": 8618, "1908": 8619, "Ġà¤ªà¤°à¤µà¤²à¤¯": 8620, "Ġà¤®à¤¦à¤¨à¤®": 8621, "Ġcountries": 8622, "Ġdigits": 8623, "Ġlower": 8624, "Ġnegative": 8625, "So": 8626, "Table": 8627, "by": 8628, "iew": 8629, "js": 8630, "lin": 8631, "àº": 8632, "ĠÛģ": 8633, "à¤¸à¤ªà¤¨": 8634, "à¤²à¤§": 8635, "Ġà¤¸à¤¥": 8636, "à¤µà¤¦à¤¨": 8637, "Ġà¤ªà¤Łà¤ķ": 8638, "à¤¦à¤¯à¤¤": 8639, "à¤¥à¤¬": 8640, "à¤ļà¤ľà¤¨": 8641, "à¤ıà¤¬à¤²": 8642, "Ġà¤¯à¤µ": 8643, "Ġà¤¯à¤®à¤°": 8644, "à¤·à¤£à¤µ": 8645, "Ġsin": 8646, "Ġà¤ĳà¤²à¤°": 8647, "Ġà¤ĩà¤¨à¤°": 8648, "iction": 8649, "1912": 8650, "1922": 8651, "1941": 8652, "Ġwind": 8653, "Ġdial": 8654, "Ġ1839": 8655, "Ġnm": 8656, "Ġnorth": 8657, "ĠAv": 8658, "ĠAust": 8659, "à¤¯à¤¦à¤²": 8660, "agon": 8661, "lymp": 8662, "à¤Ĩà¤Īà¤Ĩà¤Īà¤Ł": 8663, "lute": 8664, "ĠDist": 8665, "Ġ1770": 8666, "Ġreaction": 8667, "iment": 8668, "oda": 8669, "Ġvillage": 8670, "ends": 8671, "Ġà¤ħà¤ľà¤Ĺà¤°": 8672, "Ġdeg": 8673, "Ġkg": 8674, "à¤ıà¤ļà¤ıà¤¸": 8675, "Ġà¥§à¥¨à¥¦à¥¦": 8676, "Ġà¤ıà¤«à¤Ł": 8677, "ĠJe": 8678, "ultural": 8679, "Ġencyclop": 8680, "Ġedits": 8681, "Ġresearch": 8682, "Ġqual": 8683, "Ġindia": 8684, "ĠOracle": 8685, "Ġassoci": 8686, "EDITS": 8687, "Ġà¤ħà¤µà¤ķà¤²à¤ľ": 8688, "à¤ıà¤²à¤¬à¤®": 8689, "NOEDITS": 8690, "Ġaliases": 8691, "ilitary": 8692, "Ġà¤ħà¤ªà¤¤à¤Ł": 8693, "NOEDITSECTION": 8694, "cat": 8695, "top": 8696, "Îº": 8697, "ĠÉ": 8698, "à¤°à¤µà¤¨": 8699, "à¤¸à¤§": 8700, "à¤¸à¤«à¤²": 8701, "à¤¦à¤ĸà¤²": 8702, "à¤ľà¤¯à¤°": 8703, "Ġà¤¨à¤µà¤µ": 8704, "Ġà¤īà¤Ł": 8705, "à¤Ńà¤®": 8706, "Ġà¤ĸà¤ļ": 8707, "à¤ķà¤°à¤ĺ": 8708, "à¤ķà¤²à¤®": 8709, "1914": 8710, "1938": 8711, "Ġdid": 8712, "Ġà¤ħà¤«à¤°": 8713, "Ġspaces": 8714, "à¥¬à¥¦à¥¦": 8715, "Ġ171": 8716, "ĠWilli": 8717, "Ġear": 8718, "ĠGal": 8719, "ĠNag": 8720, "ĠForm": 8721, "ĠÂ±": 8722, "ĠÂº": 8723, "ĠVal": 8724, "Ġà¤ļà¤¯à¤¨à¤ķà¤°": 8725, "Ġleast": 8726, "Ġmeet": 8727, "vey": 8728, "Ġcorrespond": 8729, "lands": 8730, "Ġentry": 8731, "Ġgives": 8732, "Ġhowever": 8733, "Ġcapital": 8734, "Ġcalcul": 8735, "Ġtemper": 8736, "Ġpattern": 8737, "Ġrelevant": 8738, "ĠSingh": 8739, "Ġdouble": 8740, "atabase": 8741, "vironment": 8742, "EF": 8743, "OD": 8744, "Sim": 8745, "Type": 8746, "text": 8747, "uz": 8748, "Ð³": 8749, "Ġicon": 8750, "à¤²à¤Ĺà¤¤": 8751, "à¤¼à¥Īà¤Ĥ": 8752, "Ġà¤¤à¤®à¤¨": 8753, "à¤Ĺà¤°à¤¨": 8754, "à¤ļà¤¨à¤ľ": 8755, "Ġ2022": 8756, "Ġclose": 8757, "Ġà¤īà¤¦à¤Ĺ": 8758, "Ġ380": 8759, "ĠTw": 8760, "1934": 8761, "Ġmove": 8762, "Ġopp": 8763, "Ġ1838": 8764, "Ġà¤¸à¤¤à¤¸à¤Ī": 8765, "ĠIF": 8766, "unic": 8767, "ĠWhen": 8768, "Ġà¤ªà¤°à¤®à¤µ": 8769, "ĠLLC": 8770, "ĠHB": 8771, "à¤ıà¤²à¤ıà¤«": 8772, "imb": 8773, "chan": 8774, "Ġalphabet": 8775, "Ġonce": 8776, "Ġ225": 8777, "Ġ002": 8778, "igned": 8779, "Ġcho": 8780, "ella": 8781, "Ġà¤·à¤¡à¤¯": 8782, "Ġdoesn": 8783, "Ġsupported": 8784, "ĠCollege": 8785, "Ġbuilt": 8786, "Ġmembers": 8787, "Ġà¤İà¤¸": 8788, "Qu": 8789, "Red": 8790, "gar": 8791, "ji": 8792, "à¥ĩ'": 8793, "Ġà¤¸à¤¶": 8794, "Ġà¤µà¤®à¤¨": 8795, "à¤ľà¤²à¤ķ": 8796, "à¤£à¤²": 8797, "à¤Ĩà¤¦à¤¤": 8798, "Ġà¤īà¤ªà¤µà¤¨": 8799, "Ġà¤īà¤ªà¤ªà¤¤": 8800, "à¤Łà¤°à¤Ĺ": 8801, "inf": 8802, "ret": 8803, "ĠSony": 8804, "ĠAPI": 8805, "Ġà¤Ĩà¤Īà¤ıà¤¸à¤ıà¤¸": 8806, "Ġlength": 8807, "Ġà¥©à¥«à¥¦": 8808, "ĠWALL": 8809, "Ġrece": 8810, "Ġà¤ıà¤¯à¤°à¤Ł": 8811, "Ġparent": 8812, "Ġà¤ıà¤ļà¤Ĩà¤ĩà¤µ": 8813, "Ġtry": 8814, "ĠChinese": 8815, "Ġaddress": 8816, "Ġà¤įà¤²": 8817, "Ġprevious": 8818, "Ġà¥§à¥§à¥¯à¥": 8819, "Ġrecord": 8820, "Ġ9001": 8821, "ĠGeorg": 8822, "ĠSuper": 8823, "definite": 8824, "CD": 8825, "data": 8826, "rum": 8827, "à¤¤à¤ªà¤°": 8828, "à¤ķà¤¹à¤¨": 8829, "à¤¹à¤µà¤°": 8830, "à¤ıà¤£": 8831, "Ġà¤ļà¤ĸ": 8832, "à¤°à¤ķà¤¨": 8833, "eri": 8834, "1924": 8835, "à¤°à¤¨à¤Ł": 8836, "ĠMat": 8837, "Ġà¤ľà¤²à¤¶": 8838, "Ġ1833": 8839, "Ġ1846": 8840, "Ġnative": 8841, "à¤Łà¤²à¤¸": 8842, "à¤ıà¤¸à¤ıà¤¨à¤ıà¤²": 8843, "ĠPET": 8844, "Ġà¤Ĩà¤ľà¤¤à¤ķ": 8845, "à¤Ńà¤µà¤ľà¤¨": 8846, "Ġhim": 8847, "ĠDav": 8848, "iles": 8849, "Ġà¤ĭà¤ķ": 8850, "osa": 8851, "ocation": 8852, "150": 8853, "Ġà¥§à¥ªà¥¦": 8854, "Ġprint": 8855, "Ġà¤°à¤£à¤§": 8856, "à¨°": 8857, "à¥§à¥¯à¥¯à¥®": 8858, "Ġredu": 8859, "Ġsystems": 8860, "ÑģÑĤ": 8861, "Ġà¤¬à¤°à¤¨à¤µ": 8862, "Ġchemical": 8863, "Des": 8864, "EN": 8865, "Here": 8866, "bles": 8867, "da": 8868, "kar": 8869, "Ãł": 8870, "à¥ĭà¤¼": 8871, "Ġà¤¹à¤®à¤ķ": 8872, "à¤ļà¤ķà¤¤": 8873, "Ġà¤ıà¤Łà¤ķ": 8874, "Ġà¤¯à¤¯": 8875, "à¤ĩà¤µà¤²": 8876, "à¤¤à¤°à¤«à¤²à¤ķ": 8877, "à¤Ĩà¤£": 8878, "à¤Ĩà¤¯à¤¤": 8879, "à¤Ĩà¤°à¤¬": 8880, "à¤ľà¤¨à¤Ĺà¤°": 8881, "Ġà¤ľà¤¨à¤¶": 8882, "Ġà¤Ĳà¤¬à¤ķ": 8883, "Ġà¤īà¤¦à¤Ĺà¤®": 8884, "Ġfig": 8885, "Ġflu": 8886, "itations": 8887, "Ġà¤Īà¤¸à¤ª": 8888, "Ġmaking": 8889, "ĠSud": 8890, "Ġà¤¨à¤µà¤°à¤¤": 8891, "à¤¹à¤®à¤£": 8892, "ema": 8893, "Ġliter": 8894, "Ġ178": 8895, "Ġ1750": 8896, "ilm": 8897, "ĠBD": 8898, "Ġà¤¬à¤ľà¤¤": 8899, "Ġvers": 8900, "ift": 8901, "à¦ª": 8902, "ops": 8903, "Ġcannot": 8904, "Ġsubstitut": 8905, "Ġà¥§à¥¯à¥¦à¥¨": 8906, "Ġapply": 8907, "1905": 8908, "Ġà¥§à¥®à¥¯à¥¯": 8909, "Ġgenerate": 8910, "Ġwarning": 8911, "ĠMPEG": 8912, "And": 8913, "HD": 8914, "Î¼": 8915, "Ġà¤ķà¤¦à¤°": 8916, "à¤µà¤ªà¤°": 8917, "à¤Ĺà¤¨à¤µ": 8918, "Ġà¤Ĺà¤¬": 8919, "Ġà¤ıà¤®à¤ķ": 8920, "Ġà¤¶à¤ļ": 8921, "à¤Īà¤¸à¤µ": 8922, "à¤«à¤¬": 8923, "Ġà¤ħà¤¨à¤ªà¤¢": 8924, "Ġà¤Łà¤ª": 8925, "à¤¸à¤®à¤Ĺ": 8926, "à¤¯à¤®à¤£": 8927, "à¤ķà¤²à¤µ": 8928, "Ġcour": 8929, "à¤¤à¤®à¤¸": 8930, "à¤Ĺà¤²à¤Ĺ": 8931, "Ġà¤ħà¤¸à¤¹à¤ľ": 8932, "1918": 8933, "ĠSQL": 8934, "Ġ1841": 8935, "ĠCB": 8936, "agari": 8937, "eturn": 8938, "ements": 8939, "Ġà¥¨à¥¦à¥§": 8940, "ĠNov": 8941, "Ġà¤Ĺà¤£à¤®": 8942, "ĠHer": 8943, "Ġà¥§à¥®à¥¯à¥¦": 8944, "à¤¦à¤²à¤ª": 8945, "orts": 8946, "achine": 8947, "Ġelements": 8948, "Ġitems": 8949, "Ġspeedy": 8950, "×ķ×": 8951, "Ġunderstand": 8952, "hu": 8953, "iers": 8954, "á»": 8955, "à¤¨à¤¸à¤®": 8956, "à¤¸à¤ĵà¤µà¤°": 8957, "à¤²à¤Ĺà¤¢": 8958, "à¤ľà¤Ī": 8959, "Ġà¤¨à¤µà¤¸": 8960, "à¤¶à¤£": 8961, "Ġà¤¦à¤¹à¤²": 8962, "à¤¬à¤°à¤¦": 8963, "à¤£à¤ļà¤¨": 8964, "à¤ķà¤°à¤ª": 8965, "Ġà¤ľà¤¨à¤¶à¤ķ": 8966, "Ġ206": 8967, "Ġà¤ĵà¤¯": 8968, "à¤°à¤µà¤¸": 8969, "Ġà¤®à¤¨à¤ļ": 8970, "itable": 8971, "1929": 8972, "Ġdays": 8973, "Ġà¤ľà¤¹à¤¨": 8974, "ĠMo": 8975, "reet": 8976, "Ġà¤ľà¤²à¤°": 8977, "Ġnational": 8978, "à¥®à¥¦à¥¦": 8979, "Ġ9000": 8980, "Ġtoget": 8981, "igger": 8982, "unity": 8983, "roph": 8984, "acrit": 8985, "à¤¬à¤¦à¤¬": 8986, "ĠEarth": 8987, "endencies": 8988, "à¤ĳà¤ª": 8989, "Ġà¤ħà¤¸à¤®à¤®": 8990, "Ġdecl": 8991, "à¤ıà¤ļà¤Ĩà¤Īà¤µ": 8992, "izing": 8993, "ĠInternet": 8994, "gress": 8995, "Ġplay": 8996, "à§°": 8997, "à´°": 8998, "à¨¿": 8999, "à¤½à¤¸": 9000, "ĠCDMA": 9001, "Ġroot": 9002, "Class": 9003, "Ġwritten": 9004, "Ġpurpose": 9005, "Ġconfiguration": 9006, "×Ļ×": 9007, "ĠUMTS": 9008, "ØŃÙħØ¯": 9009, "Ġinherit": 9010, "Ġtogether": 9011, "eel": 9012, "ls": 9013, "make": 9014, "Î¯": 9015, "ÏĮ": 9016, "à¤´": 9017, "à¤¾à¤¿": 9018, "à¤®à¤¯à¤¤": 9019, "à¤®à¤®à¤¤": 9020, "Ġà¤®à¤ľà¤¹à¤¬": 9021, "à¤ªà¤¤à¤¨": 9022, "Ġà¤¨à¤²à¤ķ": 9023, "Ġà¤¦à¤¬à¤¦à¤¬": 9024, "Ġà¤¶à¤Łà¤²à¤ķ": 9025, "à¥Īà¤Ĥà¤Ĥ": 9026, "Ġà¤ĸà¤ª": 9027, "Ġà¤Łà¤Ł": 9028, "Ġà¤®à¤¹à¤«": 9029, "Ġà¤īà¤ªà¤²": 9030, "à¤¦à¤¨à¤¹": 9031, "ĠTem": 9032, "ĠSocial": 9033, "Ġà¤ľà¤²à¤®à¤Ĺ": 9034, "Ġnormally": 9035, "ingu": 9036, "emens": 9037, "ately": 9038, "à¤Ĩà¤°à¤ıà¤®": 9039, "à¤ıà¤²à¤ıà¤¸": 9040, "Ġalt": 9041, "Ġà¤¸à¤ľà¤¦": 9042, "Ġdevelopment": 9043, "opter": 9044, "Ġwhole": 9045, "ĠØ´": 9046, "Ġà¤Ńà¤Łà¤ķà¤¨": 9047, "à¤¹à¤ľà¤°à¤¤": 9048, "Ġ1852": 9049, "ologies": 9050, "Ġà¤¸à¤°à¤²à¤¤à¤®": 9051, "Ġposter": 9052, "à¤įà¤¸": 9053, "Ġcontaining": 9054, "Ġproduce": 9055, "Ġequival": 9056, "Ġmatter": 9057, "ĠGeneral": 9058, "More": 9059, "aug": 9060, "ca": 9061, "td": 9062, "à¤²à¤µà¤¸": 9063, "à¤ªà¤§": 9064, "Ġà¤ľà¤¯à¤¤": 9065, "Ġà¤¨à¤Ĺà¤²": 9066, "Ġà¤ıà¤Łà¤®": 9067, "Ġà¤¸à¤®à¤µà¤°": 9068, "Ġà¤«à¤ľà¤²": 9069, "à¤Ĩà¤ĵ": 9070, "Ġà¤¡à¤Ł": 9071, "index": 9072, "à¤ĺà¤²à¤¤": 9073, "Ġ205": 9074, "Ġà¤ĵà¤¦": 9075, "Ġcare": 9076, "à¤®à¤¤à¤¤": 9077, "Ġà¤Ĩà¤¯à¤²": 9078, "à¥įâĢįà¤¿": 9079, "1933": 9080, "Ġmobile": 9081, "ĠSanskrit": 9082, "Ġ1825": 9083, "amin": 9084, "à¤Ĭà¤Ł": 9085, "ĠAG": 9086, "Ġlines": 9087, "ĠDet": 9088, "ĠDay": 9089, "Ġgl": 9090, "ĠNi": 9091, "à¤Ĩà¤°à¤ıà¤¨à¤ı": 9092, "ĠLibrary": 9093, "ĠRNA": 9094, "Ġalternative": 9095, "aka": 9096, "Ġclaim": 9097, "Ġnotation": 9098, "Ġà¥§à¥¬à¥¦": 9099, "Ġprop": 9100, "Ġà¤Ĺà¤łà¤ľ": 9101, "Ġprom": 9102, "ensus": 9103, "arily": 9104, "Ġà¥§à¥§à¥©": 9105, "1901": 9106, "Ġcompet": 9107, "Ġà¥§à¥®à¥®à¥¦": 9108, "Ġà¥§à¥®à¥¯à¥®": 9109, "Ġà¥§à¥®à¥¯à¥Ń": 9110, "Ġà¤²à¤Łà¤ķà¤¤": 9111, "à¤įà¤«": 9112, "ĠAssociation": 9113, "Ġsuccession": 9114, "ĠSociety": 9115, "Ġpressure": 9116, "Ġdirection": 9117, "ĠAugust": 9118, "350": 9119, "HC": 9120, "garh": 9121, "ney": 9122, "paces": 9123, "wan": 9124, "Øµ": 9125, "Ġà¤ķà¤Ľà¤µ": 9126, "à¤¤à¤¹à¤°": 9127, "Ġà¤µà¤¦": 9128, "Ġà¤°à¤ªà¤Ł": 9129, "à¤¼à¤¼": 9130, "à¤Ńà¤¡": 9131, "à¤ĩà¤¯à¤¤": 9132, "à¤Ĩà¤¯à¤¨": 9133, "à¤ĩà¤¸à¤µ": 9134, "à¤ħà¤¥": 9135, "Ġà¤ĵà¤ķà¤²": 9136, "Ġà¤ªà¤¤à¤µ": 9137, "alu": 9138, "Ġdim": 9139, "Ġà¤ľà¤²à¤¸à¤®": 9140, "Ġ1832": 9141, "Ġ639": 9142, "ĠCL": 9143, "ĠPA": 9144, "ĠPower": 9145, "à¤°à¤¬à¤²à¤¤": 9146, "à¤¹à¤¨à¤ľ": 9147, "Ġà¤ıà¤¸à¤ľ": 9148, "à¥ªà¥¦à¥¦": 9149, "Ġlay": 9150, "Ġ1790": 9151, "Ġ1775": 9152, "Ġ1761": 9153, "Ġà¤ıà¤¨à¤ıà¤®": 9154, "ĠBo": 9155, "ĠGA": 9156, "ĠGB": 9157, "ĠLeg": 9158, "ĠEr": 9159, "à¤Ķà¤ªà¤¨": 9160, "à¤ªà¤¦à¤£": 9161, "Ġà¥§à¥®à¥§à¥«": 9162, "irth": 9163, "Ġà¤ıà¤¯à¤°à¤¬": 9164, "à¤ıà¤«à¤ª": 9165, "ĠOut": 9166, "à¤¨à¤Ĺà¤°à¤ª": 9167, "à¤¸à¤«à¤²à¤¤": 9168, "thern": 9169, "Using": 9170, "ĠPlan": 9171, "Ġequation": 9172, "tenance": 9173, "Ġmulti": 9174, "Ġconstant": 9175, "Ġimplement": 9176, "Ph": 9177, "iya": 9178, "lam": 9179, "pm": 9180, "rc": 9181, "rat": 9182, "sm": 9183, "âĹı": 9184, "à¤°à¤Ĺà¤²": 9185, "à¤¸à¤²à¤¨": 9186, "Ġà¤¸à¤¬à¤°": 9187, "Ġà¤¸à¤²à¤µ": 9188, "Ġà¤¹à¤°à¤®à¤¨": 9189, "Ġà¤¬à¤ķà¤µ": 9190, "à¤¬à¤Łà¤¨": 9191, "à¤£à¤ķà¤°": 9192, "Ġà¤Ĩà¤ĩà¤¸à¤ķ": 9193, "Ġà¤¸à¤®à¤Ń": 9194, "ona": 9195, "à¤®à¤¨à¤®": 9196, "à¤®à¤¨à¤µà¤®": 9197, "atnote": 9198, "Ġsay": 9199, "Ġcross": 9200, "Ġfoot": 9201, "Ġ420": 9202, "1935": 9203, "Ġà¤§à¤°à¤¹à¤°": 9204, "ĠCA": 9205, "ĠCI": 9206, "ĠAAA": 9207, "Ġ999": 9208, "Ġà¤Ĩà¤Īà¤¯": 9209, "ĠIM": 9210, "Ġhidden": 9211, "Ġgre": 9212, "ĠGH": 9213, "ĠList": 9214, "ĠFF": 9215, "Ġà¤¹à¤Łà¤¤": 9216, "Ġà¤ıà¤ļà¤ıà¤¸à¤µ": 9217, "ander": 9218, "Ġuntil": 9219, "ĠChrist": 9220, "Ġabbr": 9221, "à¥¨à¥¦à¥§à¥®": 9222, "Ġà¤¶à¤¹à¤¡": 9223, "Ġ370": 9224, "Ġà¥§à¥¦à¥¬": 9225, "Ġbutton": 9226, "ĠUnion": 9227, "Ġà¥§à¥®à¥«à¥®": 9228, "Ġregard": 9229, "Ġà¥§à¥®à¥¬à¥¦": 9230, "ometer": 9231, "Ġmodules": 9232, "Ġcalendar": 9233, "ĠSiemens": 9234, "Ġinitial": 9235, "EP": 9236, "version": 9237, "Ã¤": 9238, "Å«": 9239, "à¤°à¤¥à¤¨": 9240, "à¤¨à¤ľà¤¦": 9241, "à¤¯à¤°à¤¹": 9242, "à¥ĭà¤ĥ": 9243, "à¤²à¤¥": 9244, "à¤²à¤ĺà¤°": 9245, "Ġà¤®à¤ķà¤Ī": 9246, "à¤µà¤Ľ": 9247, "à¤¦à¤®à¤¨": 9248, "à¤ļà¤¢": 9249, "Ġà¤ıà¤ħà¤°": 9250, "à¥īà¤ģ": 9251, "à¤¸à¤°à¤µ": 9252, "à¤¹à¤°à¤µ": 9253, "Ġà¤¬à¤¹à¤ķ": 9254, "à¤°à¤¯à¤¦": 9255, "à¤°à¤µà¤²": 9256, "Ġclosed": 9257, "Ġà¤Ĩà¤°à¤Ł": 9258, "item": 9259, "lean": 9260, "ĠTo": 9261, "Ġ1821": 9262, "Ġà¤¬à¤²à¤Ńà¤¦": 9263, "ĠCy": 9264, "à¥©à¥¦à¥¦": 9265, "ils": 9266, "à¤Ĳà¤°": 9267, "à¤ªà¤£à¤ķ": 9268, "Ġ10000": 9269, "à¤²à¤¹à¤Ł": 9270, "Ġbrack": 9271, "Ġleave": 9272, "Ġii": 9273, "à¤īà¤ªà¤µ": 9274, "à§ĭ": 9275, "à¥§à¥¯à¥¯à¥Ń": 9276, "Ġà¥§à¥®à¥®à¥Ń": 9277, "Ġacross": 9278, "àª¾": 9279, "Ġsignific": 9280, "ĠSchool": 9281, "210": 9282, "But": 9283, "DF": 9284, "My": 9285, "Many": 9286, "à¤İ": 9287, "à¤ķà¤Ľ": 9288, "à¤²à¤ªà¤°": 9289, "à¤®à¤Ńà¤ķ": 9290, "Ġà¤®à¤ľà¤°": 9291, "à¤¹à¤°à¤¸": 9292, "à¤Ĺà¤Ī": 9293, "à¤§à¤Ĺà¤¯": 9294, "Ġà¤ªà¤°à¤¬à¤¤": 9295, "à¤ĩà¤¯à¤°": 9296, "à¤ĩà¤®à¤²": 9297, "à¤°à¤ķà¤¸": 9298, "à¤¸à¤ķà¤¨": 9299, "Ġà¤§à¤µà¤²": 9300, "à¤µà¤¨à¤ļà¤ķ": 9301, "à¤¯à¤°à¤°": 9302, "alog": 9303, "à¤¤à¤®à¤¦": 9304, "Ġbit": 9305, "itect": 9306, "Ġ480": 9307, "1911": 9308, "1925": 9309, "Ġmag": 9310, "ĠMor": 9311, "ĠAP": 9312, "Ġhome": 9313, "à¤Ĩà¤Īà¤Ĩà¤Ī": 9314, "à¤¸à¤µà¤¦à¤¤": 9315, "ĠGar": 9316, "acement": 9317, "Ġrepe": 9318, "ĠRob": 9319, "Ġvir": 9320, "à¦¸": 9321, "Ġà¥®à¥¯": 9322, "ĠVol": 9323, "Ġko": 9324, "125": 9325, "126": 9326, "à¤®à¤ľà¤¦": 9327, "Ġable": 9328, "pha": 9329, "Ġreflink": 9330, "Ġsyn": 9331, "Ġ1776": 9332, "Ġà´ķ": 9333, "iddle": 9334, "DNA": 9335, "Id": 9336, "YY": 9337, "hm": 9338, "width": 9339, "Ø®": 9340, "ĠÙĦ": 9341, "à¤¨à¤¹à¤²": 9342, "à¤¯à¤ļà¤°": 9343, "à¤¯à¤µà¤ķ": 9344, "à¤¯à¤Ĺà¤¡": 9345, "à¤²à¤ĸà¤¨": 9346, "à¤µà¤²à¤¨à¤¶": 9347, "à¥Ĥà¥Ĥ": 9348, "Ġà¤¦à¤Ĺ": 9349, "à¤¬à¤°à¤¹": 9350, "à¤¬à¤¸à¤¨": 9351, "à¤¬à¤īà¤²": 9352, "Ġà¤²à¤ı": 9353, "à¤ļà¤¹": 9354, "Ġà¤¤à¤Łà¤°": 9355, "Ġà¤¯à¤ľà¤®": 9356, "Ġà¤ļà¤µ": 9357, "à¤µà¤°à¤ľ": 9358, "Ġà¤ķà¤¹à¤°": 9359, "à¤µà¤¨à¤ª": 9360, "Ġà¤Īà¤ıà¤¸à¤ª": 9361, "à¤·à¤£à¤¤": 9362, "Ġà¤ĵà¤ªà¤°": 9363, "Ġsent": 9364, "Ġsumm": 9365, "aly": 9366, "alam": 9367, "Ġcur": 9368, "Ġà¤Ĭà¤¤": 9369, "Ġach": 9370, "ĠTest": 9371, "ĠSM": 9372, "ĠSam": 9373, "Ġ1831": 9374, "ĠCouncil": 9375, "Ġà¤Ĩà¤Īà¤ıà¤¨à¤ıà¤¸": 9376, "Ġltr": 9377, "ĠDef": 9378, "Ġ173": 9379, "ida": 9380, "à¤µà¤ľà¤µ": 9381, "ĠLand": 9382, "à¤īà¤¦à¤¯": 9383, "ute": 9384, "Ġ212": 9385, "à¤ıà¤«à¤Ł": 9386, "Ġ224": 9387, "rial": 9388, "Ġdevelop": 9389, "Ġkar": 9390, "Ġclasses": 9391, "Ġà¤ªà¤¨à¤¬": 9392, "Ġchild": 9393, "ĠÎ³": 9394, "Ġà¤įà¤®": 9395, "Ġ1806": 9396, "à¥§à¥¯à¥¯à¥¨": 9397, "Ġamong": 9398, "Ġinstance": 9399, "Ġregion": 9400, "Ġwikis": 9401, "Ġtagged": 9402, "Ġinvol": 9403, "ambigu": 9404, "ĠClass": 9405, "Ġà¤Īà¤¥à¤°à¤¨": 9406, "ĠApple": 9407, "Ġformatted": 9408, "Ġassociated": 9409, "IK": 9410, "Most": 9411, "XX": 9412, "language": 9413, "âĸ": 9414, "à¤°à¤ľà¤¨à¤ķ": 9415, "à¤¸à¤¹à¤°": 9416, "à¤²à¤ķà¤²": 9417, "à¤µà¤Ĺà¤£": 9418, "Ġà¤ªà¤ªà¤¡": 9419, "Ġà¤¨à¤Ĺà¤¦": 9420, "Ġà¤¦à¤®à¤¦": 9421, "Ġà¤Ńà¤µà¤¤": 9422, "à¤Ĩà¤¯à¤°": 9423, "Ġà¤®à¤¹à¤ķ": 9424, "à¤¨à¤ķà¤¦": 9425, "Ġà¤ħà¤²à¤¸": 9426, "ores": 9427, "Ġà¤ħà¤®à¤°à¤¸": 9428, "Ġà¤Ĩà¤¦à¤°à¤£": 9429, "Ġà¤ħà¤ķà¤¡": 9430, "Ġinform": 9431, "ĠTamil": 9432, "1923": 9433, "ĠMC": 9434, "Ġ1826": 9435, "ami": 9436, "Ġà¤¸à¤¤à¤¯": 9437, "ĠCT": 9438, "ĠCenter": 9439, "asm": 9440, "ĠASP": 9441, "Ġà¤Ĩà¤Īà¤®": 9442, "Ġà¤Ĩà¤Īà¤«": 9443, "empt": 9444, "Ġà¤¶à¤¤à¤ªà¤¥": 9445, "unj": 9446, "Ġ1783": 9447, "ĠWest": 9448, "Ġà¤ıà¤®à¤Ĩà¤Ī": 9449, "Ġrev": 9450, "ellow": 9451, "ima": 9452, "uth": 9453, "Ġconvert": 9454, "Ġà¤ĺà¤¨à¤¶": 9455, "udd": 9456, "Ġà¤°à¤£à¤¥à¤®": 9457, "Ġintro": 9458, "Ġcreating": 9459, "Ġregister": 9460, "à¤ıà¤¸à¤Īà¤ıà¤²": 9461, "Ġreplaced": 9462, "Ð»Ð°": 9463, "Ġhydro": 9464, "Ġtools": 9465, "ĠDependencies": 9466, "Ġvariable": 9467, "ĠEurope": 9468, "ĠLinux": 9469, "Value": 9470, "Ġdomain": 9471, "380": 9472, "Sub": 9473, "actions": 9474, "ging": 9475, "ĠÆ": 9476, "à¤¾à¥į": 9477, "à¤¯à¤Ĺà¤¤": 9478, "Ġà¤¸à¤¨à¤®": 9479, "à¤µà¤·": 9480, "à¤µà¤ķà¤²": 9481, "à¤Ĺà¤Ŀ": 9482, "à¤ļà¤°à¤®": 9483, "Ġà¤¶à¤¹à¤¤": 9484, "Ġà¤īà¤ªà¤§": 9485, "Ġter": 9486, "ori": 9487, "à¤Łà¤¨à¤Ĺà¤°": 9488, "isk": 9489, "isplay": 9490, "Ġfuture": 9491, "Ġblue": 9492, "à¤°à¤¨à¤²": 9493, "Ġdates": 9494, "ĠMand": 9495, "Ġ1827": 9496, "Ġ1836": 9497, "à¤¸à¤²à¤µ": 9498, "ĠCode": 9499, "ĠAIDS": 9500, "Ġà¤Ĩà¤Īà¤¨": 9501, "Ġland": 9502, "Ġà¤¦à¤²à¤¹à¤¨": 9503, "adu": 9504, "Ġseen": 9505, "Ġsequ": 9506, "à¤Łà¤¤à¤¯": 9507, "à¤¶à¤µà¤¦": 9508, "Ġprob": 9509, "ects": 9510, "Ġmechan": 9511, "Ġquality": 9512, "ructions": 9513, "Ġinstall": 9514, "Ġreaders": 9515, "ledge": 9516, "ittee": 9517, "Ġà¤ľà¤Ĺà¤®à¤Ĺ": 9518, "Ġpublished": 9519, "FT": 9520, "GC": 9521, "TT": 9522, "à¤¨à¤ªà¤¦": 9523, "à¤²à¤¸à¤°": 9524, "Ġà¤µà¤°à¤®": 9525, "à¤ľà¤ĸ": 9526, "Ġà¤¨à¤°à¤µ": 9527, "à¤§à¤¹à¤¸": 9528, "Ġà¤¶à¤¦": 9529, "à¤Īà¤ıà¤®": 9530, "Ġà¤ļà¤ķà¤°": 9531, "Ġà¤Łà¤¨à¤²": 9532, "Ġà¤Īà¤¡à¤¨": 9533, "Ġà¤ĵà¤¹à¤¦": 9534, "Ġà¥¨à¥¨à¥¦": 9535, "Ġcause": 9536, "ename": 9537, "Ġà¤Ĩà¤°à¤¡": 9538, "1926": 9539, "Ġdot": 9540, "ĠMas": 9541, "ĠMod": 9542, "ĠMount": 9543, "rew": 9544, "ĠBoard": 9545, "ĠLanguage": 9546, "ĠLond": 9547, "Ġreview": 9548, "champ": 9549, "1880": 9550, "ĠVOC": 9551, "angle": 9552, "anda": 9553, "essage": 9554, "ĠJune": 9555, "Ġforms": 9556, "Ġ3500": 9557, "Ġeduc": 9558, "Ġintegr": 9559, "Ġ1804": 9560, "rick": 9561, "ĠEngine": 9562, "Ġà¥§à¥®à¥¯à¥«": 9563, "Tool": 9564, "Ġdesignated": 9565, "ĠÙĤ": 9566, "à¥ģà¥ģà¥ģ": 9567, "ĠPoly": 9568, "TemplateData": 9569, "ĠCompany": 9570, "ĠFIFA": 9571, "Ġagainst": 9572, "ĠRhD": 9573, "Ġmeasure": 9574, "Ġchromos": 9575, "250": 9576, "At": 9577, "Co": 9578, "GI": 9579, "HT": 9580, "bl": 9581, "lim": 9582, "uh": 9583, "uel": 9584, "Ġà¤ķà¤Łà¤µ": 9585, "à¤²à¤Ĺà¤¨": 9586, "à¤¦à¤¶à¤°": 9587, "à¤Ĺà¤Ńà¤¦": 9588, "Ġà¤Ĺà¤ľà¤°": 9589, "à¤ļà¤°à¤¤": 9590, "à¤ļà¤°à¤¨": 9591, "à¤°à¤¤à¤²à¤¬": 9592, "à¥ĥà¥į": 9593, "à¤ĵà¤¤": 9594, "à¤¶à¤¨à¤Ĺà¤¢": 9595, "Ġà¤ħà¤²à¤¬à¤°": 9596, "anz": 9597, "à¤¯à¤¤à¤¤": 9598, "Ġà¤ħà¤Ńà¤¦": 9599, "Ġcry": 9600, "à¤Ŀà¤®": 9601, "Ġà¤ħà¤¸à¤¹à¤¨": 9602, "Ġà¤¹à¤®à¤¦": 9603, "ĠTR": 9604, "1910": 9605, "Ġwish": 9606, "Ġmom": 9607, "Ġ1834": 9608, "Ġà¤ħà¤Ĺà¤µ": 9609, "oms": 9610, "lood": 9611, "ured": 9612, "Ġlife": 9613, "à¤²à¤®à¤¡": 9614, "Ġ176": 9615, "Ġgas": 9616, "Ġglobal": 9617, "ĠGreat": 9618, "ĠRel": 9619, "ĠFed": 9620, "ĠPhonetic": 9621, "ĠOper": 9622, "ĠVir": 9623, "Ġunless": 9624, "1904": 9625, "attaya": 9626, "Ġdelete": 9627, "color": 9628, "value": 9629, "ographic": 9630, "ĠMusic": 9631, "ĠGNU": 9632, "Af": 9633, "ein": 9634, "tes": 9635, "ties": 9636, "Ġì": 9637, "à¤Ĺà¤ĸ": 9638, "Ġà¤¦à¤ĸ": 9639, "Ġà¤°à¤ļà¤¤": 9640, "à¤§à¤ĺ": 9641, "Ġà¤²à¤µà¤²": 9642, "Ġà¤Ĺà¤¸": 9643, "Ġà¤Ĺà¤«": 9644, "Ġà¤īà¤«": 9645, "à¤Ńà¤µà¤¹": 9646, "Ġà¤¶à¤¹à¤¨": 9647, "Ġà¤ªà¤°à¤Ľ": 9648, "Ġà¤¡à¤°à¤¨": 9649, "Ġà¤īà¤ªà¤Ĺà¤£": 9650, "onic": 9651, "à¤¯à¤®à¤¶": 9652, "à¤¯à¤®à¤µà¤°": 9653, "à¤·à¤£à¤ķ": 9654, "à¤¦à¤°à¤«": 9655, "Ġà¤ĵà¤µà¤¨": 9656, "oriz": 9657, "Ġà¤ĩà¤¨à¤Ł": 9658, "Ġfac": 9659, "Ġà¤Ĭà¤®": 9660, "1916": 9661, "Ġwide": 9662, "ĠMI": 9663, "Ġ1828": 9664, "Ġà¤Ŀà¤ķ": 9665, "ĠCons": 9666, "ĠICA": 9667, "unch": 9668, "Ġà¥¨à¥¦à¥«": 9669, "Ġ179": 9670, "à¤®à¤¦à¤ª": 9671, "ĠBen": 9672, "ĠNS": 9673, "ĠLua": 9674, "ĠEnd": 9675, "Ġarray": 9676, "1890": 9677, "Ġrule": 9678, "Ġstep": 9679, "ables": 9680, "ires": 9681, "à¤ĳà¤¡": 9682, "ĠÂ»": 9683, "à¤²à¤Ńà¤¤": 9684, "Ġexc": 9685, "ticle": 9686, "ĠØ£": 9687, "raction": 9688, "à¥¨à¥¦à¥¨": 9689, "ĠInformation": 9690, "à¤ĩà¤«à¤Ł": 9691, "ĠChina": 9692, "Ġgoogle": 9693, "ĠÎ¸": 9694, "ffice": 9695, "Ġà¤įà¤¸": 9696, "ÛĮÚº": 9697, "à²¨": 9698, "Ġdisplays": 9699, "check": 9700, "III": 9701, "Ġphon": 9702, "Ġphase": 9703, "position": 9704, "Ġboiler": 9705, "ournal": 9706, "gypt": 9707, "UCN": 9708, "BL": 9709, "NC": 9710, "One": 9711, "bh": 9712, "flag": 9713, "ja": 9714, "Î¬": 9715, "áº": 9716, "Ġill": 9717, "Ġà¤¹à¤ĸ": 9718, "à¤µà¤Ī": 9719, "à¤µà¤Ńà¤ķ": 9720, "à¤Ĺà¤¥": 9721, "à¤Ĺà¤°à¤¹": 9722, "à¤Ĺà¤§à¤°": 9723, "Ġà¤¬à¤«à¤°": 9724, "à¤ĸà¤¬à¤°": 9725, "à¤ĸà¤ªà¤¤": 9726, "à¤Ĩà¤°à¤ķ": 9727, "à¤µà¤°à¤¹": 9728, "Ġà¤¡à¤Ĺ": 9729, "à¤łà¤¯": 9730, "à¤¯à¤®à¤¸": 9731, "à¤¸à¤¨à¤ª": 9732, "Ġ340": 9733, "itors": 9734, "Ġport": 9735, "Ġpaste": 9736, "Ġà¤ħà¤ªà¤¦à¤¸": 9737, "Ġindepend": 9738, "à¤ķà¤¨à¤°": 9739, "Ġwelcome": 9740, "ĠSil": 9741, "ĠSammartino": 9742, "Ġà¤¤à¤°à¤¬": 9743, "Ġ1823": 9744, "Ġ640": 9745, "à¤°à¤ļà¤£": 9746, "Ġà¤ħà¤Ĺà¤°à¤¤à¤²": 9747, "à¤µà¤¯à¤µà¤¤": 9748, "Ġspacing": 9749, "à¤Ĺà¤®à¤Ĺ": 9750, "à¤Ĳà¤®": 9751, "ĠLee": 9752, "ĠEast": 9753, "ĠHal": 9754, "ĠHind": 9755, "adow": 9756, "Ġvector": 9757, "Ġkind": 9758, "Ġà¤¹à¤¥à¤ķà¤°à¤ĺ": 9759, "ĠIndust": 9760, "Ġà¤įà¤ª": 9761, "Ġfollowed": 9762, "à¥§à¥¯à¥¯à¥¬": 9763, "ports": 9764, "à¤ıà¤¸à¤ıà¤¸à¤Ĩà¤°": 9765, "parent": 9766, "Ġparts": 9767, "à³ģ": 9768, "Ġdiacrit": 9769, "Ġlonger": 9770, "ĠDevelopment": 9771, "Ġattribut": 9772, "Ġselected": 9773, "Ġindicate": 9774, "Ġmissing": 9775, "320": 9776, "NG": 9777, "ford": 9778, "ien": 9779, "iet": 9780, "pat": 9781, "rate": 9782, "ĠðŁ": 9783, "Ġà¤ķà¤¸à¤ķà¤°": 9784, "à¤¨à¤§": 9785, "à¤®à¤¨à¤ķ": 9786, "à¤¶à¤¡": 9787, "à¤¡à¤°à¤¸": 9788, "à¤£à¤Ńà¤Ł": 9789, "Ġà¤Ĺà¤ļ": 9790, "Ġà¤Ĺà¤ľà¤¨": 9791, "Ġà¤Ĺà¤°à¤ľ": 9792, "Ġà¤ıà¤ıà¤¸": 9793, "à¤ĸà¤¯": 9794, "Ġà¤ªà¤°à¤Ńà¤ķ": 9795, "à¤łà¤ª": 9796, "à¤°à¤¦à¤ķ": 9797, "Ġ2030": 9798, "alic": 9799, "à¤Ĺà¤²à¤°": 9800, "Ġpot": 9801, "1943": 9802, "ĠMot": 9803, "ĠSS": 9804, "Ġ1829": 9805, "Ġà¤Ŀà¤ľ": 9806, "Ġà¤ħà¤Ĺà¤®": 9807, "ĠIR": 9808, "à¤ĩà¤²à¤®": 9809, "à¤¹à¤¨à¤ª": 9810, "Ġ1526": 9811, "Ġà¤®à¤¤à¤²": 9812, "Ġthus": 9813, "ĠDynasty": 9814, "Ġ174": 9815, "ĠWikipedi": 9816, "oli": 9817, "ĠHO": 9818, "à¤¯à¤£à¤¤": 9819, "Ġalong": 9820, "Ġà¤ħà¤¶à¤°": 9821, "Ġà¤ļà¤°à¤£à¤¬à¤¦": 9822, "ocene": 9823, "cean": 9824, "Ġkbit": 9825, "Ġà§": 9826, "Ġconduct": 9827, "à¥¨à¥¦à¥§à¥Ń": 9828, "ĠStandard": 9829, "Ġà¤ªà¤¥à¤ª": 9830, "ĠÎĶ": 9831, "à¤ĺà¤Łà¤¨à¤ķ": 9832, "1907": 9833, "Ġà¥§à¥®à¥®à¥¯": 9834, "Ġworking": 9835, "Ġgenerally": 9836, "Ġ1773": 9837, "à¥§à¥¯à¥ªà¥®": 9838, "Ġappears": 9839, "ĠBlack": 9840, "Ġlarger": 9841, "110": 9842, "747": 9843, "AB": 9844, "Is": 9845, "ba": 9846, "cer": 9847, "ience": 9848, "km": 9849, "ko": 9850, "sub": 9851, "à¤°à¤¥à¤²": 9852, "à¥ĩà¤ĥ": 9853, "Ġà¤ķà¤ľà¤°": 9854, "à¤¤à¤£": 9855, "à¤¯à¤£à¤¨": 9856, "Ġà¤¸à¤Ļ": 9857, "Ġà¤¹à¤µà¤²à¤¦": 9858, "à¤®à¤ªà¤¦": 9859, "Ġà¤¬à¤ĸà¤°": 9860, "Ġà¤²à¤ªà¤Ł": 9861, "à¤ļà¤¨à¤ķ": 9862, "Ġà¤ıà¤®à¤¨": 9863, "Ġà¤¤à¤¦à¤°": 9864, "Ġà¤Ĩà¤¬à¤¦": 9865, "à¤«à¤Ĺ": 9866, "à¤¸à¤®à¤²": 9867, "Ġcertain": 9868, "Ġà¤ķà¤²à¤ķ": 9869, "Ġà¤ħà¤ªà¤¶à¤¬": 9870, "Ġmg": 9871, "ĠPot": 9872, "Ġà¤¨à¤µà¤µà¤°": 9873, "à¤°à¤¬à¤¦": 9874, "ĠIAS": 9875, "Ġhold": 9876, "à¤Ĩà¤Īà¤ıà¤ļ": 9877, "ĠDh": 9878, "Ġ1788": 9879, "Ġecon": 9880, "ĠGreen": 9881, "apy": 9882, "ĠNar": 9883, "ĠHa": 9884, "ĠRight": 9885, "Ġyet": 9886, "à¤¤à¤ªà¤°à¤¸": 9887, "ontal": 9888, "Ġparse": 9889, "aves": 9890, "ride": 9891, "à¤²à¤Ńà¤Ń": 9892, "Ġ275": 9893, "Ġà¥¯à¥¦à¥¦": 9894, "Ġà¤ľà¤¯à¤µà¤°": 9895, "ĠXML": 9896, "Ġà¤īà¤Ńà¤°à¤ķà¤°": 9897, "ÙĦÙĩ": 9898, "Ġà¤īà¤¤à¤°à¤ķà¤°": 9899, "ÛĮÙĨ": 9900, "1909": 9901, "Ġcompon": 9902, "Ġà¥§à¥®à¥®à¥ª": 9903, "Ġwikibase": 9904, "Ġà¥§à¥®à¥Ńà¥¦": 9905, "Ġdefaults": 9906, "Ġoverl": 9907, "Ġentire": 9908, "Ġà½¢": 9909, "Ġexpand": 9910, "ĠRajasthan": 9911, "Ġangle": 9912, "Ġsupplied": 9913, "brevi": 9914, "Since": 9915, "Tem": 9916, "VID": 9917, "dd": 9918, "length": 9919, "mar": 9920, "ÉĽ": 9921, "Î·": 9922, "Ð¿": 9923, "ĠÊ": 9924, "Ġir": 9925, "à¤°à¤ªà¤ķ": 9926, "à¤¤à¤®à¤¤": 9927, "à¤¸à¤¹à¤ķ": 9928, "Ġà¤ªà¤ľ": 9929, "à¤¦à¤®à¤¤": 9930, "à¤Ĺà¤Ńà¤Ł": 9931, "à¤§à¤Ń": 9932, "Ġà¤ıà¤¦": 9933, "Ġà¤ħà¤¨à¤¬": 9934, "à¤¤à¤°à¤Ĺ": 9935, "Ġà¤Łà¤¬": 9936, "à¤īà¤¥à¤¶": 9937, "Ġà¤īà¤¤à¤ķ": 9938, "Ġtele": 9939, "arp": 9940, "Ġà¤Ĳà¤£": 9941, "Ġcaus": 9942, "Ġ325": 9943, "isa": 9944, "à¤¤à¤®à¤ľà¤¦": 9945, "itz": 9946, "ĠTri": 9947, "1944": 9948, "ĠMen": 9949, "ĠMarch": 9950, "à¤ıà¤ķà¤¦": 9951, "Ġ1812": 9952, "Ġà¤ĳà¤«à¤¸": 9953, "à¤¸à¤²à¤ª": 9954, "Ġà¤¸à¤¤à¤Ĺ": 9955, "asons": 9956, "ĠPan": 9957, "à¤ĩà¤²à¤¸": 9958, "à¤Ńà¤µà¤®": 9959, "Ġspe": 9960, "Ġ1795": 9961, "Ġ1764": 9962, "Ġ1792": 9963, "ĠBook": 9964, "Ġà¤Ĺà¤£à¤¤à¤¨": 9965, "iving": 9966, "à¤Ķà¤¨": 9967, "Ġarr": 9968, "Ġalg": 9969, "Ġ232": 9970, "Ġà¤ĭà¤·à¤Ń": 9971, "pril": 9972, "à¤¸à¤¹à¤ľ": 9973, "ĠStr": 9974, "ĠStat": 9975, "à®²": 9976, "à®Ł": 9977, "Ġà¦®": 9978, "ĠProt": 9979, "Ġcompos": 9980, "Ġà¥§à¥®à¥¯à¥ª": 9981, "Ġpositive": 9982, "Ġaccording": 9983, "Ġà¤²à¤¯à¤¬à¤¦": 9984, "Ġá¸": 9985, "Ġá¹": 9986, "à¤¤à¤¦à¤¨à¤¨": 9987, "Ġqid": 9988, "Ġchanged": 9989, "Ġpersonal": 9990, "Ġà¤ļà¤°à¤ķà¤¸": 9991, "Ġlimited": 9992, "Ġimplements": 9993, "Ġapprox": 9994, "Ġcharts": 9995, "ĠJanuary": 9996, "ĠAustral": 9997, "ĠWilliam": 9998, "ĠLondon": 9999, "230": 10000, "AI": 10001, "CE": 10002, "ease": 10003, "google": 10004, "sw": 10005, "à¤¨à¤Łà¤¨": 10006, "à¤²à¤µà¤²": 10007, "Ġà¤®à¤ľà¤¨": 10008, "à¤Łà¤¬à¤¦": 10009, "à¤§à¤Ĺà¤®": 10010, "à¤¥à¤°à¤¨": 10011, "Ġà¤¤à¤Ĩà¤²": 10012, "Ġà¤Ĩà¤ķà¤²": 10013, "Ġà¤¶à¤²à¤Ń": 10014, "Ġà¤ļà¤®à¤¨": 10015, "à¤ĵà¤ªà¤¨": 10016, "ancy": 10017, "Ġà¤Īà¤¯": 10018, "Ġà¤ĵà¤¶à¤¨": 10019, "Ġà¤¸à¤¹à¤°à¤¸": 10020, "Ġà¤ĩà¤¨à¤²": 10021, "Ġ310": 10022, "Ġà¤ħà¤µà¤Ĺ": 10023, "Ġpap": 10024, "Ġpers": 10025, "Ġà¤ħà¤¸à¤«": 10026, "ĠSah": 10027, "ĠSMS": 10028, "Ġ181": 10029, "Ġ1816": 10030, "oul": 10031, "Ġ950": 10032, "Ġà¤¬à¤¤à¤ĸ": 10033, "Ġà¤Ĩà¤®à¤ļ": 10034, "Ġhuman": 10035, "Ġhaving": 10036, "Ġlittle": 10037, "ĠDig": 10038, "à¤Ĳà¤¶": 10039, "Ġà¤ıà¤¨à¤ĵà¤¸": 10040, "plate": 10041, "ĠEV": 10042, "Ġbehav": 10043, "Ġà¤ĭà¤ľ": 10044, "ĠHuman": 10045, "ĠPhys": 10046, "Ġ211": 10047, "Ġ233": 10048, "Ġkeep": 10049, "ĠJose": 10050, "Ġfraction": 10051, "iana": 10052, "Ġlinking": 10053, "Ġà¤¨à¤ľà¤°à¤¬": 10054, "ategories": 10055, "Ġprevent": 10056, "Ġà¥§à¥¦à¥§": 10057, "Ġà¦¸": 10058, "Ġquick": 10059, "àµģ": 10060, "Ð°Ð½": 10061, "à½Ħ": 10062, "Ġinterwiki": 10063, "Ġinterested": 10064, "Ġà¥§à¥®à¥Ńà¥¨": 10065, "Ġsimpl": 10066, "ĠSpecial": 10067, "Ġproduced": 10068, "Ġpolit": 10069, "Ġà¤ħà¤µà¤¨à¤¤": 10070, "Ġãģ": 10071, "Ġprogramm": 10072, "cientific": 10073, "bn": 10074, "ea": 10075, "iac": 10076, "ners": 10077, "nail": 10078, "oor": 10079, "self": 10080, "ued": 10081, "Ã¦": 10082, "Ġà¤Ĥ": 10083, "à¤¯à¤¶à¤ķ": 10084, "à¤®à¤®à¤¨": 10085, "à¤®à¤«à¤²": 10086, "à¥Īà¤¼": 10087, "à¤Łà¤§": 10088, "à¤ľà¤ļ": 10089, "à¤¬à¤²à¤¨": 10090, "à¤ļà¤¤à¤¨": 10091, "Ġà¤īà¤ĸà¤¡": 10092, "à¤ıà¤¸à¤ķ": 10093, "à¤ªà¤°à¤¬": 10094, "Ġtre": 10095, "ining": 10096, "Ġsites": 10097, "head": 10098, "à¤®à¤¤à¤²à¤¬": 10099, "à¤²à¤¬à¤²": 10100, "1927": 10101, "Ġà¤¨à¤µà¤Ń": 10102, "à¤¯à¤²à¤¸": 10103, "Ġanti": 10104, "à¤°à¤ľà¤ª": 10105, "Ġ1798": 10106, "Ġà¤īà¤ªà¤¨à¤¯à¤¨": 10107, "Ġgovernment": 10108, "ĠGW": 10109, "ĠGerman": 10110, "Ġà¤ıà¤®à¤ıà¤¸à¤¸": 10111, "ĠECW": 10112, "à¤ıà¤®à¤¡": 10113, "istration": 10114, "Ġ245": 10115, "Ġà¤ħà¤µà¤¸à¤°à¤µ": 10116, "That": 10117, "Ġshare": 10118, "Ġ290": 10119, "india": 10120, "solute": 10121, "pper": 10122, "ellig": 10123, "ahi": 10124, "ÙĦÛĮ": 10125, "ensive": 10126, "Ġresist": 10127, "Ġspecies": 10128, "ĠAlphabet": 10129, "harat": 10130, "à¥§à¥¯à¥Ńà¥«": 10131, "Ġà¥§à¥®à¥¬à¥§": 10132, "Ġ1774": 10133, "ometry": 10134, "Ġequal": 10135, "ĠFrame": 10136, "ĠSOA": 10137, "Ġà¤Ĩà¤Īà¤ıà¤®à¤ıà¤«": 10138, "dar": 10139, "names": 10140, "sol": 10141, "sers": 10142, "à¤°à¤°à¤ļà¤¨": 10143, "à¤¤à¤ªà¤¤": 10144, "à¤²à¤¦à¤°": 10145, "Ġà¤ħà¤ļà¤°": 10146, "Ġà¤µà¤ª": 10147, "à¤ļà¤®à¤ķ": 10148, "Ġà¤īà¤¹": 10149, "Ġà¤īà¤¥à¤®": 10150, "Ġà¤īà¤Ľà¤²": 10151, "Ġà¤īà¤§à¤®": 10152, "Ġà¤Ńà¤ľ": 10153, "Ġà¤Ńà¤Ĺà¤¦": 10154, "Ġà¤ĩà¤ķà¤¸": 10155, "à¤ĩà¤Łà¤ķ": 10156, "à¤ĩà¤°à¤²": 10157, "à¤Łà¤°à¤ıà¤ķ": 10158, "Ġà¤ħà¤²à¤°": 10159, "Ġà¤ħà¤²à¤ĸ": 10160, "à¤¬à¤°à¤µ": 10161, "Ġà¤Īà¤ĸ": 10162, "Ġsocial": 10163, "Ġsaid": 10164, "Ġcm": 10165, "Ġà¤Ĩà¤°à¤ı": 10166, "Ġfar": 10167, "Ġfund": 10168, "Ġà¤¹à¤®à¤°": 10169, "ĠSAT": 10170, "ctor": 10171, "Ġha": 10172, "Ġ1757": 10173, "Ġ1765": 10174, "ilanguage": 10175, "ĠBer": 10176, "ĠGM": 10177, "ĠGo": 10178, "ĠNTSC": 10179, "à¤ļà¤²à¤ļ": 10180, "ĠFeb": 10181, "ĠFire": 10182, "Ġrational": 10183, "Ġraj": 10184, "Ġà¤®à¤²à¤ľà¤²": 10185, "Ġà¤¨à¤°à¤¹à¤°": 10186, "ĠJava": 10187, "Ġshadow": 10188, "Ġunique": 10189, "Ġdisambigu": 10190, "à¥§à¥®à¥«à¥Ń": 10191, "à¤Ĺà¤łà¤¬": 10192, "User": 10193, "Ġà¤Ĺà¤ľà¤Ł": 10194, "ĠUnicode": 10195, "Ġcompound": 10196, "Ġdesigned": 10197, "Ġå¤": 10198, "à¸²": 10199, "Ġtopic": 10200, "Ġà¤ķà¤¤à¤°à¤¨": 10201, "ampa": 10202, "Ġdistribut": 10203, "unger": 10204, "afe": 10205, "ocka": 10206, "Ġexplan": 10207, "Ġbrowser": 10208, "Microformat": 10209, "Ġnucle": 10210, "Ġtemperature": 10211, "Ġsignificant": 10212, "DS": 10213, "GN": 10214, "Hindustan": 10215, "SQL": 10216, "UK": 10217, "field": 10218, "ÚĨ": 10219, "âĺ": 10220, "à¥Ģà¤ĥ": 10221, "Ġà¤¹à¤¬à¤²": 10222, "à¤¦à¤°à¤ķ": 10223, "à¤Łà¤°à¤¤": 10224, "à¤ľà¤¯à¤ķ": 10225, "à¤ľà¤¸à¤®": 10226, "à¤¶à¤¤à¤°": 10227, "à¤¶à¤ļà¤¨": 10228, "à¤§à¤¹": 10229, "Ġà¤ıà¤¸à¤ķ": 10230, "Ġà¤ªà¤°à¤Ĺ": 10231, "à¤Īà¤µà¤°": 10232, "à¤°à¤ķà¤µ": 10233, "Ġ219": 10234, "à¤ķà¤°à¤¸": 10235, "Ġà¤¡à¤¬à¤°": 10236, "anagari": 10237, "à¤ĺà¤¤": 10238, "eral": 10239, "Ġ203": 10240, "à¤®à¤ķà¤¬à¤°": 10241, "Ġà¤ĵà¤¢": 10242, "Ġà¤ħà¤°à¤¶à¤¦": 10243, "Ġà¤¸à¤¹à¤ļà¤°": 10244, "Ġft": 10245, "Ġflow": 10246, "Ġà¤Ĭà¤¬": 10247, "Ġwave": 10248, "Ġweek": 10249, "ĠMart": 10250, "ream": 10251, "ĠSym": 10252, "ĠScience": 10253, "à¤ıà¤ķà¤®": 10254, "Ġnetwork": 10255, "Ġ720": 10256, "otic": 10257, "aged": 10258, "à¤ļà¤°à¤°": 10259, "Ġà¤ıà¤²à¤ıà¤²à¤¬": 10260, "Ġà¤¢à¤ķà¤¨": 10261, "Ġà¤ħà¤«à¤¸": 10262, "urity": 10263, "Ġlibrary": 10264, "Ġ1787": 10265, "Ġ1784": 10266, "ĠGT": 10267, "ĠGod": 10268, "ĠNetwork": 10269, "ĠEric": 10270, "ĠEcon": 10271, "ĠEgypt": 10272, "ĠHol": 10273, "iven": 10274, "1896": 10275, "aba": 10276, "ira": 10277, "Ġà¤ħà¤ľà¤®à¤²": 10278, "ĠOne": 10279, "ained": 10280, "140": 10281, "select": 10282, "à¤ľà¤Ĺà¤¹": 10283, "ĠSEC": 10284, "Ġabbrevi": 10285, "active": 10286, "Ġsubt": 10287, "ÛĮØ±": 10288, "à´ķ": 10289, "Ġamount": 10290, "Ġà¤īà¤¬à¤²à¤¤": 10291, "à¥§à¥¯à¥Ńà¥¨": 10292, "Ġinterest": 10293, "Ġdesignations": 10294, "ĠProject": 10295, "Ø³Øª": 10296, "Ġstarted": 10297, "Links": 10298, "Ġãĥ": 10299, "Ã¡n": 10300, "Ġspelling": 10301, "Ġlimit": 10302, "Ġà¥¦à¥¨à¥¯à¥¨": 10303, "Ġquestion": 10304, "Ġadministr": 10305, "Ġvolt": 10306, "Ġservice": 10307, "Ġhalf": 10308, "Ġfeedback": 10309, "à¤ıà¤¬à¤°à¤¡": 10310, "Ġequivalent": 10311, "Ġboilerplate": 10312, "Hi": 10313, "can": 10314, "ges": 10315, "ilos": 10316, "lar": 10317, "ping": 10318, "wood": 10319, "Äĵ": 10320, "Ùı": 10321, "à¤°à¤Ŀ": 10322, "à¤¤à¤²à¤¬": 10323, "à¤ķà¤¥à¤¨": 10324, "à¤¯à¤²à¤ķ": 10325, "Ġà¤¸à¤¨à¤¸": 10326, "à¥ģà¥ħ": 10327, "Ġà¤ħà¤¸à¤ķ": 10328, "Ġà¤ħà¤¶à¤ķ": 10329, "à¤ľà¤¯à¤®": 10330, "Ġà¤Ńà¤°à¤ķà¤®": 10331, "Ġà¤ĩà¤¬à¤°": 10332, "Ġà¤īà¤¨à¤²": 10333, "à¤ĵà¤¶": 10334, "Ġà¤µà¤°à¤°": 10335, "Ġà¤¨à¤¹à¤¸": 10336, "à¤²à¤¨à¤¸": 10337, "Ġà¤Īà¤·": 10338, "Ġà¤Īà¤ĵ": 10339, "à¤ĺà¤ļ": 10340, "à¤¤à¤¨à¤µ": 10341, "Ġbul": 10342, "iti": 10343, "itter": 10344, "1913": 10345, "Ġwon": 10346, "ĠSU": 10347, "Ġà¤¤à¤°à¤ľ": 10348, "Ġà¤¤à¤°à¤²à¤¤": 10349, "à¤¨à¤®à¤°": 10350, "ĠPR": 10351, "ĠPet": 10352, "ĠPost": 10353, "ĠPublic": 10354, "ĠApril": 10355, "Ġà¤ĩà¤²à¤¸": 10356, "Ġà¤Ĩà¤Īà¤Ĩà¤°": 10357, "Ġanch": 10358, "à¤¹à¤¨à¤¦": 10359, "Ġ1780": 10360, "ĠBMI": 10361, "ĠNI": 10362, "à¤ľà¤¯à¤¶": 10363, "ĠHo": 10364, "ĠRuss": 10365, "ĠRoman": 10366, "ĠFl": 10367, "Ġà¥§à¥®à¥«à¥¦": 10368, "Ġstar": 10369, "Ġord": 10370, "ĠKa": 10371, "Ġà¤ľà¤¯à¤ļ": 10372, "Inf": 10373, "Indefinite": 10374, "Ġsubs": 10375, "Ġinteg": 10376, "ieve": 10377, "Ġà¦Ĩ": 10378, "Ġà¤¬à¤¹à¤°à¤¹": 10379, "Ġsetting": 10380, "à¤ĩà¤ªà¤°à¤Ł": 10381, "Ġzero": 10382, "Ġrights": 10383, "ĠAdmin": 10384, "à©Ģ": 10385, "Only": 10386, "Ġrespective": 10387, "Ġconsidered": 10388, "illionth": 10389, "Ġcentury": 10390, "Ġmodel": 10391, "Ġidea": 10392, "ĠCPU": 10393, "Ġpagel": 10394, "Ð¸Ñĩ": 10395, "Default": 10396, "Ġchromosome": 10397, "Ġmoment": 10398, "ĠICAO": 10399, "Hindustanilanguage": 10400, "Col": 10401, "Key": 10402, "Se": 10403, "aa": 10404, "cases": 10405, "fr": 10406, "key": 10407, "ras": 10408, "ving": 10409, "Ñı": 10410, "Ġly": 10411, "à¥ĩà¤¾": 10412, "à¤¸à¤¬à¤ķ": 10413, "à¤²à¤°à¤¸": 10414, "Ġà¤®à¤²à¤®": 10415, "Ġà¤ľà¤®à¤¦à¤Ĺ": 10416, "à¤Ĺà¤ªà¤Ł": 10417, "Ġà¤ħà¤Ļ": 10418, "Ġà¤¬à¤°à¤ķà¤¤": 10419, "Ġà¤Ĺà¤°à¤¬": 10420, "à¤ĩà¤¡à¤²": 10421, "à¤ĩà¤®à¤¸": 10422, "à¤µà¤°à¤¯": 10423, "Ġà¤Łà¤²": 10424, "à¤ħà¤µà¤¤": 10425, "à¤ħà¤ĺ": 10426, "001": 10427, "âĢı": 10428, "Ġà¤Īà¤¬": 10429, "Ġà¤Īà¤²à¤®": 10430, "atter": 10431, "à¤°à¤¯à¤£": 10432, "aling": 10433, "à¤µà¤²à¤¥à¤²": 10434, "à¤¤à¤®à¤ª": 10435, "à¤¦à¤¨à¤ª": 10436, "Ġfem": 10437, "à¥¦à¥§à¥": 10438, "Ġ444": 10439, "1915": 10440, "Ġmi": 10441, "Ġmac": 10442, "ĠMi": 10443, "ĠMain": 10444, "rel": 10445, "Ġox": 10446, "ĠPy": 10447, "ĠPsych": 10448, "ĠAk": 10449, "ago": 10450, "omas": 10451, "Ġhost": 10452, "Ġhref": 10453, "Ġhistor": 10454, "Ġ1556": 10455, "à¤Ĳà¤¡": 10456, "ĠBP": 10457, "ĠGHz": 10458, "ĠGlobal": 10459, "ĠHot": 10460, "ivil": 10461, "ĠFin": 10462, "Ġstation": 10463, "à¤·à¤®à¤¯": 10464, "ocus": 10465, "Ġ238": 10466, "Ġ227": 10467, "avel": 10468, "ĠVLAN": 10469, "ried": 10470, "options": 10471, "Ġ265": 10472, "ĠJames": 10473, "Ġà¥¨à¥«à¥¦à¥¦": 10474, "ĠChang": 10475, "Ġà¤Ĩà¤ĩà¤ıà¤¸à¤¡": 10476, "ĠAlt": 10477, "1902": 10478, "ĠPradesh": 10479, "ruary": 10480, "Ġà¥§à¥®à¥®à¥¬": 10481, "à¥§à¥¯à¥®à¥«": 10482, "à¥§à¥¯à¥Ńà¥§": 10483, "ĠgetArgs": 10484, "Ġgenerated": 10485, "ĠProgr": 10486, "Ġinfoboxes": 10487, "Ġscreen": 10488, "Ġconstruct": 10489, "Ġà¤ıà¤¨à¤ıà¤ļà¤ıà¤²": 10490, "Ġprogram": 10491, "Ġeasy": 10492, "Result": 10493, "Ġoppos": 10494, "Techn": 10495, "berg": 10496, "num": 10497, "sa": 10498, "Ø¦": 10499, "à¤¤à¤²à¤µ": 10500, "à¤²à¤¸à¤®": 10501, "à¤¡à¤Ń": 10502, "à¤¥à¤Ĺà¤¨": 10503, "Ġà¤Ĺà¤µà¤²": 10504, "à¤ļà¤ļ": 10505, "Ġà¤¤à¤«": 10506, "Ġà¤¤à¤°à¤£": 10507, "Ġà¤¶à¤¯": 10508, "Ġà¤ķà¤°à¤²": 10509, "à¤ĸà¤®à¤¯": 10510, "Ġà¤¯à¤²": 10511, "à¤Īà¤¯à¤¤": 10512, "à¤°à¤ķà¤¥": 10513, "Ġà¤Łà¤£": 10514, "Ġà¤§à¤°à¤£": 10515, "à¤µà¤¨à¤¤": 10516, "à¤µà¤¨à¤ªà¤°": 10517, "Ġ202": 10518, "alt": 10519, "esents": 10520, "ĠMov": 10521, "rete": 10522, "Ġ184": 10523, "Ġ1822": 10524, "Ġà¤¬à¤²à¤Ĺà¤®": 10525, "ĠCity": 10526, "ĠCPA": 10527, "ington": 10528, "ĠPark": 10529, "Ġà¤¬à¤¦à¤¸": 10530, "ĠIBS": 10531, "Ġ1550": 10532, "unct": 10533, "Ġtherm": 10534, "Ġ1760": 10535, "Ġ1785": 10536, "ĠBel": 10537, "ĠBra": 10538, "apan": 10539, "Ġà¤ªà¤°à¤®à¤ª": 10540, "Ġà¤Ĺà¤£à¤ķ": 10541, "ĠEqu": 10542, "Ġbecom": 10543, "ĠRa": 10544, "à¤ıà¤«à¤¡": 10545, "ĠOlymp": 10546, "Ġà¤ıà¤ļà¤ıà¤²à¤ı": 10547, "Ġadj": 10548, "Ġadv": 10549, "Ġpageprop": 10550, "Ġplaces": 10551, "Ġja": 10552, "acter": 10553, "Ġà¤²à¤¹à¤°à¤¬": 10554, "à¤ħà¤µà¤¸à¤°": 10555, "à¥§à¥¯à¥¯à¥©": 10556, "Ġà¥§à¥®à¥¯à¥¬": 10557, "Ġà¥§à¥®à¥«à¥¬": 10558, "ĠWikim": 10559, "à¥§à¥¯à¥¬à¥¨": 10560, "Ġà¥©à¥¬à¥¦": 10561, "Ġthumbnail": 10562, "omatic": 10563, "ĠãĢ": 10564, "Ġrepresents": 10565, "ĠAMG": 10566, "Ġprotected": 10567, "Ġestab": 10568, "rror": 10569, "ĠCountry": 10570, "Ġtranscluded": 10571, "ĠSudan": 10572, "Ġpagelanguage": 10573, "Ġpageprops": 10574, "Morebits": 10575, "PD": 10576, "df": 10577, "wocka": 10578, "yes": 10579, "áŁ": 10580, "à¤¾à¥Ģ": 10581, "à¤¸à¤¡à¤°": 10582, "Ġà¤¸à¤ªà¤°": 10583, "Ġà¤¸à¤Ĩà¤¦à¤¤": 10584, "Ġà¤ľà¤®à¤¤": 10585, "à¤Ĺà¤®à¤°": 10586, "à¤·à¤¦à¤°": 10587, "à¤¡à¤§": 10588, "à¤¡à¤°à¤¨": 10589, "à¤ļà¤«": 10590, "Ġà¤ıà¤¡à¤²": 10591, "Ġà¤Ĩà¤ĩà¤¬": 10592, "à¤ĩà¤¥à¤¨": 10593, "à¤µà¤°à¤ļ": 10594, "à¤¾à¤ģà¤ģ": 10595, "à¤īà¤ªà¤¦": 10596, "Ġà¤¡à¤µ": 10597, "à¤ľà¤¨à¤ľ": 10598, "à¤ħà¤²à¤ķ": 10599, "à¤¯à¤¨à¤°": 10600, "erve": 10601, "Ġà¤¸à¤®à¤¯à¤¸": 10602, "Ġà¤ĳà¤²à¤®": 10603, "Ġà¤Ĳà¤²à¤ķ": 10604, "Ġcop": 10605, "estern": 10606, "Ġfive": 10607, "Ġpal": 10608, "à¤§à¤¨à¤µ": 10609, "ĠTa": 10610, "Ġ183": 10611, "Ġ1810": 10612, "à¤¬à¤²à¤¡": 10613, "Ġà¤¬à¤°à¤ĸ": 10614, "à¥¦à¥¦à¥¦à¥¦": 10615, "Ġà¤ıà¤¸à¤¬": 10616, "Ġà¤¤à¤¬à¤¸": 10617, "Ġ1540": 10618, "à¤®à¤¦à¤¤": 10619, "ĠBill": 10620, "Ġgrow": 10621, "ĠGen": 10622, "Ġà¤¬à¤ľà¤ķà¤°": 10623, "iri": 10624, "ĠOb": 10625, "Ġ221": 10626, "à¥¯à¥¯à¥": 10627, "ĠØ¢": 10628, "Ø§Ø¨": 10629, "Ġabs": 10630, "gric": 10631, "à¤īà¤ªà¤ľ": 10632, "à¤¯à¤¬à¤ĺà¤°": 10633, "à°Ĥ": 10634, "Ġà¤µà¤ļà¤¨à¤¬à¤¦": 10635, "Ġquadr": 10636, "sson": 10637, "ÙĬÙĨ": 10638, "Ġà¥§à¥®à¥¯à¥©": 10639, "AAA": 10640, "à¥§à¥¯à¥Ńà¥Ń": 10641, "Ġrelative": 10642, "lume": 10643, "Ġactiv": 10644, "trigger": 10645, "ĠSept": 10646, "Any": 10647, "ĠÙģ": 10648, "Ġproperly": 10649, "ÑģÐº": 10650, "Ġà¤¹à¤łà¤¯": 10651, "ĠCentre": 10652, "Ġà¥łà¤¤": 10653, "Ġcircuit": 10654, "Ġformatting": 10655, "ĠmtDNA": 10656, "Ġprecision": 10657, "220": 10658, "Source": 10659, "cont": 10660, "iro": 10661, "Ã¢": 10662, "Ġà¤ķà¤³": 10663, "à¤¨à¤§à¤°": 10664, "à¤¤à¤²à¤®": 10665, "à¤µà¤ªà¤¤": 10666, "à¤¹à¤°à¤®": 10667, "à¤Łà¤ļà¤°": 10668, "à¤·à¤·": 10669, "Ġà¤¤à¤¬à¤°": 10670, "Ġà¤¤à¤¨à¤µ": 10671, "Ġà¤Łà¤ªà¤ķ": 10672, "Ġà¤¡à¤°à¤¹à¤®": 10673, "à¤ħà¤°à¤®": 10674, "à¤¸à¤°à¤¨": 10675, "Ġtra": 10676, "à¤ĺà¤£": 10677, "à¤ĩà¤¨à¤µ": 10678, "ĠâĢĮ": 10679, "orem": 10680, "Ġà¤ħà¤µà¤ķà¤²à¤¨": 10681, "Ġfa": 10682, "Ġbdi": 10683, "Ġpast": 10684, "ĠSk": 10685, "Ġns": 10686, "Ġà¤Ĩà¤ªà¤®": 10687, "uru": 10688, "una": 10689, "ĠGh": 10690, "à¤°à¤®à¤£à¤¶": 10691, "place": 10692, "ĠRoy": 10693, "adh": 10694, "Ġà¥§à¥®à¥§à¥ª": 10695, "isted": 10696, "à¦¹": 10697, "ĠKC": 10698, "ocy": 10699, "ĠOct": 10700, "Ġdeb": 10701, "108": 10702, "166": 10703, "à¥¯à¥§à¥": 10704, "Ġà¥¯à¥¯à¥": 10705, "ĠÎµ": 10706, "ĠÎ»": 10707, "ensis": 10708, "Input": 10709, "Ġ1807": 10710, "awa": 10711, "Ġauthors": 10712, "cheme": 10713, "Ġà¤ªà¤£à¤ľ": 10714, "à¥§à¥¯à¥®à¥ª": 10715, "à¥ĩà¥ĩà¥ĩ": 10716, "Ġmaintenance": 10717, "Ġoffice": 10718, "Ġcommunities": 10719, "Ġattempt": 10720, "Ġvisual": 10721, "hesis": 10722, "ĠãĤ": 10723, "Ġmonths": 10724, "ĠHealth": 10725, "Ġpopulation": 10726, "rolled": 10727, "ĠAuthor": 10728, "ĠMedical": 10729, "ilingual": 10730, "ĠHCV": 10731, "Ġuncertain": 10732, "Ġpronunciations": 10733, "Ġcorresponding": 10734, "Ġlayout": 10735, "ĠFramework": 10736, "Be": 10737, "DE": 10738, "EA": 10739, "UI": 10740, "bi": 10741, "body": 10742, "cent": 10743, "center": 10744, "lan": 10745, "men": 10746, "tar": 10747, "Ùĳ": 10748, "Ġà¤ľà¤¸à¤ª": 10749, "à¤¶à¤¤à¤ķ": 10750, "à¤·à¤¡": 10751, "à¤£à¤¤à¤®": 10752, "Ġà¤ıà¤ħ": 10753, "Ġà¤ıà¤²à¤µ": 10754, "Ġà¤Ĩà¤²à¤µ": 10755, "Ġà¤¯à¤®à¤²": 10756, "à¤¤à¤°à¤®à¤¹": 10757, "à¤°à¤£à¤ľ": 10758, "à¤īà¤§": 10759, "à¤°à¤¹à¤Ł": 10760, "Ġà¤ķà¤®à¤¤à¤°": 10761, "Ġ208": 10762, "atio": 10763, "Ġcut": 10764, "esis": 10765, "Ġà¤Ĩà¤¯à¤²à¤°": 10766, "Ġfix": 10767, "itel": 10768, "Ġinline": 10769, "icle": 10770, "ĠSH": 10771, "ĠSn": 10772, "Ġà¤ľà¤²à¤ķà¤°": 10773, "Ġ1813": 10774, "ĠCast": 10775, "ĠPs": 10776, "iger": 10777, "urch": 10778, "Ġà¤ľà¤Ĺà¤¦à¤®": 10779, "Ġ1793": 10780, "Ġforward": 10781, "ĠWil": 10782, "Ġek": 10783, "ĠGold": 10784, "Ġà¤ıà¤®à¤µ": 10785, "ĠNap": 10786, "ĠLou": 10787, "ĠHen": 10788, "ĠHouse": 10789, "180": 10790, "Ġrot": 10791, "Ġstates": 10792, "à¤ľà¤ªà¤¥": 10793, "Ġà¤¤à¤Łà¤°à¤ķ": 10794, "ifiers": 10795, "ĠKumar": 10796, "ception": 10797, "Ġ217": 10798, "Ġ226": 10799, "123": 10800, "Ġenough": 10801, "udi": 10802, "oney": 10803, "Ġ1802": 10804, "Ġ1809": 10805, "ÙĪÙĨ": 10806, "ĠAlso": 10807, "Ġsett": 10808, "Ġcompany": 10809, "à¥§à¥¯à¥Ńà¥®": 10810, "Ġsomeone": 10811, "Ġmaps": 10812, "Ġlocated": 10813, "Ġhyper": 10814, "ĠSanta": 10815, "fficient": 10816, "Ġsquare": 10817, "ĠLimited": 10818, "Bl": 10819, "Box": 10820, "Che": 10821, "Each": 10822, "New": 10823, "jar": 10824, "kn": 10825, "oS": 10826, "Ġesc": 10827, "à¤°à¤ħ": 10828, "à¤¤à¤²à¤¤": 10829, "Ġà¤¸à¤¶à¤°": 10830, "Ġà¤¸à¤ĺà¤¨à¤¤": 10831, "à¤ªà¤²à¤ķ": 10832, "à¤Ĺà¤¨à¤°": 10833, "Ġà¤ħà¤ľà¤µ": 10834, "à¤ľà¤¬à¤°": 10835, "à¤·à¤¹": 10836, "à¤£à¤¬": 10837, "Ġà¤Ĺà¤ľà¤¨à¤µ": 10838, "à¤Īà¤¡à¤°": 10839, "à¤ĩà¤Ĩà¤ķ": 10840, "à¤Ĩà¤°à¤ľ": 10841, "Ġà¤ħà¤²à¤«": 10842, "à¤¦à¤°à¤Ĺà¤¢": 10843, "Ġsrc": 10844, "Ġcand": 10845, "Ġà¤ªà¤¦à¤¯": 10846, "Ġpict": 10847, "Ġmol": 10848, "ĠMM": 10849, "ĠMes": 10850, "Ġà¤Ĩà¤ķà¤¡": 10851, "à¤Ĭà¤¤à¤ķ": 10852, "ĠPN": 10853, "ĠAst": 10854, "à¤ķà¤Łà¤®": 10855, "agram": 10856, "ĠIA": 10857, "ĠDa": 10858, "à¤ķà¤ªà¤Ł": 10859, "ulus": 10860, "idence": 10861, "ĠRC": 10862, "ĠROM": 10863, "à¤ħà¤²à¤µà¤°": 10864, "Ġ215": 10865, "ĠOR": 10866, "anga": 10867, "riend": 10868, "102": 10869, "Ġking": 10870, "Ġà¥§à¥Ńà¥¦à¥¦": 10871, "Ġconn": 10872, "Ġà¤ķà¤¤à¤Ī": 10873, "Ġà¦ķ": 10874, "ĠQue": 10875, "à¥§à¥¯à¥¯à¥«": 10876, "Ġà¥§à¥®à¥®à¥®": 10877, "Ġà¥§à¥®à¥®à¥«": 10878, "à¥§à¥¯à¥Ńà¥¯": 10879, "pura": 10880, "à¤ªà¤°à¤µà¤²à¤¯": 10881, "Ġà¤ħà¤µà¤¤à¤°à¤£à¤ķ": 10882, "Ġtestcases": 10883, "pression": 10884, "Project": 10885, "Ġconcern": 10886, "________________________________": 10887, "ĠmcB": 10888, "Ġencour": 10889, "Ġbrowsers": 10890, "Ġschool": 10891, "ĠDelhi": 10892, "ĠBritish": 10893, "recated": 10894, "Ġwindow": 10895, "After": 10896, "GS": 10897, "Up": 10898, "nic": 10899, "oint": 10900, "tra": 10901, "à¤°à¤ľà¤¬": 10902, "à¤¨à¤µà¤¸": 10903, "à¤¨à¤Ĺà¤¨": 10904, "à¤²à¤ļà¤ķ": 10905, "à¤µà¤²à¤¯": 10906, "à¤Łà¤Ī": 10907, "à¤Łà¤Ľ": 10908, "à¤ľà¤µà¤°": 10909, "à¤ľà¤°à¤µ": 10910, "à¤¶à¤«": 10911, "Ġà¤¦à¤¦": 10912, "Ġà¤°à¤¦à¤°à¤«": 10913, "à¤§à¤¨à¤ķ": 10914, "Ġà¤Ĺà¤®à¤²": 10915, "Ġà¤Ķà¤¸": 10916, "Ġà¤ıà¤ıà¤ļ": 10917, "Ġà¤ħà¤¨à¤¹": 10918, "à¤Ĩà¤Ĺà¤®": 10919, "à¤ĵà¤²à¤®": 10920, "à¤ħà¤¸à¤°": 10921, "Ġà¤īà¤ªà¤ĸà¤£": 10922, "onia": 10923, "ĠâĢļ": 10924, "Ġà¤Ĩà¤§à¤°": 10925, "arning": 10926, "Ġà¤¸à¤°à¤Ĺà¤¨": 10927, "Ġà¤ħà¤ķà¤¶": 10928, "Ġbond": 10929, "itr": 10930, "itar": 10931, "Ġpix": 10932, "à¤¨à¤¤à¤¯": 10933, "Ġ530": 10934, "à¤²à¤¬à¤¹": 10935, "à¤²à¤ķà¤ª": 10936, "Ġmath": 10937, "ĠME": 10938, "ĠSuk": 10939, "à¤¨à¤µà¤¯": 10940, "ĠPage": 10941, "ĠALS": 10942, "Ġà¤¬à¤°à¤Ĺ": 10943, "Ġà¤Ĩà¤Ĺà¤¸": 10944, "à¤Ńà¤µà¤¶": 10945, "Ġà¥¨à¥¦à¥¬": 10946, "ĠDOS": 10947, "ila": 10948, "ulf": 10949, "uli": 10950, "uls": 10951, "Ġà¤ıà¤¨à¤Ĩà¤Īà¤Ł": 10952, "roid": 10953, "ĠBah": 10954, "à¤Ĩà¤°à¤ıà¤«": 10955, "à¤ľà¤¹à¤¸": 10956, "ĠEF": 10957, "Ġbecome": 10958, "Ġà¥ªà¥¦à¥¦à¥¦": 10959, "ĠFree": 10960, "à¦¶": 10961, "ocument": 10962, "Ġà¤ħà¤¸à¤®à¤¯": 10963, "Ġ273": 10964, "inder": 10965, "Ġtrad": 10966, "ĠChand": 10967, "Ġ375": 10968, "duces": 10969, "ĠPres": 10970, "à¤Ńà¤²à¤Ĺà¤¢": 10971, "à¥§à¥¯à¥¯à¥ª": 10972, "Ġà¥§à¥®à¥®à¥§": 10973, "Ġindust": 10974, "Ġà¥§à¥®à¥¯à¥§": 10975, "à¥§à¥¯à¥®à¥¯": 10976, "olean": 10977, "Ġ1772": 10978, "Ð¸Ðº": 10979, "ĠSpace": 10980, "Ġroll": 10981, "Ġà¥§à¥®à¥ªà¥®": 10982, "Ġextension": 10983, "ĠHTTP": 10984, "ĠImage": 10985, "Temporary": 10986, "ĠFebruary": 10987, "ampaign": 10988, "DD": 10989, "Jain": 10990, "Mult": 10991, "has": 10992, "mo": 10993, "Ïħ": 10994, "à¤¨à¤¡à¤¨": 10995, "à¤¤à¤¹à¤¤": 10996, "à¤²à¤Ńà¤°": 10997, "à¤®à¤°à¤¤": 10998, "à¤®à¤¯à¤ķ": 10999, "à¤¹à¤²à¤¯": 11000, "à¤ªà¤¦à¤®": 11001, "Ġà¤ħà¤¹à¤°": 11002, "à¥Ĥà¥ħ": 11003, "Ġà¤¬à¤²à¤¤": 11004, "à¤·à¤°à¤ķà¤°": 11005, "à¤ıà¤¨à¤ķ": 11006, "Ġà¤¸à¤®à¤°à¤ķ": 11007, "à¤Ĩà¤ĺ": 11008, "Ġà¤¡à¤²à¤¹": 11009, "âĢĶ": 11010, "à¤¸à¤¨à¤®": 11011, "à¤ĺà¤¸": 11012, "Ġsn": 11013, "Ġsound": 11014, "Ġà¤ħà¤°à¤¨": 11015, "Ġcarbon": 11016, "Ġbroad": 11017, "Ġpath": 11018, "Ġpsych": 11019, "ĠMark": 11020, "à¤µà¤ªà¤²": 11021, "ĠSun": 11022, "Ġnb": 11023, "ĠCIS": 11024, "asis": 11025, "ĠPur": 11026, "ĠIUCN": 11027, "Ġà¤ıà¤²à¤Īà¤¡": 11028, "Ġspl": 11029, "ĠUs": 11030, "à¤²à¤®à¤ª": 11031, "ided": 11032, "Ġà¤ıà¤¨à¤ıà¤¸à¤Īà¤ıà¤²": 11033, "roc": 11034, "ĠBA": 11035, "ĠBeng": 11036, "ĠNZ": 11037, "ĠLab": 11038, "ĠLog": 11039, "ĠLive": 11040, "Ġreasons": 11041, "à¦Ĺ": 11042, "Ġà¥§à¥¬à¥¦à¥¦": 11043, "Ġprove": 11044, "Ġconse": 11045, "Ġcontact": 11046, "Ġnamespaces": 11047, "à´Ĥ": 11048, "áĢ¸": 11049, "ship": 11050, "1903": 11051, "ĠÐ¾": 11052, "Ġinstructions": 11053, "Ġerrors": 11054, "à¥§à¥¯à¥¬à¥«": 11055, "Ġallowed": 11056, "config": 11057, "Ġmathemat": 11058, "Ġmodern": 11059, "Ġproperties": 11060, "plicit": 11061, "Adapter": 11062, "Ġrunning": 11063, "ĠCanada": 11064, "Ġfactor": 11065, "verse": 11066, "Ġcriteria": 11067, "Ġvariables": 11068, "vanced": 11069, "Ġfloat": 11070, "anslate": 11071, "ĠDavid": 11072, "eturns": 11073, "Div": 11074, "SF": 11075, "Search": 11076, "TH": 11077, "lig": 11078, "part": 11079, "ÙĢ": 11080, "à¤°à¤Ķà¤¨": 11081, "à¤¤à¤ªà¤¸": 11082, "à¤ķà¤¦à¤°": 11083, "Ġà¤¹à¤¶": 11084, "à¤¦à¤¯à¤¸": 11085, "à¤ªà¤Łà¤¤": 11086, "à¤ľà¤łà¤°": 11087, "à¤ľà¤¬à¤²à¤ª": 11088, "Ġà¤¨à¤¸à¤°": 11089, "Ġà¤¬à¤Ľà¤µ": 11090, "à¤¶à¤¯à¤µ": 11091, "à¤¡à¤Ľ": 11092, "à¤¡à¤°à¤¶": 11093, "Ġà¤īà¤Īà¤Ĺ": 11094, "Ġà¤ıà¤ĵà¤ıà¤²": 11095, "Ġà¤ĩà¤ĸ": 11096, "à¤Īà¤ıà¤²": 11097, "à¤µà¤°à¤Ĺ": 11098, "Ġà¤Łà¤¹": 11099, "onn": 11100, "à¤¯à¤°à¤¶": 11101, "à¤ļà¤¨à¤ª": 11102, "Ġsat": 11103, "Ġcod": 11104, "Ġ315": 11105, "ĠTor": 11106, "ĠTur": 11107, "Ġms": 11108, "ĠMGM": 11109, "ĠSem": 11110, "ĠSev": 11111, "Ġà¤Ŀà¤²": 11112, "Ġnor": 11113, "asp": 11114, "à¤ıà¤¸à¤¯": 11115, "ĠPa": 11116, "ĠPort": 11117, "ĠPortal": 11118, "ĠINS": 11119, "omer": 11120, "eta": 11121, "Ġhol": 11122, "Ġ1536": 11123, "Ġll": 11124, "ĠDM": 11125, "Ġ1756": 11126, "Ġ1763": 11127, "ĠBAF": 11128, "ĠGovernment": 11129, "ĠEv": 11130, "ĠHM": 11131, "quest": 11132, "ĠRI": 11133, "ĠRAM": 11134, "ĠRCA": 11135, "ĠFM": 11136, "Ġra": 11137, "iab": 11138, "Ġà¤Ĺà¤¢à¤µ": 11139, "à¦ľ": 11140, "ithm": 11141, "Ġ228": 11142, "akk": 11143, "Ġà¤ªà¤²à¤µà¤²": 11144, "Ġà¤ķà¤¸à¤°à¤¤": 11145, "Ġcomments": 11146, "Ġà¤ĵà¤µà¤°à¤¹": 11147, "hens": 11148, "ĠYam": 11149, "Ġtransparent": 11150, "ÙĪÙĦ": 11151, "harm": 11152, "Ġ978": 11153, "ĠAmb": 11154, "Ġà¥§à¥®à¥¬à¥«": 11155, "Ġscale": 11156, "Ġlinear": 11157, "ĠFrench": 11158, "Ġentity": 11159, "Ġassum": 11160, "Ġsupports": 11161, "ounter": 11162, "Ġidentity": 11163, "Ġincor": 11164, "Ġskin": 11165, "Ġnavigation": 11166, "ĠANC": 11167, "atured": 11168, "Ġversions": 11169, "ĠEngineering": 11170, "Ġà¤Ŀà¤ķà¤Ŀ": 11171, "Cat": 11172, "JPG": 11173, "bd": 11174, "book": 11175, "most": 11176, "padding": 11177, "rid": 11178, "rome": 11179, "word": 11180, "Ø·": 11181, "Ġign": 11182, "Ġà¤ķà¤¸à¤¨": 11183, "Ġà¤®à¤¤à¤µ": 11184, "à¤µà¤Ĺà¤¤": 11185, "à¤ªà¤¹à¤¸": 11186, "Ġà¤ħà¤ĸà¤¨": 11187, "Ġà¤µà¤¨à¤®": 11188, "Ġà¤¦à¤®à¤ķ": 11189, "Ġà¤°à¤¸à¤®": 11190, "à¤£à¤ļ": 11191, "Ġà¤ıà¤ı": 11192, "Ġà¤Ĩà¤¬à¤¨": 11193, "à¤Ńà¤ľà¤¨": 11194, "Ġà¤¸à¤®à¤ª": 11195, "Ġà¤ĩà¤¸à¤µ": 11196, "Ġà¤ħà¤¨à¤«": 11197, "Ġà¤ĸà¤°à¤µ": 11198, "à¤ĵà¤¹": 11199, "à¤Ľà¤ķ": 11200, "à¤ħà¤ªà¤ķ": 11201, "à¤²à¤¨à¤ķà¤°": 11202, "Ġà¤Īà¤ı": 11203, "à¤¦à¤°à¤µà¤¨": 11204, "Ġà¤ĵà¤®à¤ª": 11205, "orry": 11206, "Ġsens": 11207, "Ġsummary": 11208, "Ġcitations": 11209, "Ġclean": 11210, "à¤¡à¤²à¤ķ": 11211, "lete": 11212, "ico": 11213, "Ġmis": 11214, "Ġmem": 11215, "Ġmand": 11216, "ĠMos": 11217, "ĠSR": 11218, "Ġà¤ĳà¤«à¤°": 11219, "Ġà¤ĳà¤«à¤²": 11220, "Ġà¤¬à¤²à¤¶": 11221, "ĠPP": 11222, "ĠPap": 11223, "ĠPLC": 11224, "aga": 11225, "aging": 11226, "à¤ĩà¤¡à¤¸": 11227, "Ġà¤Ĩà¤Īà¤ıà¤²": 11228, "à¥Ńà¥¦à¥¦": 11229, "Ġà¤ıà¤²à¤Ł": 11230, "Ġspect": 11231, "Ġthings": 11232, "ĠBank": 11233, "Ġgraph": 11234, "ĠEduc": 11235, "à¤®à¤£à¤µ": 11236, "à¤§à¤ķà¤Ĺà¤£": 11237, "struct": 11238, "iform": 11239, "ĠOri": 11240, "160": 11241, "aint": 11242, "iph": 11243, "ipal": 11244, "à®ª": 11245, "athi": 11246, "Ø±ÙĬ": 11247, "à´¨": 11248, "ĠComput": 11249, "spot": 11250, "Ġauto": 11251, "Ġcompar": 11252, "Ġà¥§à¥®à¥®à¥©": 11253, "Ð°ÑĢ": 11254, "à¥§à¥¯à¥«à¥¬": 11255, "Ġblurb": 11256, "ometric": 11257, "Ġrecent": 11258, "Ġidentify": 11259, "Ġï¼": 11260, "Ġà¤ķà¤²à¤¨à¤µ": 11261, "ÃŃa": 11262, "Ġdigit": 11263, "Ġmethods": 11264, "Ġenglish": 11265, "Ã³n": 11266, "Ġradius": 11267, "ĠRepublic": 11268, "Ġesp": 11269, "Ġeducation": 11270, "ĠSeptember": 11271, "Am": 11272, "BR": 11273, "Copy": 11274, "En": 11275, "Hash": 11276, "WD": 11277, "mm": 11278, "mail": 11279, "ria": 11280, "vest": 11281, "Éĳ": 11282, "Ùī": 11283, "á¸": 11284, "Ġer": 11285, "ĠÚ¯": 11286, "à¤°à¤°à¤¸": 11287, "à¤²à¤Ľ": 11288, "Ġà¤®à¤Łà¤ķ": 11289, "Ġà¤®à¤°à¤ķà¤°": 11290, "Ġà¤ľà¤¸à¤¨": 11291, "à¤¶à¤Ł": 11292, "à¤·à¤®à¤²": 11293, "à¤¬à¤ĺ": 11294, "Ġà¤īà¤£": 11295, "Ġà¤ıà¤¯": 11296, "Ġà¤ıà¤¬à¤²": 11297, "Ġà¤ļà¤®à¤ļ": 11298, "à¤°à¤£à¤ª": 11299, "à¤ķà¤°à¤°": 11300, "à¤łà¤¡": 11301, "à¤°à¤¸à¤²": 11302, "Ġà¤§à¤ľ": 11303, "à¤ªà¤°à¤°": 11304, "Ġ191": 11305, "Ġà¤ĺà¤Ī": 11306, "Ġà¤ĺà¤°à¤µ": 11307, "à¤¯à¤®à¤¸à¤¨": 11308, "à¤ŀà¤ķ": 11309, "à¤¯à¤°à¤ª": 11310, "Ġsix": 11311, "Ġsounds": 11312, "alan": 11313, "à¤µà¤²à¤ķ": 11314, "Ġfall": 11315, "Ġpri": 11316, "Ġà¤ħà¤¸à¤²à¤®": 11317, "Ġà¤ħà¤ªà¤ķà¤°": 11318, "Ġà¤¹à¤°à¤ª": 11319, "à¤Łà¤ķà¤Ł": 11320, "Ġmai": 11321, "Ġmilitary": 11322, "ĠMer": 11323, "ĠMont": 11324, "Ġà¤¬à¤¦à¤ĸ": 11325, "ague": 11326, "unit": 11327, "à¤Ĩà¤Īà¤ĵ": 11328, "Ġà¥¨à¥¦à¥ª": 11329, "Ġà¤ľà¤Ĺà¤¦à¤²à¤ª": 11330, "Ġ1748": 11331, "Ġfore": 11332, "à¤Ĳà¤¤à¤°": 11333, "uled": 11334, "ĠBang": 11335, "Ġglob": 11336, "ĠGi": 11337, "Ġà¤ıà¤®à¤Ĩà¤°à¤Ĩà¤Ī": 11338, "olf": 11339, "ĠName": 11340, "ĠRich": 11341, "à¤®à¤£à¤Ĺà¤¢": 11342, "1860": 11343, "1870": 11344, "Ġà¤¤à¤Łà¤¬": 11345, "Ġ302": 11346, "emplates": 11347, "Ġà¤ħà¤ľà¤¹à¤°": 11348, "à¦§": 11349, "ĠKe": 11350, "Ġ214": 11351, "ĠOx": 11352, "ĠkHz": 11353, "à¤ıà¤ļà¤¬": 11354, "ainer": 11355, "ĠØĮ": 11356, "ansion": 11357, "Ġà¤¡à¤°à¤¬à¤¨": 11358, "Ġheld": 11359, "Ġà¤īà¤¦à¤¯à¤Ĺ": 11360, "Ġà¤Ĩà¤ĩà¤¶": 11361, "ĠUSD": 11362, "ĠArab": 11363, "ĠÃī": 11364, "ĠPress": 11365, "Ġcompat": 11366, "ASIK": 11367, "Ġà¥§à¥®à¥¯à¥¨": 11368, "Ġà¥§à¥®à¥¬à¥Ń": 11369, "Ġformats": 11370, "Ġcontainer": 11371, "Ġà¤Ĩà¤²à¤®à¤Ĺ": 11372, "ĠÙħØŃÙħØ¯": 11373, "ganj": 11374, "à¥§à¥¯à¥¨à¥¦": 11375, "Ġvisible": 11376, "scope": 11377, "ĠHydro": 11378, "Ġarchitect": 11379, "Ġsurface": 11380, "Ġissues": 11381, "Ġcondition": 11382, "ĠAfric": 11383, "India": 11384, "ynamic": 11385, "ĠJuly": 11386, "Ġelectrons": 11387, "ĠLatin": 11388, "ĠFOOTNOTE": 11389, "Ġà¤ĵà¤ĸà¤²à¤¢": 11390, "ĠGeorge": 11391, "Ġdiacritics": 11392, "ĠEricsson": 11393, "BD": 11394, "GO": 11395, "Str": 11396, "UR": 11397, "current": 11398, "new": 11399, "yu": 11400, "Ù¹": 11401, "á±": 11402, "Ġà¤±": 11403, "à¤¨à¤°à¤ķ": 11404, "à¤²à¤¢": 11405, "Ġà¤¸à¤°à¤®": 11406, "Ġà¤¹à¤°à¤¯": 11407, "à¤®à¤ľà¤¨": 11408, "Ġà¤®à¤µà¤¨à¤¡": 11409, "à¤Ĺà¤°à¤¸": 11410, "à¤ľà¤¹à¤°": 11411, "Ġà¤°à¤ľà¤¸": 11412, "à¤·à¤ļ": 11413, "à¤·à¤Ńà¤°": 11414, "à¤¬à¤¦à¤¨": 11415, "Ġà¤²à¤«": 11416, "Ġà¤¤à¤²à¤¤": 11417, "Ġà¤¤à¤²à¤¬": 11418, "à¤ıà¤ıà¤®": 11419, "à¤ıà¤¡à¤µ": 11420, "à¤°à¤¤à¤¤": 11421, "Ġà¤ħà¤¨à¤¬à¤¨": 11422, "à¤īà¤ļà¤°": 11423, "à¤°à¤®à¤®": 11424, "à¤łà¤¦": 11425, "à¤ħà¤¨à¤¸": 11426, "Ġà¤§à¤¤": 11427, "à¤¶à¤¨à¤®": 11428, "à¤¸à¤¨à¤Ĺà¤°": 11429, "à¤ĺà¤®à¤¶": 11430, "à¤ĩà¤¨à¤Ł": 11431, "Ġscience": 11432, "à¤°à¤µà¤§": 11433, "à¤µà¤¸à¤¤": 11434, "Ġà¤Ĳà¤Ĺ": 11435, "Ġà¤¸à¤°à¤ľ": 11436, "à¤¤à¤ķà¤µ": 11437, "Ġ322": 11438, "Ġblog": 11439, "à¤²à¤¬à¤¦": 11440, "Ġinternal": 11441, "à¤ĸà¤¨à¤²": 11442, "Ġov": 11443, "à¤¥à¤®à¤ª": 11444, "à¤Ĭà¤²": 11445, "ĠPri": 11446, "ĠAR": 11447, "à¤¯à¤²à¤²": 11448, "à¤°à¤ľà¤µ": 11449, "ĠId": 11450, "ĠIMA": 11451, "à¤¯à¤ªà¤Ł": 11452, "Ġhar": 11453, "Ġhoriz": 11454, "Ġ1530": 11455, "Ġ1794": 11456, "ĠNet": 11457, "ĠNews": 11458, "ĠLi": 11459, "ĠHistory": 11460, "à¤®à¤Ĺà¤¹": 11461, "à¤Ķà¤§": 11462, "à¤ıà¤®à¤µ": 11463, "à¤ıà¤®à¤Ĩà¤Īà¤Ł": 11464, "Ġrate": 11465, "Ġriver": 11466, "Ġà¤ķà¤łà¤¬": 11467, "Ġve": 11468, "endra": 11469, "Ġones": 11470, "Ġonline": 11471, "Ġsex": 11472, "Ġkh": 11473, "Ġareas": 11474, "Ġwhose": 11475, "ptions": 11476, "Ġchapter": 11477, "Ġprinc": 11478, "à¤ĩà¤«à¤¸": 11479, "Ġiii": 11480, "protection": 11481, "Ġà¥¨à¥ªà¥¦": 11482, "à°ķ": 11483, "à´®": 11484, "Ġtwinkle": 11485, "ruction": 11486, "erved": 11487, "à¥§à¥¯à¥®à¥©": 11488, "Ġinterface": 11489, "à¥§à¥¯à¥ªà¥¦": 11490, "Ġemp": 11491, "Ġáº": 11492, "Ġassigned": 11493, "Ġtechnical": 11494, "While": 11495, "ographical": 11496, "ĠSeries": 11497, "Ġanalysis": 11498, "Ġcomputer": 11499, "Ġdialog": 11500, "ĠAAAAAA": 11501, "Ġà§·": 11502, "elligence": 11503, "Ġà¤Ńà¤Ĺà¤¦à¤¡": 11504, "Ġdisambiguation": 11505, "Nav": 11506, "Supp": 11507, "bert": 11508, "ga": 11509, "gi": 11510, "go": 11511, "htm": 11512, "lang": 11513, "nam": 11514, "tec": 11515, "yal": 11516, "Î³": 11517, "Ð·": 11518, "ï»": 11519, "ĠÇ": 11520, "Ġib": 11521, "Ġà¤ķà¤ķà¤¡": 11522, "à¤²à¤®à¤°": 11523, "Ġà¤¹à¤ļ": 11524, "à¤®à¤²à¤¨": 11525, "à¤ľà¤°à¤¸": 11526, "à¤ľà¤¯à¤¤": 11527, "à¤§à¤Ĺà¤²à¤¨": 11528, "à¤ļà¤ªà¤°": 11529, "Ġà¤ĩà¤ĵà¤¨": 11530, "à¤Ĩà¤ĩà¤¸à¤²": 11531, "à¤īà¤µ": 11532, "à¤Łà¤°à¤ļ": 11533, "à¤¬à¤°à¤ª": 11534, "anpur": 11535, "à¤®à¤¨à¤ª": 11536, "Ġà¤¸à¤¹à¤¤": 11537, "Ġà¤ħà¤®à¤ľà¤¦": 11538, "Ġà¤ĩà¤¨à¤¹": 11539, "Ġfixed": 11540, "Ġbanner": 11541, "Ġbirth": 11542, "Ġpract": 11543, "Ġaward": 11544, "ĠMD": 11545, "Ġà¤Ŀà¤ªà¤Ł": 11546, "à¤®à¤²à¤¦": 11547, "à¤¨à¤µà¤ķ": 11548, "Ġà¤¸à¤¤à¤²à¤ľ": 11549, "ĠAlex": 11550, "ĠIATA": 11551, "à¤¸à¤¤à¤¤": 11552, "Ġà¥©à¥¨à¥¦": 11553, "à¤Ĩà¤Īà¤ıà¤¨à¤ıà¤¸": 11554, "Ġà¥¨à¥¦à¥©": 11555, "ĠData": 11556, "ĠUC": 11557, "ulated": 11558, "ĠBad": 11559, "Ġ1620": 11560, "Ġ1660": 11561, "apse": 11562, "Ġà¤Ĺà¤£à¤ª": 11563, "ĠLP": 11564, "ĠLes": 11565, "ĠLife": 11566, "à¤Ķà¤¸à¤¤à¤¨": 11567, "ĠRad": 11568, "ĠRaw": 11569, "ĠRoad": 11570, "Ġà¤¸à¤²à¤«": 11571, "Ġà¥ªà¥«à¥¦": 11572, "1850": 11573, "Ġà¤¸à¤ļà¤¦": 11574, "ocr": 11575, "à¤¦à¤µà¤Ī": 11576, "Ġseven": 11577, "Ġ237": 11578, "Ġà¤®à¤ķà¤¦": 11579, "107": 11580, "Ġ285": 11581, "Ġfront": 11582, "à¤§à¤µà¤Ĺà¤¢": 11583, "Ġcome": 11584, "ĠGames": 11585, "ourced": 11586, "Ġà¥¯à¥§à¥": 11587, "Ġenable": 11588, "Ġheat": 11589, "Ġà¤ħà¤ķà¤¬à¤°à¤ª": 11590, "Inst": 11591, "ailed": 11592, "Ġà¦ª": 11593, "Ġà¤°à¤¥à¤¯": 11594, "annel": 11595, "ervation": 11596, "Ġà¥§à¥®à¥¬à¥¯": 11597, "Ġà¥©à¥ªà¥¨à¥©": 11598, "Ġà¤Ĩà¤īà¤Łà¤°": 11599, "Ġelection": 11600, "ĠEnter": 11601, "What": 11602, "RCID": 11603, "Ġredirects": 11604, "Ġlevels": 11605, "ĠAmerica": 11606, "Ġleading": 11607, "Ġentered": 11608, "ĠDecember": 11609, "osphere": 11610, "Ġillust": 11611, "ĠBAFTA": 11612, "116": 11613, "130": 11614, "Like": 11615, "Not": 11616, "OI": 11617, "Script": 11618, "lation": 11619, "mission": 11620, "ois": 11621, "rical": 11622, "ture": 11623, "âµ": 11624, "Ġera": 11625, "à¤¾à¥ĵ": 11626, "à¤¨à¤°à¤®": 11627, "à¤²à¤¹à¤¸": 11628, "à¤ªà¤«": 11629, "Ġà¤ľà¤ľà¤®": 11630, "à¤Ĺà¤¸à¤®": 11631, "à¤Łà¤ķà¤²": 11632, "Ġà¤¬à¤Ĺà¤¡": 11633, "à¤¶à¤®à¤¶": 11634, "à¤§à¤ķà¤²": 11635, "à¤£à¤ĺ": 11636, "Ġà¤īà¤ĩà¤Ĺ": 11637, "Ġà¤ıà¤¹": 11638, "à¤ıà¤Łà¤®": 11639, "à¤Ńà¤¶": 11640, "à¤Īà¤Ĺà¤°": 11641, "à¤«à¤°à¤¸à¤¨": 11642, "Ġà¤Łà¤ļà¤¸": 11643, "à¤łà¤²à¤¨": 11644, "à¤ħà¤µà¤¨": 11645, "à¤¢à¤°à¤ª": 11646, "à¤¯à¤®à¤ķ": 11647, "à¤ĺà¤ľ": 11648, "à¤·à¤£à¤®": 11649, "à¤°à¤µà¤ļ": 11650, "Ġà¤Ĳà¤²à¤¨": 11651, "alid": 11652, "Ġca": 11653, "Ġà¤Ĩà¤°à¤ıà¤®": 11654, "à¤Ĺà¤²à¤¬": 11655, "Ġage": 11656, "ĠMA": 11657, "ĠMr": 11658, "oti": 11659, "lying": 11660, "à¤°à¤ľà¤ķ": 11661, "Ġà¤ıà¤¸à¤µ": 11662, "loid": 11663, "Ġhope": 11664, "Ġà¤Ńà¤°à¤¸à¤ķ": 11665, "Ġther": 11666, "ĠUFC": 11667, "ĠBy": 11668, "ĠNu": 11669, "ĠNBA": 11670, "ĠEle": 11671, "ĠHem": 11672, "eline": 11673, "utt": 11674, "utes": 11675, "Ġsty": 11676, "Ġ255": 11677, "isters": 11678, "à¤®à¤ļà¤Ł": 11679, "Ġorange": 11680, "à¤ıà¤«à¤ıà¤«": 11681, "ĠOffice": 11682, "Ġà¤¤à¤¨à¤ĸ": 11683, "ĠJag": 11684, "Ġconversion": 11685, "Ø§Øª": 11686, "ĠTheory": 11687, "ĠYork": 11688, "Ġà¤ªà¤¥à¤Ń": 11689, "Inv": 11690, "Ġ1808": 11691, "à´¤": 11692, "Ġà¥§à¥¦à¥§à¥": 11693, "Ġanything": 11694, "Ġcreates": 11695, "attle": 11696, "Ġamb": 11697, "Ġampl": 11698, "ĠEngland": 11699, "à¤ĩà¤ªà¤°à¤²": 11700, "Ġà¥§à¥®à¥Ńà¥©": 11701, "ĠØ§ÙĦÙħ": 11702, "clus": 11703, "Ġparty": 11704, "Ġà¤°à¤¤à¤¨à¤¸": 11705, "Ġactual": 11706, "ÐµÐ²": 11707, "vention": 11708, "Ġpoints": 11709, "à©°": 11710, "Ġbuild": 11711, "Ø§Ø¦": 11712, "Ġeasily": 11713, "Ġcolumns": 11714, "ĠServer": 11715, "Ġmaximum": 11716, "ĠmcBoto": 11717, "030": 11718, "Citation": 11719, "Dr": 11720, "HS": 11721, "Language": 11722, "Pre": 11723, "VA": 11724, "den": 11725, "ken": 11726, "oa": 11727, "pop": 11728, "rot": 11729, "Âº": 11730, "ÑĮ": 11731, "à¤°à¤ªà¤¨": 11732, "à¥įà¥į": 11733, "à¤Ĥà¥ĩ": 11734, "à¤¤à¤®à¤¨": 11735, "à¤ķà¤ļà¤°": 11736, "Ġà¤¹à¤°à¤¦à¤¯": 11737, "Ġà¤®à¤·": 11738, "à¤ªà¤µà¤¤": 11739, "Ġà¤ħà¤Łà¤°": 11740, "à¤ľà¤®à¤¨": 11741, "à¤£à¤®à¤¯": 11742, "Ġà¤Ķà¤«": 11743, "Ġà¤ļà¤¦": 11744, "Ġà¤ļà¤°à¤¸": 11745, "Ġà¤ĩà¤¸à¤¹": 11746, "à¤Ĩà¤«": 11747, "à¤īà¤°à¤ķ": 11748, "onstr": 11749, "à¤¯à¤®à¤°": 11750, "à¤¯à¤®à¤¤": 11751, "Ġà¤Īà¤§à¤¨": 11752, "Ġ204": 11753, "Ġ209": 11754, "Ġà¤ķà¤Īà¤¯": 11755, "Ġpipe": 11756, "Ġà¤ħà¤ªà¤¹": 11757, "à¤ªà¤ķà¤¡": 11758, "ĠTele": 11759, "Ġwin": 11760, "Ġdropdown": 11761, "asi": 11762, "ĠPM": 11763, "ĠPS": 11764, "ĠAward": 11765, "à¤ķà¤Łà¤ª": 11766, "agh": 11767, "Ġ880": 11768, "user": 11769, "Ġà¤¤à¤¬à¤¤à¤ķ": 11770, "Ġà¤Ńà¤°à¤¥à¤°": 11771, "Ġlab": 11772, "Ġà¥¨à¥¦à¥Ń": 11773, "ĠDem": 11774, "Ġ1740": 11775, "Ġ1739": 11776, "Ġ1768": 11777, "ikh": 11778, "ĠND": 11779, "ĠNor": 11780, "à¤ıà¤²à¤Ł": 11781, "à¤ķà¤®à¤ľ": 11782, "ĠKann": 11783, "Ġ243": 11784, "Ġparam": 11785, "Ġ223": 11786, "Ġà¤¨à¤ľà¤«": 11787, "rier": 11788, "170": 11789, "Ġà¥§à¥©à¥«": 11790, "Ġundef": 11791, "à¥¨à¥¦à¥§à¥¯": 11792, "ober": 11793, "Ġà¤®à¤łà¤µ": 11794, "à®¯": 11795, "à®µ": 11796, "Ġà¤°à¤£à¤Ń": 11797, "Ġdesired": 11798, "Ġsolution": 11799, "Ġà¥§à¥§à¥§à¥": 11800, "ĠShah": 11801, "Ġoutside": 11802, "Ġà¤Ĩà¤¸à¤¨à¤¸": 11803, "à¥§à¥¯à¥®à¥¨": 11804, "ĠTrack": 11805, "ĠØ§ÙĦÙĦÙĩ": 11806, "ĠCOVID": 11807, "à¤¤à¤°à¤¤à¤®": 11808, "Ġá»": 11809, "Ġà¨¸": 11810, "ĠÚ©ÛĴ": 11811, "Ġlaws": 11812, "Ġconcent": 11813, "anji": 11814, "EEE": 11815, "Ġmovement": 11816, "tained": 11817, "ĠIntel": 11818, "ĠElectron": 11819, "ĠNTFS": 11820, "Ġissue": 11821, "Ġcovered": 11822, "Ġmeaning": 11823, "Ġprimary": 11824, "Ġimprove": 11825, "ĠDistrict": 11826, "Ġcourse": 11827, "ĠWikipedias": 11828, "âĺħ": 11829, "Ġà¥¦à¥¨à¥¯à¥¨à¥Ń": 11830, "Fair": 11831, "GF": 11832, "UM": 11833, "fox": 11834, "pa": 11835, "ranslate": 11836, "uous": 11837, "Ïī": 11838, "Ġà¤¸à¤ľà¤¨": 11839, "à¤®à¤¬à¤²": 11840, "Ġà¤ªà¤²à¤¨": 11841, "à¤§à¤§à¤°": 11842, "Ġà¤Ńà¤°à¤¦": 11843, "à¤ıà¤Ĩà¤°": 11844, "Ġà¤ıà¤ķà¤µà¤°": 11845, "Ġà¤¥à¤¨": 11846, "Ġà¤¸à¤®à¤ľ": 11847, "à¤°à¤£à¤ķ": 11848, "à¤°à¤ķà¤¶": 11849, "Ġà¤ĸà¤ľà¤°": 11850, "à¤ªà¤°à¤ª": 11851, "inus": 11852, "ano": 11853, "à¤ĺà¤µà¤°": 11854, "Ġà¤ĵà¤¨à¤²": 11855, "Ġà¤Ĳà¤µ": 11856, "Ġà¤¸à¤°à¤¬à¤ľ": 11857, "Ġ460": 11858, "à¤ķà¤¨à¤Ĺà¤°": 11859, "à¤°à¤¨à¤°": 11860, "Ġmal": 11861, "asing": 11862, "ĠAE": 11863, "enth": 11864, "Ġ1729": 11865, "à¤ķà¤¡à¤®": 11866, "plies": 11867, "Ġà¤ħà¤¦à¤¬": 11868, "cha": 11869, "chi": 11870, "ĠFre": 11871, "tha": 11872, "Ġà¤Ńà¤µà¤Ń": 11873, "à¤¨à¤ªà¤Ł": 11874, "à¤ķà¤µà¤ļ": 11875, "ĠKn": 11876, "Ġ234": 11877, "Ġ239": 11878, "ĠOC": 11879, "à¤Ĺà¤£à¤¤": 11880, "à¤Ĺà¤£à¤ªà¤¤": 11881, "à¤²à¤Ńà¤¦": 11882, "andom": 11883, "Ġitalic": 11884, "Ġ278": 11885, "Ġnotes": 11886, "ecause": 11887, "Ġà¤Ĩà¤¦à¤®à¤ĸ": 11888, "Ġ802": 11889, "à¤ļà¤®à¤¢": 11890, "iance": 11891, "Ġlearn": 11892, "Ġens": 11893, "Ġà¤ĵà¤µà¤°à¤¸": 11894, "Ġcontest": 11895, "Ġcolors": 11896, "Ġabsolute": 11897, "Ġsubpages": 11898, "à²¤": 11899, "aja": 11900, "ĠThere": 11901, "Ġà¤ħà¤µà¤²à¤®": 11902, "ĠÐ¡": 11903, "ÙĬØ©": 11904, "à¥§à¥¯à¥®à¥Ń": 11905, "à¥§à¥¯à¥®à¥¬": 11906, "Ġà¥§à¥®à¥Ńà¥§": 11907, "criptions": 11908, "Ġá¼": 11909, "Ġmarath": 11910, "Ġelectric": 11911, "Ġcaption": 11912, "ĠSea": 11913, "Ġknowledge": 11914, "Ġà¤®à¤ĸà¤®à¤²": 11915, "Arguments": 11916, "Ġswitch": 11917, "ĠAcade": 11918, "holder": 11919, "Ġlicense": 11920, "ospital": 11921, "'re": 11922, "1000": 11923, "450": 11924, "Aut": 11925, "Call": 11926, "Eng": 11927, "SH": 11928, "gest": 11929, "rich": 11930, "Î´": 11931, "Ġë": 11932, "à¤¨à¤µà¤ª": 11933, "à¤ķà¤¶à¤¨": 11934, "à¤ķà¤¢": 11935, "à¤ķà¤¦à¤²": 11936, "Ġà¤¹à¤²à¤¸": 11937, "à¥Īà¥Īà¤Ĥ": 11938, "à¤Ĺà¤¬à¤²": 11939, "Ġà¤µà¤¸à¤²": 11940, "à¤Łà¤Ĩà¤īà¤Ł": 11941, "à¤ľà¤ĺ": 11942, "Ġà¤¨à¤Ĺà¤®": 11943, "Ġà¤Ĺà¤¹à¤¨à¤¤": 11944, "Ġà¤Ĩà¤Ĺà¤¤": 11945, "Ġà¤ĩà¤¡à¤²": 11946, "à¤Īà¤ĺà¤°": 11947, "à¤Īà¤ĳà¤ķ": 11948, "à¤ĩà¤ĸ": 11949, "à¤µà¤°à¤¦": 11950, "Ġà¤¡à¤Łà¤ķà¤°": 11951, "Ġà¤¡à¤µà¤²à¤ªà¤®": 11952, "à¤ľà¤¨à¤¦": 11953, "à¤ľà¤¨à¤ķà¤°": 11954, "Ġà¤Ľà¤ªà¤µ": 11955, "Ġà¤²à¤Ĺà¤ķà¤°": 11956, "à¤Ĺà¤°à¤ľ": 11957, "à¤¸à¤®à¤¬à¤°": 11958, "à¤¼à¤¿âĢį": 11959, "Ġsa": 11960, "Ġsitu": 11961, "à¤ªà¤¤à¤²": 11962, "Ġà¤¦à¤°à¤ĸ": 11963, "à¤ķà¤°à¤£à¤®": 11964, "à¥įâĢįà¤¾": 11965, "Ġà¤ªà¤¡à¤°": 11966, "ĠTal": 11967, "ĠMoh": 11968, "reme": 11969, "ĠSome": 11970, "Ġnever": 11971, "à¤®à¤²à¤Ī": 11972, "ĠCF": 11973, "oud": 11974, "ĠPos": 11975, "otrop": 11976, "à¤ĩà¤¡à¤¨": 11977, "à¤ĩà¤¡à¤¬": 11978, "Ġà¤īà¤²à¤®": 11979, "Ġà¤Ĩà¤¸à¤µ": 11980, "Ġ1545": 11981, "Ġspir": 11982, "Ġli": 11983, "Ġled": 11984, "à¤Ĩà¤Īà¤¯": 11985, "à¤Ĩà¤Īà¤ıà¤«": 11986, "ĠDate": 11987, "ĠUl": 11988, "Ġ1786": 11989, "à¤Ĳà¤ª": 11990, "ĠBur": 11991, "Ġ1605": 11992, "ĠNOT": 11993, "ĠHead": 11994, "ĠRem": 11995, "1899": 11996, "1885": 11997, "à¤²à¤Ĺà¤ĩà¤¨": 11998, "Ġà¥§à¥®à¥§à¥®": 11999, "Ġren": 12000, "Ġrating": 12001, "Ġstop": 12002, "abil": 12003, "Ġà¤ħà¤¶à¤«": 12004, "Ġseason": 12005, "à¤ħà¤®à¤°à¤ķ": 12006, "andi": 12007, "Ġexplicit": 12008, "Ġnotranslate": 12009, "ĠJh": 12010, "artment": 12011, "Ġadap": 12012, "plex": 12013, "ĠXV": 12014, "Ġfonts": 12015, "okia": 12016, "Ġà¤ħà¤µà¤¤à¤²": 12017, "Ġjud": 12018, "ĠYear": 12019, "Ġà¤ħà¤¸à¤°à¤Ĺ": 12020, "onda": 12021, "ĠArmy": 12022, "anna": 12023, "Ġà¥§à¥®à¥®à¥¨": 12024, "rown": 12025, "Ġà¥§à¥®à¥«à¥¯": 12026, "hara": 12027, "Ġreturned": 12028, "Ġà¤®à¤¯à¤ĸ": 12029, "ĠCommittee": 12030, "Ġelectro": 12031, "à¥§à¥¯à¥©à¥¦": 12032, "Ġmanagement": 12033, "Ġprocessing": 12034, "Ġlooks": 12035, "ĠBCE": 12036, "à¤ıà¤ıà¤ıà¤«": 12037, "ĠXXX": 12038, "ĠØ¹Ø¨": 12039, "Ġeveryone": 12040, "Ġcycle": 12041, "tipon": 12042, "tipoff": 12043, "Ġà¤Ĺà¤¹à¤®à¤°": 12044, "ĠCharles": 12045, "callback": 12046, "ĠNYSE": 12047, "Ġonmouseout": 12048, "Ġonmouseover": 12049, "ĠVisual": 12050, "Ġdefinition": 12051, "ĠHPV": 12052, "Ġalphabetical": 12053, "unjab": 12054, "Ġterrit": 12055, "ĠJoseph": 12056, "ĠNapster": 12057, "Ġnbsp": 12058, "'m": 12059, "790": 12060, "BE": 12061, "Hg": 12062, "Hatnote": 12063, "LP": 12064, "Location": 12065, "Names": 12066, "Option": 12067, "Reg": 12068, "Sy": 12069, "find": 12070, "sis": 12071, "Î¸": 12072, "Ñħ": 12073, "ÙĴ": 12074, "ðĿ": 12075, "ĠÛ": 12076, "à¤¸à¤µà¤¨": 12077, "à¤¸à¤ĳà¤°": 12078, "à¤²à¤¤à¤°": 12079, "à¤¦à¤¯à¤¨": 12080, "Ġà¤ľà¤Ĺà¤°": 12081, "à¤Ĺà¤¬à¤¹": 12082, "Ġà¤ħà¤ľà¤¬": 12083, "à¤ľà¤²à¤¸": 12084, "à¤·à¤ļà¤°": 12085, "à¤£à¤µà¤°": 12086, "à¤£à¤Ńà¤ķ": 12087, "Ġà¤¶à¤Ĺ": 12088, "Ġà¤ıà¤ķà¤²à¤µ": 12089, "à¤°à¤¤à¤ª": 12090, "Ġà¤ħà¤¨à¤ļ": 12091, "à¤ħà¤²à¤¬": 12092, "à¤°à¤¦à¤ľ": 12093, "Ġtreat": 12094, "Ġtrade": 12095, "à¤¯à¤¤à¤ķ": 12096, "à¤ĩà¤¨à¤«": 12097, "atives": 12098, "à¤¦à¤°à¤¨": 12099, "Ġsus": 12100, "à¤Ŀà¤¬": 12101, "Ġak": 12102, "Ġà¤¹à¤®à¤ľ": 12103, "Ġ560": 12104, "Ġ570": 12105, "ĠTar": 12106, "ĠTwinkle": 12107, "Ġdatabase": 12108, "ĠMIT": 12109, "ĠSol": 12110, "amine": 12111, "ĠCre": 12112, "à¤®à¤°à¤²": 12113, "Ġà¤¨à¤µà¤ķ": 12114, "ager": 12115, "omi": 12116, "à¤¯à¤ªà¤°à¤ķ": 12117, "emia": 12118, "à¤®à¤¸à¤Ń": 12119, "Ġho": 12120, "Ġhapp": 12121, "Ġà¥©à¥©à¥¦": 12122, "lutions": 12123, "Ġthorough": 12124, "ĠDirect": 12125, "ĠUP": 12126, "Ġ1791": 12127, "ully": 12128, "ĠEPA": 12129, "ĠHow": 12130, "ĠRT": 12131, "ĠFirst": 12132, "à¤ıà¤¨à¤ıà¤¸à¤ıà¤¸": 12133, "Ġstory": 12134, "irr": 12135, "à¤ĩà¤®à¤Ł": 12136,
[...]
