#version: 0.2 - Trained by `huggingface/tokenizers`
à ¤
à ¥
Ġ à¤
à¤ ¾
Ġ t
h e
Ġ a
à¤ °
à¥ į
i n
à¥ ĩ
Ġt he
Ġ ,
e r
à¤ ¿
o n
Ġà¤ ķ
à¤ Ĥ
r e
à¥ Ģ
à¤ ¨
à¤ ¤
Ġ s
e d
Ġ w
Ġ o
Ġ .
n d
à¤ ķ
a t
o r
e n
à¤ ¯
Ġ c
à¥ ĭ
i t
Ġ f
i s
e s
a r
Ġ b
a n
Ġo f
Ġ in
a l
à¤ ¸
à¤ ²
Ġà¤ ¸
in g
Ġ p
a s
Ġa nd
Ġà¤ ¹
à¤ ®
Ġt o
i c
Ġà¤ ®
r o
Ġ m
à¤ µ
Ġà¤ ª
Ġ d
à¥ Ī
Ġ h
i on
l e
à¤ ¹
Ġ Ċ
Ġ "
o u
à¥ ģ
Ġ T
Ġ à¥
Ġ 1
Ġ =
à¤ ¦
à¤ ª
Ġ re
Ġ S
Ġà¥ ¤
à¥ĩ à¤Ĥ
i l
Ġ A
en t
Ġt h
s t
Ġà¤ ľ
à¤ Ĺ
Ġ C
e l
Ġ l
Ġ @
o m
Ġ e
a m
Ġ n
a c
Ġà¤ ħ
a d
Ġà¤ µ
à¤ Ł
Ġ M
Ġw as
Ġ '
à¤ ľ
Ġ B
e c
Ġ on
ĠT he
l y
à¥ Ĥ
u r
Ġà¤ ¨
Ġà¤ ¬
e t
i d
o l
Ġ )
Ġ g
Ġ (
Ġ I
i m
à¤ ¶
Ġ 2
Ġf or
- @
Ġ@ -@
à¥ĭ à¤Ĥ
i g
Ġà¤ ¦
i r
o t
i v
t er
Ġ H
u t
Ġà¤ °
à¤ ·
u s
Ġa s
à¤ ¡
o w
à¤ ¬
it h
a y
Ġ P
à¤ §
Ġà¤ ²
Ġs t
Ġ he
v er
at ion
Ġw ith
à¤ ¥
Ġb e
Ġ R
Ġth at
Ġ D
à¤ £
c e
Ġà¤ Ĺ
Ġà¤ Ķ
u n
à¤ ļ
e m
Ġà¤ ī
Ġà¤Ķ à¤°
Ġ W
Ġ1 9
Ġw h
Ġ F
c h
Ġb y
Ġà¤ ı
0 0
t h
Ġa l
Ġà¤ Ń
u l
Ġ L
à¤ ¼
Ġ G
Ġ is
Ġc on
er s
c t
Ġa t
Ġ N
Ġà¤ ¤
à¤ ı
r a
o s
Ġa n
Ġ it
he r
ro m
u m
a nd
Ġ J
Ġà¤ Ĩ
es t
a g
Ġ E
Ġh is
a v
a in
r i
o d
à¤ Ń
Ġà¤ ¶
Ġà¤ķ à¤°
à¥Ī à¤Ĥ
Ġ O
Ġf rom
à¤ ĸ
Ġà¤ª à¤°
is t
Ġà¤ ĩ
Ġc om
Ġà¤ ¯
Ġà¤ı à¤ķ
Ġ v
Ġp ro
o p
il l
i f
o re
l d
u p
Ġ r
Ġà¤ ¥
Ġ -
e w
ig h
â Ģ
er e
re s
ĠI n
i es
Ġd e
ar t
ar d
b er
or t
à¤ Ī
at e
Ġs e
à¤ ĩ
ic h
Ġw ere
a k
al l
o c
u d
a p
an t
q u
Ġe x
Ġ âĢ
a b
on g
Ġo r
Ġ K
Ġc h
Ġà¤ ļ
g h
e ar
es s
at ed
Ġs h
i p
Ġp l
it y
Ġ U
iv e
am e
à¤° à¤¤
ec t
Ġh ad
ac k
à¤¾ à¤Ĥ
Ġ :
ĠS t
Ġs u
s e
as t
Ġ k
re d
g e
ou r
Ġwh ich
m ent
Ġ le
u nd
Ġ 3
Ġa re
o v
i an
Ġs p
i al
Ġn ot
Ġ y
à¤ «
el l
Ġ2 00
Ġ2 0
o st
igh t
i a
Ġà¤¸ à¤®
or d
u st
ar y
in e
p t
t her
r it
Ġà¤ĩ à¤¸
ou n
ic al
p p
à¥ ĥ
à¤ª à¤¨
av e
ĠC h
à¥ Į
Ġ ;
Ġà¤ «
Ġ un
Ġin c
c c
à¤ ģ
Ġ V
Ġà¤ħ à¤¨
f ter
ou ld
Ġb ut
is h
ir st
à¤¤ à¤°
ou s
t e
ion s
f f
s o
Ġcom p
à¥ ī
id e
u re
Ġa r
Ġ ro
Ġw he
u b
Ġ 4
o g
Ġcon t
ĠâĢ ĵ
Ġc l
à¤° à¤£
ig n
i e
as s
Ġ 5
Ġf irst
u e
w o
or m
r y
Ġ20 1
Ġhe r
Ġit s
Ġthe ir
Ġà¤Ĺ à¤¯
o k
or k
Ġin t
Ġre s
à¤° à¤ķ
ĠH e
Ġal so
at er
Ġa b
Ġa d
Ġà¤ ĸ
Ġ1 8
on d
r an
om e
ou t
Ġ us
ag e
i re
m er
r u
he d
p l
d u
Ġà¤ī à¤¨
l ow
p er
Ġp er
im e
à¤¸ à¤ķ
ĠT h
Ġh ave
Ġwh o
Ġon e
Ġs c
al ly
à¥Ģ à¤Ĥ
ow n
i le
Ġre c
t ed
. @
Ġ@ .@
it ion
Ġt wo
i z
u gh
l ud
à¤¿ à¤Ĥ
re e
en ce
ic e
t s
p ort
ur ing
Ġp art
Ġbe en
Ġh as
ĠA l
Ġb ec
Ġa g
Ġa pp
Ġ j
Ġ en
Ġth is
ou gh
, @
Ġ@ ,@
Ġd is
ct ion
à¤ Ĩ
k e
or y
Ġo ver
à¤µ à¤°
Ġs er
ation s
à¤¾ à¤ģ
el y
Ġy ear
re n
ac h
ou nd
em ber
r ic
Ġ 6
Ġof f
Ġà¤ķà¤° à¤¨
Ġ up
Ġa fter
ac e
Ġd es
l and
ar k
Ġinc lud
Ġpl ay
ĠI t
an ce
o ver
à¤ķ à¤°
Ġà¤ Ł
Ġt e
Ġo ut
Ġà¤¯ à¤¹
Ġthe y
Ġm an
ac t
i b
ad e
Ġo ther
Ġà¤ħ à¤ªà¤¨
ul t
Ġ im
m an
p h
Ġ Y
à¤ ī
Ġà¤° à¤¹
res s
ur n
en s
Ġà¤ ¡
c ed
in d
Ġ 7
w n
Ġw ould
à¤° à¤®
on e
Ġ /
Ġt ime
Ġp re
à¤ ĵ
Ġw e
Ġint o
it e
ĠU n
v el
Ġà¤ħ à¤§
ĠO n
at es
w ard
o in
w e
Ġh im
à¤ ł
à¤ Ľ
l es
e nd
Ġà¤¬ à¤¨
Ġs he
ab le
Ġe v
Ġn e
Ġà¤µ à¤°
as e
il m
Ġat t
as ed
it ed
am p
Ġ 8
i ed
or s
Ġcom m
à¤¯ à¤ķ
Ġin ter
a re
an g
Ġà¤ķà¤° à¤¤
ro ugh
o y
e p
f orm
on s
oun t
Ġ 9
Ġal l
os e
Ġm ore
Ġ19 9
c es
o od
Ġw ork
a il
ol d
a w
à¤ľ à¤¨
er ed
à¤¼ à¤¾
ing s
à¤ĩ à¤¸
ĠA n
v e
il d
à¤ ħ
Ġn ew
à¤° à¤¸
Ġs ec
Ġb et
Ġà¤ª à¤¹
Ġà¤¸ à¤ķ
Ġà¤® à¤¹
Ġà¤ §
Ġà¤¨ à¤¹
Ġà¤ī à¤¤
Ġwhe n
in al
Ġf e
ic k
Ġf ilm
v i
à¥ ¦
ent s
f t
f er
ĠS e
w ay
at t
is s
a us
g an
ri b
re at
ĠM ar
ĠA r
Ġcon s
ro und
ak e
Ġre m
Ġt r
à¤° à¤¦
v ed
Ġd ec
an s
as on
à¤¯ à¤¹
Ġà¤ī à¤ª
Ġ und
or th
Ġd uring
ub l
h ip
ĠA s
Ġag ain
Ġm ost
Ġon ly
ot h
at h
Ġp r
Ġg ame
o b
Ġthe m
i x
ol low
we en
Ġe ar
Ġth an
00 0
Ġc ent
ro p
ation al
Ġs up
à¤ª à¤°
Ġc an
u g
ter n
f ore
Ġab out
ĠN ew
Ġpro du
Ġre t
e y
Ġk n
Ġch ar
Ġc ol
Ġs ong
§ à¥
Ġà¤¤ à¤¥
ou th
Ġbet ween
Ġ qu
or n
Ġl ater
Ġund er
Ġre le
h n
ic t
t on
Ġth ree
Ġ1 0
r on
Ġà¤ķ à¤¹
à¤¸ à¤°
Ġa ct
al s
ĠE n
Ġn um
o ok
Ġ 0
or ld
Ġth rough
Ġs o
Ġà¤ľ à¤¨
Ġm e
oc k
Ġà¤¤ à¤ķ
Ġa cc
Ġre l
à¤Ł à¤°
Ġe nd
à¤¶ à¤¨
Ġ ra
Ġwh ile
le ct
Ġà¤ ĺ
à¤µ à¤¤
mer ic
à¤¨ à¤ķ
ĠL e
Ġf l
ter s
ĠA meric
à¤ ¢
Ġsu b
Ġp os
r al
ul ar
Ġ ]
e ver
Ġà¤ Ľ
Ġas s
at ing
Ġ ver
Ġwhe re
am es
c k
Ġre g
en er
ĠC om
Ġd ay
Ġsec ond
Ġfor m
Ġà¤¸à¤ķ à¤¤
Ġb u
a id
ĠR e
is ion
à¤¹ à¤°
Ġm ade
he s
Ġp e
iv ed
Ġ1 7
Ġde f
Ġrec ord
s on
Ġf ollow
Ġg ro
Ġà¤² à¤Ĺ
b um
Ġf our
Ġà¤ī à¤¸
Ġs ome
Ġse ason
Ġ 000
à¤¯ à¤¨
Ġsu ch
Ġa m
Ġe p
o ol
à¤¼ à¥Ģ
Ġà¤īà¤¨ à¤ķ
is hed
Ġm ov
à¤° à¤¹
Ġ1 5
Ġbe fore
ĠS p
Ġthe re
he n
Ġt ra
ic s
Ġm us
Ġw rit
Ġsp ec
à¤² à¤¨
i o
Ġ19 8
i el
i ke
od e
Ġs y
ĠJ o
Ġà¤ħ à¤²
Ġ1 2
u al
Ġyear s
Ġte am
ĠA t
Ġin d
id ent
ĠTh is
Ġus ed
ĠS h
Ġl ar
ro s
n ing
Ġal bum
il y
ow ever
Ġh igh
an k
Ġ ent
à¤Ĺ à¤°
i k
if ic
Ġc all
à¤¬ à¤°
Ġs ur
Ġa c
Ġ [
Ġb l
ur y
Ġp ubl
Ġà¤µ à¤¹
Ġbe ing
Ġd o
Ġthe n
Ġep is
a j
ain ed
t en
l ed
Ġl oc
Ġex p
vel op
if e
Ġ19 4
r is
Ġin v
à¤µ à¤¨
Ġagain st
Ġad d
Ġnum ber
Ġp res
Ġ1 6
Ġà¤ªà¤¹ à¤²
Ġsh ow
ot her
à¤² à¤¤
Ġchar ac
ĠâĢ Ķ
i ous
Ġs et
j ect
ĠA fter
à¤¸ à¤®
Ġse ver
Ġc o
Ġ19 7
à¤¯ à¤®
à¤ ŀ
e k
in ce
ar s
aus e
Ġn o
ran s
Ġre ce
Ġbec ame
ĠB rit
Ġle ad
Ġs ing
in es
Ġper form
in s
at her
Ġinclud ing
Ġ1 1
à¤¯ à¤°
a ir
Ġ19 6
Ġb ack
Ġà¤ Ī
Ġf ound
al e
Ġm on
ĠUn ited
Ġre p
ĠS c
Ġw ell
Ġp ol
i er
Ġb oth
Ġc ap
à¤¸ à¤¨
r am
Ġser ies
ĠC on
it s
o ber
ow er
em ent
Ġg o
er t
Ġ %
i red
u res
Ġsh ip
le y
p en
ĠW h
iv ers
Ġm ain
à¤ ĺ
ĠS he
Ġm in
i et
ol og
d er
v en
over n
Ġc re
Ġd id
Ġm et
Ġà¥ §à¥
à¤Ĺ à¤¤
el f
Ġim p
ĠEn g
a z
l l
à¤¼ à¤¿
it ies
à¤¯ à¤¤
er m
Ġde velop
Ġà¤ķ à¤®
Ġl ong
Ġà¤¬ à¤¹
an y
iv er
t ing
is ed
an n
u ch
Ġe m
an e
a red
f ul
ir d
Ġ1 3
à¤· à¤£
ĠJo hn
ire ct
Ġm at
Ġm ill
Ġa ir
te nd
à¤ļ à¤¨
Ġepis ode
at ive
ĠI nd
ut e
a h
as h
Ġst ud
Ġman y
Ġs aid
Ġb ro
Ġde p
Ġc ar
Ġc ould
ĠC l
Ġw ar
Ġor ig
iel d
Ġd if
Ġcont in
Ġin st
Ġsever al
ĠAmeric an
is e
th ough
ou se
Ġp op
em b
t y
Ġkn own
u ally
Ġan y
Ġà¤¸ à¤¬
Ġcon c
à¤² à¤¯
t il
ĠA ust
i am
à¤® à¤¨
Ġ Z
Ġret urn
ers on
vi ew
Ġà¤ĩà¤¸ à¤ķ
Ġo b
er n
Ġs m
Ġar t
ĠD e
ĠW ar
Ġdes ign
Ġà¤ī à¤¸à¤ķ
u ed
Ġcomp le
er man
Ġ1 4
à¤ĩ à¤¨
Ġt rans
Ġbe gan
is m
Ġdes c
Ġs ign
à¤® à¤ķ
op le
ros s
ch ool
m y
Ġpro v
Ġin f
o ot
Ġà¤ı à¤µ
à¤° à¤¯
Ġ est
cc ess
ĠB l
Ġfe at
ak ing
Ġ $
an c
Ġ19 5
id ed
Ġr un
ĠU S
Ġd ist
a x
iz ed
Ġear ly
à¤¦ à¤°
Ġà¤ ĵ
Ġo wn
Ġmus ic
Ġn ear
x t
Ġrele ased
ĠC ol
Ġcall ed
Ġe ff
Ġun til
Ġb el
ist s
à¤ĩ à¤¸à¤ķ
st em
im es
r id
Ġres p
Ġp h
un e
en n
Ġp ass
u red
Ġà¤¸à¤® à¤¯
Ġf in
ut ion
Ġà¤Ĩ à¤§
ial ly
ĠM ay
Ġdis c
Ġd own
ment s
Ġà¤ħ à¤°
Ġà¤ ĳ
Ġg ener
Ġc rit
in k
i um
os ed
Ġd irect
Ġin s
ul l
g er
Ġal ong
e b
Ġm ay
Ġmill ion
Ġgro up
Ġm od
v ent
Ġà¤¸ à¤¹
à¤¼ à¥ĩ
Ġ19 3
Ġoff ic
ĠBrit ish
ĠG erman
Ġthe se
Ġf am
Ġà¥ ¨
Ġà¤ħ à¤Ń
ce pt
Ġus e
an ge
aj or
ĠA d
à¤° à¤µ
Ġo pen
u c
Ġm il
Ġp oin
ĠB e
Ġs im
à¤µ à¤¸
à¤¤ à¤¨
Ã ©
g g
y p
Ġhis t
Ġl and
Ġà¤ħ à¤®
ĠA ug
Ġg overn
er v
ĠSe pt
ib le
Ġsu ccess
et s
y s
Ġc ount
Ġs ame
ĠSept ember
Ġà¤ Ĳ
ĠAug ust
Ġg u
ĠW orld
ĠA p
Ġcl ass
Ġo per
ĠSt ates
à¤Ł à¤¨
Ġ ed
Ġatt ack
Ġ19 1
Ġpe ople
am ed
ĠI s
ward s
ac ed
Ġdesc rib
Ġbec ause
Ġà¤ķ à¤Ī
ĠF or
el s
Ġcharac ter
Ġl ike
ĠAl l
Ġ Q
Ġv i
Ġser v
Ġà¤¸ à¤°
Ġà¤¸ à¤Ń
ĠP l
g ed
ĠJ u
ĠF ran
Ġst art
Ġà¤ĩ à¤¨
r ing
u es
Ġà¤Ĩ à¤¦
Ġa round
n er
Ġth ough
Ġk m
Ġcon st
ru ct
Ġw in
ĠP h
ov e
Ġo cc
Ġfollow ing
Ġto ok
av ing
Ġsup port
ĠAust ral
ĠO ct
Ġb att
Ġan n
Ġ3 0
Ġà¤ª à¤¤
Ġe le
Ġsy stem
ĠN ov
us s
ĠC ar
Ġà¤ľ à¤¬
Ġn orth
Ġs ix
Ġapp ear
o x
ĠH owever
in ed
Ġw ill
Ġf inal
Ġrece ived
Ġhe ad
en e
iv es
à¤ª à¤¤
Ġ2 5
ĠP ro
r ad
ant s
Ġcons id
ical ly
à¤ķ à¤²
ĠOct ober
il ity
Ġp rom
re t
Ġ >
l ing
Ġa ut
ĠD ec
Ġà¤¬ à¤¡
Ġe ver
g in
Ġe ach
Ġv ar
Ġst ate
Ġbu ild
Ġex t
¯ à¥
g et
ro l
Ġà¤° à¤ĸ
an u
r ist
Ġf ive
Ġsm all
Ġcent ury
ĠY ork
Ġpart ic
Ġare a
at ely
os s
Ġà¤¸à¤¬ à¤¸
ĠThe y
ect ion
Ġl ife
ĠN orth
ĠM e
iv ing
r il
Ġre port
Ġ19 2
Ġà¤ī à¤¦
in a
Ġre f
à¤ ĥ
t le
ore d
Ġà¤Ĺ à¤ı
à¥ģ à¤Ĥ
ian s
ĠB y
ĠJ une
ord ing
Ġm ar
Ġc ity
à¤¤ à¤ķ
à¤µ à¤²
ĠK ing
p ed
Ġà¤Ĺ à¤Ī
iss ion
Ġcon f
Ġm ajor
Ġpubl ic
Ġà¤¦ à¤°
Ġwe ek
in c
ĠH ar
ĠJu ly
m ed
Ġb and
ĠCom m
à¤® à¤¤
à¥į âĢ
ĠNov ember
ra ph
ur ch
Ġm ed
Ġre st
p or
l ish
Ġw orld
ĠW ill
Ġs ince
b le
Ġsing le
es p
Ġd et
ra ft
à¤¡ à¤²
o ard
om et
ain s
ion al
Ġj ust
ĠAp ril
ĠM c
ri ed
ur al
Ġà¤ķ à¤²
ĠMar ch
Ġl ast
ect ed
Ġhe l
ĠE d
Ġà¤Ĩ à¤¯
c l
Ġal low
Ġp o
he st
a im
à¤ Ŀ
iv ely
i ent
Ġt urn
à¤ķ à¤°à¤£
il t
ĠC an
Ġle ft
Ġ if
ĠG e
à¤¤ à¤®
Ġdif fer
vi ous
Ġl ine
at s
à¤° à¤Ń
ĠI I
Ġ Â
Ġlar ge
if ied
Ġn ow
al es
ĠS outh
Ġst r
Ġc are
Ġs outh
Ġad v
Ġver s
Ġb ook
Ġd r
ĠD uring
Ġs l
em pt
Ġn ame
Ġs chool
Ġth ird
ag ue
ĠDec ember
Ġmon th
Ġt it
Ġà¤® à¤¨
Ġinc re
av y
ĠP r
ag es
à¤¶ à¤ķ
Ġapp ro
Ġà¤Ĩ à¤°
ro w
Ġd ue
Ġp ort
Ġm uch
Ġan other
Ġev ent
à¤¦ à¤¨
Ġwh at
Ġplay ed
. .
Ġinclud ed
n e
Ġpl ace
ro te
ĠJ anu
ĠJanu ary
Ġb ased
Ġsh ort
on y
Ġex pl
ren t
Ġp erson
p s
on t
Ġ1 00
Ġgovern ment
Ġ2 1
Ġp ar
Ġe lect
b all
ĠW hen
Ġw rote
Ġtr ack
p le
Ġb re
à¤Ĺ à¤²
Ġà¤ª à¤¦
Ġo ld
ap an
ĠE u
al f
Ġc amp
ĠO r
Ġpro t
o ad
ent ly
Ġde ath
Ġen g
i ence
Ġ201 0
b y
ĠJ apan
Ġ. ..
Ġre qu
Ġl it
Ġw on
Ġ200 8
Ġch ild
Ġà¤ħ à¤ķ
Ġpro g
Ġà¤ħ à¤µ
od y
à¤ī à¤¨
Ġp ower
it al
ĠT e
ide o
Ġk ill
Ġv is
Ġst ory
Ġà¤¸ à¤¦
ot t
ĠB ro
à¥įâĢ į
Ġre view
en g
à¤µ à¤¹
Ġ200 9
Ġà¤īà¤ª à¤¯
Ġh ome
Ġl ed
Ġr ight
om an
Ġ2 4
Ġfam ily
y l
Ġpre vious
Ġdescrib ed
Ġw ay
ra nd
Ġg un
ĠâĢ Ļ
re en
Ġn amed
Ġm ake
iv en
i od
ĠM us
Ġd em
t ain
c y
il ar
ur ther
Ġor gan
Ġev en
ĠG u
Ġm en
is ter
emb ers
ivers ity
om in
Ġre pl
Ġatt empt
Ġb est
it ions
à¥¦ à¥
Ġc our
i or
iv ision
Ġo pp
Ġt erm
Ġle g
et er
Ġ2 2
Ġ200 7
ren ch
Ġpos s
ĠA nd
Ġh and
s h
iv al
m p
Ġg ames
ĠF l
ac hed
Ġver y
Ġà¤ Ĭ
Ġcomm and
Ġinclud e
Ġth ose
Ġto p
Ġà¤Ĩ à¤µ
Ġbel ie
Ġd am
Ġl ist
ĠH is
ĠN ational
ĠEu rop
Ġ &
ĠF eb
Ġis s
Ġst ill
Ġ X
Ġ201 1
ru ary
ĠFeb ruary
en ces
Ġeff ect
Ġvi ew
Ġne xt
Ġspec ies
Ġà¤ħ à¤¤
ĠCh rist
ri end
oc i
c hed
at ure
al k
Ġsp e
ĠThe re
ak en
Ġorig inal
ĠW e
Ġy ou
Ġw ater
l u
Ġà¤ħ à¤¸
a u
Ġadd ition
n ess
ĠB ar
Ġj oin
Ġm ark
Ġper iod
ĠEurop e
à¤§ à¤¨
h or
ĠA m
a f
Ġwith in
Ġà¤ħ à¤ª
Ġ2 3
Ġc ur
Ġm embers
ĠP ar
Ġex per
Ġde b
Ġbu ilt
Ġà¤Ī à¤¸
Ġà¤¤ à¤°à¤¹
Ġhe ld
ĠF rench
Ġà¤Ĩ à¤¤
Ġrele ase
re w
Ġmat ch
Ġg reat
Ġal though
Ġfor mer
Ġl ate
rid ge
n ey
a ugh
ut ed
tend ed
Ġd est
Ġs old
l ine
Ġà¤ª à¤¶
Ġt em
ec h
Ġv ideo
Ġc aus
ĠW est
Ġc over
pt ion
v es
Ġin it
Ġst orm
Ġt ri
n a
he l
à¤ª à¤ķ
ĠWill iam
rop ical
Ġro le
s elf
Ġres ult
Ġst and
Ġest ab
Ġpres ent
Ġc ame
o on
Ġ201 2
Ġday s
an ces
ul ation
Ġcont rol
Ġm id
le v
Ġre al
ag ed
Ġpol it
le t
h am
Ġh owever
ĠM in
at ic
it ary
ĠM an
as ter
id es
Ġpro p
og raph
en se
at or
Ġà¤¹ à¤®
Ġe qu
Ġf ew
Ġw ind
om b
à¤° à¤¶
ĠGe or
Ġt w
Ġto wn
Ġp ost
Ġs ide
Ġs k
Ġf un
Ġà¤Ĳ à¤¸
y le
1 9
ay s
Ġloc al
e ad
Ġof ten
Ġa v
ĠE ar
Ġ19 0
r act
Ġcontin ued
ĠCh ar
à¤¨ à¤¤
Ġ200 6
Ġ <
el t
Ġsim ilar
ĠA ir
Ġam ong
c hes
ĠH er
olog y
Ġt yp
ru ction
Ġh um
ĠN o
ĠM ich
om en
Ġdiffer ent
Ġcl aim
es tern
p ar
ak es
re ad
Ġm y
ĠEng land
Ġd el
re et
l er
à¤² à¤¬
es e
s ide
ĠR ec
op s
Ġbe h
es c
Ġle vel
Ġà¤¬ à¤¢
Ġ |
Ġf urther
est ed
er y
ot s
Ġs ent
ur s
Ġl aw
Ġf re
g y
ĠD av
Ġt ake
Ġ5 0
ĠE l
m s
t al
m e
ard s
Ġconsid ered
Ġà¤¸ à¤°à¤ķ
Ġà¤¦ à¤ķ
Ġà¤ª à¤¡
ĠEng lish
ĠOn e
ĠC o
Ġcare er
ic es
Ġan t
Ġprodu ction
Ġh alf
ĠP ark
Ġ !
ĠC ity
Ġh aving
à¤² à¤ķ
Ġà¤°à¤¹ à¤¤
amp ions
ĠA cc
Ġm ag
Ġ2 7
iz e
Ġe ast
er ing
a i
Ġwith out
Ġc or
ĠC ent
Ġever y
Ġ2 8
Ġd ra
Ġw est
Ġro ad
ro du
Ġmov ed
à¤£ à¤¨
à¤ķ à¤¨
Ġc r
in ing
Ġpl an
ver s
Ġà¤¹ à¤°
Ġà¤¤ à¤¹
Ġvers ion
ĠAl though
Ġpos ition
ĠC al
Ġ el
Ġhist ory
Ġar r
Ġbec ome
Ġapp e
Ġplay er
ron t
on es
Ġ201 3
ĠAn g
2 0
Ġcomm un
f ord
Ġt ro
ond on
à¤Ń à¤Ĺ
ĠC ount
Ġc ast
ap p
Ġà¤¶ à¤¹à¤°
ir c
Ġà¤ļ à¤²
Ġinf lu
à¤° à¤¨
Ġg r
r ig
ĠL ondon
a ul
Ġs ound
res ent
Ġf ore
Ġ2 6
Ġh ouse
à¤¡ à¤°
Ġ4 0
Ġsu gg
Ġstr ong
a e
at ter
ĠB att
à¤ĸ à¤¨
Ġinv ol
ro y
Ġcl ub
Ġà¤§ à¤°
Ġre fer
ain ing
Ġst at
Ġwrit ten
Ġb as
i qu
Ġà¤®à¤¹ à¤¤
Ġà¥§à¥ ¯à¥
à¤Ł à¤ķ
Ġl ess
Ġor der
ut es
ĠW ith
oun g
re st
Ġann oun
al d
un g
ĠR iver
Ġf oot
iet y
im ent
Ġg iven
Ġpoin t
g es
Ġw ant
Ġr ad
Ġpro f
ĠCan ad
Ġà¤ĵ à¤°
c raft
Ġa ff
Ġk e
s p
se qu
ĠUn iversity
à¤ĩ à¤Ł
ĠG ener
or ies
Ġl ow
is c
Ġtr ad
Ġh ig
il le
Ġp at
ĠA b
ar m
Ġim port
Ġch ang
r ation
ĠP ol
Ġg ave
ĠH igh
u ck
c ess
a ff
Ġà¤ľ à¤¹
Ġne ver
à¤ľ à¤°
Ġs oc
ĠE x
Ġcom b
Ġdef e
ĠWh ile
ĠT r
Ġf act
Ġreturn ed
Ġto tal
Ġg ood
Ġcount ry
Ġà¤¶ à¤¬
à¤¨ à¤°
Ġv ict
Ġ18 9
ent ion
ec hn
Ġf ind
is on
Ġcomp any
Ġsh ould
our s
ail ed
c on
Ġf ire
ric k
Ġà¤¬ à¤ļ
Ġ er
Ġf riend
Ġà¤Ĩ à¤¨
Ġw ent
a un
y n
Ġcap t
Ġpubl ished
Ġà¤® à¤§
Ġcomm on
Ġprodu ced
à¤¬ à¤¨
Ġne ed
am b
ĠS m
ay ing
lev ision
Ġorig in
Ġus ing
Ġreport ed
Ġprog ram
m in
à¤µ à¤ª
Ġ201 4
a ign
Ġ200 5
Ġl ost
Ġst ated
Ġpartic ular
ap e
ing ton
Ġl ight
um ent
Ġor d
est s
Ġpro ject
ab ly
à¤¨ à¤¸
ĠN e
à¤ı à¤ķ
Ġlar g
Ġcomp et
us ed
Ġà¤¤ à¤°
ĠAcc ording
us h
ur ric
ie f
Ġp ress
à¤¥ à¤®
Ġbuild ing
Ġrecord ed
ĠSt e
Ġfor ces
Ġn ort
Ġship s
in ess
ĠS w
Ġe ight
Ġ ide
os p
Ġperform ance
Ġserv ice
Ġt imes
b s
pl oy
Ġ2 9
Ġpop ular
à¤°à¤¦ à¤°
ĠThe se
Ġm aking
at ch
Ġaut hor
le ar
Ġà¤ľ à¤²
Ġre ad
Ġt en
Ġs ol
ĠAs s
Ġair craft
ĠS ec
oy al
Ġà¤ħà¤² à¤Ĺ
Ġl im
Ġs it
Ġhim self
Ġmil itary
Ġf ather
Ġan im
as es
ĠAustral ia
Ġà¤ Ŀ
Ġtit le
ampions hip
Ġs omet
it her
n ed
Ġbatt le
ĠJ ack
ord s
ĠA f
Ġh ow
Ġg l
m it
Ġsong s
Ġb us
et h
ou ther
Ġs w
ens ive
it ive
Ġdevelop ment
al th
à¤Ł à¤²
Ġcrit ic
ĠC or
ĠGener al
Ġg et
Ġà¤²à¤Ĺ à¤Ńà¤Ĺ
ĠS y
ol l
Ġs qu
ed er
ĠSt ate
c er
outher n
Ġc ross
ĠJ ames
c om
Ġrep resent
à¤® à¤²
ac y
ri es
Ġst yle
Ġg round
k s
Ġst ar
Ġf t
Ġdest roy
Ġcharac ters
Ġà¤ĳ à¤«
a ur
w ork
Ġst e
ri e
à¥ ¨
Ġb o
à¤¨ à¤µ
as tern
ĠCom p
à¤ķ à¤¸
Ġrem ained
Ġn ational
ĠG l
Ġà¤¬ à¤²
ĠAr my
ĠP res
Ġsu ff
Ġg en
Ġà¤ħ à¤¬
Ġmonth s
d om
ubl ic
Ġt er
Ġs um
à¤¸ à¤²
à¤¨ à¤®
Ġv al
Ġd ied
Ġre d
Ġdevelop ed
Ġch art
en cy
f ic
Ġf ield
Ġfor ce
Ġà¤¸à¤¦ à¤¸
o le
re am
Ġcamp aign
urric ane
Ġà¤¸ à¤¤
land s
ĠLe ague
Ġchild ren
Ġint rodu
à¤ī à¤¨à¤ķ
Ġp ra
Ġà¤ķà¤¹ à¤¤
Ġprom ot
Ġto ur
ist ed
Ġsign ific
Ġac ross
a el
ress ion
Ġs on
Ġa way
her n
Ġà¤ĩ à¤¤
Ġrel ations
Ġoffic ial
Ġ201 5
Ġob s
Ġà¤Ĩ à¤ķ
Ġhist or
ĠD ivision
le ge
Ġf av
Ġd iv
Ġinter n
Ġbe gin
Ġf ac
ĠAmeric a
Ġf elt
ĠS im
al t
ĠS up
à¤¨ à¤²
Ġà¤ī à¤ļ
Ġnot ed
Ġcre ated
m ost
Ġn ight
ĠR uss
Ġannoun ced
Ġ200 4
Ġre ached
ĠM on
Ġ3 1
he m
ĠR ep
Ġare as
à¤® à¤°
ĠCount y
Ġc oun
Ġte levision
pl ay
Ġ18 8
ĠM ad
à¤¬ à¤²
Ġb ar
Ġse e
ĠR oad
Ġst ation
ress ed
Ġ ?
it ing
ĠJapan ese
iz ation
ĠG r
à¤ķ à¤¤
Ġro ck
Ġsuccess ful
Ġvar ious
op e
is ing
Ġar m
im ately
Ġà¤¸ à¤¨
à¤µ à¤µ
Ġse en
i ber
Ġfollow ed
Ġpolit ical
ĠSt reet
Ġto o
et t
f ield
Ġa ver
al ity
Ġn on
Ġf ull
Ġr ank
ĠE ast
Ġ200 0
Ġc ult
re g
at a
c ast
Ġcon d
ĠP art
ĠR ober
Ġperform ed
Ġbl ack
Ġpr im
Ġc irc
à¤ľ à¤¬
du ct
Ġpro cess
Ġre v
ĠS er
Ġp ut
ell ing
Ġser ved
Ġdec l
ĠGeor ge
Ġplay ers
Ġhel p
Ġl ook
ol ution
Ġle t
um b
Ġf le
an a
Ġà¤® à¤£
ĠT o
ric t
ab or
Ġv ol
y ing
Ġà¤¶ à¤ķ
Ġcon v
Ġear l
ĠH en
ĠRe g
id ence
Ġc ost
e e
Ġc y
ĠPh il
Ġw id
Ġse ven
à¤¯ à¤µà¤¸
g round
à¥ ®
ĠP er
Ġa ud
Ġt echn
Ġt aken
Ġkill ed
Ġ ident
Ġc op
ĠB ill
l ished
Ġab le
Ġdo es
ert ain
Ġthrough out
in ation
Ġt ropical
ĠS ch
Ġà¤¶ à¤°
ur g
Ġlit tle
amp le
ec ut
ri pt
Ġf ight
Ġdisc over
way s
Ġbec om
Ġag re
Ġf em
ul a
Ġsignific ant
Ġa ge
Ġspec ial
Ġme et
à¤ Ĭ
ĠA ct
à¤¤ à¤µ
ĠTh om
h ing
Ġst ruct
Ġh it
ir l
Ġwrit ing
i us
ĠM ed
ep end
à¤ı à¤¸
o ice
Ġm m
Ġcol l
ĠM or
ĠDav id
Ġ18 6
Ġbro ad
Ġf ront
l ess
Ġestab lished
c il
Ġthough t
en ced
ur b
Ġent ire
od es
Ġb ody
av al
Ġappe ared
u k
ĠAustral ian
Ġà¤¨ à¤¦
Ġà¤¤à¤¹ à¤¸
he re
Ġpoin ts
Ġimp ro
Ġy oung
Ġco ast
Ġa ward
op h
Ġmil es
ĠY ou
ĠR ich
Ġar g
st er
Ġm ember
Ġr ange
as k
Ġact iv
Ġro ute
ough t
ĠQ u
Ġw omen
in t
iv il
Ġgener al
lect ed
i ers
Ġstart ed
d ay
Ġfeat ures
at ors
ĠE m
ir on
Ġà¤¬ à¤¦
Ġcaus ed
Ġdec ided
Ġar ch
ĠAf ric
5 0
Ġà¤¬ à¤°
d en
og n
con om
Ġà¤ķ à¤Ń
Ġp ain
ĠP e
i ec
m en
Ġevent ually
Ġadd ed
ĠS qu
à¤¯ à¤¦
ĠR oyal
Ġ200 3
Ġv ot
à¤² à¤µ
Ġr ace
b oard
ac es
iv id
it ar
Ġinst ead
ĠH ist
Ġgro w
Ġman ag
ar a
Ġh old
get her
Ġto gether
à¤¼ à¥į
ĠIn tern
pp ed
Ġwh ite
Ġt re
am ent
ber t
Ġfe et
ĠH ouse
à¤ķ à¤Ł
Ġc ut
Ġon ce
ris on
o ff
Ġst ri
ar ch
Ġloc ated
Ġro und
Ġà¤ ł
Ġcon n
Ġform ed
Ġen c
Ġn ov
ree k
Ġ18 7
ĠP ort
à¤° à¤ª
Ġmod ern
d le
ĠInd ian
ĠBl ack
he ad
ang u
Ġà¤¸ à¤«
à¤ħ à¤¨
Ġ esc
Ġimport ant
rough t
Ġb r
Ġb all
em y
Ġm ix
Ġa ction
Ġà¤ľ à¤°
Ġp ri
c ing
Ġà¤¨ à¤µ
Ġà¤Ĩ à¤Ĺ
Ġs aw
à¤ª à¤¸
Ġcre w
id s
Ġre du
ell s
Ġcomple ted
c ent
ect s
ĠIt al
à¤Ĺ à¤¢
ĠM y
r ated
one y
st it
Ġplay ing
à¥ «
ĠO ther
Ġm ater
Ġà¤Ĩà¤µ à¤¶
Ġb ase
Ġm ot
Ġà¤ķ à¤ª
Ġ5 00
Ġà¤ĺ à¤°
u le
à¤° à¤ļ
Ġas k
Ġpop ulation
Ġins p
Ġr ather
Ġ â
r ay
Ġà¤ĩ à¤²
Ġother s
Ġocc ur
t t
Ġsur v
ĠMich ael
Ġà¤² à¤ķ
Ġst age
Ġv oc
Ġà¤ħ à¤Ĺ
Ġopen ed
Ġf all
Ġre n
Ġbeh ind
Ġs ite
as ing
ign ed
à¤° à¤¬
wo od
l in
Ġcom ment
ra p
ce ed
em ents
Ġgun s
Ġin form
Ġbro ther
Ġl ik
Ã ¡
Ġf ar
Ġà¤¨ à¤Ĺà¤°
Ġwork s
à¤ł à¤¨
à¤° à¤¥à¤®
Ġm er
le ction
à¤¯ à¤²
Ġb orn
Ġ200 1
Ġf if
Ġl ive
Ġpro ble
Ġm iss
Ġl oss
ĠFran ce
Ġà¥ §
nd er
à¤¥ à¤µ
ow s
à¥¦ à¥¦
Ġb omb
ĠÂ °
Ġwork ed
fic ult
Ġp red
ĠM ag
ĠS chool
Ġse par
Ġhe avy
med i
à¤ĩ à¤¡
ĠS an
Ġpart y
Ġl ack
l ic
Ġcl ose
Ġsub sequ
ist ic
c o
Ġdif ficult
à¥ §à¥
Ġà¤Ĩ à¤Ī
ĠW ash
ĠS ome
Ġh ost
ĠN or
Ġà¤¬ à¤¤
Ġconst ruction
Ġà¤ª à¤ķ
Ġrelations hip
Ġ Ã
Ġweek s
Ġass oci
à¤° à¤ľ
Ġc ase
Ġv ill
Ġà¤¸à¤® à¤Ŀ
Ġex ample
Ġpr act
ap s
Ġorigin ally
Ġà¥ °
Ġre b
Ġlead ing
Ġup on
ĠHen ry
ic a
ĠA le
Ġacc om
ort s
Ġal most
Ġapp oin
os ition
ĠRober t
à¤¯ à¤ª
Ġ200 2
Ġf ree
Ġin j
Ġprov ided
à¥ Ń
Ġdam age
Ġpe ak
un k
à¤· à¤ķ
Ġac cept
ĠR ed
in o
Ġfour th
m ing
Ġeng ine
Ġc reat
Ġsc ored
Ġm ult
ĠV ir
ĠMus ic
Ġre ve
olog ical
Ġcl os
ĠSt ar
Ġm i
ĠB est
Ġgo al
ĠBatt le
à¤¹ à¤®
Ġinv est
à¤ĩ à¤²
Ġres ul
Ġhum an
Ġind ivid
à¤ļ à¤°
Ġ z
or ing
Ġà¤ī à¤²
a ut
Ġsc ene
ĠD esp
ic le
Ġb rought
am a
ĠA g
à¤¹ à¤¨
ĠC ap
Ġle ast
ĠP aul
Ġà¤Ĩ à¤ľ
Ġf ell
Ġav ail
Ġk ing
Ġwork ing
ĠM il
Ġfeat ured
ĠPres ident
Ġallow ed
Ġm other
à¤ĸ à¤£
Ġl aun
Ġe ither
à¤¨ à¤¨
Ġpl aced
ĠR ou
Ġs our
Ġreg ion
Ġaver age
av es
Ġind ust
Ġto wards
ear ch
id ing
Ġwant ed
o f
ĠH ol
Ġtrad ition
Ġbus iness
k y
ĠQ ue
ĠWash ington
Ġv e
Ġqu ick
Ġresp ect
az ine
Ġc e
v ing
Ġoff ice
Ġmater ial
ĠB el
à¤¥ à¤²
Ġcur rent
Ġtro ops
g o
Ġrec ogn
Ġh on
Ġcrit ics
Ġre ach
Ġe conom
Ġprof ess
Ġrun s
Ġpro per
Ġne g
ent ial
Ġà¤ı à¤¸
en ed
ant ic
eng th
à¤Ĩ à¤¤
Ġà¤ħ à¤ļ
ĠB o
ch ie
Ġw ife
Ġf oc
Ġà¤µ à¤¸
Ġest im
Ġm ass
Ġar my
Ġse x
ad ron
Ġd ou
Ġinter est
B C
à¤¹ à¤¤
Ġde v
ĠC our
Ġà¤ı à¤²
ĠDesp ite
Ġgener ally
Ġ6 0
ĠF ollow
u ff
ill s
Ġra il
Ġ3 5
ĠH am
Ġjoin ed
Ġ199 0
our n
en es
ĠAng el
b e
Ġà¤Ĩ à¤®
Ġà¤Ĩ à¤¸
Ġpartic ip
Ġà¤Ĺ à¤°
it ch
ate g
ĠH all
Ġkn ow
Ġev ents
s c
Ġf ig
ĠC up
re y
ĠG ame
ĠK e
Ġbelie ved
z e
v ille
ĠF irst
ĠD r
Ġà¤ķ à¤µ
ĠM ary
v al
ĠFollow ing
Ġl angu
Ġà¤ĩ à¤¨à¤ķ
ĠL a
Ġrepl aced
ĠM al
ĠG reat
ĠG ro
Ġr ul
ĠJ e
ĠL ou
ict ion
Ġn omin
Ġdesign ed
o or
ific ation
Ġg rad
art ment
Ġvict ory
à¤· à¤¯
Ġso on
Ġm ph
Ġf und
x ic
er ous
à¤² à¤°
Ġis land
ĠEurope an
Ġh ours
Ġem ploy
ĠT wo
Ġà¤¤ à¤¬
om s
Ġpres ident
ar n
u el
Ġinvol ved
Ġsur f
ra in
in n
al ed
Ġbre ak
in f
à¤° à¤²
mer c
if f
ĠM art
ĠPl ay
ĠCh ampionship
Ġfin ished
à¤® à¤¸
ap er
ĠR oman
Ġst ru
Ġh or
as ion
Ġcont rib
Ġposs ible
a ren
w est
ĠM et
Ġind ic
ud e
em or
Ġt est
Ġà¤ ¢
ĠM ac
Ġh y
Ġs aying
ĠD an
Ġà¥ «
Ġcour t
Ġavail able
Ġm ust
Ġreg ular
Ġl ength
à¤· à¤¤
Ġopen ing
Ġsh ot
Ġth reat
le g
Ġcent er
Ġsc ore
k i
ad es
Ġà¤Ĩ à¤ª
ĠD on
Ġdes p
Ġrem ov
Ġcon duct
ou l
c her
it te
Ġ ill
Ġdirect or
Ġex ist
Ġh om
ĠV al
à¤Ń à¤µ
Ġtra vel
ecut ive
Ġlarg est
ĠS ing
ish ing
ĠSc ott
Ġmin utes
ĠB r
Ġbl ock
ĠC ro
Ġd ro
Ġs outhern
ĠB er
Ġhigh way
ĠRou te
p ly
à¤¯ à¤¸
Ġh ard
and er
Ġhig hest
Ġl y
ĠF rom
Ġearl ier
Ġse qu
ĠW il
ĠAt l
ag o
Ġparticular ly
Ġà¤Ń à¤°
ograph y
Ġper cent
Ġinit ially
ann ed
ight s
ĠRep ublic
Ġà¤Ĺ à¤¤
ip p
Ġtra ining
ĠIntern ational
ant ry
ĠM id
ĠKing dom
as y
à¤¸ à¤¤
Ġfor ced
Ġà¤¶ à¤¤
ĠR es
h ib
Ġch ange
ĠChar les
à¤¯ à¤¯à¤¨
ĠP al
ri an
ĠâĢ ĺ
ĠN avy
Ġp ark
ra g
à¥ ©
em s
b or
n ow
Ġex c
ĠO ff
Ġresp ons
à¤¸ à¤¸
it or
ut ure
Ġsoc ial
Ġqu ar
Ġà¤¸à¤® à¤°
Ġend ed
i os
ĠThom as
Ġw all
Ġà¤ħ à¤«
ĠMc C
Ġturn ed
ĠB ut
Ġ198 0
Ġpass ed
ĠD ep
Ġob ject
Ġsup er
if orn
at ural
Ġstud io
ĠWh ite
r up
Ġreg ard
Ġed uc
Ġb ill
Ġph ys
à¤ĸ à¤²
Ġpr iv
ĠVir gin
Ġp iec
Ġpra ised
Ġincre ased
Ġun its
Ġke ep
ĠBro wn
Ġ8 0
Ġspe ed
Ġnort hern
Ġh urricane
he ast
r ac
Ġp ast
Ġ199 9
Ġcent ral
ĠCh urch
Ġsy m
Ġà¤² à¤¡
ĠCanad a
Ġ197 0
Ġrel ig
t o
s el
Ġnov el
ĠM o
à¤µ à¤¯
ers hip
u ter
Ġà¤ļ à¤°
Ġà¤° à¤ļà¤¨
Ġappear ance
ĠP re
ĠCal iforn
ke y
ĠS l
à¤¹ à¤°à¤£
ĠR ock
iqu e
end ed
Ġst op
Ġme as
ĠS am
Ġim medi
Ġc ou
ĠB ay
Ġdis p
ĠS en
fer ence
à¥ ª
ĠM er
oc r
Ġch urch
st on
ĠT i
ĠSm ith
Ġt reat
Ġ3 6
Ġord ered
ĠInd ia
augh ter
à¥ ¬
Ġab ove
à¤° à¤§
et work
Ġmov e
Ġind epend
ĠRich ard
ry ing
Ġt aking
ĠAle x
à¤¥ à¤¨
ec ess
Ġbet ter
um p
Ġl ove
Ġa p
m a
Ġsign ed
il ities
Ġa chie
Ġà¤īà¤ª à¤²à¤¬
Ġbegin ning
Ġs ection
ĠCaliforn ia
Ġ201 6
Ġp ers
ĠUn ion
ĠG overn
it z
ĠG od
ak er
ar ily
à¤Ĺ à¤¨
Ġà¤° à¤ķ
um e
ank s
Ġpos itive
Ġen ough
ĠIs land
Ġcom merc
n el
Ġin n
Ġacc ording
ear s
Ġw at
Ġwind s
Ġ3 2
ĠCour t
Ġqu est
à¤Ĺ à¤®
Ġrequ ired
Ġp ot
ĠÂ £
ap t
Ġp ur
ĠB ra
Ġc lear
Ġfe el
Ġgo ing
Ġsp an
Ġsub ject
Ġh ous
u ation
Ġ4 5
Ġout side
us ion
Ġsp ent
itte e
Ġme an
ĠA c
Ġs low
Ġfilm s
ĠC ong
Ġà¤ľà¤¬ à¤ķ
ĠAr t
ĠU p
Ġà¤® à¤¸
ber g
ĠV ict
ĠAss oci
Ġ7 0
ĠA ward
v an
Ġ 00
Ġst ates
à¤ī à¤¸
and ing
Ġto ld
Ġfoot ball
at in
ell ed
Ġprevious ly
à¥ĥ à¤Ĥ
Ġrecord ing
ĠT om
Ġele ments
ĠComp any
Ġ +
Ġn ine
Ġpro b
Ġcom e
Ġph ot
o id
Ġl ower
os ing
Ġass ist
Ġf ailed
ĠSt ud
id a
ren g
Ġe y
Ġth ink
ĠU K
e x
Ġits elf
Ġpart s
Ġc ru
ed y
ĠM ark
Ġab s
ĠGerman y
ĠG old
Ġà¤® à¤¤
al ion
Ġacc ess
à¥Ĥ à¤Ĥ
ib ility
Ġc he
Ġà¤¬à¤¦ à¤²
n es
ran ch
Ġreview s
Ġs il
Ġà¤¤ à¤¤
ĠChrist ian
Ġinter view
Ġb i
ok e
Ġn ar
Ġà¥ ©
ĠP eter
ĠN Y
à¤Ĩ à¤Ī
Ġf low
is l
Ġ esp
Ġ199 8
read y
Ġdirect ed
Ġà¤¸ à¤ª
ĠP at
Ġc red
am er
min ist
Ġdesp ite
Ġcont ract
ab ility
le b
à¤§ à¤¤
er ved
ĠTh at
Ġgroup s
ĠT imes
ĠC ast
Ġà¤¬ à¤¸
ĠCol lege
Ġk ey
à¤µ à¤°à¤£
Ġdeb ut
Ġ18 5
Ġvi ol
Ġ196 0
ĠH ill
on na
as ons
Ġwh ose
m ar
Ġintern ational
ĠS ov
Ġl ines
Ġà¤ķà¤° à¤ķ
Ġg ive
hest er
Ġà¥¨ à¥¦à¥
Ġpre vent
ĠW estern
air s
Ġun c
Ġclaim ed
ĠD o
à¤µ à¤ķ
Ġaddition al
Ġc al
ĠD em
Ġsc reen
Ġtrans fer
Ġask ed
e al
Ġd on
Ġf uture
Ġst reng
b ack
on se
Ġbe g
Ġ3 3
ĠSov iet
rie f
ĠF ilm
Ġo p
Ġ18 4
à¤¼ à¥ĭ
ĠG rand
ĠS oc
à¤ľ à¤¸
ĠB en
N A
at ory
ĠFran k
Ġb ig
à¤² à¤®
Ġà¤ľ à¤Ĺ
Ġwh om
ĠMe xic
on st
Ġg old
Ġl ab
Ġle ague
ĠSp an
Ġal ready
ly ing
Ġpo or
r or
ĠA wards
it es
Ġfor t
Ġide a
à¤¦ à¤ķ
Ġev idence
Ġintrodu ced
Ġse a
Ġpre m
Ġprodu ct
Ġquick ly
Ġex cept
Ġfre qu
Ġà¤ķ à¤¨
T C
h a
à¤® à¤¹
er gy
ĠC oun
Ġb ridge
Ġus ually
us p
à¤® à¤¦
ĠFor ce
Ġele ction
ir th
Ġem b
ec k
Ġp il
ĠM ost
Ġà¥¨ à¥¦
Ġocc up
un t
s hip
e um
ec ially
Ġà¤ħ à¤¥à¤µ
Ġde al
Ġp en
à¤ķ à¤ª
ar ing
Ġà¤ľ à¤®
à¤¯ à¤µ
Ġrad io
ĠR ob
Ġmus ical
Ġw estern
Ġcommun ity
Ġc ivil
Ġarr ived
ul ly
Ġcy cl
l iam
ĠBrit ain
Ġ199 7
ĠD ay
as c
ĠO ver
Ġm ight
g en
Ġsomet imes
Ġd oc
ĠI m
Ġfem ale
Ġstud y
Ġf ood
I I
à¤ Ĳ
ra b
ĠH ot
Ġresp onse
it er
Ġesp ecially
Ġdec ision
ĠP ac
Ġiss ue
Ġm oney
Ġmag azine
Ġlit er
en a
Ġshow s
ic les
ĠL ater
Ġen v
Ġsurf ace
Ġs ize
ĠR h
à¤° à¤µà¤°
liam ent
ĠVict or
ain t
c he
Ġconst ruct
ĠB ur
Ġà¤ī à¤ªà¤¨
Ġdet erm
Ġgu itar
ar ies
Ġfl ood
ĠCh ic
Ġdisc uss
Ġ3 7
ar i
om m
Ġar ran
Ġcar ried
Ġrem ain
Ġestim ated
ĠM ill
ra w
Ġmin or
Ġappro x
Ġlar ger
Ġtyp e
Ġrem aining
Ġd ate
Ġ3 00
Ġcomple te
ĠT ra
Ġe astern
Ġdefe ated
1 0
A A
ul f
ess ion
ĠM ount
Ġà¤® à¤°
ig an
Ġmed ia
por ary
ĠEar ly
ĠVirgin ia
Ġbecom ing
Ġan al
Ġra p
Ġw ood
Ġpress ure
ric s
à¤Ĺ à¤µ
Ġconsid er
ĠIn f
Ġent ered
Ġà¤ı à¤¨
and s
Ġsugg ested
ĠI f
Ġà¤® à¤¦
Ġpol ice
ĠCon t
Ġl o
à¤¦ à¤®
Ġt ar
er ve
Ġteam s
Ġà¤¸à¤® à¤¸
ĠJ ust
Ġsh oot
ĠL os
Ġmark et
Ġcommerc ial
Ġperson al
ĠK h
Ġl atter
Ġconc ern
Ġd er
is es
Ġstud ents
Ġc ertain
inc ip
Ġlangu age
ĠSec ond
s y
Ġsur round
Ġinvest ig
in ct
m ir
Ġchang es
Ġb rief
Ġb ur
ch ange
ĠTe x
Ġ9 0
Ġs at
Ġac qu
ĠF le
Ġpr ison
Ġcomple t
ly mp
all ed
Ġh op
Ġeffect s
im ate
ore s
Ġpri or
ĠJack son
Ġappoin ted
eder al
ul ated
Ġsum mer
g a
Ġepis odes
ent h
à¤¸ à¤µ
Ġde g
à¤¼ à¥ĭà¤Ĥ
à¥ §
Ġlim ited
ĠFl or
Ġd en
ĠLou is
Ġe mer
ĠO lymp
Ġprov ide
Ġst aff
l o
Ġr iver
Ġsc ript
Ġs elf
r ack
is er
ens ion
Ġpol ic
Ġcomm ission
mit ted
Ġwin ning
Ġdra w
Ġp ay
Ġle aving
Ġt ax
Ã Ń
Ġsc enes
r d
Ġdestroy ed
ourn al
Ġfle et
ĠCl ub
Ġr id
Ġd i
Ġright s
Ġf ail
Ġb oard
ĠSpan ish
i res
Ġ7 5
s u
Ġl ink
t ies
Ġter rit
ĠG reen
ĠT er
Ġstruct ure
Ġwrit er
qu e
id ents
Ġt rib
Ġmult ip
rig ade
Ġin tended
s en
Ġprop osed
à¥ģ à¤ģ
ines e
Ġ199 6
Ġg irl
Ġ199 5
ĠPart y
he t
Ġinflu ence
Ġk il
ĠD u
Ġ3 4
Ġover all
m on
ĠAssoci ation
Ġà¤ī à¤®
Ġcre ate
Ġcont ro
Ġtrans port
Ġd ivision
Ġequ ip
ac ing
Ġant i
end ing
im um
il es
if t
ĠP ri
Ġj ud
Ġrun ning
Ġsupport ed
1 8
Ġro om
ĠEd ward
il i
Ġres earch
Ġagre ed
Ġà¤ı à¤®
Ġb ow
ĠS ar
at ives
Ġ i
ĠR o
Ġw ide
ĠChic ago
ĠCh inese
Ġd aughter
Ġnear ly
Ġbroad cast
Ġde ep
Ġà¤¬ à¤ľ
Ġp urch
Ġ3 8
ĠM any
Ġ18 3
Ġestab lish
ĠCoun cil
Ġmov ement
ĠO per
ĠI r
ĠS al
Ġhel ped
à¤°à¤® à¤£
à¤Ĺ à¤łà¤¨
Ġmar ried
in ent
at ively
ĠS ong
Ã ¶
Ġaward ed
b ers
Ġsp ace
à¤µ à¤¶
n y
Ġc at
Ġà¤ªà¤° à¤®
Ġà¤¦ à¤¶à¤ķ
om er
Ġdis s
ĠEn ter
Ġfav or
Ġint ens
Ġb ird
Ġs usp
Ġd ark
p ris
Ġlong er
à¤ĺ à¤°
a rent
Ġ199 4
Ġrel ated
Ġà¤Ĺ à¤£
Ġà¤Ĭ à¤ªà¤°
te en
Ġst ars
Ġd one
ĠE v
Ġhig her
s s
ĠS erv
u z
Ġfeat ure
ĠA pp
Ġchang ed
Ġsy n
ĠIn ter
Ġpl anned
um n
Ġcomp ared
Ġcour se
ound s
Ġincre asing
Ġ195 0
à¤ĩ à¤¨à¤ķ
Ġcapt ured
ĠE mp
Ġtem per
Ġexper ience
Ġf ans
ĠJohn son
Ġconc lud
ĠHist ory
à¤ķ à¤¡
Ġthem sel
ord er
Ġthemsel ves
ent y
Ġl iving
ĠK ore
Ġapprox imately
ut h
ab it
ĠN ot
Ġfif th
ĠK n
Ġo ur
t ained
à¤§ à¤°
v in
Ġmost ly
Ġprodu cer
is ions
Ġth us
à¤Ł à¤®
ol ic
c an
Ã ¼
an ced
à¤² à¤¸
ĠPac ific
ĠB et
ĠB ack
Ġtrack s
ĠBill board
à¤¸ à¤¦
Ġwith d
Ġwhe ther
th ing
Ġà¤ĸ à¤°
Ġfun ction
oin t
Ġde ad
Ġà¤Ĩ à¤¶
ĠM ont
i j
Ġoper ations
Ġw oman
Ġb ring
Ġrem ains
Ġn atural
im in
Ġmet h
Ġ ult
Ġquar ter
Ġcomple x
Ġre act
Ġcon cept
and ed
Ġprob ably
Ġn ames
Ġà¤°à¤¹ à¤¨
à¤¬ à¤¦
à¤¹ à¤²
d e
Ġwe ap
ĠS un
r ate
r ast
ĠSc ot
ĠF inal
Ġd ram
r ight
ve y
Ġr an
g ing
Ġf ace
Ġfor ward
Ġsold iers
Ġcount ries
à¤ĸ à¤¤
Ġbuild ings
Ġinclud es
Ġcop ies
b our
à¤Ĩ à¤°
Ġex tended
Ġv oice
ĠII I
Ġb oy
Ġlead er
Ġ199 2
Ġà¤ħà¤µ à¤§
à¤¤ à¤¤
Ġre ally
osp ital
ĠS ince
Ġdep art
Ġly rics
Ġc m
ĠAtl antic
ri age
à¤ļ à¤ķ
Ġch all
ĠU TC
Ġiss ued
Ġhe av
Ġbatt les
à¤µ à¤ľ
à¤ĩ à¤ķ
ĠCong ress
ĠL ake
ur t
à¤ľ à¤¯
ĠL ove
Ġcap ital
ĠF ort
Ġsuff ered
ĠFran c
a ult
i ant
à¤ĩà¤¸ à¤®
et ic
Ġimmedi ately
Ġcan n
Ġgo als
ĠB ig
ĠSe ver
ĠFlor ida
h ood
Ġat tend
Ġà¤²à¤Ĺ à¤¤
ĠT rans
i ation
Ġremov ed
it ted
Ġfl ag
Ġà¤ľà¤Ĺ à¤¹
ĠB oth
h old
ir ing
Ġmix ed
Ġbre ed
Ġdist rib
ect ions
Ġal ways
Ġpriv ate
Ġlik ely
Ġm ach
ĠJ im
ĠO ld
Ġmanag er
ĠJ ew
Ġinit ial
ri a
Ġloc ation
ĠAn t
Ġoffic ers
Ġ18 0
ĠD ist
Ġv ia
am s
Ġn orm
Ġpl ant
ĠSe a
à¤ľ à¤¹
i en
ĠL aw
Ġle ave
Ġincre ase
b ury
Ġstat us
ĠQue en
à¤¯à¤ķ à¤¤
à¤ľ à¤²
Ġce leb
ĠP et
Ġhe alth
ri al
Ġn etwork
if y
Ġvis it
ĠTex as
ĠCh ina
Ġproble ms
Ġfoc us
ĠT or
ĠD V
ven ue
ĠT own
Ġserv ices
Ġc oin
ĠM r
Ġsubsequ ently
ib r
Ġm ount
ĠEar th
Ġpl ans
Ġà¤ļ à¤²à¤¤
Ġà¤ħ à¤¦
ĠHigh way
ĠM ax
Ġcomp an
l ight
Ã ³
Ġterm s
Ġsomet hing
Ġmod el
ĠH ow
ĠL ord
ĠC amp
Ġinform ation
à¥Ĥ à¤ģ
w ell
Ġinst r
Ġvill age
ĠAn other
Ġad minist
Ġ4 9
ail y
Ġà¤ĩà¤¸ à¤®
Ġcol on
Ġte xt
2 00
iron ment
Ġoff ered
Ġ199 3
Ġ199 1
st ant
ous ly
Ġà¤Ĩ à¤²
Ġb ox
Ġà¤ı à¤¶
ĠB oy
Ġappro ach
Ġm ur
Ġà¤¯ à¤¦
Ġs ch
w er
ct or
ĠO l
ĠW ood
oun ted
Ġt or
Ġt ons
ri ption
Ġmajor ity
Ġc ause
Ġcons ist
Ġcoun ter
o e
à¤¡ à¤¨
ĠR ail
Ġprofess ional
ĠCanad ian
ad ium
orn ing
Ġl ay
Ġan g
ĠM ur
Ġappear s
ĠG re
ĠAfric a
ĠI ts
Ġg ot
um ents
ol k
b urg
Ġindivid ual
Ġà¤¹ à¤µ
g ar
u f
ac hes
ĠCent er
ur ies
o o
ce an
Ġmeet ing
l or
Ġinter s
Ġconf ir
ĠS ir
o es
Ġj ob
it ect
st e
im b
Ġdam aged
Ġad op
Ġà¤ ĭ
Ġmin ute
Ġd ig
Ġà¤īà¤¸ à¤¨
Ġà¥¨à¥¦à¥ §à¥
Ġm akes
Ġim m
Ġal tern
Ġrank ed
Ġsh own
Ġt akes
ĠR ad
Ġcomp osed
ĠCent ral
ĠRuss ian
Ġ194 0
Ġcont ains
Ġfl ight
Ġneed ed
Ġreve aled
ĠSqu adron
Ġattack s
Ġv ir
p an
ĠM el
Ġpl ot
ĠT ur
Ġassoci ated
ĠT V
Ġrespect ively
um ed
k a
Ġfin anc
Ġdiscover ed
Ġra ised
ĠMart in
y a
ĠCar ol
ĠK ent
Ġnum erous
ĠDV D
Ġt alk
ĠD es
Ġy et
ot e
Ġnum bers
Ġam b
Ġd omin
Ġc and
ĠAngel es
re ak
Ġan c
d own
Ġà¤ľà¤¨ à¤¸
ĠB ow
Ġex am
Ġà¤°à¤ĸ à¤¨
Ġ4 8
ĠGro up
Ġà¤ķ à¤¥
Ġà¤¦ à¤²
Ġg rand
Ġinsp ired
Ġn ature
it ation
ver t
Ġl ived
à¤ª à¤£
Ġlaun ched
Ġb ene
est ival
Ġstand ard
Ġp ow
ĠSup er
ĠD el
Ġve h
Ġup per
u als
Ġco ach
ect ive
Ġoccur red
Ġà¥¨à¥¦ à¥¦à¥
Ġcond itions
k en
Ġmov ing
Ġg ra
Ġh our
i est
Ġattempt ed
Ġbel ow
à¤ı à¤²
Ġattack ed
Ġwho le
iz ing
ĠY ear
Ġcol lect
Ġà¤ĺ à¤Łà¤¨
ĠM iss
o ly
Ġs ales
Ġiss ues
Ġs em
Ġb irth
Ġ3 9
j oy
or ce
ĠRe v
ĠO ut
à¤« à¤²
Ġs al
à¤® à¤Ĺ
Ġm om
ur ity
ã ĥ
Ġà¤ħà¤° à¤¬
ĠT our
ĠG ar
augh t
à¤Ĺ à¤¦
à¥ ħ
Ġc er
w in
it ude
Ġse lected
Ġinc or
Ġlist ed
Ġsl ight
ĠEmp ire
Ġcrit ical
à¤¥ à¤°
Ġqu al
1 2
Ġsc ient
Ġ193 0
à¤ı à¤Ĺ
Ġrefer red
Ġy ards
Ġact ive
re me
pl es
u ing
Ġsmall er
ĠU nder
Ġb ad
ell ow
Ġpr incip
ĠP enn
k in
Ġs en
Ġgr ant
Ġpre c
us e
Ġfin ally
Ġà¤ĳ à¤¸
Ġdefe at
Ġst ay
Ġelect ed
ou ra
Ġresul ted
on ic
ĠJ ose
Ġmeth od
Ġen s
u ated
Ġp it
Ġm ission
Ġindust ry
Ġsing er
Ġw ord
Ġpur p
Ġsec ret
Ġass igned
ĠD is
ĠItal ian
à¤ļ à¤¯
Ġoper ation
Ġs af
à¤° à¤ªà¤¤
en ant
ort un
Ġlarg ely
à¤ Ķ
Ġsugg est
and on
g r
Ġg re
Ġlet ter
Ġleg isl
Ġth r
à¤ı à¤®
ire ction
à¤ī à¤¦
Ġexp ected
Ġear ned
Ġ4 00
ĠC r
Ġm ale
ou d
3 0
il ed
ĠAn n
Ġunder st
Ġcomment ed
Ġdou ble
Ġcover ed
y al
Ġà¤Ń à¤Ĺà¤µ
Ġ17 9
Ġcl osed
ĠCor ps
Ġa w
à¤® à¤£
Ġre ason
Ġeduc ation
Ġaud ience
ĠC rit
Ġtr ade
on ly
à¤ľ à¤ķ
Ġsc hed
Ġhe art
Ġart ist
Ġk ind
Ġun able
Ġdis play
Ġtradition al
oun ts
ag on
Ġprim ary
it t
og ue
Ġun it
ff ic
Ġfriend s
Ġnew sp
Ġatt ention
hip s
à¤ª à¤·
Ġs ister
ĠV iet
Ġà¤¸ à¤²
Ġref used
Ġrec over
igh ter
re m
Ġ4 7
à¤ª à¤²
Ġà¤¨ à¤ı
Ġdoc ument
Ġf r
à¤¬ à¤¸
ĠMich igan
à¤· à¤®à¤¤
Ġm ax
u x
Ġpl at
Ġà¤ĩà¤¸ à¤²
ĠM ass
Ġcont em
Ġbook s
Ġoffic er
Ġme ant
is her
ĠW ales
Ġinclude only
à¤ļ à¤²
ĠT y
ĠAr ch
ĠL ong
Ġbl ood
Ġab ility
Ġen joy
ĠN ort
Ġdep ression
Ġdecl ared
ĠM ore
ter ed
ĠO tt
Ġw alk
Ġà¤µ à¤¨
Ġperform ances
Ġg iving
Ġcomp l
ĠC ath
Ġh ot
il s
Ġmid dle
Ġ4 2
Ġr ate
à¤ľ à¤®
Ġset t
und red
Ġà¤°à¤ĸ à¤¤
ĠO x
ĠC le
ect or
Ġrelig ious
Ġfight ing
Ġprodu ce
Ġthe at
ĠT est
ĠAc ad
à¤· à¤¦
à¤§ à¤ķ
Ġcommand er
1 5
Ġà¤ª à¤¢
Ġquest ion
Ġn ecess
Ġrecord s
Ġconst it
os h
Ġen ergy
Ġmat ches
Ġcol or
on a
ĠSt ep
ap ed
Ġ6 4
à¤Ľ à¤²
ĠDem ocr
ĠF er
ĠB ec
Ġà¤° à¤¸
Ġ4 6
Ġcompet ition
ĠC are
ut ch
ĠC ons
Ġacc ount
Ġy our
ĠTe am
i ences
od ies
ech an
Ġser ious
Ġ5 5
im s
Ġ4 4
a res
Ġcent re
ant asy
Ġm ention
à¤ħ à¤§
ail s
ĠM ajor
Ġto uch
Ġ ri
ĠW al
Ġdis app
ĠMin ister
Ġ #
Ġm or
Ġà¤¨ à¤¯
Ġvoc als
ĠZ eal
ĠSever al
ound ed
à¤ĸ à¤°
ro ad
erv ation
Ġab andon
ic ted
Ġrap id
M S
ĠF ore
ru g
Ġ15 0
mir al
os es
à¤Ń à¤°
ĠS o
Ġkil omet
Ġà¤ľà¤¨ à¤µà¤°
à¤ĸ à¤ķ
Ġsp ir
Ġsepar ate
ĠK enn
en ing
Ġà¥ ª
Ġconstruct ed
Ġd ut
ĠM ic
Ġr is
ĠE r
an i
Ġdirect ly
ĠS um
qu ar
ri er
à¤ª à¤¦
Ġthem e
ed ic
stit ute
ĠF ox
ĠT ime
Ġà¤ī à¤ł
ĠC at
ĠM a
vent ion
et te
Ġpre p
Ġcontin ue
Ġst ra
Ġhigh ly
Ġp ick
u it
op er
Ġme ans
Ġro yal
ish op
r ical
Ġn uc
ĠG o
Ġnear by
ĠZeal and
Ġch ief
Ġc le
ĠH aw
Ġeff ort
Ġpresent ed
Ġh ar
Ġà¥ Ń
Ġdr um
is ation
et her
ib ly
Ġ194 2
à¤ľ à¤§
Ġc as
à¤² à¤Ĺ
Ġpos itions
Ġlevel s
ĠAfric an
ĠB u
Ġredu ced
Ġann ual
ĠMexic o
Ġcomb at
Ġnot es
c el
ĠM att
ĠF our
Ġcontro vers
ĠH el
it a
Ġà¤Ĩ à¤ķà¤°
ĠCh ris
ĠC y
Ġg e
Ġcomp os
ĠW all
Ġ198 9
ie ut
Ġfore st
ĠD ar
sh ire
Ġpract ice
Ġne igh
ad o
ĠT re
Ġ5 2
Ġed ition
i h
Ġf ast
un ction
Ġse vent
emor ial
Ġt ried
Ġat tended
Ġrep e
Ġtra in
ac her
à¤¡ à¤®
Ġarch itect
Ġaccept ed
Ġmet al
v ement
Ġw atch
ĠB rad
os en
ĠCh art
ĠB ob
Ġm ess
Ġd irection
Ġmov ie
Ġcand id
aren ts
Ġo pt
Ġtw enty
Ġsour ce
Ġp le
ĠMad onna
Ġst ating
Ġp air
ut ions
ĠB C
t rack
Ġc ases
Ġadv ance
ĠScot land
à¤ħ à¤ªà¤¨
Ġconc ert
Ġc ust
ĠJ ones
Ġrec omm
d ing
g l
p e
Ġà¤® à¤Ī
h ouse
h y
Ä ĩ
Ġleg al
l ict
ic ip
Ġus es
Ġas p
ers ey
Ġport ray
Ġse em
Ġschool s
ag ing
w ide
Ġdis m
à¥ ¯
ĠThe ir
Ġre ject
ew ay
ĠG reek
Ġà¤§ à¤¨
ic ient
Ġins ide
ĠDep artment
ĠC ross
a wn
f all
ĠP ost
ĠM anc
Ġcol lege
Ġth ick
l ike
ill ery
Ġhor se
Ġd om
Ġmar riage
ĠD ou
Ġeff orts
Ġman aged
Ġresult ing
à¤¬ à¤Ī
Ġspec ific
Ġend ing
à¤ī à¤¸à¤ķ
Ġp urs
ill ed
à¤¶ à¤¤
Ġw ords
Ġr at
Ġw ing
Ġà¤Ĩ à¤¬
b and
Ġ192 0
Ġà¤ħà¤Ĺ à¤¸
ĠTh ree
Ġenv ironment
ol f
Ġsym b
ĠL it
Ġà¥§à¥ ®
Ġmean ing
à¤¸ à¤ª
ieut enant
Ġn ation
Ġshow ed
Ġcult ure
Ġrespons ible
ĠLe g
Ġdro pped
ĠL ad
Ġra re
Ġke pt
Ġform s
ĠF oot
Å į
ran e
ĠInf antry
Ġbeg ins
ĠB ost
ol s
Ġincor por
ĠServ ice
Ġvar iety
Ġcycl one
ĠS ur
Ġà¤ªà¤¹ à¤ļ
r as
Ġ194 5
ĠSt one
p ass
c le
à¤¶ à¤²
ceed ed
Ġm orning
Ġsch ol
Ġcer em
Ġo il
ĠRec ords
Ġsp l
Ġf arm
Ġhous es
gy pt
Ġsc ience
Ġch ampionship
ce nd
Ġmark ed
Ġ194 4
Ġar rest
per or
ĠWilliam s
ĠNew s
Ġy ard
ĠSec ret
ĠH ung
ĠC reek
ĠM od
Ġinc hes
Ġmultip le
à¤ı à¤¨
ĠF in
Ġb ank
ĠP an
ect ing
ĠH al
Ġcontin ues
in i
Ġ4 3
Ġà¤¹ à¤ľ
ĠG ames
Ġqu ality
A S
w rit
ĠT ri
Ġback ground
b ed
ĠL oc
ĠâĢ Ŀ
1 6
Ġ6 5
ĠSt an
w h
Ġ18 2
Ġeconom ic
sy ch
ĠPar liament
Ġle ar
à¤ħ à¤°
ĠS ol
ĠT ro
ĠB ook
Ġd u
ul ations
Ġt ur
ĠSoc iety
t hel
ĠE gypt
ĠL u
Ġdef end
th ur
Ġstart ing
Ġh undred
ing u
Ġimp act
Ġset tle
om y
Ġam ount
Ġallow ing
Ġconduct ed
Ġsup pl
Ġch ap
Ġr ule
1 7
Ġbe at
Ġstru gg
ĠJ er
ĠV er
e en
ĠS at
Ġs ides
Ġpres ence
ĠO h
Ġ194 1
Ġun ivers
ĠSp ec
à¤¤ à¤²
Ġview ers
Ġcap tain
Ġd ance
ĠComm ittee
Ġà¤ļ à¤ķ
Ġfore ign
ĠL atin
Ġmet res
Ġproper ty
Ġpot ential
l oad
ĠS outhern
ir m
1 4
Ġà¤¹ à¤¸
ĠS il
Ġà¤ħ à¤µà¤¸
ĠPr ince
Ġà¤ĩ à¤ķ
Ġex hib
Ġdist inct
Ġà¤ķ à¤¡
ĠâĢ ľ
ĠStep hen
Ġcont rast
in et
Ġtrans l
ar ian
Ġtransfer red
ĠT w
à¤Ĳ à¤¸
ĠOx ford
Ġth ings
it iz
Ġbecom es
p ing
ĠJose ph
Ġà¤¦ à¤¸
Ġgre ater
Ġà¤ķ à¤¬
Ġpeak ed
Ġl og
r ong
an es
ĠF orm
Ġen emy
Ġà¤¤à¤ķ à¤¨
Ġtra ffic
Ġ198 8
ĠGeor g
ĠC amb
à¤¹ à¤ķ
Ġfound ed
k n
ian ce
ĠCl ass
Ġown ed
ver y
ist ics
Ġse arch
à¤° à¤ĸ
ell ig
ĠL ike
à¤¨ à¤¯
à¤¯ à¤µà¤¹
id er
Ġdem onst
ĠAd miral
Ġport ion
Ġvoc al
Ġresp ond
Ġattempt s
Ġse g
Ġconclud ed
Ġst ories
ĠCh ief
Ġprim arily
Ġenc oun
ĠBost on
Ġrel atively
Ġcast le
um ber
à¤¨à¤¸ à¤Ń
Ġact ually
Ġwrit e
8 0
ĠW ind
Ġ198 7
Ġsc oring
Ġtar get
ress ive
ain e
T V
Ġfinanc ial
ĠW in
Ġanim als
ĠManc hester
Ġ Î
ĠJe ff
Ġto urn
og rap
ĠDe f
ĠHar rison
Ġf ederal
ĠSw ed
ĠCap tain
Ġcol lection
Ġim age
Ġdist ance
ateg ory
ĠB at
ĠBe fore
ĠAr m
ĠBec ause
f ect
ĠD en
Ġm echan
Ġobs erved
ad a
Ġl if
ĠH urricane
ĠT im
Ġopp ortun
Ġtit led
ĠViet n
ĠB BC
à¤Ĺ à¤£à¤¨
Ġj ournal
ed s
ast ic
Ġwrit ers
à¤° à¤ļà¤¨
re l
Ġfeat uring
Ġw a
à¤¼ à¥ģ
Ġsh are
Ġb order
ĠF red
ĠComm ission
Ġstreng th
ĠB ridge
Ġindepend ent
Ġw or
z y
Ġcont ent
Ġfig ure
Ġsit uation
Ġm el
Ġin ch
al le
Ġsp ot
Ġà¤® à¤²
à¤ª à¤¯
m as
Ġp aid
Ġwe aken
l a
ĠL ife
ist ry
ste in
1 1
ĠCol umb
l am
Ġp arents
Ġdiv ided
Ġprem i
Ġm ind
ĠPar is
ĠSer ies
Ġact ing
Ġ198 6
Ġon to
à¤°à¤ļ à¤²
ĠLit tle
Ġact or
Ġcompan ies
ĠBatt alion
Ġcoll abor
ann a
ĠPro du
ĠL uc
ph y
Ġconc ent
ill a
ĠG ra
Ġ194 3
rick et
Ġre form
Ġslight ly
per ial
Ġch o
ĠEnter tain
Ġr ating
Ġpiec e
Ġà¤¨ à¤Ī
Ġto day
Ġer a
ann el
à¤ĩ à¤¤
m ission
ĠP op
6 0
Ġl ot
Ġsqu are
Ġpolic y
Ġpower ful
Ġs elling
m ark
à¥Į à¤Ĥ
ĠO s
à¤Ķ à¤°
ĠHist or
Ġmax imum
c hest
Ġdis e
th let
u ge
Ġbl ue
Ġinn ings
Ġtor ped
Ġà¤Ĩ à¤°à¤®
os aur
Ġro ugh
Ġcon ver
Ġ5 4
Ġplay s
Ġte nd
Ġact ions
Ġbro ke
it an
Ġà¤®à¤¦ à¤¦
Ġwat ers
ĠCro at
in em
Ġinter p
ot a
ro wn
Ġsc ale
Ġbeh av
Ġult imately
ĠAcad emy
Ġb ound
Ġtri al
rup t
ot i
Ġdesign ated
Ġpil ot
z a
Ġcomplet ely
m ond
Ġà¤ī à¤°
ĠS k
Ġ ess
ub e
Ġnew s
Ġresul ts
Ġg ar
ĠL ine
Ġà¤¤ à¤®
Ġs ay
Ġsoc iety
ĠMus eum
Ġs ought
A F
Ġwe bs
ĠS aint
und er
Ġmain ly
ĠH or
Ġthe ory
ĠV an
ik i
ĠA rab
Ġc orn
Ġsour ces
Ġh us
Ġactiv ity
ol ved
c ers
Ġth ous
ĠW ay
ud d
Ġcomb ined
ĠCon f
al a
ibr ary
Ġofficial s
Ġà¤ĩ à¤®
yl van
ĠEntertain ment
ĠLe e
Ġstru ck
Ġcall ing
er o
Ġà¤ķ à¤ł
Ġw ear
Ġv ess
ian o
Ġinflu enced
à¤² à¤ķà¤°
Ġsecond s
Ġrequ ire
Ġproble m
Ġth ir
ĠItal y
rac ted
ĠN H
Ġalong side
ĠA ut
Ġb atter
Ġsystem s
Ġrec ent
Ġnort heast
wh ile
Ġm em
ĠB rigade
on n
Ġs out
ors es
ĠAmeric ans
Ġval ue
Ġwin ter
ent ed
ĠI re
r ative
Ġ ice
ĠAl b
Ġs n
Ġart icle
Ġelect ric
ĠT od
ĠCar l
Ġnomin ated
Ġsu c
Ġc row
Ġtr ue
Ġplat form
Ġg ained
Ġà¤¤à¤¹ à¤¤
Ġwid ely
à¤ľ à¤ª
Ġart ists
Ġconfir med
ad el
Ġ ir
Ġres ist
Ġn aval
Ġc hem
ĠIre land
ĠS ub
ĠReg iment
quar ters
ĠG ood
Ġpromot ed
p son
Ġreach ing
Ġpro ved
Ġconf lict
b on
ĠS ant
Ġpass ing
Ġhe re
Ġgreat est
ĠA venue
Ġ6 00
Ġexpl ained
ĠE ll
Ġà¤¹ à¤Ł
ĠR ay
al ing
Ġad j
Ġsubsequ ent
ag a
ĠFle et
ĠC he
Ġalbum s
Ġchar ge
Ġcom ing
Ġg reen
Ġw ick
Ġvers ions
ĠB us
Ġp ath
ou red
Ġinv asion
Ġ198 5
ĠOr ig
Ġhe ro
ĠW ork
Ġpe ace
Ġsix th
ĠL o
t ation
e es
Ġwe ather
g rad
ĠD i
ic ed
Ġser ve
Ġ5 3
Ġnorth west
ĠM at
ip s
Ġcount y
t own
Ġs ays
Ġà¤ľà¤¨ à¤Ĺà¤£à¤¨
Ġshort ly
Ġà¤¨ à¤°
Ġsu st
Ġexp ressed
Ġà¤ı à¤¡
à¤¤à¤° à¤£
Ġl a
ans ion
à¤¨ à¤¦
Ġ9 7
Ġcaus ing
Ġb urn
ĠAd d
à¤ľ à¤µ
Ġse ek
ys is
Ġrece ption
Ġc ities
ĠVictor ia
ĠN orm
it ness
Ġ198 4
ĠCath olic
ĠT ropical
Ġk g
ĠR y
à¤Ī à¤¸
ĠVal ley
ĠF ar
à¤ħ à¤¤
ĠR am
Ġs ense
Ġres idents
Ġem ot
ĠChar l
ĠComm un
Ġsound track
ĠN in
Ġà¤¨ à¤ķ
ĠL ight
Ġp un
Ġext ra
ĠL ive
ĠK ar
Ġphys ical
ĠL iber
Ġe as
ĠV ol
ĠMid dle
Ġsex ual
anc y
Ġse asons
Ġh ospital
Ġappear ances
Ġdist rict
Ġ17 7
it able
Ġ {
ĠD un
Ġg as
Ġd ata
ard en
Ġident ified
Ġold er
à¤· à¤°
ĠS a
Ġ iron
igh th
ĠW W
à¤¤ à¤ª
Ġp al
Ġà¤ħ à¤ªà¤°
ĠH y
Ġhand s
Ġoff er
inf all
ron ic
Ġav oid
ĠT op
Ġ4 1
à¤· à¤®
Ġà¤¹à¤® à¤²
à¤¶à¤¨ à¤²
Ġd edic
ĠM en
Ġt ells
ĠSh ow
ĠTh ough
Ġsup p
Ġà¤Ĭ à¤°
Ġrepresent ed
Ġwe ight
ĠJ ul
Ġart illery
ĠD irect
Ġweap ons
Ġa head
Ġb it
ĠFoot ball
i as
ĠL y
ĠY oung
ĠTh rough
à¤¯ à¤£
ad ed
ylvan ia
e ption
ĠF re
Ġp age
ĠT ay
Ġal one
port s
ab eth
Ġsp read
kn own
ĠB ey
Ġag g
Ġheav ily
ĠD utch
Ġà¤Ĩ à¤ªà¤ķ
Ġinst it
or ation
Ġpat tern
l ers
ĠUp on
Ġstud ent
Ġapp arent
Ġlab el
Ġstud ies
ĠWe ek
Ġchall en
b ur
ĠT em
Ġmag n
Ġdef ense
ĠEl iz
Ġoffic ially
Ġw ild
Ġc ell
ĠI ll
Ġhus band
à¤¨ à¤ķà¤°
ess ions
ĠAl bert
Ġrefer ence
à¤® à¤ļ
Ġse nd
Ġex ecutive
Ġorgan ization
Ġinstr ument
Ġp ack
Ġcapt ure
ĠD am
Ġp ict
ĠB re
Ġdeb uted
Ġinj ury
Ġà¤Ĺ à¤¢
Ġg raph
à¤¤à¤° à¤°
Ġprom inent
Ġh ap
Ġfig ures
r at
ĠR og
Ġcons isted
Ġst one
à¤ĩ à¤¯
ac ity
ĠSy stem
Ġequip ment
Ġ5 6
Ġdo ing
Ġe th
Ġf ired
ro g
à¤¥ à¤ķ
Ġmat ter
Ġo x
ĠC ivil
ĠB ond
Ġp an
p ool
Ġst ep
Ġres c
ĠI S
ĠG al
Ġgrow th
Ġpre par
l ines
Ġhy d
Ġh un
urb an
Ġ9 5
Ġarg ued
Ġà¤¤ à¤Ł
Ġr ing
Ġsur pris
Ġa ired
Ġb ud
Ġ196 8
à¤ī à¤¤
if ying
Ġà¤µ à¤ķ
Ġexp ed
ord in
b it
ĠH a
Ġ5 7
Ġcou ple
Ġear th
ĠH omer
Ġreturn ing
ol a
Ġprop os
ent al
Ġcontem porary
us hed
Ġpo et
em ic
Ġdou b
Ġt able
Ġc ert
Ġt un
ĠF e
Ġh abit
Ġfl oor
Ġà¤¸ à¤ļ
ĠNort hern
Ġlead ers
Ġaff ected
ac ement
Ġr ang
Ġl aid
Ġ8 5
am ber
ĠH ard
Ġcommun ic
he w
Ġshe ll
Ġpiec es
Ġmain tain
Ġmain tained
Ġà¤ī à¤¡
in son
Ġ *
Ġterm in
iv ity
ĠSt orm
st one
yp e
Ġocc asion
re ct
Ġcom es
1 3
Ġvis ited
Ġspe ech
ĠDan iel
à¤° à¤Ĺ
Ġactiv ities
Ġ196 7
ul s
Ġra in
n ers
Ġcritic ized
Ġdis pl
Ġset ting
Ġà¤īà¤ª à¤ķà¤°à¤£
Ġd rug
Ġtourn ament
Ġex ec
Ġl oad
ĠJ on
Ġatt ract
à¤ħ à¤²
oc key
Ġem ph
ĠCarol ina
ĠGovern ment
Ġh all
u ct
Ġc itiz
Ġb ul
Ġà¤Ń à¤µ
Ġ193 9
ock ed
Ġre ign
Ġad apt
Ġto ward
Ġsing les
Ġtre es
Ġform ation
ĠR om
Ġà¤ĩ à¤¤à¤¨
ĠDe v
Ġmed ical
Ġà¤Ĳ à¤¤
Ġterrit ory
Ġ197 1
e f
Ġsen ior
Ġ ut
Ġt rying
à¤Ł à¤µ
ĠMar sh
Ġcrow d
est ic
ĠScott ish
Ġworld wide
ĠC D
el ve
Ġst ations
Ġmach ine
ĠDist rict
Ġfollow s
ĠHol ly
emb ly
Ġà¤¸à¤¹ à¤¯
Ġd og
ĠO cean
velop ment
orn e
ĠW rit
Ġà¤¸à¤« à¤²
Ġ197 2
ru it
ag n
Ġsur re
Ġà¤¤ à¤²
Ġà¥ ¬
ĠR od
Ġg od
ĠF ield
Ġ12 0
Ġd oll
ĠOper ation
Ġf ully
ĠM D
Ġ198 3
Ġneg oti
al y
ĠH ome
Ġbird s
Ġthere fore
ĠGovern or
Ġ7 4
Ġed itor
Ġclaim s
g ian
Ġris k
g u
Ġs ens
Ġd yn
ĠF antasy
Ġspl it
ĠBack ground
om ers
Ġ5 9
Ġmur der
ul ed
Ġacc ident
res h
Ġsup ply
ĠGu ard
led ge
Ġhistor ian
ĠCol on
Ġtreat ment
ĠPenn s
stit ution
res p
Ġra infall
Ġfrequ ently
Ġch osen
Ġ9 9
ĠSh ort
ĠP ers
ra el
ĠDu ke
Ġun iversity
Ġele ment
Ġ198 2
Ġtw ice
F A
ell er
ĠL ew
Ġgu est
ay er
ĠG irl
Ġreport s
il ly
ĠStud ios
iz es
B A
Ã ¨
Ġp aper
ge nd
ĠPol ish
à¤¨ à¤ª
Ġle aves
Ġcond ition
ĠBe at
Ġsim ply
ab les
ã Ĥ
ĠE astern
Ġgovern or
Ġop in
on ents
Ġrem ark
Ġbill ion
à¤ĩ à¤®
Ġplan et
ĠSen ate
amp ion
ĠC orn
uf act
Ġb al
ĠR os
Ġà¤ħ à¤¶
Ġ197 9
Ġf aced
Ġà¤ļ à¤°à¤£
Ġ196 9
Ġoper ated
Ġwall s
Ġman ufact
Ġdeg ree
or ter
ur a
ĠB art
Ġtyp ically
Ġcont ained
ĠAnd rew
ĠJ ud
Ġ197 5
Ġs we
Ġesc ape
Ġs le
et y
ĠH um
ĠN ight
ĠMe an
is ters
Ġg rew
Ġsurround ing
Ġà¤« à¤°
m ore
t ar
Ġcann ot
Ġf air
ran ce
isc o
ĠChrist mas
u ous
Ġwebs ite
Ġh orses
Ġn ative
Ġher self
Ġà¤ľà¤¨ à¤¤
Ġmom ent
ut ation
Ġà¤īà¤ª à¤¸
Ġ196 4
Ġaccom pan
à¤µ à¤ľà¤¨
Ġun f
Ġ7 6
Ġw ounded
Ġpass es
Ġm aster
ĠAll ied
Ġf uel
am ing
ant ly
ric ult
Ġd raft
Ġrail way
Ġ7 2
Ġnot hing
r ich
r in
ĠWil son
Ġbro wn
Ġph il
ĠD et
ĠU s
Ġatt rib
Ġexper iment
Ġre inf
Ġauthor ity
ful ly
à¤ķ à¤®
ĠTay lor
ĠS S
ĠG i
Ġvot e
Ġar ms
ĠP en
Ġfe ed
Ġp sych
Ġd ang
Ġl ives
ĠAlex ander
ĠEliz abeth
Ã ¤
Ġord ers
Ġcons ecutive
ĠC a
ĠL and
Ġun known
ograp her
ĠO f
Ġopp osed
le ment
Ġ197 3
Ġc amer
ĠJ ac
ag er
Ġ196 5
Ġserv ing
ĠEx p
Ġch ose
is f
ĠM ike
Ġwork ers
Ġnew ly
ĠJo e
ĠR et
ĠE ach
ab y
Ġparticip ated
Ġemph as
Ġf an
im ens
Ġgrow ing
anc ing
uck y
az z
Ġbene f
Ġcas ual
Ġb ass
ĠS ound
ĠCast le
Ġadv anced
ĠF estival
and a
Ġprodu cers
pt on
ĠHe ad
il ies
Ġspir it
Ġ rom
Ġsequ ence
Ġl osing
ĠWh at
Ġa st
Ġbas is
Ġà¤¸à¤« à¤²à¤¤
Ġadop ted
Ġhe ard
t hen
Ġcap acity
Ġ8 00
Ġ196 6
Ġfilm ing
Ġoff ensive
Ġsever e
ĠPenns ylvania
Ġex tend
ĠIs lands
Ġcomp ar
Ġ5 8
Ġ6 2
ors hip
Ġopp osition
Ġin te
ĠIn st
us es
ĠW at
Ġcoun cil
ĠC ard
e ed
Ġf iction
ĠIn stitute
Ġgu ard
Ġnorm al
Ġpr in
ĠBl ue
Ġcreat ing
ĠG all
Ġ ur
Ġend s
i ated
Ġà¤¹ à¤²
Ġadv ant
Ġ0 9
ĠE lect
Ġact ors
Ġà¤ķà¤¹ à¤²
av en
Ġ197 6
Ġnewsp aper
Ġà¤ĵ à¤²
Ġent er
Ġwe ak
Ġ197 4
Ġ6 6
à ¦
ĠIr ish
ĠT ech
Ġ17 8
ĠRec eption
Ġre ar
Ġsqu adron
Ġ5 1
Ġabandon ed
à¤£ à¤¯
Ġprom pt
im al
Ġr ival
ĠF urther
is ers
Ġà¤ħ à¤ľ
ĠF am
Ġexp ansion
Ġk ick
Ġele v
Ġhap pen
Ġpol l
Ġsp ect
w ar
ĠHar ry
Ġhon or
Ġneg ative
Ġbe y
Ġf lying
Ġco al
Ġmeas ure
el d
Ġlaun ch
à¤°à¤¹ à¤£
on c
Ġà¤¤à¤° à¤«
ĠSp ain
Ġm ob
ĠJ ersey
o h
Ġindivid uals
Ġregard ed
Ġfail ure
o ch
im a
Ġfilm ed
Ġcritic ism
Ġbey ond
Ġde ploy
Ġcol umn
Ġv o
Ġagre ement
ĠE nd
ĠA re
Ġinc ident
Ġdel ay
Ġhom es
ĠCo ast
ĠSqu are
ap ers
Ġsp ring
ĠS and
Ġsp orts
Ġey e
Ġl iber
ĠP ublic
oun ger
ĠU l
Ġfam ous
Ġnecess ary
Ġcont act
à¤ª à¤®
ĠL ind
Ġch air
Ġposs ibly
Ġhistor ical
in y
Ġs ail
Ġ7 7
im et
Ġev ac
ic o
Ġdism iss
Ġtem pl
ĠB ul
Ġpar alle
Ġb odies
Ġbelie ve
Ġâ Ī
Ġapp lic
ĠW ild
Ġbo at
ific ations
on ent
Ġachie ved
ĠV en
ian a
Ġide as
Ġprog ress
ĠBro ad
Ġstri ke
ĠM ul
Ġsil ver
ĠB oard
Ġro les
Ġnar row
Ġdise ase
in er
Ġà¤ĩà¤¸ à¤¸
Ġ198 1
ĠProdu ction
Ġp et
Ġret ired
à¤Łà¤° à¤¨
ĠIs rael
i i
m osp
Ġkill ing
Ġfell ow
h ol
i enced
s et
ĠM ir
Ġdr ive
ĠAs h
ĠAr thur
à¤¹ à¤¸
ĠRev olution
Ġrepe ated
Ġim ag
k ins
ĠS und
Ġt ree
Ġt ask
Ġdef in
Ġpurp ose
ed om
Ġd iam
Ġeffect ive
Ġtorped o
Ġarran g
ĠP erson
Ġper man
ock s
om a
Ġbrief ly
Ġar med
ĠB ell
Ġrece ive
Ġapp l
Ġgl ob
Ġ194 8
Ġ191 8
ĠD ue
Ġ6 7
ĠC ub
ĠE p
Ġto wer
Ġgrant ed
w orth
Ġbud get
en ger
Ġadminist ration
Ġ25 0
ĠAr g
ĠL es
Ġperson nel
Ġcont ain
Ġroad s
k es
Ġà¤¸ à¤ľ
Ġmanag ement
Ġreject ed
im ents
ĠDo ctor
Ġin h
Ġimpro ved
ĠMean while
av ed
Ġgro ss
Ġlead ership
à¤ĩ à¤µ
Ġtw elve
ĠPro t
Ġso ft
ĠCl ark
ĠRepublic an
Ġexp ress
Ġà¤µ à¤ľà¤¹
Ġpl ants
Ġ191 4
Ġkilomet res
ĠAl bum
l usion
aval ry
Ġinter change
Ġext ensive
u ate
Ġle arn
Ġb ott
Ġ197 7
e v
Ġstra ight
Ġdescrib es
our ney
ĠM ah
Ġturn s
Ġexp anded
ĠOh io
z il
Ġpre fer
Ġy ellow
Ġhigh light
Ġch oice
Ġland s
Ġtyp es
Ġbro ken
Ġinf antry
ol n
Ġse at
Ġanim al
i Äĩ
Ġg ives
er c
Ġpl aces
à¤ķ à¤µ
Ġint ellig
Ġland ing
Ġsol o
ĠSecret ary
g ers
Ġsuccessful ly
à¥§à¥ ¯à¥
Ġf ranch
Ġex cl
Ġm ile
ĠL iver
Ġà¤Ĺ à¤£à¤¨
ĠM ov
adel ph
Ġs and
Ġt ru
Ġdid n
Ġqu ot
Ġcross ing
Ġ197 8
Ġdel iver
ĠB ru
ĠS R
Ġà¤ķ à¤¶
Ġà¤® à¤¶
Ġexpl os
Ġcre ation
h aps
Ġw ave
Ġorgan ized
ri f
Ġch or
Ġà¤ħà¤® à¤°
Ġf ought
Ġ6 3
ĠPhil adelph
app y
Ġc aught
ĠR el
Ġà¤ĸ à¤¡
Ġsugg ests
ĠD ur
Ġcomm ittee
Ġanc ient
Ġnuc lear
r us
ĠB urn
Ġveh icles
Ġcommission ed
ĠS her
st ream
Ġro of
Ġacqu ired
t a
Ġf at
ĠE ven
ĠL ar
ĠN ever
a ith
ĠH it
ĠCamb ridge
et ball
ĠAl so
ĠGeorg ia
Ġt y
Ġhe ight
Ġdram a
am in
ak ers
b ox
ĠCon st
Ġro ll
à¤¬ à¤¹
ip l
Ġsevent h
Ġcommon ly
ĠPhiladelph ia
Ġcom edy
Ġenc oura
z er
Ġun su
Ġprot ection
Ġà¤¸ à¤¡
Ġ194 6
Ġd rop
Ġà¤ı à¤¯à¤°
Ġdeterm ined
n g
et ts
ut ing
Ġlook ing
Ġà¤¹ à¤¤
u an
Ġgen us
Ġauthor ities
Ġd ial
Ġcontrol led
ol es
Ġset s
Ġrec ently
Ġhead quarters
Ġmention ed
Ġà¤° à¤¨
ĠRuss ia
Ġcent uries
att le
Ġ x
Ġ7 3
ĠK a
Ġbe aut
Ġis lands
Ġprov ides
à¤¦ à¤µ
um es
Ġill ust
Ġrequ est
ĠW ars
ĠAdd ition
Ġst reet
ĠG il
Ġcont aining
g n
à¤¡ à¤µ
art s
Ġtra v
Ġfav our
ĠCh ap
Ġsec urity
p ut
Ġa im
Ġun ique
ĠB ad
Ġdec re
Ġfam ilies
Ġac ad
Ġfind s
rest ling
is hes
à¤® à¤§
Ġad vert
v a
Ġhouse hold
Ġvar i
ĠAm ong
Ġ16 0
ĠNin tend
Ġref lect
ĠLiver pool
Ġv en
Ġun p
Ġtit les
Ġexist ing
Ġ8 7
ĠDe velopment
out s
Ġstand ing
Ġm ic
à¤ĩ à¤ľ
ĠH ay
Ġsup por
ĠNintend o
Ġt ry
Ġà¤Ľ à¤¤
ĠEar l
ĠL inc
resp ond
ĠColumb ia
Ġf ish
Ġcon vers
à¥įâĢ Į
Ġs ac
w are
Ġwithd raw
ĠPr ime
ĠAs ia
Ġsing ing
ĠComm on
ĠJ enn
Ġcult ural
it led
Ġm ist
Ġbatt alion
Ġprot ect
Ġentire ly
w ater
ul ate
ill ing
Ġdec k
Ġfin ish
Ġ196 2
Ġor chest
ĠSing ap
ĠCh ild
Ġ6 9
Ġm is
il ing
à¤Ł à¤¬
Ġcontrib uted
ĠKore an
ĠH un
pp ing
r ons
ĠLinc oln
à¤ ĳ
ĠP ot
Ġwh y
Ġtouch down
av a
Ġat mosp
Ġro w
Ġ194 7
Ġa wards
Ġf ix
Ġdef ence
Ġdef ined
Ġthem es
n s
ro om
Ġy ounger
ĠBra zil
ĠT am
Ġth ing
ĠPe ople
ĠB as
Ġsim ple
ĠL ieutenant
Ġcurrent ly
Ġ195 6
ĠOff ice
à¤¬ à¤®
Ġcomp uter
Ġqu ite
Ġflood ing
à¤µ à¤ļ
ĠR ol
in ity
ic ial
Ġpow ers
ĠB or
Ġà¤Ĺ à¤¹à¤°
ĠJew ish
ĠM ot
Ġloc ations
A T
Ġ201 8
Ġsched uled
Ġinter act
Ġpurch ased
Ġw orth
at ures
ĠH on
ĠSingap ore
w all
à¤® à¤¯
Ġper fect
Ġ196 3
r ant
ĠFranc isco
Ġdef ensive
Ġl ic
ĠD ark
Ġarr ival
Ġun us
Ġà¥ ®
Ġres emb
d y
Ġcerem ony
Ġaccompan ied
Ġadvant age
ĠS ix
Ġexped ition
w ick
Ġphil os
ĠK ey
y m
ĠDis ney
Ġdedic ated
ĠL is
Ġperform ing
S tation
Ġb at
Ġext rem
pp er
Ġse lection
ĠâĪ Ĵ
u a
ac ted
ĠCare y
h i
Ġst ore
ag an
l aim
ĠIn c
hen s
ĠOr der
ĠPlay Station
Ġintens ity
ash ion
ĠK el
Ġoccup ied
r ations
y les
Ġsqu ad
ĠS u
ĠH MS
Ġcar ry
Ġn ob
b a
Ġt im
Ġ9 4
Ġf resh
Ġt ail
à¤ª à¤¹à¤²
Ġcons ists
Ġc ricket
ĠU N
ĠD ie
al i
ĠT urn
f ort
Ġm ounted
Ġclos ely
Ġm outh
Ġà¤ı à¤ľ
à¤« à¤°
ĠSer b
ĠLew is
ĠRad io
ĠCon ference
Ġs ession
ro ll
it ors
ĠAnd erson
c ript
Ġe gg
ĠBro ok
Ġcor respond
Ġbel ong
ĠB alt
Ġf irm
ĠP u
aw a
ĠSte ve
ĠMill er
ot ic
Ġprot ected
à¤Ł à¤µà¤°
Ġà¤® à¤ľ
ver se
Ġel imin
Ġindust rial
ĠM u
ĠBy z
ĠOlymp ic
m outh
Ġparalle l
Ġ9 6
os a
Ġc old
Ġ191 7
Ġsupport ing
ĠI V
ĠSh ak
il ton
Ġfac ilities
ĠGr ant
ĠK ir
Ġp iano
à¤ĩà¤¨ à¤®
ĠOn ce
ĠCon n
Ġdra wn
Ġà¤Ķ à¤¸à¤¤
Ġcall s
g est
Ġanal ysis
Ġà¤īà¤¸ à¤¸
k er
ĠA v
Ġreg ions
Ġtra ins
Ġmot ion
ĠB rian
Ġr ise
Ġh yp
ĠRail way
Ġr ated
ĠByz ant
Ġbo ats
F L
ĠNH L
g al
Ġmot or
Ġstruct ures
ul ts
Ġad ap
oc ated
ĠP ress
à¤ı à¤«
Ġh air
ĠBar b
il er
ing ly
Ġpro s
Ġa id
Ġsub mar
Ġnot able
ĠEm peror
à¤Ł à¤¤
Ġsp ort
Ġvis ual
Ġchart s
Ġl ap
Ġl abor
Ġth row
ĠW ater
Ġcom ic
Ã ¸
Ġprov iding
ĠO b
se y
Ġ6 8
Ġrece iving
Ġopportun ity
Ġfoc used
Ġsh ark
Ġcitiz ens
Ġeng aged
ĠJ r
à¤ĩà¤¸ à¤¸
Ġh arm
ol id
rop ri
Ġshoot ing
Ġobs erv
ĠSum mer
uz z
ĠG ulf
Ġexper ienced
Ġstreng then
Ġcon ference
ĠH an
Ġà¤¬à¤¨ à¤¨
Ġsit es
ĠG er
ĠHolly wood
Ġtrans form
Ġlet ters
ĠSpec ial
Ġvol ume
Ġv ac
Ġreact ion
Ġs ort
Ġm ut
ĠOn ly
Ġhold ing
if ically
Ġsymb ol
ing er
ad ing
he im
ĠGerman s
Ġb ranch
Ġrecogn ized
Ġmount ain
Ġres ident
ĠWal ter
Ġtemper ature
Ġà¤ħà¤µ à¤¶
Ġey es
ĠDav is
ĠRe view
Ġview ed
un ior
à¤ķ à¤Ī
Ġà¤² à¤®
Ġro b
Ġà¤ķ à¤Ł
ĠG ib
Ġh ired
A R
Ġsout heast
à¤¦ à¤¯
Ġal le
op her
Ġmer ch
bur gh
ĠTi T
Ġ8 2
ĠTi P
Ġsem i
ĠB ank
at i
Ġpro te
Ġrapid ly
Ġschol ars
ĠM as
Ġsh ared
or a
ĠJe an
Ġ8 4
Ġg ain
ĠAt t
Ġhyd ro
Ġ8 9
à¥¦à¥¦ à¥¦
ĠD own
ĠDemocr atic
Ġà¤ķ à¤ķ
ĠF all
ĠN ap
Ġdig ital
en c
Ġc art
Ġte ach
Ġadd ing
Ġpublic ation
h an
ess ed
Ġconc er
ograph ic
Ġpo em
Ġeconom y
Ġ196 1
ast y
Ġste el
à¤ħ à¤®
Ġcasual ties
ĠBet ween
o z
ĠR ome
Ġed ge
Ġà¤ħ à¤¸à¤®
à¤® à¤ª
Ġmod er
st anding
à¤Ĺ à¤£
Ġsecond ary
Ġcont est
Ġdevelop ing
Ġ7 00
Ġv on
ĠPro v
Ġc ool
Ġ7 8
Ġproject s
f riend
Ġ191 9
à¤ļ à¤¤
ry st
ren ce
Ġ }
ĠPr inc
Ġinters ection
z en
ĠT en
Ġ201 7
Ġà¤Ĩ à¤ı
y er
ĠW omen
Ġch ance
om ew
Ġappro ved
Ä ģ
Ġex act
Ġà¤« à¤²
Ġinst ruct
Ġs ave
à¤Ĩ à¤ľ
olog ist
ĠLad y
Ġc ard
ĠG ord
Ġr ac
ak a
Ġgo es
er al
ĠMus l
ell a
Ġà¤īà¤ª à¤ļ
ĠPl an
onc Ã©
if ul
Ġmy th
Ġsub stant
Ġ191 5
ul es
Ġloss es
ĠD aily
Ġallow s
ond er
Ġtechn ology
Ġprep ared
Ġbelie f
ĠInd ust
Ġsignificant ly
Ġliter ature
ĠN az
ĠM ain
Ġen l
Ġà¤¨ à¤®
ran ge
Ġdom estic
Ġcal c
Ġband s
à¤¦ à¤²
Ġw itness
ĠS E
Ġany thing
Ã¡ n
un te
Ġl b
ĠSy d
Ġà¤Ĩ à¤®à¤¤
à¤¬ à¤¤
Ġre asons
Ġfranch ise
ĠB ern
Ġ13 0
b reak
Ġkn ew
Ġ ign
i ro
ach us
m es
Ġre nd
om ic
ĠBey oncÃ©
Ġad vent
Ġdes cend
Ġhead s
Ġà¤® à¤ķ
Ġunsu ccess
Ġmess age
ir a
Ġact ress
Ġrul es
Ġrough ly
ĠC ur
ĠComm and
Ġsouth west
Ġste am
Ġc ab
Ġ urban
à¤¶ à¤°
Ġresist ance
Ġc ore
ĠP oint
os is
Ġ8 8
B S
ĠSt ation
am m
Ġà¤ħà¤µ à¤¸à¤°
Ġp itch
à¤ł à¤ķ
à¤ħ à¤¬
ĠV ar
Ġad ult
Ġ191 6
Ġpain ting
Ġ193 8
thel ess
Ġc ars
ĠA D
ĠWh it
ag ement
Ġsh ape
ĠM em
im inal
Ġsh all
Ġ195 7
ony m
ĠN ick
ĠF air
Ġ7 9
Ġbrother s
ĠSup reme
ĠColon el
Ġd aily
Ġt ank
Ġe t
Ġass ault
Ġ193 6
Ġgame play
ĠSp ring
Ġà¤Ĩ à¤ł
Ġà¤Ń à¤ķ
Ġstory line
Ġemploy ed
Ġag ent
Ġaltern ative
Ġf it
ĠM os
i ents
o ir
w ise
Ġà¤ª à¤Ł
Ġinj ured
Ġà¤® à¤ľà¤¬
Ġper haps
Ġget ting
ĠKent ucky
Ġà¤¦ à¤¬
Ġis ol
ĠInd epend
at o
Ġn or
Ġwat ched
Ġopin ion
if orm
Ġcomp osition
Ġpopular ity
Ġà¤Ĩà¤¸ à¤ª
ĠR oss
ink ing
Ġc ells
Ġmiss ing
Ġà¤ħ à¤Ĺà¤²
Ġdesc ription
ĠL ab
Ġconver ted
v est
ĠThe at
Ġren amed
Ġregard ing
Ġview s
ad s
ĠNor way
ĠB all
Ġdecl ined
Ġenjoy ed
Ġconn ected
Ġ195 3
Ġcomp ris
ĠM TV
ĠB al
Ġl ov
m od
Ġà¤Ĩ à¤ļ
k o
Ġs un
Ġest ate
ĠAb b
Ġsh aped
Ġrep utation
ĠPhil ipp
ĠOlymp ics
ĠI mp
Ġ9 8
Ġd ry
Ġunder t
Ġdep th
os l
ĠGold en
ul pt
Ġover l
Ġ201 9
ĠB ase
Ġret ire
Ġmus eum
Ġ195 8
19 9
ur ation
Ġrepl ace
b ound
ĠS el
Ġag ricult
Ġd rew
Ġst ages
ĠW alk
c ome
ĠMass achus
ce ived
Ġdist ingu
Ġequ al
Ġknow ledge
Ġc ited
ĠS us
Ġn ick
Ġeas ily
Ġà¤īà¤¨ à¤®
Ġnot e
ĠPre m
ath an
ĠAir port
ig g
ĠD ream
ĠMassachus etts
re ts
Ġb ed
ĠL et
Ġ195 5
ĠV i
Ġà¤¬à¤¨ à¤¤
Ġj ourney
Ġfl u
Ġhead ed
Ġaut h
ol t
ist an
e per
Ġse lect
2 5
Ġincreasing ly
ĠA C
Ġ195 2
à¤¯ à¤§
Ġplan ning
ĠR on
Ġ195 4
Ġlim it
Ġturn ing
Ġst adium
t ical
Ġappro ached
ĠH art
Ġà¤ĩ à¤°
Ġex erc
ild ing
à¤µ à¤Ł
Ġf ashion
Ġp ul
Ġrespond ed
un icip
ĠAb out
e g
Ġ195 9
ign ment
Ġwe alth
em an
Ġexist ence
Ġsyn t
Ġoper ating
ĠK en
ĠR un
ig er
Ġcol lected
ac ts
Ġconstit ution
Ġesc ort
in ary
Ġsuc ceeded
Ġà¤¨ à¤ľ
Ġsaf ety
ps ons
Ġreb u
on ia
Ġintrodu ction
Ġdep end
Ġtri p
ĠIn it
Ġex change
Ġmod els
av ig
ret t
Ġshow ing
Ġocc as
Ġdet ails
à¤² à¤Ń
Ġcol le
ĠMc G
ĠSim psons
Ġimpro ve
Ġlear ned
Ġt all
ol i
Ġà¤¸ à¤µ
Ġpromot ion
Ġsust ained
Ġà¤¤ à¤¨
el er
ĠSong s
Ġcar rying
ival ent
à¤¨ à¤Ĺà¤°
Ġy outh
Ġim pl
Ġbase ball
eng ers
ĠIm perial
b o
le ton
ĠP ict
ĠJ ay
Ġse ems
Ġhum ans
our ces
ĠVietn am
Ġv an
Ġcred ited
ĠR em
Ġbur ied
Ġà¤ı à¤ļ
h at
Ġ193 7
Ġlaw s
Ġarran ged
ct ions
à¤ª à¤¶
ĠC ape
Ġaut om
Ġjoin t
st ate
Ġit ems
B N
Ġsol id
ĠOtt oman
Ġinst all
Ġr hy
Ġprodu cing
Ġa thlet
ĠWh o
in th
Ġs ections
Ġdesign s
à¤¸à¤² à¤®
Ġpro ceed
Ġshe l
Ġearl iest
ĠR oy
Ġfl at
Ġweaken ed
re c
à¤¹ à¤¤à¤°
ĠPol and
Ġpain t
à¤ª à¤ļ
Ġstat ement
ĠSyd ney
Ġt on
ĠF ire
ĠShort ly
ĠMo ore
Ġsettle ment
Ġb rand
Ġret ained
Ġ17 5
Ġne ut
Ġlast ed
Ġscient ific
Ġfre eway
Ġcop y
ĠSt ew
m b
ĠN aval
Ġà¤īà¤¸ à¤®
ĠMary land
Ġland fall
ĠE du
Ġappl ied
Ġac res
Ġ11 0
Ġvir t
ĠC ra
Ġprogram s
ĠI G
ĠP ass
Ġà¤ıà¤ķ à¤²
Ġc atch
l an
Ġ à
iss ance
Ġà¥§à¥ «
Ġgen re
Ġappoin t
A C
b ell
ĠJ es
re ll
ĠAr ts
Ġun s
p et
ot hes
Ġtr ust
ad er
iv ered
ĠG reg
Ġassist ant
Ġcon sequ
Ġplay off
ins ula
Ġres erve
por ation
Ġt ick
à¤ĩà¤¸ à¤²
Ġexcl us
Ġdistrib ution
ĠWW E
Ġviol ence
Ġf illed
Ġcoast al
Ġcandid ate
ac ter
Ġreg ister
Ġ194 9
m un
Ġent rance
ĠJ an
ĠA ri
Ġà¤ķà¤° à¤µ
ie ge
Ġh its
Ġcomb ination
Ġbatter y
Ġpat rol
ed ia
Ġtown s
m ath
Ġsc ulpt
Ġpolit ics
t ime
Ġpar am
Ġway s
Ġindic ated
el ess
le e
iz ations
ir ation
Å ¡
ĠBow l
Ġb an
ĠR a
m et
Ġgrad ually
j a
end er
Ġindepend ence
ĠR id
Ġdel ivered
Ġbott om
Ġ9 3
à¤Ĺ à¤¡
Ġ8 6
Ġem p
ĠB ir
Ġstop ped
e ke
Ġt act
Ġc inem
Ġeng ines
Ġgl ass
Å Ĥ
ĠB and
Ġc od
ĠConf eder
Ġst ream
ĠUn ivers
Ġ191 0
el a
Ġà¤ļ à¤®
Ġà¤ħ à¤Ĺà¤°
Ġà¤« à¤°à¤µà¤°
Ġim ages
Ġseg ment
ĠMul der
Ġon line
Ġpart ies
Ġrefer ences
à¤Ń à¤ķ
Ġm ig
Ġadd ress
ĠC op
Ġsuppl ies
ush ing
c a
Ġcamer a
ĠGord on
Ġ195 1
ĠB on
ĠSt adium
iqu es
ĠW ell
Ġappe al
Ġprison ers
b ar
Ġar c
i at
Ġact s
à¤Ĺ à¤ľ
Ġ6 1
ĠPro f
ĠRh odes
Ġextrem ely
Ġcamp us
Ġbas k
em ies
Ġadap ted
Ġsec ure
Ġfind ing
Ġà¤ª à¤¸
Ġdec ade
Ġent itled
ar p
Ġ7 1
Ġph ase
re ets
ĠSt aff
ĠÃ Ĺ
Ġimp lement
ĠTheat re
Ġt al
Ġtempl ate
rop ol
an o
ĠAn th
Ġdown load
ivers ary
Ġpropos al
ad or
ĠN ic
ino is
ĠV ill
Ġwin ner
Ġs omew
ĠK im
Ġrul ed
Ġent ry
Ġcons um
ad ow
ĠP o
Ġe c
Ġreg iment
Ġeven ing
Ġredu ce
Ġinvestig ation
man n
Ġthreat ened
Ġ0 6
ĠCon stant
Ġ9 2
ĠB a
ĠU r
Ġrel ief
Ġb ought
ĠA st
ĠP ower
ĠIn t
ĠJust ice
ĠI d
Ġking dom
ĠF ound
Ġà¤¦ à¤µ
Ġspec ifically
as hed
Ġsurv ived
Ġkn ots
Ġwrit es
Ġstud ied
ĠC irc
Ġ0 8
Ġdeath s
Ġcor rect
T he
Ġrelig ion
Ġw ars
ĠV II
Ġro utes
Ġm ales
ĠA ge
Ġrev olution
Ġac id
Ġcaus es
i y
Ġf ear
ie val
Ġpo ly
ĠO d
ĠInst ead
ro t
igh ters
Ġsp ons
Ġvot ed
Ġc rown
ph oon
Ġdut y
Ġf ict
Ġintern al
Ġs oul
à¤° à¤¥
Ġ Ø
Ġà¤ľ à¤µ
Ġà¤ĩ à¤ļ
oc al
ĠCol l
bour ne
B I
c ious
ĠH ere
ĠEng ine
Ġb le
Ġevery thing
ic ian
ĠM emorial
Ġag o
Ġimport ance
Ġal t
Ġrec alled
Ġà¤ļ à¤²à¤¨
Ġportray ed
Ġemer g
ap es
Ġinter ested
Ġcontrovers y
erv ative
Ġst ret
cher s
Ġsuff icient
ĠK ong
Ġbreed ing
Ġs ell
Ġoff ers
Ġcap able
ĠF A
Ġte acher
Ġproduct s
a ug
Ġreturn s
Ġt anks
Ġon es
ĠMc K
ĠT ony
Ġpre ced
Ġown er
à¤¦ à¤¶
ent ially
h r
ĠN el
Ġconv in
à¤ª à¤Ł
ĠG ram
Ġmet ers
Ġ193 5
ĠDirect or
ĠO k
ak i
Ġrecomm ended
Ġà¤ļ à¤¨
Ġact ual
Ġnomin ation
ĠSing les
v is
Ġconcern s
sen al
ĠM oon
Ġinst alled
rid ges
Ġarrest ed
Ġà¤īà¤ª à¤°
ĠAl f
Ġcorn er
Ġf ly
Ġb or
Ġoper a
ĠPro g
ĠTr ack
Ġd ates
ĠJ ord
ĠAd ams
ĠBe ach
ĠAl an
ĠIG N
w ich
Ġ193 3
à¤µ à¤§
Ġad mitted
le ase
Ġv ent
à¤ı à¤ļ
Ġun l
Ġinv ited
Ġcross ed
Ġequip ped
4 0
ĠY our
Ġt ell
ĠCrit ical
Ġcl imb
ĠMar ia
gl as
h us
Ġm ort
ruct ure
ĠSim on
Ġâ Ĥ
b ro
ĠB os
oy s
ĠHam ilton
ad d
ĠN BA
Ġst ock
Ġover se
Ġmed al
ĠC art
Ġstart s
and y
ĠV ideo
Ġprincip al
Ġcon qu
Ġg all
Ġsh ut
ĠAd am
rane an
ĠC E
Ġcr ime
Ġ19 00
ĠJ ane
ĠG en
ĠM ap
Ġremain der
ĠPro ject
Ġobject s
re te
il ation
Ġext ension
à¤¶ à¤µ
Ġap art
ĠPl ot
I A
Ġret reat
Ġsome one
Ġpromot e
ans as
Ġpr ice
ĠFore st
Ġchar ged
Ġdo or
ĠRes earch
Ġup grad
Ġfund s
osaur us
ĠDe ath
à¤ī à¤ªà¤°
esp read
ĠInd ones
Ġfem ales
à¤ĩ à¤ª
Ġconsist ing
oph y
Ġcompos er
f l
ill er
à¤¨ à¤Ł
ĠG un
Ġident ity
Ġà¥§à¥ Ń
ak ed
ck s
à¤° à¤«
h ar
Ġc ode
à¤¹ à¤¦
er ted
Ġcol our
Ġsk in
R A
2 1
Ġtyp ical
Ġmil it
Ġconsider able
Ġà¤ª à¤µ
Ġà¤ħ à¤ĸ
os ite
ĠT a
ĠA k
Ġ0 7
ĠMed ia
ĠN ether
ĠT ar
ĠMil itary
ens us
Ġà¤ķà¤¹ à¤¨
ĠC ult
Ġground s
Ġà¤ªà¤ķ à¤¡
Ġcon g
ĠTod ay
Ġev olution
Ġsub s
Ġread ing
Ġà¤Ľ à¤¹
Ġz one
Ġs now
Ġman ner
form ula
Ġb low
ĠK at
Ġbas ic
ĠTrans port
ĠKenn edy
ĠLe on
v ements
Ġsp in
het ic
Ġdut ies
ĠH ou
Ġr ural
ĠSc ience
Ġclass es
Ġocc urs
ĠP it
Ġso le
Ġcle an
k ing
Ġf rag
Ġpen al
ĠHow ard
Ġe ighth
ĠSund ay
à¥ ¯à¥
Ġequ ivalent
Ġà¤¬à¤¹ à¤¨
ĠIndian a
Ġhot el
Ġa er
Ġdec ades
ĠNor we
Ġh am
ĠD rag
Ġdr iving
ĠIS BN
Ġperman ent
n ic
ĠB ry
ĠSc ully
ĠPort ug
ion e
Ġasp ects
Ġd ated
e z
Ġ8 3
Ġchallen ge
Ġà¤¨à¤µ à¤®
Ġvol can
ĠHit ler
Ġto w
ĠMar c
Ġl ane
ĠF ive
Ġrem ix
à¤¬ à¤ķ
ub b
à¤¡ à¤ķ
Ġb rigade
ĠSp ace
Ġpost ed
ĠG ill
Ġform ula
c ation
a fter
ĠP ear
Ġspe ak
Ġfield s
ĠSt and
à¤ĩà¤¨ à¤²
Ġnot ing
ĠTur k
à¤µ à¤¦
Ġrest aur
Ġb ra
Ġm ap
Ġdescrib ing
ĠB rist
Ġinvol ving
Ġinte g
Ġh a
ĠAss embly
ĠD isc
ile y
Ġslow ly
Ġsuppor ters
Ġacc ur
iv als
AA F
ck now
ĠR ose
Ġte le
Ġob tained
2 2
ic it
Ġm ode
Ġent ering
ĠH ug
Ġdeb ate
vel and
w an
Ġfl o
Ġvess els
ĠP ier
i ot
Ġd in
Ġd ress
Ġen emies
Ġform al
ĠCon stitution
r ates
Ġf olk
Ġdep artment
Ġsett led
ris is
ĠRy an
Ġf aith
ĠA z
ĠW eb
aw are
Ġp up
Ġold est
Ġconn ection
ĠMount ain
ĠRol ling
ert o
Ġn est
Ġc ategory
ĠS av
Ġpar liament
reg on
ĠMag azine
ĠArg ent
Ġarm or
Ġsong writ
Ġrecogn ition
Ġconcern ed
Ġpurch ase
Ġc a
ag ues
ĠR aj
ĠN ow
ĠL enn
Ġatt ached
Ġo uter
ĠCle veland
Ġinc ome
Ġà¥§à¥ ¨
Ġdec line
Ġder ived
Ġdepart ure
ĠIll inois
Ġwid espread
à¤ī à¤Ł
he red
à¤£ à¤¤
ĠD ig
Ġ17 6
ĠDou glas
Ġacc used
Ġsur vey
Ġf oss
Ġdec or
he astern
Ġm emorial
orn ey
Ġass umed
ĠWeek ly
o oth
ĠF eder
Ġde leg
Ġsequ el
Ġcert ified
Ġà¤ı à¤«
ĠThrough out
ĠI ra
ĠT reat
are t
ĠFred er
Ġà¤Ĺ à¤łà¤¨
ĠAnd y
ĠJord an
iv a
ĠL ow
Ġh ip
Ġà¤¸à¤® à¤ķ
Ġtem ple
Ġdist urb
Ġwear ing
Ġsw im
Ġà¤Ń à¤µà¤¨
he me
Ġw ed
ĠTh ird
Ġcirc um
ĠE s
ĠStan ley
Ġa cknow
w estern
Ġh ang
Ġacc laim
ĠFam ily
ĠO regon
Ġhost ed
Ġf ine
Ġt orn
Ġs essions
ĠD al
Ġan s
Ġval ley
Ġf al
Ġcomm itted
Ġ0 5
Ġthous ands
ĠPhil ip
ĠRog er
Ġh ope
ĠAr senal
Ġreg ional
Ġtrans ition
Ġà¤Ī à¤°
eke nd
ĠT echn
Ġpop ulations
iter ranean
Ġnow iki
ĠRec ording
ĠBeat les
Ġden ied
agon ist
Ġch ampion
Ġà¤ª à¤²
ĠT enn
Ġdem and
Ġliter ary
ole c
Ġsupp osed
Ġchar ges
Ġwar m
Ġ193 2
ĠBru ce
ĠKe vin
am i
hed ral
ĠNorwe gian
Ġcan c
ĠMed iterranean
à¤ķ à¤¤à¤°
ĠP ur
Ġtermin us
og en
ĠO pen
Ġ193 4
Ġà¤ħ à¤¡
Ġwick ets
ĠBrist ol
Ġgener ation
Ġintellig ence
Ġstrong ly
ĠR ain
Ġ192 6
it o
à¤¦ à¤Ĺ
or gan
ud den
ĠH o
Ġsh ots
Ġcirc ulation
ac hel
ĠCon c
ĠCh annel
Ġrepl acement
ĠN ar
Ġpass engers
Ġposs ibility
ĠB ah
ot ed
Ġfre edom
ĠB ush
Ġproper ties
ĠF ederal
Ġ192 1
Ġbehav ior
Ġfict ional
e ing
Ġs ailed
Ġà¤ªà¤° à¤¨
Ġà¤ıà¤ķ à¤¤
Ġanim ated
em ed
Ġmin ister
ĠD E
l ig
Ġcomm it
Ġthir ty
ĠC as
Ġr ich
Ġmov es
Ġà¥§à¥¯à¥ ¯à¥
Ġdown town
ĠD er
ra ge
ĠB ol
Ġh ill
up t
Ġcl oud
Ġà¤ĸ à¤¤à¤°
Ġ191 2
Ġn one
Ġexcept ion
or al
le ts
Ġ192 7
Ġassist ance
ĠM aster
Ġ17 0
Ġbeg un
ĠMexic an
ĠS ab
Ġvol unte
j i
ĠR ow
ĠW id
or ced
Ġqu ant
Ġf ruit
ism s
r ating
Ġcr iminal
r im
Ġdest ruction
Ġcommand ed
ĠKore a
Ġopp osite
atin um
Ġcost s
Ġbring ing
à¤² à¤ª
ĠCol or
Ġspe aking
Ġmiss ions
ĠE le
Ġmiss ed
um in
ĠE ric
ab led
à¤ī à¤¸à¤¨
Ġcr ash
Ġmethod s
Ġfeel ing
ch ar
Ġint ention
Ġsound s
à¤ķ à¤¹
Ġt ied
Ġwar ning
ĠG am
ĠF ame
ont o
Ġbre aking
Ġdem ol
Ġglob al
Ġunus ual
ĠWith in
Ġincorpor ated
ip e
ĠPh ill
Ġwe b
els h
Ġsh op
Ġinter cept
ĠSc ient
ĠLis a
Ġfin ishing
Ġalle ged
id den
Ġd ipl
Ġatmosp here
Ġ193 1
ĠAddition ally
Ġattrib uted
Ġserv es
b orne
Ġ191 3
Ġhe at
ĠMor gan
Ġread y
Ġstay ed
Ġs ons
ens es
Ġemer ged
az a
Ġrecover ed
oth ing
ĠMor ris
Ġà¤ħ à¤¹à¤®
Ġstr ateg
a ire
ĠS ky
Ġtechn ical
Ġsp ok
Ġdr iven
Ġtheat re
ĠNorm an
Ġoccasion ally
so le
à¤Ĩ à¤¨
à¤ħ à¤ķ
ri ers
Ġs am
à¤ĺ à¤Łà¤¨
Ġchor us
Ġv ary
Ġneed s
ĠE ver
Ġeffect ively
Ġclass ic
à¤¸ à¤Ń
Ġform at
ĠRob inson
Ġchem ical
ĠF ord
ĠK r
d on
à¤¤ à¤¬
ĠPri or
ay a
Ġregular ly
Ġd ivers
Ġmaterial s
Ġpre y
Ġ14 0
ĠHaw ai
p ective
Ġc avalry
ĠC ab
ĠTe levision
Ġestablish ment
Ġsh ore
th m
ĠG h
u ro
Ġcour ts
n ce
Ġ192 9
Ġà¥§à¥¯à¥ ®
ut y
Ġsup erv
ĠTem ple
ĠSim ilar
P A
ĠI ron
ĠF inn
ĠâĢ ĭ
Ġaccom mod
Ġrespons ibility
ĠN C
osl av
à¤°à¤ķ à¤Ł
Ġprov ince
Ġmed ic
Ġdiffer ences
Ġcomplet ion
Ġm o
Ġd ream
ĠA round
ĠFranc is
w en
ĠS n
ĠUn like
ĠConst ruction
2 4
Ġà¤ļ à¤¢
Ġent ertain
b an
Ġdiss ip
ĠB udd
Ġk id
ĠNel son
Ġà¤ķ à¤¸
ec e
Ġatt racted
Ġsepar ated
ĠN ations
Ġapp ropri
ĠAn ton
ick s
n old
Ġother wise
v ens
Ġdiv isions
Ġpers u
Ġb rain
ĠM it
ĠN ich
Ġsurv iving
Ġinterp ret
ĠH ell
Ġclass ified
ĠSwed en
ĠPrem ier
Ġh al
Ġne ither
ĠN BC
ĠL anc
ĠA I
we ight
à¤Ń à¤µà¤¤
om ot
Ġ9 00
Ġ192 2
ĠPat rick
n ings
Ġpass age
Ġpict ure
ind er
Ġcommun ities
à¤ĩ à¤¬
Ġrat ings
Ġcl imate
Ġcru iser
an th
Ġclass ification
Ġmem ory
ic i
em eter
ag le
Ġassoci ation
Ġab oard
oy d
ĠD og
Ġclub s
in ton
og y
Ġl at
Ã³ n
ĠAn ne
à¤ķ à¤²à¤¨
ĠB ang
Ġmusic ians
Ġele ven
Ġst ood
ab il
ĠMar g
Ġ0 4
Ġsh if
Ġro oms
ĠJ ournal
Ġveh icle
Ġdes ire
Ġanc est
Ġreinf orce
te enth
ĠTor onto
ĠW elsh
Ġpred ecess
Ġrequ ested
ĠW he
Ġà¥§à¥ ¬
2 3
Ġout break
Ġ191 1
Ġvot es
Ġm ent
r um
Ġreal ity
ĠProf ess
Ġro se
ĠByzant ine
ĠCh ron
ĠAll en
Ġg al
ig e
Ġseem ed
Ġrem ember
Ġrel ative
ĠUS S
ĠE very
Ġbattles hips
Ġmov ements
ĠMatt hew
ĠNether lands
Ġ ic
ĠD a
ew here
Ġ ille
Ġra ise
Ġexp ect
ĠBel g
Ġrest ored
Ġhop ed
ĠP ak
ĠP ow
Ġà¤Ĩ à¤¦à¤°
Ġp ure
Ġv ide
ĠGl ob
Ġf er
Ġhistor ians
re ck
Ġà¤¸à¤¤ à¤¹
Ġdifficult y
Ġprogram me
ĠDes ign
ĠS ports
Ġbask etball
i ate
Ġ13 5
Ġà¤®à¤¹ à¤²
Ġd ie
Ġra id
ĠJac ob
ĠF I
Ġà¤Ĺ à¤²à¤¤
Ġte en
à¤¾ à¥ħ
Ġacc ounts
ĠD NA
Ġsat isf
ĠJew s
M A
à¤¯ à¤¶
Ġd ens
ĠDe an
ĠS ax
Ġdiscover y
h ire
á »
ĠAg ain
Ġdelay ed
Ġgreat ly
Ġpremi ere
Ġw rong
Ġann iversary
Ġstr ate
Ġinsp iration
ĠUl t
b urn
Ġ192 8
ĠD omin
Ġà¤Ī à¤¶
b ook
Ġinj uries
Ġneigh bor
ĠCent re
Ġast ron
Ġsurround ed
Ġdep ict
Ġass emb
Ġfund ing
Ġle gend
Ġfl ank
il ers
ĠD or
ĠIra q
Ġstrate gy
à¤¯ à¤¯
Ġsp oke
à¤ľ à¤Ĺ
Ġpenal ty
ĠMar ine
Ġpra ise
Ġweap on
Ġc rop
Ġpart ner
Ġbatt ing
Ġphot ograph
Ġc ra
Ġmass ive
Ġsu it
Ġel se
Ġarchitect ure
Ã ±
Ġl ibrary
ĠB ishop
Ġ192 4
Ġpl ane
Ġform ing
b ody
ĠT rib
Ġro t
Ġtri es
Ġlangu ages
Ġclaim ing
ĠL ast
ĠJ am
Ġrec ru
ĠIs lam
Ġdeterm ine
g ets
ĠO ak
Ġaccom pl
re al
Ġtem porary
ĠT ot
ĠH op
ĠP A
Ġres ources
Ġcar bon
ĠAr men
Ġstand s
ub le
Ġcross es
ĠN etwork
ĠP C
Ġwor st
a ired
ĠMar s
Ġfl ed
Ġdocument ary
Ġas h
tern al
Ġens ure
Ġsc heme
w ing
ot ype
ĠN FL
Ġres erv
ĠHe art
Ġà¤ª à¤¨
ut her
ĠCroat ian
Ġs ight
om p
ĠF ree
Ġgirl s
Ġen f
ĠThom pson
E S
ĠMod ern
Ġr ay
ond s
Ġabs or
ĠRuss ell
Ġin ner
ĠD ick
go ing
Ġchair man
Ġhe ar
Ġinvol vement
Ġdismiss ed
Ġs ale
Ġc ul
ĠH oly
Ġbomb ard
à¤¶ à¤¯
Ġsomew hat
ĠB i
Ġadapt ation
Ġà¤¯ à¤¥
Ġrem n
Ġ192 5
Ġche ck
ĠR ick
Ġo ri
ĠF ront
Ġwe ekend
Ġ0 3
Ġconvin ced
ly n
à¤Ĺ à¤ķà¤°
ĠPu erto
l i
Ġs ed
ĠL ibrary
itz er
Ġinter ests
ĠCo oper
Ġimmedi ate
ĠWin ter
ĠR ang
ost er
ĠCar ter
Ġcon vent
ĠSp e
p o
ĠHe nd
Ġacad emic
D S
Ġmed ieval
Ġà¤ıà¤ķ à¤®
ĠW y
Ġtechn iques
ĠKel ly
ĠD ra
Ġpresident ial
Ġst reets
ag re
Ġcons p
Ġvis ible
Ġ Å
an ia
ic ide
Ġegg s
ars h
Ġcolon ial
ĠBro ther
ĠK er
ĠN iel
Ġclass ical
Ġfall ing
r ine
ĠG ard
Ġme ets
Ġbr ight
ĠH ind
ĠL abor
ĠN ob
ĠSt ra
ir t
ĠAl ong
Ġthr one
Ġn inth
à¤Ĩ à¤§
Ġà¤ªà¤¦ à¤ķ
Ġf ighter
ac he
os ure
Ġr aces
ĠW right
Ġcomm emor
Ġstar red
enc ies
ĠE st
Ġl ake
Ġsuper ior
Ġà¤¨ à¤·
Ġpass enger
Ġl oyal
ac ent
ĠB ou
Ġad ults
à¤¯à¤¨ à¤¶
b ec
Ġw el
es ter
we alth
Ġevery one
ĠHung arian
n ight
at ically
à¤¤ à¤ļ
Ġà¤Ķ à¤¦
Ġsurv iv
Ġt urb
Ġreview er
ĠG ri
Ġal ien
à¤ķ à¤¥
Ġsubmar ine
ĠB ab
Ġsee ing
Ġsynt hes
ĠT ok
ĠTh us
Ġabs ence
ron ze
ĠBat man
Ġpremi ered
Ġren ew
Ġpart n
ĠEdu cation
Ġd ub
Ġair port
Ġauth ors
Ġf itted
ĠCor poration
Ġencoura ged
Ġinter ior
Ġhold s
o en
us ing
Ġengine er
Ġfavor ite
ĠPark er
ĠT s
Ġappear ing
Ġs an
iv an
Ġmod ified
à¤® à¤µ
Ġm unicip
Ġconc lusion
el ine
Ġstand ards
Ġde emed
Ġelect ions
F C
Ġlead s
Ġoper ate
ĠHar ris
ĠSant a
Ġà¤ı à¤ª
Ġcharacter istics
Ġquest ions
ch ang
Ġfac ility
Ġo d
Ġattack ing
à¤µà¤¹ à¤¨
Ġà¥§ à¥¦
Ġr um
Ġd ating
ap se
Ġtemper atures
à¤ľ à¤¤
Ġrom antic
Ġà¤° à¤µ
Ġà¥« à¥Ń
Ġcred it
Ġà¥§à¥¯à¥ Ń
Ġà¥« à¥®
e or
ĠMur ray
Ġafter wards
Ġbu y
Ġà¤ľ à¤Ł
Ġdo ct
Ġlegisl ation
ĠSoc ial
Ġcol ony
oss ible
Ġany one
Ġconv ection
Ġretire ment
Ġland ed
Ġl ies
ĠL ate
Ġsuff ering
ĠKn ight
as ure
ĠL i
Ġchall eng
Ġcontrovers ial
ust er
Ġdistrib uted
Ġ8 1
ĠU t
Ġm olec
Ġw ings
à¤§ à¤µ
ĠB rand
ĠPol ice
Ġlook ed
Ġpain ted
ĠBer lin
à¤¨ à¤¤à¤®
Ġg one
ĠPal ace
ro it
à¤°à¤ķ à¤°
ten ance
ĠHou ston
ur ches
ĠComm ander
Ġattempt ing
Ġcan cer
ix on
ĠAd vent
Ġbelie ves
com ing
Ġà¥Ń à¥®
2 6
ĠG et
ĠSt ory
sc ape
A r
ĠB h
Ġun ion
ĠO bs
âĢ į
ĠH ospital
Ġmon arch
Ġgener ated
à¤¡ à¤¬
Ġresc ue
Ġsec ured
Ġdep icted
Ġgr ass
Ġarch ae
ar ia
ĠCommon wealth
c ol
Ġlong est
Ġhabit at
Ġdomin ated
Ġbig gest
ĠY ug
aw s
Ġob tain
Ġ192 3
Ġp ound
ĠUS A
Ġjud ge
ĠSwed ish
ĠC ategory
Ġgraph ics
Ġcontin uing
Ġà¤ĳ à¤ķ
Ġbattles hip
Ġimm ig
2 7
Ġ9 1
inal s
un a
Ġarrang ement
Ġj ump
op es
Ġunsuccess ful
Ġn eck
ĠSil ver
ĠY an
à¤°à¤® à¤¶
ĠRober ts
Ġcar rier
te xt
ult ane
ĠInd ians
Ġs udden
ĠL yn
Ġtra ined
Ġconst ant
Ġrepresent ing
ĠSim pson
t ure
ĠE y
Ġcy cle
ask a
Ġst yles
Ġw ins
ow a
ch ing
hes s
ĠT al
Ġrail road
Ġmeas ures
ĠMer c
om ing
Ġbel t
ĠC ook
ut s
ĠM ort
Ġnick n
e enth
Ġachie ve
Ġacknow led
Ġg ets
ĠH in
el le
Ġmat hem
ĠAut hor
Ġrele ases
Ġinform ed
à¤¼ à¥Ī
ĠWar ner
ĠR AAF
Ġart icles
Ġcon vention
Ġà¤ĭ à¤·
ĠOr gan
emeter y
Ġformer ly
à¤· à¤§
Ġs ter
Ġse es
à¤° à¤Ĺà¤¤
ĠC ru
ag u
Ġ189 0
f are
à¤¨ à¤µà¤°
Ġhistor ic
ĠJ ason
Ġgar rison
Ġdeploy ed
ĠYug oslav
Ġn avig
Ġgr ade
ĠAnth ony
à¤¸ à¤Ĺà¤¢
Ġemerg ency
Ġf estival
ol ph
Ġclos er
Ġà¤° à¤ļ
Ġal leg
Ġr u
ĠB ure
Ġb ats
Ġ20 20
I S
Ġmoder ate
Ġv eter
Ġtri als
à¤ħ à¤ª
Ġs iege
Ġsuccess or
Ġinflu ential
ĠR AF
ĠCroat ia
Ġemot ional
Ġ190 8
Ġown ers
C A
Ġth in
Ġnov els
ĠDet roit
à¤Ĺ à¤¸
ain ts
Ġdiscuss ed
h is
à¤² à¤¹
Ġex cess
ĠFound ation
ĠR ap
ĠAs ian
Ġtre ated
Ġinflu ences
Ġnar rative
t ic
Ġst ead
ĠG aga
ĠCh amber
Ġdet ail
f ire
ĠX box
Ġve get
Ġlink ed
ob i
Ġ190 5
Ġinstr uments
Ġchap ter
Ġe at
ram s
ĠGil bert
Ġexper iences
Ġjournal ist
Ġfact ors
Ġg iant
Ġal co
Ġpre gn
Ġchild hood
Ġleg s
ĠPrinc ess
Ġdef ended
Ġapparent ly
Ġdipl om
Ġenvironment al
Ġo cean
Ġbe ar
Ġà¤Ĩ à¤¯à¤°
Ġoffic es
i ens
ĠM un
Ġà¤Ĩ à¤ĸ
ĠD esc
Ġup d
Ġch annel
ast e
Ġcoin s
Ġvict ims
2 8
ust ed
Ġass ass
ĠSp ears
Ġdep os
Ġexec uted
Ġà¤² à¤ĺ
it ter
id ae
ark ed
im ore
ĠRe al
ĠJes us
Ġm ine
ann y
b l
y ard
or g
o is
re es
ach ment
Ġprefer red
Ġà¤ª à¤Łà¤¨
ant a
Ġdiffer ence
ili ar
Ġun iform
Ġconc ur
m ad
Ġdesign ation
ĠNiel sen
ĠS omers
ĠB ed
Ġhun ting
Ġent ers
Ġsk ills
Ġwood en
al o
Ġà¤ĩà¤¨ à¤®
ĠMel bourne
Ġhundred s
d a
ĠP ope
ĠV ice
ĠEv ans
n oon
ĠGu y
Ġg ay
Ġr ide
Ġf il
Ġen h
st ances
Ġres igned
Ġch ain
us ic
Ġinst ance
g us
l ie
Ġsp end
ĠCl inton
Ġdev ice
or ous
ĠMusl im
Ġ10 5
Ġrid ge
Ġcl im
Ġpoin ted
Ġà¤Ń à¤¯
Ġreve als
Ġà¤ķ à¤£
Ġc ateg
Ġb on
Ġdisplay ed
ĠStew art
ĠExp ress
ĠNever theless
ĠM P
id i
Ġp ull
Ġwatch ing
ĠW ing
ĠH ans
Ġloc omot
ĠA ud
Ġà¤Ĩà¤Ī à¤¸
Ġprevent ed
Ġfr ame
ĠT ower
Ġint ent
Ġval ues
Ġthous and
ĠOrig in
ĠHe avy
Ġ190 9
ic ians
Ġparticip ate
d s
Ġv ision
ĠCar ib
Ġp ages
ĠR aw
Ġp ushed
Ġà¤ļ à¤¯à¤¨
Ġhappen ed
à¤µ à¤£
op ter
t ty
ĠB ird
Ġthere after
Ġfac ing
Ġrelationship s
Ġaccom p
ĠBul gar
ĠB enn
Ġform ally
Ġfle w
ĠTurk ish
Ġvisit ors
Ġin her
Ġfoot age
ĠSam uel
Ġe asy
Ġres ign
Ġopp onents
Ġreported ly
Ġdrum s
Ġint ense
Ġà¤¸à¤° à¤²
Ġlear ning
ĠR ey
b rid
og ether
Ġà¤¹ à¤¥
Ġhand ed
Ġnot ably
sp ec
ĠSar ah
r m
Ġex isted
Ġanim ation
Ġinh abit
Ġf iring
Ġb es
Ġg ather
un es
ĠLenn on
ĠL im
Ġrem ove
be an
ro ph
Ġannoun ce
ĠGre ece
Ġsurre nder
ĠC am
Ġaccomp any
j o
st ic
ol is
Ġà¤ľà¤¨ à¤°à¤²
Ġsu re
Ġdet ailed
ĠQue ens
Ġemploy ees
Ġunderst and
ĠAust ria
Ġh at
Ġ12 5
ĠMal ays
y o
Ġst ring
ĠSt ock
Ġnorm ally
a ver
ot o
Ġaud io
ĠBalt imore
on ies
or ial
Ġav o
Ġhe aring
ĠAr k
or age
Ġà¥ ¥
Ġexp osed
S P
Ġv ul
Ġext ent
ic an
ĠAlbum s
Ġdial ogue
ig en
Ġtest ing
Ġun n
Ġpoet ry
vi ation
Ġperiod s
Ġdepart ed
ĠColor ado
Ġa x
à¤· à¤ľ
Ġpl ate
Ġt ag
Ġte eth
Ġbe ach
à¤¯ à¤Łà¤ķ
ropol itan
7 0
ĠH orn
Ġpubl isher
Ġsubstant ial
ĠC re
Ġresident ial
pris e
Ġunivers e
Ġs ke
Ġdoes n
ĠL ane
à¤°à¤¸ à¤¨
olog ists
Ġà¤ķà¤ª à¤¡
Ġ190 7
Ġreb ell
ĠMarsh all
ĠWrit ing
Ġt ests
Ġut il
Ġtem por
Ġh appy
Ġexam ples
Ġconv oy
Ġwind ow
Ġfact or
Ġcru isers
Ġm art
ĠC R
ĠC z
Ġà¤ĺ à¤Ł
Ġh uge
end ment
ro c
Ġrep rodu
Ġimp ressed
Ġà¤ļ à¤¤
ĠEr n
ĠFreder ick
ĠInit ially
Ġà¤ı à¤°
ull ivan
Ġterrit ories
Ġst em
ĠD ave
rib ed
Ġent hus
Ġbehav i
Ġst able
ĠHor se
Ġvide os
Ġdr iver
Ġt aught
à¤ħ à¤Ń
Ġafter noon
Ġreview ers
ĠE xt
ĠHum an
ep ing
ut t
Ġfe ud
Ġimp rison
Ġsym pt
ĠW restling
Ġvess el
ĠM L
ĠD C
iam i
Ġisol ated
Ġà¤īà¤¨ à¤¸
ro ke
Ġl ob
ch o
og an
ĠB anks
ĠH aving
Ġà¤īà¤ª à¤Ń
Ġengine ering
Ġindic ate
Ġag ents
Ġmain tenance
Ġdiam eter
Ġpick ed
Ġnegoti ations
ĠSomers et
ĠB uck
ud a
Ġunc ertain
ĠJ ess
Ġà¥§à¥ ª
Ġgood s
Ġcoll aps
ĠAn na
Ġmed ium
Ġm ir
Ġapp rec
Ġencoun tered
ĠPlay er
Ġdi agn
il a
c hen
Ġf ur
Ġb ridges
ĠMar io
ĠRe lease
Ġsim ultane
Ã© e
Ġdang erous
Ġfound er
Ġwithd rew
l s
Ġà¤Ĺ à¤²
Ġj unior
i able
ĠC all
Ġag ed
Ġteam m
ĠChampionship s
Ġsat ell
bor ough
Ġkeep ing
C C
Ġre un
et ime
Ġcom ments
se a
ger y
Ġt ie
Ġref ers
ĠAng lo
Ġp hen
Ġp ounds
w a
ames e
Ġupgrad ed
ĠH and
Ġdif f
Ġlow est
ĠGi ants
ĠM iami
Ġpro ced
Ġdet er
ol as
b ridge
à¤¦ à¤¬
Ġper mission
Ġrel ie
Ġspec imens
Ġeth nic
ĠTreat y
Ġd iet
Ġres ear
Ġfrequ ent
ĠO p
ĠSe attle
Ġpro hib
Ġwhere as
Ġpolic ies
Ġc risis
Ġor b
Ġpart ly
Ġorgan izations
Ġp ed
Ġto ll
Ġrare ly
Ġl iqu
Ġco ordin
es h
Ġv ic
Ġout f
iec e
Ġà¤¦ à¤¶
Ġt one
x ual
Ġl ose
ĠAl ab
Ë Ī
ĠM ach
Ġpro port
Ġà¥§à¥¯à¥ ¬
Ġtechn ique
ĠTre k
ĠS oon
ran g
aw ay
us al
Ġv ice
Ġadv ice
Ġtravel ed
ã ģ
Ġag ree
ĠUS D
ig s
ĠA h
Ġdesign er
hel m
à¤ķà¤¸ à¤Ń
y gen
Ġ188 0
Ġrecomm end
Ġ1 000
s ki
enn is
ĠA R
Ġstri p
Ġtur rets
Ġl ad
ĠMan h
Ġcomp lic
Ġ Ä
ĠN at
ĠI owa
in ction
il st
Ġsp ending
Ġperson ality
Ġ190 4
Ġrest ric
Ġfinal e
n o
Ġo ption
ĠHe alth
Ġpart ially
ĠFor ces
Ġcritic ised
ĠCount ry
us cript
Ġfinal s
Ġ190 6
Ġpl atinum
Ġby pass
ĠK al
ĠCarib bean
ok ed
att an
Ġdifficult ies
Ġexc ell
Ġsaf e
ĠAlab ama
s k
Ġcompet e
Ġrank ing
Ġmain stream
Ġse ats
Ġver se
Ġrest rict
Ġm amm
if er
ant e
ĠLaw rence
à¤® à¤ľ
Ġal ter
Ġj ur
Ġrecord ings
Ġant icip
i ac
Ġm and
ĠL in
Ġr ates
atter ed
Ġmin imum
Ġref uge
Ã §
à¤µ à¤Ń
à¤Ł à¤¸
ĠB ros
ĠThe n
ĠNap ole
ĠB uff
à¤¡ à¤¸
O S
à¤¨ à¤Ī
ĠH u
ĠCan al
Ġwind ows
Ġph r
Ġcover s
Ġmor al
Ġtr uth
Ġdescrib e
ĠPol it
ĠCro wn
Ġfall s
ĠMiss iss
Ġsy mp
Ġmon ument
ĠCharl ie
Ġrec ur
Ġover s
Ġrep air
Ġext reme
che ll
Ġconcer ts
en h
Ġrepresent ative
T A
ĠYan ke
Ġto t
ĠV I
ĠMin nes
is d
ĠD iv
p ower
Ġf ighters
Ġ36 0
c op
Ġt ub
Ġfun ctions
Ġpit ched
ĠRet urn
à¤¦ à¤ª
Ġà¤Ĩ à¤¹
ĠMc D
m ers
ĠBl ood
Ġfor cing
ĠDe ad
Ġdyn asty
Ġp in
ĠSen ator
ĠB an
ur ance
ĠMin istry
Ġfriend ly
Ġcust om
Ġprompt ed
Ġt enth
Ġh ockey
ĠG arden
ĠI an
Ġshe ar
Ġprot est
z z
Ġp ric
b ra
Ġaw are
Ġrec onst
Ġlist ing
Ġad m
Ġdestroy ers
Ġcoll apse
Ġdraw ing
Ġboy s
Ġp y
Ġbas es
ĠKh an
à¤® à¤¶
Ġh ull
ĠÃ Ĩ
Ġneighbor hood
Ġunder w
Ġappro val
ĠGram my
ic y
ĠB rig
Ġch urches
ĠBen j
ĠTown ship
Ġadj acent
ac le
ĠD ance
ĠHung ary
Ġl ists
a ud
Ġchang ing
à¤ķ à¤²à¤¤
Ġdo ctor
ĠNaz i
Ġin aug
Ġcreat or
ĠR oc
Ġj u
od s
Ġ187 0
Ġtrav elled
Ġbomb ers
Ġjoin ing
it ud
ĠH amp
act ive
Ġhous ing
Ġpartn ership
ĠBelg ium
and al
ĠE vent
Ġ16 4
Ġà¤¸à¤®à¤Ŀ à¤¨
Ġcred its
ĠChrist opher
ĠH ud
ĠMed al
e u
Ġact ed
f ace
Ġgro wn
ro id
ĠAustral ians
ĠShak esp
à¤Ĺ à¤ª
ĠDie go
ĠC old
od ore
Ġvill ages
Ġtrib ute
2 9
Ġà¥ ¦
ĠRep resent
Ġpurp oses
Ġexpl o
ograph ical
Ġmom ents
à¤¯ à¤ľ
Ġcan al
Ġprot agonist
Ġmar gin
ĠChild ren
ĠM uch
Ġwhe el
Ġcreat ive
ĠLa ure
ĠL l
ug by
ĠAd minist
Ġarg ument
ĠC amer
ĠMic hel
Ġinstrument al
ĠH ills
Ġc ryst
al ions
ĠC red
Ġar ts
Ġref ere
Ġtre nd
Ġanal y
Ġà¤ľ à¤¡
Ġpow ered
d ie
onna issance
ĠS et
oun ced
Ġrad ar
Ä į
im eter
Ġdoll ars
Ġ els
Ġas ks
Ġprec ip
un c
um an
ĠRec ord
Ġtreat y
Ġbenef it
vel t
Ġstorm s
Ġels ewhere
Ġadv is
Ġround s
Ġscient ists
or ph
Ġà¤ĭ à¤£
Ġposs ession
Ġappoint ment
ĠBenj amin
Ġà¤¹ à¤¦
st ers
Ġà¤ħ à¤£
Ġpr on
Ġmin imal
v y
l ock
ĠR and
ĠF al
ĠG ab
Ġcover ing
T S
rom e
Ġun like
Ġelimin ated
ĠGuard ian
à¤ĺ à¤¨
Ġhelp ing
ĠLeg acy
ĠVietn amese
Ġfal se
ĠT un
Ġvict ories
Ġsurv ive
iv ated
ĠAlf red
Ġpaint ings
Ġà¤Ĺ à¤ł
Ġdeg rees
ic ts
ec raft
Ġdisp ute
m ph
Ġp arent
Ġinn ov
ĠRo ose
Ġseek ing
Ġt elling
ĠH ockey
Ġb rick
ri x
Ġso il
Ġsurpris e
à¤¯ à¤Łà¤¨
Ġoccup ation
Ġnewsp apers
ĠS on
Ġsim pl
Ġ16 5
ĠTr ust
Ġsm ooth
ĠMinnes ota
Ġg ard
Ġà¤ľà¤¨ à¤ľ
Ġoccas ions
ou ri
Ġsu icide
act ion
Ġarr iving
Ġlo an
Ġrhy thm
Ġw et
ĠA ff
Ġ Ð
Ġbal ance
rup ted
Ġtw in
Ġà¥ ¯
over s
Ġp ool
Ġman uscript
ĠH ong
ĠAn im
ĠManh attan
ĠK urt
ob ile
Ġ190 1
ĠFrank lin
ĠWalk er
Ġg at
ĠCom b
or ious
Ġf ishing
ĠShe l
ĠF ried
Ġco oper
Ġabs ol
Ġstrugg le
ĠInter state
C ap
ul ating
Ġpres erved
Ġcandid ates
Ġmult i
Ġmur d
ĠPen insula
is p
Ġhel ic
Ġsched ule
ĠPer form
ack s
Ġfl ash
Ġà¤ļ à¤Ł
ĠN ag
ĠRoose velt
ĠB eck
Ġpublic ly
Ġneut ral
ĠI ce
Ġb ot
ag en
Ġcompet ed
Ġà¤¸à¤¹ à¤®à¤¤
ĠB ull
ĠH em
ĠFl ight
Ġc ook
inc ial
à¤¨ à¤ļ
ather ine
s ky
Ġà¤®à¤¤ à¤²à¤¬
ĠIndust ry
Ġd ies
ok ing
ĠTh or
id d
Ġal ignment
Ġcons ult
Ġconc rete
Ġem peror
Ġhon our
ĠBr un
Ġbeaut iful
ish ment
Ġres umed
ĠMic ro
mun ition
Ġà¤® à¤Ĺ
Ġviol ent
L C
Ġimp ossible
ĠSat ur
ĠL ith
ĠN ash
ĠK ansas
Ġelect ronic
n ik
ĠK now
ĠW olf
Ġpil ots
ĠDig ital
r ants
Ġwed ding
Ġà¥§à¥ ©
Ġsurviv ors
Ġpro cl
Ġab ilities
Ġteach ing
ĠJ os
Ġsu itable
ĠB orn
Ġn ations
ens ions
ĠPort land
Ġadv oc
ĠHin du
ĠMississ ipp
Ġser ial
Ġpo ison
ĠHot el
Ġintens ified
ĠBu ilding
f ted
Ġle m
Ġdefe ating
à¤ Ļ
Ġw rest
à¤ľà¤¨ à¤ķ
Ġass isted
Ġfound ation
Ġdisc ip
ĠN on
Ġpro sp
Ġor bit
Ġunderst anding
Ġus ual
Ġinterest ing
am ic
Ġr ivers
Ġover t
ik a
row s
Ġel abor
Ġox ygen
ĠD om
ĠW ard
ĠU E
ĠCo le
Ġg rey
Ġres olution
e are
Ġw aves
g on
ct ic
Ġtun nel
à¤£ à¤ķ
Ġagricult ural
Ġsub mitted
il ty
Ġass ists
Ġ190 2
Ġschol ar
Ġd anc
à¤¬ à¤¡
ĠD w
Ġopp onent
ĠAlex and
ĠAre a
u v
ĠC ob
ĠW ol
Ġsign ing
iven ess
Ġbeh alf
Ġc iting
ĠSt at
Ġsign s
ic er
Ġ15 5
Ġfif teen
Ġbusiness es
Ġm ines
r ator
ĠT ag
res ents
Ġ11 5
Ġback ing
Ġà¥§à¥ ¯
onym ous
Ġsympt oms
ĠV is
Ġass ess
Ġsubject s
Ġencoun ter
un ch
Ġpercent age
ĠApp le
Ġspirit ual
at ics
Ġn om
Ġclos ing
d ale
ad i
it ated
ĠB ox
ĠP rom
Ġan ch
Ġsit uated
Ġforest s
ĠShakesp eare
Ġ0 1
ĠBl ues
Ġcirc uit
ĠHal o
al ities
ĠN ative
Ġsub t
Ġs ank
à¤¸ à¤¬
Ġà¤¡ à¤¬
Ġs unk
à¤² à¤ļ
ĠV inc
Ġ190 3
Ġvo iced
Ġfor ty
os m
Ġpar ish
a is
Ġn inet
Ġà¤ľà¤² à¤µ
ĠTenn ess
ĠR en
Ġrep resents
Ġcor por
Ġà¥§à¥¯à¥ ª
ĠP y
ĠK ings
Ġam munition
ĠHer o
Ġb id
ĠCamp bell
Ġim perial
ĠA thlet
Ä ĥ
ĠF riend
à¤°à¤¹ à¤µ
Ġask ing
Ġill ness
Ġcontro ll
as ters
Ġà¤ī à¤ľ
ap h
à¤£ à¤µà¤¤
ĠEgypt ian
Ġcollabor ation
f e
ĠD est
ĠS ullivan
Ġnot ice
l ah
Ġrep airs
or i
Ġj unction
Ġdis aster
ĠSte ven
Ġev il
ĠWind ows
ĠLuc as
Ġunder ground
Ġattend ance
f ather
Ġinit i
Ġrestaur ant
ĠC O
ĠP ed
ĠE P
Ġw orship
Ġfeel ings
Ġl ieutenant
qu es
amp s
Ġaud iences
Ġearth qu
à¤ļ à¤µ
Ġaff airs
Ġfl ights
Ġdel iber
ar on
Ġport ra
Ġsusp ended
ĠHistor ic
ĠK u
se x
Ġdoc uments
Ġnuc le
ĠDrag on
ĠJ osh
Ġrec re
ĠMc L
ĠSte vens
ĠMarg aret
Ġwill ing
Ġà¥§à¥¯à¥ «
id el
ĠR ace
Ġex it
Ġsk ull
ĠPal est
Ġ id
er a
Ġtar gets
cept ion
Ġmeas ured
ĠMississipp i
ĠTenness ee
Ġs ector
ĠM ack
ĠR ab
od ge
ĠLouis iana
ĠL am
Ġle ct
ĠMag n
Ġregister ed
ĠT an
ĠM ess
ĠJo h
Ġoper ational
Ġpro l
Ġcar go
ĠLab our
u able
ĠM es
Ġab ol
ine a
Ġaff air
ĠWar ren
ĠBus iness
à¤¥ à¤¶
Ġ10 9
ĠS ony
Ġ17 4
Ġfun eral
ĠMont real
Ġmount ains
Ġà¤Ĩà¤¦ à¤®
Ġaff ili
O T
Ġb en
Ġà¤Ń à¤Ł
ĠSm all
Ġpoor ly
Ġaim ed
Ġf iled
Ġcomp ilation
ĠTam il
ĠDep ression
ĠPhilipp ines
Ġà¤ħ à¤¹
ĠCh and
we et
Ġcons cious
an ium
ĠMiss ouri
Ġro ut
ĠSt r
I V
ord ers
Ġadop t
ĠN a
ra k
Ġrecogn ised
Ġstat ue
Ġentertain ment
ate ur
Ġ17 3
Ġtempor arily
ĠL ov
Ġrepl acing
Ġexplos ion
Ġfavor able
Ġc yl
à¤£ à¤µ
Ġel der
Ġprofess or
iss ions
Ġlik ed
ĠMit chell
ĠB illy
Ġinterp re
g ate
ĠA BC
Ġ16 8
over e
Ġd imens
ĠSe ven
ĠC ow
Ġpr ime
ĠA y
ĠF em
Ġsequ ences
Ġà¤ľ à¤¯
Ġà¤Ĺ à¤¦
ip h
Ġart work
re p
à¤¸ à¤«
ĠR ing
Ġà¤ī à¤·
à¤ª à¤¥
Ġfif ty
so ft
ĠCrit ics
Ġshell s
ĠIndepend ent
Ġoff ering
ĠGra ham
r ace
à¤° à¤«à¤²
Ġver tical
Ġuse ful
ĠKir k
b re
form ation
à¥¨ à¥¦
Ġr ig
Ġgra v
ĠM aur
ĠS in
ĠN ear
Ġres idence
Ġexp ensive
Ġref lected
Ġprepar ation
spec ies
à¤¨ à¤¹
Ġpr int
Ġ10 4
Ġdirect ors
Ġrest oration
ĠCz ech
Ġw ore
Ġsol ution
inent al
Ġpattern s
el lect
ĠD S
Ġter ror
Ġthink ing
Ġà¤¤ à¤¯
Ġall iance
Ġrel uct
anc ell
ĠY e
Ġamong st
Ġà¤ľ à¤Ĺà¤¤
Ġà¤Ĩ à¤ªà¤¸
app ing
Ġalco hol
Ġcontrib utions
Ġto uring
Ġover w
Ġkey board
Ġsuggest ing
e qu
Ġcomple ting
yl an
u ary
ĠGu ide
Ġmark s
ot es
rac ts
Ġrebu ilt
Ø §
ĠEd ge
Ġclear ly
Ġà¤¯ à¤ľ
art ney
Ġb anks
Ġg ang
v ant
Ġelect ron
Ġcommunic ation
j e
ex p
ĠPers ian
ĠF rid
Ġà¤Ł à¤°
ĠAri z
Ġk W
Ġesc aped
ĠS now
Ġhor ror
ĠCub a
b ishop
Ġfam iliar
ĠPh oen
Ġcover age
Ġpul led
overe ign
Ġer upt
Ġcanc elled
Ã º
Ġwas n
à¤ĸ à¤ķà¤°
Ġam ounts
Ġb ay
ph a
Ġdec ides
à¤¯à¤¤ à¤¨
Ġre ven
T his
à¤Ī à¤Ł
Ġdep ending
ĠProg ram
Ġà¤Ĩ à¤Ĺà¤°
Ġtrib es
Ġc ous
Ġà¤ħà¤¹à¤® à¤¦
S A
Ġs aved
ur ally
Ġg arden
ok es
ĠE conom
ath y
Ġem pt
Ġfem in
Ġdram atic
ĠC her
Ġlack ed
ĠF iles
Ġr acing
or er
Ġr it
Ġpred omin
Ġown ership
Ġà¤īà¤ª à¤ľ
iet ies
Ġeng agement
Ġf rig
Ġpers pective
ov a
Ġarg ues
Ġadminist rative
ĠSatur day
h u
Ġse ed
og a
Ġrec ip
ĠInd ies
Ġexpl ain
st orm
Ġà¤ĩ à¤¬
ĠAriz ona
Ġ3 50
Ġ16 9
à¤¤ à¤¸
Ġarm ored
Ġwick et
ĠT el
Ġcon text
Ġdro ve
ĠG rey
Ġcolon ies
Ġbound ary
Ġmerch ant
Ġfast est
ĠMar ie
Ġà¤ĳ à¤ªà¤°
ĠBure au
ĠD ylan
th a
Ġv el
Ġart istic
f ish
Ġk ings
Ġcompar ison
Ġplayoff s
à¤° à¤°
Ġex ecut
ĠSc out
Ġà¤ĺ à¤¨
Ġr ising
Ġide al
Ġinstit utions
Ġremn ants
ĠL as
Ġcharacter ized
l ife
Ġgen etic
ell i
Ġb ran
Ġth or
id ency
u ations
s es
Ġrank s
Ġlo op
ac on
Ġexpl ains
à ¸
Ġt rick
Ġbul k
Ġmilit ia
r Ã©
Ġj azz
Ġret ail
Ġapplic ation
Ġpl us
Ġacc eler
Ġsy nd
Ġsever ely
Ġarm ament
ĠWil helm
ment ed
Ġpo ems
Ġcrew s
Ġdisapp oin
lud e
Ġcontrol s
Ġbad ly
Ġdistinct ive
Ġrestric ted
p ng
Ġb ronze
Ġexc av
Ġflag ship
om ber
Ġg ap
ect ic
Ġbow ling
ĠConfeder ate
Ġear ning
m i
ĠL ang
Ġ0 2
ĠSw itzer
Ġfr ust
Ġdemonst rated
um a
Ġ189 6
Ġfall en
ĠOk lah
c ru
ĠL iz
Ġw ants
it is
ĠR at
Ġrang ing
Ġfix ed
Ġpract ices
Å «
Ġob vious
Ġth rew
ĠW ik
Ġcond em
ot ton
Ġqu iet
Ġwid er
ĠSwitzer land
Ġin land
ĠA my
ĠMr s
Ġinhabit ants
Ġf aster
Ġte x
Ġear n
Ġs isters
Ġm ental
Ġsh ield
à¤¤ à¤Ĺ
iv ia
Ġk it
ĠMur phy
ov en
Ġarr ive
ĠBroad way
in ations
à¤ľà¤¨ à¤¸
Ġme at
ock ing
Ġrev ol
Ġrid ers
ĠFeder ation
Ġappropri ate
ĠS uch
Ġà¤Ĩ à¤īà¤Ł
Ġcons ervative
ĠHar vey
Ġman eu
Ġsur ge
l ings
Ġread ers
Ġp ace
ast s
Ġtri ple
Ġvul ner
Ġà¤ĩà¤¸ à¤¨
Ġspot ted
Ġre aches
ĠB omb
ĠV e
Ġnomin ations
Ġg ate
Ġag ency
Ġst orage
ĠBar ry
Ġdistingu ished
ĠS i
ract ion
Ġy ield
à¤¯ à¤°à¤¸
Ġev olved
Ġà¤®à¤¹ à¤¸
Ġexhib ition
Ġcho ose
rupt ion
Ġprote in
ant on
Ġnorth ward
Ġsatell ite
Ġsign al
ĠHar v
ĠOrig inal
Ġprep are
l us
Ġaut obi
ĠOklah oma
ur er
Ġmill imet
ĠCl ar
ĠAust rian
ĠSar os
Ġt ip
Ġdomin ant
Ġsub species
Ġquarter back
ĠIntern et
Ġv s
Ġpred icted
qu ir
gr ade
Ġhousehold s
Ġphen omen
M I
r int
ar o
Ġst rict
Ġsur gery
uk i
Ġcur ren
Ġpal ace
§ à¥¦
el and
Ġà¤¤ à¤¸
Ġint ellect
Ġblock s
Ġà¤Ķ à¤·à¤§
et on
ĠDel aware
Ġw reck
Ġab und
Ġrepeated ly
Ġv ast
Ġsl aves
Ġ186 0
ĠPh Cap
sequ ently
ĠTi G
Ġprin ted
ĠTiT B
ĠTiT E
ĠTiP B
ĠTiP E
Ġpredecess or
ĠLith uan
Ġst ores
Ġout l
d in
Ġ16 3
Ġph one
j an
ĠS em
Ġsub st
Ġphilos ophy
Ġt iss
ĠP le
Ġcar riers
ĠF if
Ġpl ain
ĠC hen
Ġatt ained
Ġhead ing
ĠPer ry
ĠLes lie
im en
ĠA ld
Ġà¤« à¤¸à¤²
l ocal
Ġall ies
_ _
id ers
ri k
Ġà¤²à¤ķ à¤¡
à¤¨ à¤¡
ĠTer rit
ĠDen mark
Ġcircum stances
Ġexcell ent
on omy
Ġb oss
ĠM other
Ġpre tty
Ġpe aking
Ġserious ly
ic ate
ĠM ik
ard o
Ġadvent ure
Ġille gal
Ġt ack
ĠB aby
ĠJu an
Ġbi ographer
ĠTok yo
on ed
à¤¤ à¤ľ
ac c
ĠR ih
ĠL ess
asc ar
Ġlay er
g ro
Ġcom fort
Ġdiscuss ion
Ġb reat
ell o
Ġdis agre
Ġcoin c
Ġdrug s
ĠOrigin ally
ro se
ĠH ur
Ġinstit ution
à¤Ĺ à¤¶
à¤¶ à¤®
ĠT on
Ġper ceived
Ġbomb s
ĠC hel
à¤¯ à¤ķà¤°
Ġer ror
Ġaltern ate
Ġdoll ar
ĠP il
ag h
Ġr ub
Ġ189 8
Ġap artment
Ġwa iting
Ġt ight
ĠM aj
Ġwh ilst
Ġdefin ition
ar th
Ġout put
à¤ł à¤Ń
augh ters
Ġlook s
ĠJon athan
ĠSp ir
Ġmeet ings
Ġremark ed
ĠRid ge
Ġs ick
yl er
Ġwest ward
ĠR oll
ĠAtl anta
ĠBase ball
Ġsk et
ĠPlay ers
Ġsurre nd
ĠH ann
Ġà¤ĸ à¤¨
Ġsimilar ly
ĠJohn ny
ĠRih anna
o a
Ġh orn
Ġch amber
az ing
r ings
ar ation
ĠR ub
ĠW or
Ġmat ters
Ġbatt alions
ĠCamp aign
Ġmob ile
ĠAbb ey
à¤ª à¤¡
ĠIn n
Ġplan ets
ĠR ico
Ġh ook
Ġà¤Ĺ à¤µà¤°
Ġbehavi our
Ġ189 3
Ġarm our
ĠN ixon
Ġcivil ian
ro v
ĠO pp
Ġvis iting
ap olis
Ġcast ing
in ian
à¥¨ à¥¦à¥
Ġpan el
Ġh olid
Ġg ust
à¤£ à¤¸
ar ant
Ġà¤ħ à¤¯
Ġret ain
Ġfriend ship
ĠI ran
est one
Ġstrengthen ed
ĠPri ze
ĠPit ts
O C
ĠN ik
ĠN AS
Ġlink s
Ġrec onnaissance
Ġjust ice
Ġsimultane ously
ĠUE FA
T W
ĠAr nold
Ġleg acy
Ġty phoon
it i
ĠLe x
Ġprop ag
ĠEd wards
Ġre vers
Ġcon sole
ess es
ming ham
ĠS oul
Ġà¤¬ à¤®
ak h
Ġ189 9
Ġdem anded
ĠR al
S p
ĠM S
est yle
Ġro ots
ĠW ag
gh an
ic ation
ĠA S
Ġcontin u
ĠRail road
Ġin du
Ġal ive
Ġship ping
Ġins isted
ĠJim my
at us
em en
Ġenl isted
Ġexp ression
ĠMc M
Ġathlet es
Ġre venue
ĠP ars
ĠKe ith
Ġneigh b
ed ing
ĠMad ag
ĠC ost
Ġbomb ing
Ġà¤¸ à¤°à¤¸
Ġd iver
Ġprom ised
Ġperson ally
Ġà¤¹ à¤¡
ent le
ĠJ ar
Ġ10 6
Ġdem ands
Ġguitar ist
m n
à¤ļ à¤®
ĠUnivers al
ĠP att
Ġhor iz
ot yp
Ġ15 3
Ġdr ivers
l ain
Ġp ione
Ġh idden
Ġl anes
à¤ı à¤Ł
ĠR achel
ĠSh aw
Ġport ions
Ġs ung
ĠF at
Ġart ific
Ġprof ile
Ġmarket ing
Ġback ed
Ġmain land
ĠDe b
r h
Ġà¤® à¤Ľà¤²
Ġstrugg led
Ġorchest ra
if ies
Ġob lig
Ġaud ition
Ġà¤ķ à¤¦à¤®
ind ing
ĠCom ple
à¤¤ à¤¥
Ġc up
ou ver
ĠF el
Ġaff ect
ĠMicro soft
c les
ac re
ater n
Ġdemol ished
ĠM ans
ĠB ach
ĠGr ay
ĠT ol
od ox
Ġgu ilty
Ġincre ases
ĠP ubl
reg ation
Ġjob s
ĠYanke es
ĠL ost
Ġcomp ens
Ġà¤¡ à¤°
Ġ12 7
Ġarm ies
Ġorgan isation
Ġess ential
ĠV ik
Ġs q
ĠS ig
Ġl in
Ġob st
Ġrul ing
ĠN ine
Ġfact ory
Ġsur pass
ĠPak istan
az ines
19 6
Ġmultip l
Ġconvers ion
ĠBir mingham
ĠH ugh
ĠR ights
um ps
ult an
Ġcount ies
ĠTr acy
Ġstar ring
Ù Ħ
Ġd ancing
Ġpro ve
à¤ħ à¤¸
Ġfe els
Ġà¤ĳ à¤°
ĠBudd h
ak s
Ġdisc ont
ĠFurther more
Ġs alt
à¤ķ à¤¤à¤®
Ġmin ing
ĠEnter prise
ĠOb ama
b ird
Ġthe ater
Ġs ad
Ġst ick
Ġcompl iment
Ġcul min
ĠEvent ually
a very
Ġm ac
Ġexp and
Ġdeliver y
f olk
Ġp unk
Ġst ress
ĠDef ence
ĠPhoen ix
ĠK l
ĠCan ter
ĠMcC artney
ĠKar l
ĠPot ter
ap ped
Ġexact ly
g s
ĠB aker
Ġpurs ue
f le
ist a
Ġer r
Ġpat ron
Ġbelie ving
as a
Ġdiscover s
Ġelev ation
Ġcl othing
Ġsol ar
ĠPe ace
Ġbon us
ĠJ up
ĠK an
Ġcomp ounds
Ġà¤Ĺà¤£ à¤°
Ġsuc ceed
Ġdoub t
ĠD iam
Ġcre st
Ġà¤ķà¤® à¤ľ
Ġport s
Ġexpl an
ĠCommun ity
à¤¸ à¤ļ
ĠHud son
ĠR an
ĠK it
Ġacc um
ĠâĤ ¹
c ription
ĠH old
Ġ16 6
Ġgr ay
Ġor n
Ġac ou
au x
Ġconcent ration
ĠGirl s
ĠImp act
ĠPear l
Ġliqu id
Ġal tered
à¤ı à¤¶à¤¨
Ġf ont
Ġdr ink
Ġdem ocr
Ġfore cast
war f
m at
à¤µ à¤¸à¤¨
à¤¦ à¤¤
ĠAm b
ĠBob by
ĠWay ne
tar io
ĠConn ectic
ow ed
ĠP a
Ġsecret ary
Ġk iss
Ġeng age
Ã ¦
Ġc hest
ĠMadag ascar
in ces
ĠL at
ĠConnectic ut
Ġ å
ĠM anu
ĠWork s
ĠBos n
as ant
ir ty
Ġrequ ires
ĠTod d
Ġoverse as
Ġus ers
m und
Ġb aby
ro us
ĠZ e
Ġlist en
ĠMor rison
Ġindic ating
Ġà¤īà¤ª à¤Ĺ
p ent
à¤¶ à¤¸
ĠOn tario
Ġmay or
Ġh app
st an
ack ed
Ġer ected
Ġobject ive
Ġp ale
Ġdeter ior
ir ts
Ġcan cel
Ġmusic ian
sh ore
Ġus er
Ġen cl
Ġ10 8
ĠFore ign
ĠFrid ay
o ons
am ents
Ġà¤¨ à¤¸
ul ous
Ġv oy
Ġdef ences
et ers
ĠG oth
Ġren ov
ĠCy cl
ok er
ĠBern ard
ĠB ath
Ġ189 7
Ġlegisl ature
Ġsett lers
ĠâĢ ¦
Ġang le
ĠCanter bury
Ġdec isions
aj a
Ġsuppl ied
Ġrad ical
Ġan th
Ġra ising
Ġdis l
ĠLe gend
ĠSp art
Ġaer ial
ens ively
Ġsc en
Ġprof it
ĠC S
Ġn et
Ġorgan ised
Ġsold ier
ĠAb d
Ġcampaign s
ĠT it
iv ation
Ġper mitted
Ġhigh ways
ĠAll ies
Ġtro uble
ĠBoy s
ues e
Ġà¤ĵ à¤¡
Ġconsp ir
ĠH D
à¤ĩ à¤°
Ġafter math
anc ouver
Ġsit ting
Ġimpro vements
Ġremov al
ĠA M
ĠPr uss
Ġacknowled ged
qu ote
Ġà¤Ĳ à¤²
Ġstep s
Ġdang er
ĠGri ff
Ġw restling
Ġmet er
Ġed ited
Ġsk y
Ġgrad uated
ĠL ib
Ġsk i
Ġwealth y
Ġm al
ĠT ed
Ġreal ized
ĠMount ains
Ġtransl ation
ĠV ancouver
Ġstri king
Ġdissip ated
Ġà¤° à¤¤
oc y
Ġex ternal
Ġ18 50
Ġsw itch
Ġexec ution
Ġsoft ware
ĠNapole on
Ġd ressed
Ġinterpret ation
Ġpubl ishing
ĠP ap
Ġconf ron
ot te
Ġobserv ations
ra pped
ĠSe ason
Ġpublic ations
Ġceleb rated
Ġ Ï
Ġinit iated
Ġconn ect
rat ropical
Ġven ue
Ġsh arp
Ġmag ic
Ġà¤° à¤ľ
Ġtravel s
ĠOut standing
Ġtheat rical
ĠT NA
ĠL aur
Ġra ids
Ġjur isd
itud es
Ġà¤ī à¤Ĺ
Ġfew er
ĠD all
Ġsh orter
Ġident ify
ĠAdminist ration
op p
ip per
à¤ħ à¤Ĺà¤°
Ġà¤ķà¤® à¤°
Ġagg ressive
it als
ĠL ion
ĠL ist
ph one
ĠG ary
Ġblock quote
Ġtur ret
ip edia
Ġ15 4
19 5
Ġorigin ated
enn ium
ĠSy mph
Ġchap el
Ġt ort
ĠB eng
Ġsup ple
Ġorig ins
Ġconsid ering
Ġdeb t
E C
ĠG ate
Ġun less
Ġgu arant
Ġcut ting
Ġevac uated
Ġfound ing
Ġannounce ment
r un
ĠMin t
Ġ189 5
Ġbe am
ĠO ur
ĠEd in
19 8
Ġestablish ing
Ġcann on
ĠJup iter
Ġcap s
Ġstation ed
Ġconn ecting
it age
Ġpl acing
Ġpart ial
Ġdef ending
Ġmus h
ĠPortug uese
Ġin g
Ġdec ide
Ġasp ect
Ġà¤¹ à¤¨
à¤ĸà¤¨ à¤Ĭ
Ġbr ill
ĠA P
à¤ľ à¤¶
ĠL en
Ġrebell ion
ĠC ov
à¤Ł à¤«
ĠDr ive
ĠM and
Ġb ones
ĠCh ampions
ann on
Ġarrang ements
Ġstrateg ic
it ively
ad ier
ann er
aut ical
Ġf antasy
Ġcirc le
Ġhost s
Ġmag azines
Ġdon ated
Ġfor th
Ġwalk ing
Ġhyp othes
ĠNC AA
Ġm emor
ol ly
Ġexp osure
Ġindic ates
Ġc ub
Ġl ying
Ġon going
ĠCh ampion
Ġpred ict
Ġapproach ing
ĠBrad man
ĠS hip
elt a
Ġgl ac
ĠTri ple
t i
Ġins ects
ĠÃĨ thel
Ġb are
Ġà¤Ń à¤²
ĠG ene
Ġext ratropical
b ow
f ts
ĠAn c
Ġput ting
Ġqual ified
ad al
ĠN atural
ĠSt u
Ġdens ity
Ġtub es
on ium
av el
ĠAl ice
vent h
Ġfun ny
Ġcolle agues
he ars
Ġl es
Ġtal ent
ĠTro phy
at ra
Ġmer ely
ear ing
ĠPr incip
Ġclos est
olog ies
Ġyoung est
ĠM ission
ec ution
Ġà¤ĸ à¤¤
Ġà¥¨ à¥«
Ġgat hered
ĠIs a
Ġmark ets
Ġfor g
Ġland scape
Ġcou p
Ġb ond
Ġb acter
Ġà¤ĩ à¤Łà¤²
Ġbattle cru
Ġvol umes
ament al
Ġcollaps ed
Ġwaters hed
ĠDw ight
rap y
Ġwithdraw al
ĠD ub
Ġà¤Ĩ à¤Ń
Ġhydro gen
à¤¸ à¤¬à¤¸
Ġsh ift
Ġdes ert
Ġstrong est
Ġred e
ĠFle ming
ĠHon or
A N
ĠJ oy
ag ger
ip er
ĠRes erve
Ġcl in
ĠMar vel
ĠN O
Ġex ha
Ġlim its
ĠAf ghan
Ġneigh bour
Ġrang es
I n
h ous
Ġchallen ged
j oin
ĠC hes
Ġspec imen
Ġsp ac
Ġconf ront
Ġà¤ ·
Ġsuccess ion
Ã¼ r
Ġf ill
enn a
Ġeduc ational
à¤° à¤ľà¤¨
Ġà¤¸ à¤Ł
ol ve
ir ates
ĠSt ri
h ard
à¤¯ à¤¡
Ġf urn
ĠT ype
ĠS ay
ĠP am
ĠK ap
Ġsp aces
à¤Ĩ à¤ª
Ġvis its
ĠHamp shire
ĠEdin burgh
Ġb rig
ĠOl iver
Ġc ock
ĠT ob
ĠL t
à¤Ľ à¤¤
iet h
Ġconvent ional
à¤¼ à¥ī
Ġass embly
Ġprov ision
Ġfeed ing
Ġà¥ ¯à¥
ĠP in
ĠY ears
Ġdub bed
7 5
ĠD od
Ġpri ze
Ġbe aring
Ġev al
ĠF lying
Ġà¤īà¤¤ à¤¨
ĠMet eor
Ã °
ĠT ig
Ġ15 9
ĠF und
ĠTh ose
ĠMon te
ĠS omet
Ġmembers hip
Ġcor ps
ĠMos c
ĠA x
ather s
ĠK am
port ed
ug g
Ġann ually
Ġdu o
Ġconcent rated
Ġse ized
Ġemphas is
Ġto pped
Ġattend ing
Ġn avy
Ġch ampions
Ġcons ervation
ĠMe g
Ġmar ry
ham mad
Ġdog s
Ġpar ody
Ġpers ons
ĠPerson al
Ġweek ly
Ġbas in
ĠChart s
igen ous
er k
Ġgu ide
Ġtalk ing
M E
ter ior
Ġleg it
Ġexerc ise
a ft
ĠCon vention
ĠBe gin
Ġcru c
Ġh ind
Ġan ime
ay an
pl ace
Ġoff ense
à¥§à¥ ®
Ġqu ad
Ġ u
Ġpromot ional
ĠVill age
Ġtick et
Ġun com
Ġproduct ions
Ġinvestig ate
Ġt rough
Ġadvert ising
ĠRal ph
Ġatt itude
ĠTot al
Ġb one
à¤¶ à¤¹à¤°
Ġj ury
Ġsend ing
ic ations
ab e
ĠC elt
ĠFin ally
i oc
ĠP rop
Ġà¤ĩ à¤ľ
ĠYork shire
Ġexperiment al
uzz le
ĠH az
ĠD yn
ens ed
ĠPr im
ĠK o
Ġout d
Ġqu een
ĠVictor ian
ĠM ong
Ġemploy ment
ĠDemocr ats
Ġagg reg
Ġw ish
Ġcl ock
Ġportray al
ĠBrother s
our ce
Ġinv ent
Ġce ased
on ica
Ġend ors
Ġfort ress
Ġflood ed
ĠArgent ina
ĠLl oyd
Ġreg ime
ĠChristian ity
Ġbirth day
Ġb ishop
ro d
ĠP ink
ris ing
Ġco ff
Ġunc le
Ġphotograph s
b oy
Ġw ire
as hes
Ġprov incial
ĠW here
ĠMed ical
ĠJer ry
à¤¶ à¤ľ
Ġcomp onents
pl ed
Ġdr inking
à¤ľà¤¬ à¤ķ
Ġball ad
ĠBook s
h in
ĠAnd re
ĠT ak
Ġmat ure
ĠP ad
Ġsc attered
Ġhit ting
ad ers
Ġquestion ed
Ġp apers
am an
Ġunc lear
à¤¼ à¥Ĥ
ĠN i
Ġex ists
ov iÄĩ
Ġco at
id al
Ġsh r
ĠOver all
Ġster e
à¤² à¤¦
Ġrepl ied
ĠChron icle
ĠS ign
ĠE ug
pl er
Ġunderw ent
Ġoverw hel
Ġrepresent atives
ĠColl ins
ĠM I
Ġliber al
Ġassemb led
à¤¯ à¤Ĺà¤¢
Ġre verse
ĠAp oll
Ġwa it
Ġcomment ary
Ġpict ures
Ġcous in
Ġc ens
ĠW ii
ra wn
ows ki
Ġdev ices
ell ation
ĠHer itage
Ġ189 4
Ġident ical
ĠServ ices
Ġelectric ity
Ġexclus ive
Ġlaw yer
Ġ00 7
ĠCra ig
Ġswim ming
c ase
ĠR ic
Ġà¤Ķ à¤ªà¤ļ
Ġcomp onent
ĠMay a
ĠHow e
Ġemp ire
Ġs ang
Ġc ad
ate ver
ass ador
ĠMar ge
Ġmon aster
à¤¦à¤° à¤Ĺ
Ġbran ches
Ġter rain
Ġexc lud
ĠFin land
Ġthir teen
Ġd uration
ĠS le
Ġmov ies
Ġexper t
ĠGl en
Ġprocl aim
ot ten
à¤· à¤°à¤¤
Ġimag ery
Ġlov ed
Ġcomp rom
Ġtra il
Ġlaw su
Ġpol ar
Ġsl ave
Ġacou stic
Ġis ot
Ġ18 00
Ġpre v
Ġ11 3
Ġ188 9
Ġmechan ical
ĠT ax
ĠJ un
ĠTurn er
Ġaccompany ing
Ġdev ast
Ġp ush
Ġst reak
er g
Ġd aughters
ĠA T
ill es
à¤° à¤·
ĠD in
ĠPh ys
Ġfrequ ency
Ġà¤ľ à¤¯à¤ª
Ġat omic
Ġsurrend ered
Ġten ure
Ġsc ar
Ġelect rical
Ġarr ives
ĠHard y
ric ts
Ġstrong er
Ġà¥§à¥¯à¥ ©
Ġtrad ing
Ġbur ial
ĠProt est
ĠQueens land
Ġt ube
on ian
à¤¨ à¤¬
as m
Ġrad iation
Ġredu cing
ĠNor folk
Ġconsist ent
Ġsle ep
Ġpric es
Ġthe ore
à¤µ à¤®
Ġd read
ĠB ak
im m
Ġà¤ı à¤Ł
he ll
ĠS ak
Ġpen et
er r
Ġbe ats
ri ors
Ġcompet ing
Ġexclus ively
ĠSimilar ly
ĠJ ama
Ġchar ter
ĠBo at
Ġfail ing
Ġreve al
ĠHawai i
ro st
ĠR ud
à¤ĩ à¤ķà¤²
Ġà¤¬à¤¨ à¤µ
ens is
Ġ15 6
ĠC ricket
ey er
ĠBur ton
ĠProfess or
ĠSe e
Ġ15 8
Ġdevelop ers
Ġdestroy ing
ĠBel gian
Ġcontrib ution
ĠTra ining
Ġfoss il
Ġreinforce ments
Ġà¤¨ à¤²
ol en
all ing
ib ilities
Ġ189 1
à¤¿ âĢį
Ġst ops
ĠDe ep
ĠBe aut
enes is
Ġvir us
ĠCommun ist
ĠNich olas
Ġp el
Ġval id
ĠBenn ett
ĠM ust
Ġà¤ªà¤° à¤¤
Ġà¤ĺ à¤Łà¤ķ
ĠHarv ard
ĠL em
Ġprecip itation
ur as
Ġd ict
ers ed
Ġcounter p
à¤§ à¤ª
ĠL ock
est y
ĠEm my
Ġhy brid
N C
ĠL iving
ĠVinc ent
Ġb ath
Ġwas te
Ġà¤ĵ à¤µà¤°
Ġmy st
ĠDav ies
Ġel ig
ĠM alt
ĠRang ers
Ġn it
Ġpo le
Ġmin i
Ġgovern ments
Ġtrad ed
Ġartific ial
Ġre ward
ĠD ram
ĠTh under
leg raph
ĠC atherine
od a
Ġinc om
ĠY ellow
Ġsl avery
ĠLoc al
ĠLiber al
w here
ĠF arm
Ġrequire ments
Ġb anned
ĠD ak
Ġflow ers
Ġ186 1
Ġtex ts
Ġcent ers
Ġobs c
ĠCred its
Ġearthqu ake
' s
à¤ķ à¤¶
Ġe cc
itar ian
Ġvar ied
ĠNe xt
ĠSw ift
ĠMark et
Ġcateg ories
re hens
Ġto mb
ĠH ob
ĠL ook
Ġo w
ang el
Ġplatform s
Ġreview ed
Ġ24 0
ĠDon ald
ax y
Ġred es
ĠDar win
ĠTransport ation
ĠHug hes
D I
ĠC urt
Ġconsid ers
ĠPri x
Ġl ie
ud ed
Ġprofess ion
it ely
le te
ĠGu itar
Ġredu ction
Ġarchitect ural
Ġphr ase
c ar
et hel
Ġdis b
Ġrespect ive
Ġtalk s
Ġburn ed
t es
Ġimpro vement
p ike
on ald
Ġhand led
Ġà¤ķ à¤µà¤°
Ġadv ised
Ġcop per
Ã¶ n
rast ructure
à¤¹ à¤¬
Ġsongwrit er
ĠO ri
Ġunderst ood
Ġfour teen
Ġhum or
Ġin duct
ĠA ra
Ġl ock
ac les
Ġà¤Ľ à¤µ
Ġconf lic
ĠPet ers
ĠIndones ia
Ġhe ir
Ġbo ilers
b al
ĠB ald
Ġpro ceeded
ĠAl i
Ã «
Ġam ateur
ĠSw iss
ĠSax on
u ating
Ġsh ares
Ġinvest ment
Ġinters ects
Ġtransl ated
m ith
ĠEn t
Ġexpl icit
Ġdestroy er
Ġsam ples
c ott
en cing
ĠY am
Ġvot ing
Ġre in
à¤Ī à¤²
ĠBl u
ĠP ic
Ġport r
Ġ189 2
ĠMosc ow
ĠIn v
Ġà¤ĸ à¤Ĺ
y e
Ġwe igh
h aw
Ġrefer ring
Ġsum m
ĠGall ery
Ġcon ceived
ult y
Ġconn ections
Ġdispl ays
ĠCamer on
ar r
ĠR P
um ble
ĠK ate
Ġcomp ound
ah a
Ġcontin uous
Ġsix teen
Ġcertain ly
et o
Ġs oph
Ġad min
Ġlab our
ĠPitts burgh
Ġf old
Ġp airs
ter y
Ġrec on
Ġw orn
Ġair field
ĠOs lo
Ġspok en
É Ļ
ĠA er
ĠC raw
ur i
Ġst uff
Ġchar ity
Ġflow s
Ġex ceed
à¤Ĩ à¤®
Ġsign ature
ĠHar bor
Ġpark s
Ġcle ared
Ġ á
ĠC ad
Ġun w
Ġbl ind
Ġpra ising
Ġconstitution al
ro b
ĠS om
ĠG a
ĠGe off
Ġphot ography
Ġcat al
Ġqual ifying
Ġf asc
st rong
ist ent
ĠEx per
Ġsurv ival
g om
à¤ī à¤²
se ud
Ġtact ics
ĠBroad cast
ĠM ond
Ġprogram ming
Ġgross ing
ĠS id
Ġswe et
Ġ188 5
ĠTer ry
Ġto ured
av or
ff ield
Ġaut umn
Ġshould er
ethel ess
h um
ĠT ow
ĠSec urity
ĠAnton io
Ġrul er
ic ated
ĠG ot
port ing
Ġunl ik
c ribed
Ġf isher
ar io
Ġre organ
ĠR est
ĠAl aska
Ġmagn itude
Ġn at
ĠU pper
ash i
Ġconf idence
Ġ188 8
Ġlegisl ative
Ġn autical
Ġà¤ªà¤¹ à¤¨
Ġcommand ing
Ġpat ients
ĠWall ace
Ã ¢
Ġp ap
ĠM ason
Ġtax es
Ġt ested
Ġhe m
Ġcomm enced
Ġopportun ities
Ġur anium
Ġenthus i
ing ham
ĠF u
ĠE c
Ġatt orney
Ġton nes
Î ±
Ġm oon
ĠS weet
ill o
ĠC ass
Ġà¤ļ à¤®à¤ķ
ĠC BS
ĠR u
ĠE mer
ĠSt ill
ĠV el
Ġà¤¸à¤¬ à¤ķ
Ġtransport ed
g i
Ġf ulf
à¤¦ à¤¸
ĠP ast
Ġcompet itive
Ġrock s
Ġacc ord
ĠMay or
ĠAd v
Ġcommun ist
ĠSte f
Ġfair ly
ĠJ TW
Ġrepresent ation
Ġminor ity
ĠJTW C
e an
ĠC P
Ġcamp s
Ġnob le
Ġmedic ine
Ġexper iments
ĠSy ria
Ġreinf orced
Ġs overeign
Ġh ole
Ġrel ocated
Ġind eed
Ġmel ody
ĠMalays ia
Ġf ram
à¤ĩ à¤«
min ster
ĠPict ures
Ġdec e
ĠCl ay
ĠGr ace
à¤¯ à¤Ń
as ks
oc ation
exp ected
Ġun con
Ġdis char
Ġman ga
amb ers
Ġtravel ing
ĠSt ars
ang er
ces ter
Ġprincip les
Ð °
oc a
ĠAfter math
Ġcommand ers
Ġrev ised
Ġrev olt
Ġcart oon
Ġs ample
ut ton
Ġà¤Ń à¤Ĺ
ĠS ug
Ġà¤µ à¤¨à¤¸
Ġimp ression
à¤¯ à¤¥
Ġenf orce
Ġn erv
ĠP oly
ĠH alf
Ġab use
urric anes
Ġcrop s
l ad
ut o
Ġch ron
Ġ11 9
uss ion
Ġext inct
ĠTra il
Ġwithd rawn
Ġinterpre ted
Ġprom in
Ġprov inces
Ġcharacter istic
ĠYou T
ĠIsrael i
av ia
ach ing
ĠShe ffield
ĠLar ry
e ared
ĠO sc
Ġbl ues
Ġdispl aced
ĠF BI
ĠLu ke
Ġextend ing
Ġcon ven
ag s
Ġpropos als
Ġvo ices
ĠFI FA
D A
is ive
Ġà¤°à¤¹ à¤¸
Ġparticip ation
Ġblock ed
im p
ĠOff icer
Î ¿
Ġw onder
ĠL iter
à¤° à¤ĸà¤£
Ġwar fare
ĠQu est
l en
Ġcon ce
Ġmar ine
ĠJeff erson
it ious
Ġprison er
Ġc raft
Ġopt ions
Ġhe rit
um ph
Ġlight s
Ġpract ical
Ġlearn s
Ã ¥
or ge
Ġà¤ħ à¤µà¤°
ĠPr iv
ĠHer ald
ĠAuthor ity
ĠDall as
y d
Ġà¤¸ à¤¸
à¤Ĺ à¤¡à¤®
à¤¶ à¤¬
ĠP S
Ġdist ant
ici ency
ĠYouT ube
ur d
Ġwar nings
ĠGu inea
ĠClar ke
ĠS ac
Ġà¥§à¥¯à¥ ¨
ĠJohn ston
ĠBry an
Ġà¤® à¤²à¤¯
ĠT ogether
ĠM ix
Ġappro aches
Ġempt y
z ed
ĠI l
Ġjud g
ĠPerform ance
ĠE th
ue z
ĠAust in
ĠSte el
as er
ĠT ai
ĠL ink
oc ity
ĠCy rus
Ġb ull
ĠD aw
Ġrel atives
Ġvict im
ĠDef ense
ĠCh ile
ĠGre ater
mer ce
Ġstat istics
Ġcut s
Ġi P
Ġshif ted
E R
ro oms
Ġà¤° à¤£à¤¨
Ġ10 3
Ġburn ing
Ġrival ry
ĠR ena
ĠW oman
ĠO range
Ġ4 50
Ġtrad itions
Ġgrad uate
ĠN ord
Ġcar ries
ĠE is
ĠO wen
Ġnumber ed
Ġair ing
Ġrest ore
ĠW ells
Ġlight ing
ĠClass ic
ĠPl ant
ĠE ight
Ġcl ar
Ġsk ill
ĠOff icial
ĠFall s
Ġre hears
ation ally
Ġdist ricts
ĠAg ency
ĠStud io
Ġgirl friend
Ġabs ent
Ġà¤ĭ à¤¤
ĠPars ons
Ġmultipl ayer
Ġch ore
Ġman s
Ġmy ster
ĠNe il
Ġval uable
Ġtransport ation
Ġs ings
Ġth under
ĠO m
Ġmar ch
ĠDan ish
Ġprepar ing
Ġc ant
Ġreb els
ĠA A
Ġscore s
à¤° à¤¬à¤¨
at ers
um ped
ĠO t
Ġparam eter
ĠChel sea
Ġ16 7
à¤£ à¤ª
Ġr iding
ber ry
anc he
ĠNe v
ĠMcK in
i ar
Ġinf l
Ġprot ests
ĠX X
ĠForm ation
Ġapplic ations
ĠDesc ription
Ġunlik ely
Ġinc lusion
Ġb ell
Ġinterview s
Ġcycl ones
Ġsal v
Ġsal ary
Ġrecover y
Ġcinem a
Ġw ished
Ġpass ion
Ġp m
Ġbrill iant
Ġp ier
Ġà¤¬ à¤Ĺ
ĠH av
ĠF isher
ĠGreat est
Ġmaintain ing
Ġfilm m
ĠArm strong
Ġcab inet
Ġf est
ĠE ve
ĠQue bec
ĠE ff
ĠV ers
ĠSe ga
Ġam ph
ĠBrazil ian
Ġc reek
le ans
Ġ186 5
ĠCult ural
ĠBegin ning
Ġaccur ate
Ġg arn
ĠR io
ĠN S
Ġcour ses
Ġrat io
Ġreform s
ĠS alt
az e
Ġ14 5
Ġsignific ance
ĠKa iser
Ġa ft
Ġinter vention
Ġpar as
ĠFour th
AT O
ĠAct or
Ġbene ath
ĠSpir it
H L
ul us
ĠRe ich
Ġarg uing
Ġrac ial
it ate
Ġcon tend
Ġà¥§à¥ §
Ġestim ates
Ġ10 1
Ġgrand father
Ġdrum mer
Ġrecur ring
er ver
ĠM end
ĠG ay
Ġeff icient
Ġà¤®à¤¤ à¤¦
Ġpet ition
ut or
ĠAl t
Ġmor ph
ĠCat hedral
ĠA L
Ġgo og
ash a
Ġdivers e
Ù ħ
Ġprocess es
Ġvulner able
à¤¯ à¤Ł
Ġe ating
Ġrele g
Ġcommunic ations
Ġadvert is
Ġtow ers
est on
k h
ĠIn s
Ġup set
Ġkill s
ab ilities
Ã© t
Ġans wer
ong e
Ġsh ock
Ġcol ors
Ġ22 0
Ġà¤² à¤ĸà¤¨à¤Ĭ
ĠConstant in
Ġspons ored
Ġto ler
Ġ11 1
Ġans w
Ġ11 4
ĠMu hammad
be at
Ġcolumn s
ĠJ unior
Ġun expected
Ġcl othes
am as
Ġess entially
ĠSus an
Ġsent ence
Ġà¤¬à¤ļ à¤ªà¤¨
Ġà¤¬à¤¦ à¤²à¤¨
ĠI van
Ġà¤¶ à¤²
ĠOr leans
Ġà¤ł à¤¹à¤°
ĠUt ah
r ary
Ġg ender
ĠX II
Ġshall ow
Ġsur ve
ĠHar old
Ġfac es
Ġimplement ed
ĠGlob e
Ġà¤ķ à¤ļ
Ġair line
ĠK ane
Ġch ronic
ose xual
ĠNew ton
Ã© s
ip ped
Ġj et
ĠSc ar
ach ute
ĠMin or
Ġste ep
à¥¨à¥¦à¥ §à¥
or ia
Ġm ate
aff e
Ġmer ged
Ġsac rif
ĠSerb ian
Ġdecor ated
Ġd im
Ġcons olid
Ġ11 8
ĠPro duct
ĠFer r
ol ar
Ġlast ing
v et
ĠS ud
Ġà¤¶ à¤¹
Ġemot ion
Ġà¤Ĩà¤¯à¤° à¤²
Ġt ale
ĠRich mond
Ġsurpris ed
Ġp ip
Ġm ood
Ġh tt
ĠProv ince
Ġthe ories
Ġman age
Ġà¤¦à¤° à¤¬
Ġsw it
Ġwid th
Ġs in
Ġà¤ªà¤° à¤¸
land ers
Ġsum mit
Ġchart ed
Ġbeat en
Ġl iner
ik o
Ġà¤« à¤²à¤¸
ĠPan zer
Ġf ate
Ġdeep ly
Ġmer c
d ess
Ġpro of
Ġsquad rons
Ġsc r
ke eper
Ġreact ions
ĠConstant ine
aid en
Ġtri ang
Ġpot entially
her s
ĠP ok
ĠF ull
à¤ķ à¤¬
Ġd ual
Ġh o
Ġproport ion
ĠG ang
lev ard
Ġdra fted
ĠElect ric
Ġdem o
Ġcr imes
cast le
ĠPict ure
ĠT yler
Ġman ip
Ġ23 0
ĠRepublic ans
Ġ rib
re ated
Ġcivil ians
Ġsusp ic
Ġgra ve
Ġherit age
Ġto urs
Ġbreak s
Ġalt itude
ĠScient ology
Ġdesc ent
Ġpresent ation
Ġbeaut y
ĠStu art
ĠT ang
Ġre ct
ĠW a
Ġseg ments
Ġor ange
Ġstruct ural
ĠE C
Ar thur
s or
à¥Ģ :
ĠS ultan
Ġbe ating
ĠF ighter
ch i
ens on
Ġà¤²à¤Ĺ à¤¨
ĠJoh ann
ĠS out
ĠEn v
Ġâ ģ
ĠGame Sp
Ġfund ed
Ġori ented
Ġdanc ers
ĠApoll o
b es
à¤° à¤¯à¤¤
Ġd ense
ch a
ĠU C
Ġaccommod ate
Ġgold en
f unction
Ġb oot
ĠB es
ĠAn y
Ġphys ics
Ġprincip le
Ġagricult ure
Ġpersu aded
Ġw ine
Ġd warf
Ġh ills
à¤ľ à¤¦
ĠOr chest
Ġadmin ister
ap ing
Ġ12 9
Ġà¤ħà¤« à¤Ĺ
her ic
iz er
à ®
Ġconf usion
ĠCons ervation
ĠIndones ian
b orn
c ut
l on
ĠHe b
Ġg ene
Ġrequ iring
ĠAm endment
ĠReg ister
Ġcompl ained
ĠBuff alo
st s
ĠN ature
à¤ī à¤ª
Ġadd ressed
Ġ188 7
ĠSymph ony
ys elf
Ġdev oted
ĠM eth
Ġà¤ĸ à¤£
Ġfe ared
ock et
Ġinteract ion
ĠS ide
Ġn urs
os ph
Ġev ident
ĠHun ter
ĠD ays
à¤¼ à¥ĩà¤Ĥ
ĠG round
ĠCont rol
Ġre join
ĠW onder
Ġà¤Ń à¤°à¤¤
Ġinter medi
Ġsout heastern
Ġsail ing
ant ed
Ġus age
Ġen abled
Ġtrib e
ĠCard iff
ĠP ant
qu est
ons in
ĠS yn
ĠW isc
à¤« à¤¨
à¤¸à¤ķ à¤°
Ġj ack
Ġass um
omet ric
ĠMc N
ĠIslam ic
is ons
Ġp ink
ĠH ad
ark s
Ġrece pt
ĠWith out
Ġobs ervation
ĠBurn s
ĠS ection
ĠW alt
Ġoper ates
Ġ186 4
Ġresear chers
Ġà¤®à¤Ĺ à¤§
Ġf ame
od ed
Ġfollow ers
ĠTr ade
osp el
ĠBrook s
Ġjurisd iction
ri fic
ĠK yle
Ġ10 2
Ġquar ters
Ġc ards
Ġà¤¡ à¤¬à¤²
Ġtru ck
Ġvoy age
ĠC avalry
Ġkn ee
Ġmyth ology
Ġholid ay
3 5
ĠA ber
ĠR uth
Ġà¥¨à¥¦à¥¦à¥ ¯
Ġkid n
Ġconstit u
Ġt ension
Ġm ud
ĠS ox
à¤Ń à¤¦
Ġpregn ant
usal em
Ġf ert
ĠM ind
ĠD anny
Ġà¤¸à¤® à¤¨
oth y
Ġjud ges
as p
ĠC ode
Ġà¤Ī à¤®
Ġstat ements
g ie
Ġà¤¨ à¤ľà¤°
Ġà¤ī à¤Ń
Ġsu gar
Ġsuper st
Ġdiplom atic
Ġâģ Ħ
ĠT itan
Ġg h
ĠP rest
Ġwrit ings
ĠAb u
Ġsudden ly
s a
ren e
ĠEd ition
à¤Ĺ à¤ł
Ġà¤¤ à¤Ń
ĠEx ecutive
ĠMet ropolitan
ÃŃ n
Ġhighlight ed
ĠT rad
ĠK id
ĠUn til
ĠAir lines
A L
ur st
ĠF itz
Ġcomment ing
Ġop ens
n els
r ically
s burg
ÃŃ a
Ġs ized
ĠH ope
ĠBo eing
ĠJer usalem
osa urs
ĠB ud
ĠSt art
ling ton
ĠAct ress
Ġemb arked
n i
Ġman if
Ġloc ally
Ġext ensively
ĠMan agement
Ġchalleng es
m aster
à¤ķ à¤Ń
Ġto oth
Ġfle x
Ġdeal ing
ĠJust in
Ġunivers al
Ġsculpt ure
ĠB ible
Ġbe ars
Ġadv ancing
ĠQu ar
Ġdocument ed
ĠLeg isl
ĠWisc onsin
en os
Ġg aining
ĠP ul
Ġag es
Ġstud ying
Ġth rown
Ġsimilar ities
3 1
à¤ļ à¤°à¤£
Ġprodu ces
Ġvar iation
ĠGr ade
Ġlif etime
ĠF act
ĠN as
Ġapp ly
Ġdet ect
Ġhel ps
Ġen zy
ĠTy phoon
Ġgard ens
ĠT u
à¤Ĺ à¤Łà¤¨
Ġg ift
Ġfe e
ĠRe f
Ġdro wn
ĠIndepend ence
Ġin put
Ġsub stitute
Ġequ ally
uck er
Ġà¤µà¤¨ à¤¡
Ġc ry
Ġn aming
ph an
Ġinf rastructure
p ine
u ters
Ġeduc ated
Ġà¥¨à¥¦à¥ §à¥¦
4 5
th odox
Ġres olved
Ġkn ocked
Ġexpl aining
Ġsent enced
Ġbound aries
uls ion
ĠB ased
ĠBar nes
ĠCent ury
Ġdiv orce
back s
Ġcon j
Ġr ings
Ġdis order
ĠPat ri
ĠCr us
ĠC e
Ġr ivals
ĠSe an
t c
ĠR O
Ġsc re
ĠSch um
Ġdisturb ance
ĠT oy
Ã© n
ĠBar on
Ġ188 6
Ġpred ators
Ġtradition ally
ĠMov ie
ĠM all
Ġpri est
Ġchem istry
Ġt ies
à¤ĸ à¤Ń
Ġne p
Ġrece ives
ĠSat urn
ancell or
E T
Ġà¤¬ à¤ļà¤¨
Ġ97 8
ĠRog ers
Ġt el
v ar
y r
ĠM ult
Ġsw ord
Ġoverl ook
at ched
ĠMil es
ĠMont gom
ĠPier re
Ġdiscont in
ĠMontgom ery
j u
m o
p iece
à¤Ĺ à¤ķ
Ġstret ch
ĠC er
ac o
ell ar
ĠLe af
Ġvolunte ers
ĠTur key
ĠF ace
Ġ11 7
Ġinvol ves
Ġsettle ments
ĠAtt orney
Ġ urg
Ġsup ern
Ġn ut
ĠI cel
Ġfor b
all s
Ġà¤¬à¤¹ à¤¤
Ġgu y
Ġà¥© à¥¦
Ġt ape
un ning
Ġvill ain
Ġbenef its
Ġrend ered
Ġà¤ª à¤ł
Ġst rand
Ġsp awn
Ġcommerc ially
Ġgarn ered
Ù Ĩ
Ġsm oke
Ġm aps
ĠSc ots
Ġexpl ore
19 7
Ġconsider ably
Ġtrav elling
Ġconcer ning
Ġrecru ited
C O
Ġl ift
ĠW es
ri ft
ĠBe h
Ġ184 0
ĠSher man
Ġtick ets
Ġà¤ħ à¤µà¤¤
Ġà¤¦ à¤¯
ri en
iz z
Ġass ert
Ġ186 2
ĠMac Arthur
Ġprote ins
a o
ĠC emetery
ĠM ang
Ġse as
Ġsp ar
Ġresc ued
u ction
ĠW inn
ĠF il
ĠSh ah
ann e
ĠA ges
ĠB ert
ĠChrist ians
Ġhost ile
Ġst yl
Ġcirc ular
w ald
Ġd imin
Ġcr ashed
Ġcl iff
Ġweaken ing
Ġash ore
Ġ ib
Ġ ËĪ
à¤¨ à¤Ĺ
Ë Ĳ
Ġin hib
ĠS af
ĠN ATO
ag ers
Ġep ic
h ill
n t
ov ak
Ġbat ted
ĠIcel and
Ġd ying
ĠN eb
ick ing
Ġtask ed
Ġconflic ts
á º
ĠFl ore
Ġelabor ate
l ights
ĠF ern
Ġv ig
ĠU nd
ĠSp ider
Ġdo ors
Ġdep icts
Ġmix ture
Ġhous ed
Ġescort ed
Ġvel ocity
Ġed itions
ĠMid d
à¤² à¤ľ
ĠF low
Ġ188 4
Ġbor row
it ic
à¤¸ à¤Ł
ĠA ren
Ġà¤¶ à¤¨
ĠIn vest
gg ed
ĠF ish
ĠK rist
Ġle af
Ġpurs uit
ĠLeon ard
ĠC row
Ġà¤Ľ à¤ł
Ġmanufact uring
Ġconcur rent
Ġin ning
Ġre ass
à¤¶ à¤ª
Ġab b
Ġcompet itions
Ġinn oc
ĠBalt ic
ĠT ourn
el ing
Ġ186 3
Ġcollect ions
ĠJud ge
Ġp ill
ĠTh ames
Ġauthor ized
Ġgod s
Ġcol ours
Ġver te
Ġsupport s
Ġhand ling
ĠEv il
ĠRom ney
Ġdin ner
Ġimprison ed
W A
are st
Ġra nd
ĠZ one
Ġopp osing
Ġthe rm
Ġc am
Ġc ensus
ĠL P
Ġch rom
ĠReg ional
Ġwars hips
l ane
ou rag
ĠHe arts
Ġdra in
ĠSte in
Ġrev ival
Ġparticip ants
Ġhy per
ĠBarb ara
Ġteamm ate
Ġhoriz ont
Ġf ra
Ġf ron
ĠB ask
ĠAt hens
t ains
Ġs or
Ġc ow
ĠM i
ĠP as
Ġevent ual
Ġtem po
Ġpurs ued
Ġvari ations
Ø ±
ĠB ranch
Ġr amp
ĠEnv ironment
Ġc able
ro gen
ĠCom edy
cl iff
Ġexam ination
Ġhar bour
Ġfavour ite
Ġvirt ually
ĠAgain st
ĠT ru
ĠLe v
Ġmed als
Ġpolit icians
Ġscreen play
Ġtiss ue
z ing
ĠH unt
Ġur ged
Ġbelief s
L A
w right
Ġ ãĥ
is ition
ĠF ight
ĠRe port
ĠRe agan
Ġsusp ected
ro e
Ġst ones
and o
Ġ12 6
ĠRepresent atives
a uc
ĠG ran
Ġab road
p oint
ul um
oc c
Ġà¤īà¤ª à¤¦
Ġcong ress
Ġportra it
Ġch ase
rid or
Ġeas ier
Ġrenew ed
Ġveter an
ĠT erm
Ġg tc
ubl in
ĠN ancy
Ġunivers ities
4 7
à¤¯ à¤°à¤¤
ĠS onic
ob a
ĠNov a
Ġorgan isms
Ġun ve
Ġport al
g ow
on ation
Ġsp ur
Ġdec ay
ĠTrib une
in ery
à¤ı à¤¡
Ġthere by
Ġposs ess
Ġc attle
ot ion
ĠD J
Ġprom ise
an im
Ġst olen
Ġpro x
ĠCh ad
Ġpromot ing
à¤® à¤¹à¤¤
Ġl aps
ĠK on
Ġlic ense
ĠPortug al
Ġremember ed
Ġinher ited
er ts
ig ious
Ġr ushing
Ġtra iler
Ġ185 7
ĠD raft
Ġinter ven
Ġpit cher
ĠLabor atory
ĠErn est
Ġhop es
Ġt aste
ĠH as
Ġcom ics
Ġdecre ased
Ġshark s
Ġrand om
le ted
ĠNew castle
Ġtrack ed
Ġcapt uring
Ġconfir m
Ġl oud
ĠEn ergy
o i
Ġm ail
am ics
ĠW ed
ĠJ oint
qu er
Ġprot otype
Ġs av
Ġd a
Ġv ital
Ġ10 7
Ġaccess ible
ĠLiber ty
Ġre ver
ep s
Ġpos itively
Ġbombard ment
Ġwar ned
Ġhand le
ĠMag ic
Ġsepar ation
Ġcompos itions
Ġaccident ally
ĠJos Ã©
Ġto ols
ĠY outh
Ġtra pped
Ġinh ab
v o
à¤£ à¤®
Ġcost ume
ĠBr ight
Ġceleb ration
ĠConstantin ople
b ing
is an
id ia
Ġup coming
Ġinv aded
Ġà¥¨ à¥ª
ĠMer ced
ĠCharl otte
ĠAff airs
ĠG on
ĠPerson nel
Ġble nd
am ine
ĠAg u
ild a
Ġ15 7
Ġet c
Ġju ven
ĠS aw
ĠC ryst
Ġpartic les
ĠGl as
Ġbi ological
f ly
d ed
ĠH om
ĠV oice
ĠFre edom
Ġoccas ional
ĠHeavy weight
l imin
m ont
or f
Ġà¤® à¤ł
Ġd ust
ĠM V
ĠB apt
Ġhop ing
h ou
ĠPet e
Ġdepend ent
Ġtorn ado
Ġavo ided
à¤¸ à¤¹
rib le
rest rial
ĠCorn wall
ĠChap el
Ġanticip ated
Ġl augh
ĠV o
Ġra ins
ov ic
Ġ13 8
Ġconf ig
Ġlabor atory
ĠC inem
Ġn ose
ew ork
ick en
Ġmet ric
Ġbi ography
Ġboy friend
am pton
Ġ187 6
ĠÄ Ĳ
Ġb omber
ĠS ic
ri or
Ġ11 6
Ġimp ressive
Ġmark ing
Ġgen u
ĠOther s
h t
ĠB eth
ats u
Ġbatter ies
P S
Ġf ed
Ġsc andal
Ġdo zen
Ġprov isions
ĠTechn ology
ĠC ase
Ġs inking
en berg
ia h
ugh t
Ġf ires
ĠC and
Ġl iver
ĠL ower
pt ic
col m
Ġgu ests
Ġà¤ħà¤¸ à¤«à¤²
ĠPed ro
Ġ187 7
Ġnickn ame
Ġp or
Ġnot iced
Ġpolit ician
Ġà¤¸ à¤°à¤¦
ĠFilm ing
ĠArmen ian
ĠT ree
ĠSe x
ĠAnt ar
Ġparliament ary
ĠFriend s
Ġto xic
Ġind igenous
ious ly
Ġaff ord
Ġl ighter
ag les
ph al
Ġconsum ption
à¤ª à¤£à¤¨
ĠM embers
ĠLe ices
Ġthreat s
ĠKenn eth
Ġrestrict ions
Ġcorpor ate
n r
ĠV ick
ett a
Ġvolcan ic
R C
he ld
Ġà¤¯ à¤®
Ġel d
Ġà¤ıà¤¯à¤° à¤²
h l
Ġin e
ĠC hester
ĠMar ines
Ġtr unk
Ġà¤ħà¤ķ à¤¬à¤°
Ġtru ly
Ġign ored
Ġc ash
ĠP eng
Ġhe nce
art ime
Ġarg uments
Ġcod ice
ĠOsc ar
à¤¸ à¤°à¤£
à¤¹ à¤Ł
ĠC inc
ĠB ark
ĠD uch
ort ed
Ġpre f
Ġprog ressed
Ġf ier
os y
ĠTh r
Ġdep uty
ĠIsa ac
ĠProtest ant
3 7
g Ã©
ĠS kin
Ġimp osed
Ġoccur ring
Ġthor ough
ĠMeteor ological
ol ia
Ġà¤ī à¤¤à¤°
ĠCh air
Ġmix ing
ĠMal colm
chang ed
ĠA ction
ĠC ena
Ġr ugby
ach t
ĠT ake
ĠB ears
op les
ĠOrchest ra
4 8
à¤ķ à¤¦à¤®
à¤Ł à¤ķà¤°
ĠD ublin
Ġrel ation
Ġw ound
Ġf les
al g
ĠT ir
ĠBou levard
ĠChamber lain
Ġmurd ered
Ġà¤ı à¤¥à¤²
ĠAl tern
à¤²à¤Ĺ à¤Ńà¤Ĺ
heim er
le m
ud i
ĠZ ero
ĠCE O
ĠTh an
Ġord inary
Ġcust omers
ĠL amb
ĠRo om
Ġevac uation
b ach
iel der
ĠGu ild
ĠCare er
Ġdread n
H g
o om
Ġa f
Ġc u
Ġpl ates
Ġcont racts
Ġpre st
Ġà¤ķà¤® à¤²
al in
Ġac re
Ġ188 3
Ġphot o
Ġdefend ers
3 8
at ical
Ġà¤ª à¤¥
Ġex ile
Ġ188 1
rack s
Ġcat hedral
à¤· à¤ķà¤°
ĠW atch
ĠE RA
3 6
ĠB reak
à¤« à¤²à¤¤
Ġ7 50
Ġà¤ĳ à¤Ł
Ġintellect ual
Ġw ake
Ġm it
ot ing
ĠP el
Ġ12 8
à¤Łà¤ķ à¤¥
ĠStud ies
Ġcho ir
ĠAthlet ic
Ġexplan ation
Ġlawsu it
Ġdecre ase
Ġf ab
Ġà¤§ à¤°à¤¤
Ġ187 5
ĠGab ri
Ġdeb ris
Ġdepict ing
Ġspec ulation
ĠOr d
Ġkill er
Ġfac il
Ġmechan ism
ĠCycl one
ig a
oc ol
ĠEd die
Ġengine ers
Ġtim ber
Ġcomplic ated
ag g
ĠSl av
Ġterrit orial
Ġkil og
Ġconvers ation
R S
à¤¹ à¤µ
ĠP ay
ĠL S
Ġà¥¨ à¥©
ĠMich a
ĠBrad ley
Ġnep hew
Ġs tern
ĠR I
Ġdevelop ments
Ġ188 2
ĠCont inental
Ġang ry
ĠS A
ĠM ann
ĠF uture
Ġindust ries
Ġ183 0
Ġdisappoin ted
Ä «
Ġm ad
Ġas ide
Ġà¤ħà¤¸ à¤²
au ge
uk a
ĠVII I
et ary
ish n
ĠWW F
os ion
Ġeast ward
Ġconqu est
Ġin fer
Ġm os
Ġpres erve
emb le
umber ed
ĠTourn ament
ĠG lee
à¤µà¤¤ à¤¨
Ġthreat ening
Ġencoun ters
Ġun e
Ġun t
ie g
ĠMet ro
ĠAlbert a
over ed
it ol
Ġinf ection
ĠCol lection
Ġpost s
Ġly rical
ĠArch bishop
ĠSerb ia
ĠFried rich
on ial
Ġw ard
ul ates
Ġlack ing
Ġsusp ension
Ġthrow ing
Ġundert aken
Ġrevolution ary
ic ing
ĠPl ace
Ġel ite
ĠLu ft
Ġthunder storm
Ã ´
it ting
ĠCh ang
Ġbre ast
ĠCinc inn
Ġ æ
ent ieth
ĠF r
ĠG ates
Ġconf ident
Ġg if
Ġis n
Ġrem in
Ġhuman ity
b el
it ime
Ġm ounts
ĠS ad
ĠP ros
ab ad
Ġsp ell
ĠV illa
ĠJo an
Ġant ib
Ġstri kes
ĠTom my
Ġvic inity
it ure
Ġst im
Ġconv icted
Ġp ig
am ount
Ġchampionship s
Ġtouchdown s
ĠK in
Ġremov ing
Ġfocus es
ĠGib ral
ĠSpring field
Ġp enn
Ġcont acted
Ġent ert
rol led
Ġmess ages
Ġfarm ers
Ġexhib it
Ġmamm als
ĠAnc ient
rit ic
ran k
ĠShe p
Ġreal istic
Ġinaug ural
en cer
Ġà¤ħ à¤Ł
Ġparam eters
Ġa rose
ort ion
ĠU k
Ġconst antly
ĠMusl ims
à¤® à¤°à¤£
Ġbo ost
ĠÃ ī
Ġdiam ond
ĠK az
ĠV eg
Ġhelic opter
ic ular
Ġth ro
ell ers
ik ed
Ġmet re
Ġpat ri
Ġf nr
ĠC ort
ĠD ud
rie ved
oir s
ĠMalt a
ub ble
ah l
Ġà¤¬à¤¦ à¤²à¤¤
ĠMarsh al
Ġà¤¶ à¤°à¤£
ĠYugoslav ia
Ġà¤¦ à¤¤
ĠE sc
Ġcent ered
Ġvot ers
quir y
à¤°à¤ľà¤¨ à¤¨
limin ary
ĠGibral tar
ĠT int
Ġcollabor ated
Ġsust ain
Ġcorrespond ing
Ġabsor bed
ĠWag ner
Ġad mir
Ġpredomin antly
ĠH ood
ĠF ly
Ġper f
Ġass erted
isc her
Ġpat ient
ĠC anu
ĠR ound
Ġfe athers
ĠCom ics
ĠSh iva
Ġsit uations
ĠRob in
ĠTw itter
Ġillust rated
£ o
Ġh oles
ĠM aced
ĠM aine
Ġà¤¨ à¤®à¤ķ
Ġdes per
en z
ĠJ ake
Ġview ing
ĠTai wan
Ġt une
Ġcomp iled
ass y
Ġcast les
Ġap olog
ĠForm er
ĠR ear
av an
Ġres id
Ġindepend ently
Ġl ib
ĠH ull
Ġrele asing
ĠRe ed
ĠT alk
Ġkn ows
reg ular
ĠCincinn ati
u ber
ĠE qu
à¤Ĩ à¤²
enn ial
Ġorgan ic
Ġ186 6
Ġgrow s
Ġpen insula
Ġà¤®à¤ľ à¤¦
à¥¨à¥¦ à¥¦à¥
b u
h art
ĠPark s
ĠWat ers
f low
ĠAfghan istan
Ġà¤ª à¤¤à¤¨
ĠL ords
Ġen com
Ġà¤ĳ à¤¨à¤²
ĠAll iance
Ġ186 9
à¤ª à¤°à¤®
Ġ14 9
ĠHis pan
ĠAngel ou
Ġspeed s
ĠNorm andy
ip her
rib ution
Ġ186 7
à¤Ĩ à¤¯
aul ts
Ġ187 3
Ġbreed s
ĠJul ian
Ġrelie ved
ĠC ond
ĠC hem
Ġà¤ĩ à¤£
Ġbow l
Ġà¤¦ à¤°à¤µ
Ġen orm
Ġshe ep
ane ous
Ġcancel ed
as ury
ĠB rid
Ġbl ast
ĠNAS A
Ġà¤µ à¤¯à¤¸
Ġlay ers
Ġa est
om ed
rel s
à¤¸ à¤¨à¤ķ
ĠC ry
Ġst ored
ĠK ill
ĠSh ield
Ġ187 1
Ġple ased
en burg
Ġl over
ĠEd mund
Ġroad way
ĠVeg as
m usic
ĠL ud
ĠOrgan ization
G M
ĠMad ison
ĠPok Ã©
f ound
in stein
Ġcould n
Ġmar ched
Ġpost er
Ġsuggest ion
ĠBC E
à¤ķ à¤£
Ġm ask
ĠE ld
Ġoff shore
over ty
Ġexp anding
Ġvary ing
H S
Ġf ract
Ġp seud
iz ard
Ġout standing
Ġcol ored
Ġgen res
ĠOl ivia
ĠGreg ory
h all
à¤ļ à¤¤à¤®
Ġcl ergy
Ġfund amental
ĠC ou
ĠR ush
Ġpros per
Ġlocomot ives
Ġm ild
Ġare na
Ġbut ter
Ġz ero
Ġp aying
ĠM ut
ĠCons ervative
y an
Ġg rid
Ġà¤¦ à¤®
ĠH us
Ġclos ure
ĠBur ke
Ġox id
ĠRevolution ary
ĠMerc ury
ĠR us
od ium
ring e
Ġa qu
ĠC ut
c ell
Ġs ulf
ĠK ra
ĠLe eds
Ġreg ulations
Ġsent iment
Ġ187 8
Ġceleb rate
umber land
ĠHistor ical
Ġback st
Ġreport ing
ĠEx pl
Ġdisapp eared
Ġh ide
ĠN ation
Ġper c
om on
ĠSol ar
Ġb apt
Ġarm oured
ĠBrook lyn
ĠSchum acher
3 9
ĠS oph
ĠOr ton
B O
g ary
z es
Ġt ent
ros cop
Ġà¥¨ à¥¨
Ġmagn etic
à¤¯ à¤¬
ac ular
ĠB urg
Ġat op
ĠJ NA
Ġà¤ķà¤² à¤ķà¤¤
ĠMon th
ission ed
Ġfac ulty
ĠSer ge
Ġlin ear
f eld
Ġfun gus
Ġattract ion
im ony
Ġwh atever
ĠOper a
onn ie
Ġconspir acy
m ates
Ġch a
ĠX I
Ġcur ve
Ġdro pping
ĠML B
Ġinduct ed
p in
he nd
Ġf ant
Ġ187 2
Ġpreced ing
ĠPolit ical
Ï Ĥ
ĠD ennis
ĠV ern
ĠHel en
l ist
à¤¨ à¤ľ
ĠH ubb
Ġtr ig
ĠLe o
Ġrad ius
Ġcompan ion
ĠPrinc eton
ĠR NA
ĠN am
ail ing
Ġrem ote
ĠMcKin ley
G B
ĠA ub
Ġdet ected
Ġposition ed
ĠBrown s
Ġrom ance
Ġcon ced
Ġfl our
Ġsub mer
Ġbl amed
Ġrep orter
get t
in ated
is k
ĠC H
ĠM ak
ĠF ather
ĠN athan
ust ers
Ġpublic ity
ĠCo al
Ġnever theless
Ġà¤¤à¤° à¤²
ĠBra h
Ġwitness es
s is
ed a
ĠS or
Ġe agle
ĠN ad
let t
Ġtarget ed
Ġst ability
Ġno ise
ĠBar cel
ĠGh ost
ĠTig ers
en ess
Ġrep ris
ĠMus ical
Ġswe pt
b ie
Ġl ung
Ġproper ly
ĠW el
Ġann ex
Ġprog ressive
Ġsubmar ines
c ont
Ġquot ed
Ġcalc ulated
Ġwin ners
Ġconf used
Ġpark ing
Ġin Hg
aren ess
Ġd iversity
Ġà¤µ à¤ľà¤¨
à¤ī à¤¥
Ġret reated
Ġvers es
Ġvari able
Ġfoss ils
r ity
ĠHe y
ĠSm ack
Ġsw ing
Ġshel ter
Ġcondem ned
n et
ab a
Ġmon it
Ġfort ifications
Ġro tation
Ġfocus ing
Ġir regular
ĠDev il
Ġtele phone
E D
Ġf ault
ĠT ests
ĠN ass
ĠIs le
ĠGlas gow
ĠHubb ard
Ġg entle
Ġthan ks
ĠComm ons
Ġterm inal
Ġra b
ĠIs ab
Ġmach ines
ĠP ick
Ġà¤Ĺ à¤¨
ĠL ed
Ġr ice
Ġflow n
à¤µ à¤¡
ĠS ri
over y
Ġdr unk
Ġinstruct ions
ĠCanu cks
Ġt ap
Ġn ice
Ġrec ruit
ĠHer bert
Ġconcept s
Ġresign ation
Ġdisb anded
Ġ _
ĠIn sp
ĠK il
Ġenc ourag
Ġcru ise
ard ed
Ġment ions
Ð ¾
Ġconv ince
Ġmel od
Ġb ore
ĠR av
ĠHol land
Ġ ~
Ġf o
ig ation
us c
ist ical
Ġsc rap
ĠSe b
Ġtorped oes
Ġchalleng ing
ĠFif th
Ġro ster
Ġreg iments
Ġins urance
Ġreb ounds
Ġwor se
Ġsole ly
Ġfer ry
Ġbr ings
ĠMill ennium
ĠCur rent
um i
Ġdirect ing
ĠSal v
ĠMont ana
ĠEp is
Ġic on
el in
ĠB our
Ġà¤¯ à¤ķ
ĠIn side
Ġtri umph
Ġtour ist
Ġcreat ure
ĠPhill ies
b i
as ia
ĠM ig
ĠSt rong
Ġjud icial
ĠCelt ic
Ġo ct
ĠC het
ĠThe odore
Ġg ear
av ian
Ġstud ios
Ã¶ r
ĠAdvent ure
Ð ¸
on so
Ġà¤ķ à¤¤
ĠA qu
ĠM orning
ĠO cc
ĠMerced es
i ors
ĠC M
à¤¼ à¥Į
ĠY ard
ĠWest minster
Ġcontrib ute
ĠHind i
D P
Ġc otton
le ased
Ġhistor ically
Ġ186 8
Ġupd ated
if fer
oura ble
Ġscholars hip
ĠTint in
Ġm yself
hen tic
Ġround ed
Ġà¤ª à¤ļ
ĠP sych
ew ise
ish ops
Ġà¤ĳ à¤¨
Ġdark er
Ġexam ined
om ical
ac er
Ġsh aring
Ġro ot
att y
Ġfav ored
à¤ıà¤¨ à¤ı
s ch
in ter
Ġc osm
Ġà¤ī à¤Ńà¤°
Ġed iting
Ġg ram
Ġà¤¸à¤¹ à¤ľ
Ġlog o
Ġscre ens
ĠS H
ĠP ack
ĠP oe
ĠV erm
Ġj ew
Ġà¤īà¤¦ à¤¯
arm a
ĠWik ipedia
Ġb in
ri um
amp a
Ġball s
Ġmeas uring
Ġj ersey
ĠAt hen
ĠDen ver
Ġacclaim ed
ĠBask etball
nd a
ĠC ox
ĠI b
ak u
iz ers
Ġdist inction
Ġâ Ļ
ĠH IV
à¤¡ à¤ķà¤°
ĠAust ro
Ġstead ily
at ar
ĠC C
ĠThe ater
Ġbattle field
ĠComp uter
ĠGl ou
Ġreconst ruction
l ined
Ã ł
ĠF un
ĠAlb any
ĠCa es
á» ĩ
ĠBulgar ian
Ġgh ost
M usic
work s
Ġconduct ing
Ġprompt ing
ĠRon ald
Ġspac ecraft
Ġmonaster y
Ġelig ible
Î ½
Ġw artime
Ġflow er
ĠAddition al
ĠTerrit ory
ĠMicha els
y c
at on
à¤¸ à¤°à¤ķ
ĠB ris
op ard
ĠSc iences
Ġtri o
et a
ĠI C
Ġà¤° à¤£
Ġag encies
end ar
ĠAb ra
Ġà¤Ĩà¤Ĺ à¤®à¤¨
Ġwalk ed
ĠGoth ic
Ġm asc
ĠH i
Ġpres ents
ĠPer cy
Ġparticip ating
ĠOtt awa
Ġinteg rated
ĠH ok
à¤ħ à¤Ĺà¤²
Ġdec isive
Ġconn ects
Ġelev ated
ĠC any
ĠCh uck
Ġdis abled
Ġtro op
ĠCarl os
Ġaccompl ished
D own
ĠB erm
ĠR ivers
Ġcon vey
Ġinc idents
Ġcur ved
Ġpost p
Ġlo ose
Ġà¤®à¤¶ à¤¹
Ġ ion
og s
ĠAr c
Ġgu ards
Ġagre es
Ġcommit ment
Ġgust s
d i
ar ians
Ġh osp
ĠB od
Ġcon vert
ri p
ri ans
Ġr ational
Ġk ids
Ġro uting
ub s
Ġind irect
Ġkilomet ers
ĠBarcel ona
at isf
ĠNev ada
ĠMar l
Ġthem ed
Ġref uses
ett es
ĠMed ic
Ġmot if
ĠArch ae
Ġopt im
Ġconsequ ence
Ġtel esc
ol an
ĠW is
Ġex terior
Ġcan on
Ġencom pass
un ge
Ġch ann
Ġrun ner
Ġcloud s
Ġc emetery
Ġto ugh
Ġe cho
ĠR osen
Ġcreat ures
Ġop ined
Ġsens itive
ĠC A
ĠC u
ĠD uc
Ġcom ed
ank a
Ġphys ically
Ġreven ge
ĠHe in
Ġwalk s
Ġrit ual
ĠPokÃ© mon
ass ic
Ġà¤ħà¤ª à¤µ
c ore
Ġfin est
Ġmar g
Ġven ues
Ġproclaim ed
v or
as i
à¤¬ à¤ļ
Ġvar ies
ĠMe ga
Ġà¤¸ à¤ĸ
se ason
Ġless er
Ġreb el
ĠMet ac
Ġintermedi ate
Ġin tend
Ġsp ots
Ġtrans mission
ĠMil an
ĠDiam ond
le x
ĠM C
ĠI P
Ġcent imet
Ġ13 7
app a
ĠCard inals
c i
Ġo v
it ars
à¤² à¤¡
Ġun h
Ġsc out
ree ks
Ġtheat ers
Ġextend s
Ġenh anced
Ġto uc
Ġpr ince
ĠEn ix
Ġadd s
Ġins uff
Ġf ile
ag i
Ġdem ographic
ĠSqu ad
ĠChurch ill
arth y
ĠT as
Ġl akes
Ġà¤¬ à¤ķ
ig hed
ĠR BI
ĠF a
à¤®à¤ķ à¤°à¤£
ĠCol in
Ġcerem onies
Ġmart ial
Ġiniti ative
Ġcompliment ed
Ġremin isc
I C
à¤ ĭ
Ġcont rad
Ġpe oples
ĠOper ations
ĠDra ke
Ġdeliber ately
Ġà¤ªà¤¤ à¤²
ĠRoman ian
Ġbor ough
Ġlat est
act ic
Ġep it
Ġà¤Ĭ à¤¤à¤ķ
ĠPar aly
Ġbow led
ĠRay mond
Ġprepar ations
Ġmans ion
ĠSmack Down
ĠPark way
ĠReg ion
Ġsearch ing
ĠF oster
Ġdes ired
ĠUn it
Ġrem ake
Ġmin isters
Ġheav ier
ĠCirc le
r ush
he rent
Ġh arsh
ĠB ody
Ġst om
Ġout come
Ġcontin ental
Ġweak ness
ĠStand ard
ĠManu el
ĠT ib
ĠW ings
Ġy d
ĠSp eed
Ġcontrib uting
Ġà¥¨à¥¦à¥§à¥ §
Ġencoura ge
ĠV oy
Ġsouth western
ĠWe ather
ĠEm ma
Ġtransform ed
l ake
Ġon wards
id o
ĠSte am
à¤¹ à¤ľ
ĠSh in
Ġà¤ĵ à¤®
Ġprocess ing
Ġprosp ect
Ġto m
Ġro ok
Ġposs essed
Ġachie vements
Ġw it
Ġf ru
Ġh urt
ĠB ass
ian g
ĠAl am
Ġco aches
ver n
ĠR ange
ĠD elta
ch t
Ġplay able
ĠS ans
ĠF ood
ash ire
Ġmo ist
Ġpropag anda
ar us
ch w
ĠBl air
mit ting
Ġconsider ation
ĠFer din
Ġnavig ation
ĠMidd les
O R
Ġa ided
ab et
Ġcrit ically
ĠNorth west
Ġrid er
Ġconsist ently
Ġautobi ography
h o
Ġ12 4
Ġair borne
ĠVen ice
ĠPlan et
Ġb orders
um s
ĠK y
ĠBel ie
Ġestim ate
Ġconscious ness
T unes
g or
ĠRichard son
Ġmechan ics
ĠJama ica
U s
à¤ı à¤µ
Ġall ied
ĠCar n
Ġ187 9
Ġhom osexual
Ġveget ation
Ġdepos its
à¤¤ à¤ķà¤°
ator ial
Ġtour ists
iron ments
Ġmolec ular
ĠAren a
Ġas cend
Ġcomple ment
Ġland mark
ĠCont em
ĠDun can
ĠInt ellig
ĠPow ell
Ġrout ine
ĠParaly mp
à¥ Ĩ
Ġse al
Ġperman ently
ĠT ab
ĠAn at
ĠCal gary
ĠComp osition
Ġemer ging
Ġadj ust
Ġorchest ral
ĠLanc ashire
Ġc ro
Ġwork er
Ġmon ster
Ġdep iction
alt ies
Ġbelong ing
Ġdoct rine
3 3
Ġre h
Ġsp ite
à¤ªà¤° à¤¨
ĠIs les
Ġachie vement
Ġexerc ises
Ġmunicip al
or ic
as aki
ol ars
Ġun anim
ĠCl oud
Ġ14 8
Ġprior ity
Ġpun ishment
Ġamph ib
al ia
Ġà¤ħ à¤Łà¤²
à¤ı à¤°
Ġà¤¨à¤¹ à¤°
ĠHend erson
Ġsubt ropical
Ġphenomen on
z ig
ĠBer g
ĠCons erv
Ġod d
Ġd ock
ra v
Ġà¤ĩ à¤Ł
ĠâĢ ²
Ġà¤ļ à¤°à¤®
Ġab st
Ġnort heastern
Ġcompris ing
Ġà¤¸ à¤¦à¤¨
à¤ī à¤ļ
Ġact ively
ring ton
ĠFl oyd
ĠMal ay
Ġhypothes is
Ġm arsh
Ġst aged
ri ages
Ġpres idency
Ġenv ironments
Ġjournal ists
ĠM ills
Ġperform ers
ĠFran ces
Ġdam aging
Ġsum mon
Ġmanag ing
Ġreve aling
Ġdimens ional
p x
ĠC N
Ġà¤µ à¤ľ
ĠP on
à¤ĩà¤¨ à¤°
Ġmil k
Ġdisp uted
Ġassass ination
ĠD j
ĠCh an
Ġun re
ĠV ic
à¤ĩà¤¸ à¤¨
Ġintrodu ce
Ġhon ors
Ġdeleg ates
t he
is ations
ĠH erman
Ġpay ment
Ġsail ors
ĠCraw ford
Ġsh aft
Ġfin ance
ĠRod rig
Ġm emb
ĠEll en
ĠUs ing
Ġpsych iat
Ġenl ar
Ġwitness ed
Ġà¤¹ à¤ķ
Ġcon fer
Ġph osph
Ġprevent ing
Ġarchae ological
Ġmyster ious
ou ch
Ġg ates
ĠSp rings
Ġdesc ript
Ġ184 8
Ġphilos opher
Ġswit ched
Ġres on
Ġshe et
ĠMar qu
ĠWh y
Ġvers us
Ġaw areness
Ġreluct ant
om ys
ĠM ull
Ġdirect ions
Ġsum mar
ĠKe pler
Ġsil ent
Ġproced ure
ĠCryst al
ĠCany on
Ù Ī
Ġst range
Ġan arch
ult ure
ĠAss ist
Ġdisp atched
Ġdiscuss ing
B rien
ĠPl at
à¤¶à¤ķ à¤¶
Ġvent ure
ĠLeices ter
ĠM ile
ĠGro ve
Ġi Tunes
Ġscient ist
Ġunsuccess fully
Ġdistingu ish
ĠEngine ering
Ã ª
Ġt asks
Ġp overty
im mer
Ġmet als
Ġarg ue
Ġbelong ed
ĠPalest ine
à °
Ġà¤ħ à¤·
ĠM obile
Ġg est
ĠF ur
Ġlength s
Ġcoach ing
f r
ĠTe legraph
ĠVer onica
Ġabsol ute
t z
ra ined
um ar
Ġcons ensus
Ġexpl oration
Ġcor ruption
ĠFilm s
ad ows
em a
Ġà¤Ĩ à¤ªà¤¨
ĠAl pha
Ġeight een
Ġce iling
ij ing
Ġfrig ate
à¤Ī à¤¯
Ġs aving
à¤® à¤®
id ge
ĠP unk
ĠF ischer
Ġlist ening
ĠTr ue
Ġimpro ving
ĠHead quarters
Ġexpect ations
Ġh oney
ĠH il
ĠP ine
ĠU B
ass ed
Ġexecut ives
Ġs ib
Ġp ump
à¤ª à¤¬
Ġv amp
ust y
Ġ21 0
st own
Ġl iv
Ġform ations
ec hes
ier ra
Ġcar ved
Ġintern ationally
h and
Ġà¤Ĩ à¤ĩ
ĠBe a
rew s
Ġload ed
Ã¨ re
ĠMas ters
ner y
Ġvar iant
ĠCult ure
Ġnat urally
9 0
ĠH ass
ĠP ly
Ġà¤Ĺ à¤°à¤®
Ġwh ales
à¤Ĩ à¤ķ
200 7
ĠF landers
Ġ27 0
Ġobject ives
Ġpriv ile
Ġphot os
Ġtrib ut
à §
Ġà¤ĺ à¤¡
Ġgu itars
ĠTr uman
Ġsymb ols
Ġsurpass ed
rehens ive
Ġm bar
Ġg auge
ut ter
Ġdig it
Ġrequire ment
p ur
am ation
ĠSe as
Ġship ped
Ġà¤ĳ à¤²
Ġmyst ery
ed ed
Ġle agues
Ġun rel
Ġele ph
Ġadv ocated
Ġtem ples
ĠDes ert
Ġsubmer ged
or ig
ĠS yl
Ġg ran
âĢ ¢
Ġrem ind
Ġacc us
ĠSc he
Ġabund ant
Ġb ars
Ġh az
Ġre op
og g
ĠWat son
Ġcub ic
Ġnerv ous
ĠDud ley
Ġchann els
ut ely
ĠDep uty
Ġoverwhel ming
ic us
ern ess
ĠEx ped
Ġaccept ance
Ġopin ions
Ġcruc ial
ĠMeth od
Ġst aying
em pl
Ġà¤ı à¤²à¤¬
ĠV lad
ĠT ucker
ist ocr
Ġmet all
Ġgen es
Ġassoci ate
l ia
Ġd ive
Ġh ier
ĠM ail
Ġse ar
ack ing
ang ered
ĠB ran
à¤¸à¤® à¤¯
ĠCol omb
ĠR aid
Ġad equ
Ġpart ners
ĠCom merc
ĠBe ijing
ĠMach ine
w affe
y ll
ug s
ĠNew man
Ġspec ulated
Ġhorse power
ĠProfess ional
l ass
Ġg am
ĠR ah
op ol
Ġch lor
ink s
Ġaut hentic
ĠGib son
Ġcompris ed
th lete
ĠE agle
Ġj aw
ĠAd ela
Ġblock ade
ĠMcC arthy
Ġà¤ª à¤Łà¤ķà¤¥
Ġgener a
Ġexpl ored
ĠGu adal
ĠBapt ist
er ia
Ġbu ff
Ġest ates
Ġcollect ing
Ġrefuge es
Ġhorizont al
à¤Ĺ à¤®à¤¨
un ar
av il
Ġstr ings
Ġcame o
el ia
ĠR if
Ġwh ale
Ġse eds
ĠTr inity
Ġsuff er
Ġcompos ers
ĠSur v
Ġfrag ments
Ġassess ment
Ġs ic
âĢ ĺ
ĠCl if
Ġ14 6
ĠApp ro
Ġnetwork s
in qu
Ġm ant
Ġass ets
Ġresemb le
M C
re ction
Ġo l
à¤ĵ à¤¸
Ġrep et
ĠAng le
head s
Ġdiss olved
Ġcompl aints
Ġconsequ ences
Ġimmig rants
ol ith
ov es
Ġread er
Ġaver aged
Ġundert ook
à¤Ĺ à¤¦à¤°
ĠM om
ĠM eyer
Ġà¤¬ à¤Ł
ĠH at
ĠG or
Ġrep ublic
Ġfact ion
su ing
Ġhabit ats
Ġperc ussion
Ġ11 2
Ġturb ines
al id
ĠA aron
ĠM ick
em ploy
Ġpost hum
ĠMon ster
Ġmanufact ured
Ġben ch
otyp es
Ġcomprom ise
Ġst air
ĠL uther
Ġan ts
Ġr ushed
Ġà¤Ł à¤¨
amp ed
ĠMetac ritic
w yn
Ġp ad
st ar
id en
ig o
ĠSh ar
Ġà¤ļà¤² à¤ķà¤°
Ġhom eless
R I
ic he
Ġà¤¬ à¤¯
ĠD h
Ġman ages
Ġunder water
ott o
ĠC ool
ĠW ant
Ġup s
Ġprin ting
ĠWell ington
Ġerupt ion
Ġles b
id ian
ĠE sp
Ġcoast line
Ġcontem por
Ġpsych ological
Ġbacter ia
Ġà¤ĺ à¤¨à¤¤
Ġsub d
Ġult imate
igg ins
Ġreconst ruct
ĠBerm uda
z o
ĠK em
Ġen suing
ik es
aur us
Ġgod dess
m other
Ġc ave
ot he
ĠH erm
us ive
ĠW rest
Ġrock et
Ġimpro v
ograp hed
Ġhonor ary
Ġinteract ions
iss a
ĠMar x
Ġem ig
Ġsign als
Ġsym ph
ĠTim ber
ĠUr ban
ĠLuft waffe
Ġà¤µ à¤²
im er
Ġsing ers
Ġ187 4
Ġlength y
c our
Ġrel ied
ĠSh an
Ġà¥¨ à¥¬
ĠShel ley
Ġst abil
ĠMon roe
Ġteacher s
Ġloyal ty
ĠP i
ov sky
Ġmill ions
Ġtrad em
ĠHen ri
à¤ĳ à¤¸
Ġlem urs
Ġfra ud
à¤¸ à¤ľ
Ġint act
Ġland ings
Ġbr ut
Ġliter ally
ĠWol ver
ĠRP G
Ġf ears
ĠR ight
th rough
ist ing
ew ard
aun a
Ġqual ities
Ġ13 4
eb e
ĠWood s
ĠOtt o
Ġreserv es
Ġunve iled
ĠM k
ĠM oney
ul u
ĠCh in
ĠAgu iler
Ġeld est
Ġd uck
ĠP ent
Ġdisapp oint
ĠSel ena
Ġdoct ors
u its
im ity
Ġra w
Ġamb assador
Ġess ay
Ġemot ions
à¤ ³
or us
st ad
Ġpl um
Ġcomp aring
Ġar istocr
Ġdef enses
Ġdel ight
Ġfles h
ĠAguiler a
ĠP ra
Ġam id
ĠNot able
ir i
Ġst roke
ĠCh oice
Ġant hem
Ġgross ed
ĠRena issance
Ġinter f
Ġ28 0
ĠCap ital
mon ton
Ġspect ators
ĠCab inet
Ġbattlecru isers
d am
ed ar
Ġeng aging
ĠHy d
Ġo wing
ĠW ool
ĠF ab
ĠL ore
ĠN A
Ġne u
Ġtw entieth
Ġdise ases
ĠEll is
ĠVar ious
Ġsongwrit ing
Ġbats man
ol o
Ġde alt
ich i
Ġcl ip
Ġwe ighed
Ġrel ating
ĠMax well
Ġintellig ent
Ġpound er
Ġà¤Ĺà¤ł à¤¬
ĠFem ale
Ġc ats
ĠSt age
Ġcost umes
lic ted
Ġenorm ous
Ġr ally
ĠFl ames
Ġlif ted
ĠLt d
Ġinsuff icient
f orce
à¤ı à¤Łà¤°
ke ley
Ġdecl aration
ĠAg ricult
Ġexplos ive
Ġquant ities
Ġmathem atics
ĠMV P
al ysis
ĠS I
Ġ12 00
ĠâĤ ¬
ĠPhill ips
ĠDak ota
ĠExped ition
ik h
Ġdiscuss ions
Ġgraph ic
Ġmist ake
Ġsynd rome
3 4
ĠH ond
Ġde als
Ġpolit ically
Ġà¥§à¥¯à¥ §à¥
Ġflu id
c ock
ĠG enesis
ĠN ak
ĠLe igh
ĠNe pt
Ġrev ived
Ġinstruct ed
Ġpatrol s
Ġincom ple
w ind
Ġen rolled
Ġtri ps
ĠFerdin and
n al
Ġh urricanes
Ġsu ited
enn e
Ġappe aled
Ġextra ordin
Ġte lev
Ġà¤Ĭ à¤·
ĠArt icle
Ġinstrument ation
Ġgall ery
ĠE U
od on
ĠHe aven
ĠNew port
Ġsub ordin
ĠSc reen
r ide
Ġt ensions
Ġà¤ī à¤ķ
Ġan x
Ġit em
Ġgener ate
Ġbit ter
ĠMov ement
ĠChand ler
ĠAbra ham
ĠAdela ide
Ð µ
Ġà¤ľ à¤¸
ĠM ol
ĠN L
Ġmiss ile
Ġslow er
ĠSoviet s
ĠH anc
ber y
Ġ13 6
Ġinvol ve
ĠGeoff rey
olog ically
ĠBut ler
Ġwood s
ĠKn ights
Ġvocal ist
Ġmush room
ut onium
ĠR iley
ul k
Ġterm ed
ĠCurt is
p ect
Ġover come
à¤ľà¤¨ à¤µà¤°
Ġspec ified
Ġcre ates
ĠSur rey
Ġchap ters
Ġrefere e
Ġt ab
Ġw ishes
à¤§ à¤ķà¤°
ĠL ie
Ġsh adow
Ġcl an
ĠThere fore
mit t
Ġwid ow
Ġmolec ules
Ġdiscip line
Ġinter ference
ĠSp encer
ĠBar rett
Ġcoun sel
ĠMet al
Ġinters ections
Ġalleg ations
Ġcurren cy
Ġreminisc ent
t age
ĠN av
os ity
Ġinc red
ĠMad rid
ĠCont in
Ġexhib ited
Ġmig ration
ĠPubl ishing
Ġà¤ į
in us
ĠW ald
Ġass ign
Ġtrans it
Ġimport ed
ĠVi ew
ĠEs sex
z i
ic ity
ĠP rison
ĠHe ath
Ġà¤ľà¤¨ à¤ªà¤¦
Ġcult ures
Ġ185 1
Ġb ol
ĠG az
à¤Ĩ à¤Ĺ
Ġsub sc
ops is
ĠComb at
ĠPly mouth
ĠB ot
ĠBl ake
Ġph yl
Ġmod est
Ġh unt
Ġà¤² à¤¹à¤°
ĠFran co
à¤Ĺà¤² à¤ª
ĠBur ger
Ġtact ical
ĠØ §
ĠGameSp ot
Ġh ung
le nd
Ġsh irt
ĠPol l
ĠRom ans
ĠRel ations
Ġdisl iked
Ġsacrif ice
ĠP ut
Ġsh ar
ath a
ĠSp it
Ġjoin s
ĠMarc us
f or
ĠT all
ĠC ome
ra ine
Ġcirc les
Ġproceed s
Ġf ir
Ġsp ores
Ġthick ness
ĠMot or
Ġathlet ic
p at
Ġthe rapy
Ġf rog
ĠB ri
ĠLe ad
Ġlocomot ive
Ġl ip
Ġexp ense
Ġ14 4
ĠBosn ia
Ġf inger
Ġm isc
ĠA viation
ur ers
od ied
ĠRes ident
Ġnickn amed
Ġnom ine
st and
Ġres ur
à¤¦à¤° à¤²
Ġregard less
Ġmach inery
ĠNob el
ĠContem porary
at hetic
Ġwas hed
Ġà¤¤ à¤ªà¤¸
ĠJ ur
ĠAd rian
Ġfight s
Ġà¤¸à¤®à¤Ŀ à¤¤
Ġcal iber
Ġà¥¨à¥¦à¥§à¥ ª
kin son
Ġri fle
ĠTw enty
ĠIndust rial
S ee
Ġt ong
ĠT ales
Ġhe ct
à¤Ĩ à¤¦
ĠArch itect
Ġm im
im ir
Ġcontin ent
ĠBar n
Ġsepar ately
ĠFer gus
ĠDaniel s
Ġfat al
Ġsuppor ter
ĠHanc ock
x ide
ĠB rew
à¤°à¤ķ à¤²
ĠRe ading
Ġpan els
Ġpron ounced
p es
Ġf are
Ġj oke
Ġinterview ed
Ġshop ping
ĠBrig adier
N S
n ut
ug u
Ġrep aired
à¤¦à¤¨ à¤¶
ĠFl ood
Ġcust ody
ĠJer emy
ĠFlore nce
Ġprox imity
R O
ĠS ib
Ġg aming
ĠN um
ĠK ub
Ġcomment ators
ĠElect ronic
ĠTas man
ĠSt ories
Ġdyn amic
h ow
id ay
Ġpop ulated
Ġtrans p
ĠGl ass
Ġrul ers
ĠBeng al
b us
p it
Ġre ef
à¤ľ à¤°à¤¤
Ġcur ves
ĠGar c
Ġbank rupt
Ġflu or
i ary
er ies
ĠS uz
ĠB uch
Ġbe er
art ed
20 12
ung le
Ġacqu ire
ĠVi enna
ĠBald win
Ġib n
m atic
re z
ur bs
à¥§à¥ «
ĠRoman ia
f ront
Ġs ect
as se
Ġh atch
ot illa
Ġà¤¸à¤® à¤Ĺ
Ġ13 9
Ġsuccess ive
Ġknow ing
Ġredes ign
ast on
cy cl
ĠHer gÃ©
à¤Ńà¤Ĺ à¤µ
Ġsym met
ĠAdmiral ty
ĠUs her
ĠArk ansas
w ig
oc ene
à¤Ĩ à¤ªà¤ķ
ĠLe ban
Ġ13 1
ĠNor se
Ġce ase
Ġfunction al
ĠSo ft
ĠJenn ifer
ĠPrest on
el i
ĠL af
Ġall ocated
Ġreg ist
ĠSh adow
ĠMan ning
ĠChar acter
Ġà¤ħà¤ĸ à¤¬
Ġa viation
ĠC ant
ĠB ent
Ġp uzz
Ġà¤¤ à¤ª
Ġcont ested
Ġunder go
elf th
Ġtop ic
Ġcyl inder
à¤µ à¤¯à¤¨
ĠJ G
Ġz ones
ĠMcD onald
Ġcyl ind
it ects
Ġd awn
ĠH ous
Ġdis gu
Ġdemonst rate
Ġmem ories
Ġflo ors
Ġgather ing
ĠBanks ia
ĠS uff
Ġun aware
Ġpubl ish
ash ing
Ġdem anding
P a
ĠM ake
ĠG rad
Ġeditor ial
Ġmaneu ver
ĠF M
ĠK es
ĠCh ase
Ġpre liminary
ĠNew found
ĠAd ri
Ġtour ism
Ġ185 8
Ġà¤ı à¤¡à¤®
Ġpro ud
Ġcompar able
ĠProt ection
Ġlic ensed
ĠT iger
Ġà¤ħ à¤¸à¤°
ĠO w
Ġinter rupted
ĠOr thodox
Ġphot ographer
ĠBow ie
Ġinstall ation
r ud
Ï ģ
ĠId ol
Ġgrav ity
ent ric
Ġal ly
ĠO st
Ġnorth western
ĠCap itol
ĠB og
Ġch ord
ĠMin ogue
ĠMcC ain
Ġscreen ing
Ġdiscontin ued
Ġg olf
ĠP all
Ġsc rapped
ĠAll music
Ġtrack ing
Ġb ills
Ġadv ances
Ġ185 9
ĠHawai ian
Ġelect ro
Ġdam ages
ĠPer th
Ġfar ms
Ġsport ing
ĠSkin ner
a it
Ġinst ruction
Ġmass acre
ĠSing le
U C
Û Į
Ġdec omp
ĠEd monton
gu ard
Ġdeploy ment
Ġcopy right
ĠObs erv
Ġninet eenth
ĠB ear
ist ence
ĠSp in
ĠSp onge
Ġcoll ision
n an
Ġp aved
Ġper pet
ĠPort s
ĠSen ior
Ġnecess arily
Ġsubs idi
Ġcooper ation
ĠNewfound land
ĠS ep
ur se
ach i
Ġcol oured
Ġfarm ing
ĠLanc aster
Ġadminister ed
Ġs ew
ĠW inc
Ġun rest
Ġbus y
Ġdisp utes
Ġamb itious
ĠMot ion
Ġhal ted
ir k
ace ous
Ġprot ecting
d an
Ġto ol
ĠC os
Ġn am
ĠSt ore
ĠSh ank
Ġmass es
Ġori ent
Ã £o
ol ves
Ġg amb
Ġg rain
ĠIn g
Ġbl ank
ĠGener ation
Ġopt ed
Ġseem ingly
Ġcrown ed
Ġneighbour ing
ĠGon z
Ġc hess
ĠC rom
Ġsub tle
Ġreg ained
Ġproject ed
m el
ri pp
Ġup rising
ĠMax im
Ġhar bor
Ġcitiz en
ĠCirc uit
Ġerr ors
w w
à¤ª à¤µ
ĠTur ks
Ġà¥¨à¥¦à¥¦à¥ Ń
Ġdescend ants
Ġunn amed
à¤· à¤¸
ĠF ras
Ġan ger
ĠCh op
Ġcont racted
Ġnum er
ram id
Ġcor ridor
Ġless ons
onn ell
isp here
ĠT ask
ĠJ en
Ġopen ly
ina e
Ġ26 0
Ġhon est
Ġbare ly
ĠBeaut iful
ĠO S
ĠÃ ģ
Ġdescend ed
Ġaccompl ish
Ġtot ally
Ġà¤ıà¤²à¤¬ à¤®
in ite
ĠC G
ĠH amb
ĠOn line
Ġplan es
Ġatmosp heric
Ġjump ing
à¤° à¤¬à¤²
ĠC ann
ĠH off
Ġà¤ı à¤£
Ġde eper
Ġj oy
Ġover h
Ġcapt ivity
Ġpriv ately
ĠBuddh ist
ĠL ogan
Ġà¤®à¤¹ à¤°
Ġqu it
Ġoutd oor
ĠProduct ions
Ġà¤Ĩ à¤°à¤ķ
ĠÂ µ
ĠSen ators
ĠDel hi
Ġl ux
Ġà¤² à¤²
ĠCarol ine
Ġvolcan o
on ing
ĠB ron
ros se
Ġgener als
Ġoper ator
Ġnorthwest ward
Ġà¤¨à¤ľ à¤¦
ĠJan et
Ġstead y
z ac
ĠS ierra
ĠB ott
ĠR oth
Ġroll er
Ġmut ual
Ġexcess ive
Ġt um
Ġcomp at
Ġrel ay
Ġdevelop er
Ġed it
less ly
ĠMy st
Ġlack s
Ġrecogn ize
ĠLou ise
achel or
m m
Ġe ject
ĠM ounted
ot us
ĠK ens
Ġra pper
Ġsub urb
Ġinv ented
Ġà¤¬à¤ľ à¤Ł
ĠAdvent ures
er vers
Ġb er
il ia
ĠA F
Ġcon ve
ĠCh all
Ġcre am
Ġà¤¸à¤¹ à¤¸
ĠMo z
Ġà¤Ĺ à¤¹à¤¨
Ġen able
Ġà¤Ĳ à¤¨
fic ial
Ġcoal ition
Ġdeleg ation
p y
Ġo ak
Ġd ors
Ġn ests
ĠR ams
Ġpres um
Ġdel ays
ĠPal mer
ĠNash ville
ĠG ust
ĠHar per
Ġ37 0
ĠGlob al
Ġsubst ance
Ġconj unction
ĠChair man
Ġre iss
ov ich
Ġcont ing
Ġam pl
Ġ15 2
ĠLyn ch
Ġaggreg ate
à¤« à¤¡
ĠCal vin
Ġintern et
à¤² à¤ĸ
Ġh ur
ĠA ur
Ġg ains
m ill
Ġà¤® à¤¥
Ġà¤ª à¤¬
Ġj okes
ĠSp y
Ġà¥¨à¥¦à¥¦à¥ ®
le w
Ġg reet
Ġres erved
Ġdecl aring
Ġfat alities
Ġb old
ĠP un
Ġrele vant
à¤ķ à¤ķ
ĠD id
Ġed ges
à¥§à¥ ¨
grad uate
Ġin ject
ĠAll Music
ĠTri p
ĠCommission er
ĠMaur ice
at em
Ġl ava
ĠN othing
Ġun employ
Ġmin im
Ġdiv ine
ĠEm ily
à¤¿ à¤ĥ
ad y
ĠY et
ĠPl aza
Ġpregn ancy
Ġteamm ates
Ġprohib ited
ĠDram a
ĠN umber
Ġsh ops
Ġcl ay
Ġà¤¡ à¤ļ
ĠAir borne
ĠArab ic
à¤¨ à¤µà¤¤
ĠS P
ĠAp art
Ġke en
200 8
Ġimm un
Ġstrugg ling
Ġà¤µ à¤§
ĠH ip
Ġst y
ĠBus ch
Ġout s
Ġback up
elf are
Ġsix ty
Ġà¤ħà¤µ à¤¯à¤µ
ĠPar achute
ĠPar amount
ĠGar field
Ġdisapp ear
ĠDam age
ĠDev on
Ġelimin ate
Ġkit chen
Ġà¤ķ à¤¥à¤¨
is ans
Ġun st
ĠHe at
ĠCon sequently
Ġstory lines
Ġhon ours
Ġcab in
Ġautom atically
ĠAI DS
Ġincomple te
N e
Ġ es
Ġp ine
qu al
ace ae
Ġreal izes
Ġtro phy
Ġpack age
Ġmic ro
nold s
ĠB ast
Ġfind ings
Ġcal m
Ġacqu isition
ĠS ed
ĠS old
Ġdraw s
Ġmerch ants
om es
ĠP rad
Ġà¤ħà¤µ à¤ķ
Ġflo ating
Ġd ug
Ġsec ular
ĠAr ctic
à¥§à¥ Ń
Ġiron cl
hol m
Ġphilos oph
y ers
Ġlay out
Ġload ing
ĠLar ge
Ġperfect ly
Ġca ution
Ġt ennis
he ro
Ġob l
Ġoper as
Ġsurf aces
ĠPan ama
Ġrevers ed
bird s
h urst
Ġa uction
ĠH oll
Ġso ap
Ġri ff
Ġattract ive
Ġadapt ations
Ġunus ually
ĠTun nel
I N
Ġà¤¸ à¤ªà¤¨
ĠCh ancellor
ĠRe form
Ġexper ts
ĠReg ard
Ġkeep s
Ġdemonst ration
ol ine
ay ette
ist ically
Ġly ric
ĠGriff in
O L
an an
Ġsp o
Ġfre ed
leg iate
Ġremark able
Ġstream s
ĠFinn ish
Ġru ins
Ġsket ch
Ġscen ario
Ġmemor able
r ators
ĠJ unction
ĠE SP
à¤Ľ à¤¡
Ġdec omm
Ġpr inc
let cher
Ġgr ants
ĠVal ent
Ġ184 5
Ġrid ic
ĠForm ula
ĠJac ques
Ġproceed ings
Ġmet ropolitan
Ġmod es
Ġà¥¨ à¥Ń
Ġunp op
roll ing
Ġsufficient ly
Ġfab ric
ĠP s
ĠR up
Ġch ances
Ġà¤ĸ à¤¬à¤°
Ġover d
hous es
p ost
Ġs hed
Ġh iding
Ġr ays
Ġimp ress
ĠCol lect
Ġer osion
ĠBo oth
ux ili
ĠG as
à¤Ľ à¤¨
Ġread s
ĠHol mes
Ġemphas ized
Ġped est
Ġc ere
ĠPh ant
ipp ing
Ġmotor way
Ġrestaur ants
ĠSponge B
R T
Ġà¤¶ à¤¤à¤ķ
ĠK ot
ov o
Ġ18 20
Ġmet ab
Ġprog ression
Ġcr ust
Ġput s
ĠDou g
Ġlif estyle
ĠMichel le
ĠStart ing
m ate
p ow
Ġ à¦
ĠC ec
à¤ł à¤¤
ĠWind sor
ĠArmen ia
Ġfil ter
Ġlob by
Ġapprec iated
ĠAdv ance
à ²
ĠD ian
Ġres ort
ib l
Ġdet ached
Ġincorpor ates
Ġalleged ly
Ġfest ivals
Ġmanif est
Ġass essed
uch i
Ġà¥¨ à¥§
ĠEd win
osp here
ĠDr um
I f
Ġà¤ķ à¤¦
Ġf ib
Ġp ist
ĠS N
iv ic
ĠSer bs
ĠTo o
Ġwor ried
ĠLind wall
Ġveter ans
Ġsupple ment
Ġc oc
Ġd iving
ĠS C
à¤£ à¤ķà¤Ł
Ġà¤Ĺ à¤µ
ĠF ac
Ġne arest
Ġ185 4
ĠAnt i
ĠStan ford
ĠLu is
Ġtun nels
Ġm es
ĠM am
Ġpl ed
ish i
ĠY ok
ĠBer keley
ĠSol omon
Å ¾
ro zen
Ġm uzzle
à¤¡ à¤ª
à¤°à¤£ à¤¤
ĠSup erman
ĠMond ay
ĠN ed
ist le
ĠSt alin
Ġbut t
ĠZ h
ĠGu atem
Ġnight s
bro ok
ĠS ue
ĠC ave
im ination
ĠL ut
Ġpl utonium
Ġover th
Ġthough ts
ĠKore ans
an ian
Ġà¤Ł à¤ķà¤°
ĠMar tha
Ġmon itor
ĠCl aire
Ġwar rant
Ġmod ifications
Ġple asure
ĠBor ough
Ġclimb ing
Î ¹
og ical
Ġcons ul
ĠSp iel
ĠStar r
Ġin ver
à¤¹ à¤ª
ĠK iss
Ġatt achment
Ġà¤¬à¤¹ à¤¸
Ġspe eches
Ġflag s
ĠIll ust
Ġautom atic
Ġe ase
ĠPr ice
Ġorgan s
ĠPres ley
Ġstri pped
Ġflood s
ĠGer ald
9 9
Ġf ox
ĠH ab
Ġà¤° à¤¦
ĠR andy
Ġinc ons
à¤¤à¤° à¤¦
ran o
Ġesc al
Ġsyn th
ĠLeg ion
à ´
à¤¥ à¤¤
Ġam endment
Ġqual ify
l ies
ol ades
ig u
us hes
Ġup grade
Ġà¥¨ à¥®
ĠEl s
off icial
ingu ished
Ġmob il
Ġcomfort able
3 2
a ude
Ġs el
Ġb onds
Ġh aul
ĠS r
ĠO ber
qu et
Ġar bit
Ġexha ust
is ch
ĠW ake
Ġcent res
ĠRec re
Ġintrodu cing
Ġmer ger
Ġrang ed
Ġpros ecut
Ġdiagn osed
ĠBroadcast ing
à¤¯ à¤Ĺ
ĠAugust us
Ġinvestig ated
Ġtend ed
p us
Ġn aked
Ġà¤² à¤µ
over ning
les i
ĠGu ards
Ġfle e
ĠFinal s
ĠPier ce
Ñ Ģ
Ġas c
Ġà¤ıà¤ķ à¤¡
Ġcons ent
Ġgener ations
Ġcounter att
Ġthr ust
Ġcamer as
ĠCub an
Ġs us
Ġmus cle
ĠJenn ings
pent er
Ġinhab ited
Ġs oci
Ġ12 1
ĠMan or
ĠBulgar ia
ĠGabri el
Ġnot ion
ĠWar wick
Ġline up
Ġspe aker
ĠIr ving
V A
ĠN ab
Ġv it
Ġsec uring
Ġ14 7
Ġconf ined
ĠHay es
Ġstrengthen ing
ĠRhodes ia
osy stem
ĠCommerc ial
F or
Ġre vel
ĠP age
ĠD oc
ran n
Ġmain tains
ĠÎ ¼
ĠSound track
ĠChap man
Ġcolle ges
Ġham let
Ġà¤¨ à¤°à¤¸
Ġst ance
ĠY u
Ġelect oral
ĠMir ror
n am
Ġp ushing
ra id
Ġart if
arch y
ĠBel le
Ġdoub les
à¤²à¤¹ à¤µ
oca ust
ĠD ere
ĠSw ord
ĠTurn pike
ĠHop kins
is le
à¤ª à¤Łà¤¨
ĠF C
Ġal ign
Ġà¤¥ à¤°
ap a
c ope
ĠTh ings
Ġsc hem
Ġarr ay
Ġinte gr
Ġfrag ment
Ġret rie
Ġmonth ly
o op
od ia
velop ed
Ġcare fully
ne um
Ġwater line
Ġâ ĺ
Ġdom ain
ĠSpongeB ob
à¤ĵ à¤²
oin ts
Ġbet ray
ĠMan ager
Ġgrand son
ĠGl enn
à¤Ĭ à¤¦
ĠSing h
ĠPre par
Ġemb arr
ĠBang l
ĠPr in
Ġgrad uating
ĠBer ry
Ġà¤®à¤¤ à¤Ń
Ġelder ly
Ġw itch
Ġpre val
ĠP irates
op ters
Ġà¤ĵ à¤¬
oph one
Ġens emble
ĠCr ime
ĠSub sequently
Ġlegit imate
Ġenthusi astic
ĠM ade
Ġà¤¨ à¤¨
Ġcomp uters
ount ain
Ġmon ks
Ġrequ ests
Ġbar rier
Ġsac red
Ġf usion
Ġsuccess es
Ġmeasure ments
ĠH ess
Ġsm art
Ġinf ected
ĠMc A
ĠEd gar
20 11
Ġsett ings
à¤ĳ à¤ķ
ĠDer by
Ġmir ror
Ġkn ock
Ġident ification
Ġcou rage
Ġcompens ation
ĠH M
Ġà¤°à¤ĸ à¤ķà¤°
Ġincorpor ate
ĠVen us
ĠS aints
ĠE aster
ĠK os
Ġ3 20
Ġfront ier
Ġesc apes
Ġsex ually
Ġdisp ers
Ġbrig ades
Ġentert aining
Ġe cl
ĠD y
ĠF letcher
and in
Ġex ceeded
Ġste pped
ĠSch w
Ġdark ness
Ġrook ie
ĠSpiel berg
A M
I D
Ġl aying
ĠM ember
Ġbe nd
ĠR ever
ĠL ay
pp ers
Ġinv itation
Ġele venth
Ġtop ics
Ġhon ored
osh i
Ġmist aken
ĠBas in
ĠReview s
ĠLaur a
on om
Ġre ly
Ġà¤¬ à¤ĸ
Ġdr ives
Ġread ily
Ġà¥§ à¥¦à¥
Ġhealth y
rif ied
ĠBrand on
Ġgenu ine
Ġ ump
Ġw ounds
orm al
Ġcar n
ĠSouth ampton
ĠTr uth
Ġsat ir
ĠKenn y
enh ower
ĠPrincip al
ĠSt op
ib al
Ġpress ed
ĠHam mer
ĠArt ist
Ġincor rect
Ġsoph istic
à¤² à¤¯à¤¨
ĠV ul
Ġprom ising
Ġmid night
Ġdefe ats
ĠTra vel
Ġdefin itely
Ġconsequ ently
ĠPatt on
ĠSeb ast
b age
Ġà¤Ĺ à¤ľ
ĠSt rat
ĠSp ect
Ġdest ination
Ġdra g
Ġ185 6
ĠSur vey
ĠBol ton
Ġmonarch y
n or
Ġmiss iles
umn i
Ġsumm ary
I T
ĠM ing
Ġ5 50
Ġpre view
Ġtr am
ĠLe ader
Ġass ume
Ġloc ate
Ġcompet itors
angu age
Ġreflect s
ĠNO K
g ov
an z
à¤® à¤Ī
Ġà¤ĩ à¤¶
Ġtra its
Ġthird s
à¤ķà¤Ł à¤¤à¤®
ĠArt illery
ĠGard ens
ĠIn formation
ĠV a
Ġret ros
ict ions
Ġsub stit
Ġass ignment
Ġdi ary
ĠHend rix
Ġmaneu vers
ĠR ugby
Ġslow ed
Ġpup ils
ĠG ren
Ġtra p
ĠFl ag
Ġexc iting
ĠTre asury
Ġcryst al
Ġspawn ed
ĠIntellig ence
Ġunpop ular
j ud
o ids
ĠS ite
ĠC rane
ĠP orter
ĠL ag
Ġins cription
Ġprof its
Ġconv inc
Ġemploy ee
à¤Ĳ à¤¤
Ġconclud es
ĠGo eb
Ġmoment um
Ġaccur acy
Ġstom ach
Ġre per
ĠA w
ĠM umb
Ġan at
Ġdem on
ĠLight ning
Ġnegoti ated
Ġà¤ħà¤¸à¤® à¤°
Ġcoff ee
Ġdisappoint ment
Ġ ãĤ
Ġà¤¹ à¤®à¤¨
os ely
Ġmag ical
Ġblack s
ĠRock y
Ġhero es
Ġinher it
Ġd orm
ou b
ĠR are
Ġcons umed
Ġhard ware
Ġdu et
Ġcontroll ing
ĠBangl ades
D T
à¤¨ à¤¶
el ic
ĠW as
ĠF an
ĠL akes
Ġqu e
ĠSh a
Ġdist ances
au er
Ġaff ecting
ĠEis enhower
Ġt ide
Ġsc ope
Ġac ids
Ġcap abilities
Ġnorth bound
Ġref it
Ġceleb rity
Ġcho osing
Ġdimens ions
nd um
ro ck
ĠS hen
ĠS MS
ĠC itiz
ĠB av
ĠP and
ĠW als
à¤¸à¤® à¤¸
Ġany where
ĠX V
ĠNeb r
u ates
Ġl ion
Ġl ined
im id
Ġtr il
Ġrepe at
ĠWars aw
ĠPow ers
ĠStef ani
ol ics
Ġfor ts
ĠF ear
ĠN y
ĠK ur
ne ath
Ġà¥« à¥¦
ĠArgent ine
Ġt ables
ar u
ent e
ĠL ear
Ġab d
Ġdec iding
ĠCar r
Ġant iqu
Ġphys ician
Ġcolon el
Ġvolunte er
Ġneighb oring
Ġdrain age
at ab
Ġp sy
Ġh in
ĠS ter
ĠS under
ir ate
Ġor al
Ġle ather
ĠAl most
ters hire
Ġpos ed
yl um
Ġtest imony
ãĥ ¼
ĠJeff rey
ĠLuc y
Ġproced ures
Ġc it
ĠH ig
ĠG one
Ġwould n
ons cious
ĠCast ro
Ġder iv
can al
Ġlimit ations
Ġevolution ary
Ġpredecess ors
ĠFergus on
ĠM unicip
Ġsp are
Ġj ail
ĠPl aces
Ġreal ize
Ġfre ight
ĠSus sex
Ġax is
Ġconfig uration
el est
ith m
ĠL av
ade qu
ĠBrit ney
Ġà¤ĳ à¤¡
Ġanal og
Ġà¥¨à¥¦à¥§à¥ ©
Ġstrugg les
Ġarc ade
d ict
ĠWill is
Ġspe akers
writ er
Ġpreced ed
ĠRI AA
at um
is or
ĠR S
ĠE ss
ĠSt yle
ĠFran z
ĠColumb us
ĠRey nolds
ĠK ann
Ġher ald
az on
Ġà¤ĩà¤¨ à¤¸
ĠRh ode
ĠUnivers e
ĠMort on
Ġaccord ance
j ar
ĠH utch
ĠF ant
Ġse iz
rim ination
Ġbes ie
Ġst all
ĠR ice
Ġr ush
Ġresp ected
Ġbre ad
ĠEu ro
vers ely
ĠPop ular
ĠVar iety
chang es
ĠMun ich
Ġenforce ment
ĠGuadal canal
Ġ ^
Ġun ited
Ġfe ver
Ġsub urban
Ġreg ret
Ġtre m
Ġtrib al
Ġfair y
Ġillust rations
Ġenh ance
k ed
Ġg overning
vi k
Ġent ries
Ġà¤ħà¤ª à¤®
be it
Ġprec ise
ĠAnn ie
Ġcho ices
Ġille g
Ġabsol utely
ĠH ast
Ġske leton
ĠE t
Ġpl astic
ĠCh i
Ġà¤Ľ à¤ª
Ġfemin ist
ĠS port
ĠD re
Ġ33 0
Ġsusp ect
Ġkick ed
Ġnob ility
bo at
Ġblow n
Ġadvoc ate
Ġabol ished
ĠLithuan ia
e le
o ft
Ġa ug
Ġpro ven
Ġcomp act
Ġbl og
ĠBey ond
ĠÅ ł
Å Ħ
Ġh ol
ĠB atter
Ġat oms
ĠN u
ess a
og le
Ġcont ents
Ġbur st
Ġbass ist
Ġendors ed
ĠWrest le
ĠNebr aska
Ġs ou
ir med
ĠG reeks
Ġ15 00
Ġwar riors
ĠRuss ians
Ġresemb les
Ġrect ang
ĠQuar ter
à¤¶ à¤¦
ĠP red
ĠD awn
ĠE ighth
Ġle ase
Ġteen age
Ġto ss
Ġte a
Ġunder neath
Ġden omin
Ġmunicip ality
cycl op
Ġnam ely
Ġdors al
ĠH anna
Ġà¤ĩ à¤ķà¤Ł
ip el
so on
Ġtw elfth
Ġpain ter
unc iation
ĠB alk
Ġunder lying
G S
Ġw ool
Ġcom merce
ĠK ath
à¤ħ à¤«
Ġund ers
Ġwant ing
ĠEug ene
H A
v ae
Ġw are
oc ese
Ġex port
oun ce
Ġeff iciency
Ġcompris es
Ġconqu ered
Ġextraordin ary
he y
ĠG ross
Ġro d
Ġsaf ely
Ġnick el
i ott
ot on
ĠP end
Ġà¤ĩ à¤µ
Ġv ow
Ġj am
Ġ12 2
Ġspecial ized
Ġren own
Ġnation ally
Ġlem ur
ĠLithuan ian
g ence
it ating
is bury
Ġre writ
ĠK om
Ġpr ayer
ĠBrit t
Ġmat urity
ble m
ĠHam mond
ĠRh ys
ij i
Ġthr iller
a que
Ġà¤¨ à¤¶
Ġsp here
ĠBoy d
Ġcong regation
Ġà¤ĸ à¤²
ĠCom ic
Ġà¥§à¥ §à¥
Ġsecret ly
ĠUlt imately
Ġkeyboard s
ĠSout heast
l ance
Ġsc ales
Ġext inction
ĠDou ble
Ġà¤° à¤®
ĠR af
ĠD ry
Ġfe es
Ġcou pled
ĠS au
ĠR ather
ĠK ang
ĠDist inguished
ĠCath olics
Ġimprison ment
ĠDere k
C l
Ġl ocked
Ġcomp rehensive
ĠBl ock
Ġext ant
Ġdiv ide
Ġ184 9
Ġfort ified
Ġsubstant ially
Ġrum ors
Ġtradem ark
l ides
ain ted
Ġà¤Ĩà¤Ī à¤Ł
ĠMet all
ĠUlt imate
Ġmathem atical
Ġinnov ative
ĠJ ag
if ier
Ġ6 50
Ġcust oms
Ġhang ing
ĠRoberts on
Ġjudg ment
Ġp ian
Ġà¤® à¤Ĺà¤°
ĠR esp
ber ger
Ġse ize
ab ling
Ġsol utions
ĠRoad s
à¤°à¤ļ à¤²à¤¨
Ġinvestig ations
ĠLo is
Ġnegoti ate
ĠB un
ĠI X
ĠH V
Ġper ception
Ġpoin ting
ĠTax onomy
Ġf art
Ġch ains
Ġj e
Ġspecial ist
ĠAssoci ated
ĠRem ix
Ġwel come
ĠEconom ic
Ġsubsidi ary
ĠM ine
ĠD art
ĠW oll
ĠW ander
ĠG av
Ġen acted
ĠSh ack
ĠCan ber
Ġtotal ed
Ġlim estone
Ġgen ius
Ġhosp itals
á ¹
or o
Ġm ouse
ĠA j
ĠB M
ĠG y
ĠK ay
Ġres olve
Ġsoc ieties
Ġgif ts
il is
ĠP ont
ĠW end
ĠAr ms
Ġrun way
ĠAnd rÃ©
Ġpat ch
Ġnational ist
Ġin ex
Ġin adequ
Ġal beit
ĠO C
te g
Ġret aining
Ġà¤ħà¤Ń à¤¯
Ġfac ts
Ġà¥§à¥¯ à¥¦à¥
Ġmillimet res
E F
Ġd ys
ĠT rain
ott a
na e
Ġdra gon
ĠEx am
ĠSw an
Ġconv iction
Ġeat en
5 7
Ġp ige
ĠBl aine
Ġfit ting
Ġthro at
al an
ĠS ah
ĠR Ã©
ie v
ĠAl c
Ġbar b
Ġlink ing
Ġwel com
in ely
ond e
Ġpres ervation
Ġgu ided
Ġà¤Ĩà¤¨ à¤¨
ĠQu inn
ĠOut side
Ġa thlete
Ġc ement
Ġà¤® à¤ļ
ĠSh ir
Ġvol unt
agon ists
Ġdece ased
ĠFerr ari
ĠFras er
ĠSunder land
in ate
Ġl ingu
ĠH ir
op l
Ġr am
Ġwork sh
Ġrel ax
ĠJo el
ĠMon ument
Ġsynthes is
ĠJoy ce
Ġf ake
à¤¸ à¤¤à¤¨
ĠL ac
Ġfact ions
ĠMy c
Ġoccup y
Ġcrowd s
Ġal ert
ĠV on
Ġrun ners
Ġreal m
Ġintrodu ces
Ġachie ving
Ġvac c
Ġmerch and
Ġmurd ers
ĠA zer
ĠR acing
Ġà¤ı à¤¬
ĠK aren
Ġdesign ers
Ġinf ant
Ġsouth bound
ĠRed s
ĠSal isbury
ĠCrit ic
ĠLess er
Ù Ĭ
ĠD iet
Ġper mit
Ġprot ective
ĠHol ocaust
ĠGame play
Ġbreak down
Ġthink s
Ġgar age
Ġdepend s
ĠScout ing
Ġs id
ĠS T
ĠK le
ish na
out ed
ĠSh awn
ĠFor bes
Ġtend ency
ĠWhit ney
ĠBright on
ĠESP N
o an
Ġw ww
Ġb out
ĠC oul
Ġst unt
Ġcont rary
Ġ13 2
Ġinf licted
ĠWill ie
ĠTor res
Ġhelic opters
Ġf ut
il ian
Ġhe ll
Ġ18 12
Ġexc ited
Ġsexual ity
ĠLind a
Ġroll ing
Ġintercept ed
Ġanth rop
Ġconfron ted
Ġp ocket
ĠA U
ac co
ĠL an
Ġpl acement
Ġte nder
Ġserv ants
Ġreal ised
Ġactiv ated
Ġavail ability
Ġ185 5
Ġrap e
ĠJenn a
ĠDomin ican
É ª
ot ted
ch ild
Ġsevent een
Ġfresh man
ĠAx is
Ġt t
Ġin quiry
ĠUn f
Ġam ino
Ġgu id
Ġeng ra
ĠAir craft
ĠNort on
ĠMod el
ĠArab ian
ĠTimber lake
à¤® à¤«
Ġm ere
ra h
Ġan k
ĠAr n
Ġmat ched
ĠAnd ers
Ġanch or
Ġà¤¹ à¤«
ad ic
Ġrel iable
Ġhigh lights
Ġmon uments
ĠScot ia
à¤¨ à¤¬à¤°
Ġn a
Ġà¤µ à¤ļà¤¨
ĠN em
ĠAn a
Ġmon sters
sp ring
Ġpros ecution
Ġà¤ľ à¤¤
Ġsc orer
aul ted
ĠBu enos
Ġexplicit ly
ĠPorts mouth
Ġdecomm issioned
m ons
or ters
Ġd ome
ĠA ven
Ġà¤Ĺ à¤¡
ov an
ĠCh al
Ġeffect iveness
Ġà¤Ĩà¤Ī à¤ª
Ġdraw ings
Ġpitch ing
Ġsubs id
I t
Ġo z
it ory
ys s
Ġgr ace
Ġcollect ive
Ġtempl ates
cliff e
ĠB le
av i
Ġr er
ĠâĢ ¢
Ġmet eor
Ġball ot
ĠLim ited
Ġrefere ndum
Ġbot an
r ina
ĠP itt
os al
Ġà¤īà¤ª à¤ķ
ĠDay ton
Ġscript s
ĠGal ile
Ġadm ired
ĠDyn asty
à¥ģ à¤ĥ
Ġsp ont
ĠSc andin
hy d
Ġadopt ion
Ġlesb ian
ĠMumb ai
ĠW ang
Ġam azing
Ġbas ement
Ġanal ys
agon al
Ġvari ants
Ġancest ors
ro ft
Ġal umin
ĠN ame
Ġà¤Ĩ à¤¯à¤¤
Ġreg ulation
Ġins ect
Ġ... .
Ġâ Ĩ
ĠM Ã¼
ant o
Ġperform er
ret ion
ĠIm m
ĠPeters burg
ĠA N
ĠI g
ĠD ata
Ġcare ers
ĠEll iott
Ġcitizens hip
uxili ary
on i
Ġw ors
Ġg ren
Ġend angered
ĠPhil os
Ġ184 7
Ġski ing
à¤Ł à¤ª
Ġsub urbs
Ġmot ivated
ĠTra ff
ĠDur ham
ĠNon etheless
ĠSic ily
es ters
Ġp p
ĠT ell
ĠC ock
ĠC ros
am o
ĠB irth
ct uary
Ġcl er
Ġvar ieties
Ġorgan isations
Ġcal endar
Ġsem if
ĠHum ph
ĠBes ides
ct ive
ĠN ME
art e
Ġsol ve
Ġhom age
oura ge
ĠBa iley
ĠEngine ers
ĠHug o
ĠStra it
or p
ĠG iven
Ġro de
Ġim per
Ġear s
Ġworld s
Ġstop ping
Ġdepart ments
ĠWeb ber
Ġcateg or
ĠOm aha
Ġst ip
Ġwh it
Ġunder m
ĠPl ate
Ġfail s
Ġconclud ing
iat us
ub a
ĠAust en
Ġbar racks
Ġattrib utes
Ġm ast
Ġd ign
Ġh ipp
à¤ļ à¤¸
ĠL odge
à¤ĩ à¤µà¤°
à¤¯à¤° à¤²
Ġdemocr acy
ĠCaes ar
ĠC yp
im an
Ġrece iver
Ġann oy
Ġvis uals
Ġter restrial
Ġfav oured
ĠBer k
à¤Łà¤° à¤«
Ġb inding
ĠC reat
ĠH ed
Ġseason al
Ġph ases
Ġcountry side
200 6
ĠDemocr at
eld a
Ġrecon cil
Ġf us
Ġb ishops
id ity
Ġcomm ended
Ġà¤īà¤ª à¤®à¤¹
ĠFran Ã§
Ġgoal keeper
ĠPri est
ĠHistor ian
ÅĤ aw
ĠMap le
Ġdin osaurs
ĠConc ord
Ġsatisf ied
Ġunh appy
b ul
Ġthe or
ar ity
ar med
ad oes
Ġst uck
ĠD oll
ĠK as
Ġple ase
Ġreflect ing
ĠGard ner
ĠMcM ah
Ġdescript ions
Ġ ç
er os
Ġb ure
ĠR uther
ĠL ope
art z
Ġgovern ed
ged y
ĠPal m
Ġ185 2
Ġdomin ance
Ġcorrespond ence
ĠPhilipp ine
Ġcolle ague
ĠSn ake
Ġacceler ated
ĠH ers
th rop
ĠG iant
so ver
ke ys
Ġmin eral
Ġmill imeter
à¥§à¥ ¯
Ġfort une
Ġisot opes
ĠAssist ant
4 6
ĠS my
ĠW ilm
Ġà¤¤ à¤²à¤µ
ĠJ ava
est ock
Ġex agger
Ġcl uster
à¤¶à¤¨ à¤°
Ġback d
ĠMac L
Ġwat ches
Ġche ap
ĠDist ribution
Ġinstall ment
ĠC ore
Ġval ued
ĠMore over
ĠBah amas
Ġpuzz les
k ar
ĠW u
à¤ľà¤¨ à¤¯
lu ence
Ġfre ely
Ġobs ervers
itte es
Ġtalk ed
Ġdiagn osis
ĠPruss ia
ĠDuc hess
Ġreh abil
ĠCanber ra
M ania
Ġn Ã©e
Ġ14 1
Ġcrit eria
Ġec osystem
ĠPear son
Ġcatal og
Ġborrow ed
j ord
n as
ĠD uck
ĠO g
ang a
ĠCon v
Ġfun k
ĠMon ica
Ġpers isted
Ġwood land
Ġimm une
ias m
Ġorb ital
Ġecc entric
à¤ª à¤¹
ĠB ened
Ġg rab
ĠP ix
ĠW ong
ĠG at
ĠE van
Ġmed ian
ĠSy rian
Ġaver aging
ĠAngel a
Ġincorpor ating
o j
Ġperform s
Ġmar itime
Ġshort ened
Ġactiv ist
ĠHall ow
is a
à¤¦ à¤Ń
Ġst rain
gg y
Ġgoal tend
Ð ½
al and
Ġl od
et e
ĠF ell
ch ard
Ġun ity
Ġsil ence
Ġsib lings
Ġc ord
st ead
ĠM ale
ĠR overs
ĠL ions
Ġdown ed
Ġpresent ing
Ġcle ver
Ġremark s
Ġspect rum
ĠEnvironment al
Ġjuven ile
ĠLope z
c at
st ock
ĠW ick
ĠNe g
Ġbusiness man
Ġfrust rated
Ġo st
Ġd rift
op al
ĠY ang
Ġtr act
Ġ184 6
Ġà¤ķà¤¡ à¤ª
Ġavo iding
Ġt ier
ĠD iana
Ġle aked
ene z
ĠÂ ²
bor o
Ġprec urs
Ġens ured
Ġexhib its
ĠVol ume
5 6
ĠA ires
Ġà¤Ĩ à¤¯à¤¨
ĠE agles
Ġed itors
Ġdet achment
Ġchart ing
Ġprim itive
Ġconduct or
Ġboard ing
cript ions
ĠHamb urg
u in
ĠF alk
ĠCl aud
Ã© l
Ġste al
ĠOpp en
i ya
x ter
er als
ar in
Ġd io
ou fl
om orph
à¤ī à¤¡
à¤¯à¤® à¤¨
Ġer up
Ġbus es
Ġmor ale
Ġintent ions
Ġorb its
ĠRecre ation
en ary
ĠS AS
Ġsound ed
aun ton
Ġbo om
ĠEngine er
k rit
Ġs aves
im o
ri et
ĠNew ark
Ġ185 3
ĠConc ert
ibl ical
ĠN an
Ġà¤ħà¤¨ à¤¨
ĠCom pton
omet ry
ĠÂ ·
Ġsuper hero
Ġdisagre ed
ĠTrad ition
ovak ia
Ġine ff
Ġ3 000
Ġste ering
Ġdeterm ination
ĠJess e
Ġpoison ing
ĠJosh ua
Ġtril ogy
b ane
c ies
ĠT ampa
ĠS ag
Ġal k
Ġal iens
ĠK arn
à¤°à¤ķ à¤°à¤£
ik er
ĠBe ast
Ġsl opes
Ġà¥¨à¥¦à¥¦à¥ ¬
gr im
ĠDi á»ĩ
Ġquant ity
N T
Ġa ster
Ġd ent
Ġper m
Ġtr ump
Ġacc ent
Ġexp elled
air d
Ġdevelop s
à¤®à¤ķ à¤¤
ĠAd ult
Ġimmig ration
Ġnucle us
b in
it ational
Ġb icy
ĠPl aying
Ġorgan ize
ĠAng lic
Ġlow ered
ĠMo h
Ġnortheast ward
Ġir re
Ġdoub led
Ġreun ited
ĠDiá»ĩ m
ĠE b
Ġbox es
ĠSav age
ĠHold en
Ġpromin ence
h orn
Ġg ym
ĠR ip
ĠL az
ĠN ig
Ġafter ward
Ġout lets
ail and
Ġac ute
Ġfound ations
ĠTr in
à¥§à¥ ¬
Ġà¥¨à¥¦à¥§à¥ ¬
Ġcinem at
Ġportr ays
Ġb ag
Ġp neum
ĠG and
ub les
à¤ħ à¤ľ
Ġlar vae
ĠNe ither
Ġrespons ibilities
Ġscreen ed
ĠCru z
Ġo t
at oes
Ġf et
Ġd ish
Ġà¤ħ à¤µà¤²
ĠE MI
Ġr ises
ast ical
ĠV as
ens ing
Ġreg ain
Ġbig ger
ĠTib et
z ens
ĠT ill
ĠL og
Ġpl ag
Ġà¤ĵ à¤ªà¤¨
Ġsmall est
ĠBut ter
ĠRh ine
Ġdrop s
ĠChap ter
Ġgal axy
ĠDest iny
Ġcontinu ously
ĠSug ar
ĠAntar ctic
ĠC ert
Ġle an
ĠAr med
Ġind ex
Ġdep ot
Ġà¤¬à¤¦à¤² à¤ķà¤°
Ġ183 2
Ġpersu ade
Ġexclud ed
Ġin ev
à¤ĩ à¤¬à¤°
Ġch ambers
à¤ħ à¤Ĺà¤¸
Ġret iring
ĠMc E
Ġeconom ics
Ġsymb olic
Ġadvent ures
ĠHann ah
Ø ¯
Ġin ability
ĠJ in
Ġà¤īà¤ª à¤¹
Ġà¥§ à¥¦à¥¦
Ġche er
Ġbow ler
Ġtransform ation
Ġshel ters
Ġoverh aul
l ay
it ative
al ine
ĠT ank
ol esc
Ġg ig
ĠD over
ĠD ale
ĠJ azz
Ġà¤Ĩ à¤ªà¤°
ĠTh ir
ĠInd ivid
ĠKing ston
Ġrespons es
ighth ouse
Ġdream s
Ġfrig ates
Ġtong ue
Ġt ailed
if ax
ĠLe ft
ĠSchool s
Ã¤ n
ĠAsh ley
Ġcon form
ĠIm medi
Ġjud ged
ĠWrit ers
Ġnarrow ly
ĠKnow les
Ġnit rogen
à¤Ĺ à¤°à¤£
ĠL or
Ġan onymous
oth s
ĠSh ore
Ġpeace ful
Ġbul let
Ġaccommod ation
ĠÂµ m
F ar
Ġ q
à¤² à¤¶
ic ia
ĠI vy
Ġà¤« à¤²à¤¨
Ġover time
Ġgrad uation
Ġsil k
Ġà¥¨à¥¦à¥§à¥ ¨
Ġkid ney
Ġmanuscript s
ĠBanglades h
c ience
am us
am ous
per ed
ĠAll an
Ġdet on
Ġaccept ing
Ġbreak through
200 9
Ġroof s
ĠAdri atic
4 9
ĠH ave
ĠBro ck
ĠAlexand ria
ĠXII I
ĠMedic ine
orig inal
R e
Ġt ales
ĠH ollow
ĠG aza
Ġde leted
Ġà¤ĸ à¤ľ
Ġpr ay
Ġà¤ĵ à¤¸
ĠSing er
ĠMov ing
Ġrow s
Ġenlar ged
à¤¨ à¤«
ĠB L
ĠF iction
Ġsh apes
à¤ī à¤ªà¤¨
ĠRet rieved
as ive
ĠL ich
Ġtra ils
Ġleg ally
Ġisol ation
ĠDod gers
w orld
ĠC IA
Ġab rupt
à¤ĺ à¤µ
ĠWrit ten
Ġlov es
Ġabol ition
ĠHeb rew
G A
el age
Ġv eto
vi Äĩ
Ġcommand s
Ġtechn ologies
ĠAst ron
ĠCost a
g ent
Ġ \
Ġb red
Ġh aun
à¤¹ à¤¯
ĠD um
Ġà¥¨ à¥¦à¥¦à¥¦
Ġcoun ted
ĠBet ty
Ġfinanc ially
Ġpoll ution
ĠBah rain
Ġreven ues
ĠCe leb
ĠSans krit
U P
Ġà¤ķ à¤·
ĠL il
qu in
Ġbr ass
ĠBird s
avil ion
Ġc av
ĠR ook
ĠF aith
ĠY ank
alf ord
ĠGu err
Ġà¤Ĩà¤ł à¤µ
Ġsovereign ty
c hester
Ġt et
Ġs aint
Ġhe s
à¤ļ à¤ķà¤°
Ġinter face
omet own
unk er
Ġfr ames
Ġlaunch ing
Ġexpress ing
ĠBrun s
Ġcentimet res
ĠC ran
ĠB j
ĠF ul
ik k
ĠPresident ial
Ġclear ing
Ġovers aw
Ġunw illing
g un
à¤¸ à¤¡
ĠS ul
ĠL omb
Ġshort age
ĠMin ne
Ġtourn aments
Ġsymp athetic
Ġreleg ated
Ġtelesc ope
Ġcontempor aries
ĠMcMah on
ĠT yp
ĠA way
art a
Ġbl ame
Ġconv oys
Ġactiv ists
Ġpri ests
ĠCap com
Ġenthus iasm
Ġwelcom ed
5 00
ĠD ana
ĠU ran
lud ed
Ġpre ference
Ġep id
rodu ction
ĠComp an
ĠIndian apolis
Ġà¥¨à¥¦à¥§à¥ «
Ġrecommend ations
Ġdeterior ated
f act
v ous
at ters
à¤¯ à¤µà¤°
Ġre app
ĠH od
ĠD ob
op us
und y
ĠCo ch
ĠUnder ground
ĠCr ash
ĠObs erver
Ġaccum ulated
ĠRuther ford
ic z
oy a
Ġdep r
Ġmanag ers
ĠDan ube
Ġdispl acement
Ġclim ax
Ġrecommend ation
Ġrejoin ed
Ġfier ce
Ġinfer ior
olith ic
Ġd ull
Ġdis k
Ġfr atern
ĠSerge ant
ĠNept une
Ġphyl ogen
ĠWrestle Mania
b rates
ĠD rew
Ġsh ocked
ĠJohn s
Ġprop eller
Ġsw all
Ġ184 4
oe uv
ir s
ĠK end
Ġsu ed
Ġper ipher
ĠTh ailand
à¤ī à¤ľ
ĠRe id
Ġpoll s
Ġworth y
ĠAv on
Ġtheore tical
Ġhe ating
ĠL ans
à¤Ń à¤°à¤¤
Ġcons erv
sh i
Ġphys ic
Ġgrand mother
ĠJul ia
Ġwonder ful
Ġs ab
Ġ12 3
Ġship ments
Ġmed ley
ĠHal ifax
ĠCra zy
ĠWinc hester
ĠH utton
ĠD ock
Ġmod ule
Ġà¤ıà¤¡ à¤µà¤°
Ġsupp ress
ĠPrim ary
Ġtelev ised
he res
at as
ent ry
ĠF ringe
Ġpl ug
ĠAfter wards
Ġsit com
Ġ184 1
Ġevac uate
g as
z el
at che
ĠP P
Ġacc idents
ĠBe au
Ġlaw yers
ki en
Ġsubject ed
Ġnar rator
Ġcat ches
an as
Ġd il
ĠG Ã¶
Ġbut ton
19 0
Ġimplement ation
ĠAR IA
Ġb eds
ĠS es
Ġl ibr
am y
Ġcont acts
ĠTh orn
ĠAr d
ĠLe vel
Ġsl ot
Ġfav ourable
Ġmeant ime
ĠDisc overy
ĠPruss ian
ĠB ever
id ad
Ġbe ings
ĠJ ak
ĠE S
Ġint rig
Ġconc lus
Ġinvestig ating
Ġhar vest
Ġcas em
Ġfeed back
Ġconfront ation
à¤ª à¤ı
ĠDec l
Ġplat oon
Ġri ot
Ġpurs uing
Ġcompar isons
Ġhapp ens
R L
Ï Ħ
ĠL C
à¤ĸ à¤¦
Ġrec apt
Ġman or
Ġreview ing
Ġmean while
Ġtax on
Ġalt ogether
ĠWhe eler
Ġw elfare
à¤¥ à¤¸
Ġv in
Ġsh ale
ĠU m
Ġ20 2
Ġsc ream
Ġtr ace
ting ham
ĠMah ar
ĠVis ual
Ġprol ong
Ġaffili ated
Ġsuperst ructure
h aus
i ability
Ġw ik
ĠG ould
ĠJ a
Ġde er
ĠK ol
pl ing
à¤Ĩ à¤ļ
ĠBar ber
Ġimag ination
ropol is
Ġencourag ing
ĠMiddles ex
c ip
Ġc ros
Ġg ills
ĠR ot
th al
ĠL ey
Ġret ro
Ġdef ault
Ġshow c
Ġrecre ational
Ġtherm al
ĠSebast ian
c aster
Ġc ott
ĠH aven
Ġtro ubl
ĠBrad ford
ĠStaff ord
Ġadm its
Ġwrest lers
Ġrenown ed
à ¨
Ġ é
Ġnew er
Ġimp ed
Ġaver ages
Ġh ometown
ĠC ai
Ġst ake
Ġhe ter
Ġcl ient
ath on
Ġexp enses
Ġgener ic
Ġdest ruct
Ġobs erve
Ġdram atically
ĠHaw k
Ġtend s
Ġmanufact urer
Ñ ģ
ou k
ĠP itch
à¤Ī à¤¨
oy le
Ġunder graduate
Ġorder ing
Ġpostp oned
d ish
et ics
Ġst ab
ib e
ĠAng els
Ġcapt ive
Ġdeg ener
ĠInter ior
Ġla uded
f old
Ġt ired
Ġc ater
ig uous
ĠK or
Ġref usal
Ġevery body
Ġtro ut
ĠNor wich
Ġspok es
ĠTraff ord
e a
Ġs ax
Ġc ig
à¤µ à¤µà¤°
à¤¦ à¤¦
Ġdecl ining
Ġkind s
ĠEven ing
ĠJess ica
ĠLiter ary
ĠLaf ayette
ĠT ina
ĠP ath
ĠO il
op old
Ġdis rupt
Ġview er
ĠDon na
Ġ183 7
Ġrebu ilding
Ġunn ecess
Ġencl osed
Ġl oses
ĠP ale
Ġà¤Ķ à¤¸à¤¤à¤¨
ĠV ince
ass ing
ĠWe ber
Ġter rible
Ġpure ly
Ġmonit oring
ĠC ly
Ġl unch
Ġà¤¨ à¤ķà¤²
ĠK un
Ġtr igg
à¤ĺ à¤Ł
Ġpar ade
Ġcerem onial
ĠFre eway
Ġsend s
Ġmoder ately
Ġà¤¸ à¤¦à¤°
Ġà¤° à¤¥
red ited
Ġad mission
ĠBy rd
ĠComm odore
Ġreason able
ĠPriv ate
Ġadvertis ement
Ġthunderstorm s
Ġtrigg ered
Ġd olph
ĠH appy
Ġà¤² à¤¤
ip ed
Ġà¤ľà¤² à¤ª
Ġsocial ist
ĠStew ie
ĠRoc hester
Ġhtt p
Ġguid ance
Ġf ins
à¤µ à¤°à¤ķ
ĠT ong
Ġst un
ĠV augh
ĠZ oo
à¥§à¥ ª
Ġà¤¢ à¤ķ
Ġplant ed
ĠGre ene
Ġ179 0
Ġdedic ation
Ġdisturb ed
Ġsupposed ly
ĠBruns wick
u ke
Ġw ages
Ġm ock
Ġn ost
ĠP ike
ĠN P
op y
Ġex empl
Ġinter rog
ĠMar cel
Ġinst ances
Ġdisc rimination
w oman
an or
il us
à¤Ł à¤Ĺ
ĠF i
ĠE rie
à¤ĩ à¤¡à¤°
iz able
Ġmar ble
Ġcur ric
Ġrectang ular
c omb
Ġw ond
Ġf ing
id an
ĠW ade
ov ed
Ġreg ards
ĠCo ach
Ġaccept able
Ġcivil ization
ĠDam asc
Ġcontroll er
Ġn as
Ġconcent rate
Ġtru cks
ĠHun ting
Ġdrown ed
b ai
c ul
Ġs ink
ĠF ra
Ġbo iler
Ġpow der
ĠGlou cester
ĠR ama
Ġsm oking
ĠBe ing
Ġtim ing
Ġnest ing
ĠN im
ĠJ ets
ĠTh urs
Ġform ats
Ġcap ability
Ġpass ages
ĠCorn ell
Ġn urse
ĠF olk
Ġse am
Ġfre estyle
ĠCanad iens
ĠRich ards
Ġ183 6
Ġsle e
oh l
ĠBas il
Ġneighborhood s
Ġindu ced
Ġportr aying
o qu
at ri
Ġf iles
Ġl or
Ġg ospel
Ġà¤² à¤ĸ
ĠR ank
Ġpro c
Ġà¤Ĳ à¤ķ
Ġpar ad
Ġ183 5
Ġmort ality
Ġpublisher s
Ġà¤¬ à¤¹à¤°
ag ara
à¤ī à¤°
Ġbu ying
Ġdisc l
ĠPart ial
Ġradio active
Ġ177 6
Ġlabel ed
ĠâĨ Ĵ
c or
Ġt iny
à¤· à¤ª
ov ny
Ġapp rent
à¤ħ à¤¶
Ġpe as
Ġconf isc
ĠGl ac
Ġdeg rad
Ġnation wide
ĠWy att
ĠBeh ind
ĠEpis ode
ar re
à¤® à¤¬
ĠV enez
Ġfl av
ĠShak ira
Ġexha usted
Ġà¤· à¤¡
ĠDuch ovny
ĠOppen heimer
Ġs ided
ĠSh aron
ĠStud ent
Ġboard s
200 5
ĠFore ver
Ġvirt ual
Ġic onic
Ġdemocr atic
ord ination
à¤ī à¤¸à¤®
Ġdef ine
Ġco aster
ĠBet ter
Ġaccount ing
Ġtorn adoes
Ġbats men
ĠThor pe
à¤¸ à¤¬à¤°
ĠM iy
pl ane
Ġà¤ľà¤¨ à¤¨
Ġsub mit
Ġoper ators
Ġaff ection
Ġviol ation
ĠS z
ur ated
ĠN iger
ĠE min
Ġà¤¥ à¤ķ
Ġprom ises
ĠGu est
ĠVir t
Ġviol in
ĠHem ing
Ġadequ ate
f ires
á Ģ
on er
à¤µ à¤Ĺ
Ġh ollow
ĠD ame
th ood
led on
Ġins urg
Ġstat ute
à¤ıà¤¸ à¤ı
Ġobject ed
Ġcommunic ate
ĠEy e
4 4
p op
u cc
Ġc ogn
Ġà¤¸ à¤Ĺ
ĠR i
Ġà¤Ķ à¤ªà¤¨
ĠJ oker
ry s
Ġdet ective
aster ly
ĠPer u
ĠVol unte
ĠEld er
Ġphilosoph ical
ĠF en
ĠL iv
Ġher b
ĠCo hen
Ġpat ent
iff s
Ġhard er
Ġut ter
ĠAC C
8 5
ic on
ĠG ret
ell es
Ġpartic le
Ġren t
ĠMet roid
Ġ183 9
Ġrecip ient
ĠYank ovic
à¤Ĺ à¤µà¤¤
ac a
em ics
Ġv ibr
ap or
Ġam ounted
unt a
Ġà¤īà¤ªà¤¨ à¤Ĺà¤°
Ġcomplex ity
Ġdemol ition
Ġdischar ge
ĠPrad esh
f ast
Ġd y
om i
ur u
id ium
ĠH ern
ĠF ow
oc ate
rib e
ĠMil ton
Ġceleb rations
ĠIraq i
idel ines
Ġtrig ger
Us age
Ġsophistic ated
à¤° à¤ł
ch ant
Ġch im
ĠMy ster
eal ous
à¤²à¤ļ à¤¸
Ġtort ure
ipel ago
ĠM Ã©
ec a
se nd
à¤Ĩ à¤¸
ĠAr ist
Ġent ity
Ġsl ip
Ġsk illed
ĠCle ment
gest ion
ĠLeban on
as ma
ĠW imb
âĢ Į
Ġinv ested
com mun
à¥« à¥¦
Ã³ w
ĠMig uel
in os
Ġà¤¸ à¤¶à¤¸
ĠC ret
Ġà¤¨ à¤Ĺ
Ġhel ium
Ġelect rons
Ġ23 5
Ġcr us
ĠLouis ville
Ġsand stone
Ġrub ber
c ling
ĠS it
Ġn erve
ad ar
ĠM GM
Ġà¤¨ à¤¤
Ġpur ple
Ġqual ification
Ġfarm land
Ġmanufact ure
Ġfilmm akers
ĠB Ã©
od ing
ĠEm b
Ġà¤Ĺà¤£ à¤¤
ĠDar ren
Ġbed room
Ġlad y
Ġaest hetic
ĠImmedi ately
ĠDamasc us
à¤¦ à¤°à¤¤
ĠM its
ĠH ank
Ġst ing
her d
Ġà¤¯ à¤¶
ĠHar bour
Ġox ide
Ġconsum er
Ġculmin ated
ĠSaf ety
al ore
ĠM ater
Ġund ef
Ġà¤¸à¤¹ à¤ķ
Ġtest ified
ĠSa udi
Ġcanc ellation
Ġancest or
ĠHast ings
r ill
ĠC ay
un ct
ĠE uras
Ġsh irts
ĠAr cher
che v
Ġbroadcast ing
ĠAnn ual
Ġinnoc ent
R E
g ae
at z
Ġà¤¨ à¤¬
Ġà¤¦ à¤¹
à¤ĩ à¤Ĺ
ĠV ocal
Ġgu ys
ator ies
Ġsk irm
ĠScient ific
ĠRup ert
Ġdio xide
is ure
ar ms
à¤¦ à¤¹
à¤Ł à¤ĩ
ĠP aper
Ġcl erk
ĠFl ash
Ġkey s
Ġdon ations
hold ers
ĠRhodes ian
ir us
ke e
ĠTe le
20 10
Ġdiv orced
Ġtack le
Ġconced ed
8 6
ĠS tern
Ġl ots
ĠH undred
ut ors
ĠG wen
ie u
Ġ18 15
ĠAl onso
Ġass ured
Ġunc onscious
ĠGeorg ian
ĠÎ ±
ĠJul iet
UC N
Ġpsy ched
Ġ ell
ĠP or
ĠG ael
Ġpe ers
Ġprem ise
ĠSystem s
Ġ74 7
Ġhorn s
ĠAzer bai
W R
ĠA ch
ĠB ess
ĠH ear
à¤§ à¤®
ass ium
ĠAs ide
Ġreg ener
ĠZ elda
Ġposs essions
oul t
Ġdissip ating
Ġing red
Ġconvinc ing
o que
Ġo re
Ġf og
ĠT omb
ĠN olan
Ġfl aw
Ġco ached
à¤ķ à¤Ĺ
ĠS iege
im son
Ġcl usters
Ġper imeter
ren cy
umber ing
ĠJam ie
ĠLex ington
Ġa ims
à¤ľ à¤Ń
Ġà¤° à¤ĺ
Ġvict orious
Ġ179 9
ĠTon ight
Ġcam oufl
Ġdesper ate
in tend
is en
Ġh alt
Ġà¤ĳ à¤µ
ĠTe en
Ġdecl are
ĠWild life
ĠDog gett
Ġru ined
Ġkilog rams
ĠChet nik
ĠHallow een
i ology
r ust
Ġs its
el ong
ĠL ak
ĠK Ã¶n
Ġoff spring
Ġdev ised
Ġbal let
ĠInit ial
Ġstrict ly
ĠFull er
h ist
y t
Ġo ath
ĠS elf
il ight
Ġl ith
Ġr h
Ġdis rupted
Ġà¤Īà¤¸ à¤µ
Ġred dish
ĠHispan ic
b red
ĠC lear
ĠM ered
ĠM echan
ĠI B
Ġhe ated
ĠW ess
Ġcl ause
Ġcorn ers
ĠStock holm
Ġd up
ĠTh irty
ely n
à¤Łà¤° à¤ª
Ġfl ies
Ġarch itects
ĠJul ie
Ġrend ition
Ġdimin ished
Ġd ining
ĠM iz
ĠL anka
op ing
uc lear
Ġinvest ors
Ġparallel s
Ġmort ar
Ġconvent ions
ĠBuck ingham
Ġliv estock
Ġaccus ations
ĠAppro x
ĠMinne apolis
em ia
ĠCh a
ĠAl ien
Ġà¤¬à¤¨ à¤ķà¤°
Ġdef ining
Ġdep ress
ĠAd olf
ĠNe igh
Ġstar ter
Ġvir al
Ġdefend er
Ġsle eping
ĠBris bane
R NA
en stein
Ġf u
à¤¸ à¤¶
Ġpres umed
Ġà¥ª à¥¦
ĠSpec ies
ĠMans field
Ġmos que
Ġc odes
ew ays
ĠK amp
ib les
ĠQ ual
Ġcor poration
à¥§à¥ ©
ĠGrand e
Ġprem ier
Ġtriang le
F S
ar c
Ġb a
Ġland sc
ĠMe et
rain ts
à¤Ĩà¤Ī à¤Ł
Ġop ener
ĠCub s
ĠLaure n
Ġabb ey
roscop ic
Ġinadequ ate
ĠMered ith
O W
l ide
s er
Ġth read
ĠI D
Ġmet ap
ĠWar riors
ĠCar penter
Ġcomb ine
Ġ183 8
Ġcompan ions
Ġmagn et
Ġremn ant
Ġuncertain ty
ĠWor cester
Ġplum age
atab ase
Ġh ate
Ġl ord
ĠI UCN
qu el
Ġeight eenth
Ġpay ments
ĠEy es
Ġorient ation
Ġ Ì
Ġg ly
ĠG em
ĠLe ip
ĠOr land
ĠMac D
Ġexcept ional
Ġcolon ists
ĠOrig ins
Ġrelie ve
Ġposthum ously
l ot
p g
ĠB ard
Ġman ned
ĠShe ar
Ġperson a
Ġche ek
ĠAut o
Ġcool er
Ġschem es
Ġbackd rop
l im
Ġs acked
ar ck
Ġbe aches
ĠG ore
Ġkn ight
empt ion
ĠNe ed
ĠÃ ħ
ĠØ§ ÙĦ
y on
ĠB S
ĠD ad
Ġcl ad
Ġman oeuv
à¤ĺ à¤ķ
Ġcoun ts
Ġthrow s
Ġcommemor ate
Ġbes ide
Ġdiff ers
O N
t ra
ã Ģ
à¤¸ à¤Ĺ
ĠC um
ĠK iel
Ġà¤°à¤¹ à¤ķà¤°
ven ge
ĠInd eed
Ġcharacter ised
Ġsl ope
Ġà¤¸à¤¤ à¤¤
ĠTechn ical
ĠPalest inian
ĠMethod ist
d al
Ġp s
Ġst alk
Ġà¤¶ à¤¸
Ġsp ans
Ġgu err
Ġà¤¸à¤° à¤²à¤¤
af e
Ġannoun cing
Ġprof ound
Ġarch bishop
Ġdiss atisf
Ġcook ing
g irl
un ion
à¤ı à¤¶
Ġun official
à¤Ĩ à¤µ
Ġrel at
ific ate
ĠBe atty
Ġref lection
Ġlim bs
ĠMor oc
Ġ184 2
h m
Ġt ear
Ġh iatus
ĠW ey
Ġmon soon
Ġcr ack
sequ ent
Ġaccept s
ĠKr ishna
Ã± a
Ġal tar
Ġà¤¸à¤® à¤¤à¤²
ces tershire
ĠLe opold
Ġph on
Ġang les
Ġunp re
ĠCart e
Ġclin ical
Ġpresum ably
ĠShack leton
9 6
ĠS pl
ad os
iv ided
ĠY ale
Ġext ract
ĠNorth umb
ĠOr k
20 14
Ġbroad er
Ġemb ed
Ġconcent rations
ĠC ul
ĠB end
Ġg rap
th ouse
Ġbre ach
à¤īà¤¨ à¤®
Ġfund ra
Ġpen alties
Ġ180 1
Ġdies el
ĠCher ry
r ors
ĠT act
Ġl oot
ĠF o
Ġsp arked
Ġres ource
ren ches
Ġmake up
ĠHer ze
ĠSup porting
ĠHam pton
ĠAnim ation
Ġfram ework
ĠWed nes
Ġt ears
ou x
ĠB ord
ul i
Ġsp ark
ĠTh anks
Ġ8 50
Ġam end
Ġinf ilt
ĠÂ ½
Ġà¤¬à¤ļ à¤¤
Ġà¤¨à¤Ĺà¤° à¤ª
ĠPat ric
Ġcollect ively
Ġsuggest ions
Ġpack ed
Ġinstruct or
Ġh ub
Ġ20 5
Ġà¤Ľ à¤²
ĠCol bert
Ġ184 3
fl ies
ogen ic
Ġsed iment
ĠSe ym
Ġele g
ĠPar ad
Ġel imination
Ġnon etheless
Ġz inc
Ġrail ways
Ġobserv ing
Ġecc lesi
ĠOrland o
Ġf als
ew s
ced ented
Ġbet a
ĠCl are
ĠCast ing
Ġgra vel
Ġportra its
Ġforg otten
ĠF ey
ul ent
ĠV ij
Ġdeb ated
load ed
ĠSub sequent
Ġwild life
ĠPers ians
Ġwrest ler
Ġlect ures
ĠKap oor
M P
en ge
Ġf illing
as ures
ĠS inc
ĠC risis
Ġl ords
Ġsp ear
ĠCh ambers
Ġcl oth
sh adow
Ġ46 0
Ġmechan isms
he tt
Ġw ears
it us
iv ier
Ġcon ning
our se
Ġen abling
ĠAn imal
ann i
ah o
by ter
à¤ķà¤Ł à¤¤
ĠHard ing
Ġoutf it
Ġshar ply
Ġnomine e
ĠSeym our
9 5
F R
it he
Ġf oul
à¤¹ à¤ľà¤¹
ĠSh ane
Ġadd itions
ĠDe xter
Ġhum our
Ġant agonist
Ġsen ator
ĠCorn er
ĠHoff man
ĠApprox imately
ion ed
ĠS ales
Ġà¤¬ à¤°à¤¸
Ġtr aced
à¤¤à¤¨ à¤¤
ĠGeor get
ĠBel arus
Ġkilomet re
ĠLyn n
ĠTel ugu
ĠComple te
Ġadvertis ements
ĠWes ley
ĠVenez uel
Ġp ard
Ġp ub
ag ne
ĠSp ot
Ġreal ism
ĠPerson a
Ġcurren ts
Ġfron tal
Ġunpre cedented
Î µ
Ġs au
Ġo mitted
Ġf right
Ġserv ant
ĠPre vious
Ġemer ge
ĠKn ox
Ġdig est
Ġri f
Ġcorrect ly
Ġspeak s
Ġfant astic
g ic
l led
ur ai
ĠJ ab
res cent
Ġart ic
Ġref using
Ġ48 0
ortun ately
Ġ182 9
ĠCoal ition
ĠWimb ledon
Ġà¤¹ à¤¸à¤¨
Ġto b
Ġcom eb
ĠBer gen
à¤®à¤¹ à¤²
Ġlisten ers
c os
Ġth umb
am ph
ĠD und
Ġrep orters
ĠVict ory
Ġrid ges
Ġpurch asing
Ġà¥¨à¥¦à¥§à¥ ®
ĠAlb ion
ĠWell es
ĠGet ty
ĠVik ing
h al
ĠT roy
ent in
Ġwhere by
ten ham
umb ent
ĠStud ents
ĠCard inal
Ġresemb lance
Ġinteg ration
Ġpup pet
ĠPant hers
Ġenzy me
ĠCinem a
iffer ent
ĠB ret
ĠO wn
op oly
ĠK re
Ġro uted
Ġrem aster
Ġrep rin
Ġland own
Ġcour ty
ĠJack ie
mar ine
Ġ183 1
Ġstret ched
Ġclimb ed
ĠPil ot
Ġguarant eed
Ġpromin ently
el man
Ġe ager
ol ving
Ġg ast
Ġà¤¦ à¤£
ĠD ors
Ġse ated
Ġle nd
Ġam p
Ġmus cles
Ġsouth ward
Ġevery day
Ġspir its
ĠHor ror
ĠWork ing
ĠSomet imes
Ġhect ares
ĠS eth
Ġbe friend
rit ies
Ġrec laim
Ġdisc o
Ġmay be
Ġ22 5
Ġstat ues
ĠBel grade
Ġbi ology
ĠWin ston
ĠOak land
ĠHok ies
Ġcomed ian
w y
ar am
st a
ĠD ol
Ġal arm
ial s
ĠCar roll
ĠKa hn
Ġpull ing
ĠSin atra
K O
S h
it ia
Ġl av
ĠH ack
ĠD ixon
ill on
Ġdo zens
ĠPh ot
Ġlab els
ĠNum erous
4 2
Ġp orn
ĠT win
Ġse aled
Ġsimilar ity
Ġdisapp ro
ĠLo ch
Ġspread ing
hr er
ĠAT P
ĠâĻ Ń
ĠKann ada
ĠHeming way
u j
Ġon set
us a
ch y
ul ator
ul atory
ĠG ive
ĠJ et
à¤¸à¤® à¤°
Ġge ographical
Ġelement ary
Ġteen ager
l air
Ġf a
Ġb ab
Ġp ac
ĠA chie
ĠK ids
Ġcomp osing
Ġ30 5
Ġmatch ing
Ġsoc cer
Ġste als
Ġdead line
Ġancest ry
Ġpione er
Ġguarant ee
ĠCec il
f a
r imin
ĠM oor
Ġst up
ĠJ ed
Ġassoci ates
ãĥ ³
ĠSurv iv
L L
i Ã³n
l ore
er get
ĠB il
Ġpro se
Ġwhe els
Ġinter im
Ġship yard
Ġà¥¨à¥¦à¥§à¥ Ń
Ġhot els
ĠVer de
Ġuniform s
Ġdevast ated
ĠiP h
cont inental
Ġregist ration
b led
m are
n ant
r aced
Ġs ne
Ġm ating
Ġsp y
ĠCl aude
ĠGu am
Ġbur den
Ġcat aly
ĠCamp us
ĠEle anor
Ġske let
Ġcounterp art
ĠWis den
Ġ. .
ch air
ok a
Ġover night
Ġà¤ĵ à¤ķ
Ġhost ing
Ġshoot s
ĠTrans it
Ġexped itions
ĠMcL aren
Ġpatron age
ĠDaw son
Ġconstitu ency
Ġf ond
ĠS ap
om o
ĠD iss
Ġex changed
Ġsp ore
Ġà¤ľà¤¨ à¤ķ
Ġpo ets
Ġpract iced
Ġtransport s
Ġcontem pl
Ġpun ct
Ġovert urn
m id
p a
an za
Ġm all
ĠC rist
ĠD ew
os er
Ġj ealous
Ġpost ing
Ġbroad ly
ĠQu int
Ġcha os
ĠAnglic an
d o
Î »
Ġp ant
ĠB ism
ĠW C
up s
Ġse ating
ab ul
ĠV ery
Ġsm ugg
à¤®à¤ķ à¤¥
Ġagre ements
ĠFer ry
Ġsuperv ision
Ġrein st
I P
à¤° à¤Ĺà¤¢
Ġrep ly
Ġbar n
Ġbar rel
Ġcollect or
Ġrecover ing
Ġcompl aint
ĠCommun ications
Ġgas oline
ĠBart on
Ġutil ized
Ġabund ance
Ġexclud ing
Ġsummon ed
à¤¨ à¤¸à¤¨
à¤¹ à¤£
ur red
ĠR ise
ph abet
Ġmill s
ĠBl oom
Ġoverl ap
Ġcra zy
e ur
k ward
Ġt rop
Ġde ity
Ġà¤§ à¤®à¤ķ
Ġinv ention
Ġsomet ime
Ġsw ift
Ġ38 0
Ġjoint ly
rell a
Ġà¤ĸà¤¤à¤° à¤¨
Ġreop ened
im i
ĠAm azing
ĠArab ia
ev o
Ġt renches
om ans
Ġg ases
act ions
Ġgener ating
Ġwest bound
ĠBatt les
ĠSm art
hib ition
Ġemb ry
ĠAnt illes
__ __
or um
ĠS ask
Ġr ud
ĠV ishn
erv es
Ġel ong
Ġcomb ining
Ġbill ed
ĠMong ol
Ġaf raid
on ely
Ġw ives
ĠM ath
ĠH its
ĠK ind
ĠK yl
Ġ18 19
Ġj ungle
Ġpr ide
Ġloc als
anc er
let te
Ġblock ing
Ġri ots
ĠByzant ines
Ġdreadn ought
ĠT ud
ĠA val
Ġbackground s
ĠHa iti
Ġinteg ral
Ġcounterp arts
Ġhtt ps
Ġmemb rane
Ġmetap hor
e ated
u er
as is
ĠR ut
Ġà¤Ń à¤¤
ĠL Ã¼
Ġdef icit
ĠBlack burn
Ġreact or
Ġreform ed
Ġanch ored
Ġsupern atural
Ġtouc hed
D OT
v ia
Ġb ush
à¤² à¤«
ĠB ronze
Ġfor get
ĠD ot
Ġà¤ªà¤° à¤µà¤°
Ġdis qual
ty m
Ġà¤Ŀ à¤°à¤¨
ĠGl ad
iction ary
Ġcru el
Ġflow ing
ĠFeder er
Ġquant um
Ġsymp ath
ĠUnd ert
ĠBened ict
ĠHerze gov
ess ing
rit z
Ġà¤« à¤¤
Ġassoci ations
Ġcreat ors
Ġaw kward
à¤Ĩà¤ľ à¤ķà¤²
ĠBi ography
ĠAra bs
Ġtroubl ed
el ius
ĠB oot
à¤¬ à¤Ł
Ġà¤Ń à¤°à¤¨
ip se
ph ae
Ġmin ers
Ġimp acted
Ġ14 2
ĠPl ains
ĠItal ians
och ond
imet ime
Ġauth ored
i op
m ass
Ġ ãĢ
he a
Ġs her
ĠK rak
Ġ18 14
ĠJo ey
Ġins criptions
ĠPr imetime
Ġsket ches
Ġcongress ional
Ġprest igious
f ork
Ê »
an ol
Ġp ipe
ĠB ren
Ġpr one
Ġfac ial
ĠWeb ster
f ax
ĠT ul
Ġà¤° à¤¬
Ġun beat
Ġ4 10
ĠZ imb
ĠZ agre
Ġtro ubles
atter ing
Ġbox ing
Ġurg ing
b one
Ġs izes
ĠS ara
ĠA V
ĠF ork
um er
ĠY osh
Ġwe ird
Ġà¤¸à¤¹ à¤¨
ĠÂ ±
Ġcor onation
Ġsound ing
Ġmater nal
ĠCong o
ĠBelie ve
Ġfart her
l ord
ig on
ĠW itch
ul ative
à¤Ń à¤²
Ġle v
Ġ20 6
ĠCh am
Ġacc ounted
Ġfun gi
isc al
Ã¡ r
Ġhard ly
ĠAtt ack
ĠReturn ing
Ġcros sover
Ġcomeb ack
Ġà¤Ń à¤¦
ĠE ly
ĠSt ark
Ġatt ain
Ġtr aces
Ġsy ll
Ġà¤Ĩà¤ľ à¤ķà¤²
ĠNot e
Ġdism ant
Ġsculpt ures
Å¡ e
ĠHein rich
m al
ĠH S
ĠG M
ĠN WA
à¤°à¤® à¤°
Ġdet ection
Ġopt ical
Ġopt ional
Ġmel odies
ĠSocial ist
ĠGaz ette
ĠValent ine
ĠZagre b
Ġà¤® à¤°à¤¨
ĠC edar
Ġl umin
Ġà¤¸à¤ķ à¤²
ĠCon rad
Ġhand ful
Ġperiod ic
ĠMan a
Ġprin ts
ĠPlan ning
9 7
¯ à¥¦
en ic
Ġf eder
Ġb inary
ĠD up
ĠF ine
Ġà¤Ĩ à¤¸à¤¨
ĠE lement
Ġsub f
Ġtra ff
à¦ ¾
Ġmountain ous
Ġlegend ary
Ġsurve ys
t ically
Ġ ×
Ġc ob
ĠH es
ĠN ep
Ġà¤ıà¤ķ à¤¦
Ġr ic
Ġspec ially
Ġinform s
Ġshoot er
Ġvac ant
Ġneut ron
Ġpy ramid
Ġterror ist
cour t
ĠArchitect ure
intend ent
k an
Ġb und
à¤² à¤¬à¤°
ĠJ ain
qu i
Ġcons ort
ters on
Ġeast bound
Ġfore ver
Ġtermin ated
Ġcalc ium
Ġbreat hing
Ġnut ri
ĠGuatem ala
ĠOrk ney
p ath
is ely
Ġp agan
ĠE man
à¤Ń à¤¨
Ġinc arn
Ġem issions
ĠDe al
Ġcampaign ed
Ġoccup ying
ĠSand y
Ġlat itude
Ġrenov ation
ĠGael ic
Ġg orge
ĠL GB
à¤Ĩ à¤¶
à¤ĺ à¤®
ĠAg re
Ġdiss ent
Ġaw a
lam m
Ġà¤ıà¤¡ à¤µ
ĠSher iff
Ġresemb ling
Ġreserv oir
ĠSpe aker
Ġconsolid ated
Ġunnecess ary
ĠS aff
ĠH og
ĠSt oke
ĠV eter
Ġcomp ose
Ġcons ec
200 4
ĠChief s
Ġseek s
Ġadvis ory
Ġsulf ur
à¤® à¤Ł
ĠT at
am oto
ĠN one
Ġch icken
ok en
ĠHe p
Ġiss uing
Ġlik es
ĠSol id
Ġmotor cy
ĠDor othy
Ġod ds
ĠAthlet ics
Ġlect ure
Ġdevast ating
ĠLegisl ative
ĠH ort
Ġpl ots
Ġrec alls
ah u
Ġdownload able
Ġremix es
Ġunst able
ĠM A
ĠM atch
ĠH ipp
ĠD im
ĠW emb
ĠU P
Ġrec all
Ġen erget
ĠY ar
Ġfact ories
ĠSy rac
Ġste aling
ĠArt ists
Ġheav en
Ġvir uses
ĠHy de
Ġconfron ts
ĠCros by
e als
p arts
v ara
à¤ħ à¤µ
Ġdesign ing
Ġdiffer ently
ape ake
Ġstar board
ĠKh rush
Ġ179 8
ĠVol t
Ġhall s
Ġnob les
ĠAbb as
Ġrecru iting
ĠTol kien
ĠTrin idad
j m
v ol
Ġb ord
ĠS ut
Ġhe ights
Ġà¤ī à¤§
à¤ī à¤ªà¤¯
aw ak
Ġtra gedy
ĠClass ical
ĠRos a
Ġspect acular
Ġstore y
Ġà¤®à¤ķ à¤¬à¤°
à¤ª à¤¸à¤®
ĠL ass
Ġà¤ĩ à¤ľà¤°
Ġsp erm
Ġres ume
Ġgu ilt
ĠAir ways
Ġrev ision
Ġbroadcast s
Ġ180 9
Ġprompt ly
ĠReview ers
ĠFel ix
Ġpap al
s ay
à¤° à¤Ĩà¤¨
Ġh ailed
ĠD uff
ĠL anguage
qu is
Ġad ul
Ġcons oles
Ġswe ep
ĠExpress way
ĠB f
Ġpl aque
Ġcomp ass
Ġsub pl
amb o
Ġball ads
Ġfaith ful
Ġbombard ed
ĠDian e
Ġerup ted
ĠiPh one
ĠB P
ĠB ag
im edia
ĠP om
Ġwh ites
Ġend emic
Ġdeb ts
Ġrock y
Ġemb assy
Ġdeliver ing
Ġobtain ing
Ġquad rup
ĠVoy ager
ĠGuerr ero
ĠEmin em
Ġc ure
Ġm aj
Ġl unar
us ions
ĠP od
Ġr ats
ater al
Ġkn ife
Ġins erted
Ġdivision al
Ġfirm ly
Ġrend ering
ĠComple x
ĠAndre a
Ġstrand ed
ĠAub urn
ĠKhrush chev
al us
ĠC it
Ġg ale
ĠH ew
ug ged
Ġà¤ķà¤¹ à¤ķà¤°
ĠCom ment
Ġpress ures
lo o
à¥§à¥¯à¥ ¯à¥
Ġabst ract
ĠDecl aration
ĠSinc lair
ĠWemb ley
Ġal umni
Ġab n
Ġexp ired
Ġcontin uation
Ġtrans mitted
ĠAm azon
Ġprof itable
Ġshould ers
Ġstri ker
Ġgrad ual
Ġc ite
Ġh ire
ĠR aven
à¤ĵ à¤¨
à¤ħ à¤µà¤¸
Ġwhen ever
ĠGo ogle
ĠRepresent ative
Ġrit uals
ĠAbd ul
ĠHerzegov ina
in as
Ġb io
el o
ĠH ook
Ġà¤ı à¤Ĺ
ĠG anes
if a
Ġnot orious
aw i
Ġpers istent
Ġey ew
Ġ179 4
ĠSyrac use
h ot
Ġw orm
Ġn u
ĠM ant
Ġst iff
av ier
Ġro pe
Ġdeterm ining
Ġmush rooms
Ġuncom mon
Ġmelod ic
Ġ ï
Ġre pt
ĠC ord
ĠM off
ĠB rom
ig ion
ĠR ide
ĠR ox
Ġal igned
Ġman ual
à¤ħ à¤Ĺ
Ġlo ans
ĠGi ro
ĠLi u
Ġconsult ant
Ġvin yl
ĠThurs day
ĠLGB T
b ands
ĠT rent
Ġà¤² à¤µà¤£
ra ged
Ġan ten
Ġle ased
ail able
Ġà¤īà¤ª à¤µ
Ġbro w
ĠWorld s
by e
Ġrefer enced
rag ue
Ġdisp ersed
Ġmel ting
Ġthir teenth
ĠMat ilda
agn etic
Ġdepict ions
Ġchrom os
Ġresid ences
Ġ `
Ġt ying
Ġf uck
ab we
ĠV iv
Ġcomp uls
ĠSouth west
ett i
ĠPer fect
Ġsurv ives
ĠMid way
ĠSix th
Ġaccur ately
ĠChes apeake
ĠH ale
ĠH imm
us k
ĠR um
ins ki
rick en
Ġenc irc
ĠMcC l
ĠWy oming
ĠEff ects
b ot
h tt
Ð ²
Ġd ances
ĠG ospel
ĠJ ill
ĠO DI
Ġcomp elling
à¤ŀ à¤¤
ĠPe ak
Ġ178 9
Ġment or
ĠFight ing
Ġfus elage
ĠLeip zig
5 5
6 6
Ġt ill
Ġt ens
Ġs urn
Ġb ust
ĠM W
ĠP D
ĠR ough
ris e
ern s
ĠAd van
Ġaut o
ograph ies
Ġexcept ions
vest on
ĠKr usty
ĠBritt any
Ġmerchand ise
r ice
ĠJ ourney
à¤µà¤¤ à¤®
Ġenv ision
Ġpath s
Ġ177 5
Ġkingdom s
Ġshif ts
Ġdanc er
Ġdisappoin ting
4 3
Ġt idal
Ġà¤¸ à¤¶à¤ķ
Ġl ac
ĠSt ructure
Ġcomm ittees
Ġ13 3
Ġà¤®à¤¨ à¤®
Ġmag ist
Ġgr at
ĠEx change
ĠBo hem
ĠCat al
Ġ182 4
ĠNat al
Ġemotion ally
Ġbesie ged
ĠH oney
Ġà¤¤ à¤ĸ
op ot
gh ai
ob e
ĠChrist ina
Ġrad i
Ġident ifying
Ġcal ib
ĠTrack s
Ġdepos ited
ĠVern on
ĠSes ame
Ġcurric ulum
Ġ è
Ġp amph
à¤§ à¤¶
Ġà¤Ń à¤°à¤ª
ace y
Ġdec oration
Ġ15 1
Ġpo etic
Ġhum orous
Ġdiscover ing
Ġhy phae
ĠWat ts
ĠVen et
ĠChem ical
Ġconting ent
ar is
Ġb ark
Ġre acted
ĠS ang
ĠB ates
Ġv ector
Ġfl att
Ġpop ul
Ġph arm
row ing
ĠMag gie
isher s
199 0
Ġconcur rency
ĠBed e
ĠRand olph
Ġcoinc ided
Ġtob acco
Ġa uxiliary
Ġs ap
an ch
ĠR ib
Ġal pha
ĠL ip
ĠL ars
ĠSh annon
Ġentire ty
ĠOtt omans
ĠTow ards
Ġvamp ire
ĠZimb abwe
ĠT uls
à¤ļ à¤²à¤¨
ĠG ilm
Ġà¤Ĩ à¤µà¤°
Ġà¤Ĩ à¤ĺ
Ġsp or
Ġsub mission
Ġexpl oring
Ġvis ibility
Ġcr ushed
Ġceleb rities
Ġpin ned
Ġbattlecru iser
ĠHutch inson
ĠWander ers
Ġt ides
Ġf itness
Ġp unt
ĠA ston
ĠW it
ĠJ MA
ens en
ram ent
ah an
Ġ21 5
ĠChar ac
Ġcirc ulated
Ġlo osely
Ġmem oirs
Ġtal ented
Ġdin osaur
Ġdiff ered
enh agen
Ġbankrupt cy
Ġw olf
is y
ĠS aid
ong s
ĠSt yles
Ġun ified
Ġinc on
ĠBl anc
Ġà¤ĵ à¤ª
Ġhalf way
Ġà¤¬à¤¤ à¤²
ĠGal veston
ĠAber de
ĠShan ghai
Ġgoaltend er
c ill
Ġw rapped
à¤ķ à¤¦
ĠP ain
ĠAn s
Ġmen u
Ġintens ification
Ġ179 3
ĠGood man
Ġbal anced
Ġdismiss al
Ġamphib ious
ĠGust av
ĠPhant om
oc o
ĠAl leg
ĠGe ography
ĠSch olars
Ġ180 5
Ġconstit uted
Ġfurn iture
Ã° r
Ġgamb ling
Ġank le
Ġprolong ed
in ished
ad ian
Ġsu cc
Ġprop ulsion
Ġsent ences
ien cing
ux e
Ġdial ect
Ġerupt ions
ĠTasman ia
Ġf ran
iv orous
ĠH ipper
Ġinc umbent
ph is
Ġshort s
Ġtre ason
Ġmob ility
ĠProv idence
Ġcryst all
Ġcryst als
Ġfru its
N G
Ġs a
Ġc age
ac ements
ĠM CC
ĠHe ights
à¤°à¤¶ à¤¸
ĠSl ayer
Ġrebu ild
occ up
Far lane
Ġunbeat en
u ce
ĠC hess
ĠO z
orm an
Ġ18 10
ĠEx eter
Ġinsp ection
Ġlab elled
Ġdiscuss es
Ġsat ire
ĠClark son
Ġham pered
Ġtrem end
8 7
g ren
st op
ĠB rett
Ġà¤¬ à¤¸à¤¨
ut a
Ġint ensive
Ġlong time
Ġprot ested
ĠWest on
Ġsol itary
ĠComp et
arch ive
Ġris ks
ĠSil ent
ĠTw ilight
Ġsn ake
Ġreprodu ction
Ġcant ata
ĠK ant
Ġsp rint
Ġint imid
iz ards
Ġen roll
Ġà¤µà¤° à¤¨
ath i
Ġrank ings
ĠBay ern
à¤Ĩà¤Ī à¤¸
Ġspl its
Ġ182 5
ĠBook er
Ġretreat ing
b en
an ic
Ġd w
Ġh ab
à¤¥ à¤¯
ob s
ĠWar rior
ĠPar ish
II I
ĠRail ways
ĠTre vor
Ġdress ing
ĠAnim als
ĠMagn us
ĠLook ing
Ġlux ury
ĠPitch fork
M L
n ar
à¤¤ à¤Ń
Ġb anner
ĠA us
ĠG ear
ast ically
Ġpre tend
ob il
Ġtra vers
Ġpred ator
ĠTor ch
Ġ179 2
ĠParliament ary
Ġwa ited
ĠJul ius
ĠBre ck
Ġut ility
Ġbelong s
ĠWeb b
ĠNik ol
Ġobst acles
ĠSomet hing
Ġecho ed
p ets
r one
en za
Ġc aut
an us
ĠR ican
ĠD ow
Ġv est
up e
ĠAugust ine
Ġvis itor
Ġfun nel
ĠPol icy
à¤¯à¤² à¤Ł
ĠFin anc
Ġec ology
ĠProg ress
Ġupd ate
Ġweigh ing
chw ader
pow der
ĠCharac ters
Ġt rench
Ġto y
Ġh ast
ĠF ast
ib an
à¤°à¤¸ à¤°
Ġinst ant
ĠCar son
vers ion
Ġprogram mes
ĠGl ory
ĠAnn ular
Ġhappen ing
Ġham mer
Ġrecru its
ĠBomb ay
Ġansw ered
Ġverte bra
ĠUk raine
k ov
Ġm ars
ĠM oss
ly wood
ĠN om
ĠE cc
ĠE gg
Ġsh rine
ast ed
Ġown s
ĠDavid son
à¥§ à¥¦
ĠCa uc
Ġliber ty
ĠSu ccess
ĠÏ Ģ
Ġartif acts
onom ous
l if
ĠL ik
Ġdeb ates
Ġsurf aced
Ġobject ions
ston ecraft
200 1
ĠMore no
Ġoutf low
Ġsoph om
Ġinfl ation
Ġreleg ation
Ġhaz ard
ĠWoll stonecraft
b ons
r atory
ĠV id
ĠY uc
Ġind ef
ĠPres byter
Ġlik ewise
ĠCzech osl
Ġexceed ing
Ġst ricken
ĠF av
ĠE g
ĠUS AF
Ġà¤īà¤¦ à¤¯à¤ª
Ġ183 3
ĠLeg al
Ġrob ust
ĠVishn u
ar ius
all i
Ġmin istry
Ġdist ress
ĠSl am
Ġdownload s
ĠMetall ica
Ġprecurs or
b ank
Ġp aired
ĠM az
Ġal ike
ĠSt reets
ast rous
und a
Ġdis par
ĠAmeric as
Ġconst ellation
Ġrepl ica
ĠMer cy
ĠEmp ress
Ġens ued
Ġattract ing
Ġreprodu ctive
H z
u um
ĠP Ã©
Ġst atic
à¤¼ à¤¿à¤Ĥ
ĠG entle
à¤Ī à¤ķ
rit e
Ġun av
Ġend e
Ġcontin ually
Ġmar ching
Ġfar mer
Ġspan ning
Ġgrant ing
Ġsett ling
ĠLad ies
ĠNaz is
Ġvalley s
Ġintention ally
Ġrecre ation
ĠObserv atory
Ġunemploy ment
ĠCret aceous
ĠAgre ement
Ð »
Ġm a
ĠS K
ĠS alford
ĠM ell
ut z
ĠN ES
ag her
Ġins ert
Ġstri ps
Ġrum ours
ĠBatter y
b ard
n ance
Ġp atern
Ġà¤µ à¤¶
ĠB ie
Ġà¤¦ à¤®à¤¨
à¤¡ à¤«
ĠW S
ĠG C
à¤Ĩ à¤®à¤¤
ib ald
ĠMar ian
Ġexper iencing
Ġexam ine
Ġà¤īà¤ł à¤¤
Ġmist akes
ĠCop enhagen
Ġmarg inal
n ie
Ġà¤ª à¤µà¤¨
ĠL ines
Ġà¤Ĩ à¤ĩà¤¸
Ġsu ite
Ġdec ent
ĠNorth umberland
Ġident ifies
ĠWil f
ĠSl ant
ĠNot tingham
Ġ182 1
Ġhero ic
ĠDream s
Ġfert il
Ġc rick
st age
Ġl ament
ard i
rit ion
Ġsc iences
ind a
Ġrem atch
Ġins cribed
ĠAd vis
Ġcare ful
Ġgun fire
Ġequ ality
Ġpat ches
ĠReg ular
ĠPer iod
ids hips
Ġsequ els
Ġmarket ed
Ġir rit
ĠDev ils
Ġharm ony
ĠTs ar
ĠWednes day
ĠUndert aker
e ason
Ã Ł
ĠT ip
ill ance
Ġdis astrous
Ġcar riage
Ġext ras
Ġgl am
Ġinform al
Ġisot ope
ĠFace book
Ġmoist ure
Ġeleph ant
D H
f inger
r ath
Ġt ang
Ġc aves
à¤¹ à¤¡
ĠT S
ĠS ource
im acy
ĠG ott
ge on
ĠSp ike
Ġà¤ªà¤¹à¤² à¤µ
ĠIm ag
ĠApp eals
Ġmor ality
ĠGal axy
ĠAndrew s
ĠEconom y
Ġreconstruct ed
Ġsubordin ate
Ġconve x
ĠChall enge
ĠAdvan ced
ĠYuc at
p se
ar an
à¤« à¤°à¤µà¤°
ran ger
à¤ħ à¤®à¤°
Ġwar rior
Ġrepl ay
Ġopp ose
ĠBar row
bor g
Ġfail ures
Ġ180 4
ĠTest ament
f ight
it ian
à¤² à¤Ŀ
ĠM ys
ĠP ret
Ġst ressed
Ġst ellar
ill ion
Ġor phan
ĠSt ro
ĠV ent
Ġtr im
erv ing
Ġstory t
ĠChar ter
Ġ179 5
Ġacad emy
Ġtot als
Ġcu is
Ġb og
ĠT able
ĠC B
Ġim min
Ġà¤ħà¤ª à¤¹à¤°à¤£
Ġequ ation
Ġlim iting
Ġmic roph
ĠLet ter
Ġenzy mes
ĠWinn ip
ĠPrin z
Ġa unt
ĠB ram
ign e
Ġdis in
Ġam idships
Ġtown ship
ĠRiver a
Ġord in
Ġden y
Ġens uring
à¤°à¤ĸ à¤ª
Ġthorough ly
ĠM is
ĠK w
Ġsp iders
ough ts
Ġorgan izing
Ġlight ning
Ġindic ation
Ġ34 0
Ġbow lers
Ġult ra
ĠMat hem
Ġrow ing
ĠKey s
Ġà¤Ĩà¤ļ à¤°à¤£
ĠAI F
ĠMonth ly
i ew
er ie
or row
am orph
ĠB uc
ĠB orne
ĠP ole
ĠL uz
est e
ĠE k
Ġpl aza
Ġind oor
ann ers
Ġbroad side
Ġren umbering
Ġ180 6
Ġà¥§à¥® à¥®
Ġassum ing
Ġaqu atic
ĠIb n
Ġm ates
Ġbe et
ĠJ ump
ag ar
Ġab ortion
Ġdown stream
Ġder ives
Ġmanufact urers
Ġapprec iation
Ġreun ion
Ġunrel ated
ĠCai ro
c ats
Å Ľ
Ñ Ĥ
Ø ¨
à ¯
Ġt u
Ġf rozen
ĠS ons
ĠR ag
and ra
up er
Ġ18 18
ĠCom merce
aj i
Ġimp acts
sp e
Ġide ology
Ġà¥¨à¥¦à¥¦à¥ «
Ġwebs ites
ĠId aho
Ġgrav itational
Ġcens orship
Ġcounteratt ack
w au
Ġb ast
et ed
Ġà¤° à¤ľà¤¤
Ġde ities
ran es
Ġprot esters
Ġcor rel
Ġà¤ļà¤² à¤ļ
ĠOff ensive
Ġheav iest
Ġsuspic ion
ĠIsab ella
Ġà¤ª à¤£
ĠD enn
ĠW er
ĠCh o
ĠTh ing
ins ky
ĠCl aren
Ġturn pike
à¤ıà¤¸ à¤¸
Ġspir al
Ġadvis ories
at ches
st idia
ĠC age
ĠC unning
ac ious
ĠB A
ĠK ee
Ġinc ap
ĠV amp
urn al
ĠWar ning
Ġinf ect
Ġdisc arded
gin a
ĠMad ras
Ġconstruct ing
Ġreign ing
ĠAltern ative
Ġprosper ity
ĠWinnip eg
Ġin herent
Ġd ed
Ġh oly
ĠS O
ĠP hel
ak ov
Ġsp ider
Ġar ches
Ġint imate
Ġinst antly
Ġexpl oded
Ġren ted
Ġfood s
Ġcoin age
Ġà¥¨à¥¦à¥¦à¥ §
Ġexcav ated
ĠKem p
Ġretrie ve
ĠGeorget own
Ġcourty ard
s m
ar f
Ġn atives
ĠV ari
ĠNo el
Ġball oon
Ġcoin ed
ĠMiddle ton
Ġescort ing
Ġtrust ees
ĠVlad imir
ĠAgricult ure
à µ
à¤¤ à¤¶
Ġw ag
ĠT orn
ĠT ues
ĠS uk
ĠA B
ĠW orth
ĠF resh
ĠL ance
ĠE instein
ĠK ell
ĠSe venth
Ġstrong hold
Ġteach ings
ĠTa ft
Ġcra fts
sk irts
ĠCov enant
Ġconcurrent ly
ĠFranÃ§ ois
i ago
Ġà¤ļ à¤®à¤¤
Ġsh oes
Ġcomm ence
Ġsl ide
Ġelect rom
ĠTown s
Ġmission aries
Ġtall est
Ġchore ography
Ġfir ms
à¤ķ à¤ľ
Ġc roc
Ġb ind
ag ements
Ġro lled
Ġret al
Ġrel ate
Ġind ie
Ġbas al
Ġoccur rence
aut s
Ġreject ion
Ġoverlook ing
Ġfacil itate
Ġinex per
v as
Ġh Pa
à¥ģ :
ĠThe od
ĠL ux
ĠN et
Ġà¤Ł à¤ķ
Ġra iding
Ġep onymous
Ġexp end
Ġà¤ıà¤µ à¤®
ĠHer oes
Ġcult ivated
oz o
ĠNic ole
Ġbot tle
Ġgran ite
ĠDart mouth
E P
at ile
ĠR az
Ġex otic
Ġun in
Ġra v
Ġ17 80
ĠCl ose
Ġinf lamm
Ġsl aughter
Ġhost ilities
ĠAg ent
ĠAc ross
Ġinters ecting
ĠLoc ke
Ġbrut al
p rin
Ġt uber
en b
Ġc ents
ĠM ih
ĠR otten
ĠW ords
ch ron
Ġwe aker
ĠRe bell
Ġam alg
Ġgovern ors
Ġmark ings
ĠPar agu
Ġgrad es
Ġmodel ed
ĠLam bert
g ency
ĠR as
if iers
Ġj umped
Ġout skirts
ific ent
Ġair play
ĠMon ten
ĠÃ ĸ
ĠWork ers
Ġsuperv isor
Ġsuperior ity
Ġmetall ic
ĠB aja
ĠL ing
Ġcl ips
ĠPl ain
ĠPl atinum
Ġcritic izing
Ġenjoy able
udd y
ĠComb ined
ĠFact ory
ĠLev ine
Ġrepet itive
k ill
m ail
Ġf iscal
ro up
Ġd itch
ip le
ĠV HS
ĠY ah
Ġà¤ĵ à¤²à¤®
Ġappe als
Ã¡ s
Ġpers ecution
Ġasp ir
Ġcinem atic
sole te
ĠDiv isions
ĠAlexand ra
ĠRO K
Ġmetab ol
Ġt in
Ġw er
al ley
Ġà¤¸ à¤Ĭà¤¦
ĠT ouch
ĠP ist
ĠG aming
ĠK et
ĠMar ion
Ġ29 0
Ġlik ened
Ġpract ition
Ġprob able
Ġquestion ing
ĠMaria h
Ġcylind rical
ĠPrepar ations
à¤¯ à¤ļ
à¤µ à¤ļà¤¨
ĠC F
ĠR C
ĠN g
à¤Ń à¤ª
ong o
ĠSt anton
Ġpol es
ĠGerman ic
Ġz oo
Ġaccess ion
ĠField s
Ġstrateg ies
k ind
at l
Ġp ose
ĠI st
ĠI TV
Ġà¤¦ à¤¸à¤µ
Ġà¤ªà¤¹ à¤¨à¤¨
Ġref urb
ĠX en
Ġcoll ided
Ġgra ves
ĠMem phis
Ġec ological
ĠMatthew s
ĠLeaf s
H C
p ro
ch us
Ġà¤ľà¤Ĺ à¤¦
Ġtemper ate
ĠMic key
Ġansw ers
Ġell ip
ĠM old
Ġà¤¶ à¤µ
pp e
Ġres isted
Ġup stream
ĠBro ken
ĠChrist ine
Ġill umin
ĠLen in
hard t
ĠB ols
Ġst ained
Ġpl asma
Ġun ions
à¤Ĩ à¤ĸ
à¤ĵ à¤°
à¤Łà¤° à¤Ł
Ġeng agements
Ġvis ually
19 80
Ġtechn ically
ĠBat ista
ĠInst r
Ġresemb led
ĠGib bs
Ġcock pit
ĠIllust rated
Ġintegr ity
Ġimmin ent
Ġw age
à¤ª à¤¹à¤°
ĠP emb
Ġle ak
ĠEn c
Ġver dict
Ġteam ed
Ġà¤ĳ à¤ª
ĠBar ack
umb led
Ġnovel ist
ĠPop M
Ġsurpris ing
Ġsac rific
ĠHab sburg
k ers
ĠS M
à¤¶ à¤²à¤¤
ik ing
its u
Ġinf lict
ĠNe gro
field s
Ġexc it
Ġburn t
Ġdispl aying
Ġsle nder
ĠRand all
Ġaudition ed
Ġjack et
Ġdestruct ive
b oys
c are
u ins
Ġp uzzle
ir able
Ġhe x
Ġdist ract
Ġfin anced
Ġins ight
ĠHar ald
ĠEurope ans
Ġ27 5
Ġappe aling
Ġbar ometric
Ġdiss olution
ĠMod ule
Ġtow ed
Ġmemorial s
ocol ate
ĠSoft ware
Ġp ond
il ib
Ġà¤¬ à¤ķà¤°
id able
Ġà¤° à¤¶
ri o
ĠU tt
Ġrep uls
Ġindivid ually
Ġpersonal ities
ĠEr in
ĠCas ino
ĠBrun o
Ġforb idden
ĠCornwall is
ĠHass ett
Ġpian ist
ĠBism arck
or ers
à¤² à¤²
le igh
Ġà¤ī à¤®à¤°
Ġal gor
ĠL oyal
ĠL akers
ĠN uclear
ist ani
Ġatt itudes
Ġamb ush
ĠSE C
ĠEmer gency
Ġdreadn oughts
Ġgreet ed
Ġineff ective
ĠFinanc ial
1 00
6 7
ĠF rost
à¤Ń à¤Ł
ĠIn form
ber n
ond heim
Ġà¤¸à¤ķ à¤¨
Ġcontrib utor
ĠMcC le
Ġsomew here
Ġemerg ence
Ġyield ed
Ġdigit ally
Ġpreval ent
a ic
ĠB reat
ĠN avig
ĠK au
ĠU g
ĠEurop a
Ġcor al
aun ch
Ġ183 4
ĠRev ival
Ġkidn apped
ĠBott om
H O
v als
Ġm ol
ad vant
Ġse ab
ab i
ĠRe bec
Ġback s
sh ine
ĠAm ster
ĠEl vis
Ġaff ects
ĠRock ets
ĠGreen land
Ġcong reg
ĠMort al
Ġinnov ation
Ġaffili ate
ĠClaren ce
à¤ķ à¤ļ
ĠP ond
th y
ĠL anding
à¤ĸ à¤®
ĠV ett
ress es
oin ing
Ġunder going
Ġgroup ed
ĠCal iph
Ġcult iv
ĠThom son
Ġpot assium
Ġviol ated
Ġtext ure
Ġbene ficial
ĠAlb ania
Ġmuseum s
ĠRa o
Ġsuperv ised
agu ar
ĠShep herd
ĠVerm ont
v ana
w ord
Ġp its
ro vers
ĠA ce
ĠR ac
ĠG amb
ĠK any
Ġout n
ĠLe h
Ġver b
Ġmus c
ĠEx c
Ġdomin ate
Ġsevent y
Ġexpress es
Ġintercept ion
Ġanth ology
Ġuncom fort
elest ial
Ġpeas ants
c over
Ġf ool
id as
ĠCh ak
à¤¤à¤° à¤ª
à¤°à¤µ à¤£
Ã© r
Ġtre asure
ĠMil wau
Ġsex es
ĠMart y
Ġunc overed
Ġtheat res
Ġdefend ant
Ġproblem atic
ĠLand mark
Ġcool ing
ĠWals h
ĠGlac ier
ĠHep burn
Ġà¤® à¤°à¤®
ĠI OC
Ġst alled
Ġmus k
Ġvill ains
gr at
ĠNH C
ĠRel igion
Ġnob ody
ĠRest oration
Ġprinc ess
Ġà¤ī à¤¬
Ġex iled
ĠSt am
à¤¤à¤° à¤ķ
ĠCol t
ĠPh on
ĠMur d
ĠPak istani
lyn n
Ġfrust ration
Ġmini ature
Ġoxid ation
Ġcamoufl age
p ole
w alk
ĠP os
Ġà¤ı à¤¥
th on
Ġad olesc
Ġdis hes
ĠCl imate
Ã¡ l
à¤Ĩà¤Ī à¤µ
ĠEv olution
Ġ179 7
Ġstra ined
Ġunf inished
Ġpsych ology
Ġcoordin ated
Ġtrunk line
Ġspokes man
ĠT z
ĠS earch
ĠH itch
ĠG ul
Ġat om
ĠE ston
ost ic
ĠV ed
Ġpre jud
Ġass erts
ax ies
Ġaut onomy
ĠEd g
ĠNe ville
Ġintens ify
ĠBu ild
Ġvirt ue
ĠBry ant
Ġmillimet ers
Ġe ch
ĠI M
Ġà¤ªà¤° à¤µ
ill as
Ġout post
ĠY uk
ĠOn o
Ġob solete
à¤ĩà¤¨ à¤¸
Ġgun nery
Ġposs ibilities
ĠMan it
Ġà¤Ŀ à¤²à¤ķ
Ġmother s
Ġdisp osal
Ġcommission er
bo ats
ester ly
Ġcomplic ations
Ġunexpected ly
Ġconsul ted
ĠCunning ham
ed o
Ġc um
Ġb oring
Ġh ij
ĠA G
ĠP resent
ĠCh amp
Ġad miral
Ġover c
Ġpost season
Ġfle eing
ĠOld ham
ĠCle m
ĠBon o
Ġn ave
iv ities
Ġsu ck
Ġcl ients
yl on
Ġlight ly
ĠGro ves
Ġà¥¨à¥¦à¥¦à¥ ª
gl ades
Ġà¥§à¥® à¥¯à¥
Ġcert ification
ĠBark er
ĠAberde en
d ays
Ġb ail
ĠC ust
à¤¡ à¤Ł
ul ance
ok i
Ġcent red
ĠSh arp
ĠGold man
Ġden ounced
Ġ182 8
Ġobsc ure
ĠShir ley
Ġenvision ed
ĠAmster dam
D C
E x
o os
ar ag
ĠT aunton
Ġl ig
Ġst ems
ast ing
Ġà¤§ à¤®à¤¨
Ġfl uct
Ġexp ecting
ĠZ ach
Ġ14 3
Ġsix teenth
à¤Łà¤² à¤°
ĠSup port
ĠRh y
Ġà¥§à¥® à¥«
ĠErn st
Ġculmin ating
Ġflex ible
bu ilding
Ġecclesi astical
ĠC ensus
ol in
ok u
Ġoff s
ep ers
Ġunder way
Ġà¤Ĩà¤µ à¤°à¤£
ĠWe in
omb at
app ropri
ĠMed ieval
Ġi OS
ĠFar mer
ĠMot ors
ĠCart man
ĠEver glades
Ġshif ting
ĠEvery thing
ĠÎ¼ m
Ġpsyched elic
Ġembed ded
l ining
on ne
Ġp iv
Ġre work
Ġl uc
ĠH BO
ĠP ione
ĠD ang
ĠSc outs
Ġdep ressed
Ġvi able
Ġve in
ĠRod gers
Ġplanet ary
ĠRel ief
Ġcart oons
ĠTun is
ĠStri ke
ĠExper iment
A s
Ġt ips
it ius
ĠC asc
ĠCon versely
ĠCol ony
Ġsusp ects
ĠProdu cer
Ġexplos ives
Ġs odium
ĠC L
ol ation
ĠP ill
ĠO kin
Ġinc ent
Ġback wards
Ġmon k
Ġprov oked
ger ald
ĠBr uss
ĠCongress ional
Ġdoub ts
anth rop
Ġmerc ury
ĠBols he
Ð º
le en
st en
Ġà¤ķà¤° à¤£
Ġar che
Ġfe as
Ġchar m
hes is
ĠPh ase
Ġjust ified
Ġcr ater
Ġ31 0
ĠBra un
ĠAcad emic
Ġattract ions
ĠGene va
Ġspar row
h arm
l und
È Ļ
à¤¤ à¤¦
Ġl ocks
Ġà¤¦ à¤«à¤¨
Ġdis organ
Ġpe er
ĠPl ans
yn t
onst ruction
Ġacqu iring
Ġdead ly
ĠWal ton
Ġtarget ing
Ġhun ter
ĠBosn ian
ĠLiter ature
ĠEls ewhere
b ath
Ġthe ology
à¤¸ à¤ªà¤°
Ġd rought
le af
ĠB rent
et ically
ĠH ert
ĠR ash
ĠK oh
Ġwhe at
any a
Ġmid st
Ġtw ist
anth a
Ġdeliber ate
ĠFitz gerald
ĠSalv ador
ĠNig el
Ġà¤® à¤¦à¤¨
ĠC yn
ĠB ax
Ġà¤° à¤«
Ġà¤² à¤¦
ist ice
Ġr all
Ġdis advant
Ġaddition ally
na i
Ġhum ili
ĠPe ggy
ĠNap les
Ġupgrad es
ĠGill ian
Ġparas ites
Ġsus cept
Ġfing ers
ĠAchie vement
Ġenerget ic
ĠRebec ca
4 1
U S
Ġc ivic
Ġm aid
Ġh ood
om al
ĠB elf
ĠB rest
à¤ı à¤ª
ĠE bert
ĠIn stitution
ile m
ĠSh oot
Ġconst raints
Ġpar ap
à¥¦à¥ ¨
bour g
ĠMarl borough
ĠHumph rey
ĠHimm ler
2 000
Ġ ul
ad h
à¤ĩ à¤¤à¤¨
Ġ18 16
Ġinter changes
Ġcons cience
fore st
Ġinf ra
Ġ180 3
ĠTri ang
Ġdemonst rations
ĠKey nes
Ġelimin ating
Ġrob ot
ĠSurviv or
tym ology
ĠMoff at
Ġw and
Ġh orm
ĠM ets
ĠP R
ag ogue
Ġchar itable
Ġobs erver
Ġsurround ings
Ġà¤¸à¤®à¤ķ à¤ķ
ĠDick inson
ĠTud or
9 8
ĠM ales
iv o
ass ment
ke f
ism atic
ĠHigh land
Ġà¤¨à¤µ à¤ľ
ĠGod win
Ġamb ition
Ġcust omer
ĠSant iago
Ġimpl ied
Ġanticip ation
Ġcontinu ity
ĠFern ando
ĠT aking
ĠS ounds
ĠM orm
ĠR ita
ĠK ip
Ġà¤¸à¤® à¤¤
Ġà¤§ à¤®
Ġmat rix
Ġmod ification
Ġgovernment al
Ġground ed
Ġà¥¨à¥¦à¥¦à¥ ©
ĠLoc ated
Ġagg ression
Ġpan ic
ĠLind say
ĠRome o
ĠNob le
Ġsurge on
haw k
Ġbure auc
b ral
b eck
ĠM oses
ĠD ru
pl ant
Ġj un
Ġup held
à¤ł à¤°
Ġsub du
Ġsight ed
ĠFil ip
Ġmit ochond
ĠShank ar
T o
c od
ĠH our
ag asy
Ġen act
Ġout line
ĠAn alysis
Ġà¤§ à¤ķ
ĠMar se
Ġcost ly
ĠSecond ary
Ġyour self
Ġcorrespond ent
Ġrot ating
ĠPhys ical
Ġdischar ged
ĠJohann es
Ġgram mar
6 5
ĠT il
à¤ª à¤°à¤ķ
Ġà¤ħ à¤ľà¤®
ĠM are
ĠL one
à¤ĩ à¤Ĺà¤°
Ġ18 17
Ġapp lying
ĠSh op
Ġnumber ing
Ġref use
Ġprot agonists
Ġconcept ion
ĠOl ivier
Ġpun ish
ĠDet ective
à¥§à¥¯à¥ ®
ĠJenn y
ĠHon ours
Ġspons or
Ġalter ations
Ġadvis or
Ġol ive
Ġdup lic
Ġb ite
Ġp ec
à¤µ à¤¨à¤ķ
ĠC ertain
ur us
ĠI gn
ra ul
ant i
Ġun changed
ĠIs h
ĠCan ning
ĠAct s
ĠSar awak
Ġplant ation
Ġcolumn ist
Ġprogress es
Ġexcav ations
acc ur
Ġreward ed
ĠMunicip al
Ġy e
ath am
Ġcapt ains
Ġdev otion
ĠWil kinson
ĠBra ves
que z
ĠNot re
Ġdefend ants
Ġmand atory
Ġredes igned
Ġtribut ary
ĠPresbyter ian
ĠBorne o
v re
in itely
Ġs op
à¤¸ à¤µà¤°
ĠS ale
à¤ľ à¤¯à¤¨
ir ie
Ġst aging
ĠO uter
ĠSe v
ob ic
Ġcat ast
ĠChap lin
ĠEver ett
ĠAmb assador
Ġfulf ill
ĠBruss els
Ġre nder
Ġà¤ľ à¤Ĺà¤¨
ĠE rik
ĠK ash
Ġcont amin
Ġfound ers
Ġanim ators
Ġage nda
Ġinterpret ations
Ġastron omers
Ġmamm al
Ġprofession als
Ġreper to
ĠMilwau kee
C ube
p m
à¥ Ĭ
Ġà¤® à¤¯
Ġd ried
Ġà¤ľ à¤ľ
ĠC umberland
ĠH uff
ĠW ord
ĠIn ch
Ġ20 3
Ġke eper
ĠHigh lands
Ġfact o
Ġarch ipelago
Ã¼ hrer
Ġtouch ing
Ġclim bs
ĠIran ian
ĠBrid g
ĠPopM atters
z an
à¥ĩ à¥ĩ
on al
nd on
Ġm g
Ġd rif
ĠM T
ĠThe me
ut ies
Ġà¤² à¤Łà¤ķ
ĠL ob
Ġsu its
Ġdis orders
Ġ6 10
ll a
ĠCl iff
ĠPro per
amb a
Ġsevent eenth
à¥§à¥¯à¥ Ń
ĠMalays ian
c s
p ers
Ġt iger
Ġin accur
ĠI F
ig ue
ĠP t
Ġà¤Ķà¤° à¤¤
ĠG ob
Ġpl ains
Ġà¤ĸ à¤ªà¤¤
Ġup t
Ġdec ree
ook s
ĠSh ock
ĠBet a
ĠAlb anian
Ġresist ant
ĠWild e
Ġvac ation
ĠEst ab
ĠChop ra
cyclop edia
t ail
v ie
Ġc ope
Ġb il
Ġm asters
ĠA AA
à¤Ł à¤°à¤¸
ĠR onnie
ĠK ab
ĠK umar
à¤Ĩ à¤īà¤Ł
Ġfe eds
ĠMar co
ans en
ob ox
Ġsome body
ink le
Ġsan ction
ĠPay ne
enz ie
Ġsophom ore
Ġ ä
at ro
Ġm our
Ġm ould
ir ling
un s
ĠW enger
Ġch ords
Ġsh y
Ġà¤ħà¤¸ à¤¹
Ġeight y
reg or
Ġredu ces
Ġcann ons
Ġlad der
it ivity
al is
Ġd irt
Ġd atabase
Ġl aser
Ġà¤Ĩ à¤Ł
Ġà¤¶ à¤ªà¤¥
Ġrel ates
Ġà¤Ľ à¤¨
Ġbu ck
ek s
Ġair ports
Ġhel met
ĠSav oy
Ġgal axies
Ġdiver ted
Ġinterven e
ĠHi ros
ĠRebell ion
f ielder
à ½
Ġc ites
il ated
Ġl ent
ĠR ings
ĠD as
art et
ĠSt re
ĠWh ig
Ġmin erals
ps il
Ġstation ary
Ġmer it
Ġwall ed
Ġcou ples
ici ary
ĠMaj esty
ĠClif ton
Ġhab its
r ar
r ÃŃ
à¤¨ à¤¹à¤°
Ġc ree
ĠN W
ber ht
Ġne o
Ġsing ular
Ġem ission
ĠAm bro
ĠMin aj
ij a
ĠFre eman
Ġmunicip alities
Ġninet een
Ġphenomen a
Ġow ed
Ġrehears al
Ġprest ige
ĠCrom well
ĠAzerbai jan
B L
ĠB iden
Ġà¤² à¤ļ
ĠL ana
ĠJ ut
ew ood
ov al
pt ical
Ġab bre
Ġà¤§ à¤¡
omet er
ĠAb yss
Ġprec ision
ĠAh mad
Ġrede velopment
ĠBeaut y
Ġtom bs
ĠParalymp ics
st aff
Ġ5 000
enn es
ĠAll ison
ĠDav en
Ġcor pse
raw l
ĠSol o
ĠTim othy
Ġcatch ing
ĠWhe el
Ġsymp athy
Ġobvious ly
Ġsupple mented
ĠNass er
ĠContin uing
Ġmim ic
Ġironcl ad
ĠRegard ing
Ġbicy cle
b uck
Ġd uel
ĠU mb
iz arre
Ġ16 1
Ġwid ened
ĠQu ick
Ġscript ed
Ġpick s
Ġru in
Ġbreat h
ĠiP ad
Ġscr ut
ĠLegisl ature
Ġhomosexual ity
Ġh aven
ĠT osh
ĠS F
st ones
Ġl ighthouse
à¤¬ à¤Ĺ
Ġcon grat
Ġtr unc
Ġwar ming
Ġpar an
Ġstory board
Ġstat istical
ĠSal am
pris es
Ġmind ed
ĠLet ters
Ġflo at
i u
he ed
à¤¨ à¤®à¤¨
es is
ic ious
Ġà¤Ķ à¤ľ
ag ram
Ġcom edic
ish a
Ġà¤®à¤¹ à¤®
Ġfin ed
Ġgu idelines
Ġrest ing
Ġà¤ĭ à¤Ĺ
ĠCamb odia
Ġfix ture
Ġcriminal s
Ġdisagre ement
Ġbapt ism
Ġthe rap
at aka
or an
ĠM itch
ĠI rene
ĠE cho
ĠK art
ĠMcC oy
Ġble w
Ġconsult ing
ĠLion el
ĠFow ler
p end
Ġin und
ut nant
ĠW hed
Ġà¤°à¤¹ à¤®
Ġme g
ĠRe leased
Ġlast s
Ġdam s
Ġbas ically
ĠSch u
Ġneg atively
ĠCour se
Ġceleb rating
ĠGo ing
Ġlog ic
Ġhun ted
ez vous
ĠDest roy
ĠClay ton
ĠEC W
ĠDors et
H P
u ana
Ġl uck
ĠL Ã©
lect ric
ody n
ĠGr im
Ġhit ter
ĠMal agasy
Ġmission ary
Ġalleg iance
Ġsear ched
ĠColomb ia
Ġredesign ated
Ġexagger ated
ĠMacD onald
8 1
Ġn mi
à¤· à¤¯à¤ķ
ĠN G
Ġcl ade
Ġdes k
ĠY o
ĠAr row
ik ini
Ġdem ise
ĠRec ent
Ġcy t
Ġtechn ological
Ġstrike outs
Ġsatisf ying
Ġpron unciation
Ġglac iers
Ġrehabil itation
à¤® à¤ļà¤°
ĠB enson
ĠDe e
Ġmax im
ĠHel ena
Ġkick off
Ġtrend s
ĠSud an
ĠCase y
ĠRever end
Ġm aiden
Ġh airs
Ġre int
Ġà¤Ń à¤£
Ġdem ons
ĠGeor ges
ĠHer c
Ġemploy er
Ġrelig ions
ih an
Ġspect ral
ĠCoast al
Ġenf orced
Ġprol ific
Ġbutter fly
Ġinherit ance
e i
Ġ à¥į
ĠT ry
ĠB elt
Ġg low
Ġst ir
ĠL if
Ġ16 00
ek a
ĠÃ ĵ
Ġhy mn
het amine
ĠTown send
Ġfolk lore
Ġoblig ed
l og
r ade
ĠS ally
Ġe man
Ġg ill
ĠH ole
Ġhe aling
Ġwh olly
ĠY es
Ġsup reme
Ġso ils
ĠZ ack
Ġà¤Ĩà¤ķ à¤²à¤¨
Ġ64 0
Ġge ographic
ĠSand ers
ĠBuff y
ĠSaff ir
om ac
Ġn an
Ġst re
ĠK ombat
Ġsp r
Ġsp ells
ĠV il
ĠCom ing
Ġcar b
ĠCar m
ox ide
Ġinvest ments
ĠCr iminal
ĠGra ves
Ġhun ters
Ġundert ake
ĠEuras ian
t ures
Ġthe sis
ar ios
ĠT H
el ly
Ġg lee
od ont
ant is
ĠK i
ond a
pl us
Ġlater al
Ġrel inqu
ĠAle c
ĠOff ic
ĠTer ror
Ġsen ators
ĠWrit er
Ġwel ding
Ġexplo it
ĠEug en
Ġretros pective
Ġtremend ous
ĠC rew
à¤Ł à¤¡
ĠP oul
ĠU se
ia e
ĠGro ening
Ġdepart ing
200 3
Ġang ular
Ġpal m
Ġtal ents
ĠExt ra
ĠMaur itius
Ġsurve illance
ĠTitan ic
ĠVick ers
ĠWolver ines
Ġcasem ates
Ġuncomfort able
g ra
z t
ĠA e
Ġg onna
Ġà¤ı à¤¹à¤¸
ist on
Ġun se
ĠV ander
Ġout rage
à¤ħ à¤¦
Ġcar c
Ġins ign
Ġcampaign ing
Ġtreat ments
Ġphot ographed
Ġconclud e
ĠHung arians
Ġbank ing
Ġcompens ate
Ġeval uation
ĠNad u
ĠWilm ington
ĠCly de
Ġreperto ire
à¤Ĺ à¤ªà¤¤
Ġn ude
ĠG P
Ġint r
ang o
Ġret ains
ĠCon an
ĠBro oke
uff ed
Ġmind s
Ġess ays
Ġà¥¬ à¥¦
Ġtru ce
ĠGriff ith
avel ength
ĠTues day
n otes
ĠT ah
ĠC oin
Ġl ing
Ġà¤ħ à¤ľà¤¯
Ġà¤¬ à¤°à¤ķà¤°
ig ma
ĠR ising
ĠF oss
à¤¼ à¤Ĥ
Ġsp elling
Ġme al
Ġexpl ores
Ġcor rupt
Ġnight cl
ĠKn own
Ġathlet ics
ĠPic ard
es ome
ĠT ate
ĠThe mes
ĠP rague
em ann
ĠN ir
ĠO K
Ġinter fer
Ġtra gic
ĠCal d
ĠGl aston
Ġà¤Ĩà¤ª à¤¦
Ġdefin itive
ĠMoz amb
Ġcroc od
ar ium
à¤® à¤Ń
Ġh iring
om atic
ĠG S
ĠG DP
ĠN ell
à¤Ī à¤°
ĠRe vel
Ġsl am
ĠPr att
less ness
Ġappoint ments
Ġconfirm ation
Ġunanim ously
Ġcompat ible
7 7
f oot
g il
Ġ ions
à¤¶ à¤Ĺ
à¤ħ à¤¸à¤²
ubl ished
Ġday light
Ġshort ages
ĠGu in
Ġvol ley
Ġang ered
Ġaltern ating
Ġfinanc ing
Ġ182 7
Ġsculpt or
Ġanx iety
in ers
ed e
Ġse ap
Ġsc rew
Ġcommun ists
quar tered
ĠArm oured
Ġir rig
Ġaim ing
Ġrac ism
ĠBol lywood
Ġlegend s
roph ic
Ġfold ed
Re illy
ilib rium
Ġn oun
ĠF ew
old ing
ĠAr j
orth y
Ġfl ames
Ġgro ove
Ġany way
ĠBy r
Ġrest oring
Ġ182 6
Ġdecor ations
Ġastron omical
Ġchlor ide
Ġsher iff
C onn
it ism
ĠT ran
ĠT oul
ĠH ogan
Ġà¤² à¤¨
ĠF ry
Ġcon gestion
à¤ĸ à¤¡
ĠIn ner
ĠIs s
Ġext r
Ġdiffer ing
Ġtrad ers
ĠMon k
Ġemploy ing
Ġ179 6
ĠNick el
Ġvolunte ered
Ã± o
ĠMult iple
Ġdisappear ance
ĠDaven port
m ere
o it
Ġw avelength
ro le
ĠT in
ĠC ull
im ated
ĠR CA
oc ative
Ġle isure
ĠCh ip
Ġ4 20
Ġapp ar
ĠEn s
Ġmon itors
Ġcomment ator
ĠPat terson
ĠAnt io
Ġimm ort
Ġpick ing
Ġmaster piece
Ġmeasure ment
ĠHan over
Ġnom inal
Ġelong ated
à¤® à¤Ĺà¤¢
ol and
Ġst ole
Ġex its
att a
à¥¦à¥ ©
Ġview ership
Ġbar rage
Ġmot iv
unk ers
ĠMac don
Ġfort unes
Ġboard ed
Ġ44 0
ĠEr lew
ĠStevens on
ĠErlew ine
m aker
ĠM B
ĠI w
Ġà¤Ń à¤¡
ĠL A
Ġk in
Ġapp la
ĠPl uto
Ġà¤Ŀ à¤Ĺà¤¡
Ġbreak away
ĠCont rovers
ĠCharl eston
ĠHy der
Ġautom obile
ĠInn oc
Ġconven ed
ĠHond uras
ĠGlaston bury
b ins
t op
is se
à¤® à¤ļà¤¨
ĠB ene
ol son
ĠI o
à¤¬ à¤¹à¤°
op a
ĠCh ange
Ġen velop
vi ated
Ġra ided
ern er
ĠFl otilla
af i
à¥¨ à¥«
Ġvarious ly
ĠMal vern
Ġtreat ing
Ġproduct ive
ĠInter active
Ġà¤Ĩà¤¶ à¤¯
Ġadminist rator
Ġ39 0
ĠColon ial
Ġrequest ing
ĠCart oon
Ġkilog ram
ĠAlam os
ĠSuff olk
g reen
à¤¹ à¤¨à¤¤
Ġg lands
ĠH ag
ĠP oor
ĠR esc
os o
Ġapp end
à¤®à¤¨ à¤Ĺà¤°
ĠPr act
ĠBlack s
Ġprem ises
oura ged
ĠCatholic ism
ĠGi ov
Ġdecre asing
Ġcontend er
Ġdim ension
ĠC ory
à¤¡ à¤Ĺ
ver age
ĠF ritz
Ġover head
gg ing
ĠBo one
Ġcommission ing
Ġsal mon
ĠPot omac
ĠAnat omy
ĠKyl ie
R B
w aters
as urer
ĠC over
ĠB onnie
ĠW augh
ĠF erm
ĠG le
ĠTh ur
ĠAl ger
act ory
Ġà¤ªà¤¹ à¤¨à¤¤
Ġà¤ĩà¤¨ à¤ª
Ġcomb ines
Ġglob e
Ġwars hip
Ġturb ine
eli hood
Ġt s
ĠC av
ĠH orses
Ġal phabet
ich o
ĠK atherine
ach y
à¤¯à¤® à¤¯
ĠAm ber
uk ov
ĠLaw s
Ġreason ing
ĠÎ ²
Ġeth anol
ĠRain bow
Ġmal aria
ĠNass au
ĠRodrig uez
Ġsty led
Ġderiv ative
Ġingred ients
ĠBreck in
Ġc ass
le z
id y
ot al
ĠV H
ran ged
man ship
Ġdec ks
Ġexp ans
ĠSc ream
ĠCar ne
rig an
Ġesc aping
Ġsex y
Ġgrad uates
ĠFort ress
Ġcriticism s
ĠCre ation
Ġware house
ĠKany e
l ar
u o
Ġo urs
Ġo val
ĠB ly
ĠL ap
ĠG oes
ĠV C
Ġad mit
à¤ł à¤®
oy ne
Ġinv ade
Ġten or
rag on
book s
Ġtiss ues
ĠJar rett
Ġcatal ogue
ĠSche er
Ġaccomplish ments
Ġlibr aries
à¤¤ à¤¸à¤°
ro be
ĠA in
ĠM uk
her ical
ian ces
ĠRe x
Ġpop e
Ġref ined
Ġdest inations
sc he
ĠBen ch
Ġcommercial s
Ġprec isely
ĠBrad y
ĠPhill ip
Ġtack les
Ġrehears als
Ġunanim ous
Ġin appropri
ĠS as
ĠD ix
op ath
Ġpl enty
Ġout right
ll er
Ġpeak s
Ġdev il
ĠMill ion
Ġillust ration
Ġpip eline
Ġimprov ised
Ä ĳ
à¤ į
Ġd well
ĠA ccess
ĠR ous
Ġpro st
ĠUn cle
Ġà¤ħà¤° à¤°
ourn als
ĠTom atoes
Ġprem ature
Ġbad ge
Ġchemical s
O M
b ase
Ġn ons
Ġst int
ĠR KO
Ġpl ural
ĠV ision
Ġà¤Ĭ à¤¨
Ġcult ivation
ĠBer ger
ĠEp stein
ĠTal bot
ĠNi agara
haw ks
ĠSac rament
Ġmorph ology
ĠWess ex
ĠPhel ps
l ov
ĠA FC
ĠF ig
ĠSt ones
ĠPol es
Ġ29 5
à¤ıà¤¸ à¤ıà¤¸
Ġcoll ar
ĠFle m
Ġcouncil s
ĠHun ters
Ã¸ r
ĠCrow ley
Ġundef eated
Ġcuis ine
Ġl ag
Ġfl anks
az ed
ĠCol ts
ĠCal ais
rict ion
ĠPer haps
ĠBor is
ĠAv atar
Ġrig id
Ġscr atch
Ġoverlook ed
Ġmant le
ĠVett el
p r
he art
Ġb urg
ent on
ĠM ud
ĠI z
Ġà¤° à¤ļà¤¯
ĠN E
à¤ĩ à¤°à¤¸
Ġ17 00
Ġdown grad
ĠX L
ĠSy nd
ãĥ «
ĠOs wald
Ġcatch y
ĠRook ie
Ġsurn ame
Ġà¤¹ à¤¬
ĠC otton
ĠB ung
ĠF ellow
ĠL ec
ĠE state
rop ods
Ġdet ention
à¤ĩà¤Ł à¤²
à¥¨ à¥©
Ġphr ases
ĠExper ience
ĠInvest igation
ĠSoph ia
É Ľ
Ġt a
ĠW igan
ĠK ru
Ġà¤ĸ à¤¦
lud es
Ġinf ections
Ġcompet itor
Ġste amer
ĠQu ater
iec es
Ġbomb ed
Ġconvin ces
ĠBed ford
Ġairfield s
ĠParalymp ic
ĠManit oba
d ad
Ġp H
Ġp all
ĠC ell
ĠH ib
Ġend ured
ret urn
ĠOr ion
ves ter
ĠAb ove
Ġ182 3
Ġremix ed
Ġmo ons
Ġfur ious
Ġremaster ed
Ġt iles
Ġc ort
ĠC T
el ope
ĠM uss
ĠI ch
Ġfor aging
us ement
Ġr het
oc hem
ĠRe formation
ident ified
Ġà¤ĵ à¤Ł
ĠBe ech
Ġlet ting
ĠRes erv
ĠMa o
Ġcompos ite
ĠLy rically
Ġconsum ers
Ġpip es
Ġboot s
Ġoverth row
Ġrevel ation
w ith
or se
ĠR umble
ĠW ine
ĠF ram
ĠL ic
Ġr amps
Ġà¤ĸ à¤®
Ġfin ishes
ett o
à¤°à¤ľ à¤Ń
ĠKarn ataka
ĠVaugh an
Ġvertebra e
Ġexcit ement
ĠMacdon ald
b les
Ġf ence
Ġl ions
ĠB uzz
ĠH ang
ay e
ĠG an
est a
ap arte
ĠK od
ron es
ĠAt omic
Ġmon etary
Ġtrans mit
Ġbel ly
ĠHam m
Ġcomplex es
Ġ178 3
Ġrend ezvous
Ġoverwhel med
ĠJur assic
abul ary
ĠOkin awa
ĠQuater mass
Ġas ylum
à¤§ à¤°à¤£
th ms
ĠN ike
Ġà¤ĩà¤¸ à¤°
Ġinter vals
ĠPr ide
ĠHam let
ĠPo et
Ġveget ables
rep rene
Ġinterf ere
Ġump ire
ĠAmbro se
0 5
B i
h oe
Ġo mn
Ġp od
am ily
ce ans
à¤ĩ à¤ªà¤°
Ġex ported
à¤°à¤¤ à¤µà¤°
ĠV in
Ġqu ote
ĠSh Åį
Ġpres eason
ĠMan ila
ae a
ĠGar rett
ĠSum mit
Ġhyd raul
Ġfresh water
Ġign or
à¤£à¤¤ à¤¯
ĠHem isphere
ĠIndivid ual
à¤ľ à¤«
ĠAs hes
io let
Ġdep osed
ling er
Ġpost ers
ĠChar ity
ĠRep orter
oph on
Ġblood y
Ġge ological
ĠRem ember
ĠEver ton
ĠBuddh ism
ĠYucat Ã¡n
ĠP av
ĠD irection
ĠN ina
and ro
ĠK aw
Ġover ly
Ġchar ging
ĠRe in
af ia
Ġsepar ating
ĠBr as
Ġamb itions
Ġsupp ressed
ĠMir anda
Ġexpress ions
ĠCirc us
Ġstret ching
Ġvolcan oes
ĠRoc kef
Ġpref ix
for ward
Ġinver te
htt ps
ĠLik ewise
p ox
u ity
ĠM und
ĠB agh
ly ss
ow itz
ew ater
ĠV it
Ġà¤¡ à¤ķ
à¤Ľ à¤µ
à¤ħ à¤°à¤¬
Ġrest art
Ġprop elled
ĠCanad ians
Ġpress ing
Ġvol tage
Ġbr ack
Ġdocument ation
ĠKer ry
ĠRey es
Ġlad ies
Ġcrick eter
n ell
al ach
st reet
Ġn ic
ec uted
Ġg ut
Ġà¤Ĺ à¤®
ĠF S
Ġover run
Ġshe er
Ġinter mitt
Ġcons ume
Ġkn ights
ĠCom et
Ġshow case
Ġdet ained
ĠAnd ri
ĠMcC ay
Ġlif elong
Ġess ence
AF TA
Ġexec ute
Ġimpl ies
ĠHere ford
Ġpreced ent
Ġprosp ects
Ġautobi ographical
nae us
g io
or ate
ent er
Ġth res
Ġbe ef
ĠG ris
um my
Ġà¤ĸ à¤¨à¤¨
Ġag round
Ġj umps
ft ime
à¤°à¤¹ à¤®
ik ovsky
ĠUS C
ĠMe gan
ĠEd dy
à¥¨ à¥¬
Ġhold er
ĠHel m
Ġagg ress
Ġdecor ative
ĠRang er
Ġcoordin ate
ĠPriv y
ĠPix ar
Ġreprin ted
T P
à¤® à¤¡
à¤¬ à¤ľ
ĠR it
ĠD res
ĠF lynn
ap le
ĠK iller
Ġcomp ares
ĠNort heast
Ġconver ting
ĠCarl isle
Ġmathem atic
ĠRat ings
Ġà¤Ńà¤Ĺ à¤µà¤¤
Ġchim ney
u i
y ch
Ġw is
Ġc ripp
ĠC ope
ĠW i
Ġbar ons
Ġbar rels
ĠMil ky
ba um
ĠRow land
ĠTot tenham
Ġplate au
Ġassum ption
ĠFact or
Ġjew el
Ġunre leased
ĠKub rick
l ash
Ï ħ
Ġf ission
ĠT rig
un al
à¤ł à¤²
ĠBrit ten
Ġhead quartered
Ġrest ed
Ġcur tain
ĠHol iday
uff s
Ġà¥© à¥«
Ġhero ine
ĠRub y
ĠTob y
Ġfisher men
ĠGarc ia
Ġpist ol
ĠVul can
Ġstoryt elling
Ġthe ft
er un
Ġw rought
ĠS W
à¤ľ à¤ķà¤¤
ĠB ound
ĠB rain
ur ities
à¤¥ à¤Ĺ
Ġbe es
ĠK ad
Ġch ased
ĠU rug
ĠMar ina
Ġlist ened
ĠRes olution
ĠLy on
ĠTem pl
Ġspok esp
Ġmasc ul
ĠMozamb ique
Conn or
l ian
ĠM s
Ġst amp
ĠE z
Ġtotal ing
Ġhost age
Ġvill agers
gr ass
Ġtur tle
Ġexerc ised
ĠRun ning
Ġcheck ed
Ġreluct antly
Ne ill
Ġsubstit uted
ĠWhed on
ar as
Ġp uls
Ġà¤ľ à¤²à¤¨
ĠB acon
ĠL ep
Ġse als
Ġà¤¸à¤® à¤²
à¥ī à¤Ĥ
ind y
ual a
ll an
Ġfif teenth
Ġclear ance
Ġspin ning
Ġhear ings
Ġconsp ic
Ġtribut aries
ĠBuch anan
ĠMoroc co
Ġtraff icking
8 8
g iving
Ġw ise
Ġb ike
Ġd irty
ĠM aking
ĠL ark
ĠSt range
ĠV ale
ĠV atic
Ġà¤īà¤¨ à¤ªà¤°
ĠRe venge
Ġneg lected
Ġemploy s
à¥© à¥¦
Ġprob ability
ĠEv a
ĠVol can
Ġvac uum
Ġfear ing
Ġteen agers
ĠConserv atives
Ġsect ors
f ried
Ġa irst
Ġf raction
ĠT ren
Ġar ise
ĠTh ous
ĠAr r
ĠBy ron
Ġstand ings
aun t
ĠMy ers
Ġche ese
ĠTw elve
Ġid ol
acer b
h anna
p oints
Å Ł
ĠR ory
ĠG B
te f
are z
aus es
Ġgovern ance
ĠEl iot
ĠPe pper
Ġassist ing
Ġdi ocese
ĠSal em
ĠApp eal
Ġ180 8
ĠPet erson
Ġadj usted
Ġchor al
Ġdescend ing
ĠNord ic
ĠExam ples
Ġconfisc ated
ĠBreckin ridge
à¤¨ à¤ı
es i
ĠT et
Ġl amb
ĠK ron
ack er
Ġnot ices
Ġconc ession
ys c
ĠMin h
Ġdra gged
ĠSte phan
ĠSch ne
Ġmer ge
Ġaccess ed
Ġimag ine
Ġtoler ance
Ġincred ible
ĠZh ang
y ah
Ġst ays
ĠR F
Ġlist ings
Ġmid fielder
Ġcr ude
Ġarg u
Ġnomin ate
ĠSa igon
Ġtun ed
Ġdepth s
ĠSpart a
ĠBelf ast
b eth
b anks
t land
in ating
ĠT rial
Ġneg lect
Ġabs urd
Ġge ometry
Ġ177 7
ĠKen ya
ĠBri ar
i ard
Ã ¯
Ġb izarre
à¤¦ à¤¡
Ġn i
ĠL uk
ĠG olf
oun ge
Ġmus ically
ring ing
Ġstruct ured
Ġsuper b
Ġadvant ages
Ġabsor ption
ĠCole man
Ġrenov ated
ĠSpart an
Ġseiz ure
Ġinev itable
R D
g one
u y
Ġin ception
am en
Ġà¤¥ à¤²
ĠâĢ ĳ
ge ance
Ġpre hist
ons on
ĠPhil harm
Ġbi as
ĠLy d
Ġtun es
ĠRom antic
Ġliber ation
Ġrow ed
ĠNapole onic
Ġwreck ed
Ġà¤°à¤£ à¤ľ
Ġaug mented
ĠRockef eller
H D
f al
t or
Ġt ally
ĠT ale
ĠS G
ir acy
ĠP ound
à¤Ī à¤ľ
ia o
Ġ18 13
ool s
Ġpass ive
Ġà¤Ĩà¤¦ à¤¤
Ġequ ity
Ġide als
à¥¨ à¥ª
ij uana
Ġsurpris ingly
Ġscholar ly
ĠFem ales
Ġexcav ation
Ġmotif s
es y
Ġp ic
as ian
ĠB iz
à¤Ī à¤ĵ
form ed
ĠRe ad
à¤¹à¤° à¤²
ĠCl an
ĠBl ind
Ġgun powder
sh ot
ĠSch war
ĠEm erson
ĠBu ilt
Ġcandid acy
Ġaddress es
ĠNic arag
Ġclean ing
ĠLow e
ĠCru ise
ĠRap ids
ĠPhys ics
Ġtriang ular
Ġsatir ical
Ġpige on
Ġrer outed
Ġw iki
Ġto ys
Ġà¤ıà¤ķ à¤¦à¤®
ĠK rat
our g
ĠAn ime
Ġà¤īà¤¸ à¤ªà¤°
Ġtra iling
Ġtrans f
Ġappro ve
ĠFin ance
ĠLo op
Ġty res
Ġble eding
Ġorn ith
run ner
ĠLud wig
Ġeject ed
k as
Ġ umb
Ġt il
Ġf auna
ĠThe ory
Ġsm ell
Ġfin ances
sh aw
Ġmount ing
Ġ179 1
Î¿ ÏĤ
Ġcliff s
stad t
ĠGand hi
ĠUrug u
it ations
Ġd od
ad en
ĠB ian
ĠP eck
ĠW ins
Ġà¤Ĩ à¤ªà¤¤
ĠCh rys
Ġcont empt
Ġne ur
à¤ħ à¤ļ
Ġwar mer
Ġgu ides
omen cl
Ġke el
ĠCor por
à¥¨ à¥®
Ġsuff rage
ĠPaul ine
ĠOl ga
ĠCharl ton
Ġinstit uted
Ġeth ics
ĠCob b
ĠStr ateg
ĠKit ty
Ġepit het
Ġsubpl ot
m ire
ĠB res
Ġat he
ĠN os
Ġex ports
Ġex acerb
Ġcomm issions
ars ity
20 13
ĠSm ash
ĠStud y
ĠSil va
Ġsplit ting
Ġdiam onds
worth y
Ġlov ing
Ġconqu er
Ġsurvey ed
ĠEle ph
Ġinnov ations
ĠDub ai
ĠSid ney
c hel
nd ers
Ġm aker
ĠT ara
à¤ĸ à¤ª
Ġch icks
Ġsh out
ip es
Ġ18 11
Ġ6 60
Ġshe ets
Ġadd iction
Ġimp ending
Ġcomb inations
Ġbar riers
ĠLes ter
ĠInc re
ĠBon aparte
fle et
Ġswitch ing
ĠKle in
ĠFell ows
r usted
z h
à¤° à¤¡
Ġh aw
ĠS iber
Ġl one
ol utions
ĠH air
Ġà¤ı à¤µà¤°
Ġprov es
ĠBe aver
Ġkill ings
ĠWe aver
Ġmot ivation
Ġeconom ically
à¤¸à¤¦ à¤¸
Ġ49 0
Ġris en
Ġbenef ited
ĠOd in
Ġsuspic ious
ĠUk rain
Ġbureauc r
o ise
ĠC rete
Ġst anza
ĠR A
Ġcl ash
Ġear nings
Ġtra uma
Ġinst ability
Ġins ists
ĠQ F
Ġline age
Ġauthor ised
ĠGl oria
Ġcop ied
ĠMac Farlane
ĠClass ification
Ġextra v
Ġprin ces
Ġà¤ļà¤® à¤¡
stan bul
Ġtheore m
Ġpier cing
Ġmasc ot
Ġincons istent
Ġt ut
at ops
Ġto ile
Ġd unge
ĠS isters
ĠC anton
ĠH ence
ĠN K
Ġà¤Ĩ à¤«
ĠE ri
Ġch anc
ĠHe ather
Ġad verse
per t
à¤ī à¤®
Ġend uring
Ġam ended
Ġinv alid
Ġadv iser
Ġà¤¢ à¤²
Ġsn akes
ĠPers ia
Ġdecre ases
Ġadvert ised
Ġbrand ed
Ġsucceed ing
Ġfram ed
ĠMaced onia
Ġhier archy
shadow ed
Ġpatern al
Ġargu ably
y ards
ar ine
à¤Ĺ à¤¯
ĠI on
oc he
Ġk its
ick er
ten stein
Ġmar riages
à¤īà¤¨ à¤²
ĠBr ill
à¤¯à¤¸ à¤Ń
Ġamb ient
Ġamb iguous
Ã¨ res
ĠJud y
Ġhal ftime
Ġspend s
Ġflash back
b ours
re cht
Ġb ells
Ġb achelor
ĠC oke
ir atory
ĠN est
Ġ4 30
low n
Ġdis reg
aj an
Ġjust ify
Ġorgan ism
hor st
ĠAm ph
Ġsw amp
Ġcommission ers
Ġà¥¨à¥¦à¥¦à¥ ¨
Ġtrain er
Ġproport ions
Ġanaly zed
Ġgest ure
Ġspont aneous
ĠPatric ia
Ġdowngrad ed
Ġ Ê
at hed
Ġto ps
Ġl overs
ĠP T
ĠD ear
Ġcom et
Ġex empt
oun cing
ĠTh reat
Ġfl ame
Ġass umes
ĠEd en
Ġcolor ation
Ġcompris e
ĠGram mar
ĠJane iro
ĠDrag ons
ĠOpen ing
ĠAven gers
Ġanalys es
ĠBie ber
pend icular
c ot
c asters
Ø ³
ĠT ac
ĠS ou
ĠR AR
th ia
Ġà¤¯ à¤®à¤ķ
Ġpl aster
rop s
ĠMay er
Ġins ult
Ġattack ers
Ġsl ate
ĠAcc olades
ĠEx it
Ġnatural ist
Ġconstit ute
ĠDen is
Ġcert ificate
ĠAri el
Ġastron omy
ãģ ®
ĠAthen ian
Ġmarg ins
Ġsear ches
Ġvolunt ary
x es
Ġc ables
Ġp ending
ĠM ode
ĠD ion
ĠO ry
Ġà¤ªà¤° à¤¦
und ers
Ġsp ine
Ġres ent
Ġout ages
à¤°à¤¦ à¤¸
Ġold s
ĠSw im
à¥¨ à¥Ń
Ġdiscover ies
ĠRock s
Ġpil grim
Ġnecess ity
Ġà¥§à¥® à¥Ń
ĠGall ip
Ġspons orship
Ġdeleg ate
ĠChron icles
ĠPolit ics
Ġexplo itation
Ġcontrad ict
Ġpsychiat ric
ĠMcCle llan
l iest
w old
ĠA FL
ĠM ab
og enesis
à¤°à¤ķ à¤¤
ru ff
ĠRe e
Ġà¥¨ à¥¯
Ġwood ed
Ġcollect ors
Ġ177 0
Ġobserv es
Ġcod en
Ġinnoc ence
ĠCN N
Ġreson ance
Ġoutn umbered
Ġp ension
ĠA gg
ĠSc r
Ġacqu aint
Ġ180 2
ĠJer icho
ĠSpe aking
ĠSquad rons
S E
b its
ĠB oul
em po
Ġint ric
ĠRe gina
ĠAt ari
Ġsever ity
Ġco ordination
Ġwar n
ĠPr ayer
Ġproject ion
ĠSl oven
ĠSam antha
Ġarran ge
Ġplant ations
ĠCr imson
ĠMass a
ĠRel igious
ĠGalile o
6 4
b ut
j ust
Ġt apes
à¤µ à¤¥
ĠM au
ra e
rom b
Ġch asing
Ġinc ub
Ġinc lined
ĠV ie
Ġag ing
Ġdes erted
erv ille
Ġsupport ive
ĠTr ondheim
Ġsol ic
ĠPart isans
Ġinsp ir
Ġap ology
ĠKh mer
Ġpit ches
Ġà¤¨à¤ķ à¤¦
Ġquiet ly
Ġnurs ing
Ġpneum onia
ĠJut land
ĠGallip oli
L U
Ġin ert
Ġm otto
ĠI T
ĠH C
ĠD olph
um m
art ments
Ġsub stances
ĠInd ex
Ġaut onomous
Ġposs esses
Ġequ ilibrium
20 16
Ġ40 4
Ġcapt ained
ĠGr up
ĠBut ton
Ġpun ch
ĠRBI s
ĠClif ford
l av
Ġt ran
Ġs aga
Ġl umber
ĠI N
ĠJ ude
Ġv ault
og ene
Ġsc utt
Ġdisc s
ĠThere after
omb ie
ĠRec onstruction
Ġevery where
ĠTra vis
Ġguard ed
Ġment ally
Ġcoordin ates
ĠProm otion
Ġwire less
ĠShep ard
ĠSold ier
m issions
ĠA man
ad in
ĠM ats
Ġg rie
ĠH iggins
Ġas ym
à¤¡ à¤°à¤¸à¤¨
ĠR iv
ĠD ahl
Ġsing led
Ġfootball er
Ġ180 7
à¤ıà¤® à¤ıà¤¸
uts ch
Ġelectron ics
ĠLib ya
ĠTerm inal
ĠCitiz ens
ĠHig her
ĠUnf ortunately
ĠParad ise
o let
à¤¾ à¤ĥ
ar ious
im us
ay ana
Ġà¤ĩ à¤¥
à¤Ī à¤µ
Ġpar achute
ĠEar p
Ġthreat en
Ġtax i
Ġ182 2
à¤ıà¤ļ à¤¡
Ġcommemor ative
Ġpel oton
b els
t rak
à¤¡ à¤¶
Ġhe red
ĠL ands
Ġar ter
Ġher d
man s
Ġass aulted
Ġam mon
ĠFor rest
Ġprop he
Ġinstit ute
Ġillust rate
Ġtransition ed
hous er
ĠSyn opsis
ĠVenezuel a
P ro
g em
Ġt ense
Ġs inc
Ġb ubble
ĠI L
à¤ĩ à¤®à¤°
lud ing
ĠBar r
ĠMil itia
Ġemb raced
che z
hold er
ĠDam on
Ġmut iny
ĠIndust ries
Ġcommemor ated
Ġperf ection
ĠHerman n
mid t
ĠGiov anni
p age
or cing
ĠB ury
Ġà¤¬ à¤Ĺà¤²
Ġg rief
ch urch
Ġex ter
Ġsp ray
Ġsp rings
pt ions
Ġcont ention
iz a
Ġsur plus
Ġsystem atic
Ġà¤°à¤ĸ à¤°à¤ĸ
Ġexplo ited
bre aking
Ġpenet rate
Ġow l
Ġunav ailable
Ġdrif ted
c ons
Ġp aced
ĠB olt
ig i
ot le
ĠW ise
ĠW izard
ĠN iss
ĠE ra
af ts
Ġsk ating
ĠCo ff
isc opal
ĠMic he
ĠWater loo
ĠHart ford
Ġagree ing
ĠDuch y
ĠRÃ© union
atche wan
Ġinfra red
Ġsop rano
g au
Ġ Ùħ
Ġd op
im on
ul ing
ond o
Ġship ment
az ar
Ġà¥¨ à¥¦à¥¦
Ġprocess ion
ĠGame Cube
Ġhard core
Ġadop ting
road s
à¤Ĺà¤£ à¤ķ
Ġpassion ate
Ġdw elling
à¤² à¤Ł
ĠS ina
ĠF F
ĠG erm
ill and
ĠK ok
Ġsp herical
Ġ5 60
Ġfour teenth
Ġsome how
Ġpres cribed
Ġ30 1
ĠMid night
ĠMur der
Ġtransl ations
Ġà¤¤à¤Ł à¤¸
ĠBru ins
Ġimpl ications
ĠSteven age
Ġcad ets
Ġconce aled
Ġfrog s
k ie
Ġf ountain
Ġin ad
ĠT rit
ĠH ost
ĠG aul
Ġà¤¶ à¤®
Ġte legraph
Ġcre m
Ġinst inct
Ġins istence
ĠMc B
ĠIntern al
Ġche aper
ĠLiber als
ĠLin naeus
Ġcorpor ations
Ġglac ial
Ġcav ity
ĠM ob
ĠI stanbul
Ġas cent
Ġsh ores
ical s
ĠCh ick
ign y
Ġass im
Ġno on
Ġmon key
ĠBar ney
Ġdra ught
int o
Ġz ool
Ġple aded
Ġur ine
à¥§à¥¯à¥ ¬
Ġexplos ions
ĠConc ern
Ġdecomp ression
Ġende av
8 2
ĠT imb
Ġl odge
Ġà¤ħ à¤ł
ĠB B
Ġg aps
ĠN un
Ġsup rem
Ġcan als
à¤¤à¤¨ à¤§
à¥§à¥ §
Ġà¤īà¤² à¤Ŀ
Ġhon oured
Ġrail s
lo e
kin en
Ġdism ay
Ġcollabor ator
ĠImp ro
Å¡ iÄĩ
ĠLow ell
Ġancest ral
Ġastron omer
ĠAud io
Ġprohib ition
V N
g ue
ĠS D
ĠC ott
ĠD irty
um en
ĠJ ard
Ġà¤¯ à¤¤
Ġsp rin
Ġcomp elled
ass es
Ġup wards
ib i
ĠBrit ann
ĠBen z
urt les
ĠStat istics
Ġcry pt
ĠCoch rane
Ġphysic ist
ĠJed i
ĠElement ary
Ġmotorcy cle
Ġspokesp erson
Ġd ose
st ed
ĠB AFTA
à¤¥ à¤ª
Ġv ag
if iable
Ġex h
ĠAr chie
Ġany body
à¤Ĺà¤² à¤ķ
Ġrev ive
ĠAtl antis
ĠCongress man
Ġcrowd ed
Ġsimpl icity
Ġoutl aw
ĠRif les
ĠSuz uki
Ġpled ged
ĠKend rick
Ġimped ance
Ġelectrom agnetic
u h
it ches
Ġm ason
ĠM FR
Ġà¤ĩà¤¸ à¤ªà¤°
pp elin
Ġover flow
ick ed
Ġfl aws
Ġdem os
Ġà¥§à¥¯à¥ ¯à¥¦
Ġhold ers
Ġà¥© à¥§
Ġmem oir
Ġexperiment ed
Ġprefer ring
ĠBudd ha
ĠUSS R
Ġfilmm aker
g ang
h olic
Ġt am
ĠB achelor
ĠH urricanes
ul se
ĠO val
Ġrec k
Ġ16 2
Ġmon astic
Ġtreat ies
ĠOper ational
pe z
ĠJer ome
Ġexception ally
Ġneighb ors
ĠHav illand
Ä ĵ
Ġre lying
ĠD oyle
ul in
Ġev angel
Ġext ensions
Ġmark er
rodu ced
Ġà¥§à¥® à¥¬
Ġlog ical
ĠChe v
Ġsynt hetic
ĠVik ings
Ġadmir ation
Ġpseud onym
Ġsymph ony
Ġpedest rian
ĠNorthumb ria
ĠSask atchewan
h ra
ĠS L
ĠC ities
um ing
ell us
Ġcl ashed
ound ing
Ġcons on
Ġver bal
Ġdep leted
ĠZ ion
Ġprov ing
ĠHar riet
ĠAm in
ĠMcC orm
Ġscreen writer
ĠLiber ation
ĠNich ols
Ġreorgan ized
Ġindirect ly
Ġplag ued
Ġretal iation
l itz
Ġh p
ĠS is
st ick
ol io
ĠR ules
ĠF iji
Ġcomp are
og ram
Ġdis g
ĠSh rews
ann ah
ĠBe g
sh am
ĠMil k
Ġminor ities
Ġunivers ally
Ġcontrast ed
Ġappl ies
Ġuns ure
Ġdetail ing
Ġconven ient
Ġpenn ed
ĠNavig ation
z b
Ġb iblical
el ves
ĠN it
ĠK appa
Ġad orn
ran ces
ace ans
Ġass aults
ĠPaul o
back er
Ġemb race
ĠInter est
Ġchief s
ĠConfeder ation
Ġcooper ative
Ġsubst rate
Ġprev ailing
Ġnumer ical
ĠVeter ans
0 7
g ain
re ted
ly ph
Ġg a
ĠW are
if erous
ĠK ess
Ġall oy
Ġreg ulated
Ġcar riages
ĠWe hr
ĠWilliam son
ĠHistor ically
Ġemphas ize
ĠAnim ated
ĠSpart ans
Ġjuven iles
Ġridic ulous
child ren
haus en
ĠVenet ian
ĠMys ore
ĠShrews bury
ĠC i
ĠH T
ĠP ry
ĠG A
ĠE tty
ak on
ĠU M
Ġinter red
az y
ern e
Ġ25 4
Ġmar rying
ĠBar oque
off s
Ġfavor ably
Ġlic ence
Ġcontest ant
Ġpup il
Ġcommit ments
ĠRow ling
ĠMP s
ĠHans en
195 2
ĠOC LC
ĠSacrament o
P D
c ard
on te
Ġb ays
Ġp awn
ĠT C
il ocy
ĠA uck
ĠA very
ĠI A
ĠF avor
Ġà¤ı à¤¨à¤°
Ġatt ach
Ġ17 1
erm aid
ĠZ ah
Ġext raction
ĠSch arn
acher s
Ġ177 8
Ġunf air
Ġoverse e
Ġhat red
Ġstrip es
Ġprivile ges
Ġstair case
A n
z ko
ut ory
ĠG E
ĠG oss
ap est
Ġsc an
Ġpres ided
Ġno ir
ting u
Ġbuild s
ĠAir bus
Ġexam ining
Ġsoundtrack s
Ġ178 8
ĠAsh ton
Ġsan ctuary
Ġtrick s
Ġoutl ined
Ġdrink s
Ġanat omy
Ġcott age
l ation
Ġo ught
or por
ĠC osm
ĠG ale
ĠAl g
Ġchar ming
ĠBl ame
Ġdisc retion
uss y
ĠMin i
Ġprop oses
ĠGar land
Ġexhib itions
ĠDun n
Ġdyn amics
ĠPublic ations
ĠConfeder acy
ĠTit le
cha ikovsky
h ail
à¤ ½
Ġb ug
ĠF ont
ĠE lection
Ġoff ence
Ġgener ators
Ġcharacter ization
ĠWe iss
ĠPar ade
Ġcoun cill
ĠBrown lee
het ics
ĠHay nes
Ġaddress ing
ĠOd ys
ĠMerc ia
ĠRecord ed
Ġflatt ened
ĠHitch cock
Ġinappropri ate
R P
ĠG amer
Ġdis gr
Ġfl otilla
Ġmill ennium
Ġsuccess ors
Ġpar odies
Ġer ect
Ġcy cles
Ġpain ful
Ġill usion
Ã¨ s
ĠExp o
Ġconsum ing
ĠPo ole
ĠPur ple
Ġbes ides
Ġcoff in
ĠInv inc
ĠInsp ector
ĠOcc up
ĠCarne gie
us an
ĠG ir
ĠMar riage
à¤¬à¤° à¤¨
Ġac et
ley s
Ġair plane
ĠNorth western
Ġfle ets
ĠQu ad
Ġà¤ıà¤ļ à¤Ĩà¤Īà¤µ
ĠSab bath
Ġcoordin ator
Ġrepuls ed
is ible
Ġb rid
ĠT ick
ĠT iber
ĠS eward
à¤Ĺ à¤¹
à¤¡ à¤¹à¤°
em outh
ĠL otus
ĠG ert
Ġbl ade
ek ing
Ġopen ings
Ġà¤Ŀ à¤Łà¤ķ
oll s
ĠEast E
Ġtransfer ring
Ġstraight forward
ĠBad en
Ġinteract ive
Ġrac ist
ĠUr s
ĠAz ores
ĠCook e
Ġsimultane ous
ĠNear ly
gro ve
ĠLore n
ĠCG I
Ġwer en
ĠInform er
ĠDres den
Ġa fore
Ġw eld
Ġc itation
ĠP iper
Ġst ro
ĠW ulf
ĠG aud
ct ica
Ġind ul
ific ant
Ġenter prise
ĠColl ier
Ġsatisf y
Ġprev ents
ĠEth iop
Ġremind ed
Ġrelax ed
ĠEastE nders
Ġb ru
ing le
ĠS porting
Ġg ri
ĠD ust
Ġà¤ı à¤²à¤¨
ra pping
Ġatt aining
Ġ17 2
ĠSp ok
Ġair lines
ĠAng les
ĠBo om
Ġtransport ing
200 2
ĠAnn iversary
ĠBu cc
Ġexpress way
ĠProv incial
ĠChron o
Ġwheel chair
Ġsimpl er
Ġsurpass ing
ĠMI T
ĠThan houser
Ġswall ow
Ġrif les
ĠByr ne
Ġw ield
an ity
et us
ĠN ay
à¤ĩ à¤ľà¤°
ĠU b
ĠSt o
ĠV ig
Ġdep ended
Ġinf inite
ĠWe ap
ĠCal der
ĠPres idency
Ġbar red
ĠHaw ks
Ã¨ ne
Ġlic ensing
ĠGer ry
Ġhang ar
Ġabrupt ly
Ġwag ons
Ġo sc
ĠM ersey
ĠB ac
ter ing
ĠF us
Ġv ass
Ġpro be
ĠSt anding
Ġab duct
ount y
ĠStar C
ĠTrans ylvania
ĠHo oper
Ġdepos it
ĠDiv ine
Ġshield s
Ġoblig ations
Ġincred ibly
Ġfundra ising
Ġmicroph one
0 1
à¤® à¤ł
ro ys
ĠR oot
ĠR ole
ĠW an
Ġv ivid
Ġsp un
ĠY a
ĠY as
are th
att on
ĠLe vin
ĠSp ector
oss a
row th
ĠMil ne
Ġemb ark
ĠRob son
Ġcontrast ing
Ġeth n
Ġcontest ants
Ġoutf its
Ġrhythm ic
ĠToy ota
role um
ĠScharn horst
Ġf res
Ġà¤® à¤µ
Ġe uro
Ġnot ified
te e
ult ural
aj o
ĠAp ost
Ġtw ins
Ġgl ory
Ġsuff ers
Ġpract ically
Ġfunction ing
Ġenjoy ing
Ġge ology
rog amer
Ġelev ator
Ġgall ons
ĠDomin ion
Ġsynthes izer
ĠLaure nce
Ġantib odies
Ġrecruit ment
ĠRaid ers
ĠGarc ÃŃa
Ġsab ot
l ag
à¤¤ à¤°à¤¤
Ġp igs
Ġh ail
ĠC od
Ġhe d
Ġà¤Ń à¤ľà¤¨
ĠN er
ect ors
Ġcl o
Ġ5 30
Ġà¤ĸ à¤Ł
Ġgener ous
ink a
Ġclass ics
Ġexpl orer
ĠEu rogamer
Ġhand ic
Ġrev is
Ġcy cling
Ġcoast s
Ġengine ered
Ġsyn onym
Ġspecific ations
ĠBre nd
ES CO
ĠKer r
Ġfeud al
Ġà¤īà¤Ń à¤°à¤¤
Ġeleph ants
Ġdolph ins
cul osis
ĠS Ã£o
ĠM aiden
ĠD ante
à¤ı à¤ľ
ĠâĢ ³
ab out
Ġun m
Ġrem od
ĠCon way
ĠCl ap
ĠDe velop
ĠSm oking
ĠEm il
Ġcru ising
Ġimm ense
Ġfashion ed
Ġrhy thms
ĠArc ade
ĠAdvis ory
an ish
ĠB und
ĠD ictionary
à¤Ī à¤¡
Ġout ward
Ġà¤Ľ à¤¡
ĠZ en
Ġmid way
Ġpat rolling
ĠHol t
ĠKh al
ĠStra its
Ġrailroad s
Ġhapp iness
Ġtrump et
Ġcogn itive
ĠPione er
ĠKrat os
ĠAuck land
w ulf
in ia
Ġw rist
or ian
Ġc af
it imate
al am
Ġto pping
Ġhe n
Ġsp at
ary a
per ors
Ġoff set
à¤ķà¤° à¤¨
Ġout c
Ġme als
ĠSh ot
Ġsur g
Ġreal izing
Ġsol ved
Ġsw orn
Ġconvers ations
ĠDark ness
Ġdescend ant
Ġhang ed
Ġadvoc ates
ĠHur on
ĠYok o
Ġnost alg
Ġlav ish
ĠAntio ch
ĠPhilharm onic
z omys
ĠH et
Ġst unning
ĠR Ã¤
ĠD M
ĠG ian
ine as
Ġrec yc
Ġcap ped
Ġmar ijuana
head ed
Ġpri zes
ĠWhite head
Ġche f
ĠPat rol
iser ies
Ġcat cher
Ġsort ies
ĠNic ol
Ġblow ing
ĠRain fall
Ġdivers ion
Ġearthqu akes
Ġneighbour hood
ĠVers ion
ĠScandin avian
Ġcompuls ory
psil on
ĠHyder abad
ĠReserv oir
ĠSchne ider
9 3
Ġh ob
à¤ª à¤Ĺà¤¢
ĠS ard
ĠH enson
ĠG ong
Ġà¤ħà¤¨ à¤ľ
ĠShe ll
Ġmet aph
Ġdest roys
osp ace
ĠEv angel
Ġcounter ed
writ ing
Ġadj oining
Ġcra fted
Ġreserv ations
ĠDiam onds
ĠMong ols
Ġvig il
ĠResc ue
Î ¼
à¤¤ à¤¹
Ġs ake
Ġm w
am ination
Ġn ull
ĠB io
ĠO ric
Ġex tingu
end ers
Ġcan opy
ĠAust rians
Ġreal igned
20 18
ĠMid land
Ġge ography
ĠAut umn
Ġhall uc
Ġfranch ises
ĠGer ard
ĠJacob s
ĠCred it
Ġrevol ves
Ġscen arios
ĠChes hire
ĠMyst ery
Ġslee ve
T h
i w
Ġà¤¹ à¤²à¤ķ
Ġh ilar
ĠT rench
ĠB ash
ĠH ak
ĠH ors
um o
Ġà¤Ĩ à¤¯à¤¤à¤¨
ĠE uc
Ġad he
Ġj ournals
Ġdec eption
Ġno ct
Ġ22 2
Ġà¥© à¥¬
ĠSher idan
ĠNich olson
Ġfil ters
Ġinaug urated
Ġprovision al
Ġmonaster ies
Ġwors ened
Ġmour ning
N O
Ġf aint
Ġm akers
ĠR T
th ard
op ers
Ġem blem
sh aven
Ġprocess ed
Ġdev ote
ĠIm port
ĠJackson ville
ĠGra v
Ġven om
Ġorn ament
ĠOfficial s
Ġreass igned
ĠJen kins
f in
Ä Ļ
ĠB W
ĠR apt
Ġà¤ĵ à¤µ
Ġà¤Ĳ à¤®
ret to
ĠNor ris
ĠMac beth
Ġ00 00
Ġdeal er
ĠEv idence
ĠSuper ior
ĠBul let
Ġquot es
Ġabsor b
ĠFront ier
Ġwilling ness
Ġannex ed
Ġsymmet ry
Ġfratern ity
ĠSchwar z
ĠSpok ane
z ier
er ff
Ġs ar
or os
Ġc ris
es a
ĠT ub
ĠB ug
ĠP iano
ĠK ry
Ġj aws
à¤¯à¤¤ à¤¯
Ġins ane
Ġsent iments
20 17
ĠNe al
ĠMy th
Ġpred ation
Ġrecogn izes
Ġlands lides
Ġspons ors
ĠCam den
ĠRecord ings
ĠHaz el
Ġimmun ity
b r
m acht
Ï ĥ
Ġm un
ĠS aga
ĠR ule
ĠD rug
ĠW on
Ġv andal
Ġv apor
ĠK rie
Ġco hes
Ġbest s
Ġbreak fast
Ġ37 5
Ġdemonst rates
ĠGall agher
Ġactress es
ĠBal zac
ĠNS B
ĠSlav ic
Ġconclus ions
Ġoverturn ed
f ig
Ġd ur
ĠC rescent
ĠP ony
ĠN ile
ap ur
ĠK C
og o
Ġsc ler
Ġdis emb
Ġdis ruption
Ġthan k
Ġsub gen
Ġmin t
urg ical
Ġpain ters
itor ium
ĠRob ot
ns ic
ĠHur ley
Ġforth coming
ĠCelt ics
Ġoptim istic
Ġsemif inals
b ys
Î ·
à¤² à¤ĺ
ĠS ki
ĠL j
ĠG T
ĠE ck
ĠV T
ĠY ak
Ġent reprene
ĠBl ade
Ġ21 3
sh a
Ġdiv ert
ĠArch ives
Ġforest ed
Ġpack s
à¥§à¥¯à¥ ª
Ġcard inal
Ġsoul s
Ġshut tle
Ġsimpl ified
ĠByrd s
Ġstup id
Ġsuscept ible
c u
Ġf iber
is ors
ĠM ec
ĠG wyn
ill ard
ĠIn ver
ĠSe jm
rop od
Ġent ities
Ġà¤¸à¤¹ à¤Ń
Ġconf luence
Ġdel ivers
Ġdel icate
ges chwader
Ġsoc ially
Ġcrew men
ĠCast ell
Ġviol ations
Ġfort ification
Ġpul p
ĠEle ven
[...]
