{"<s>":0,"<pad>":1,"</s>":2,"<unk>":3,"<mask>":4,"!":5,"\"":6,"#":7,"$":8,"%":9,"&":10,"'":11,"(":12,")":13,"*":14,"+":15,",":16,"-":17,".":18,"/":19,"0":20,"1":21,"2":22,"3":23,"4":24,"5":25,"6":26,"7":27,"8":28,"9":29,":":30,";":31,"<":32,"=":33,">":34,"?":35,"@":36,"A":37,"B":38,"C":39,"D":40,"E":41,"F":42,"G":43,"H":44,"I":45,"J":46,"K":47,"L":48,"M":49,"N":50,"O":51,"P":52,"Q":53,"R":54,"S":55,"T":56,"U":57,"V":58,"W":59,"X":60,"Y":61,"Z":62,"[":63,"\\":64,"]":65,"^":66,"_":67,"`":68,"a":69,"b":70,"c":71,"d":72,"e":73,"f":74,"g":75,"h":76,"i":77,"j":78,"k":79,"l":80,"m":81,"n":82,"o":83,"p":84,"q":85,"r":86,"s":87,"t":88,"u":89,"v":90,"w":91,"x":92,"y":93,"z":94,"{":95,"|":96,"}":97,"~":98,"¡":99,"¢":100,"£":101,"¤":102,"¥":103,"¦":104,"§":105,"¨":106,"©":107,"ª":108,"«":109,"¬":110,"®":111,"¯":112,"°":113,"±":114,"²":115,"³":116,"´":117,"µ":118,"¶":119,"·":120,"¸":121,"¹":122,"º":123,"»":124,"¼":125,"½":126,"¾":127,"¿":128,"À":129,"Á":130,"Â":131,"Ã":132,"Ä":133,"Å":134,"Æ":135,"Ç":136,"È":137,"É":138,"Ê":139,"Ë":140,"Ì":141,"Í":142,"Î":143,"Ï":144,"Ð":145,"Ñ":146,"Ò":147,"Ó":148,"Ô":149,"Õ":150,"Ö":151,"×":152,"Ø":153,"Ù":154,"Ú":155,"Û":156,"Ü":157,"Ý":158,"Þ":159,"ß":160,"à":161,"á":162,"â":163,"ã":164,"ä":165,"å":166,"æ":167,"ç":168,"è":169,"é":170,"ê":171,"ë":172,"ì":173,"í":174,"î":175,"ï":176,"ð":177,"ñ":178,"ò":179,"ó":180,"ô":181,"õ":182,"ö":183,"÷":184,"ø":185,"ù":186,"ú":187,"û":188,"ü":189,"ý":190,"þ":191,"ÿ":192,"Ā":193,"ā":194,"Ă":195,"ă":196,"Ą":197,"ą":198,"Ć":199,"ć":200,"Ĉ":201,"ĉ":202,"Ċ":203,"ċ":204,"Č":205,"č":206,"Ď":207,"ď":208,"Đ":209,"đ":210,"Ē":211,"ē":212,"Ĕ":213,"ĕ":214,"Ė":215,"ė":216,"Ę":217,"ę":218,"Ě":219,"ě":220,"Ĝ":221,"ĝ":222,"Ğ":223,"ğ":224,"Ġ":225,"ġ":226,"Ģ":227,"ģ":228,"Ĥ":229,"ĥ":230,"Ħ":231,"ħ":232,"Ĩ":233,"ĩ":234,"Ī":235,"ī":236,"Ĭ":237,"ĭ":238,"Į":239,"į":240,"İ":241,"ı":242,"Ĳ":243,"ĳ":244,"Ĵ":245,"ĵ":246,"Ķ":247,"ķ":248,"ĸ":249,"Ĺ":250,"ĺ":251,"Ļ":252,"ļ":253,"Ľ":254,"ľ":255,"Ŀ":256,"ŀ":257,"Ł":258,"ł":259,"Ń":260,"à¤":261,"à¥":262,"Ġà¤":263,"à¤¾":264,"Ġt":265,"he":266,"Ġa":267,"à¤°":268,"à¥į":269,"in":270,"à¥ĩ":271,"Ġthe":272,"Ġ,":273,"er":274,"à¤¿":275,"on":276,"Ġà¤ķ":277,"à¤Ĥ":278,"re":279,"à¥Ģ":280,"à¤¨":281,"à¤¤":282,"Ġs":283,"ed":284,"Ġw":285,"Ġo":286,"Ġ.":287,"nd":288,"à¤ķ":289,"at":290,"or":291,"en":292,"à¤¯":293,"Ġc":294,"à¥ĭ":295,"it":296,"Ġf":297,"is":298,"es":299,"ar":300,"Ġb":301,"an":302,"Ġof":303,"Ġin":304,"al":305,"à¤¸":306,"à¤²":307,"Ġà¤¸":308,"ing":309,"Ġp":310,"as":311,"Ġand":312,"Ġà¤¹":313,"à¤®":314,"Ġto":315,"ic":316,"Ġà¤®":317,"ro":318,"Ġm":319,"à¤µ":320,"Ġà¤ª":321,"Ġd":322,"à¥Ī":323,"Ġh":324,"ion":325,"le":326,"à¤¹":327,"ĠĊ":328,"Ġ\"":329,"ou":330,"à¥ģ":331,"ĠT":332,"Ġà¥":333,"Ġ1":334,"Ġ=":335,"à¤¦":336,"à¤ª":337,"Ġre":338,"ĠS":339,"Ġà¥¤":340,"à¥ĩà¤Ĥ":341,"il":342,"ĠA":343,"ent":344,"Ġth":345,"st":346,"Ġà¤ľ":347,"à¤Ĺ":348,"ĠC":349,"el":350,"Ġl":351,"Ġ@":352,"om":353,"Ġe":354,"am":355,"Ġn":356,"ac":357,"Ġà¤ħ":358,"ad":359,"Ġà¤µ":360,"à¤Ł":361,"ĠM":362,"Ġwas":363,"Ġ'":364,"à¤ľ":365,"ĠB":366,"ec":367,"Ġon":368,"ĠThe":369,"ly":370,"à¥Ĥ":371,"ur":372,"Ġà¤¨":373,"Ġà¤¬":374,"et":375,"id":376,"ol":377,"Ġ)":378,"Ġg":379,"Ġ(":380,"ĠI":381,"im":382,"à¤¶":383,"Ġ2":384,"Ġfor":385,"-@":386,"Ġ@-@":387,"à¥ĭà¤Ĥ":388,"ig":389,"Ġà¤¦":390,"ir":391,"ot":392,"iv":393,"ter":394,"ĠH":395,"ut":396,"Ġà¤°":397,"à¤·":398,"us":399,"Ġas":400,"à¤¡":401,"ow":402,"à¤¬":403,"ith":404,"ay":405,"ĠP":406,"à¤§":407,"Ġà¤²":408,"Ġst":409,"Ġhe":410,"ver":411,"ation":412,"Ġwith":413,"à¤¥":414,"Ġbe":415,"ĠR":416,"Ġthat":417,"ĠD":418,"à¤£":419,"ce":420,"Ġà¤Ĺ":421,"Ġà¤Ķ":422,"un":423,"à¤ļ":424,"em":425,"Ġà¤ī":426,"Ġà¤Ķà¤°":427,"ĠW":428,"Ġ19":429,"Ġwh":430,"ĠF":431,"ch":432,"Ġby":433,"Ġà¤ı":434,"00":435,"th":436,"Ġal":437,"Ġà¤Ń":438,"ul":439,"ĠL":440,"à¤¼":441,"ĠG":442,"Ġis":443,"Ġcon":444,"ers":445,"ct":446,"Ġat":447,"ĠN":448,"Ġà¤¤":449,"à¤ı":450,"ra":451,"os":452,"Ġan":453,"Ġit":454,"her":455,"rom":456,"um":457,"and":458,"ĠJ":459,"Ġà¤Ĩ":460,"est":461,"ag":462,"ĠE":463,"Ġhis":464,"av":465,"ain":466,"ri":467,"od":468,"à¤Ń":469,"Ġà¤¶":470,"Ġà¤ķà¤°":471,"à¥Īà¤Ĥ":472,"ĠO":473,"Ġfrom":474,"à¤ĸ":475,"Ġà¤ªà¤°":476,"ist":477,"Ġà¤ĩ":478,"Ġcom":479,"Ġà¤¯":480,"Ġà¤ıà¤ķ":481,"Ġv":482,"Ġpro":483,"op":484,"ill":485,"if":486,"ore":487,"ld":488,"up":489,"Ġr":490,"Ġà¤¥":491,"Ġ-":492,"ew":493,"igh":494,"âĢ":495,"ere":496,"res":497,"ĠIn":498,"ies":499,"Ġde":500,"art":501,"ard":502,"ber":503,"ort":504,"à¤Ī":505,"ate":506,"Ġse":507,"à¤ĩ":508,"ich":509,"Ġwere":510,"ak":511,"all":512,"oc":513,"ud":514,"ap":515,"ant":516,"qu":517,"Ġex":518,"ĠâĢ":519,"ab":520,"ong":521,"Ġor":522,"ĠK":523,"Ġch":524,"Ġà¤ļ":525,"gh":526,"ear":527,"ess":528,"ated":529,"Ġsh":530,"ip":531,"Ġpl":532,"ity":533,"ĠU":534,"ive":535,"ame":536,"à¤°à¤¤":537,"ect":538,"Ġhad":539,"ack":540,"à¤¾à¤Ĥ":541,"Ġ:":542,"ĠSt":543,"Ġsu":544,"se":545,"ast":546,"Ġk":547,"red":548,"ge":549,"our":550,"Ġwhich":551,"ment":552,"Ġle":553,"und":554,"Ġ3":555,"Ġare":556,"ov":557,"ian":558,"Ġsp":559,"ial":560,"Ġnot":561,"Ġy":562,"à¤«":563,"ell":564,"Ġ200":565,"Ġ20":566,"ost":567,"ight":568,"ia":569,"Ġà¤¸à¤®":570,"ord":571,"ust":572,"ary":573,"ine":574,"pt":575,"ther":576,"rit":577,"Ġà¤ĩà¤¸":578,"oun":579,"ical":580,"pp":581,"à¥ĥ":582,"à¤ªà¤¨":583,"ave":584,"ĠCh":585,"à¥Į":586,"Ġ;":587,"Ġà¤«":588,"Ġun":589,"Ġinc":590,"cc":591,"à¤ģ":592,"ĠV":593,"Ġà¤ħà¤¨":594,"fter":595,"ould":596,"Ġbut":597,"ish":598,"irst":599,"à¤¤à¤°":600,"ous":601,"te":602,"ions":603,"ff":604,"so":605,"Ġcomp":606,"à¥ī":607,"ide":608,"ure":609,"Ġar":610,"Ġro":611,"Ġwhe":612,"ub":613,"Ġ4":614,"og":615,"Ġcont":616,"ĠâĢĵ":617,"Ġcl":618,"à¤°à¤£":619,"ign":620,"ie":621,"ass":622,"Ġ5":623,"Ġfirst":624,"ue":625,"wo":626,"orm":627,"ry":628,"Ġ201":629,"Ġher":630,"Ġits":631,"Ġtheir":632,"Ġà¤Ĺà¤¯":633,"ok":634,"ork":635,"Ġint":636,"Ġres":637,"à¤°à¤ķ":638,"ĠHe":639,"Ġalso":640,"ater":641,"Ġab":642,"Ġad":643,"Ġà¤ĸ":644,"Ġ18":645,"ond":646,"ran":647,"ome":648,"out":649,"Ġus":650,"age":651,"ire":652,"mer":653,"ru":654,"hed":655,"pl":656,"du":657,"Ġà¤īà¤¨":658,"low":659,"per":660,"Ġper":661,"ime":662,"à¤¸à¤ķ":663,"ĠTh":664,"Ġhave":665,"Ġwho":666,"Ġone":667,"Ġsc":668,"ally":669,"à¥Ģà¤Ĥ":670,"own":671,"ile":672,"Ġrec":673,"ted":674,".@":675,"Ġ@.@":676,"ition":677,"Ġtwo":678,"iz":679,"ugh":680,"lud":681,"à¤¿à¤Ĥ":682,"ree":683,"ence":684,"ice":685,"ts":686,"port":687,"uring":688,"Ġpart":689,"Ġbeen":690,"Ġhas":691,"ĠAl":692,"Ġbec":693,"Ġag":694,"Ġapp":695,"Ġj":696,"Ġen":697,"Ġthis":698,"ough":699,",@":700,"Ġ@,@":701,"Ġdis":702,"ction":703,"à¤Ĩ":704,"ke":705,"ory":706,"Ġover":707,"à¤µà¤°":708,"Ġser":709,"ations":710,"à¤¾à¤ģ":711,"ely":712,"Ġyear":713,"ren":714,"ach":715,"ound":716,"ember":717,"ric":718,"Ġ6":719,"Ġoff":720,"Ġà¤ķà¤°à¤¨":721,"Ġup":722,"Ġafter":723,"ace":724,"Ġdes":725,"land":726,"ark":727,"Ġinclud":728,"Ġplay":729,"ĠIt":730,"ance":731,"over":732,"à¤ķà¤°":733,"Ġà¤Ł":734,"Ġte":735,"Ġout":736,"Ġà¤¯à¤¹":737,"Ġthey":738,"Ġman":739,"act":740,"ib":741,"ade":742,"Ġother":743,"Ġà¤ħà¤ªà¤¨":744,"ult":745,"Ġim":746,"man":747,"ph":748,"ĠY":749,"à¤ī":750,"Ġà¤°à¤¹":751,"ress":752,"urn":753,"ens":754,"Ġà¤¡":755,"ced":756,"ind":757,"Ġ7":758,"wn":759,"Ġwould":760,"à¤°à¤®":761,"one":762,"Ġ/":763,"Ġtime":764,"Ġpre":765,"à¤ĵ":766,"Ġwe":767,"Ġinto":768,"ite":769,"ĠUn":770,"vel":771,"Ġà¤ħà¤§":772,"ĠOn":773,"ates":774,"ward":775,"oin":776,"we":777,"Ġhim":778,"à¤ł":779,"à¤Ľ":780,"les":781,"end":782,"Ġà¤¬à¤¨":783,"Ġshe":784,"able":785,"Ġev":786,"Ġne":787,"Ġà¤µà¤°":788,"ase":789,"ilm":790,"Ġatt":791,"ased":792,"ited":793,"amp":794,"Ġ8":795,"ied":796,"ors":797,"Ġcomm":798,"à¤¯à¤ķ":799,"Ġinter":800,"are":801,"ang":802,"Ġà¤ķà¤°à¤¤":803,"rough":804,"oy":805,"ep":806,"form":807,"ons":808,"ount":809,"Ġ9":810,"Ġall":811,"ose":812,"Ġmore":813,"Ġ199":814,"ces":815,"ood":816,"Ġwork":817,"ail":818,"old":819,"aw":820,"à¤ľà¤¨":821,"ered":822,"à¤¼à¤¾":823,"ings":824,"à¤ĩà¤¸":825,"ĠAn":826,"ve":827,"ild":828,"à¤ħ":829,"Ġnew":830,"à¤°à¤¸":831,"Ġsec":832,"Ġbet":833,"Ġà¤ªà¤¹":834,"Ġà¤¸à¤ķ":835,"Ġà¤®à¤¹":836,"Ġà¤§":837,"Ġà¤¨à¤¹":838,"Ġà¤īà¤¤":839,"Ġwhen":840,"inal":841,"Ġfe":842,"ick":843,"Ġfilm":844,"vi":845,"à¥¦":846,"ents":847,"ft":848,"fer":849,"ĠSe":850,"way":851,"att":852,"iss":853,"aus":854,"gan":855,"rib":856,"reat":857,"ĠMar":858,"ĠAr":859,"Ġcons":860,"round":861,"ake":862,"Ġrem":863,"Ġtr":864,"à¤°à¤¦":865,"ved":866,"Ġdec":867,"ans":868,"ason":869,"à¤¯à¤¹":870,"Ġà¤īà¤ª":871,"Ġund":872,"orth":873,"Ġduring":874,"ubl":875,"hip":876,"ĠAs":877,"Ġagain":878,"Ġmost":879,"Ġonly":880,"oth":881,"ath":882,"Ġpr":883,"Ġgame":884,"ob":885,"Ġthem":886,"ix":887,"ollow":888,"ween":889,"Ġear":890,"Ġthan":891,"000":892,"Ġcent":893,"rop":894,"ational":895,"Ġsup":896,"à¤ªà¤°":897,"Ġcan":898,"ug":899,"tern":900,"fore":901,"Ġabout":902,"ĠNew":903,"Ġprodu":904,"Ġret":905,"ey":906,"Ġkn":907,"Ġchar":908,"Ġcol":909,"Ġsong":910,"§à¥":911,"Ġà¤¤à¤¥":912,"outh":913,"Ġbetween":914,"Ġqu":915,"orn":916,"Ġlater":917,"Ġunder":918,"Ġrele":919,"hn":920,"ict":921,"ton":922,"Ġthree":923,"Ġ10":924,"ron":925,"Ġà¤ķà¤¹":926,"à¤¸à¤°":927,"Ġact":928,"als":929,"ĠEn":930,"Ġnum":931,"ook":932,"Ġ0":933,"orld":934,"Ġthrough":935,"Ġso":936,"Ġà¤ľà¤¨":937,"Ġme":938,"ock":939,"Ġà¤¤à¤ķ":940,"Ġacc":941,"Ġrel":942,"à¤Łà¤°":943,"Ġend":944,"à¤¶à¤¨":945,"Ġra":946,"Ġwhile":947,"lect":948,"Ġà¤ĺ":949,"à¤µà¤¤":950,"meric":951,"à¤¨à¤ķ":952,"ĠLe":953,"Ġfl":954,"ters":955,"ĠAmeric":956,"à¤¢":957,"Ġsub":958,"Ġpos":959,"ral":960,"ular":961,"Ġ]":962,"ever":963,"Ġà¤Ľ":964,"Ġass":965,"ating":966,"Ġver":967,"Ġwhere":968,"ames":969,"ck":970,"Ġreg":971,"ener":972,"ĠCom":973,"Ġday":974,"Ġsecond":975,"Ġform":976,"Ġà¤¸à¤ķà¤¤":977,"Ġbu":978,"aid":979,"ĠRe":980,"ision":981,"à¤¹à¤°":982,"Ġmade":983,"hes":984,"Ġpe":985,"ived":986,"Ġ17":987,"Ġdef":988,"Ġrecord":989,"son":990,"Ġfollow":991,"Ġgro":992,"Ġà¤²à¤Ĺ":993,"bum":994,"Ġfour":995,"Ġà¤īà¤¸":996,"Ġsome":997,"Ġseason":998,"Ġ000":999,"à¤¯à¤¨":1000,"Ġsuch":1001,"Ġam":1002,"Ġep":1003,"ool":1004,"à¤¼à¥Ģ":1005,"Ġà¤īà¤¨à¤ķ":1006,"ished":1007,"Ġmov":1008,"à¤°à¤¹":1009,"Ġ15":1010,"Ġbefore":1011,"ĠSp":1012,"Ġthere":1013,"hen":1014,"Ġtra":1015,"ics":1016,"Ġmus":1017,"Ġwrit":1018,"Ġspec":1019,"à¤²à¤¨":1020,"io":1021,"Ġ198":1022,"iel":1023,"ike":1024,"ode":1025,"Ġsy":1026,"ĠJo":1027,"Ġà¤ħà¤²":1028,"Ġ12":1029,"ual":1030,"Ġyears":1031,"Ġteam":1032,"ĠAt":1033,"Ġind":1034,"ident":1035,"ĠThis":1036,"Ġused":1037,"ĠSh":1038,"Ġlar":1039,"ros":1040,"ning":1041,"Ġalbum":1042,"ily":1043,"owever":1044,"Ġhigh":1045,"ank":1046,"Ġent":1047,"à¤Ĺà¤°":1048,"ik":1049,"ific":1050,"Ġcall":1051,"à¤¬à¤°":1052,"Ġsur":1053,"Ġac":1054,"Ġ[":1055,"Ġbl":1056,"ury":1057,"Ġpubl":1058,"Ġà¤µà¤¹":1059,"Ġbeing":1060,"Ġdo":1061,"Ġthen":1062,"Ġepis":1063,"aj":1064,"ained":1065,"ten":1066,"led":1067,"Ġloc":1068,"Ġexp":1069,"velop":1070,"ife":1071,"Ġ194":1072,"ris":1073,"Ġinv":1074,"à¤µà¤¨":1075,"Ġagainst":1076,"Ġadd":1077,"Ġnumber":1078,"Ġpres":1079,"Ġ16":1080,"Ġà¤ªà¤¹à¤²":1081,"Ġshow":1082,"other":1083,"à¤²à¤¤":1084,"Ġcharac":1085,"ĠâĢĶ":1086,"ious":1087,"Ġset":1088,"ject":1089,"ĠAfter":1090,"à¤¸à¤®":1091,"Ġsever":1092,"Ġco":1093,"Ġ197":1094,"à¤¯à¤®":1095,"à¤ŀ":1096,"ek":1097,"ince":1098,"ars":1099,"ause":1100,"Ġno":1101,"rans":1102,"Ġrece":1103,"Ġbecame":1104,"ĠBrit":1105,"Ġlead":1106,"Ġsing":1107,"ines":1108,"Ġperform":1109,"ins":1110,"ather":1111,"Ġincluding":1112,"Ġ11":1113,"à¤¯à¤°":1114,"air":1115,"Ġ196":1116,"Ġback":1117,"Ġà¤Ī":1118,"Ġfound":1119,"ale":1120,"Ġmon":1121,"ĠUnited":1122,"Ġrep":1123,"ĠSc":1124,"Ġwell":1125,"Ġpol":1126,"ier":1127,"Ġboth":1128,"Ġcap":1129,"à¤¸à¤¨":1130,"ram":1131,"Ġseries":1132,"ĠCon":1133,"its":1134,"ober":1135,"ower":1136,"ement":1137,"Ġgo":1138,"ert":1139,"Ġ%":1140,"ired":1141,"ures":1142,"Ġship":1143,"ley":1144,"pen":1145,"ĠWh":1146,"ivers":1147,"Ġmain":1148,"à¤ĺ":1149,"ĠShe":1150,"Ġmin":1151,"iet":1152,"olog":1153,"der":1154,"ven":1155,"overn":1156,"Ġcre":1157,"Ġdid":1158,"Ġmet":1159,"Ġà¥§à¥":1160,"à¤Ĺà¤¤":1161,"elf":1162,"Ġimp":1163,"ĠEng":1164,"az":1165,"ll":1166,"à¤¼à¤¿":1167,"ities":1168,"à¤¯à¤¤":1169,"erm":1170,"Ġdevelop":1171,"Ġà¤ķà¤®":1172,"Ġlong":1173,"Ġà¤¬à¤¹":1174,"any":1175,"iver":1176,"ting":1177,"ised":1178,"ann":1179,"uch":1180,"Ġem":1181,"ane":1182,"ared":1183,"ful":1184,"ird":1185,"Ġ13":1186,"à¤·à¤£":1187,"ĠJohn":1188,"irect":1189,"Ġmat":1190,"Ġmill":1191,"Ġair":1192,"tend":1193,"à¤ļà¤¨":1194,"Ġepisode":1195,"ative":1196,"ĠInd":1197,"ute":1198,"ah":1199,"ash":1200,"Ġstud":1201,"Ġmany":1202,"Ġsaid":1203,"Ġbro":1204,"Ġdep":1205,"Ġcar":1206,"Ġcould":1207,"ĠCl":1208,"Ġwar":1209,"Ġorig":1210,"ield":1211,"Ġdif":1212,"Ġcontin":1213,"Ġinst":1214,"Ġseveral":1215,"ĠAmerican":1216,"ise":1217,"though":1218,"ouse":1219,"Ġpop":1220,"emb":1221,"ty":1222,"Ġknown":1223,"ually":1224,"Ġany":1225,"Ġà¤¸à¤¬":1226,"Ġconc":1227,"à¤²à¤¯":1228,"til":1229,"ĠAust":1230,"iam":1231,"à¤®à¤¨":1232,"ĠZ":1233,"Ġreturn":1234,"erson":1235,"view":1236,"Ġà¤ĩà¤¸à¤ķ":1237,"Ġob":1238,"ern":1239,"Ġsm":1240,"Ġart":1241,"ĠDe":1242,"ĠWar":1243,"Ġdesign":1244,"Ġà¤īà¤¸à¤ķ":1245,"ued":1246,"Ġcomple":1247,"erman":1248,"Ġ14":1249,"à¤ĩà¤¨":1250,"Ġtrans":1251,"Ġbegan":1252,"ism":1253,"Ġdesc":1254,"Ġsign":1255,"à¤®à¤ķ":1256,"ople":1257,"ross":1258,"chool":1259,"my":1260,"Ġprov":1261,"Ġinf":1262,"oot":1263,"Ġà¤ıà¤µ":1264,"à¤°à¤¯":1265,"Ġest":1266,"ccess":1267,"ĠBl":1268,"Ġfeat":1269,"aking":1270,"Ġ$":1271,"anc":1272,"Ġ195":1273,"ided":1274,"Ġrun":1275,"ĠUS":1276,"Ġdist":1277,"ax":1278,"ized":1279,"Ġearly":1280,"à¤¦à¤°":1281,"Ġà¤ĵ":1282,"Ġown":1283,"Ġmusic":1284,"Ġnear":1285,"xt":1286,"Ġreleased":1287,"ĠCol":1288,"Ġcalled":1289,"Ġeff":1290,"Ġuntil":1291,"Ġbel":1292,"ists":1293,"à¤ĩà¤¸à¤ķ":1294,"stem":1295,"imes":1296,"rid":1297,"Ġresp":1298,"Ġph":1299,"une":1300,"enn":1301,"Ġpass":1302,"ured":1303,"Ġà¤¸à¤®à¤¯":1304,"Ġfin":1305,"ution":1306,"Ġà¤Ĩà¤§":1307,"ially":1308,"ĠMay":1309,"Ġdisc":1310,"Ġdown":1311,"ments":1312,"Ġà¤ħà¤°":1313,"Ġà¤ĳ":1314,"Ġgener":1315,"Ġcrit":1316,"ink":1317,"ium":1318,"osed":1319,"Ġdirect":1320,"Ġins":1321,"ull":1322,"ger":1323,"Ġalong":1324,"eb":1325,"Ġmay":1326,"Ġmillion":1327,"Ġgroup":1328,"Ġmod":1329,"vent":1330,"Ġà¤¸à¤¹":1331,"à¤¼à¥ĩ":1332,"Ġ193":1333,"Ġoffic":1334,"ĠBritish":1335,"ĠGerman":1336,"Ġthese":1337,"Ġfam":1338,"Ġà¥¨":1339,"Ġà¤ħà¤Ń":1340,"cept":1341,"Ġuse":1342,"ange":1343,"ajor":1344,"ĠAd":1345,"à¤°à¤µ":1346,"Ġopen":1347,"uc":1348,"Ġmil":1349,"Ġpoin":1350,"ĠBe":1351,"Ġsim":1352,"à¤µà¤¸":1353,"à¤¤à¤¨":1354,"Ã©":1355,"gg":1356,"yp":1357,"Ġhist":1358,"Ġland":1359,"Ġà¤ħà¤®":1360,"ĠAug":1361,"Ġgovern":1362,"erv":1363,"ĠSept":1364,"ible":1365,"Ġsuccess":1366,"ets":1367,"ys":1368,"Ġcount":1369,"Ġsame":1370,"ĠSeptember":1371,"Ġà¤Ĳ":1372,"ĠAugust":1373,"Ġgu":1374,"ĠWorld":1375,"ĠAp":1376,"Ġclass":1377,"Ġoper":1378,"ĠStates":1379,"à¤Łà¤¨":1380,"Ġed":1381,"Ġattack":1382,"Ġ191":1383,"Ġpeople":1384,"amed":1385,"ĠIs":1386,"wards":1387,"aced":1388,"Ġdescrib":1389,"Ġbecause":1390,"Ġà¤ķà¤Ī":1391,"ĠFor":1392,"els":1393,"Ġcharacter":1394,"Ġlike":1395,"ĠAll":1396,"ĠQ":1397,"Ġvi":1398,"Ġserv":1399,"Ġà¤¸à¤°":1400,"Ġà¤¸à¤Ń":1401,"ĠPl":1402,"ged":1403,"ĠJu":1404,"ĠFran":1405,"Ġstart":1406,"Ġà¤ĩà¤¨":1407,"ring":1408,"ues":1409,"Ġà¤Ĩà¤¦":1410,"Ġaround":1411,"ner":1412,"Ġthough":1413,"Ġkm":1414,"Ġconst":1415,"ruct":1416,"Ġwin":1417,"ĠPh":1418,"ove":1419,"Ġocc":1420,"Ġfollowing":1421,"Ġtook":1422,"aving":1423,"Ġsupport":1424,"ĠAustral":1425,"ĠOct":1426,"Ġbatt":1427,"Ġann":1428,"Ġ30":1429,"Ġà¤ªà¤¤":1430,"Ġele":1431,"Ġsystem":1432,"ĠNov":1433,"uss":1434,"ĠCar":1435,"Ġà¤ľà¤¬":1436,"Ġnorth":1437,"Ġsix":1438,"Ġappear":1439,"ox":1440,"ĠHowever":1441,"ined":1442,"Ġwill":1443,"Ġfinal":1444,"Ġreceived":1445,"Ġhead":1446,"ene":1447,"ives":1448,"à¤ªà¤¤":1449,"Ġ25":1450,"ĠPro":1451,"rad":1452,"ants":1453,"Ġconsid":1454,"ically":1455,"à¤ķà¤²":1456,"ĠOctober":1457,"ility":1458,"Ġprom":1459,"ret":1460,"Ġ>":1461,"ling":1462,"Ġaut":1463,"ĠDec":1464,"Ġà¤¬à¤¡":1465,"Ġever":1466,"gin":1467,"Ġeach":1468,"Ġvar":1469,"Ġstate":1470,"Ġbuild":1471,"Ġext":1472,"¯à¥":1473,"get":1474,"rol":1475,"Ġà¤°à¤ĸ":1476,"anu":1477,"rist":1478,"Ġfive":1479,"Ġsmall":1480,"Ġcentury":1481,"ĠYork":1482,"Ġpartic":1483,"Ġarea":1484,"ately":1485,"oss":1486,"Ġà¤¸à¤¬à¤¸":1487,"ĠThey":1488,"ection":1489,"Ġlife":1490,"ĠNorth":1491,"ĠMe":1492,"iving":1493,"ril":1494,"Ġreport":1495,"Ġ192":1496,"Ġà¤īà¤¦":1497,"ina":1498,"Ġref":1499,"à¤ĥ":1500,"tle":1501,"ored":1502,"Ġà¤Ĺà¤ı":1503,"à¥ģà¤Ĥ":1504,"ians":1505,"ĠBy":1506,"ĠJune":1507,"ording":1508,"Ġmar":1509,"Ġcity":1510,"à¤¤à¤ķ":1511,"à¤µà¤²":1512,"ĠKing":1513,"ped":1514,"Ġà¤Ĺà¤Ī":1515,"ission":1516,"Ġconf":1517,"Ġmajor":1518,"Ġpublic":1519,"Ġà¤¦à¤°":1520,"Ġweek":1521,"inc":1522,"ĠHar":1523,"ĠJuly":1524,"med":1525,"Ġband":1526,"ĠComm":1527,"à¤®à¤¤":1528,"à¥įâĢ":1529,"ĠNovember":1530,"raph":1531,"urch":1532,"Ġmed":1533,"Ġrest":1534,"por":1535,"lish":1536,"Ġworld":1537,"ĠWill":1538,"Ġsince":1539,"ble":1540,"Ġsingle":1541,"esp":1542,"Ġdet":1543,"raft":1544,"à¤¡à¤²":1545,"oard":1546,"omet":1547,"ains":1548,"ional":1549,"Ġjust":1550,"ĠApril":1551,"ĠMc":1552,"ried":1553,"ural":1554,"Ġà¤ķà¤²":1555,"ĠMarch":1556,"Ġlast":1557,"ected":1558,"Ġhel":1559,"ĠEd":1560,"Ġà¤Ĩà¤¯":1561,"cl":1562,"Ġallow":1563,"Ġpo":1564,"hest":1565,"aim":1566,"à¤Ŀ":1567,"ively":1568,"ient":1569,"Ġturn":1570,"à¤ķà¤°à¤£":1571,"ilt":1572,"ĠCan":1573,"Ġleft":1574,"Ġif":1575,"ĠGe":1576,"à¤¤à¤®":1577,"Ġdiffer":1578,"vious":1579,"Ġline":1580,"ats":1581,"à¤°à¤Ń":1582,"ĠII":1583,"ĠÂ":1584,"Ġlarge":1585,"ified":1586,"Ġnow":1587,"ales":1588,"ĠSouth":1589,"Ġstr":1590,"Ġcare":1591,"Ġsouth":1592,"Ġadv":1593,"Ġvers":1594,"Ġbook":1595,"Ġdr":1596,"ĠDuring":1597,"Ġsl":1598,"empt":1599,"Ġname":1600,"Ġschool":1601,"Ġthird":1602,"ague":1603,"ĠDecember":1604,"Ġmonth":1605,"Ġtit":1606,"Ġà¤®à¤¨":1607,"Ġincre":1608,"avy":1609,"ĠPr":1610,"ages":1611,"à¤¶à¤ķ":1612,"Ġappro":1613,"Ġà¤Ĩà¤°":1614,"row":1615,"Ġdue":1616,"Ġport":1617,"Ġmuch":1618,"Ġanother":1619,"Ġevent":1620,"à¤¦à¤¨":1621,"Ġwhat":1622,"Ġplayed":1623,"..":1624,"Ġincluded":1625,"ne":1626,"Ġplace":1627,"rote":1628,"ĠJanu":1629,"ĠJanuary":1630,"Ġbased":1631,"Ġshort":1632,"ony":1633,"Ġexpl":1634,"rent":1635,"Ġperson":1636,"ps":1637,"ont":1638,"Ġ100":1639,"Ġgovernment":1640,"Ġ21":1641,"Ġpar":1642,"Ġelect":1643,"ball":1644,"ĠWhen":1645,"Ġwrote":1646,"Ġtrack":1647,"ple":1648,"Ġbre":1649,"à¤Ĺà¤²":1650,"Ġà¤ªà¤¦":1651,"Ġold":1652,"apan":1653,"ĠEu":1654,"alf":1655,"Ġcamp":1656,"ĠOr":1657,"Ġprot":1658,"oad":1659,"ently":1660,"Ġdeath":1661,"Ġeng":1662,"ience":1663,"Ġ2010":1664,"by":1665,"ĠJapan":1666,"Ġ...":1667,"Ġrequ":1668,"Ġlit":1669,"Ġwon":1670,"Ġ2008":1671,"Ġchild":1672,"Ġà¤ħà¤ķ":1673,"Ġprog":1674,"Ġà¤ħà¤µ":1675,"ody":1676,"à¤īà¤¨":1677,"Ġpower":1678,"ital":1679,"ĠTe":1680,"ideo":1681,"Ġkill":1682,"Ġvis":1683,"Ġstory":1684,"Ġà¤¸à¤¦":1685,"ott":1686,"ĠBro":1687,"à¥įâĢį":1688,"Ġreview":1689,"eng":1690,"à¤µà¤¹":1691,"Ġ2009":1692,"Ġà¤īà¤ªà¤¯":1693,"Ġhome":1694,"Ġled":1695,"Ġright":1696,"oman":1697,"Ġ24":1698,"Ġfamily":1699,"yl":1700,"Ġprevious":1701,"Ġdescribed":1702,"Ġway":1703,"rand":1704,"Ġgun":1705,"ĠâĢĻ":1706,"reen":1707,"Ġnamed":1708,"Ġmake":1709,"iven":1710,"iod":1711,"ĠMus":1712,"Ġdem":1713,"tain":1714,"cy":1715,"ilar":1716,"urther":1717,"Ġorgan":1718,"Ġeven":1719,"ĠGu":1720,"Ġmen":1721,"ister":1722,"embers":1723,"iversity":1724,"omin":1725,"Ġrepl":1726,"Ġattempt":1727,"Ġbest":1728,"itions":1729,"à¥¦à¥":1730,"Ġcour":1731,"ior":1732,"ivision":1733,"Ġopp":1734,"Ġterm":1735,"Ġleg":1736,"eter":1737,"Ġ22":1738,"Ġ2007":1739,"rench":1740,"Ġposs":1741,"ĠAnd":1742,"Ġhand":1743,"sh":1744,"ival":1745,"mp":1746,"Ġgames":1747,"ĠFl":1748,"ached":1749,"Ġvery":1750,"Ġà¤Ĭ":1751,"Ġcommand":1752,"Ġinclude":1753,"Ġthose":1754,"Ġtop":1755,"Ġà¤Ĩà¤µ":1756,"Ġbelie":1757,"Ġdam":1758,"Ġlist":1759,"ĠHis":1760,"ĠNational":1761,"ĠEurop":1762,"Ġ&":1763,"ĠFeb":1764,"Ġiss":1765,"Ġstill":1766,"ĠX":1767,"Ġ2011":1768,"ruary":1769,"ĠFebruary":1770,"ences":1771,"Ġeffect":1772,"Ġview":1773,"Ġnext":1774,"Ġspecies":1775,"Ġà¤ħà¤¤":1776,"ĠChrist":1777,"riend":1778,"oci":1779,"ched":1780,"ature":1781,"alk":1782,"Ġspe":1783,"ĠThere":1784,"aken":1785,"Ġoriginal":1786,"ĠWe":1787,"Ġyou":1788,"Ġwater":1789,"lu":1790,"Ġà¤ħà¤¸":1791,"au":1792,"Ġaddition":1793,"ness":1794,"ĠBar":1795,"Ġjoin":1796,"Ġmark":1797,"Ġperiod":1798,"ĠEurope":1799,"à¤§à¤¨":1800,"hor":1801,"ĠAm":1802,"af":1803,"Ġwithin":1804,"Ġà¤ħà¤ª":1805,"Ġ23":1806,"Ġcur":1807,"Ġmembers":1808,"ĠPar":1809,"Ġexper":1810,"Ġdeb":1811,"Ġbuilt":1812,"Ġà¤Īà¤¸":1813,"Ġà¤¤à¤°à¤¹":1814,"Ġheld":1815,"ĠFrench":1816,"Ġà¤Ĩà¤¤":1817,"Ġrelease":1818,"rew":1819,"Ġmatch":1820,"Ġgreat":1821,"Ġalthough":1822,"Ġformer":1823,"Ġlate":1824,"ridge":1825,"ney":1826,"augh":1827,"uted":1828,"tended":1829,"Ġdest":1830,"Ġsold":1831,"line":1832,"Ġà¤ªà¤¶":1833,"Ġtem":1834,"ech":1835,"Ġvideo":1836,"Ġcaus":1837,"ĠWest":1838,"Ġcover":1839,"ption":1840,"ves":1841,"Ġinit":1842,"Ġstorm":1843,"Ġtri":1844,"na":1845,"hel":1846,"à¤ªà¤ķ":1847,"ĠWilliam":1848,"ropical":1849,"Ġrole":1850,"self":1851,"Ġresult":1852,"Ġstand":1853,"Ġestab":1854,"Ġpresent":1855,"Ġcame":1856,"oon":1857,"Ġ2012":1858,"Ġdays":1859,"ances":1860,"ulation":1861,"Ġcontrol":1862,"Ġmid":1863,"lev":1864,"Ġreal":1865,"aged":1866,"Ġpolit":1867,"let":1868,"ham":1869,"Ġhowever":1870,"ĠMin":1871,"atic":1872,"itary":1873,"ĠMan":1874,"aster":1875,"ides":1876,"Ġprop":1877,"ograph":1878,"ense":1879,"ator":1880,"Ġà¤¹à¤®":1881,"Ġequ":1882,"Ġfew":1883,"Ġwind":1884,"omb":1885,"à¤°à¤¶":1886,"ĠGeor":1887,"Ġtw":1888,"Ġtown":1889,"Ġpost":1890,"Ġside":1891,"Ġsk":1892,"Ġfun":1893,"Ġà¤Ĳà¤¸":1894,"yle":1895,"19":1896,"ays":1897,"Ġlocal":1898,"ead":1899,"Ġoften":1900,"Ġav":1901,"ĠEar":1902,"Ġ190":1903,"ract":1904,"Ġcontinued":1905,"ĠChar":1906,"à¤¨à¤¤":1907,"Ġ2006":1908,"Ġ<":1909,"elt":1910,"Ġsimilar":1911,"ĠAir":1912,"Ġamong":1913,"ches":1914,"ĠHer":1915,"ology":1916,"Ġtyp":1917,"ruction":1918,"Ġhum":1919,"ĠNo":1920,"ĠMich":1921,"omen":1922,"Ġdifferent":1923,"Ġclaim":1924,"estern":1925,"par":1926,"akes":1927,"read":1928,"Ġmy":1929,"ĠEngland":1930,"Ġdel":1931,"reet":1932,"ler":1933,"à¤²à¤¬":1934,"ese":1935,"side":1936,"ĠRec":1937,"ops":1938,"Ġbeh":1939,"esc":1940,"Ġlevel":1941,"Ġà¤¬à¤¢":1942,"Ġ|":1943,"Ġfurther":1944,"ested":1945,"ery":1946,"ots":1947,"Ġsent":1948,"urs":1949,"Ġlaw":1950,"Ġfre":1951,"gy":1952,"ĠDav":1953,"Ġtake":1954,"Ġ50":1955,"ĠEl":1956,"ms":1957,"tal":1958,"me":1959,"ards":1960,"Ġconsidered":1961,"Ġà¤¸à¤°à¤ķ":1962,"Ġà¤¦à¤ķ":1963,"Ġà¤ªà¤¡":1964,"ĠEnglish":1965,"ĠOne":1966,"ĠCo":1967,"Ġcareer":1968,"ices":1969,"Ġant":1970,"Ġproduction":1971,"Ġhalf":1972,"ĠPark":1973,"Ġ!":1974,"ĠCity":1975,"Ġhaving":1976,"à¤²à¤ķ":1977,"Ġà¤°à¤¹à¤¤":1978,"ampions":1979,"ĠAcc":1980,"Ġmag":1981,"Ġ27":1982,"ize":1983,"Ġeast":1984,"ering":1985,"ai":1986,"Ġwithout":1987,"Ġcor":1988,"ĠCent":1989,"Ġevery":1990,"Ġ28":1991,"Ġdra":1992,"Ġwest":1993,"Ġroad":1994,"rodu":1995,"Ġmoved":1996,"à¤£à¤¨":1997,"à¤ķà¤¨":1998,"Ġcr":1999,"ining":2000,"Ġplan":2001,"vers":2002,"Ġà¤¹à¤°":2003,"Ġà¤¤à¤¹":2004,"Ġversion":2005,"ĠAlthough":2006,"Ġposition":2007,"ĠCal":2008,"Ġel":2009,"Ġhistory":2010,"Ġarr":2011,"Ġbecome":2012,"Ġappe":2013,"Ġplayer":2014,"ront":2015,"ones":2016,"Ġ2013":2017,"ĠAng":2018,"20":2019,"Ġcommun":2020,"ford":2021,"Ġtro":2022,"ondon":2023,"à¤Ńà¤Ĺ":2024,"ĠCount":2025,"Ġcast":2026,"app":2027,"Ġà¤¶à¤¹à¤°":2028,"irc":2029,"Ġà¤ļà¤²":2030,"Ġinflu":2031,"à¤°à¤¨":2032,"Ġgr":2033,"rig":2034,"ĠLondon":2035,"aul":2036,"Ġsound":2037,"resent":2038,"Ġfore":2039,"Ġ26":2040,"Ġhouse":2041,"à¤¡à¤°":2042,"Ġ40":2043,"Ġsugg":2044,"Ġstrong":2045,"ae":2046,"atter":2047,"ĠBatt":2048,"à¤ĸà¤¨":2049,"Ġinvol":2050,"roy":2051,"Ġclub":2052,"Ġà¤§à¤°":2053,"Ġrefer":2054,"aining":2055,"Ġstat":2056,"Ġwritten":2057,"Ġbas":2058,"iqu":2059,"Ġà¤®à¤¹à¤¤":2060,"Ġà¥§à¥¯à¥":2061,"à¤Łà¤ķ":2062,"Ġless":2063,"Ġorder":2064,"utes":2065,"ĠWith":2066,"oung":2067,"rest":2068,"Ġannoun":2069,"ald":2070,"ung":2071,"ĠRiver":2072,"Ġfoot":2073,"iety":2074,"iment":2075,"Ġgiven":2076,"Ġpoint":2077,"ges":2078,"Ġwant":2079,"Ġrad":2080,"Ġprof":2081,"ĠCanad":2082,"Ġà¤ĵà¤°":2083,"craft":2084,"Ġaff":2085,"Ġke":2086,"sp":2087,"sequ":2088,"ĠUniversity":2089,"à¤ĩà¤Ł":2090,"ĠGener":2091,"ories":2092,"Ġlow":2093,"isc":2094,"Ġtrad":2095,"Ġhig":2096,"ille":2097,"Ġpat":2098,"ĠAb":2099,"arm":2100,"Ġimport":2101,"Ġchang":2102,"ration":2103,"ĠPol":2104,"Ġgave":2105,"ĠHigh":2106,"uck":2107,"cess":2108,"aff":2109,"Ġà¤ľà¤¹":2110,"Ġnever":2111,"à¤ľà¤°":2112,"Ġsoc":2113,"ĠEx":2114,"Ġcomb":2115,"Ġdefe":2116,"ĠWhile":2117,"ĠTr":2118,"Ġfact":2119,"Ġreturned":2120,"Ġtotal":2121,"Ġgood":2122,"Ġcountry":2123,"Ġà¤¶à¤¬":2124,"à¤¨à¤°":2125,"Ġvict":2126,"Ġ189":2127,"ention":2128,"echn":2129,"Ġfind":2130,"ison":2131,"Ġcompany":2132,"Ġshould":2133,"ours":2134,"ailed":2135,"con":2136,"Ġfire":2137,"rick":2138,"Ġà¤¬à¤ļ":2139,"Ġer":2140,"Ġfriend":2141,"Ġà¤Ĩà¤¨":2142,"Ġwent":2143,"aun":2144,"yn":2145,"Ġcapt":2146,"Ġpublished":2147,"Ġà¤®à¤§":2148,"Ġcommon":2149,"Ġproduced":2150,"à¤¬à¤¨":2151,"Ġneed":2152,"amb":2153,"ĠSm":2154,"aying":2155,"levision":2156,"Ġorigin":2157,"Ġusing":2158,"Ġreported":2159,"Ġprogram":2160,"min":2161,"à¤µà¤ª":2162,"Ġ2014":2163,"aign":2164,"Ġ2005":2165,"Ġlost":2166,"Ġstated":2167,"Ġparticular":2168,"ape":2169,"ington":2170,"Ġlight":2171,"ument":2172,"Ġord":2173,"ests":2174,"Ġproject":2175,"ably":2176,"à¤¨à¤¸":2177,"ĠNe":2178,"à¤ıà¤ķ":2179,"Ġlarg":2180,"Ġcompet":2181,"used":2182,"Ġà¤¤à¤°":2183,"ĠAccording":2184,"ush":2185,"urric":2186,"ief":2187,"Ġpress":2188,"à¤¥à¤®":2189,"Ġbuilding":2190,"Ġrecorded":2191,"ĠSte":2192,"Ġforces":2193,"Ġnort":2194,"Ġships":2195,"iness":2196,"ĠSw":2197,"Ġeight":2198,"Ġide":2199,"osp":2200,"Ġperformance":2201,"Ġservice":2202,"Ġtimes":2203,"bs":2204,"ploy":2205,"Ġ29":2206,"Ġpopular":2207,"à¤°à¤¦à¤°":2208,"ĠThese":2209,"Ġmaking":2210,"atch":2211,"Ġauthor":2212,"lear":2213,"Ġà¤ľà¤²":2214,"Ġread":2215,"Ġten":2216,"Ġsol":2217,"ĠAss":2218,"Ġaircraft":2219,"ĠSec":2220,"oyal":2221,"Ġà¤ħà¤²à¤Ĺ":2222,"Ġlim":2223,"Ġsit":2224,"Ġhimself":2225,"Ġmilitary":2226,"Ġfather":2227,"Ġanim":2228,"ases":2229,"ĠAustralia":2230,"Ġà¤Ŀ":2231,"Ġtitle":2232,"ampionship":2233,"Ġsomet":2234,"ither":2235,"ned":2236,"Ġbattle":2237,"ĠJack":2238,"ords":2239,"ĠAf":2240,"Ġhow":2241,"Ġgl":2242,"mit":2243,"Ġsongs":2244,"Ġbus":2245,"eth":2246,"outher":2247,"Ġsw":2248,"ensive":2249,"itive":2250,"Ġdevelopment":2251,"alth":2252,"à¤Łà¤²":2253,"Ġcritic":2254,"ĠCor":2255,"ĠGeneral":2256,"Ġget":2257,"Ġà¤²à¤Ĺà¤Ńà¤Ĺ":2258,"ĠSy":2259,"oll":2260,"Ġsqu":2261,"eder":2262,"ĠState":2263,"cer":2264,"outhern":2265,"Ġcross":2266,"ĠJames":2267,"com":2268,"Ġrepresent":2269,"à¤®à¤²":2270,"acy":2271,"ries":2272,"Ġstyle":2273,"Ġground":2274,"ks":2275,"Ġstar":2276,"Ġft":2277,"Ġdestroy":2278,"Ġcharacters":2279,"Ġà¤ĳà¤«":2280,"aur":2281,"work":2282,"Ġste":2283,"rie":2284,"à¥¨":2285,"Ġbo":2286,"à¤¨à¤µ":2287,"astern":2288,"ĠComp":2289,"à¤ķà¤¸":2290,"Ġremained":2291,"Ġnational":2292,"ĠGl":2293,"Ġà¤¬à¤²":2294,"ĠArmy":2295,"ĠPres":2296,"Ġsuff":2297,"Ġgen":2298,"Ġà¤ħà¤¬":2299,"Ġmonths":2300,"dom":2301,"ublic":2302,"Ġter":2303,"Ġsum":2304,"à¤¸à¤²":2305,"à¤¨à¤®":2306,"Ġval":2307,"Ġdied":2308,"Ġred":2309,"Ġdeveloped":2310,"Ġchart":2311,"ency":2312,"fic":2313,"Ġfield":2314,"Ġforce":2315,"Ġà¤¸à¤¦à¤¸":2316,"ole":2317,"ream":2318,"Ġcampaign":2319,"urricane":2320,"Ġà¤¸à¤¤":2321,"lands":2322,"ĠLeague":2323,"Ġchildren":2324,"Ġintrodu":2325,"à¤īà¤¨à¤ķ":2326,"Ġpra":2327,"Ġà¤ķà¤¹à¤¤":2328,"Ġpromot":2329,"Ġtour":2330,"isted":2331,"Ġsignific":2332,"Ġacross":2333,"ael":2334,"ression":2335,"Ġson":2336,"Ġaway":2337,"hern":2338,"Ġà¤ĩà¤¤":2339,"Ġrelations":2340,"Ġofficial":2341,"Ġ2015":2342,"Ġobs":2343,"Ġà¤Ĩà¤ķ":2344,"Ġhistor":2345,"ĠDivision":2346,"lege":2347,"Ġfav":2348,"Ġdiv":2349,"Ġintern":2350,"Ġbegin":2351,"Ġfac":2352,"ĠAmerica":2353,"Ġfelt":2354,"ĠSim":2355,"alt":2356,"ĠSup":2357,"à¤¨à¤²":2358,"Ġà¤īà¤ļ":2359,"Ġnoted":2360,"Ġcreated":2361,"most":2362,"Ġnight":2363,"ĠRuss":2364,"Ġannounced":2365,"Ġ2004":2366,"Ġreached":2367,"ĠMon":2368,"Ġ31":2369,"hem":2370,"ĠRep":2371,"Ġareas":2372,"à¤®à¤°":2373,"ĠCounty":2374,"Ġcoun":2375,"Ġtelevision":2376,"play":2377,"Ġ188":2378,"ĠMad":2379,"à¤¬à¤²":2380,"Ġbar":2381,"Ġsee":2382,"ĠRoad":2383,"Ġstation":2384,"ressed":2385,"Ġ?":2386,"iting":2387,"ĠJapanese":2388,"ization":2389,"ĠGr":2390,"à¤ķà¤¤":2391,"Ġrock":2392,"Ġsuccessful":2393,"Ġvarious":2394,"ope":2395,"ising":2396,"Ġarm":2397,"imately":2398,"Ġà¤¸à¤¨":2399,"à¤µà¤µ":2400,"Ġseen":2401,"iber":2402,"Ġfollowed":2403,"Ġpolitical":2404,"ĠStreet":2405,"Ġtoo":2406,"ett":2407,"field":2408,"Ġaver":2409,"ality":2410,"Ġnon":2411,"Ġfull":2412,"Ġrank":2413,"ĠEast":2414,"Ġ2000":2415,"Ġcult":2416,"reg":2417,"ata":2418,"cast":2419,"Ġcond":2420,"ĠPart":2421,"ĠRober":2422,"Ġperformed":2423,"Ġblack":2424,"Ġprim":2425,"Ġcirc":2426,"à¤ľà¤¬":2427,"duct":2428,"Ġprocess":2429,"Ġrev":2430,"ĠSer":2431,"Ġput":2432,"elling":2433,"Ġserved":2434,"Ġdecl":2435,"ĠGeorge":2436,"Ġplayers":2437,"Ġhelp":2438,"Ġlook":2439,"olution":2440,"Ġlet":2441,"umb":2442,"Ġfle":2443,"ana":2444,"Ġà¤®à¤£":2445,"ĠTo":2446,"rict":2447,"abor":2448,"Ġvol":2449,"ying":2450,"Ġà¤¶à¤ķ":2451,"Ġconv":2452,"Ġearl":2453,"ĠHen":2454,"ĠReg":2455,"idence":2456,"Ġcost":2457,"ee":2458,"Ġcy":2459,"ĠPhil":2460,"Ġwid":2461,"Ġseven":2462,"à¤¯à¤µà¤¸":2463,"ground":2464,"à¥®":2465,"ĠPer":2466,"Ġaud":2467,"Ġtechn":2468,"Ġtaken":2469,"Ġkilled":2470,"Ġident":2471,"Ġcop":2472,"ĠBill":2473,"lished":2474,"Ġable":2475,"Ġdoes":2476,"ertain":2477,"Ġthroughout":2478,"ination":2479,"Ġtropical":2480,"ĠSch":2481,"Ġà¤¶à¤°":2482,"urg":2483,"Ġlittle":2484,"ample":2485,"ecut":2486,"ript":2487,"Ġfight":2488,"Ġdiscover":2489,"ways":2490,"Ġbecom":2491,"Ġagre":2492,"Ġfem":2493,"ula":2494,"Ġsignificant":2495,"Ġage":2496,"Ġspecial":2497,"Ġmeet":2498,"à¤Ĭ":2499,"ĠAct":2500,"à¤¤à¤µ":2501,"ĠThom":2502,"hing":2503,"Ġstruct":2504,"Ġhit":2505,"irl":2506,"Ġwriting":2507,"ius":2508,"ĠMed":2509,"epend":2510,"à¤ıà¤¸":2511,"oice":2512,"Ġmm":2513,"Ġcoll":2514,"ĠMor":2515,"ĠDavid":2516,"Ġ186":2517,"Ġbroad":2518,"Ġfront":2519,"less":2520,"Ġestablished":2521,"cil":2522,"Ġthought":2523,"enced":2524,"urb":2525,"Ġentire":2526,"odes":2527,"Ġbody":2528,"aval":2529,"Ġappeared":2530,"uk":2531,"ĠAustralian":2532,"Ġà¤¨à¤¦":2533,"Ġà¤¤à¤¹à¤¸":2534,"here":2535,"Ġpoints":2536,"Ġimpro":2537,"Ġyoung":2538,"Ġcoast":2539,"Ġaward":2540,"oph":2541,"Ġmiles":2542,"ĠYou":2543,"ĠRich":2544,"Ġarg":2545,"ster":2546,"Ġmember":2547,"Ġrange":2548,"ask":2549,"Ġactiv":2550,"Ġroute":2551,"ought":2552,"ĠQu":2553,"Ġwomen":2554,"int":2555,"ivil":2556,"Ġgeneral":2557,"lected":2558,"iers":2559,"Ġstarted":2560,"day":2561,"Ġfeatures":2562,"ators":2563,"ĠEm":2564,"iron":2565,"Ġà¤¬à¤¦":2566,"Ġcaused":2567,"Ġdecided":2568,"Ġarch":2569,"ĠAfric":2570,"50":2571,"Ġà¤¬à¤°":2572,"den":2573,"ogn":2574,"conom":2575,"Ġà¤ķà¤Ń":2576,"Ġpain":2577,"ĠPe":2578,"iec":2579,"men":2580,"Ġeventually":2581,"Ġadded":2582,"ĠSqu":2583,"à¤¯à¤¦":2584,"ĠRoyal":2585,"Ġ2003":2586,"Ġvot":2587,"à¤²à¤µ":2588,"Ġrace":2589,"board":2590,"aces":2591,"ivid":2592,"itar":2593,"Ġinstead":2594,"ĠHist":2595,"Ġgrow":2596,"Ġmanag":2597,"ara":2598,"Ġhold":2599,"gether":2600,"Ġtogether":2601,"à¤¼à¥į":2602,"ĠIntern":2603,"pped":2604,"Ġwhite":2605,"Ġtre":2606,"ament":2607,"bert":2608,"Ġfeet":2609,"ĠHouse":2610,"à¤ķà¤Ł":2611,"Ġcut":2612,"Ġonce":2613,"rison":2614,"off":2615,"Ġstri":2616,"arch":2617,"Ġlocated":2618,"Ġround":2619,"Ġà¤ł":2620,"Ġconn":2621,"Ġformed":2622,"Ġenc":2623,"Ġnov":2624,"reek":2625,"Ġ187":2626,"ĠPort":2627,"à¤°à¤ª":2628,"Ġmodern":2629,"dle":2630,"ĠIndian":2631,"ĠBlack":2632,"head":2633,"angu":2634,"Ġà¤¸à¤«":2635,"à¤ħà¤¨":2636,"Ġesc":2637,"Ġimportant":2638,"rought":2639,"Ġbr":2640,"Ġball":2641,"emy":2642,"Ġmix":2643,"Ġaction":2644,"Ġà¤ľà¤°":2645,"Ġpri":2646,"cing":2647,"Ġà¤¨à¤µ":2648,"Ġà¤Ĩà¤Ĺ":2649,"Ġsaw":2650,"à¤ªà¤¸":2651,"Ġcrew":2652,"ids":2653,"Ġredu":2654,"ells":2655,"Ġcompleted":2656,"cent":2657,"ects":2658,"ĠItal":2659,"à¤Ĺà¤¢":2660,"ĠMy":2661,"rated":2662,"oney":2663,"stit":2664,"Ġplaying":2665,"à¥«":2666,"ĠOther":2667,"Ġmater":2668,"Ġà¤Ĩà¤µà¤¶":2669,"Ġbase":2670,"Ġmot":2671,"Ġà¤ķà¤ª":2672,"Ġ500":2673,"Ġà¤ĺà¤°":2674,"ule":2675,"à¤°à¤ļ":2676,"Ġask":2677,"Ġpopulation":2678,"Ġinsp":2679,"Ġrather":2680,"Ġâ":2681,"ray":2682,"Ġà¤ĩà¤²":2683,"Ġothers":2684,"Ġoccur":2685,"tt":2686,"Ġsurv":2687,"ĠMichael":2688,"Ġà¤²à¤ķ":2689,"Ġstage":2690,"Ġvoc":2691,"Ġà¤ħà¤Ĺ":2692,"Ġopened":2693,"Ġfall":2694,"Ġren":2695,"Ġbehind":2696,"Ġsite":2697,"asing":2698,"igned":2699,"à¤°à¤¬":2700,"wood":2701,"lin":2702,"Ġcomment":2703,"rap":2704,"ceed":2705,"ements":2706,"Ġguns":2707,"Ġinform":2708,"Ġbrother":2709,"Ġlik":2710,"Ã¡":2711,"Ġfar":2712,"Ġà¤¨à¤Ĺà¤°":2713,"Ġworks":2714,"à¤łà¤¨":2715,"à¤°à¤¥à¤®":2716,"Ġmer":2717,"lection":2718,"à¤¯à¤²":2719,"Ġborn":2720,"Ġ2001":2721,"Ġfif":2722,"Ġlive":2723,"Ġproble":2724,"Ġmiss":2725,"Ġloss":2726,"ĠFrance":2727,"Ġà¥§":2728,"nder":2729,"à¤¥à¤µ":2730,"ows":2731,"à¥¦à¥¦":2732,"Ġbomb":2733,"ĠÂ°":2734,"Ġworked":2735,"ficult":2736,"Ġpred":2737,"ĠMag":2738,"ĠSchool":2739,"Ġsepar":2740,"Ġheavy":2741,"medi":2742,"à¤ĩà¤¡":2743,"ĠSan":2744,"Ġparty":2745,"Ġlack":2746,"lic":2747,"Ġclose":2748,"Ġsubsequ":2749,"istic":2750,"co":2751,"Ġdifficult":2752,"à¥§à¥":2753,"Ġà¤Ĩà¤Ī":2754,"ĠWash":2755,"ĠSome":2756,"Ġhost":2757,"ĠNor":2758,"Ġà¤¬à¤¤":2759,"Ġconstruction":2760,"Ġà¤ªà¤ķ":2761,"Ġrelationship":2762,"ĠÃ":2763,"Ġweeks":2764,"Ġassoci":2765,"à¤°à¤ľ":2766,"Ġcase":2767,"Ġvill":2768,"Ġà¤¸à¤®à¤Ŀ":2769,"Ġexample":2770,"Ġpract":2771,"aps":2772,"Ġoriginally":2773,"Ġà¥°":2774,"Ġreb":2775,"Ġleading":2776,"Ġupon":2777,"ĠHenry":2778,"ica":2779,"ĠAle":2780,"Ġaccom":2781,"orts":2782,"Ġalmost":2783,"Ġappoin":2784,"osition":2785,"ĠRobert":2786,"à¤¯à¤ª":2787,"Ġ2002":2788,"Ġfree":2789,"Ġinj":2790,"Ġprovided":2791,"à¥Ń":2792,"Ġdamage":2793,"Ġpeak":2794,"unk":2795,"à¤·à¤ķ":2796,"Ġaccept":2797,"ĠRed":2798,"ino":2799,"Ġfourth":2800,"ming":2801,"Ġengine":2802,"Ġcreat":2803,"Ġscored":2804,"Ġmult":2805,"ĠVir":2806,"ĠMusic":2807,"Ġreve":2808,"ological":2809,"Ġclos":2810,"ĠStar":2811,"Ġmi":2812,"ĠBest":2813,"Ġgoal":2814,"ĠBattle":2815,"à¤¹à¤®":2816,"Ġinvest":2817,"à¤ĩà¤²":2818,"Ġresul":2819,"Ġhuman":2820,"Ġindivid":2821,"à¤ļà¤°":2822,"Ġz":2823,"oring":2824,"Ġà¤īà¤²":2825,"aut":2826,"Ġscene":2827,"ĠDesp":2828,"icle":2829,"Ġbrought":2830,"ama":2831,"ĠAg":2832,"à¤¹à¤¨":2833,"ĠCap":2834,"Ġleast":2835,"ĠPaul":2836,"Ġà¤Ĩà¤ľ":2837,"Ġfell":2838,"Ġavail":2839,"Ġking":2840,"Ġworking":2841,"ĠMil":2842,"Ġfeatured":2843,"ĠPresident":2844,"Ġallowed":2845,"Ġmother":2846,"à¤ĸà¤£":2847,"Ġlaun":2848,"Ġeither":2849,"à¤¨à¤¨":2850,"Ġplaced":2851,"ĠRou":2852,"Ġsour":2853,"Ġregion":2854,"Ġaverage":2855,"aves":2856,"Ġindust":2857,"Ġtowards":2858,"earch":2859,"iding":2860,"Ġwanted":2861,"of":2862,"ĠHol":2863,"Ġtradition":2864,"Ġbusiness":2865,"ky":2866,"ĠQue":2867,"ĠWashington":2868,"Ġve":2869,"Ġquick":2870,"Ġrespect":2871,"azine":2872,"Ġce":2873,"ving":2874,"Ġoffice":2875,"Ġmaterial":2876,"ĠBel":2877,"à¤¥à¤²":2878,"Ġcurrent":2879,"Ġtroops":2880,"go":2881,"Ġrecogn":2882,"Ġhon":2883,"Ġcritics":2884,"Ġreach":2885,"Ġeconom":2886,"Ġprofess":2887,"Ġruns":2888,"Ġproper":2889,"Ġneg":2890,"ential":2891,"Ġà¤ıà¤¸":2892,"ened":2893,"antic":2894,"ength":2895,"à¤Ĩà¤¤":2896,"Ġà¤ħà¤ļ":2897,"ĠBo":2898,"chie":2899,"Ġwife":2900,"Ġfoc":2901,"Ġà¤µà¤¸":2902,"Ġestim":2903,"Ġmass":2904,"Ġarmy":2905,"Ġsex":2906,"adron":2907,"Ġdou":2908,"Ġinterest":2909,"BC":2910,"à¤¹à¤¤":2911,"Ġdev":2912,"ĠCour":2913,"Ġà¤ıà¤²":2914,"ĠDespite":2915,"Ġgenerally":2916,"Ġ60":2917,"ĠFollow":2918,"uff":2919,"ills":2920,"Ġrail":2921,"Ġ35":2922,"ĠHam":2923,"Ġjoined":2924,"Ġ1990":2925,"ourn":2926,"enes":2927,"ĠAngel":2928,"be":2929,"Ġà¤Ĩà¤®":2930,"Ġà¤Ĩà¤¸":2931,"Ġparticip":2932,"Ġà¤Ĺà¤°":2933,"itch":2934,"ateg":2935,"ĠHall":2936,"Ġknow":2937,"Ġevents":2938,"sc":2939,"Ġfig":2940,"ĠCup":2941,"rey":2942,"ĠGame":2943,"ĠKe":2944,"Ġbelieved":2945,"ze":2946,"ville":2947,"ĠFirst":2948,"ĠDr":2949,"Ġà¤ķà¤µ":2950,"ĠMary":2951,"val":2952,"ĠFollowing":2953,"Ġlangu":2954,"Ġà¤ĩà¤¨à¤ķ":2955,"ĠLa":2956,"Ġreplaced":2957,"ĠMal":2958,"ĠGreat":2959,"ĠGro":2960,"Ġrul":2961,"ĠJe":2962,"ĠLou":2963,"iction":2964,"Ġnomin":2965,"Ġdesigned":2966,"oor":2967,"ification":2968,"Ġgrad":2969,"artment":2970,"Ġvictory":2971,"à¤·à¤¯":2972,"Ġsoon":2973,"Ġmph":2974,"Ġfund":2975,"xic":2976,"erous":2977,"à¤²à¤°":2978,"Ġisland":2979,"ĠEuropean":2980,"Ġhours":2981,"Ġemploy":2982,"ĠTwo":2983,"Ġà¤¤à¤¬":2984,"oms":2985,"Ġpresident":2986,"arn":2987,"uel":2988,"Ġinvolved":2989,"Ġsurf":2990,"rain":2991,"inn":2992,"aled":2993,"Ġbreak":2994,"inf":2995,"à¤°à¤²":2996,"merc":2997,"iff":2998,"ĠMart":2999,"ĠPlay":3000,"ĠChampionship":3001,"Ġfinished":3002,"à¤®à¤¸":3003,"aper":3004,"ĠRoman":3005,"Ġstru":3006,"Ġhor":3007,"asion":3008,"Ġcontrib":3009,"Ġpossible":3010,"aren":3011,"west":3012,"ĠMet":3013,"Ġindic":3014,"ude":3015,"emor":3016,"Ġtest":3017,"Ġà¤¢":3018,"ĠMac":3019,"Ġhy":3020,"Ġsaying":3021,"ĠDan":3022,"Ġà¥«":3023,"Ġcourt":3024,"Ġavailable":3025,"Ġmust":3026,"Ġregular":3027,"Ġlength":3028,"à¤·à¤¤":3029,"Ġopening":3030,"Ġshot":3031,"Ġthreat":3032,"leg":3033,"Ġcenter":3034,"Ġscore":3035,"ki":3036,"ades":3037,"Ġà¤Ĩà¤ª":3038,"ĠDon":3039,"Ġdesp":3040,"Ġremov":3041,"Ġconduct":3042,"oul":3043,"cher":3044,"itte":3045,"Ġill":3046,"Ġdirector":3047,"Ġexist":3048,"Ġhom":3049,"ĠVal":3050,"à¤Ńà¤µ":3051,"Ġtravel":3052,"ecutive":3053,"Ġlargest":3054,"ĠSing":3055,"ishing":3056,"ĠScott":3057,"Ġminutes":3058,"ĠBr":3059,"Ġblock":3060,"ĠCro":3061,"Ġdro":3062,"Ġsouthern":3063,"ĠBer":3064,"Ġhighway":3065,"ĠRoute":3066,"ply":3067,"à¤¯à¤¸":3068,"Ġhard":3069,"ander":3070,"Ġhighest":3071,"Ġly":3072,"ĠFrom":3073,"Ġearlier":3074,"Ġsequ":3075,"ĠWil":3076,"ĠAtl":3077,"ago":3078,"Ġparticularly":3079,"Ġà¤Ńà¤°":3080,"ography":3081,"Ġpercent":3082,"Ġinitially":3083,"anned":3084,"ights":3085,"ĠRepublic":3086,"Ġà¤Ĺà¤¤":3087,"ipp":3088,"Ġtraining":3089,"ĠInternational":3090,"antry":3091,"ĠMid":3092,"ĠKingdom":3093,"asy":3094,"à¤¸à¤¤":3095,"Ġforced":3096,"Ġà¤¶à¤¤":3097,"ĠRes":3098,"hib":3099,"Ġchange":3100,"ĠCharles":3101,"à¤¯à¤¯à¤¨":3102,"ĠPal":3103,"rian":3104,"ĠâĢĺ":3105,"ĠNavy":3106,"Ġpark":3107,"rag":3108,"à¥©":3109,"ems":3110,"bor":3111,"now":3112,"Ġexc":3113,"ĠOff":3114,"Ġrespons":3115,"à¤¸à¤¸":3116,"itor":3117,"uture":3118,"Ġsocial":3119,"Ġquar":3120,"Ġà¤¸à¤®à¤°":3121,"Ġended":3122,"ios":3123,"ĠThomas":3124,"Ġwall":3125,"Ġà¤ħà¤«":3126,"ĠMcC":3127,"Ġturned":3128,"ĠBut":3129,"Ġ1980":3130,"Ġpassed":3131,"ĠDep":3132,"Ġobject":3133,"Ġsuper":3134,"iforn":3135,"atural":3136,"Ġstudio":3137,"ĠWhite":3138,"rup":3139,"Ġregard":3140,"Ġeduc":3141,"Ġbill":3142,"Ġphys":3143,"à¤ĸà¤²":3144,"Ġpriv":3145,"ĠVirgin":3146,"Ġpiec":3147,"Ġpraised":3148,"Ġincreased":3149,"Ġunits":3150,"Ġkeep":3151,"ĠBrown":3152,"Ġ80":3153,"Ġspeed":3154,"Ġnorthern":3155,"Ġhurricane":3156,"heast":3157,"rac":3158,"Ġpast":3159,"Ġ1999":3160,"Ġcentral":3161,"ĠChurch":3162,"Ġsym":3163,"Ġà¤²à¤¡":3164,"ĠCanada":3165,"Ġ1970":3166,"Ġrelig":3167,"to":3168,"sel":3169,"Ġnovel":3170,"ĠMo":3171,"à¤µà¤¯":3172,"ership":3173,"uter":3174,"Ġà¤ļà¤°":3175,"Ġà¤°à¤ļà¤¨":3176,"Ġappearance":3177,"ĠPre":3178,"ĠCaliforn":3179,"key":3180,"ĠSl":3181,"à¤¹à¤°à¤£":3182,"ĠRock":3183,"ique":3184,"ended":3185,"Ġstop":3186,"Ġmeas":3187,"ĠSam":3188,"Ġimmedi":3189,"Ġcou":3190,"ĠBay":3191,"Ġdisp":3192,"ĠSen":3193,"ference":3194,"à¥ª":3195,"ĠMer":3196,"ocr":3197,"Ġchurch":3198,"ston":3199,"ĠTi":3200,"ĠSmith":3201,"Ġtreat":3202,"Ġ36":3203,"Ġordered":3204,"ĠIndia":3205,"aughter":3206,"à¥¬":3207,"Ġabove":3208,"à¤°à¤§":3209,"etwork":3210,"Ġmove":3211,"Ġindepend":3212,"ĠRichard":3213,"rying":3214,"Ġtaking":3215,"ĠAlex":3216,"à¤¥à¤¨":3217,"ecess":3218,"Ġbetter":3219,"ump":3220,"Ġlove":3221,"Ġap":3222,"ma":3223,"Ġsigned":3224,"ilities":3225,"Ġachie":3226,"Ġà¤īà¤ªà¤²à¤¬":3227,"Ġbeginning":3228,"Ġsection":3229,"ĠCalifornia":3230,"Ġ2016":3231,"Ġpers":3232,"ĠUnion":3233,"ĠGovern":3234,"itz":3235,"ĠGod":3236,"aker":3237,"arily":3238,"à¤Ĺà¤¨":3239,"Ġà¤°à¤ķ":3240,"ume":3241,"anks":3242,"Ġpositive":3243,"Ġenough":3244,"ĠIsland":3245,"Ġcommerc":3246,"nel":3247,"Ġinn":3248,"Ġaccording":3249,"ears":3250,"Ġwat":3251,"Ġwinds":3252,"Ġ32":3253,"ĠCourt":3254,"Ġquest":3255,"à¤Ĺà¤®":3256,"Ġrequired":3257,"Ġpot":3258,"ĠÂ£":3259,"apt":3260,"Ġpur":3261,"ĠBra":3262,"Ġclear":3263,"Ġfeel":3264,"Ġgoing":3265,"Ġspan":3266,"Ġsubject":3267,"Ġhous":3268,"uation":3269,"Ġ45":3270,"Ġoutside":3271,"usion":3272,"Ġspent":3273,"ittee":3274,"Ġmean":3275,"ĠAc":3276,"Ġslow":3277,"Ġfilms":3278,"ĠCong":3279,"Ġà¤ľà¤¬à¤ķ":3280,"ĠArt":3281,"ĠUp":3282,"Ġà¤®à¤¸":3283,"berg":3284,"ĠVict":3285,"ĠAssoci":3286,"Ġ70":3287,"ĠAward":3288,"van":3289,"Ġ00":3290,"Ġstates":3291,"à¤īà¤¸":3292,"anding":3293,"Ġtold":3294,"Ġfootball":3295,"atin":3296,"elled":3297,"Ġpreviously":3298,"à¥ĥà¤Ĥ":3299,"Ġrecording":3300,"ĠTom":3301,"Ġelements":3302,"ĠCompany":3303,"Ġ+":3304,"Ġnine":3305,"Ġprob":3306,"Ġcome":3307,"Ġphot":3308,"oid":3309,"Ġlower":3310,"osing":3311,"Ġassist":3312,"Ġfailed":3313,"ĠStud":3314,"ida":3315,"reng":3316,"Ġey":3317,"Ġthink":3318,"ĠUK":3319,"ex":3320,"Ġitself":3321,"Ġparts":3322,"Ġcru":3323,"edy":3324,"ĠMark":3325,"Ġabs":3326,"ĠGermany":3327,"ĠGold":3328,"Ġà¤®à¤¤":3329,"alion":3330,"Ġaccess":3331,"à¥Ĥà¤Ĥ":3332,"ibility":3333,"Ġche":3334,"Ġà¤¬à¤¦à¤²":3335,"nes":3336,"ranch":3337,"Ġreviews":3338,"Ġsil":3339,"Ġà¤¤à¤¤":3340,"ĠChristian":3341,"Ġinterview":3342,"Ġbi":3343,"oke":3344,"Ġnar":3345,"Ġà¥©":3346,"ĠPeter":3347,"ĠNY":3348,"à¤Ĩà¤Ī":3349,"Ġflow":3350,"isl":3351,"Ġesp":3352,"Ġ1998":3353,"ready":3354,"Ġdirected":3355,"Ġà¤¸à¤ª":3356,"ĠPat":3357,"Ġcred":3358,"amer":3359,"minist":3360,"Ġdespite":3361,"Ġcontract":3362,"ability":3363,"leb":3364,"à¤§à¤¤":3365,"erved":3366,"ĠThat":3367,"Ġgroups":3368,"ĠTimes":3369,"ĠCast":3370,"Ġà¤¬à¤¸":3371,"ĠCollege":3372,"Ġkey":3373,"à¤µà¤°à¤£":3374,"Ġdebut":3375,"Ġ185":3376,"Ġviol":3377,"Ġ1960":3378,"ĠHill":3379,"onna":3380,"asons":3381,"Ġwhose":3382,"mar":3383,"Ġinternational":3384,"ĠSov":3385,"Ġlines":3386,"Ġà¤ķà¤°à¤ķ":3387,"Ġgive":3388,"hester":3389,"Ġà¥¨à¥¦à¥":3390,"Ġprevent":3391,"ĠWestern":3392,"airs":3393,"Ġunc":3394,"Ġclaimed":3395,"ĠDo":3396,"à¤µà¤ķ":3397,"Ġadditional":3398,"Ġcal":3399,"ĠDem":3400,"Ġscreen":3401,"Ġtransfer":3402,"Ġasked":3403,"eal":3404,"Ġdon":3405,"Ġfuture":3406,"Ġstreng":3407,"back":3408,"onse":3409,"Ġbeg":3410,"Ġ33":3411,"ĠSoviet":3412,"rief":3413,"ĠFilm":3414,"Ġop":3415,"Ġ184":3416,"à¤¼à¥ĭ":3417,"ĠGrand":3418,"ĠSoc":3419,"à¤ľà¤¸":3420,"ĠBen":3421,"NA":3422,"atory":3423,"ĠFrank":3424,"Ġbig":3425,"à¤²à¤®":3426,"Ġà¤ľà¤Ĺ":3427,"Ġwhom":3428,"ĠMexic":3429,"onst":3430,"Ġgold":3431,"Ġlab":3432,"Ġleague":3433,"ĠSpan":3434,"Ġalready":3435,"lying":3436,"Ġpoor":3437,"ror":3438,"ĠAwards":3439,"ites":3440,"Ġfort":3441,"Ġidea":3442,"à¤¦à¤ķ":3443,"Ġevidence":3444,"Ġintroduced":3445,"Ġsea":3446,"Ġprem":3447,"Ġproduct":3448,"Ġquickly":3449,"Ġexcept":3450,"Ġfrequ":3451,"Ġà¤ķà¤¨":3452,"TC":3453,"ha":3454,"à¤®à¤¹":3455,"ergy":3456,"ĠCoun":3457,"Ġbridge":3458,"Ġusually":3459,"usp":3460,"à¤®à¤¦":3461,"ĠForce":3462,"Ġelection":3463,"irth":3464,"Ġemb":3465,"eck":3466,"Ġpil":3467,"ĠMost":3468,"Ġà¥¨à¥¦":3469,"Ġoccup":3470,"unt":3471,"ship":3472,"eum":3473,"ecially":3474,"Ġà¤ħà¤¥à¤µ":3475,"Ġdeal":3476,"Ġpen":3477,"à¤ķà¤ª":3478,"aring":3479,"Ġà¤ľà¤®":3480,"à¤¯à¤µ":3481,"Ġradio":3482,"ĠRob":3483,"Ġmusical":3484,"Ġwestern":3485,"Ġcommunity":3486,"Ġcivil":3487,"Ġarrived":3488,"ully":3489,"Ġcycl":3490,"liam":3491,"ĠBritain":3492,"Ġ1997":3493,"ĠDay":3494,"asc":3495,"ĠOver":3496,"Ġmight":3497,"gen":3498,"Ġsometimes":3499,"Ġdoc":3500,"ĠIm":3501,"Ġfemale":3502,"Ġstudy":3503,"Ġfood":3504,"II":3505,"à¤Ĳ":3506,"rab":3507,"ĠHot":3508,"Ġresponse":3509,"iter":3510,"Ġespecially":3511,"Ġdecision":3512,"ĠPac":3513,"Ġissue":3514,"Ġmoney":3515,"Ġmagazine":3516,"Ġliter":3517,"ena":3518,"Ġshows":3519,"icles":3520,"ĠLater":3521,"Ġenv":3522,"Ġsurface":3523,"Ġsize":3524,"ĠRh":3525,"à¤°à¤µà¤°":3526,"liament":3527,"ĠVictor":3528,"aint":3529,"che":3530,"Ġconstruct":3531,"ĠBur":3532,"Ġà¤īà¤ªà¤¨":3533,"Ġdeterm":3534,"Ġguitar":3535,"aries":3536,"Ġflood":3537,"ĠChic":3538,"Ġdiscuss":3539,"Ġ37":3540,"ari":3541,"omm":3542,"Ġarran":3543,"Ġcarried":3544,"Ġremain":3545,"Ġestimated":3546,"ĠMill":3547,"raw":3548,"Ġminor":3549,"Ġapprox":3550,"Ġlarger":3551,"Ġtype":3552,"Ġremaining":3553,"Ġdate":3554,"Ġ300":3555,"Ġcomplete":3556,"ĠTra":3557,"Ġeastern":3558,"Ġdefeated":3559,"10":3560,"AA":3561,"ulf":3562,"ession":3563,"ĠMount":3564,"Ġà¤®à¤°":3565,"igan":3566,"Ġmedia":3567,"porary":3568,"ĠEarly":3569,"ĠVirginia":3570,"Ġbecoming":3571,"Ġanal":3572,"Ġrap":3573,"Ġwood":3574,"Ġpressure":3575,"rics":3576,"à¤Ĺà¤µ":3577,"Ġconsider":3578,"ĠInf":3579,"Ġentered":3580,"Ġà¤ıà¤¨":3581,"ands":3582,"Ġsuggested":3583,"ĠIf":3584,"Ġà¤®à¤¦":3585,"Ġpolice":3586,"ĠCont":3587,"Ġlo":3588,"à¤¦à¤®":3589,"Ġtar":3590,"erve":3591,"Ġteams":3592,"Ġà¤¸à¤®à¤¸":3593,"ĠJust":3594,"Ġshoot":3595,"ĠLos":3596,"Ġmarket":3597,"Ġcommercial":3598,"Ġpersonal":3599,"ĠKh":3600,"Ġlatter":3601,"Ġconcern":3602,"Ġder":3603,"ises":3604,"Ġstudents":3605,"Ġcertain":3606,"incip":3607,"Ġlanguage":3608,"ĠSecond":3609,"sy":3610,"Ġsurround":3611,"Ġinvestig":3612,"inct":3613,"mir":3614,"Ġchanges":3615,"Ġbrief":3616,"Ġbur":3617,"change":3618,"ĠTex":3619,"Ġ90":3620,"Ġsat":3621,"Ġacqu":3622,"ĠFle":3623,"Ġprison":3624,"Ġcomplet":3625,"lymp":3626,"alled":3627,"Ġhop":3628,"Ġeffects":3629,"imate":3630,"ores":3631,"Ġprior":3632,"ĠJackson":3633,"Ġappointed":3634,"ederal":3635,"ulated":3636,"Ġsummer":3637,"ga":3638,"Ġepisodes":3639,"enth":3640,"à¤¸à¤µ":3641,"Ġdeg":3642,"à¤¼à¥ĭà¤Ĥ":3643,"à¥§":3644,"Ġlimited":3645,"ĠFlor":3646,"Ġden":3647,"ĠLouis":3648,"Ġemer":3649,"ĠOlymp":3650,"Ġprovide":3651,"Ġstaff":3652,"lo":3653,"Ġriver":3654,"Ġscript":3655,"Ġself":3656,"rack":3657,"iser":3658,"ension":3659,"Ġpolic":3660,"Ġcommission":3661,"mitted":3662,"Ġwinning":3663,"Ġdraw":3664,"Ġpay":3665,"Ġleaving":3666,"Ġtax":3667,"ÃŃ":3668,"Ġscenes":3669,"rd":3670,"Ġdestroyed":3671,"ournal":3672,"Ġfleet":3673,"ĠClub":3674,"Ġrid":3675,"Ġdi":3676,"Ġrights":3677,"Ġfail":3678,"Ġboard":3679,"ĠSpanish":3680,"ires":3681,"Ġ75":3682,"su":3683,"Ġlink":3684,"ties":3685,"Ġterrit":3686,"ĠGreen":3687,"ĠTer":3688,"Ġstructure":3689,"Ġwriter":3690,"que":3691,"idents":3692,"Ġtrib":3693,"Ġmultip":3694,"rigade":3695,"Ġintended":3696,"sen":3697,"Ġproposed":3698,"à¥ģà¤ģ":3699,"inese":3700,"Ġ1996":3701,"Ġgirl":3702,"Ġ1995":3703,"ĠParty":3704,"het":3705,"Ġinfluence":3706,"Ġkil":3707,"ĠDu":3708,"Ġ34":3709,"Ġoverall":3710,"mon":3711,"ĠAssociation":3712,"Ġà¤īà¤®":3713,"Ġcreate":3714,"Ġcontro":3715,"Ġtransport":3716,"Ġdivision":3717,"Ġequip":3718,"acing":3719,"Ġanti":3720,"ending":3721,"imum":3722,"iles":3723,"ift":3724,"ĠPri":3725,"Ġjud":3726,"Ġrunning":3727,"Ġsupported":3728,"18":3729,"Ġroom":3730,"ĠEdward":3731,"ili":3732,"Ġresearch":3733,"Ġagreed":3734,"Ġà¤ıà¤®":3735,"Ġbow":3736,"ĠSar":3737,"atives":3738,"Ġi":3739,"ĠRo":3740,"Ġwide":3741,"ĠChicago":3742,"ĠChinese":3743,"Ġdaughter":3744,"Ġnearly":3745,"Ġbroadcast":3746,"Ġdeep":3747,"Ġà¤¬à¤ľ":3748,"Ġpurch":3749,"Ġ38":3750,"ĠMany":3751,"Ġ183":3752,"Ġestablish":3753,"ĠCouncil":3754,"Ġmovement":3755,"ĠOper":3756,"ĠIr":3757,"ĠSal":3758,"Ġhelped":3759,"à¤°à¤®à¤£":3760,"à¤Ĺà¤łà¤¨":3761,"Ġmarried":3762,"inent":3763,"atively":3764,"ĠSong":3765,"Ã¶":3766,"Ġawarded":3767,"bers":3768,"Ġspace":3769,"à¤µà¤¶":3770,"ny":3771,"Ġcat":3772,"Ġà¤ªà¤°à¤®":3773,"Ġà¤¦à¤¶à¤ķ":3774,"omer":3775,"Ġdiss":3776,"ĠEnter":3777,"Ġfavor":3778,"Ġintens":3779,"Ġbird":3780,"Ġsusp":3781,"Ġdark":3782,"pris":3783,"Ġlonger":3784,"à¤ĺà¤°":3785,"arent":3786,"Ġ1994":3787,"Ġrelated":3788,"Ġà¤Ĺà¤£":3789,"Ġà¤Ĭà¤ªà¤°":3790,"teen":3791,"Ġstars":3792,"Ġdone":3793,"ĠEv":3794,"Ġhigher":3795,"ss":3796,"ĠServ":3797,"uz":3798,"Ġfeature":3799,"ĠApp":3800,"Ġchanged":3801,"Ġsyn":3802,"ĠInter":3803,"Ġplanned":3804,"umn":3805,"Ġcompared":3806,"Ġcourse":3807,"ounds":3808,"Ġincreasing":3809,"Ġ1950":3810,"à¤ĩà¤¨à¤ķ":3811,"Ġcaptured":3812,"ĠEmp":3813,"Ġtemper":3814,"Ġexperience":3815,"Ġfans":3816,"ĠJohnson":3817,"Ġconclud":3818,"ĠHistory":3819,"à¤ķà¤¡":3820,"Ġthemsel":3821,"order":3822,"Ġthemselves":3823,"enty":3824,"Ġliving":3825,"ĠKore":3826,"Ġapproximately":3827,"uth":3828,"abit":3829,"ĠNot":3830,"Ġfifth":3831,"ĠKn":3832,"Ġour":3833,"tained":3834,"à¤§à¤°":3835,"vin":3836,"Ġmostly":3837,"Ġproducer":3838,"isions":3839,"Ġthus":3840,"à¤Łà¤®":3841,"olic":3842,"can":3843,"Ã¼":3844,"anced":3845,"à¤²à¤¸":3846,"ĠPacific":3847,"ĠBet":3848,"ĠBack":3849,"Ġtracks":3850,"ĠBillboard":3851,"à¤¸à¤¦":3852,"Ġwithd":3853,"Ġwhether":3854,"thing":3855,"Ġà¤ĸà¤°":3856,"Ġfunction":3857,"oint":3858,"Ġdead":3859,"Ġà¤Ĩà¤¶":3860,"ĠMont":3861,"ij":3862,"Ġoperations":3863,"Ġwoman":3864,"Ġbring":3865,"Ġremains":3866,"Ġnatural":3867,"imin":3868,"Ġmeth":3869,"Ġult":3870,"Ġquarter":3871,"Ġcomplex":3872,"Ġreact":3873,"Ġconcept":3874,"anded":3875,"Ġprobably":3876,"Ġnames":3877,"Ġà¤°à¤¹à¤¨":3878,"à¤¬à¤¦":3879,"à¤¹à¤²":3880,"de":3881,"Ġweap":3882,"ĠSun":3883,"rate":3884,"rast":3885,"ĠScot":3886,"ĠFinal":3887,"Ġdram":3888,"right":3889,"vey":3890,"Ġran":3891,"ging":3892,"Ġface":3893,"Ġforward":3894,"Ġsoldiers":3895,"Ġcountries":3896,"à¤ĸà¤¤":3897,"Ġbuildings":3898,"Ġincludes":3899,"Ġcopies":3900,"bour":3901,"à¤Ĩà¤°":3902,"Ġextended":3903,"Ġvoice":3904,"ĠIII":3905,"Ġboy":3906,"Ġleader":3907,"Ġ1992":3908,"Ġà¤ħà¤µà¤§":3909,"à¤¤à¤¤":3910,"Ġreally":3911,"ospital":3912,"ĠSince":3913,"Ġdepart":3914,"Ġlyrics":3915,"Ġcm":3916,"ĠAtlantic":3917,"riage":3918,"à¤ļà¤ķ":3919,"Ġchall":3920,"ĠUTC":3921,"Ġissued":3922,"Ġheav":3923,"Ġbattles":3924,"à¤µà¤ľ":3925,"à¤ĩà¤ķ":3926,"ĠCongress":3927,"ĠLake":3928,"urt":3929,"à¤ľà¤¯":3930,"ĠLove":3931,"Ġcapital":3932,"ĠFort":3933,"Ġsuffered":3934,"ĠFranc":3935,"ault":3936,"iant":3937,"à¤ĩà¤¸à¤®":3938,"etic":3939,"Ġimmediately":3940,"Ġcann":3941,"Ġgoals":3942,"ĠBig":3943,"ĠSever":3944,"ĠFlorida":3945,"hood":3946,"Ġattend":3947,"Ġà¤²à¤Ĺà¤¤":3948,"ĠTrans":3949,"iation":3950,"Ġremoved":3951,"itted":3952,"Ġflag":3953,"Ġà¤ľà¤Ĺà¤¹":3954,"ĠBoth":3955,"hold":3956,"iring":3957,"Ġmixed":3958,"Ġbreed":3959,"Ġdistrib":3960,"ections":3961,"Ġalways":3962,"Ġprivate":3963,"Ġlikely":3964,"Ġmach":3965,"ĠJim":3966,"ĠOld":3967,"Ġmanager":3968,"ĠJew":3969,"Ġinitial":3970,"ria":3971,"Ġlocation":3972,"ĠAnt":3973,"Ġofficers":3974,"Ġ180":3975,"ĠDist":3976,"Ġvia":3977,"ams":3978,"Ġnorm":3979,"Ġplant":3980,"ĠSea":3981,"à¤ľà¤¹":3982,"ien":3983,"ĠLaw":3984,"Ġleave":3985,"Ġincrease":3986,"bury":3987,"Ġstatus":3988,"ĠQueen":3989,"à¤¯à¤ķà¤¤":3990,"à¤ľà¤²":3991,"Ġceleb":3992,"ĠPet":3993,"Ġhealth":3994,"rial":3995,"Ġnetwork":3996,"ify":3997,"Ġvisit":3998,"ĠTexas":3999,"ĠChina":4000,"Ġproblems":4001,"Ġfocus":4002,"ĠTor":4003,"ĠDV":4004,"venue":4005,"ĠTown":4006,"Ġservices":4007,"Ġcoin":4008,"ĠMr":4009,"Ġsubsequently":4010,"ibr":4011,"Ġmount":4012,"ĠEarth":4013,"Ġplans":4014,"Ġà¤ļà¤²à¤¤":4015,"Ġà¤ħà¤¦":4016,"ĠHighway":4017,"ĠMax":4018,"Ġcompan":4019,"light":4020,"Ã³":4021,"Ġterms":4022,"Ġsomething":4023,"Ġmodel":4024,"ĠHow":4025,"ĠLord":4026,"ĠCamp":4027,"Ġinformation":4028,"à¥Ĥà¤ģ":4029,"well":4030,"Ġinstr":4031,"Ġvillage":4032,"ĠAnother":4033,"Ġadminist":4034,"Ġ49":4035,"aily":4036,"Ġà¤ĩà¤¸à¤®":4037,"Ġcolon":4038,"Ġtext":4039,"200":4040,"ironment":4041,"Ġoffered":4042,"Ġ1993":4043,"Ġ1991":4044,"stant":4045,"ously":4046,"Ġà¤Ĩà¤²":4047,"Ġbox":4048,"Ġà¤ıà¤¶":4049,"ĠBoy":4050,"Ġapproach":4051,"Ġmur":4052,"Ġà¤¯à¤¦":4053,"Ġsch":4054,"wer":4055,"ctor":4056,"ĠOl":4057,"ĠWood":4058,"ounted":4059,"Ġtor":4060,"Ġtons":4061,"ription":4062,"Ġmajority":4063,"Ġcause":4064,"Ġconsist":4065,"Ġcounter":4066,"oe":4067,"à¤¡à¤¨":4068,"ĠRail":4069,"Ġprofessional":4070,"ĠCanadian":4071,"adium":4072,"orning":4073,"Ġlay":4074,"Ġang":4075,"ĠMur":4076,"Ġappears":4077,"ĠGre":4078,"ĠAfrica":4079,"ĠIts":4080,"Ġgot":4081,"uments":4082,"olk":4083,"burg":4084,"Ġindividual":4085,"Ġà¤¹à¤µ":4086,"gar":4087,"uf":4088,"aches":4089,"ĠCenter":4090,"uries":4091,"oo":4092,"cean":4093,"Ġmeeting":4094,"lor":4095,"Ġinters":4096,"Ġconfir":4097,"ĠSir":4098,"oes":4099,"Ġjob":4100,"itect":4101,"ste":4102,"imb":4103,"Ġdamaged":4104,"Ġadop":4105,"Ġà¤ĭ":4106,"Ġminute":4107,"Ġdig":4108,"Ġà¤īà¤¸à¤¨":4109,"Ġà¥¨à¥¦à¥§à¥":4110,"Ġmakes":4111,"Ġimm":4112,"Ġaltern":4113,"Ġranked":4114,"Ġshown":4115,"Ġtakes":4116,"ĠRad":4117,"Ġcomposed":4118,"ĠCentral":4119,"ĠRussian":4120,"Ġ1940":4121,"Ġcontains":4122,"Ġflight":4123,"Ġneeded":4124,"Ġrevealed":4125,"ĠSquadron":4126,"Ġattacks":4127,"Ġvir":4128,"pan":4129,"ĠMel":4130,"Ġplot":4131,"ĠTur":4132,"Ġassociated":4133,"ĠTV":4134,"Ġrespectively":4135,"umed":4136,"ka":4137,"Ġfinanc":4138,"Ġdiscovered":4139,"Ġraised":4140,"ĠMartin":4141,"ya":4142,"ĠCarol":4143,"ĠKent":4144,"Ġnumerous":4145,"ĠDVD":4146,"Ġtalk":4147,"ĠDes":4148,"Ġyet":4149,"ote":4150,"Ġnumbers":4151,"Ġamb":4152,"Ġdomin":4153,"Ġcand":4154,"ĠAngeles":4155,"reak":4156,"Ġanc":4157,"down":4158,"Ġà¤ľà¤¨à¤¸":4159,"ĠBow":4160,"Ġexam":4161,"Ġà¤°à¤ĸà¤¨":4162,"Ġ48":4163,"ĠGroup":4164,"Ġà¤ķà¤¥":4165,"Ġà¤¦à¤²":4166,"Ġgrand":4167,"Ġinspired":4168,"Ġnature":4169,"itation":4170,"vert":4171,"Ġlived":4172,"à¤ªà¤£":4173,"Ġlaunched":4174,"Ġbene":4175,"estival":4176,"Ġstandard":4177,"Ġpow":4178,"ĠSuper":4179,"ĠDel":4180,"Ġveh":4181,"Ġupper":4182,"uals":4183,"Ġcoach":4184,"ective":4185,"Ġoccurred":4186,"Ġà¥¨à¥¦à¥¦à¥":4187,"Ġconditions":4188,"ken":4189,"Ġmoving":4190,"Ġgra":4191,"Ġhour":4192,"iest":4193,"Ġattempted":4194,"Ġbelow":4195,"à¤ıà¤²":4196,"Ġattacked":4197,"Ġwhole":4198,"izing":4199,"ĠYear":4200,"Ġcollect":4201,"Ġà¤ĺà¤Łà¤¨":4202,"ĠMiss":4203,"oly":4204,"Ġsales":4205,"Ġissues":4206,"Ġsem":4207,"Ġbirth":4208,"Ġ39":4209,"joy":4210,"orce":4211,"ĠRev":4212,"ĠOut":4213,"à¤«à¤²":4214,"Ġsal":4215,"à¤®à¤Ĺ":4216,"Ġmom":4217,"urity":4218,"ãĥ":4219,"Ġà¤ħà¤°à¤¬":4220,"ĠTour":4221,"ĠGar":4222,"aught":4223,"à¤Ĺà¤¦":4224,"à¥ħ":4225,"Ġcer":4226,"win":4227,"itude":4228,"Ġselected":4229,"Ġincor":4230,"Ġlisted":4231,"Ġslight":4232,"ĠEmpire":4233,"Ġcritical":4234,"à¤¥à¤°":4235,"Ġqual":4236,"12":4237,"Ġscient":4238,"Ġ1930":4239,"à¤ıà¤Ĺ":4240,"Ġreferred":4241,"Ġyards":4242,"Ġactive":4243,"reme":4244,"ples":4245,"uing":4246,"Ġsmaller":4247,"ĠUnder":4248,"Ġbad":4249,"ellow":4250,"Ġprincip":4251,"ĠPenn":4252,"kin":4253,"Ġsen":4254,"Ġgrant":4255,"Ġprec":4256,"use":4257,"Ġfinally":4258,"Ġà¤ĳà¤¸":4259,"Ġdefeat":4260,"Ġstay":4261,"Ġelected":4262,"oura":4263,"Ġresulted":4264,"onic":4265,"ĠJose":4266,"Ġmethod":4267,"Ġens":4268,"uated":4269,"Ġpit":4270,"Ġmission":4271,"Ġindustry":4272,"Ġsinger":4273,"Ġword":4274,"Ġpurp":4275,"Ġsecret":4276,"Ġassigned":4277,"ĠDis":4278,"ĠItalian":4279,"à¤ļà¤¯":4280,"Ġoperation":4281,"Ġsaf":4282,"à¤°à¤ªà¤¤":4283,"enant":4284,"ortun":4285,"Ġlargely":4286,"à¤Ķ":4287,"Ġsuggest":4288,"andon":4289,"gr":4290,"Ġgre":4291,"Ġletter":4292,"Ġlegisl":4293,"Ġthr":4294,"à¤ıà¤®":4295,"irection":4296,"à¤īà¤¦":4297,"Ġexpected":4298,"Ġearned":4299,"Ġ400":4300,"ĠCr":4301,"Ġmale":4302,"oud":4303,"30":4304,"iled":4305,"ĠAnn":4306,"Ġunderst":4307,"Ġcommented":4308,"Ġdouble":4309,"Ġcovered":4310,"yal":4311,"Ġà¤Ńà¤Ĺà¤µ":4312,"Ġ179":4313,"Ġclosed":4314,"ĠCorps":4315,"Ġaw":4316,"à¤®à¤£":4317,"Ġreason":4318,"Ġeducation":4319,"Ġaudience":4320,"ĠCrit":4321,"Ġtrade":4322,"only":4323,"à¤ľà¤ķ":4324,"Ġsched":4325,"Ġheart":4326,"Ġartist":4327,"Ġkind":4328,"Ġunable":4329,"Ġdisplay":4330,"Ġtraditional":4331,"ounts":4332,"agon":4333,"Ġprimary":4334,"itt":4335,"ogue":4336,"Ġunit":4337,"ffic":4338,"Ġfriends":4339,"Ġnewsp":4340,"Ġattention":4341,"hips":4342,"à¤ªà¤·":4343,"Ġsister":4344,"ĠViet":4345,"Ġà¤¸à¤²":4346,"Ġrefused":4347,"Ġrecover":4348,"ighter":4349,"rem":4350,"Ġ47":4351,"à¤ªà¤²":4352,"Ġà¤¨à¤ı":4353,"Ġdocument":4354,"Ġfr":4355,"à¤¬à¤¸":4356,"ĠMichigan":4357,"à¤·à¤®à¤¤":4358,"Ġmax":4359,"ux":4360,"Ġplat":4361,"Ġà¤ĩà¤¸à¤²":4362,"ĠMass":4363,"Ġcontem":4364,"Ġbooks":4365,"Ġofficer":4366,"Ġmeant":4367,"isher":4368,"ĠWales":4369,"Ġincludeonly":4370,"à¤ļà¤²":4371,"ĠTy":4372,"ĠArch":4373,"ĠLong":4374,"Ġblood":4375,"Ġability":4376,"Ġenjoy":4377,"ĠNort":4378,"Ġdepression":4379,"Ġdeclared":4380,"ĠMore":4381,"tered":4382,"ĠOtt":4383,"Ġwalk":4384,"Ġà¤µà¤¨":4385,"Ġperformances":4386,"Ġgiving":4387,"Ġcompl":4388,"ĠCath":4389,"Ġhot":4390,"ils":4391,"Ġmiddle":4392,"Ġ42":4393,"Ġrate":4394,"à¤ľà¤®":4395,"Ġsett":4396,"undred":4397,"Ġà¤°à¤ĸà¤¤":4398,"ĠOx":4399,"ĠCle":4400,"ector":4401,"Ġreligious":4402,"Ġfighting":4403,"Ġproduce":4404,"Ġtheat":4405,"ĠTest":4406,"ĠAcad":4407,"à¤·à¤¦":4408,"à¤§à¤ķ":4409,"Ġcommander":4410,"15":4411,"Ġà¤ªà¤¢":4412,"Ġquestion":4413,"Ġnecess":4414,"Ġrecords":4415,"Ġconstit":4416,"osh":4417,"Ġenergy":4418,"Ġmatches":4419,"Ġcolor":4420,"ona":4421,"ĠStep":4422,"aped":4423,"Ġ64":4424,"à¤Ľà¤²":4425,"ĠDemocr":4426,"ĠFer":4427,"ĠBec":4428,"Ġà¤°à¤¸":4429,"Ġ46":4430,"Ġcompetition":4431,"ĠCare":4432,"utch":4433,"ĠCons":4434,"Ġaccount":4435,"Ġyour":4436,"ĠTeam":4437,"iences":4438,"odies":4439,"echan":4440,"Ġserious":4441,"Ġ55":4442,"ims":4443,"Ġ44":4444,"ares":4445,"Ġcentre":4446,"antasy":4447,"Ġmention":4448,"à¤ħà¤§":4449,"ails":4450,"ĠMajor":4451,"Ġtouch":4452,"Ġri":4453,"ĠWal":4454,"Ġdisapp":4455,"ĠMinister":4456,"Ġ#":4457,"Ġmor":4458,"Ġà¤¨à¤¯":4459,"Ġvocals":4460,"ĠZeal":4461,"ĠSeveral":4462,"ounded":4463,"à¤ĸà¤°":4464,"road":4465,"ervation":4466,"Ġabandon":4467,"icted":4468,"Ġrapid":4469,"MS":4470,"ĠFore":4471,"rug":4472,"Ġ150":4473,"miral":4474,"oses":4475,"à¤Ńà¤°":4476,"ĠSo":4477,"Ġkilomet":4478,"Ġà¤ľà¤¨à¤µà¤°":4479,"à¤ĸà¤ķ":4480,"Ġspir":4481,"Ġseparate":4482,"ĠKenn":4483,"ening":4484,"Ġà¥ª":4485,"Ġconstructed":4486,"Ġdut":4487,"ĠMic":4488,"Ġris":4489,"ĠEr":4490,"ani":4491,"Ġdirectly":4492,"ĠSum":4493,"quar":4494,"rier":4495,"à¤ªà¤¦":4496,"Ġtheme":4497,"edic":4498,"stitute":4499,"ĠFox":4500,"ĠTime":4501,"Ġà¤īà¤ł":4502,"ĠCat":4503,"ĠMa":4504,"vention":4505,"ette":4506,"Ġprep":4507,"Ġcontinue":4508,"Ġstra":4509,"Ġhighly":4510,"Ġpick":4511,"uit":4512,"oper":4513,"Ġmeans":4514,"Ġroyal":4515,"ishop":4516,"rical":4517,"Ġnuc":4518,"ĠGo":4519,"Ġnearby":4520,"ĠZealand":4521,"Ġchief":4522,"Ġcle":4523,"ĠHaw":4524,"Ġeffort":4525,"Ġpresented":4526,"Ġhar":4527,"Ġà¥Ń":4528,"Ġdrum":4529,"isation":4530,"ether":4531,"ibly":4532,"Ġ1942":4533,"à¤ľà¤§":4534,"Ġcas":4535,"à¤²à¤Ĺ":4536,"Ġpositions":4537,"Ġlevels":4538,"ĠAfrican":4539,"ĠBu":4540,"Ġreduced":4541,"Ġannual":4542,"ĠMexico":4543,"Ġcombat":4544,"Ġnotes":4545,"cel":4546,"ĠMatt":4547,"ĠFour":4548,"Ġcontrovers":4549,"ĠHel":4550,"ita":4551,"Ġà¤Ĩà¤ķà¤°":4552,"ĠChris":4553,"ĠCy":4554,"Ġge":4555,"Ġcompos":4556,"ĠWall":4557,"Ġ1989":4558,"ieut":4559,"Ġforest":4560,"ĠDar":4561,"shire":4562,"Ġpractice":4563,"Ġneigh":4564,"ado":4565,"ĠTre":4566,"Ġ52":4567,"Ġedition":4568,"ih":4569,"Ġfast":4570,"unction":4571,"Ġsevent":4572,"emorial":4573,"Ġtried":4574,"Ġattended":4575,"Ġrepe":4576,"Ġtrain":4577,"acher":4578,"à¤¡à¤®":4579,"Ġarchitect":4580,"Ġaccepted":4581,"Ġmetal":4582,"vement":4583,"Ġwatch":4584,"ĠBrad":4585,"osen":4586,"ĠChart":4587,"ĠBob":4588,"Ġmess":4589,"Ġdirection":4590,"Ġmovie":4591,"Ġcandid":4592,"arents":4593,"Ġopt":4594,"Ġtwenty":4595,"Ġsource":4596,"Ġple":4597,"ĠMadonna":4598,"Ġstating":4599,"Ġpair":4600,"utions":4601,"ĠBC":4602,"track":4603,"Ġcases":4604,"Ġadvance":4605,"ĠScotland":4606,"à¤ħà¤ªà¤¨":4607,"Ġconcert":4608,"Ġcust":4609,"ĠJones":4610,"Ġrecomm":4611,"ding":4612,"gl":4613,"pe":4614,"Ġà¤®à¤Ī":4615,"house":4616,"hy":4617,"Äĩ":4618,"Ġlegal":4619,"lict":4620,"icip":4621,"Ġuses":4622,"Ġasp":4623,"ersey":4624,"Ġportray":4625,"Ġseem":4626,"Ġschools":4627,"aging":4628,"wide":4629,"Ġdism":4630,"à¥¯":4631,"ĠTheir":4632,"Ġreject":4633,"eway":4634,"ĠGreek":4635,"Ġà¤§à¤¨":4636,"icient":4637,"Ġinside":4638,"ĠDepartment":4639,"ĠCross":4640,"awn":4641,"fall":4642,"ĠPost":4643,"ĠManc":4644,"Ġcollege":4645,"Ġthick":4646,"like":4647,"illery":4648,"Ġhorse":4649,"Ġdom":4650,"Ġmarriage":4651,"ĠDou":4652,"Ġefforts":4653,"Ġmanaged":4654,"Ġresulting":4655,"à¤¬à¤Ī":4656,"Ġspecific":4657,"Ġending":4658,"à¤īà¤¸à¤ķ":4659,"Ġpurs":4660,"illed":4661,"à¤¶à¤¤":4662,"Ġwords":4663,"Ġrat":4664,"Ġwing":4665,"Ġà¤Ĩà¤¬":4666,"band":4667,"Ġ1920":4668,"Ġà¤ħà¤Ĺà¤¸":4669,"ĠThree":4670,"Ġenvironment":4671,"olf":4672,"Ġsymb":4673,"ĠLit":4674,"Ġà¥§à¥®":4675,"Ġmeaning":4676,"à¤¸à¤ª":4677,"ieutenant":4678,"Ġnation":4679,"Ġshowed":4680,"Ġculture":4681,"Ġresponsible":4682,"ĠLeg":4683,"Ġdropped":4684,"ĠLad":4685,"Ġrare":4686,"Ġkept":4687,"Ġforms":4688,"ĠFoot":4689,"Åį":4690,"rane":4691,"ĠInfantry":4692,"Ġbegins":4693,"ĠBost":4694,"ols":4695,"Ġincorpor":4696,"ĠService":4697,"Ġvariety":4698,"Ġcyclone":4699,"ĠSur":4700,"Ġà¤ªà¤¹à¤ļ":4701,"ras":4702,"Ġ1945":4703,"ĠStone":4704,"pass":4705,"cle":4706,"à¤¶à¤²":4707,"ceeded":4708,"Ġmorning":4709,"Ġschol":4710,"Ġcerem":4711,"Ġoil":4712,"ĠRecords":4713,"Ġspl":4714,"Ġfarm":4715,"Ġhouses":4716,"gypt":4717,"Ġscience":4718,"Ġchampionship":4719,"cend":4720,"Ġmarked":4721,"Ġ1944":4722,"Ġarrest":4723,"peror":4724,"ĠWilliams":4725,"ĠNews":4726,"Ġyard":4727,"ĠSecret":4728,"ĠHung":4729,"ĠCreek":4730,"ĠMod":4731,"Ġinches":4732,"Ġmultiple":4733,"à¤ıà¤¨":4734,"ĠFin":4735,"Ġbank":4736,"ĠPan":4737,"ecting":4738,"ĠHal":4739,"Ġcontinues":4740,"ini":4741,"Ġ43":4742,"Ġà¤¹à¤ľ":4743,"ĠGames":4744,"Ġquality":4745,"AS":4746,"writ":4747,"ĠTri":4748,"Ġbackground":4749,"bed":4750,"ĠLoc":4751,"ĠâĢĿ":4752,"16":4753,"Ġ65":4754,"ĠStan":4755,"wh":4756,"Ġ182":4757,"Ġeconomic":4758,"sych":4759,"ĠParliament":4760,"Ġlear":4761,"à¤ħà¤°":4762,"ĠSol":4763,"ĠTro":4764,"ĠBook":4765,"Ġdu":4766,"ulations":4767,"Ġtur":4768,"ĠSociety":4769,"thel":4770,"ĠEgypt":4771,"ĠLu":4772,"Ġdefend":4773,"thur":4774,"Ġstarting":4775,"Ġhundred":4776,"ingu":4777,"Ġimpact":4778,"Ġsettle":4779,"omy":4780,"Ġamount":4781,"Ġallowing":4782,"Ġconducted":4783,"Ġsuppl":4784,"Ġchap":4785,"Ġrule":4786,"17":4787,"Ġbeat":4788,"Ġstrugg":4789,"ĠJer":4790,"ĠVer":4791,"een":4792,"ĠSat":4793,"Ġsides":4794,"Ġpresence":4795,"ĠOh":4796,"Ġ1941":4797,"Ġunivers":4798,"ĠSpec":4799,"à¤¤à¤²":4800,"Ġviewers":4801,"Ġcaptain":4802,"Ġdance":4803,"ĠCommittee":4804,"Ġà¤ļà¤ķ":4805,"Ġforeign":4806,"ĠLatin":4807,"Ġmetres":4808,"Ġproperty":4809,"Ġpotential":4810,"load":4811,"ĠSouthern":4812,"irm":4813,"14":4814,"Ġà¤¹à¤¸":4815,"ĠSil":4816,"Ġà¤ħà¤µà¤¸":4817,"ĠPrince":4818,"Ġà¤ĩà¤ķ":4819,"Ġexhib":4820,"Ġdistinct":4821,"Ġà¤ķà¤¡":4822,"ĠâĢľ":4823,"ĠStephen":4824,"Ġcontrast":4825,"inet":4826,"Ġtransl":4827,"arian":4828,"Ġtransferred":4829,"ĠTw":4830,"à¤Ĳà¤¸":4831,"ĠOxford":4832,"Ġthings":4833,"itiz":4834,"Ġbecomes":4835,"ping":4836,"ĠJoseph":4837,"Ġà¤¦à¤¸":4838,"Ġgreater":4839,"Ġà¤ķà¤¬":4840,"Ġpeaked":4841,"Ġlog":4842,"rong":4843,"anes":4844,"ĠForm":4845,"Ġenemy":4846,"Ġà¤¤à¤ķà¤¨":4847,"Ġtraffic":4848,"Ġ1988":4849,"ĠGeorg":4850,"ĠCamb":4851,"à¤¹à¤ķ":4852,"Ġfounded":4853,"kn":4854,"iance":4855,"ĠClass":4856,"Ġowned":4857,"very":4858,"istics":4859,"Ġsearch":4860,"à¤°à¤ĸ":4861,"ellig":4862,"ĠLike":4863,"à¤¨à¤¯":4864,"à¤¯à¤µà¤¹":4865,"ider":4866,"Ġdemonst":4867,"ĠAdmiral":4868,"Ġportion":4869,"Ġvocal":4870,"Ġrespond":4871,"Ġattempts":4872,"Ġseg":4873,"Ġconcluded":4874,"Ġstories":4875,"ĠChief":4876,"Ġprimarily":4877,"Ġencoun":4878,"ĠBoston":4879,"Ġrelatively":4880,"Ġcastle":4881,"umber":4882,"à¤¨à¤¸à¤Ń":4883,"Ġactually":4884,"Ġwrite":4885,"80":4886,"ĠWind":4887,"Ġ1987":4888,"Ġscoring":4889,"Ġtarget":4890,"ressive":4891,"aine":4892,"TV":4893,"Ġfinancial":4894,"ĠWin":4895,"Ġanimals":4896,"ĠManchester":4897,"ĠÎ":4898,"ĠJeff":4899,"Ġtourn":4900,"ograp":4901,"ĠDef":4902,"ĠHarrison":4903,"Ġfederal":4904,"ĠSwed":4905,"ĠCaptain":4906,"Ġcollection":4907,"Ġimage":4908,"Ġdistance":4909,"ategory":4910,"ĠBat":4911,"ĠBefore":4912,"ĠArm":4913,"ĠBecause":4914,"fect":4915,"ĠDen":4916,"Ġmechan":4917,"Ġobserved":4918,"ada":4919,"Ġlif":4920,"ĠHurricane":4921,"ĠTim":4922,"Ġopportun":4923,"Ġtitled":4924,"ĠVietn":4925,"ĠBBC":4926,"à¤Ĺà¤£à¤¨":4927,"Ġjournal":4928,"eds":4929,"astic":4930,"Ġwriters":4931,"à¤°à¤ļà¤¨":4932,"rel":4933,"Ġfeaturing":4934,"Ġwa":4935,"à¤¼à¥ģ":4936,"Ġshare":4937,"Ġborder":4938,"ĠFred":4939,"ĠCommission":4940,"Ġstrength":4941,"ĠBridge":4942,"Ġindependent":4943,"Ġwor":4944,"zy":4945,"Ġcontent":4946,"Ġfigure":4947,"Ġsituation":4948,"Ġmel":4949,"Ġinch":4950,"alle":4951,"Ġspot":4952,"Ġà¤®à¤²":4953,"à¤ªà¤¯":4954,"mas":4955,"Ġpaid":4956,"Ġweaken":4957,"la":4958,"ĠLife":4959,"istry":4960,"stein":4961,"11":4962,"ĠColumb":4963,"lam":4964,"Ġparents":4965,"Ġdivided":4966,"Ġpremi":4967,"Ġmind":4968,"ĠParis":4969,"ĠSeries":4970,"Ġacting":4971,"Ġ1986":4972,"Ġonto":4973,"à¤°à¤ļà¤²":4974,"ĠLittle":4975,"Ġactor":4976,"Ġcompanies":4977,"ĠBattalion":4978,"Ġcollabor":4979,"anna":4980,"ĠProdu":4981,"ĠLuc":4982,"phy":4983,"Ġconcent":4984,"illa":4985,"ĠGra":4986,"Ġ1943":4987,"ricket":4988,"Ġreform":4989,"Ġslightly":4990,"perial":4991,"Ġcho":4992,"ĠEntertain":4993,"Ġrating":4994,"Ġpiece":4995,"Ġà¤¨à¤Ī":4996,"Ġtoday":4997,"Ġera":4998,"annel":4999,"à¤ĩà¤¤":5000,"mission":5001,"ĠPop":5002,"60":5003,"Ġlot":5004,"Ġsquare":5005,"Ġpolicy":5006,"Ġpowerful":5007,"Ġselling":5008,"mark":5009,"à¥Įà¤Ĥ":5010,"ĠOs":5011,"à¤Ķà¤°":5012,"ĠHistor":5013,"Ġmaximum":5014,"chest":5015,"Ġdise":5016,"thlet":5017,"uge":5018,"Ġblue":5019,"Ġinnings":5020,"Ġtorped":5021,"Ġà¤Ĩà¤°à¤®":5022,"osaur":5023,"Ġrough":5024,"Ġconver":5025,"Ġ54":5026,"Ġplays":5027,"Ġtend":5028,"Ġactions":5029,"Ġbroke":5030,"itan":5031,"Ġà¤®à¤¦à¤¦":5032,"Ġwaters":5033,"ĠCroat":5034,"inem":5035,"Ġinterp":5036,"ota":5037,"rown":5038,"Ġscale":5039,"Ġbehav":5040,"Ġultimately":5041,"ĠAcademy":5042,"Ġbound":5043,"Ġtrial":5044,"rupt":5045,"oti":5046,"Ġdesignated":5047,"Ġpilot":5048,"za":5049,"Ġcompletely":5050,"mond":5051,"Ġà¤īà¤°":5052,"ĠSk":5053,"Ġess":5054,"ube":5055,"Ġnews":5056,"Ġresults":5057,"Ġgar":5058,"ĠLine":5059,"Ġà¤¤à¤®":5060,"Ġsay":5061,"Ġsociety":5062,"ĠMuseum":5063,"Ġsought":5064,"AF":5065,"Ġwebs":5066,"ĠSaint":5067,"under":5068,"Ġmainly":5069,"ĠHor":5070,"Ġtheory":5071,"ĠVan":5072,"iki":5073,"ĠArab":5074,"Ġcorn":5075,"Ġsources":5076,"Ġhus":5077,"Ġactivity":5078,"olved":5079,"cers":5080,"Ġthous":5081,"ĠWay":5082,"udd":5083,"Ġcombined":5084,"ĠConf":5085,"ala":5086,"ibrary":5087,"Ġofficials":5088,"Ġà¤ĩà¤®":5089,"ylvan":5090,"ĠEntertainment":5091,"ĠLee":5092,"Ġstruck":5093,"Ġcalling":5094,"ero":5095,"Ġà¤ķà¤ł":5096,"Ġwear":5097,"Ġvess":5098,"iano":5099,"Ġinfluenced":5100,"à¤²à¤ķà¤°":5101,"Ġseconds":5102,"Ġrequire":5103,"Ġproblem":5104,"Ġthir":5105,"ĠItaly":5106,"racted":5107,"ĠNH":5108,"Ġalongside":5109,"ĠAut":5110,"Ġbatter":5111,"Ġsystems":5112,"Ġrecent":5113,"Ġnortheast":5114,"while":5115,"Ġmem":5116,"ĠBrigade":5117,"onn":5118,"Ġsout":5119,"orses":5120,"ĠAmericans":5121,"Ġvalue":5122,"Ġwinter":5123,"ented":5124,"ĠIre":5125,"rative":5126,"Ġice":5127,"ĠAlb":5128,"Ġsn":5129,"Ġarticle":5130,"Ġelectric":5131,"ĠTod":5132,"ĠCarl":5133,"Ġnominated":5134,"Ġsuc":5135,"Ġcrow":5136,"Ġtrue":5137,"Ġplatform":5138,"Ġgained":5139,"Ġà¤¤à¤¹à¤¤":5140,"Ġwidely":5141,"à¤ľà¤ª":5142,"Ġartists":5143,"Ġconfirmed":5144,"adel":5145,"Ġir":5146,"Ġresist":5147,"Ġnaval":5148,"Ġchem":5149,"ĠIreland":5150,"ĠSub":5151,"ĠRegiment":5152,"quarters":5153,"ĠGood":5154,"Ġpromoted":5155,"pson":5156,"Ġreaching":5157,"Ġproved":5158,"Ġconflict":5159,"bon":5160,"ĠSant":5161,"Ġpassing":5162,"Ġhere":5163,"Ġgreatest":5164,"ĠAvenue":5165,"Ġ600":5166,"Ġexplained":5167,"ĠEll":5168,"Ġà¤¹à¤Ł":5169,"ĠRay":5170,"aling":5171,"Ġadj":5172,"Ġsubsequent":5173,"aga":5174,"ĠFleet":5175,"ĠChe":5176,"Ġalbums":5177,"Ġcharge":5178,"Ġcoming":5179,"Ġgreen":5180,"Ġwick":5181,"Ġversions":5182,"ĠBus":5183,"Ġpath":5184,"oured":5185,"Ġinvasion":5186,"Ġ1985":5187,"ĠOrig":5188,"Ġhero":5189,"ĠWork":5190,"Ġpeace":5191,"Ġsixth":5192,"ĠLo":5193,"tation":5194,"ees":5195,"Ġweather":5196,"grad":5197,"ĠDi":5198,"iced":5199,"Ġserve":5200,"Ġ53":5201,"Ġnorthwest":5202,"ĠMat":5203,"ips":5204,"Ġcounty":5205,"town":5206,"Ġsays":5207,"Ġà¤ľà¤¨à¤Ĺà¤£à¤¨":5208,"Ġshortly":5209,"Ġà¤¨à¤°":5210,"Ġsust":5211,"Ġexpressed":5212,"Ġà¤ıà¤¡":5213,"à¤¤à¤°à¤£":5214,"Ġla":5215,"ansion":5216,"à¤¨à¤¦":5217,"Ġ97":5218,"Ġcausing":5219,"Ġburn":5220,"ĠAdd":5221,"à¤ľà¤µ":5222,"Ġseek":5223,"ysis":5224,"Ġreception":5225,"Ġcities":5226,"ĠVictoria":5227,"ĠNorm":5228,"itness":5229,"Ġ1984":5230,"ĠCatholic":5231,"ĠTropical":5232,"Ġkg":5233,"ĠRy":5234,"à¤Īà¤¸":5235,"ĠValley":5236,"ĠFar":5237,"à¤ħà¤¤":5238,"ĠRam":5239,"Ġsense":5240,"Ġresidents":5241,"Ġemot":5242,"ĠCharl":5243,"ĠCommun":5244,"Ġsoundtrack":5245,"ĠNin":5246,"Ġà¤¨à¤ķ":5247,"ĠLight":5248,"Ġpun":5249,"Ġextra":5250,"ĠLive":5251,"ĠKar":5252,"Ġphysical":5253,"ĠLiber":5254,"Ġeas":5255,"ĠVol":5256,"ĠMiddle":5257,"Ġsexual":5258,"ancy":5259,"Ġseasons":5260,"Ġhospital":5261,"Ġappearances":5262,"Ġdistrict":5263,"Ġ177":5264,"itable":5265,"Ġ{":5266,"ĠDun":5267,"Ġgas":5268,"Ġdata":5269,"arden":5270,"Ġidentified":5271,"Ġolder":5272,"à¤·à¤°":5273,"ĠSa":5274,"Ġiron":5275,"ighth":5276,"ĠWW":5277,"à¤¤à¤ª":5278,"Ġpal":5279,"Ġà¤ħà¤ªà¤°":5280,"ĠHy":5281,"Ġhands":5282,"Ġoffer":5283,"infall":5284,"ronic":5285,"Ġavoid":5286,"ĠTop":5287,"Ġ41":5288,"à¤·à¤®":5289,"Ġà¤¹à¤®à¤²":5290,"à¤¶à¤¨à¤²":5291,"Ġdedic":5292,"ĠMen":5293,"Ġtells":5294,"ĠShow":5295,"ĠThough":5296,"Ġsupp":5297,"Ġà¤Ĭà¤°":5298,"Ġrepresented":5299,"Ġweight":5300,"ĠJul":5301,"Ġartillery":5302,"ĠDirect":5303,"Ġweapons":5304,"Ġahead":5305,"Ġbit":5306,"ĠFootball":5307,"ias":5308,"ĠLy":5309,"ĠYoung":5310,"ĠThrough":5311,"à¤¯à¤£":5312,"aded":5313,"ylvania":5314,"eption":5315,"ĠFre":5316,"Ġpage":5317,"ĠTay":5318,"Ġalone":5319,"ports":5320,"abeth":5321,"Ġspread":5322,"known":5323,"ĠBey":5324,"Ġagg":5325,"Ġheavily":5326,"ĠDutch":5327,"Ġà¤Ĩà¤ªà¤ķ":5328,"Ġinstit":5329,"oration":5330,"Ġpattern":5331,"lers":5332,"ĠUpon":5333,"Ġstudent":5334,"Ġapparent":5335,"Ġlabel":5336,"Ġstudies":5337,"ĠWeek":5338,"Ġchallen":5339,"bur":5340,"ĠTem":5341,"Ġmagn":5342,"Ġdefense":5343,"ĠEliz":5344,"Ġofficially":5345,"Ġwild":5346,"Ġcell":5347,"ĠIll":5348,"Ġhusband":5349,"à¤¨à¤ķà¤°":5350,"essions":5351,"ĠAlbert":5352,"Ġreference":5353,"à¤®à¤ļ":5354,"Ġsend":5355,"Ġexecutive":5356,"Ġorganization":5357,"Ġinstrument":5358,"Ġpack":5359,"Ġcapture":5360,"ĠDam":5361,"Ġpict":5362,"ĠBre":5363,"Ġdebuted":5364,"Ġinjury":5365,"Ġà¤Ĺà¤¢":5366,"Ġgraph":5367,"à¤¤à¤°à¤°":5368,"Ġprominent":5369,"Ġhap":5370,"Ġfigures":5371,"rat":5372,"ĠRog":5373,"Ġconsisted":5374,"Ġstone":5375,"à¤ĩà¤¯":5376,"acity":5377,"ĠSystem":5378,"Ġequipment":5379,"Ġ56":5380,"Ġdoing":5381,"Ġeth":5382,"Ġfired":5383,"rog":5384,"à¤¥à¤ķ":5385,"Ġmatter":5386,"Ġox":5387,"ĠCivil":5388,"ĠBond":5389,"Ġpan":5390,"pool":5391,"Ġstep":5392,"Ġresc":5393,"ĠIS":5394,"ĠGal":5395,"Ġgrowth":5396,"Ġprepar":5397,"lines":5398,"Ġhyd":5399,"Ġhun":5400,"urban":5401,"Ġ95":5402,"Ġargued":5403,"Ġà¤¤à¤Ł":5404,"Ġring":5405,"Ġsurpris":5406,"Ġaired":5407,"Ġbud":5408,"Ġ1968":5409,"à¤īà¤¤":5410,"ifying":5411,"Ġà¤µà¤ķ":5412,"Ġexped":5413,"ordin":5414,"bit":5415,"ĠHa":5416,"Ġ57":5417,"Ġcouple":5418,"Ġearth":5419,"ĠHomer":5420,"Ġreturning":5421,"ola":5422,"Ġpropos":5423,"ental":5424,"Ġcontemporary":5425,"ushed":5426,"Ġpoet":5427,"emic":5428,"Ġdoub":5429,"Ġtable":5430,"Ġcert":5431,"Ġtun":5432,"ĠFe":5433,"Ġhabit":5434,"Ġfloor":5435,"Ġà¤¸à¤ļ":5436,"ĠNorthern":5437,"Ġleaders":5438,"Ġaffected":5439,"acement":5440,"Ġrang":5441,"Ġlaid":5442,"Ġ85":5443,"amber":5444,"ĠHard":5445,"Ġcommunic":5446,"hew":5447,"Ġshell":5448,"Ġpieces":5449,"Ġmaintain":5450,"Ġmaintained":5451,"Ġà¤īà¤¡":5452,"inson":5453,"Ġ*":5454,"Ġtermin":5455,"ivity":5456,"ĠStorm":5457,"stone":5458,"ype":5459,"Ġoccasion":5460,"rect":5461,"Ġcomes":5462,"13":5463,"Ġvisited":5464,"Ġspeech":5465,"ĠDaniel":5466,"à¤°à¤Ĺ":5467,"Ġactivities":5468,"Ġ1967":5469,"uls":5470,"Ġrain":5471,"ners":5472,"Ġcriticized":5473,"Ġdispl":5474,"Ġsetting":5475,"Ġà¤īà¤ªà¤ķà¤°à¤£":5476,"Ġdrug":5477,"Ġtournament":5478,"Ġexec":5479,"Ġload":5480,"ĠJon":5481,"Ġattract":5482,"à¤ħà¤²":5483,"ockey":5484,"Ġemph":5485,"ĠCarolina":5486,"ĠGovernment":5487,"Ġhall":5488,"uct":5489,"Ġcitiz":5490,"Ġbul":5491,"Ġà¤Ńà¤µ":5492,"Ġ1939":5493,"ocked":5494,"Ġreign":5495,"Ġadapt":5496,"Ġtoward":5497,"Ġsingles":5498,"Ġtrees":5499,"Ġformation":5500,"ĠRom":5501,"Ġà¤ĩà¤¤à¤¨":5502,"ĠDev":5503,"Ġmedical":5504,"Ġà¤Ĳà¤¤":5505,"Ġterritory":5506,"Ġ1971":5507,"ef":5508,"Ġsenior":5509,"Ġut":5510,"Ġtrying":5511,"à¤Łà¤µ":5512,"ĠMarsh":5513,"Ġcrowd":5514,"estic":5515,"ĠScottish":5516,"Ġworldwide":5517,"ĠCD":5518,"elve":5519,"Ġstations":5520,"Ġmachine":5521,"ĠDistrict":5522,"Ġfollows":5523,"ĠHolly":5524,"embly":5525,"Ġà¤¸à¤¹à¤¯":5526,"Ġdog":5527,"ĠOcean":5528,"velopment":5529,"orne":5530,"ĠWrit":5531,"Ġà¤¸à¤«à¤²":5532,"Ġ1972":5533,"ruit":5534,"agn":5535,"Ġsurre":5536,"Ġà¤¤à¤²":5537,"Ġà¥¬":5538,"ĠRod":5539,"Ġgod":5540,"ĠField":5541,"Ġ120":5542,"Ġdoll":5543,"ĠOperation":5544,"Ġfully":5545,"ĠMD":5546,"Ġ1983":5547,"Ġnegoti":5548,"aly":5549,"ĠHome":5550,"Ġbirds":5551,"Ġtherefore":5552,"ĠGovernor":5553,"Ġ74":5554,"Ġeditor":5555,"Ġclaims":5556,"gian":5557,"Ġrisk":5558,"gu":5559,"Ġsens":5560,"Ġdyn":5561,"ĠFantasy":5562,"Ġsplit":5563,"ĠBackground":5564,"omers":5565,"Ġ59":5566,"Ġmurder":5567,"uled":5568,"Ġaccident":5569,"resh":5570,"Ġsupply":5571,"ĠGuard":5572,"ledge":5573,"Ġhistorian":5574,"ĠColon":5575,"Ġtreatment":5576,"ĠPenns":5577,"stitution":5578,"resp":5579,"Ġrainfall":5580,"Ġfrequently":5581,"Ġchosen":5582,"Ġ99":5583,"ĠShort":5584,"ĠPers":5585,"rael":5586,"ĠDuke":5587,"Ġuniversity":5588,"Ġelement":5589,"Ġ1982":5590,"Ġtwice":5591,"FA":5592,"eller":5593,"ĠLew":5594,"Ġguest":5595,"ayer":5596,"ĠGirl":5597,"Ġreports":5598,"illy":5599,"ĠStudios":5600,"izes":5601,"BA":5602,"Ã¨":5603,"Ġpaper":5604,"gend":5605,"ĠPolish":5606,"à¤¨à¤ª":5607,"Ġleaves":5608,"Ġcondition":5609,"ĠBeat":5610,"Ġsimply":5611,"ables":5612,"ãĤ":5613,"ĠEastern":5614,"Ġgovernor":5615,"Ġopin":5616,"onents":5617,"Ġremark":5618,"Ġbillion":5619,"à¤ĩà¤®":5620,"Ġplanet":5621,"ĠSenate":5622,"ampion":5623,"ĠCorn":5624,"ufact":5625,"Ġbal":5626,"ĠRos":5627,"Ġà¤ħà¤¶":5628,"Ġ1979":5629,"Ġfaced":5630,"Ġà¤ļà¤°à¤£":5631,"Ġ1969":5632,"Ġoperated":5633,"Ġwalls":5634,"Ġmanufact":5635,"Ġdegree":5636,"orter":5637,"ura":5638,"ĠBart":5639,"Ġtypically":5640,"Ġcontained":5641,"ĠAndrew":5642,"ĠJud":5643,"Ġ1975":5644,"Ġswe":5645,"Ġescape":5646,"Ġsle":5647,"ety":5648,"ĠHum":5649,"ĠNight":5650,"ĠMean":5651,"isters":5652,"Ġgrew":5653,"Ġsurrounding":5654,"Ġà¤«à¤°":5655,"more":5656,"tar":5657,"Ġcannot":5658,"Ġfair":5659,"rance":5660,"isco":5661,"ĠChristmas":5662,"uous":5663,"Ġwebsite":5664,"Ġhorses":5665,"Ġnative":5666,"Ġherself":5667,"Ġà¤ľà¤¨à¤¤":5668,"Ġmoment":5669,"utation":5670,"Ġà¤īà¤ªà¤¸":5671,"Ġ1964":5672,"Ġaccompan":5673,"à¤µà¤ľà¤¨":5674,"Ġunf":5675,"Ġ76":5676,"Ġwounded":5677,"Ġpasses":5678,"Ġmaster":5679,"ĠAllied":5680,"Ġfuel":5681,"aming":5682,"antly":5683,"ricult":5684,"Ġdraft":5685,"Ġrailway":5686,"Ġ72":5687,"Ġnothing":5688,"rich":5689,"rin":5690,"ĠWilson":5691,"Ġbrown":5692,"Ġphil":5693,"ĠDet":5694,"ĠUs":5695,"Ġattrib":5696,"Ġexperiment":5697,"Ġreinf":5698,"Ġauthority":5699,"fully":5700,"à¤ķà¤®":5701,"ĠTaylor":5702,"ĠSS":5703,"ĠGi":5704,"Ġvote":5705,"Ġarms":5706,"ĠPen":5707,"Ġfeed":5708,"Ġpsych":5709,"Ġdang":5710,"Ġlives":5711,"ĠAlexander":5712,"ĠElizabeth":5713,"Ã¤":5714,"Ġorders":5715,"Ġconsecutive":5716,"ĠCa":5717,"ĠLand":5718,"Ġunknown":5719,"ographer":5720,"ĠOf":5721,"Ġopposed":5722,"lement":5723,"Ġ1973":5724,"Ġcamer":5725,"ĠJac":5726,"ager":5727,"Ġ1965":5728,"Ġserving":5729,"ĠExp":5730,"Ġchose":5731,"isf":5732,"ĠMike":5733,"Ġworkers":5734,"Ġnewly":5735,"ĠJoe":5736,"ĠRet":5737,"ĠEach":5738,"aby":5739,"Ġparticipated":5740,"Ġemphas":5741,"Ġfan":5742,"imens":5743,"Ġgrowing":5744,"ancing":5745,"ucky":5746,"azz":5747,"Ġbenef":5748,"Ġcasual":5749,"Ġbass":5750,"ĠSound":5751,"ĠCastle":5752,"Ġadvanced":5753,"ĠFestival":5754,"anda":5755,"Ġproducers":5756,"pton":5757,"ĠHead":5758,"ilies":5759,"Ġspirit":5760,"Ġrom":5761,"Ġsequence":5762,"Ġlosing":5763,"ĠWhat":5764,"Ġast":5765,"Ġbasis":5766,"Ġà¤¸à¤«à¤²à¤¤":5767,"Ġadopted":5768,"Ġheard":5769,"then":5770,"Ġcapacity":5771,"Ġ800":5772,"Ġ1966":5773,"Ġfilming":5774,"Ġoffensive":5775,"Ġsevere":5776,"ĠPennsylvania":5777,"Ġextend":5778,"ĠIslands":5779,"Ġcompar":5780,"Ġ58":5781,"Ġ62":5782,"orship":5783,"Ġopposition":5784,"Ġinte":5785,"ĠInst":5786,"uses":5787,"ĠWat":5788,"Ġcouncil":5789,"ĠCard":5790,"eed":5791,"Ġfiction":5792,"ĠInstitute":5793,"Ġguard":5794,"Ġnormal":5795,"Ġprin":5796,"ĠBlue":5797,"Ġcreating":5798,"ĠGall":5799,"Ġur":5800,"Ġends":5801,"iated":5802,"Ġà¤¹à¤²":5803,"Ġadvant":5804,"Ġ09":5805,"ĠElect":5806,"Ġactors":5807,"Ġà¤ķà¤¹à¤²":5808,"aven":5809,"Ġ1976":5810,"Ġnewspaper":5811,"Ġà¤ĵà¤²":5812,"Ġenter":5813,"Ġweak":5814,"Ġ1974":5815,"Ġ66":5816,"à¦":5817,"ĠIrish":5818,"ĠTech":5819,"Ġ178":5820,"ĠReception":5821,"Ġrear":5822,"Ġsquadron":5823,"Ġ51":5824,"Ġabandoned":5825,"à¤£à¤¯":5826,"Ġprompt":5827,"imal":5828,"Ġrival":5829,"ĠFurther":5830,"isers":5831,"Ġà¤ħà¤ľ":5832,"ĠFam":5833,"Ġexpansion":5834,"Ġkick":5835,"Ġelev":5836,"Ġhappen":5837,"Ġpoll":5838,"Ġspect":5839,"war":5840,"ĠHarry":5841,"Ġhonor":5842,"Ġnegative":5843,"Ġbey":5844,"Ġflying":5845,"Ġcoal":5846,"Ġmeasure":5847,"eld":5848,"Ġlaunch":5849,"à¤°à¤¹à¤£":5850,"onc":5851,"Ġà¤¤à¤°à¤«":5852,"ĠSpain":5853,"Ġmob":5854,"ĠJersey":5855,"oh":5856,"Ġindividuals":5857,"Ġregarded":5858,"Ġfailure":5859,"och":5860,"ima":5861,"Ġfilmed":5862,"Ġcriticism":5863,"Ġbeyond":5864,"Ġdeploy":5865,"Ġcolumn":5866,"Ġvo":5867,"Ġagreement":5868,"ĠEnd":5869,"ĠAre":5870,"Ġincident":5871,"Ġdelay":5872,"Ġhomes":5873,"ĠCoast":5874,"ĠSquare":5875,"apers":5876,"Ġspring":5877,"ĠSand":5878,"Ġsports":5879,"Ġeye":5880,"Ġliber":5881,"ĠPublic":5882,"ounger":5883,"ĠUl":5884,"Ġfamous":5885,"Ġnecessary":5886,"Ġcontact":5887,"à¤ªà¤®":5888,"ĠLind":5889,"Ġchair":5890,"Ġpossibly":5891,"Ġhistorical":5892,"iny":5893,"Ġsail":5894,"Ġ77":5895,"imet":5896,"Ġevac":5897,"ico":5898,"Ġdismiss":5899,"Ġtempl":5900,"ĠBul":5901,"Ġparalle":5902,"Ġbodies":5903,"Ġbelieve":5904,"ĠâĪ":5905,"Ġapplic":5906,"ĠWild":5907,"Ġboat":5908,"ifications":5909,"onent":5910,"Ġachieved":5911,"ĠVen":5912,"iana":5913,"Ġideas":5914,"Ġprogress":5915,"ĠBroad":5916,"Ġstrike":5917,"ĠMul":5918,"Ġsilver":5919,"ĠBoard":5920,"Ġroles":5921,"Ġnarrow":5922,"Ġdisease":5923,"iner":5924,"Ġà¤ĩà¤¸à¤¸":5925,"Ġ1981":5926,"ĠProduction":5927,"Ġpet":5928,"Ġretired":5929,"à¤Łà¤°à¤¨":5930,"ĠIsrael":5931,"ii":5932,"mosp":5933,"Ġkilling":5934,"Ġfellow":5935,"hol":5936,"ienced":5937,"set":5938,"ĠMir":5939,"Ġdrive":5940,"ĠAsh":5941,"ĠArthur":5942,"à¤¹à¤¸":5943,"ĠRevolution":5944,"Ġrepeated":5945,"Ġimag":5946,"kins":5947,"ĠSund":5948,"Ġtree":5949,"Ġtask":5950,"Ġdefin":5951,"Ġpurpose":5952,"edom":5953,"Ġdiam":5954,"Ġeffective":5955,"Ġtorpedo":5956,"Ġarrang":5957,"ĠPerson":5958,"Ġperman":5959,"ocks":5960,"oma":5961,"Ġbriefly":5962,"Ġarmed":5963,"ĠBell":5964,"Ġreceive":5965,"Ġappl":5966,"Ġglob":5967,"Ġ1948":5968,"Ġ1918":5969,"ĠDue":5970,"Ġ67":5971,"ĠCub":5972,"ĠEp":5973,"Ġtower":5974,"Ġgranted":5975,"worth":5976,"Ġbudget":5977,"enger":5978,"Ġadministration":5979,"Ġ250":5980,"ĠArg":5981,"ĠLes":5982,"Ġpersonnel":5983,"Ġcontain":5984,"Ġroads":5985,"kes":5986,"Ġà¤¸à¤ľ":5987,"Ġmanagement":5988,"Ġrejected":5989,"iments":5990,"ĠDoctor":5991,"Ġinh":5992,"Ġimproved":5993,"ĠMeanwhile":5994,"aved":5995,"Ġgross":5996,"Ġleadership":5997,"à¤ĩà¤µ":5998,"Ġtwelve":5999,"ĠProt":6000,"Ġsoft":6001,"ĠClark":6002,"ĠRepublican":6003,"Ġexpress":6004,"Ġà¤µà¤ľà¤¹":6005,"Ġplants":6006,"Ġ1914":6007,"Ġkilometres":6008,"ĠAlbum":6009,"lusion":6010,"avalry":6011,"Ġinterchange":6012,"Ġextensive":6013,"uate":6014,"Ġlearn":6015,"Ġbott":6016,"Ġ1977":6017,"ev":6018,"Ġstraight":6019,"Ġdescribes":6020,"ourney":6021,"ĠMah":6022,"Ġturns":6023,"Ġexpanded":6024,"ĠOhio":6025,"zil":6026,"Ġprefer":6027,"Ġyellow":6028,"Ġhighlight":6029,"Ġchoice":6030,"Ġlands":6031,"Ġtypes":6032,"Ġbroken":6033,"Ġinfantry":6034,"oln":6035,"Ġseat":6036,"Ġanimal":6037,"iÄĩ":6038,"Ġgives":6039,"erc":6040,"Ġplaces":6041,"à¤ķà¤µ":6042,"Ġintellig":6043,"Ġlanding":6044,"Ġsolo":6045,"ĠSecretary":6046,"gers":6047,"Ġsuccessfully":6048,"à¥§à¥¯à¥":6049,"Ġfranch":6050,"Ġexcl":6051,"Ġmile":6052,"ĠLiver":6053,"Ġà¤Ĺà¤£à¤¨":6054,"ĠMov":6055,"adelph":6056,"Ġsand":6057,"Ġtru":6058,"Ġdidn":6059,"Ġquot":6060,"Ġcrossing":6061,"Ġ1978":6062,"Ġdeliver":6063,"ĠBru":6064,"ĠSR":6065,"Ġà¤ķà¤¶":6066,"Ġà¤®à¤¶":6067,"Ġexplos":6068,"Ġcreation":6069,"haps":6070,"Ġwave":6071,"Ġorganized":6072,"rif":6073,"Ġchor":6074,"Ġà¤ħà¤®à¤°":6075,"Ġfought":6076,"Ġ63":6077,"ĠPhiladelph":6078,"appy":6079,"Ġcaught":6080,"ĠRel":6081,"Ġà¤ĸà¤¡":6082,"Ġsuggests":6083,"ĠDur":6084,"Ġcommittee":6085,"Ġancient":6086,"Ġnuclear":6087,"rus":6088,"ĠBurn":6089,"Ġvehicles":6090,"Ġcommissioned":6091,"ĠSher":6092,"stream":6093,"Ġroof":6094,"Ġacquired":6095,"ta":6096,"Ġfat":6097,"ĠEven":6098,"ĠLar":6099,"ĠNever":6100,"aith":6101,"ĠHit":6102,"ĠCambridge":6103,"etball":6104,"ĠAlso":6105,"ĠGeorgia":6106,"Ġty":6107,"Ġheight":6108,"Ġdrama":6109,"amin":6110,"akers":6111,"box":6112,"ĠConst":6113,"Ġroll":6114,"à¤¬à¤¹":6115,"ipl":6116,"Ġseventh":6117,"Ġcommonly":6118,"ĠPhiladelphia":6119,"Ġcomedy":6120,"Ġencoura":6121,"zer":6122,"Ġunsu":6123,"Ġprotection":6124,"Ġà¤¸à¤¡":6125,"Ġ1946":6126,"Ġdrop":6127,"Ġà¤ıà¤¯à¤°":6128,"Ġdetermined":6129,"ng":6130,"etts":6131,"uting":6132,"Ġlooking":6133,"Ġà¤¹à¤¤":6134,"uan":6135,"Ġgenus":6136,"Ġauthorities":6137,"Ġdial":6138,"Ġcontrolled":6139,"oles":6140,"Ġsets":6141,"Ġrecently":6142,"Ġheadquarters":6143,"Ġmentioned":6144,"Ġà¤°à¤¨":6145,"ĠRussia":6146,"Ġcenturies":6147,"attle":6148,"Ġx":6149,"Ġ73":6150,"ĠKa":6151,"Ġbeaut":6152,"Ġislands":6153,"Ġprovides":6154,"à¤¦à¤µ":6155,"umes":6156,"Ġillust":6157,"Ġrequest":6158,"ĠWars":6159,"ĠAddition":6160,"Ġstreet":6161,"ĠGil":6162,"Ġcontaining":6163,"gn":6164,"à¤¡à¤µ":6165,"arts":6166,"Ġtrav":6167,"Ġfavour":6168,"ĠChap":6169,"Ġsecurity":6170,"put":6171,"Ġaim":6172,"Ġunique":6173,"ĠBad":6174,"Ġdecre":6175,"Ġfamilies":6176,"Ġacad":6177,"Ġfinds":6178,"restling":6179,"ishes":6180,"à¤®à¤§":6181,"Ġadvert":6182,"va":6183,"Ġhousehold":6184,"Ġvari":6185,"ĠAmong":6186,"Ġ160":6187,"ĠNintend":6188,"Ġreflect":6189,"ĠLiverpool":6190,"Ġven":6191,"Ġunp":6192,"Ġtitles":6193,"Ġexisting":6194,"Ġ87":6195,"ĠDevelopment":6196,"outs":6197,"Ġstanding":6198,"Ġmic":6199,"à¤ĩà¤ľ":6200,"ĠHay":6201,"Ġsuppor":6202,"ĠNintendo":6203,"Ġtry":6204,"Ġà¤Ľà¤¤":6205,"ĠEarl":6206,"ĠLinc":6207,"respond":6208,"ĠColumbia":6209,"Ġfish":6210,"Ġconvers":6211,"à¥įâĢĮ":6212,"Ġsac":6213,"ware":6214,"Ġwithdraw":6215,"ĠPrime":6216,"ĠAsia":6217,"Ġsinging":6218,"ĠCommon":6219,"ĠJenn":6220,"Ġcultural":6221,"itled":6222,"Ġmist":6223,"Ġbattalion":6224,"Ġprotect":6225,"Ġentirely":6226,"water":6227,"ulate":6228,"illing":6229,"Ġdeck":6230,"Ġfinish":6231,"Ġ1962":6232,"Ġorchest":6233,"ĠSingap":6234,"ĠChild":6235,"Ġ69":6236,"Ġmis":6237,"iling":6238,"à¤Łà¤¬":6239,"Ġcontributed":6240,"ĠKorean":6241,"ĠHun":6242,"pping":6243,"rons":6244,"ĠLincoln":6245,"à¤ĳ":6246,"ĠPot":6247,"Ġwhy":6248,"Ġtouchdown":6249,"ava":6250,"Ġatmosp":6251,"Ġrow":6252,"Ġ1947":6253,"Ġawards":6254,"Ġfix":6255,"Ġdefence":6256,"Ġdefined":6257,"Ġthemes":6258,"ns":6259,"room":6260,"Ġyounger":6261,"ĠBrazil":6262,"ĠTam":6263,"Ġthing":6264,"ĠPeople":6265,"ĠBas":6266,"Ġsimple":6267,"ĠLieutenant":6268,"Ġcurrently":6269,"Ġ1956":6270,"ĠOffice":6271,"à¤¬à¤®":6272,"Ġcomputer":6273,"Ġquite":6274,"Ġflooding":6275,"à¤µà¤ļ":6276,"ĠRol":6277,"inity":6278,"icial":6279,"Ġpowers":6280,"ĠBor":6281,"Ġà¤Ĺà¤¹à¤°":6282,"ĠJewish":6283,"ĠMot":6284,"Ġlocations":6285,"AT":6286,"Ġ2018":6287,"Ġscheduled":6288,"Ġinteract":6289,"Ġpurchased":6290,"Ġworth":6291,"atures":6292,"ĠHon":6293,"ĠSingapore":6294,"wall":6295,"à¤®à¤¯":6296,"Ġperfect":6297,"Ġ1963":6298,"rant":6299,"ĠFrancisco":6300,"Ġdefensive":6301,"Ġlic":6302,"ĠDark":6303,"Ġarrival":6304,"Ġunus":6305,"Ġà¥®":6306,"Ġresemb":6307,"dy":6308,"Ġceremony":6309,"Ġaccompanied":6310,"Ġadvantage":6311,"ĠSix":6312,"Ġexpedition":6313,"wick":6314,"Ġphilos":6315,"ĠKey":6316,"ym":6317,"ĠDisney":6318,"Ġdedicated":6319,"ĠLis":6320,"Ġperforming":6321,"Station":6322,"Ġbat":6323,"Ġextrem":6324,"pper":6325,"Ġselection":6326,"ĠâĪĴ":6327,"ua":6328,"acted":6329,"ĠCarey":6330,"hi":6331,"Ġstore":6332,"agan":6333,"laim":6334,"ĠInc":6335,"hens":6336,"ĠOrder":6337,"ĠPlayStation":6338,"Ġintensity":6339,"ashion":6340,"ĠKel":6341,"Ġoccupied":6342,"rations":6343,"yles":6344,"Ġsquad":6345,"ĠSu":6346,"ĠHMS":6347,"Ġcarry":6348,"Ġnob":6349,"ba":6350,"Ġtim":6351,"Ġ94":6352,"Ġfresh":6353,"Ġtail":6354,"à¤ªà¤¹à¤²":6355,"Ġconsists":6356,"Ġcricket":6357,"ĠUN":6358,"ĠDie":6359,"ali":6360,"ĠTurn":6361,"fort":6362,"Ġmounted":6363,"Ġclosely":6364,"Ġmouth":6365,"Ġà¤ıà¤ľ":6366,"à¤«à¤°":6367,"ĠSerb":6368,"ĠLewis":6369,"ĠRadio":6370,"ĠConference":6371,"Ġsession":6372,"roll":6373,"itors":6374,"ĠAnderson":6375,"cript":6376,"Ġegg":6377,"ĠBrook":6378,"Ġcorrespond":6379,"Ġbelong":6380,"ĠBalt":6381,"Ġfirm":6382,"ĠPu":6383,"awa":6384,"ĠSteve":6385,"ĠMiller":6386,"otic":6387,"Ġprotected":6388,"à¤Łà¤µà¤°":6389,"Ġà¤®à¤ľ":6390,"verse":6391,"Ġelimin":6392,"Ġindustrial":6393,"ĠMu":6394,"ĠByz":6395,"ĠOlympic":6396,"mouth":6397,"Ġparallel":6398,"Ġ96":6399,"osa":6400,"Ġcold":6401,"Ġ1917":6402,"Ġsupporting":6403,"ĠIV":6404,"ĠShak":6405,"ilton":6406,"Ġfacilities":6407,"ĠGrant":6408,"ĠKir":6409,"Ġpiano":6410,"à¤ĩà¤¨à¤®":6411,"ĠOnce":6412,"ĠConn":6413,"Ġdrawn":6414,"Ġà¤Ķà¤¸à¤¤":6415,"Ġcalls":6416,"gest":6417,"Ġanalysis":6418,"Ġà¤īà¤¸à¤¸":6419,"ker":6420,"ĠAv":6421,"Ġregions":6422,"Ġtrains":6423,"Ġmotion":6424,"ĠBrian":6425,"Ġrise":6426,"Ġhyp":6427,"ĠRailway":6428,"Ġrated":6429,"ĠByzant":6430,"Ġboats":6431,"FL":6432,"ĠNHL":6433,"gal":6434,"Ġmotor":6435,"Ġstructures":6436,"ults":6437,"Ġadap":6438,"ocated":6439,"ĠPress":6440,"à¤ıà¤«":6441,"Ġhair":6442,"ĠBarb":6443,"iler":6444,"ingly":6445,"Ġpros":6446,"Ġaid":6447,"Ġsubmar":6448,"Ġnotable":6449,"ĠEmperor":6450,"à¤Łà¤¤":6451,"Ġsport":6452,"Ġvisual":6453,"Ġcharts":6454,"Ġlap":6455,"Ġlabor":6456,"Ġthrow":6457,"ĠWater":6458,"Ġcomic":6459,"Ã¸":6460,"Ġproviding":6461,"ĠOb":6462,"sey":6463,"Ġ68":6464,"Ġreceiving":6465,"Ġopportunity":6466,"Ġfocused":6467,"Ġshark":6468,"Ġcitizens":6469,"Ġengaged":6470,"ĠJr":6471,"à¤ĩà¤¸à¤¸":6472,"Ġharm":6473,"olid":6474,"ropri":6475,"Ġshooting":6476,"Ġobserv":6477,"ĠSummer":6478,"uzz":6479,"ĠGulf":6480,"Ġexperienced":6481,"Ġstrengthen":6482,"Ġconference":6483,"ĠHan":6484,"Ġà¤¬à¤¨à¤¨":6485,"Ġsites":6486,"ĠGer":6487,"ĠHollywood":6488,"Ġtransform":6489,"Ġletters":6490,"ĠSpecial":6491,"Ġvolume":6492,"Ġvac":6493,"Ġreaction":6494,"Ġsort":6495,"Ġmut":6496,"ĠOnly":6497,"Ġholding":6498,"ifically":6499,"Ġsymbol":6500,"inger":6501,"ading":6502,"heim":6503,"ĠGermans":6504,"Ġbranch":6505,"Ġrecognized":6506,"Ġmountain":6507,"Ġresident":6508,"ĠWalter":6509,"Ġtemperature":6510,"Ġà¤ħà¤µà¤¶":6511,"Ġeyes":6512,"ĠDavis":6513,"ĠReview":6514,"Ġviewed":6515,"unior":6516,"à¤ķà¤Ī":6517,"Ġà¤²à¤®":6518,"Ġrob":6519,"Ġà¤ķà¤Ł":6520,"ĠGib":6521,"Ġhired":6522,"AR":6523,"Ġsoutheast":6524,"à¤¦à¤¯":6525,"Ġalle":6526,"opher":6527,"Ġmerch":6528,"burgh":6529,"ĠTiT":6530,"Ġ82":6531,"ĠTiP":6532,"Ġsemi":6533,"ĠBank":6534,"ati":6535,"Ġprote":6536,"Ġrapidly":6537,"Ġscholars":6538,"ĠMas":6539,"Ġshared":6540,"ora":6541,"ĠJean":6542,"Ġ84":6543,"Ġgain":6544,"ĠAtt":6545,"Ġhydro":6546,"Ġ89":6547,"à¥¦à¥¦à¥¦":6548,"ĠDown":6549,"ĠDemocratic":6550,"Ġà¤ķà¤ķ":6551,"ĠFall":6552,"ĠNap":6553,"Ġdigital":6554,"enc":6555,"Ġcart":6556,"Ġteach":6557,"Ġadding":6558,"Ġpublication":6559,"han":6560,"essed":6561,"Ġconcer":6562,"ographic":6563,"Ġpoem":6564,"Ġeconomy":6565,"Ġ1961":6566,"asty":6567,"Ġsteel":6568,"à¤ħà¤®":6569,"Ġcasualties":6570,"ĠBetween":6571,"oz":6572,"ĠRome":6573,"Ġedge":6574,"Ġà¤ħà¤¸à¤®":6575,"à¤®à¤ª":6576,"Ġmoder":6577,"standing":6578,"à¤Ĺà¤£":6579,"Ġsecondary":6580,"Ġcontest":6581,"Ġdeveloping":6582,"Ġ700":6583,"Ġvon":6584,"ĠProv":6585,"Ġcool":6586,"Ġ78":6587,"Ġprojects":6588,"friend":6589,"Ġ1919":6590,"à¤ļà¤¤":6591,"ryst":6592,"rence":6593,"Ġ}":6594,"ĠPrinc":6595,"Ġintersection":6596,"zen":6597,"ĠTen":6598,"Ġ2017":6599,"Ġà¤Ĩà¤ı":6600,"yer":6601,"ĠWomen":6602,"Ġchance":6603,"omew":6604,"Ġapproved":6605,"Äģ":6606,"Ġexact":6607,"Ġà¤«à¤²":6608,"Ġinstruct":6609,"Ġsave":6610,"à¤Ĩà¤ľ":6611,"ologist":6612,"ĠLady":6613,"Ġcard":6614,"ĠGord":6615,"Ġrac":6616,"aka":6617,"Ġgoes":6618,"eral":6619,"ĠMusl":6620,"ella":6621,"Ġà¤īà¤ªà¤ļ":6622,"ĠPlan":6623,"oncÃ©":6624,"iful":6625,"Ġmyth":6626,"Ġsubstant":6627,"Ġ1915":6628,"ules":6629,"Ġlosses":6630,"ĠDaily":6631,"Ġallows":6632,"onder":6633,"Ġtechnology":6634,"Ġprepared":6635,"Ġbelief":6636,"ĠIndust":6637,"Ġsignificantly":6638,"Ġliterature":6639,"ĠNaz":6640,"ĠMain":6641,"Ġenl":6642,"Ġà¤¨à¤®":6643,"range":6644,"Ġdomestic":6645,"Ġcalc":6646,"Ġbands":6647,"à¤¦à¤²":6648,"Ġwitness":6649,"ĠSE":6650,"Ġanything":6651,"Ã¡n":6652,"unte":6653,"Ġlb":6654,"ĠSyd":6655,"Ġà¤Ĩà¤®à¤¤":6656,"à¤¬à¤¤":6657,"Ġreasons":6658,"Ġfranchise":6659,"ĠBern":6660,"Ġ130":6661,"break":6662,"Ġknew":6663,"Ġign":6664,"iro":6665,"achus":6666,"mes":6667,"Ġrend":6668,"omic":6669,"ĠBeyoncÃ©":6670,"Ġadvent":6671,"Ġdescend":6672,"Ġheads":6673,"Ġà¤®à¤ķ":6674,"Ġunsuccess":6675,"Ġmessage":6676,"ira":6677,"Ġactress":6678,"Ġrules":6679,"Ġroughly":6680,"ĠCur":6681,"ĠCommand":6682,"Ġsouthwest":6683,"Ġsteam":6684,"Ġcab":6685,"Ġurban":6686,"à¤¶à¤°":6687,"Ġresistance":6688,"Ġcore":6689,"ĠPoint":6690,"osis":6691,"Ġ88":6692,"BS":6693,"ĠStation":6694,"amm":6695,"Ġà¤ħà¤µà¤¸à¤°":6696,"Ġpitch":6697,"à¤łà¤ķ":6698,"à¤ħà¤¬":6699,"ĠVar":6700,"Ġadult":6701,"Ġ1916":6702,"Ġpainting":6703,"Ġ1938":6704,"theless":6705,"Ġcars":6706,"ĠAD":6707,"ĠWhit":6708,"agement":6709,"Ġshape":6710,"ĠMem":6711,"iminal":6712,"Ġshall":6713,"Ġ1957":6714,"onym":6715,"ĠNick":6716,"ĠFair":6717,"Ġ79":6718,"Ġbrothers":6719,"ĠSupreme":6720,"ĠColonel":6721,"Ġdaily":6722,"Ġtank":6723,"Ġet":6724,"Ġassault":6725,"Ġ1936":6726,"Ġgameplay":6727,"ĠSpring":6728,"Ġà¤Ĩà¤ł":6729,"Ġà¤Ńà¤ķ":6730,"Ġstoryline":6731,"Ġemployed":6732,"Ġagent":6733,"Ġalternative":6734,"Ġfit":6735,"ĠMos":6736,"ients":6737,"oir":6738,"wise":6739,"Ġà¤ªà¤Ł":6740,"Ġinjured":6741,"Ġà¤®à¤ľà¤¬":6742,"Ġperhaps":6743,"Ġgetting":6744,"ĠKentucky":6745,"Ġà¤¦à¤¬":6746,"Ġisol":6747,"ĠIndepend":6748,"ato":6749,"Ġnor":6750,"Ġwatched":6751,"Ġopinion":6752,"iform":6753,"Ġcomposition":6754,"Ġpopularity":6755,"Ġà¤Ĩà¤¸à¤ª":6756,"ĠRoss":6757,"inking":6758,"Ġcells":6759,"Ġmissing":6760,"Ġà¤ħà¤Ĺà¤²":6761,"Ġdescription":6762,"ĠLab":6763,"Ġconverted":6764,"vest":6765,"ĠTheat":6766,"Ġrenamed":6767,"Ġregarding":6768,"Ġviews":6769,"ads":6770,"ĠNorway":6771,"ĠBall":6772,"Ġdeclined":6773,"Ġenjoyed":6774,"Ġconnected":6775,"Ġ1953":6776,"Ġcompris":6777,"ĠMTV":6778,"ĠBal":6779,"Ġlov":6780,"mod":6781,"Ġà¤Ĩà¤ļ":6782,"ko":6783,"Ġsun":6784,"Ġestate":6785,"ĠAbb":6786,"Ġshaped":6787,"Ġreputation":6788,"ĠPhilipp":6789,"ĠOlympics":6790,"ĠImp":6791,"Ġ98":6792,"Ġdry":6793,"Ġundert":6794,"Ġdepth":6795,"osl":6796,"ĠGolden":6797,"ulpt":6798,"Ġoverl":6799,"Ġ2019":6800,"ĠBase":6801,"Ġretire":6802,"Ġmuseum":6803,"Ġ1958":6804,"199":6805,"uration":6806,"Ġreplace":6807,"bound":6808,"ĠSel":6809,"Ġagricult":6810,"Ġdrew":6811,"Ġstages":6812,"ĠWalk":6813,"come":6814,"ĠMassachus":6815,"ceived":6816,"Ġdistingu":6817,"Ġequal":6818,"Ġknowledge":6819,"Ġcited":6820,"ĠSus":6821,"Ġnick":6822,"Ġeasily":6823,"Ġà¤īà¤¨à¤®":6824,"Ġnote":6825,"ĠPrem":6826,"athan":6827,"ĠAirport":6828,"igg":6829,"ĠDream":6830,"ĠMassachusetts":6831,"rets":6832,"Ġbed":6833,"ĠLet":6834,"Ġ1955":6835,"ĠVi":6836,"Ġà¤¬à¤¨à¤¤":6837,"Ġjourney":6838,"Ġflu":6839,"Ġheaded":6840,"Ġauth":6841,"olt":6842,"istan":6843,"eper":6844,"Ġselect":6845,"25":6846,"Ġincreasingly":6847,"ĠAC":6848,"Ġ1952":6849,"à¤¯à¤§":6850,"Ġplanning":6851,"ĠRon":6852,"Ġ1954":6853,"Ġlimit":6854,"Ġturning":6855,"Ġstadium":6856,"tical":6857,"Ġapproached":6858,"ĠHart":6859,"Ġà¤ĩà¤°":6860,"Ġexerc":6861,"ilding":6862,"à¤µà¤Ł":6863,"Ġfashion":6864,"Ġpul":6865,"Ġresponded":6866,"unicip":6867,"ĠAbout":6868,"eg":6869,"Ġ1959":6870,"ignment":6871,"Ġwealth":6872,"eman":6873,"Ġexistence":6874,"Ġsynt":6875,"Ġoperating":6876,"ĠKen":6877,"ĠRun":6878,"iger":6879,"Ġcollected":6880,"acts":6881,"Ġconstitution":6882,"Ġescort":6883,"inary":6884,"Ġsucceeded":6885,"Ġà¤¨à¤ľ":6886,"Ġsafety":6887,"psons":6888,"Ġrebu":6889,"onia":6890,"Ġintroduction":6891,"Ġdepend":6892,"Ġtrip":6893,"ĠInit":6894,"Ġexchange":6895,"Ġmodels":6896,"avig":6897,"rett":6898,"Ġshowing":6899,"Ġoccas":6900,"Ġdetails":6901,"à¤²à¤Ń":6902,"Ġcolle":6903,"ĠMcG":6904,"ĠSimpsons":6905,"Ġimprove":6906,"Ġlearned":6907,"Ġtall":6908,"oli":6909,"Ġà¤¸à¤µ":6910,"Ġpromotion":6911,"Ġsustained":6912,"Ġà¤¤à¤¨":6913,"eler":6914,"ĠSongs":6915,"Ġcarrying":6916,"ivalent":6917,"à¤¨à¤Ĺà¤°":6918,"Ġyouth":6919,"Ġimpl":6920,"Ġbaseball":6921,"engers":6922,"ĠImperial":6923,"bo":6924,"leton":6925,"ĠPict":6926,"ĠJay":6927,"Ġseems":6928,"Ġhumans":6929,"ources":6930,"ĠVietnam":6931,"Ġvan":6932,"Ġcredited":6933,"ĠRem":6934,"Ġburied":6935,"Ġà¤ıà¤ļ":6936,"hat":6937,"Ġ1937":6938,"Ġlaws":6939,"Ġarranged":6940,"ctions":6941,"à¤ªà¤¶":6942,"ĠCape":6943,"Ġautom":6944,"Ġjoint":6945,"state":6946,"Ġitems":6947,"BN":6948,"Ġsolid":6949,"ĠOttoman":6950,"Ġinstall":6951,"Ġrhy":6952,"Ġproducing":6953,"Ġathlet":6954,"ĠWho":6955,"inth":6956,"Ġsections":6957,"Ġdesigns":6958,"à¤¸à¤²à¤®":6959,"Ġproceed":6960,"Ġshel":6961,"Ġearliest":6962,"ĠRoy":6963,"Ġflat":6964,"Ġweakened":6965,"rec":6966,"à¤¹à¤¤à¤°":6967,"ĠPoland":6968,"Ġpaint":6969,"à¤ªà¤ļ":6970,"Ġstatement":6971,"ĠSydney":6972,"Ġton":6973,"ĠFire":6974,"ĠShortly":6975,"ĠMoore":6976,"Ġsettlement":6977,"Ġbrand":6978,"Ġretained":6979,"Ġ175":6980,"Ġneut":6981,"Ġlasted":6982,"Ġscientific":6983,"Ġfreeway":6984,"Ġcopy":6985,"ĠStew":6986,"mb":6987,"ĠNaval":6988,"Ġà¤īà¤¸à¤®":6989,"ĠMaryland":6990,"Ġlandfall":6991,"ĠEdu":6992,"Ġapplied":6993,"Ġacres":6994,"Ġ110":6995,"Ġvirt":6996,"ĠCra":6997,"Ġprograms":6998,"ĠIG":6999,"ĠPass":7000,"Ġà¤ıà¤ķà¤²":7001,"Ġcatch":7002,"lan":7003,"Ġà":7004,"issance":7005,"Ġà¥§à¥«":7006,"Ġgenre":7007,"Ġappoint":7008,"AC":7009,"bell":7010,"ĠJes":7011,"rell":7012,"ĠArts":7013,"Ġuns":7014,"pet":7015,"othes":7016,"Ġtrust":7017,"ader":7018,"ivered":7019,"ĠGreg":7020,"Ġassistant":7021,"Ġconsequ":7022,"Ġplayoff":7023,"insula":7024,"Ġreserve":7025,"poration":7026,"Ġtick":7027,"à¤ĩà¤¸à¤²":7028,"Ġexclus":7029,"Ġdistribution":7030,"ĠWWE":7031,"Ġviolence":7032,"Ġfilled":7033,"Ġcoastal":7034,"Ġcandidate":7035,"acter":7036,"Ġregister":7037,"Ġ1949":7038,"mun":7039,"Ġentrance":7040,"ĠJan":7041,"ĠAri":7042,"Ġà¤ķà¤°à¤µ":7043,"iege":7044,"Ġhits":7045,"Ġcombination":7046,"Ġbattery":7047,"Ġpatrol":7048,"edia":7049,"Ġtowns":7050,"math":7051,"Ġsculpt":7052,"Ġpolitics":7053,"time":7054,"Ġparam":7055,"Ġways":7056,"Ġindicated":7057,"eless":7058,"lee":7059,"izations":7060,"iration":7061,"Å¡":7062,"ĠBowl":7063,"Ġban":7064,"ĠRa":7065,"met":7066,"Ġgradually":7067,"ja":7068,"ender":7069,"Ġindependence":7070,"ĠRid":7071,"Ġdelivered":7072,"Ġbottom":7073,"Ġ93":7074,"à¤Ĺà¤¡":7075,"Ġ86":7076,"Ġemp":7077,"ĠBir":7078,"Ġstopped":7079,"eke":7080,"Ġtact":7081,"Ġcinem":7082,"Ġengines":7083,"Ġglass":7084,"ÅĤ":7085,"ĠBand":7086,"Ġcod":7087,"ĠConfeder":7088,"Ġstream":7089,"ĠUnivers":7090,"Ġ1910":7091,"ela":7092,"Ġà¤ļà¤®":7093,"Ġà¤ħà¤Ĺà¤°":7094,"Ġà¤«à¤°à¤µà¤°":7095,"Ġimages":7096,"Ġsegment":7097,"ĠMulder":7098,"Ġonline":7099,"Ġparties":7100,"Ġreferences":7101,"à¤Ńà¤ķ":7102,"Ġmig":7103,"Ġaddress":7104,"ĠCop":7105,"Ġsupplies":7106,"ushing":7107,"ca":7108,"Ġcamera":7109,"ĠGordon":7110,"Ġ1951":7111,"ĠBon":7112,"ĠStadium":7113,"iques":7114,"ĠWell":7115,"Ġappeal":7116,"Ġprisoners":7117,"bar":7118,"Ġarc":7119,"iat":7120,"Ġacts":7121,"à¤Ĺà¤ľ":7122,"Ġ61":7123,"ĠProf":7124,"ĠRhodes":7125,"Ġextremely":7126,"Ġcampus":7127,"Ġbask":7128,"emies":7129,"Ġadapted":7130,"Ġsecure":7131,"Ġfinding":7132,"Ġà¤ªà¤¸":7133,"Ġdecade":7134,"Ġentitled":7135,"arp":7136,"Ġ71":7137,"Ġphase":7138,"reets":7139,"ĠStaff":7140,"ĠÃĹ":7141,"Ġimplement":7142,"ĠTheatre":7143,"Ġtal":7144,"Ġtemplate":7145,"ropol":7146,"ano":7147,"ĠAnth":7148,"Ġdownload":7149,"iversary":7150,"Ġproposal":7151,"ador":7152,"ĠNic":7153,"inois":7154,"ĠVill":7155,"Ġwinner":7156,"Ġsomew":7157,"ĠKim":7158,"Ġruled":7159,"Ġentry":7160,"Ġconsum":7161,"adow":7162,"ĠPo":7163,"Ġec":7164,"Ġregiment":7165,"Ġevening":7166,"Ġreduce":7167,"Ġinvestigation":7168,"mann":7169,"Ġthreatened":7170,"Ġ06":7171,"ĠConstant":7172,"Ġ92":7173,"ĠBa":7174,"ĠUr":7175,"Ġrelief":7176,"Ġbought":7177,"ĠAst":7178,"ĠPower":7179,"ĠInt":7180,"ĠJustice":7181,"ĠId":7182,"Ġkingdom":7183,"ĠFound":7184,"Ġà¤¦à¤µ":7185,"Ġspecifically":7186,"ashed":7187,"Ġsurvived":7188,"Ġknots":7189,"Ġwrites":7190,"Ġstudied":7191,"ĠCirc":7192,"Ġ08":7193,"Ġdeaths":7194,"Ġcorrect":7195,"The":7196,"Ġreligion":7197,"Ġwars":7198,"ĠVII":7199,"Ġroutes":7200,"Ġmales":7201,"ĠAge":7202,"Ġrevolution":7203,"Ġacid":7204,"Ġcauses":7205,"iy":7206,"Ġfear":7207,"ieval":7208,"Ġpoly":7209,"ĠOd":7210,"ĠInstead":7211,"rot":7212,"ighters":7213,"Ġspons":7214,"Ġvoted":7215,"Ġcrown":7216,"phoon":7217,"Ġduty":7218,"Ġfict":7219,"Ġinternal":7220,"Ġsoul":7221,"à¤°à¤¥":7222,"ĠØ":7223,"Ġà¤ľà¤µ":7224,"Ġà¤ĩà¤ļ":7225,"ocal":7226,"ĠColl":7227,"bourne":7228,"BI":7229,"cious":7230,"ĠHere":7231,"ĠEngine":7232,"Ġble":7233,"Ġeverything":7234,"ician":7235,"ĠMemorial":7236,"Ġago":7237,"Ġimportance":7238,"Ġalt":7239,"Ġrecalled":7240,"Ġà¤ļà¤²à¤¨":7241,"Ġportrayed":7242,"Ġemerg":7243,"apes":7244,"Ġinterested":7245,"Ġcontroversy":7246,"ervative":7247,"Ġstret":7248,"chers":7249,"Ġsufficient":7250,"ĠKong":7251,"Ġbreeding":7252,"Ġsell":7253,"Ġoffers":7254,"Ġcapable":7255,"ĠFA":7256,"Ġteacher":7257,"Ġproducts":7258,"aug":7259,"Ġreturns":7260,"Ġtanks":7261,"Ġones":7262,"ĠMcK":7263,"ĠTony":7264,"Ġpreced":7265,"Ġowner":7266,"à¤¦à¤¶":7267,"entially":7268,"hr":7269,"ĠNel":7270,"Ġconvin":7271,"à¤ªà¤Ł":7272,"ĠGram":7273,"Ġmeters":7274,"Ġ1935":7275,"ĠDirector":7276,"ĠOk":7277,"aki":7278,"Ġrecommended":7279,"Ġà¤ļà¤¨":7280,"Ġactual":7281,"Ġnomination":7282,"ĠSingles":7283,"vis":7284,"Ġconcerns":7285,"senal":7286,"ĠMoon":7287,"Ġinstalled":7288,"ridges":7289,"Ġarrested":7290,"Ġà¤īà¤ªà¤°":7291,"ĠAlf":7292,"Ġcorner":7293,"Ġfly":7294,"Ġbor":7295,"Ġopera":7296,"ĠProg":7297,"ĠTrack":7298,"Ġdates":7299,"ĠJord":7300,"ĠAdams":7301,"ĠBeach":7302,"ĠAlan":7303,"ĠIGN":7304,"wich":7305,"Ġ1933":7306,"à¤µà¤§":7307,"Ġadmitted":7308,"lease":7309,"Ġvent":7310,"à¤ıà¤ļ":7311,"Ġunl":7312,"Ġinvited":7313,"Ġcrossed":7314,"Ġequipped":7315,"40":7316,"ĠYour":7317,"Ġtell":7318,"ĠCritical":7319,"Ġclimb":7320,"ĠMaria":7321,"glas":7322,"hus":7323,"Ġmort":7324,"ructure":7325,"ĠSimon":7326,"ĠâĤ":7327,"bro":7328,"ĠBos":7329,"oys":7330,"ĠHamilton":7331,"add":7332,"ĠNBA":7333,"Ġstock":7334,"Ġoverse":7335,"Ġmedal":7336,"ĠCart":7337,"Ġstarts":7338,"andy":7339,"ĠVideo":7340,"Ġprincipal":7341,"Ġconqu":7342,"Ġgall":7343,"Ġshut":7344,"ĠAdam":7345,"ranean":7346,"ĠCE":7347,"Ġcrime":7348,"Ġ1900":7349,"ĠJane":7350,"ĠGen":7351,"ĠMap":7352,"Ġremainder":7353,"ĠProject":7354,"Ġobjects":7355,"rete":7356,"ilation":7357,"Ġextension":7358,"à¤¶à¤µ":7359,"Ġapart":7360,"ĠPlot":7361,"IA":7362,"Ġretreat":7363,"Ġsomeone":7364,"Ġpromote":7365,"ansas":7366,"Ġprice":7367,"ĠForest":7368,"Ġcharged":7369,"Ġdoor":7370,"ĠResearch":7371,"Ġupgrad":7372,"Ġfunds":7373,"osaurus":7374,"ĠDeath":7375,"à¤īà¤ªà¤°":7376,"espread":7377,"ĠIndones":7378,"Ġfemales":7379,"à¤ĩà¤ª":7380,"Ġconsisting":7381,"ophy":7382,"Ġcomposer":7383,"fl":7384,"iller":7385,"à¤¨à¤Ł":7386,"ĠGun":7387,"Ġidentity":7388,"Ġà¥§à¥Ń":7389,"aked":7390,"cks":7391,"à¤°à¤«":7392,"har":7393,"Ġcode":7394,"à¤¹à¤¦":7395,"erted":7396,"Ġcolour":7397,"Ġskin":7398,"RA":7399,"21":7400,"Ġtypical":7401,"Ġmilit":7402,"Ġconsiderable":7403,"Ġà¤ªà¤µ":7404,"Ġà¤ħà¤ĸ":7405,"osite":7406,"ĠTa":7407,"ĠAk":7408,"Ġ07":7409,"ĠMedia":7410,"ĠNether":7411,"ĠTar":7412,"ĠMilitary":7413,"ensus":7414,"Ġà¤ķà¤¹à¤¨":7415,"ĠCult":7416,"Ġgrounds":7417,"Ġà¤ªà¤ķà¤¡":7418,"Ġcong":7419,"ĠToday":7420,"Ġevolution":7421,"Ġsubs":7422,"Ġreading":7423,"Ġà¤Ľà¤¹":7424,"Ġzone":7425,"Ġsnow":7426,"Ġmanner":7427,"formula":7428,"Ġblow":7429,"ĠKat":7430,"Ġbasic":7431,"ĠTransport":7432,"ĠKennedy":7433,"ĠLeon":7434,"vements":7435,"Ġspin":7436,"hetic":7437,"Ġduties":7438,"ĠHou":7439,"Ġrural":7440,"ĠScience":7441,"Ġclasses":7442,"Ġoccurs":7443,"ĠPit":7444,"Ġsole":7445,"Ġclean":7446,"king":7447,"Ġfrag":7448,"Ġpenal":7449,"ĠHoward":7450,"Ġeighth":7451,"ĠSunday":7452,"à¥¯à¥":7453,"Ġequivalent":7454,"Ġà¤¬à¤¹à¤¨":7455,"ĠIndiana":7456,"Ġhotel":7457,"Ġaer":7458,"Ġdecades":7459,"ĠNorwe":7460,"Ġham":7461,"ĠDrag":7462,"Ġdriving":7463,"ĠISBN":7464,"Ġpermanent":7465,"nic":7466,"ĠBry":7467,"ĠScully":7468,"ĠPortug":7469,"ione":7470,"Ġaspects":7471,"Ġdated":7472,"ez":7473,"Ġ83":7474,"Ġchallenge":7475,"Ġà¤¨à¤µà¤®":7476,"Ġvolcan":7477,"ĠHitler":7478,"Ġtow":7479,"ĠMarc":7480,"Ġlane":7481,"ĠFive":7482,"Ġremix":7483,"à¤¬à¤ķ":7484,"ubb":7485,"à¤¡à¤ķ":7486,"Ġbrigade":7487,"ĠSpace":7488,"Ġposted":7489,"ĠGill":7490,"Ġformula":7491,"cation":7492,"after":7493,"ĠPear":7494,"Ġspeak":7495,"Ġfields":7496,"ĠStand":7497,"à¤ĩà¤¨à¤²":7498,"Ġnoting":7499,"ĠTurk":7500,"à¤µà¤¦":7501,"Ġrestaur":7502,"Ġbra":7503,"Ġmap":7504,"Ġdescribing":7505,"ĠBrist":7506,"Ġinvolving":7507,"Ġinteg":7508,"Ġha":7509,"ĠAssembly":7510,"ĠDisc":7511,"iley":7512,"Ġslowly":7513,"Ġsupporters":7514,"Ġaccur":7515,"ivals":7516,"AAF":7517,"cknow":7518,"ĠRose":7519,"Ġtele":7520,"Ġobtained":7521,"22":7522,"icit":7523,"Ġmode":7524,"Ġentering":7525,"ĠHug":7526,"Ġdebate":7527,"veland":7528,"wan":7529,"Ġflo":7530,"Ġvessels":7531,"ĠPier":7532,"iot":7533,"Ġdin":7534,"Ġdress":7535,"Ġenemies":7536,"Ġformal":7537,"ĠConstitution":7538,"rates":7539,"Ġfolk":7540,"Ġdepartment":7541,"Ġsettled":7542,"risis":7543,"ĠRyan":7544,"Ġfaith":7545,"ĠAz":7546,"ĠWeb":7547,"aware":7548,"Ġpup":7549,"Ġoldest":7550,"Ġconnection":7551,"ĠMountain":7552,"ĠRolling":7553,"erto":7554,"Ġnest":7555,"Ġcategory":7556,"ĠSav":7557,"Ġparliament":7558,"regon":7559,"ĠMagazine":7560,"ĠArgent":7561,"Ġarmor":7562,"Ġsongwrit":7563,"Ġrecognition":7564,"Ġconcerned":7565,"Ġpurchase":7566,"Ġca":7567,"agues":7568,"ĠRaj":7569,"ĠNow":7570,"ĠLenn":7571,"Ġattached":7572,"Ġouter":7573,"ĠCleveland":7574,"Ġincome":7575,"Ġà¥§à¥¨":7576,"Ġdecline":7577,"Ġderived":7578,"Ġdeparture":7579,"ĠIllinois":7580,"Ġwidespread":7581,"à¤īà¤Ł":7582,"hered":7583,"à¤£à¤¤":7584,"ĠDig":7585,"Ġ176":7586,"ĠDouglas":7587,"Ġaccused":7588,"Ġsurvey":7589,"Ġfoss":7590,"Ġdecor":7591,"heastern":7592,"Ġmemorial":7593,"orney":7594,"Ġassumed":7595,"ĠWeekly":7596,"ooth":7597,"ĠFeder":7598,"Ġdeleg":7599,"Ġsequel":7600,"Ġcertified":7601,"Ġà¤ıà¤«":7602,"ĠThroughout":7603,"ĠIra":7604,"ĠTreat":7605,"aret":7606,"ĠFreder":7607,"Ġà¤Ĺà¤łà¤¨":7608,"ĠAndy":7609,"ĠJordan":7610,"iva":7611,"ĠLow":7612,"Ġhip":7613,"Ġà¤¸à¤®à¤ķ":7614,"Ġtemple":7615,"Ġdisturb":7616,"Ġwearing":7617,"Ġswim":7618,"Ġà¤Ńà¤µà¤¨":7619,"heme":7620,"Ġwed":7621,"ĠThird":7622,"Ġcircum":7623,"ĠEs":7624,"ĠStanley":7625,"Ġacknow":7626,"western":7627,"Ġhang":7628,"Ġacclaim":7629,"ĠFamily":7630,"ĠOregon":7631,"Ġhosted":7632,"Ġfine":7633,"Ġtorn":7634,"Ġsessions":7635,"ĠDal":7636,"Ġans":7637,"Ġvalley":7638,"Ġfal":7639,"Ġcommitted":7640,"Ġ05":7641,"Ġthousands":7642,"ĠPhilip":7643,"ĠRoger":7644,"Ġhope":7645,"ĠArsenal":7646,"Ġregional":7647,"Ġtransition":7648,"Ġà¤Īà¤°":7649,"ekend":7650,"ĠTechn":7651,"Ġpopulations":7652,"iterranean":7653,"Ġnowiki":7654,"ĠRecording":7655,"ĠBeatles":7656,"Ġdenied":7657,"agonist":7658,"Ġchampion":7659,"Ġà¤ªà¤²":7660,"ĠTenn":7661,"Ġdemand":7662,"Ġliterary":7663,"olec":7664,"Ġsupposed":7665,"Ġcharges":7666,"Ġwarm":7667,"Ġ1932":7668,"ĠBruce":7669,"ĠKevin":7670,"ami":7671,"hedral":7672,"ĠNorwegian":7673,"Ġcanc":7674,"ĠMediterranean":7675,"à¤ķà¤¤à¤°":7676,"ĠPur":7677,"Ġterminus":7678,"ogen":7679,"ĠOpen":7680,"Ġ1934":7681,"Ġà¤ħà¤¡":7682,"Ġwickets":7683,"ĠBristol":7684,"Ġgeneration":7685,"Ġintelligence":7686,"Ġstrongly":7687,"ĠRain":7688,"Ġ1926":7689,"ito":7690,"à¤¦à¤Ĺ":7691,"organ":7692,"udden":7693,"ĠHo":7694,"Ġshots":7695,"Ġcirculation":7696,"achel":7697,"ĠConc":7698,"ĠChannel":7699,"Ġreplacement":7700,"ĠNar":7701,"Ġpassengers":7702,"Ġpossibility":7703,"ĠBah":7704,"oted":7705,"Ġfreedom":7706,"ĠBush":7707,"Ġproperties":7708,"ĠFederal":7709,"Ġ1921":7710,"Ġbehavior":7711,"Ġfictional":7712,"eing":7713,"Ġsailed":7714,"Ġà¤ªà¤°à¤¨":7715,"Ġà¤ıà¤ķà¤¤":7716,"Ġanimated":7717,"emed":7718,"Ġminister":7719,"ĠDE":7720,"lig":7721,"Ġcommit":7722,"Ġthirty":7723,"ĠCas":7724,"Ġrich":7725,"Ġmoves":7726,"Ġà¥§à¥¯à¥¯à¥":7727,"Ġdowntown":7728,"ĠDer":7729,"rage":7730,"ĠBol":7731,"Ġhill":7732,"upt":7733,"Ġcloud":7734,"Ġà¤ĸà¤¤à¤°":7735,"Ġ1912":7736,"Ġnone":7737,"Ġexception":7738,"oral":7739,"lets":7740,"Ġ1927":7741,"Ġassistance":7742,"ĠMaster":7743,"Ġ170":7744,"Ġbegun":7745,"ĠMexican":7746,"ĠSab":7747,"Ġvolunte":7748,"ji":7749,"ĠRow":7750,"ĠWid":7751,"orced":7752,"Ġquant":7753,"Ġfruit":7754,"isms":7755,"rating":7756,"Ġcriminal":7757,"rim":7758,"Ġdestruction":7759,"Ġcommanded":7760,"ĠKorea":7761,"Ġopposite":7762,"atinum":7763,"Ġcosts":7764,"Ġbringing":7765,"à¤²à¤ª":7766,"ĠColor":7767,"Ġspeaking":7768,"Ġmissions":7769,"ĠEle":7770,"Ġmissed":7771,"umin":7772,"ĠEric":7773,"abled":7774,"à¤īà¤¸à¤¨":7775,"Ġcrash":7776,"Ġmethods":7777,"Ġfeeling":7778,"char":7779,"Ġintention":7780,"Ġsounds":7781,"à¤ķà¤¹":7782,"Ġtied":7783,"Ġwarning":7784,"ĠGam":7785,"ĠFame":7786,"onto":7787,"Ġbreaking":7788,"Ġdemol":7789,"Ġglobal":7790,"Ġunusual":7791,"ĠWithin":7792,"Ġincorporated":7793,"ipe":7794,"ĠPhill":7795,"Ġweb":7796,"elsh":7797,"Ġshop":7798,"Ġintercept":7799,"ĠScient":7800,"ĠLisa":7801,"Ġfinishing":7802,"Ġalleged":7803,"idden":7804,"Ġdipl":7805,"Ġatmosphere":7806,"Ġ1931":7807,"ĠAdditionally":7808,"Ġattributed":7809,"Ġserves":7810,"borne":7811,"Ġ1913":7812,"Ġheat":7813,"ĠMorgan":7814,"Ġready":7815,"Ġstayed":7816,"Ġsons":7817,"enses":7818,"Ġemerged":7819,"aza":7820,"Ġrecovered":7821,"othing":7822,"ĠMorris":7823,"Ġà¤ħà¤¹à¤®":7824,"Ġstrateg":7825,"aire":7826,"ĠSky":7827,"Ġtechnical":7828,"Ġspok":7829,"Ġdriven":7830,"Ġtheatre":7831,"ĠNorman":7832,"Ġoccasionally":7833,"sole":7834,"à¤Ĩà¤¨":7835,"à¤ħà¤ķ":7836,"riers":7837,"Ġsam":7838,"à¤ĺà¤Łà¤¨":7839,"Ġchorus":7840,"Ġvary":7841,"Ġneeds":7842,"ĠEver":7843,"Ġeffectively":7844,"Ġclassic":7845,"à¤¸à¤Ń":7846,"Ġformat":7847,"ĠRobinson":7848,"Ġchemical":7849,"ĠFord":7850,"ĠKr":7851,"don":7852,"à¤¤à¤¬":7853,"ĠPrior":7854,"aya":7855,"Ġregularly":7856,"Ġdivers":7857,"Ġmaterials":7858,"Ġprey":7859,"Ġ140":7860,"ĠHawai":7861,"pective":7862,"Ġcavalry":7863,"ĠCab":7864,"ĠTelevision":7865,"Ġestablishment":7866,"Ġshore":7867,"thm":7868,"ĠGh":7869,"uro":7870,"Ġcourts":7871,"nce":7872,"Ġ1929":7873,"Ġà¥§à¥¯à¥®":7874,"uty":7875,"Ġsuperv":7876,"ĠTemple":7877,"ĠSimilar":7878,"PA":7879,"ĠIron":7880,"ĠFinn":7881,"ĠâĢĭ":7882,"Ġaccommod":7883,"Ġresponsibility":7884,"ĠNC":7885,"oslav":7886,"à¤°à¤ķà¤Ł":7887,"Ġprovince":7888,"Ġmedic":7889,"Ġdifferences":7890,"Ġcompletion":7891,"Ġmo":7892,"Ġdream":7893,"ĠAround":7894,"ĠFrancis":7895,"wen":7896,"ĠSn":7897,"ĠUnlike":7898,"ĠConstruction":7899,"24":7900,"Ġà¤ļà¤¢":7901,"Ġentertain":7902,"ban":7903,"Ġdissip":7904,"ĠBudd":7905,"Ġkid":7906,"ĠNelson":7907,"Ġà¤ķà¤¸":7908,"ece":7909,"Ġattracted":7910,"Ġseparated":7911,"ĠNations":7912,"Ġappropri":7913,"ĠAnton":7914,"icks":7915,"nold":7916,"Ġotherwise":7917,"vens":7918,"Ġdivisions":7919,"Ġpersu":7920,"Ġbrain":7921,"ĠMit":7922,"ĠNich":7923,"Ġsurviving":7924,"Ġinterpret":7925,"ĠHell":7926,"Ġclassified":7927,"ĠSweden":7928,"ĠPremier":7929,"Ġhal":7930,"Ġneither":7931,"ĠNBC":7932,"ĠLanc":7933,"ĠAI":7934,"weight":7935,"à¤Ńà¤µà¤¤":7936,"omot":7937,"Ġ900":7938,"Ġ1922":7939,"ĠPatrick":7940,"nings":7941,"Ġpassage":7942,"Ġpicture":7943,"inder":7944,"Ġcommunities":7945,"à¤ĩà¤¬":7946,"Ġratings":7947,"Ġclimate":7948,"Ġcruiser":7949,"anth":7950,"Ġclassification":7951,"Ġmemory":7952,"ici":7953,"emeter":7954,"agle":7955,"Ġassociation":7956,"Ġaboard":7957,"oyd":7958,"ĠDog":7959,"Ġclubs":7960,"inton":7961,"ogy":7962,"Ġlat":7963,"Ã³n":7964,"ĠAnne":7965,"à¤ķà¤²à¤¨":7966,"ĠBang":7967,"Ġmusicians":7968,"Ġeleven":7969,"Ġstood":7970,"abil":7971,"ĠMarg":7972,"Ġ04":7973,"Ġshif":7974,"Ġrooms":7975,"ĠJournal":7976,"Ġvehicle":7977,"Ġdesire":7978,"Ġancest":7979,"Ġreinforce":7980,"teenth":7981,"ĠToronto":7982,"ĠWelsh":7983,"Ġpredecess":7984,"Ġrequested":7985,"ĠWhe":7986,"Ġà¥§à¥¬":7987,"23":7988,"Ġoutbreak":7989,"Ġ1911":7990,"Ġvotes":7991,"Ġment":7992,"rum":7993,"Ġreality":7994,"ĠProfess":7995,"Ġrose":7996,"ĠByzantine":7997,"ĠChron":7998,"ĠAllen":7999,"Ġgal":8000,"ige":8001,"Ġseemed":8002,"Ġremember":8003,"Ġrelative":8004,"ĠUSS":8005,"ĠEvery":8006,"Ġbattleships":8007,"Ġmovements":8008,"ĠMatthew":8009,"ĠNetherlands":8010,"Ġic":8011,"ĠDa":8012,"ewhere":8013,"Ġille":8014,"Ġraise":8015,"Ġexpect":8016,"ĠBelg":8017,"Ġrestored":8018,"Ġhoped":8019,"ĠPak":8020,"ĠPow":8021,"Ġà¤Ĩà¤¦à¤°":8022,"Ġpure":8023,"Ġvide":8024,"ĠGlob":8025,"Ġfer":8026,"Ġhistorians":8027,"reck":8028,"Ġà¤¸à¤¤à¤¹":8029,"Ġdifficulty":8030,"Ġprogramme":8031,"ĠDesign":8032,"ĠSports":8033,"Ġbasketball":8034,"iate":8035,"Ġ135":8036,"Ġà¤®à¤¹à¤²":8037,"Ġdie":8038,"Ġraid":8039,"ĠJacob":8040,"ĠFI":8041,"Ġà¤Ĺà¤²à¤¤":8042,"Ġteen":8043,"à¤¾à¥ħ":8044,"Ġaccounts":8045,"ĠDNA":8046,"Ġsatisf":8047,"ĠJews":8048,"MA":8049,"à¤¯à¤¶":8050,"Ġdens":8051,"ĠDean":8052,"ĠSax":8053,"Ġdiscovery":8054,"hire":8055,"á»":8056,"ĠAgain":8057,"Ġdelayed":8058,"Ġgreatly":8059,"Ġpremiere":8060,"Ġwrong":8061,"Ġanniversary":8062,"Ġstrate":8063,"Ġinspiration":8064,"ĠUlt":8065,"burn":8066,"Ġ1928":8067,"ĠDomin":8068,"Ġà¤Īà¤¶":8069,"book":8070,"Ġinjuries":8071,"Ġneighbor":8072,"ĠCentre":8073,"Ġastron":8074,"Ġsurrounded":8075,"Ġdepict":8076,"Ġassemb":8077,"Ġfunding":8078,"Ġlegend":8079,"Ġflank":8080,"ilers":8081,"ĠDor":8082,"ĠIraq":8083,"Ġstrategy":8084,"à¤¯à¤¯":8085,"Ġspoke":8086,"à¤ľà¤Ĺ":8087,"Ġpenalty":8088,"ĠMarine":8089,"Ġpraise":8090,"Ġweapon":8091,"Ġcrop":8092,"Ġpartner":8093,"Ġbatting":8094,"Ġphotograph":8095,"Ġcra":8096,"Ġmassive":8097,"Ġsuit":8098,"Ġelse":8099,"Ġarchitecture":8100,"Ã±":8101,"Ġlibrary":8102,"ĠBishop":8103,"Ġ1924":8104,"Ġplane":8105,"Ġforming":8106,"body":8107,"ĠTrib":8108,"Ġrot":8109,"Ġtries":8110,"Ġlanguages":8111,"Ġclaiming":8112,"ĠLast":8113,"ĠJam":8114,"Ġrecru":8115,"ĠIslam":8116,"Ġdetermine":8117,"gets":8118,"ĠOak":8119,"Ġaccompl":8120,"real":8121,"Ġtemporary":8122,"ĠTot":8123,"ĠHop":8124,"ĠPA":8125,"Ġresources":8126,"Ġcarbon":8127,"ĠArmen":8128,"Ġstands":8129,"uble":8130,"Ġcrosses":8131,"ĠNetwork":8132,"ĠPC":8133,"Ġworst":8134,"aired":8135,"ĠMars":8136,"Ġfled":8137,"Ġdocumentary":8138,"Ġash":8139,"ternal":8140,"Ġensure":8141,"Ġscheme":8142,"wing":8143,"otype":8144,"ĠNFL":8145,"Ġreserv":8146,"ĠHeart":8147,"Ġà¤ªà¤¨":8148,"uther":8149,"ĠCroatian":8150,"Ġsight":8151,"omp":8152,"ĠFree":8153,"Ġgirls":8154,"Ġenf":8155,"ĠThompson":8156,"ES":8157,"ĠModern":8158,"Ġray":8159,"onds":8160,"Ġabsor":8161,"ĠRussell":8162,"Ġinner":8163,"ĠDick":8164,"going":8165,"Ġchairman":8166,"Ġhear":8167,"Ġinvolvement":8168,"Ġdismissed":8169,"Ġsale":8170,"Ġcul":8171,"ĠHoly":8172,"Ġbombard":8173,"à¤¶à¤¯":8174,"Ġsomewhat":8175,"ĠBi":8176,"Ġadaptation":8177,"Ġà¤¯à¤¥":8178,"Ġremn":8179,"Ġ1925":8180,"Ġcheck":8181,"ĠRick":8182,"Ġori":8183,"ĠFront":8184,"Ġweekend":8185,"Ġ03":8186,"Ġconvinced":8187,"lyn":8188,"à¤Ĺà¤ķà¤°":8189,"ĠPuerto":8190,"li":8191,"Ġsed":8192,"ĠLibrary":8193,"itzer":8194,"Ġinterests":8195,"ĠCooper":8196,"Ġimmediate":8197,"ĠWinter":8198,"ĠRang":8199,"oster":8200,"ĠCarter":8201,"Ġconvent":8202,"ĠSpe":8203,"po":8204,"ĠHend":8205,"Ġacademic":8206,"DS":8207,"Ġmedieval":8208,"Ġà¤ıà¤ķà¤®":8209,"ĠWy":8210,"Ġtechniques":8211,"ĠKelly":8212,"ĠDra":8213,"Ġpresidential":8214,"Ġstreets":8215,"agre":8216,"Ġconsp":8217,"Ġvisible":8218,"ĠÅ":8219,"ania":8220,"icide":8221,"Ġeggs":8222,"arsh":8223,"Ġcolonial":8224,"ĠBrother":8225,"ĠKer":8226,"ĠNiel":8227,"Ġclassical":8228,"Ġfalling":8229,"rine":8230,"ĠGard":8231,"Ġmeets":8232,"Ġbright":8233,"ĠHind":8234,"ĠLabor":8235,"ĠNob":8236,"ĠStra":8237,"irt":8238,"ĠAlong":8239,"Ġthrone":8240,"Ġninth":8241,"à¤Ĩà¤§":8242,"Ġà¤ªà¤¦à¤ķ":8243,"Ġfighter":8244,"ache":8245,"osure":8246,"Ġraces":8247,"ĠWright":8248,"Ġcommemor":8249,"Ġstarred":8250,"encies":8251,"ĠEst":8252,"Ġlake":8253,"Ġsuperior":8254,"Ġà¤¨à¤·":8255,"Ġpassenger":8256,"Ġloyal":8257,"acent":8258,"ĠBou":8259,"Ġadults":8260,"à¤¯à¤¨à¤¶":8261,"bec":8262,"Ġwel":8263,"ester":8264,"wealth":8265,"Ġeveryone":8266,"ĠHungarian":8267,"night":8268,"atically":8269,"à¤¤à¤ļ":8270,"Ġà¤Ķà¤¦":8271,"Ġsurviv":8272,"Ġturb":8273,"Ġreviewer":8274,"ĠGri":8275,"Ġalien":8276,"à¤ķà¤¥":8277,"Ġsubmarine":8278,"ĠBab":8279,"Ġseeing":8280,"Ġsynthes":8281,"ĠTok":8282,"ĠThus":8283,"Ġabsence":8284,"ronze":8285,"ĠBatman":8286,"Ġpremiered":8287,"Ġrenew":8288,"Ġpartn":8289,"ĠEducation":8290,"Ġdub":8291,"Ġairport":8292,"Ġauthors":8293,"Ġfitted":8294,"ĠCorporation":8295,"Ġencouraged":8296,"Ġinterior":8297,"Ġholds":8298,"oen":8299,"using":8300,"Ġengineer":8301,"Ġfavorite":8302,"ĠParker":8303,"ĠTs":8304,"Ġappearing":8305,"Ġsan":8306,"ivan":8307,"Ġmodified":8308,"à¤®à¤µ":8309,"Ġmunicip":8310,"Ġconclusion":8311,"eline":8312,"Ġstandards":8313,"Ġdeemed":8314,"Ġelections":8315,"FC":8316,"Ġleads":8317,"Ġoperate":8318,"ĠHarris":8319,"ĠSanta":8320,"Ġà¤ıà¤ª":8321,"Ġcharacteristics":8322,"Ġquestions":8323,"chang":8324,"Ġfacility":8325,"Ġod":8326,"Ġattacking":8327,"à¤µà¤¹à¤¨":8328,"Ġà¥§à¥¦":8329,"Ġrum":8330,"Ġdating":8331,"apse":8332,"Ġtemperatures":8333,"à¤ľà¤¤":8334,"Ġromantic":8335,"Ġà¤°à¤µ":8336,"Ġà¥«à¥Ń":8337,"Ġcredit":8338,"Ġà¥§à¥¯à¥Ń":8339,"Ġà¥«à¥®":8340,"eor":8341,"ĠMurray":8342,"Ġafterwards":8343,"Ġbuy":8344,"Ġà¤ľà¤Ł":8345,"Ġdoct":8346,"Ġlegislation":8347,"ĠSocial":8348,"Ġcolony":8349,"ossible":8350,"Ġanyone":8351,"Ġconvection":8352,"Ġretirement":8353,"Ġlanded":8354,"Ġlies":8355,"ĠLate":8356,"Ġsuffering":8357,"ĠKnight":8358,"asure":8359,"ĠLi":8360,"Ġchalleng":8361,"Ġcontroversial":8362,"uster":8363,"Ġdistributed":8364,"Ġ81":8365,"ĠUt":8366,"Ġmolec":8367,"Ġwings":8368,"à¤§à¤µ":8369,"ĠBrand":8370,"ĠPolice":8371,"Ġlooked":8372,"Ġpainted":8373,"ĠBerlin":8374,"à¤¨à¤¤à¤®":8375,"Ġgone":8376,"ĠPalace":8377,"roit":8378,"à¤°à¤ķà¤°":8379,"tenance":8380,"ĠHouston":8381,"urches":8382,"ĠCommander":8383,"Ġattempting":8384,"Ġcancer":8385,"ixon":8386,"ĠAdvent":8387,"Ġbelieves":8388,"coming":8389,"Ġà¥Ńà¥®":8390,"26":8391,"ĠGet":8392,"ĠStory":8393,"scape":8394,"Ar":8395,"ĠBh":8396,"Ġunion":8397,"ĠObs":8398,"âĢį":8399,"ĠHospital":8400,"Ġmonarch":8401,"Ġgenerated":8402,"à¤¡à¤¬":8403,"Ġrescue":8404,"Ġsecured":8405,"Ġdepicted":8406,"Ġgrass":8407,"Ġarchae":8408,"aria":8409,"ĠCommonwealth":8410,"col":8411,"Ġlongest":8412,"Ġhabitat":8413,"Ġdominated":8414,"Ġbiggest":8415,"ĠYug":8416,"aws":8417,"Ġobtain":8418,"Ġ1923":8419,"Ġpound":8420,"ĠUSA":8421,"Ġjudge":8422,"ĠSwedish":8423,"ĠCategory":8424,"Ġgraphics":8425,"Ġcontinuing":8426,"Ġà¤ĳà¤ķ":8427,"Ġbattleship":8428,"Ġimmig":8429,"27":8430,"Ġ91":8431,"inals":8432,"una":8433,"Ġarrangement":8434,"Ġjump":8435,"opes":8436,"Ġunsuccessful":8437,"Ġneck":8438,"ĠSilver":8439,"ĠYan":8440,"à¤°à¤®à¤¶":8441,"ĠRoberts":8442,"Ġcarrier":8443,"text":8444,"ultane":8445,"ĠIndians":8446,"Ġsudden":8447,"ĠLyn":8448,"Ġtrained":8449,"Ġconstant":8450,"Ġrepresenting":8451,"ĠSimpson":8452,"ture":8453,"ĠEy":8454,"Ġcycle":8455,"aska":8456,"Ġstyles":8457,"Ġwins":8458,"owa":8459,"ching":8460,"hess":8461,"ĠTal":8462,"Ġrailroad":8463,"Ġmeasures":8464,"ĠMerc":8465,"oming":8466,"Ġbelt":8467,"ĠCook":8468,"uts":8469,"ĠMort":8470,"Ġnickn":8471,"eenth":8472,"Ġachieve":8473,"Ġacknowled":8474,"Ġgets":8475,"ĠHin":8476,"elle":8477,"Ġmathem":8478,"ĠAuthor":8479,"Ġreleases":8480,"Ġinformed":8481,"à¤¼à¥Ī":8482,"ĠWarner":8483,"ĠRAAF":8484,"Ġarticles":8485,"Ġconvention":8486,"Ġà¤ĭà¤·":8487,"ĠOrgan":8488,"emetery":8489,"Ġformerly":8490,"à¤·à¤§":8491,"Ġster":8492,"Ġsees":8493,"à¤°à¤Ĺà¤¤":8494,"ĠCru":8495,"agu":8496,"Ġ1890":8497,"fare":8498,"à¤¨à¤µà¤°":8499,"Ġhistoric":8500,"ĠJason":8501,"Ġgarrison":8502,"Ġdeployed":8503,"ĠYugoslav":8504,"Ġnavig":8505,"Ġgrade":8506,"ĠAnthony":8507,"à¤¸à¤Ĺà¤¢":8508,"Ġemergency":8509,"Ġfestival":8510,"olph":8511,"Ġcloser":8512,"Ġà¤°à¤ļ":8513,"Ġalleg":8514,"Ġru":8515,"ĠBure":8516,"Ġbats":8517,"Ġ2020":8518,"IS":8519,"Ġmoderate":8520,"Ġveter":8521,"Ġtrials":8522,"à¤ħà¤ª":8523,"Ġsiege":8524,"Ġsuccessor":8525,"Ġinfluential":8526,"ĠRAF":8527,"ĠCroatia":8528,"Ġemotional":8529,"Ġ1908":8530,"Ġowners":8531,"CA":8532,"Ġthin":8533,"Ġnovels":8534,"ĠDetroit":8535,"à¤Ĺà¤¸":8536,"aints":8537,"Ġdiscussed":8538,"his":8539,"à¤²à¤¹":8540,"Ġexcess":8541,"ĠFoundation":8542,"ĠRap":8543,"ĠAsian":8544,"Ġtreated":8545,"Ġinfluences":8546,"Ġnarrative":8547,"tic":8548,"Ġstead":8549,"ĠGaga":8550,"ĠChamber":8551,"Ġdetail":8552,"fire":8553,"ĠXbox":8554,"Ġveget":8555,"Ġlinked":8556,"obi":8557,"Ġ1905":8558,"Ġinstruments":8559,"Ġchapter":8560,"Ġeat":8561,"rams":8562,"ĠGilbert":8563,"Ġexperiences":8564,"Ġjournalist":8565,"Ġfactors":8566,"Ġgiant":8567,"Ġalco":8568,"Ġpregn":8569,"Ġchildhood":8570,"Ġlegs":8571,"ĠPrincess":8572,"Ġdefended":8573,"Ġapparently":8574,"Ġdiplom":8575,"Ġenvironmental":8576,"Ġocean":8577,"Ġbear":8578,"Ġà¤Ĩà¤¯à¤°":8579,"Ġoffices":8580,"iens":8581,"ĠMun":8582,"Ġà¤Ĩà¤ĸ":8583,"ĠDesc":8584,"Ġupd":8585,"Ġchannel":8586,"aste":8587,"Ġcoins":8588,"Ġvictims":8589,"28":8590,"usted":8591,"Ġassass":8592,"ĠSpears":8593,"Ġdepos":8594,"Ġexecuted":8595,"Ġà¤²à¤ĺ":8596,"itter":8597,"idae":8598,"arked":8599,"imore":8600,"ĠReal":8601,"ĠJesus":8602,"Ġmine":8603,"anny":8604,"bl":8605,"yard":8606,"org":8607,"ois":8608,"rees":8609,"achment":8610,"Ġpreferred":8611,"Ġà¤ªà¤Łà¤¨":8612,"anta":8613,"Ġdifference":8614,"iliar":8615,"Ġuniform":8616,"Ġconcur":8617,"mad":8618,"Ġdesignation":8619,"ĠNielsen":8620,"ĠSomers":8621,"ĠBed":8622,"Ġhunting":8623,"Ġenters":8624,"Ġskills":8625,"Ġwooden":8626,"alo":8627,"Ġà¤ĩà¤¨à¤®":8628,"ĠMelbourne":8629,"Ġhundreds":8630,"da":8631,"ĠPope":8632,"ĠVice":8633,"ĠEvans":8634,"noon":8635,"ĠGuy":8636,"Ġgay":8637,"Ġride":8638,"Ġfil":8639,"Ġenh":8640,"stances":8641,"Ġresigned":8642,"Ġchain":8643,"usic":8644,"Ġinstance":8645,"gus":8646,"lie":8647,"Ġspend":8648,"ĠClinton":8649,"Ġdevice":8650,"orous":8651,"ĠMuslim":8652,"Ġ105":8653,"Ġridge":8654,"Ġclim":8655,"Ġpointed":8656,"Ġà¤Ńà¤¯":8657,"Ġreveals":8658,"Ġà¤ķà¤£":8659,"Ġcateg":8660,"Ġbon":8661,"Ġdisplayed":8662,"ĠStewart":8663,"ĠExpress":8664,"ĠNevertheless":8665,"ĠMP":8666,"idi":8667,"Ġpull":8668,"Ġwatching":8669,"ĠWing":8670,"ĠHans":8671,"Ġlocomot":8672,"ĠAud":8673,"Ġà¤Ĩà¤Īà¤¸":8674,"Ġprevented":8675,"Ġframe":8676,"ĠTower":8677,"Ġintent":8678,"Ġvalues":8679,"Ġthousand":8680,"ĠOrigin":8681,"ĠHeavy":8682,"Ġ1909":8683,"icians":8684,"Ġparticipate":8685,"ds":8686,"Ġvision":8687,"ĠCarib":8688,"Ġpages":8689,"ĠRaw":8690,"Ġpushed":8691,"Ġà¤ļà¤¯à¤¨":8692,"Ġhappened":8693,"à¤µà¤£":8694,"opter":8695,"tty":8696,"ĠBird":8697,"Ġthereafter":8698,"Ġfacing":8699,"Ġrelationships":8700,"Ġaccomp":8701,"ĠBulgar":8702,"ĠBenn":8703,"Ġformally":8704,"Ġflew":8705,"ĠTurkish":8706,"Ġvisitors":8707,"Ġinher":8708,"Ġfootage":8709,"ĠSamuel":8710,"Ġeasy":8711,"Ġresign":8712,"Ġopponents":8713,"Ġreportedly":8714,"Ġdrums":8715,"Ġintense":8716,"Ġà¤¸à¤°à¤²":8717,"Ġlearning":8718,"ĠRey":8719,"brid":8720,"ogether":8721,"Ġà¤¹à¤¥":8722,"Ġhanded":8723,"Ġnotably":8724,"spec":8725,"ĠSarah":8726,"rm":8727,"Ġexisted":8728,"Ġanimation":8729,"Ġinhabit":8730,"Ġfiring":8731,"Ġbes":8732,"Ġgather":8733,"unes":8734,"ĠLennon":8735,"ĠLim":8736,"Ġremove":8737,"bean":8738,"roph":8739,"Ġannounce":8740,"ĠGreece":8741,"Ġsurrender":8742,"ĠCam":8743,"Ġaccompany":8744,"jo":8745,"stic":8746,"olis":8747,"Ġà¤ľà¤¨à¤°à¤²":8748,"Ġsure":8749,"Ġdetailed":8750,"ĠQueens":8751,"Ġemployees":8752,"Ġunderstand":8753,"ĠAustria":8754,"Ġhat":8755,"Ġ125":8756,"ĠMalays":8757,"yo":8758,"Ġstring":8759,"ĠStock":8760,"Ġnormally":8761,"aver":8762,"oto":8763,"Ġaudio":8764,"ĠBaltimore":8765,"onies":8766,"orial":8767,"Ġavo":8768,"Ġhearing":8769,"ĠArk":8770,"orage":8771,"Ġà¥¥":8772,"Ġexposed":8773,"SP":8774,"Ġvul":8775,"Ġextent":8776,"ican":8777,"ĠAlbums":8778,"Ġdialogue":8779,"igen":8780,"Ġtesting":8781,"Ġunn":8782,"Ġpoetry":8783,"viation":8784,"Ġperiods":8785,"Ġdeparted":8786,"ĠColorado":8787,"Ġax":8788,"à¤·à¤ľ":8789,"Ġplate":8790,"Ġtag":8791,"Ġteeth":8792,"Ġbeach":8793,"à¤¯à¤Łà¤ķ":8794,"ropolitan":8795,"70":8796,"ĠHorn":8797,"Ġpublisher":8798,"Ġsubstantial":8799,"ĠCre":8800,"Ġresidential":8801,"prise":8802,"Ġuniverse":8803,"Ġske":8804,"Ġdoesn":8805,"ĠLane":8806,"à¤°à¤¸à¤¨":8807,"ologists":8808,"Ġà¤ķà¤ªà¤¡":8809,"Ġ1907":8810,"Ġrebell":8811,"ĠMarshall":8812,"ĠWriting":8813,"Ġtests":8814,"Ġutil":8815,"Ġtempor":8816,"Ġhappy":8817,"Ġexamples":8818,"Ġconvoy":8819,"Ġwindow":8820,"Ġfactor":8821,"Ġcruisers":8822,"Ġmart":8823,"ĠCR":8824,"ĠCz":8825,"Ġà¤ĺà¤Ł":8826,"Ġhuge":8827,"endment":8828,"roc":8829,"Ġreprodu":8830,"Ġimpressed":8831,"Ġà¤ļà¤¤":8832,"ĠErn":8833,"ĠFrederick":8834,"ĠInitially":8835,"Ġà¤ıà¤°":8836,"ullivan":8837,"Ġterritories":8838,"Ġstem":8839,"ĠDave":8840,"ribed":8841,"Ġenthus":8842,"Ġbehavi":8843,"Ġstable":8844,"ĠHorse":8845,"Ġvideos":8846,"Ġdriver":8847,"Ġtaught":8848,"à¤ħà¤Ń":8849,"Ġafternoon":8850,"Ġreviewers":8851,"ĠExt":8852,"ĠHuman":8853,"eping":8854,"utt":8855,"Ġfeud":8856,"Ġimprison":8857,"Ġsympt":8858,"ĠWrestling":8859,"Ġvessel":8860,"ĠML":8861,"ĠDC":8862,"iami":8863,"Ġisolated":8864,"Ġà¤īà¤¨à¤¸":8865,"roke":8866,"Ġlob":8867,"cho":8868,"ogan":8869,"ĠBanks":8870,"ĠHaving":8871,"Ġà¤īà¤ªà¤Ń":8872,"Ġengineering":8873,"Ġindicate":8874,"Ġagents":8875,"Ġmaintenance":8876,"Ġdiameter":8877,"Ġpicked":8878,"Ġnegotiations":8879,"ĠSomerset":8880,"ĠBuck":8881,"uda":8882,"Ġuncertain":8883,"ĠJess":8884,"Ġà¥§à¥ª":8885,"Ġgoods":8886,"Ġcollaps":8887,"ĠAnna":8888,"Ġmedium":8889,"Ġmir":8890,"Ġapprec":8891,"Ġencountered":8892,"ĠPlayer":8893,"Ġdiagn":8894,"ila":8895,"chen":8896,"Ġfur":8897,"Ġbridges":8898,"ĠMario":8899,"ĠRelease":8900,"Ġsimultane":8901,"Ã©e":8902,"Ġdangerous":8903,"Ġfounder":8904,"Ġwithdrew":8905,"ls":8906,"Ġà¤Ĺà¤²":8907,"Ġjunior":8908,"iable":8909,"ĠCall":8910,"Ġaged":8911,"Ġteamm":8912,"ĠChampionships":8913,"Ġsatell":8914,"borough":8915,"Ġkeeping":8916,"CC":8917,"Ġreun":8918,"etime":8919,"Ġcomments":8920,"sea":8921,"gery":8922,"Ġtie":8923,"Ġrefers":8924,"ĠAnglo":8925,"Ġphen":8926,"Ġpounds":8927,"wa":8928,"amese":8929,"Ġupgraded":8930,"ĠHand":8931,"Ġdiff":8932,"Ġlowest":8933,"ĠGiants":8934,"ĠMiami":8935,"Ġproced":8936,"Ġdeter":8937,"olas":8938,"bridge":8939,"à¤¦à¤¬":8940,"Ġpermission":8941,"Ġrelie":8942,"Ġspecimens":8943,"Ġethnic":8944,"ĠTreaty":8945,"Ġdiet":8946,"Ġresear":8947,"Ġfrequent":8948,"ĠOp":8949,"ĠSeattle":8950,"Ġprohib":8951,"Ġwhereas":8952,"Ġpolicies":8953,"Ġcrisis":8954,"Ġorb":8955,"Ġpartly":8956,"Ġorganizations":8957,"Ġped":8958,"Ġtoll":8959,"Ġrarely":8960,"Ġliqu":8961,"Ġcoordin":8962,"esh":8963,"Ġvic":8964,"Ġoutf":8965,"iece":8966,"Ġà¤¦à¤¶":8967,"Ġtone":8968,"xual":8969,"Ġlose":8970,"ĠAlab":8971,"ËĪ":8972,"ĠMach":8973,"Ġproport":8974,"Ġà¥§à¥¯à¥¬":8975,"Ġtechnique":8976,"ĠTrek":8977,"ĠSoon":8978,"rang":8979,"away":8980,"usal":8981,"Ġvice":8982,"Ġadvice":8983,"Ġtraveled":8984,"ãģ":8985,"Ġagree":8986,"ĠUSD":8987,"igs":8988,"ĠAh":8989,"Ġdesigner":8990,"helm":8991,"à¤ķà¤¸à¤Ń":8992,"ygen":8993,"Ġ1880":8994,"Ġrecommend":8995,"Ġ1000":8996,"ski":8997,"ennis":8998,"ĠAR":8999,"Ġstrip":9000,"Ġturrets":9001,"Ġlad":9002,"ĠManh":9003,"Ġcomplic":9004,"ĠÄ":9005,"ĠNat":9006,"ĠIowa":9007,"inction":9008,"ilst":9009,"Ġspending":9010,"Ġpersonality":9011,"Ġ1904":9012,"Ġrestric":9013,"Ġfinale":9014,"no":9015,"Ġoption":9016,"ĠHealth":9017,"Ġpartially":9018,"ĠForces":9019,"Ġcriticised":9020,"ĠCountry":9021,"uscript":9022,"Ġfinals":9023,"Ġ1906":9024,"Ġplatinum":9025,"Ġbypass":9026,"ĠKal":9027,"ĠCaribbean":9028,"oked":9029,"attan":9030,"Ġdifficulties":9031,"Ġexcell":9032,"Ġsafe":9033,"ĠAlabama":9034,"sk":9035,"Ġcompete":9036,"Ġranking":9037,"Ġmainstream":9038,"Ġseats":9039,"Ġverse":9040,"Ġrestrict":9041,"Ġmamm":9042,"ifer":9043,"ante":9044,"ĠLawrence":9045,"à¤®à¤ľ":9046,"Ġalter":9047,"Ġjur":9048,"Ġrecordings":9049,"Ġanticip":9050,"iac":9051,"Ġmand":9052,"ĠLin":9053,"Ġrates":9054,"attered":9055,"Ġminimum":9056,"Ġrefuge":9057,"Ã§":9058,"à¤µà¤Ń":9059,"à¤Łà¤¸":9060,"ĠBros":9061,"ĠThen":9062,"ĠNapole":9063,"ĠBuff":9064,"à¤¡à¤¸":9065,"OS":9066,"à¤¨à¤Ī":9067,"ĠHu":9068,"ĠCanal":9069,"Ġwindows":9070,"Ġphr":9071,"Ġcovers":9072,"Ġmoral":9073,"Ġtruth":9074,"Ġdescribe":9075,"ĠPolit":9076,"ĠCrown":9077,"Ġfalls":9078,"ĠMississ":9079,"Ġsymp":9080,"Ġmonument":9081,"ĠCharlie":9082,"Ġrecur":9083,"Ġovers":9084,"Ġrepair":9085,"Ġextreme":9086,"chell":9087,"Ġconcerts":9088,"enh":9089,"Ġrepresentative":9090,"TA":9091,"ĠYanke":9092,"Ġtot":9093,"ĠVI":9094,"ĠMinnes":9095,"isd":9096,"ĠDiv":9097,"power":9098,"Ġfighters":9099,"Ġ360":9100,"cop":9101,"Ġtub":9102,"Ġfunctions":9103,"Ġpitched":9104,"ĠReturn":9105,"à¤¦à¤ª":9106,"Ġà¤Ĩà¤¹":9107,"ĠMcD":9108,"mers":9109,"ĠBlood":9110,"Ġforcing":9111,"ĠDead":9112,"Ġdynasty":9113,"Ġpin":9114,"ĠSenator":9115,"ĠBan":9116,"urance":9117,"ĠMinistry":9118,"Ġfriendly":9119,"Ġcustom":9120,"Ġprompted":9121,"Ġtenth":9122,"Ġhockey":9123,"ĠGarden":9124,"ĠIan":9125,"Ġshear":9126,"Ġprotest":9127,"zz":9128,"Ġpric":9129,"bra":9130,"Ġaware":9131,"Ġreconst":9132,"Ġlisting":9133,"Ġadm":9134,"Ġdestroyers":9135,"Ġcollapse":9136,"Ġdrawing":9137,"Ġboys":9138,"Ġpy":9139,"Ġbases":9140,"ĠKhan":9141,"à¤®à¤¶":9142,"Ġhull":9143,"ĠÃĨ":9144,"Ġneighborhood":9145,"Ġunderw":9146,"Ġapproval":9147,"ĠGrammy":9148,"icy":9149,"ĠBrig":9150,"Ġchurches":9151,"ĠBenj":9152,"ĠTownship":9153,"Ġadjacent":9154,"acle":9155,"ĠDance":9156,"ĠHungary":9157,"Ġlists":9158,"aud":9159,"Ġchanging":9160,"à¤ķà¤²à¤¤":9161,"Ġdoctor":9162,"ĠNazi":9163,"Ġinaug":9164,"Ġcreator":9165,"ĠRoc":9166,"Ġju":9167,"ods":9168,"Ġ1870":9169,"Ġtravelled":9170,"Ġbombers":9171,"Ġjoining":9172,"itud":9173,"ĠHamp":9174,"active":9175,"Ġhousing":9176,"Ġpartnership":9177,"ĠBelgium":9178,"andal":9179,"ĠEvent":9180,"Ġ164":9181,"Ġà¤¸à¤®à¤Ŀà¤¨":9182,"Ġcredits":9183,"ĠChristopher":9184,"ĠHud":9185,"ĠMedal":9186,"eu":9187,"Ġacted":9188,"face":9189,"Ġgrown":9190,"roid":9191,"ĠAustralians":9192,"ĠShakesp":9193,"à¤Ĺà¤ª":9194,"ĠDiego":9195,"ĠCold":9196,"odore":9197,"Ġvillages":9198,"Ġtribute":9199,"29":9200,"Ġà¥¦":9201,"ĠRepresent":9202,"Ġpurposes":9203,"Ġexplo":9204,"ographical":9205,"Ġmoments":9206,"à¤¯à¤ľ":9207,"Ġcanal":9208,"Ġprotagonist":9209,"Ġmargin":9210,"ĠChildren":9211,"ĠMuch":9212,"Ġwheel":9213,"Ġcreative":9214,"ĠLaure":9215,"ĠLl":9216,"ugby":9217,"ĠAdminist":9218,"Ġargument":9219,"ĠCamer":9220,"ĠMichel":9221,"Ġinstrumental":9222,"ĠHills":9223,"Ġcryst":9224,"alions":9225,"ĠCred":9226,"Ġarts":9227,"Ġrefere":9228,"Ġtrend":9229,"Ġanaly":9230,"Ġà¤ľà¤¡":9231,"Ġpowered":9232,"die":9233,"onnaissance":9234,"ĠSet":9235,"ounced":9236,"Ġradar":9237,"Äį":9238,"imeter":9239,"Ġdollars":9240,"Ġels":9241,"Ġasks":9242,"Ġprecip":9243,"unc":9244,"uman":9245,"ĠRecord":9246,"Ġtreaty":9247,"Ġbenefit":9248,"velt":9249,"Ġstorms":9250,"Ġelsewhere":9251,"Ġadvis":9252,"Ġrounds":9253,"Ġscientists":9254,"orph":9255,"Ġà¤ĭà¤£":9256,"Ġpossession":9257,"Ġappointment":9258,"ĠBenjamin":9259,"Ġà¤¹à¤¦":9260,"sters":9261,"Ġà¤ħà¤£":9262,"Ġpron":9263,"Ġminimal":9264,"vy":9265,"lock":9266,"ĠRand":9267,"ĠFal":9268,"ĠGab":9269,"Ġcovering":9270,"TS":9271,"rome":9272,"Ġunlike":9273,"Ġeliminated":9274,"ĠGuardian":9275,"à¤ĺà¤¨":9276,"Ġhelping":9277,"ĠLegacy":9278,"ĠVietnamese":9279,"Ġfalse":9280,"ĠTun":9281,"Ġvictories":9282,"Ġsurvive":9283,"ivated":9284,"ĠAlfred":9285,"Ġpaintings":9286,"Ġà¤Ĺà¤ł":9287,"Ġdegrees":9288,"icts":9289,"ecraft":9290,"Ġdispute":9291,"mph":9292,"Ġparent":9293,"Ġinnov":9294,"ĠRoose":9295,"Ġseeking":9296,"Ġtelling":9297,"ĠHockey":9298,"Ġbrick":9299,"rix":9300,"Ġsoil":9301,"Ġsurprise":9302,"à¤¯à¤Łà¤¨":9303,"Ġoccupation":9304,"Ġnewspapers":9305,"ĠSon":9306,"Ġsimpl":9307,"Ġ165":9308,"ĠTrust":9309,"Ġsmooth":9310,"ĠMinnesota":9311,"Ġgard":9312,"Ġà¤ľà¤¨à¤ľ":9313,"Ġoccasions":9314,"ouri":9315,"Ġsuicide":9316,"action":9317,"Ġarriving":9318,"Ġloan":9319,"Ġrhythm":9320,"Ġwet":9321,"ĠAff":9322,"ĠÐ":9323,"Ġbalance":9324,"rupted":9325,"Ġtwin":9326,"Ġà¥¯":9327,"overs":9328,"Ġpool":9329,"Ġmanuscript":9330,"ĠHong":9331,"ĠAnim":9332,"ĠManhattan":9333,"ĠKurt":9334,"obile":9335,"Ġ1901":9336,"ĠFranklin":9337,"ĠWalker":9338,"Ġgat":9339,"ĠComb":9340,"orious":9341,"Ġfishing":9342,"ĠShel":9343,"ĠFried":9344,"Ġcooper":9345,"Ġabsol":9346,"Ġstruggle":9347,"ĠInterstate":9348,"Cap":9349,"ulating":9350,"Ġpreserved":9351,"Ġcandidates":9352,"Ġmulti":9353,"Ġmurd":9354,"ĠPeninsula":9355,"isp":9356,"Ġhelic":9357,"Ġschedule":9358,"ĠPerform":9359,"acks":9360,"Ġflash":9361,"Ġà¤ļà¤Ł":9362,"ĠNag":9363,"ĠRoosevelt":9364,"ĠBeck":9365,"Ġpublicly":9366,"Ġneutral":9367,"ĠIce":9368,"Ġbot":9369,"agen":9370,"Ġcompeted":9371,"Ġà¤¸à¤¹à¤®à¤¤":9372,"ĠBull":9373,"ĠHem":9374,"ĠFlight":9375,"Ġcook":9376,"incial":9377,"à¤¨à¤ļ":9378,"atherine":9379,"sky":9380,"Ġà¤®à¤¤à¤²à¤¬":9381,"ĠIndustry":9382,"Ġdies":9383,"oking":9384,"ĠThor":9385,"idd":9386,"Ġalignment":9387,"Ġconsult":9388,"Ġconcrete":9389,"Ġemperor":9390,"Ġhonour":9391,"ĠBrun":9392,"Ġbeautiful":9393,"ishment":9394,"Ġresumed":9395,"ĠMicro":9396,"munition":9397,"Ġà¤®à¤Ĺ":9398,"Ġviolent":9399,"LC":9400,"Ġimpossible":9401,"ĠSatur":9402,"ĠLith":9403,"ĠNash":9404,"ĠKansas":9405,"Ġelectronic":9406,"nik":9407,"ĠKnow":9408,"ĠWolf":9409,"Ġpilots":9410,"ĠDigital":9411,"rants":9412,"Ġwedding":9413,"Ġà¥§à¥©":9414,"Ġsurvivors":9415,"Ġprocl":9416,"Ġabilities":9417,"Ġteaching":9418,"ĠJos":9419,"Ġsuitable":9420,"ĠBorn":9421,"Ġnations":9422,"ensions":9423,"ĠPortland":9424,"Ġadvoc":9425,"ĠHindu":9426,"ĠMississipp":9427,"Ġserial":9428,"Ġpoison":9429,"ĠHotel":9430,"Ġintensified":9431,"ĠBuilding":9432,"fted":9433,"Ġlem":9434,"Ġdefeating":9435,"à¤Ļ":9436,"Ġwrest":9437,"à¤ľà¤¨à¤ķ":9438,"Ġassisted":9439,"Ġfoundation":9440,"Ġdiscip":9441,"ĠNon":9442,"Ġprosp":9443,"Ġorbit":9444,"Ġunderstanding":9445,"Ġusual":9446,"Ġinteresting":9447,"amic":9448,"Ġrivers":9449,"Ġovert":9450,"ika":9451,"rows":9452,"Ġelabor":9453,"Ġoxygen":9454,"ĠDom":9455,"ĠWard":9456,"ĠUE":9457,"ĠCole":9458,"Ġgrey":9459,"Ġresolution":9460,"eare":9461,"Ġwaves":9462,"gon":9463,"ctic":9464,"Ġtunnel":9465,"à¤£à¤ķ":9466,"Ġagricultural":9467,"Ġsubmitted":9468,"ilty":9469,"Ġassists":9470,"Ġ1902":9471,"Ġscholar":9472,"Ġdanc":9473,"à¤¬à¤¡":9474,"ĠDw":9475,"Ġopponent":9476,"ĠAlexand":9477,"ĠArea":9478,"uv":9479,"ĠCob":9480,"ĠWol":9481,"Ġsigning":9482,"iveness":9483,"Ġbehalf":9484,"Ġciting":9485,"ĠStat":9486,"Ġsigns":9487,"icer":9488,"Ġ155":9489,"Ġfifteen":9490,"Ġbusinesses":9491,"Ġmines":9492,"rator":9493,"ĠTag":9494,"resents":9495,"Ġ115":9496,"Ġbacking":9497,"Ġà¥§à¥¯":9498,"onymous":9499,"Ġsymptoms":9500,"ĠVis":9501,"Ġassess":9502,"Ġsubjects":9503,"Ġencounter":9504,"unch":9505,"Ġpercentage":9506,"ĠApple":9507,"Ġspiritual":9508,"atics":9509,"Ġnom":9510,"Ġclosing":9511,"dale":9512,"adi":9513,"itated":9514,"ĠBox":9515,"ĠProm":9516,"Ġanch":9517,"Ġsituated":9518,"Ġforests":9519,"ĠShakespeare":9520,"Ġ01":9521,"ĠBlues":9522,"Ġcircuit":9523,"ĠHalo":9524,"alities":9525,"ĠNative":9526,"Ġsubt":9527,"Ġsank":9528,"à¤¸à¤¬":9529,"Ġà¤¡à¤¬":9530,"Ġsunk":9531,"à¤²à¤ļ":9532,"ĠVinc":9533,"Ġ1903":9534,"Ġvoiced":9535,"Ġforty":9536,"osm":9537,"Ġparish":9538,"ais":9539,"Ġninet":9540,"Ġà¤ľà¤²à¤µ":9541,"ĠTenness":9542,"ĠRen":9543,"Ġrepresents":9544,"Ġcorpor":9545,"Ġà¥§à¥¯à¥ª":9546,"ĠPy":9547,"ĠKings":9548,"Ġammunition":9549,"ĠHero":9550,"Ġbid":9551,"ĠCampbell":9552,"Ġimperial":9553,"ĠAthlet":9554,"Äĥ":9555,"ĠFriend":9556,"à¤°à¤¹à¤µ":9557,"Ġasking":9558,"Ġillness":9559,"Ġcontroll":9560,"asters":9561,"Ġà¤īà¤ľ":9562,"aph":9563,"à¤£à¤µà¤¤":9564,"ĠEgyptian":9565,"Ġcollaboration":9566,"fe":9567,"ĠDest":9568,"ĠSullivan":9569,"Ġnotice":9570,"lah":9571,"Ġrepairs":9572,"ori":9573,"Ġjunction":9574,"Ġdisaster":9575,"ĠSteven":9576,"Ġevil":9577,"ĠWindows":9578,"ĠLucas":9579,"Ġunderground":9580,"Ġattendance":9581,"father":9582,"Ġiniti":9583,"Ġrestaurant":9584,"ĠCO":9585,"ĠPed":9586,"ĠEP":9587,"Ġworship":9588,"Ġfeelings":9589,"Ġlieutenant":9590,"ques":9591,"amps":9592,"Ġaudiences":9593,"Ġearthqu":9594,"à¤ļà¤µ":9595,"Ġaffairs":9596,"Ġflights":9597,"Ġdeliber":9598,"aron":9599,"Ġportra":9600,"Ġsuspended":9601,"ĠHistoric":9602,"ĠKu":9603,"sex":9604,"Ġdocuments":9605,"Ġnucle":9606,"ĠDragon":9607,"ĠJosh":9608,"Ġrecre":9609,"ĠMcL":9610,"ĠStevens":9611,"ĠMargaret":9612,"Ġwilling":9613,"Ġà¥§à¥¯à¥«":9614,"idel":9615,"ĠRace":9616,"Ġexit":9617,"Ġskull":9618,"ĠPalest":9619,"Ġid":9620,"era":9621,"Ġtargets":9622,"ception":9623,"Ġmeasured":9624,"ĠMississippi":9625,"ĠTennessee":9626,"Ġsector":9627,"ĠMack":9628,"ĠRab":9629,"odge":9630,"ĠLouisiana":9631,"ĠLam":9632,"Ġlect":9633,"ĠMagn":9634,"Ġregistered":9635,"ĠTan":9636,"ĠMess":9637,"ĠJoh":9638,"Ġoperational":9639,"Ġprol":9640,"Ġcargo":9641,"ĠLabour":9642,"uable":9643,"ĠMes":9644,"Ġabol":9645,"inea":9646,"Ġaffair":9647,"ĠWarren":9648,"ĠBusiness":9649,"à¤¥à¤¶":9650,"Ġ109":9651,"ĠSony":9652,"Ġ174":9653,"Ġfuneral":9654,"ĠMontreal":9655,"Ġmountains":9656,"Ġà¤Ĩà¤¦à¤®":9657,"Ġaffili":9658,"OT":9659,"Ġben":9660,"Ġà¤Ńà¤Ł":9661,"ĠSmall":9662,"Ġpoorly":9663,"Ġaimed":9664,"Ġfiled":9665,"Ġcompilation":9666,"ĠTamil":9667,"ĠDepression":9668,"ĠPhilippines":9669,"Ġà¤ħà¤¹":9670,"ĠChand":9671,"weet":9672,"Ġconscious":9673,"anium":9674,"ĠMissouri":9675,"Ġrout":9676,"ĠStr":9677,"IV":9678,"orders":9679,"Ġadopt":9680,"ĠNa":9681,"rak":9682,"Ġrecognised":9683,"Ġstatue":9684,"Ġentertainment":9685,"ateur":9686,"Ġ173":9687,"Ġtemporarily":9688,"ĠLov":9689,"Ġreplacing":9690,"Ġexplosion":9691,"Ġfavorable":9692,"Ġcyl":9693,"à¤£à¤µ":9694,"Ġelder":9695,"Ġprofessor":9696,"issions":9697,"Ġliked":9698,"ĠMitchell":9699,"ĠBilly":9700,"Ġinterpre":9701,"gate":9702,"ĠABC":9703,"Ġ168":9704,"overe":9705,"Ġdimens":9706,"ĠSeven":9707,"ĠCow":9708,"Ġprime":9709,"ĠAy":9710,"ĠFem":9711,"Ġsequences":9712,"Ġà¤ľà¤¯":9713,"Ġà¤Ĺà¤¦":9714,"iph":9715,"Ġartwork":9716,"rep":9717,"à¤¸à¤«":9718,"ĠRing":9719,"Ġà¤īà¤·":9720,"à¤ªà¤¥":9721,"Ġfifty":9722,"soft":9723,"ĠCritics":9724,"Ġshells":9725,"ĠIndependent":9726,"Ġoffering":9727,"ĠGraham":9728,"race":9729,"à¤°à¤«à¤²":9730,"Ġvertical":9731,"Ġuseful":9732,"ĠKirk":9733,"bre":9734,"formation":9735,"à¥¨à¥¦":9736,"Ġrig":9737,"Ġgrav":9738,"ĠMaur":9739,"ĠSin":9740,"ĠNear":9741,"Ġresidence":9742,"Ġexpensive":9743,"Ġreflected":9744,"Ġpreparation":9745,"species":9746,"à¤¨à¤¹":9747,"Ġprint":9748,"Ġ104":9749,"Ġdirectors":9750,"Ġrestoration":9751,"ĠCzech":9752,"Ġwore":9753,"Ġsolution":9754,"inental":9755,"Ġpatterns":9756,"ellect":9757,"ĠDS":9758,"Ġterror":9759,"Ġthinking":9760,"Ġà¤¤à¤¯":9761,"Ġalliance":9762,"Ġreluct":9763,"ancell":9764,"ĠYe":9765,"Ġamongst":9766,"Ġà¤ľà¤Ĺà¤¤":9767,"Ġà¤Ĩà¤ªà¤¸":9768,"apping":9769,"Ġalcohol":9770,"Ġcontributions":9771,"Ġtouring":9772,"Ġoverw":9773,"Ġkeyboard":9774,"Ġsuggesting":9775,"equ":9776,"Ġcompleting":9777,"ylan":9778,"uary":9779,"ĠGuide":9780,"Ġmarks":9781,"otes":9782,"racts":9783,"Ġrebuilt":9784,"Ø§":9785,"ĠEdge":9786,"Ġclearly":9787,"Ġà¤¯à¤ľ":9788,"artney":9789,"Ġbanks":9790,"Ġgang":9791,"vant":9792,"Ġelectron":9793,"Ġcommunication":9794,"je":9795,"exp":9796,"ĠPersian":9797,"ĠFrid":9798,"Ġà¤Łà¤°":9799,"ĠAriz":9800,"ĠkW":9801,"Ġescaped":9802,"ĠSnow":9803,"Ġhorror":9804,"ĠCuba":9805,"bishop":9806,"Ġfamiliar":9807,"ĠPhoen":9808,"Ġcoverage":9809,"Ġpulled":9810,"overeign":9811,"Ġerupt":9812,"Ġcancelled":9813,"Ãº":9814,"Ġwasn":9815,"à¤ĸà¤ķà¤°":9816,"Ġamounts":9817,"Ġbay":9818,"pha":9819,"Ġdecides":9820,"à¤¯à¤¤à¤¨":9821,"Ġreven":9822,"This":9823,"à¤Īà¤Ł":9824,"Ġdepending":9825,"ĠProgram":9826,"Ġà¤Ĩà¤Ĺà¤°":9827,"Ġtribes":9828,"Ġcous":9829,"Ġà¤ħà¤¹à¤®à¤¦":9830,"SA":9831,"Ġsaved":9832,"urally":9833,"Ġgarden":9834,"okes":9835,"ĠEconom":9836,"athy":9837,"Ġempt":9838,"Ġfemin":9839,"Ġdramatic":9840,"ĠCher":9841,"Ġlacked":9842,"ĠFiles":9843,"Ġracing":9844,"orer":9845,"Ġrit":9846,"Ġpredomin":9847,"Ġownership":9848,"Ġà¤īà¤ªà¤ľ":9849,"ieties":9850,"Ġengagement":9851,"Ġfrig":9852,"Ġperspective":9853,"ova":9854,"Ġargues":9855,"Ġadministrative":9856,"ĠSaturday":9857,"hu":9858,"Ġseed":9859,"oga":9860,"Ġrecip":9861,"ĠIndies":9862,"Ġexplain":9863,"storm":9864,"Ġà¤ĩà¤¬":9865,"ĠArizona":9866,"Ġ350":9867,"Ġ169":9868,"à¤¤à¤¸":9869,"Ġarmored":9870,"Ġwicket":9871,"ĠTel":9872,"Ġcontext":9873,"Ġdrove":9874,"ĠGrey":9875,"Ġcolonies":9876,"Ġboundary":9877,"Ġmerchant":9878,"Ġfastest":9879,"ĠMarie":9880,"Ġà¤ĳà¤ªà¤°":9881,"ĠBureau":9882,"ĠDylan":9883,"tha":9884,"Ġvel":9885,"Ġartistic":9886,"fish":9887,"Ġkings":9888,"Ġcomparison":9889,"Ġplayoffs":9890,"à¤°à¤°":9891,"Ġexecut":9892,"ĠScout":9893,"Ġà¤ĺà¤¨":9894,"Ġrising":9895,"Ġideal":9896,"Ġinstitutions":9897,"Ġremnants":9898,"ĠLas":9899,"Ġcharacterized":9900,"life":9901,"Ġgenetic":9902,"elli":9903,"Ġbran":9904,"Ġthor":9905,"idency":9906,"uations":9907,"ses":9908,"Ġranks":9909,"Ġloop":9910,"acon":9911,"Ġexplains":9912,"à¸":9913,"Ġtrick":9914,"Ġbulk":9915,"Ġmilitia":9916,"rÃ©":9917,"Ġjazz":9918,"Ġretail":9919,"Ġapplication":9920,"Ġplus":9921,"Ġacceler":9922,"Ġsynd":9923,"Ġseverely":9924,"Ġarmament":9925,"ĠWilhelm":9926,"mented":9927,"Ġpoems":9928,"Ġcrews":9929,"Ġdisappoin":9930,"lude":9931,"Ġcontrols":9932,"Ġbadly":9933,"Ġdistinctive":9934,"Ġrestricted":9935,"png":9936,"Ġbronze":9937,"Ġexcav":9938,"Ġflagship":9939,"omber":9940,"Ġgap":9941,"ectic":9942,"Ġbowling":9943,"ĠConfederate":9944,"Ġearning":9945,"mi":9946,"ĠLang":9947,"Ġ02":9948,"ĠSwitzer":9949,"Ġfrust":9950,"Ġdemonstrated":9951,"uma":9952,"Ġ1896":9953,"Ġfallen":9954,"ĠOklah":9955,"cru":9956,"ĠLiz":9957,"Ġwants":9958,"itis":9959,"ĠRat":9960,"Ġranging":9961,"Ġfixed":9962,"Ġpractices":9963,"Å«":9964,"Ġobvious":9965,"Ġthrew":9966,"ĠWik":9967,"Ġcondem":9968,"otton":9969,"Ġquiet":9970,"Ġwider":9971,"ĠSwitzerland":9972,"Ġinland":9973,"ĠAmy":9974,"ĠMrs":9975,"Ġinhabitants":9976,"Ġfaster":9977,"Ġtex":9978,"Ġearn":9979,"Ġsisters":9980,"Ġmental":9981,"Ġshield":9982,"à¤¤à¤Ĺ":9983,"ivia":9984,"Ġkit":9985,"ĠMurphy":9986,"oven":9987,"Ġarrive":9988,"ĠBroadway":9989,"inations":9990,"à¤ľà¤¨à¤¸":9991,"Ġmeat":9992,"ocking":9993,"Ġrevol":9994,"Ġriders":9995,"ĠFederation":9996,"Ġappropriate":9997,"ĠSuch":9998,"Ġà¤Ĩà¤īà¤Ł":9999,"Ġconservative":10000,"ĠHarvey":10001,"Ġmaneu":10002,"Ġsurge":10003,"lings":10004,"Ġreaders":10005,"Ġpace":10006,"asts":10007,"Ġtriple":10008,"Ġvulner":10009,"Ġà¤ĩà¤¸à¤¨":10010,"Ġspotted":10011,"Ġreaches":10012,"ĠBomb":10013,"ĠVe":10014,"Ġnominations":10015,"Ġgate":10016,"Ġagency":10017,"Ġstorage":10018,"ĠBarry":10019,"Ġdistinguished":10020,"ĠSi":10021,"raction":10022,"Ġyield":10023,"à¤¯à¤°à¤¸":10024,"Ġevolved":10025,"Ġà¤®à¤¹à¤¸":10026,"Ġexhibition":10027,"Ġchoose":10028,"ruption":10029,"Ġprotein":10030,"anton":10031,"Ġnorthward":10032,"Ġsatellite":10033,"Ġsignal":10034,"ĠHarv":10035,"ĠOriginal":10036,"Ġprepare":10037,"lus":10038,"Ġautobi":10039,"ĠOklahoma":10040,"urer":10041,"Ġmillimet":10042,"ĠClar":10043,"ĠAustrian":10044,"ĠSaros":10045,"Ġtip":10046,"Ġdominant":10047,"Ġsubspecies":10048,"Ġquarterback":10049,"ĠInternet":10050,"Ġvs":10051,"Ġpredicted":10052,"quir":10053,"grade":10054,"Ġhouseholds":10055,"Ġphenomen":10056,"MI":10057,"rint":10058,"aro":10059,"Ġstrict":10060,"Ġsurgery":10061,"uki":10062,"Ġcurren":10063,"Ġpalace":10064,"§à¥¦":10065,"eland":10066,"Ġà¤¤à¤¸":10067,"Ġintellect":10068,"Ġblocks":10069,"Ġà¤Ķà¤·à¤§":10070,"eton":10071,"ĠDelaware":10072,"Ġwreck":10073,"Ġabund":10074,"Ġrepeatedly":10075,"Ġvast":10076,"Ġslaves":10077,"Ġ1860":10078,"ĠPhCap":10079,"sequently":10080,"ĠTiG":10081,"Ġprinted":10082,"ĠTiTB":10083,"ĠTiTE":10084,"ĠTiPB":10085,"ĠTiPE":10086,"Ġpredecessor":10087,"ĠLithuan":10088,"Ġstores":10089,"Ġoutl":10090,"din":10091,"Ġ163":10092,"Ġphone":10093,"jan":10094,"ĠSem":10095,"Ġsubst":10096,"Ġphilosophy":10097,"Ġtiss":10098,"ĠPle":10099,"Ġcarriers":10100,"ĠFif":10101,"Ġplain":10102,"ĠChen":10103,"Ġattained":10104,"Ġheading":10105,"ĠPerry":10106,"ĠLeslie":10107,"imen":10108,"ĠAld":10109,"Ġà¤«à¤¸à¤²":10110,"local":10111,"Ġallies":10112,"__":10113,"iders":10114,"rik":10115,"Ġà¤²à¤ķà¤¡":10116,"à¤¨à¤¡":10117,"ĠTerrit":10118,"ĠDenmark":10119,"Ġcircumstances":10120,"Ġexcellent":10121,"onomy":10122,"Ġboss":10123,"ĠMother":10124,"Ġpretty":10125,"Ġpeaking":10126,"Ġseriously":10127,"icate":10128,"ĠMik":10129,"ardo":10130,"Ġadventure":10131,"Ġillegal":10132,"Ġtack":10133,"ĠBaby":10134,"ĠJuan":10135,"Ġbiographer":10136,"ĠTokyo":10137,"oned":10138,"à¤¤à¤ľ":10139,"acc":10140,"ĠRih":10141,"ĠLess":10142,"ascar":10143,"Ġlayer":10144,"gro":10145,"Ġcomfort":10146,"Ġdiscussion":10147,"Ġbreat":10148,"ello":10149,"Ġdisagre":10150,"Ġcoinc":10151,"Ġdrugs":10152,"ĠOriginally":10153,"rose":10154,"ĠHur":10155,"Ġinstitution":10156,"à¤Ĺà¤¶":10157,"à¤¶à¤®":10158,"ĠTon":10159,"Ġperceived":10160,"Ġbombs":10161,"ĠChel":10162,"à¤¯à¤ķà¤°":10163,"Ġerror":10164,"Ġalternate":10165,"Ġdollar":10166,"ĠPil":10167,"agh":10168,"Ġrub":10169,"Ġ1898":10170,"Ġapartment":10171,"Ġwaiting":10172,"Ġtight":10173,"ĠMaj":10174,"Ġwhilst":10175,"Ġdefinition":10176,"arth":10177,"Ġoutput":10178,"à¤łà¤Ń":10179,"aughters":10180,"Ġlooks":10181,"ĠJonathan":10182,"ĠSpir":10183,"Ġmeetings":10184,"Ġremarked":10185,"ĠRidge":10186,"Ġsick":10187,"yler":10188,"Ġwestward":10189,"ĠRoll":10190,"ĠAtlanta":10191,"ĠBaseball":10192,"Ġsket":10193,"ĠPlayers":10194,"Ġsurrend":10195,"ĠHann":10196,"Ġà¤ĸà¤¨":10197,"Ġsimilarly":10198,"ĠJohnny":10199,"ĠRihanna":10200,"oa":10201,"Ġhorn":10202,"Ġchamber":10203,"azing":10204,"rings":10205,"aration":10206,"ĠRub":10207,"ĠWor":10208,"Ġmatters":10209,"Ġbattalions":10210,"ĠCampaign":10211,"Ġmobile":10212,"ĠAbbey":10213,"à¤ªà¤¡":10214,"ĠInn":10215,"Ġplanets":10216,"ĠRico":10217,"Ġhook":10218,"Ġà¤Ĺà¤µà¤°":10219,"Ġbehaviour":10220,"Ġ1893":10221,"Ġarmour":10222,"ĠNixon":10223,"Ġcivilian":10224,"rov":10225,"ĠOpp":10226,"Ġvisiting":10227,"apolis":10228,"Ġcasting":10229,"inian":10230,"à¥¨à¥¦à¥":10231,"Ġpanel":10232,"Ġholid":10233,"Ġgust":10234,"à¤£à¤¸":10235,"arant":10236,"Ġà¤ħà¤¯":10237,"Ġretain":10238,"Ġfriendship":10239,"ĠIran":10240,"estone":10241,"Ġstrengthened":10242,"ĠPrize":10243,"ĠPitts":10244,"OC":10245,"ĠNik":10246,"ĠNAS":10247,"Ġlinks":10248,"Ġreconnaissance":10249,"Ġjustice":10250,"Ġsimultaneously":10251,"ĠUEFA":10252,"TW":10253,"ĠArnold":10254,"Ġlegacy":10255,"Ġtyphoon":10256,"iti":10257,"ĠLex":10258,"Ġpropag":10259,"ĠEdwards":10260,"Ġrevers":10261,"Ġconsole":10262,"esses":10263,"mingham":10264,"ĠSoul":10265,"Ġà¤¬à¤®":10266,"akh":10267,"Ġ1899":10268,"Ġdemanded":10269,"ĠRal":10270,"Sp":10271,"ĠMS":10272,"estyle":10273,"Ġroots":10274,"ĠWag":10275,"ghan":10276,"ication":10277,"ĠAS":10278,"Ġcontinu":10279,"ĠRailroad":10280,"Ġindu":10281,"Ġalive":10282,"Ġshipping":10283,"Ġinsisted":10284,"ĠJimmy":10285,"atus":10286,"emen":10287,"Ġenlisted":10288,"Ġexpression":10289,"ĠMcM":10290,"Ġathletes":10291,"Ġrevenue":10292,"ĠPars":10293,"ĠKeith":10294,"Ġneighb":10295,"eding":10296,"ĠMadag":10297,"ĠCost":10298,"Ġbombing":10299,"Ġà¤¸à¤°à¤¸":10300,"Ġdiver":10301,"Ġpromised":10302,"Ġpersonally":10303,"Ġà¤¹à¤¡":10304,"entle":10305,"ĠJar":10306,"Ġ106":10307,"Ġdemands":10308,"Ġguitarist":10309,"mn":10310,"à¤ļà¤®":10311,"ĠUniversal":10312,"ĠPatt":10313,"Ġhoriz":10314,"otyp":10315,"Ġ153":10316,"Ġdrivers":10317,"lain":10318,"Ġpione":10319,"Ġhidden":10320,"Ġlanes":10321,"à¤ıà¤Ł":10322,"ĠRachel":10323,"ĠShaw":10324,"Ġportions":10325,"Ġsung":10326,"ĠFat":10327,"Ġartific":10328,"Ġprofile":10329,"Ġmarketing":10330,"Ġbacked":10331,"Ġmainland":10332,"ĠDeb":10333,"rh":10334,"Ġà¤®à¤Ľà¤²":10335,"Ġstruggled":10336,"Ġorchestra":10337,"ifies":10338,"Ġoblig":10339,"Ġaudition":10340,"Ġà¤ķà¤¦à¤®":10341,"inding":10342,"ĠComple":10343,"à¤¤à¤¥":10344,"Ġcup":10345,"ouver":10346,"ĠFel":10347,"Ġaffect":10348,"ĠMicrosoft":10349,"cles":10350,"acre":10351,"atern":10352,"Ġdemolished":10353,"ĠMans":10354,"ĠBach":10355,"ĠGray":10356,"ĠTol":10357,"odox":10358,"Ġguilty":10359,"Ġincreases":10360,"ĠPubl":10361,"regation":10362,"Ġjobs":10363,"ĠYankees":10364,"ĠLost":10365,"Ġcompens":10366,"Ġà¤¡à¤°":10367,"Ġ127":10368,"Ġarmies":10369,"Ġorganisation":10370,"Ġessential":10371,"ĠVik":10372,"Ġsq":10373,"ĠSig":10374,"Ġlin":10375,"Ġobst":10376,"Ġruling":10377,"ĠNine":10378,"Ġfactory":10379,"Ġsurpass":10380,"ĠPakistan":10381,"azines":10382,"196":10383,"Ġmultipl":10384,"Ġconversion":10385,"ĠBirmingham":10386,"ĠHugh":10387,"ĠRights":10388,"umps":10389,"ultan":10390,"Ġcounties":10391,"ĠTracy":10392,"Ġstarring":10393,"ÙĦ":10394,"Ġdancing":10395,"Ġprove":10396,"à¤ħà¤¸":10397,"Ġfeels":10398,"Ġà¤ĳà¤°":10399,"ĠBuddh":10400,"aks":10401,"Ġdiscont":10402,"ĠFurthermore":10403,"Ġsalt":10404,"à¤ķà¤¤à¤®":10405,"Ġmining":10406,"ĠEnterprise":10407,"ĠObama":10408,"bird":10409,"Ġtheater":10410,"Ġsad":10411,"Ġstick":10412,"Ġcompliment":10413,"Ġculmin":10414,"ĠEventually":10415,"avery":10416,"Ġmac":10417,"Ġexpand":10418,"Ġdelivery":10419,"folk":10420,"Ġpunk":10421,"Ġstress":10422,"ĠDefence":10423,"ĠPhoenix":10424,"ĠKl":10425,"ĠCanter":10426,"ĠMcCartney":10427,"ĠKarl":10428,"ĠPotter":10429,"apped":10430,"Ġexactly":10431,"gs":10432,"ĠBaker":10433,"Ġpursue":10434,"fle":10435,"ista":10436,"Ġerr":10437,"Ġpatron":10438,"Ġbelieving":10439,"asa":10440,"Ġdiscovers":10441,"Ġelevation":10442,"Ġclothing":10443,"Ġsolar":10444,"ĠPeace":10445,"Ġbonus":10446,"ĠJup":10447,"ĠKan":10448,"Ġcompounds":10449,"Ġà¤Ĺà¤£à¤°":10450,"Ġsucceed":10451,"Ġdoubt":10452,"ĠDiam":10453,"Ġcrest":10454,"Ġà¤ķà¤®à¤ľ":10455,"Ġports":10456,"Ġexplan":10457,"ĠCommunity":10458,"à¤¸à¤ļ":10459,"ĠHudson":10460,"ĠRan":10461,"ĠKit":10462,"Ġaccum":10463,"ĠâĤ¹":10464,"cription":10465,"ĠHold":10466,"Ġ166":10467,"Ġgray":10468,"Ġorn":10469,"Ġacou":10470,"aux":10471,"Ġconcentration":10472,"ĠGirls":10473,"ĠImpact":10474,"ĠPearl":10475,"Ġliquid":10476,"Ġaltered":10477,"à¤ıà¤¶à¤¨":10478,"Ġfont":10479,"Ġdrink":10480,"Ġdemocr":10481,"Ġforecast":10482,"warf":10483,"mat":10484,"à¤µà¤¸à¤¨":10485,"à¤¦à¤¤":10486,"ĠAmb":10487,"ĠBobby":10488,"ĠWayne":10489,"tario":10490,"ĠConnectic":10491,"owed":10492,"ĠPa":10493,"Ġsecretary":10494,"Ġkiss":10495,"Ġengage":10496,"Ã¦":10497,"Ġchest":10498,"ĠMadagascar":10499,"inces":10500,"ĠLat":10501,"ĠConnecticut":10502,"Ġå":10503,"ĠManu":10504,"ĠWorks":10505,"ĠBosn":10506,"asant":10507,"irty":10508,"Ġrequires":10509,"ĠTodd":10510,"Ġoverseas":10511,"Ġusers":10512,"mund":10513,"Ġbaby":10514,"rous":10515,"ĠZe":10516,"Ġlisten":10517,"ĠMorrison":10518,"Ġindicating":10519,"Ġà¤īà¤ªà¤Ĺ":10520,"pent":10521,"à¤¶à¤¸":10522,"ĠOntario":10523,"Ġmayor":10524,"Ġhapp":10525,"stan":10526,"acked":10527,"Ġerected":10528,"Ġobjective":10529,"Ġpale":10530,"Ġdeterior":10531,"irts":10532,"Ġcancel":10533,"Ġmusician":10534,"shore":10535,"Ġuser":10536,"Ġencl":10537,"Ġ108":10538,"ĠForeign":10539,"ĠFriday":10540,"oons":10541,"aments":10542,"Ġà¤¨à¤¸":10543,"ulous":10544,"Ġvoy":10545,"Ġdefences":10546,"eters":10547,"ĠGoth":10548,"Ġrenov":10549,"ĠCycl":10550,"oker":10551,"ĠBernard":10552,"ĠBath":10553,"Ġ1897":10554,"Ġlegislature":10555,"Ġsettlers":10556,"ĠâĢ¦":10557,"Ġangle":10558,"ĠCanterbury":10559,"Ġdecisions":10560,"aja":10561,"Ġsupplied":10562,"Ġradical":10563,"Ġanth":10564,"Ġraising":10565,"Ġdisl":10566,"ĠLegend":10567,"ĠSpart":10568,"Ġaerial":10569,"ensively":10570,"Ġscen":10571,"Ġprofit":10572,"ĠCS":10573,"Ġnet":10574,"Ġorganised":10575,"Ġsoldier":10576,"ĠAbd":10577,"Ġcampaigns":10578,"ĠTit":10579,"ivation":10580,"Ġpermitted":10581,"Ġhighways":10582,"ĠAllies":10583,"Ġtrouble":10584,"ĠBoys":10585,"uese":10586,"Ġà¤ĵà¤¡":10587,"Ġconspir":10588,"ĠHD":10589,"à¤ĩà¤°":10590,"Ġaftermath":10591,"ancouver":10592,"Ġsitting":10593,"Ġimprovements":10594,"Ġremoval":10595,"ĠAM":10596,"ĠPruss":10597,"Ġacknowledged":10598,"quote":10599,"Ġà¤Ĳà¤²":10600,"Ġsteps":10601,"Ġdanger":10602,"ĠGriff":10603,"Ġwrestling":10604,"Ġmeter":10605,"Ġedited":10606,"Ġsky":10607,"Ġgraduated":10608,"ĠLib":10609,"Ġski":10610,"Ġwealthy":10611,"Ġmal":10612,"ĠTed":10613,"Ġrealized":10614,"ĠMountains":10615,"Ġtranslation":10616,"ĠVancouver":10617,"Ġstriking":10618,"Ġdissipated":10619,"Ġà¤°à¤¤":10620,"ocy":10621,"Ġexternal":10622,"Ġ1850":10623,"Ġswitch":10624,"Ġexecution":10625,"Ġsoftware":10626,"ĠNapoleon":10627,"Ġdressed":10628,"Ġinterpretation":10629,"Ġpublishing":10630,"ĠPap":10631,"Ġconfron":10632,"otte":10633,"Ġobservations":10634,"rapped":10635,"ĠSeason":10636,"Ġpublications":10637,"Ġcelebrated":10638,"ĠÏ":10639,"Ġinitiated":10640,"Ġconnect":10641,"ratropical":10642,"Ġvenue":10643,"Ġsharp":10644,"Ġmagic":10645,"Ġà¤°à¤ľ":10646,"Ġtravels":10647,"ĠOutstanding":10648,"Ġtheatrical":10649,"ĠTNA":10650,"ĠLaur":10651,"Ġraids":10652,"Ġjurisd":10653,"itudes":10654,"Ġà¤īà¤Ĺ":10655,"Ġfewer":10656,"ĠDall":10657,"Ġshorter":10658,"Ġidentify":10659,"ĠAdministration":10660,"opp":10661,"ipper":10662,"à¤ħà¤Ĺà¤°":10663,"Ġà¤ķà¤®à¤°":10664,"Ġaggressive":10665,"itals":10666,"ĠLion":10667,"ĠList":10668,"phone":10669,"ĠGary":10670,"Ġblockquote":10671,"Ġturret":10672,"ipedia":10673,"Ġ154":10674,"195":10675,"Ġoriginated":10676,"ennium":10677,"ĠSymph":10678,"Ġchapel":10679,"Ġtort":10680,"ĠBeng":10681,"Ġsupple":10682,"Ġorigins":10683,"Ġconsidering":10684,"Ġdebt":10685,"EC":10686,"ĠGate":10687,"Ġunless":10688,"Ġguarant":10689,"Ġcutting":10690,"Ġevacuated":10691,"Ġfounding":10692,"Ġannouncement":10693,"run":10694,"ĠMint":10695,"Ġ1895":10696,"Ġbeam":10697,"ĠOur":10698,"ĠEdin":10699,"198":10700,"Ġestablishing":10701,"Ġcannon":10702,"ĠJupiter":10703,"Ġcaps":10704,"Ġstationed":10705,"Ġconnecting":10706,"itage":10707,"Ġplacing":10708,"Ġpartial":10709,"Ġdefending":10710,"Ġmush":10711,"ĠPortuguese":10712,"Ġing":10713,"Ġdecide":10714,"Ġaspect":10715,"Ġà¤¹à¤¨":10716,"à¤ĸà¤¨à¤Ĭ":10717,"Ġbrill":10718,"ĠAP":10719,"à¤ľà¤¶":10720,"ĠLen":10721,"Ġrebellion":10722,"ĠCov":10723,"à¤Łà¤«":10724,"ĠDrive":10725,"ĠMand":10726,"Ġbones":10727,"ĠChampions":10728,"annon":10729,"Ġarrangements":10730,"Ġstrategic":10731,"itively":10732,"adier":10733,"anner":10734,"autical":10735,"Ġfantasy":10736,"Ġcircle":10737,"Ġhosts":10738,"Ġmagazines":10739,"Ġdonated":10740,"Ġforth":10741,"Ġwalking":10742,"Ġhypothes":10743,"ĠNCAA":10744,"Ġmemor":10745,"olly":10746,"Ġexposure":10747,"Ġindicates":10748,"Ġcub":10749,"Ġlying":10750,"Ġongoing":10751,"ĠChampion":10752,"Ġpredict":10753,"Ġapproaching":10754,"ĠBradman":10755,"ĠShip":10756,"elta":10757,"Ġglac":10758,"ĠTriple":10759,"ti":10760,"Ġinsects":10761,"ĠÃĨthel":10762,"Ġbare":10763,"Ġà¤Ńà¤²":10764,"ĠGene":10765,"Ġextratropical":10766,"bow":10767,"fts":10768,"ĠAnc":10769,"Ġputting":10770,"Ġqualified":10771,"adal":10772,"ĠNatural":10773,"ĠStu":10774,"Ġdensity":10775,"Ġtubes":10776,"onium":10777,"avel":10778,"ĠAlice":10779,"venth":10780,"Ġfunny":10781,"Ġcolleagues":10782,"hears":10783,"Ġles":10784,"Ġtalent":10785,"ĠTrophy":10786,"atra":10787,"Ġmerely":10788,"earing":10789,"ĠPrincip":10790,"Ġclosest":10791,"ologies":10792,"Ġyoungest":10793,"ĠMission":10794,"ecution":10795,"Ġà¤ĸà¤¤":10796,"Ġà¥¨à¥«":10797,"Ġgathered":10798,"ĠIsa":10799,"Ġmarkets":10800,"Ġforg":10801,"Ġlandscape":10802,"Ġcoup":10803,"Ġbond":10804,"Ġbacter":10805,"Ġà¤ĩà¤Łà¤²":10806,"Ġbattlecru":10807,"Ġvolumes":10808,"amental":10809,"Ġcollapsed":10810,"Ġwatershed":10811,"ĠDwight":10812,"rapy":10813,"Ġwithdrawal":10814,"ĠDub":10815,"Ġà¤Ĩà¤Ń":10816,"Ġhydrogen":10817,"à¤¸à¤¬à¤¸":10818,"Ġshift":10819,"Ġdesert":10820,"Ġstrongest":10821,"Ġrede":10822,"ĠFleming":10823,"ĠHonor":10824,"AN":10825,"ĠJoy":10826,"agger":10827,"iper":10828,"ĠReserve":10829,"Ġclin":10830,"ĠMarvel":10831,"ĠNO":10832,"Ġexha":10833,"Ġlimits":10834,"ĠAfghan":10835,"Ġneighbour":10836,"Ġranges":10837,"In":10838,"hous":10839,"Ġchallenged":10840,"join":10841,"ĠChes":10842,"Ġspecimen":10843,"Ġspac":10844,"Ġconfront":10845,"Ġà¤·":10846,"Ġsuccession":10847,"Ã¼r":10848,"Ġfill":10849,"enna":10850,"Ġeducational":10851,"à¤°à¤ľà¤¨":10852,"Ġà¤¸à¤Ł":10853,"olve":10854,"irates":10855,"ĠStri":10856,"hard":10857,"à¤¯à¤¡":10858,"Ġfurn":10859,"ĠType":10860,"ĠSay":10861,"ĠPam":10862,"ĠKap":10863,"Ġspaces":10864,"à¤Ĩà¤ª":10865,"Ġvisits":10866,"ĠHampshire":10867,"ĠEdinburgh":10868,"Ġbrig":10869,"ĠOliver":10870,"Ġcock":10871,"ĠTob":10872,"ĠLt":10873,"à¤Ľà¤¤":10874,"ieth":10875,"Ġconventional":10876,"à¤¼à¥ī":10877,"Ġassembly":10878,"Ġprovision":10879,"Ġfeeding":10880,"Ġà¥¯à¥":10881,"ĠPin":10882,"ĠYears":10883,"Ġdubbed":10884,"75":10885,"ĠDod":10886,"Ġprize":10887,"Ġbearing":10888,"Ġeval":10889,"ĠFlying":10890,"Ġà¤īà¤¤à¤¨":10891,"ĠMeteor":10892,"Ã°":10893,"ĠTig":10894,"Ġ159":10895,"ĠFund":10896,"ĠThose":10897,"ĠMonte":10898,"ĠSomet":10899,"Ġmembership":10900,"Ġcorps":10901,"ĠMosc":10902,"ĠAx":10903,"athers":10904,"ĠKam":10905,"ported":10906,"ugg":10907,"Ġannually":10908,"Ġduo":10909,"Ġconcentrated":10910,"Ġseized":10911,"Ġemphasis":10912,"Ġtopped":10913,"Ġattending":10914,"Ġnavy":10915,"Ġchampions":10916,"Ġconservation":10917,"ĠMeg":10918,"Ġmarry":10919,"hammad":10920,"Ġdogs":10921,"Ġparody":10922,"Ġpersons":10923,"ĠPersonal":10924,"Ġweekly":10925,"Ġbasin":10926,"ĠCharts":10927,"igenous":10928,"erk":10929,"Ġguide":10930,"Ġtalking":10931,"ME":10932,"terior":10933,"Ġlegit":10934,"Ġexercise":10935,"aft":10936,"ĠConvention":10937,"ĠBegin":10938,"Ġcruc":10939,"Ġhind":10940,"Ġanime":10941,"ayan":10942,"place":10943,"Ġoffense":10944,"à¥§à¥®":10945,"Ġquad":10946,"Ġu":10947,"Ġpromotional":10948,"ĠVillage":10949,"Ġticket":10950,"Ġuncom":10951,"Ġproductions":10952,"Ġinvestigate":10953,"Ġtrough":10954,"Ġadvertising":10955,"ĠRalph":10956,"Ġattitude":10957,"ĠTotal":10958,"Ġbone":10959,"à¤¶à¤¹à¤°":10960,"Ġjury":10961,"Ġsending":10962,"ications":10963,"abe":10964,"ĠCelt":10965,"ĠFinally":10966,"ioc":10967,"ĠProp":10968,"Ġà¤ĩà¤ľ":10969,"ĠYorkshire":10970,"Ġexperimental":10971,"uzzle":10972,"ĠHaz":10973,"ĠDyn":10974,"ensed":10975,"ĠPrim":10976,"ĠKo":10977,"Ġoutd":10978,"Ġqueen":10979,"ĠVictorian":10980,"ĠMong":10981,"Ġemployment":10982,"ĠDemocrats":10983,"Ġaggreg":10984,"Ġwish":10985,"Ġclock":10986,"Ġportrayal":10987,"ĠBrothers":10988,"ource":10989,"Ġinvent":10990,"Ġceased":10991,"onica":10992,"Ġendors":10993,"Ġfortress":10994,"Ġflooded":10995,"ĠArgentina":10996,"ĠLloyd":10997,"Ġregime":10998,"ĠChristianity":10999,"Ġbirthday":11000,"Ġbishop":11001,"rod":11002,"ĠPink":11003,"rising":11004,"Ġcoff":11005,"Ġuncle":11006,"Ġphotographs":11007,"boy":11008,"Ġwire":11009,"ashes":11010,"Ġprovincial":11011,"ĠWhere":11012,"ĠMedical":11013,"ĠJerry":11014,"à¤¶à¤ľ":11015,"Ġcomponents":11016,"pled":11017,"Ġdrinking":11018,"à¤ľà¤¬à¤ķ":11019,"Ġballad":11020,"ĠBooks":11021,"hin":11022,"ĠAndre":11023,"ĠTak":11024,"Ġmature":11025,"ĠPad":11026,"Ġscattered":11027,"Ġhitting":11028,"aders":11029,"Ġquestioned":11030,"Ġpapers":11031,"aman":11032,"Ġunclear":11033,"à¤¼à¥Ĥ":11034,"ĠNi":11035,"Ġexists":11036,"oviÄĩ":11037,"Ġcoat":11038,"idal":11039,"Ġshr":11040,"ĠOverall":11041,"Ġstere":11042,"à¤²à¤¦":11043,"Ġreplied":11044,"ĠChronicle":11045,"ĠSign":11046,"ĠEug":11047,"pler":11048,"Ġunderwent":11049,"Ġoverwhel":11050,"Ġrepresentatives":11051,"ĠCollins":11052,"ĠMI":11053,"Ġliberal":11054,"Ġassembled":11055,"à¤¯à¤Ĺà¤¢":11056,"Ġreverse":11057,"ĠApoll":11058,"Ġwait":11059,"Ġcommentary":11060,"Ġpictures":11061,"Ġcousin":11062,"Ġcens":11063,"ĠWii":11064,"rawn":11065,"owski":11066,"Ġdevices":11067,"ellation":11068,"ĠHeritage":11069,"Ġ1894":11070,"Ġidentical":11071,"ĠServices":11072,"Ġelectricity":11073,"Ġexclusive":11074,"Ġlawyer":11075,"Ġ007":11076,"ĠCraig":11077,"Ġswimming":11078,"case":11079,"ĠRic":11080,"Ġà¤Ķà¤ªà¤ļ":11081,"Ġcomponent":11082,"ĠMaya":11083,"ĠHowe":11084,"Ġempire":11085,"Ġsang":11086,"Ġcad":11087,"atever":11088,"assador":11089,"ĠMarge":11090,"Ġmonaster":11091,"à¤¦à¤°à¤Ĺ":11092,"Ġbranches":11093,"Ġterrain":11094,"Ġexclud":11095,"ĠFinland":11096,"Ġthirteen":11097,"Ġduration":11098,"ĠSle":11099,"Ġmovies":11100,"Ġexpert":11101,"ĠGlen":11102,"Ġproclaim":11103,"otten":11104,"à¤·à¤°à¤¤":11105,"Ġimagery":11106,"Ġloved":11107,"Ġcomprom":11108,"Ġtrail":11109,"Ġlawsu":11110,"Ġpolar":11111,"Ġslave":11112,"Ġacoustic":11113,"Ġisot":11114,"Ġ1800":11115,"Ġprev":11116,"Ġ113":11117,"Ġ1889":11118,"Ġmechanical":11119,"ĠTax":11120,"ĠJun":11121,"ĠTurner":11122,"Ġaccompanying":11123,"Ġdevast":11124,"Ġpush":11125,"Ġstreak":11126,"erg":11127,"Ġdaughters":11128,"ĠAT":11129,"illes":11130,"à¤°à¤·":11131,"ĠDin":11132,"ĠPhys":11133,"Ġfrequency":11134,"Ġà¤ľà¤¯à¤ª":11135,"Ġatomic":11136,"Ġsurrendered":11137,"Ġtenure":11138,"Ġscar":11139,"Ġelectrical":11140,"Ġarrives":11141,"ĠHardy":11142,"ricts":11143,"Ġstronger":11144,"Ġà¥§à¥¯à¥©":11145,"Ġtrading":11146,"Ġburial":11147,"ĠProtest":11148,"ĠQueensland":11149,"Ġtube":11150,"onian":11151,"à¤¨à¤¬":11152,"asm":11153,"Ġradiation":11154,"Ġreducing":11155,"ĠNorfolk":11156,"Ġconsistent":11157,"Ġsleep":11158,"Ġprices":11159,"Ġtheore":11160,"à¤µà¤®":11161,"Ġdread":11162,"ĠBak":11163,"imm":11164,"Ġà¤ıà¤Ł":11165,"hell":11166,"ĠSak":11167,"Ġpenet":11168,"err":11169,"Ġbeats":11170,"riors":11171,"Ġcompeting":11172,"Ġexclusively":11173,"ĠSimilarly":11174,"ĠJama":11175,"Ġcharter":11176,"ĠBoat":11177,"Ġfailing":11178,"Ġreveal":11179,"ĠHawaii":11180,"rost":11181,"ĠRud":11182,"à¤ĩà¤ķà¤²":11183,"Ġà¤¬à¤¨à¤µ":11184,"ensis":11185,"Ġ156":11186,"ĠCricket":11187,"eyer":11188,"ĠBurton":11189,"ĠProfessor":11190,"ĠSee":11191,"Ġ158":11192,"Ġdevelopers":11193,"Ġdestroying":11194,"ĠBelgian":11195,"Ġcontribution":11196,"ĠTraining":11197,"Ġfossil":11198,"Ġreinforcements":11199,"Ġà¤¨à¤²":11200,"olen":11201,"alling":11202,"ibilities":11203,"Ġ1891":11204,"à¤¿âĢį":11205,"Ġstops":11206,"ĠDeep":11207,"ĠBeaut":11208,"enesis":11209,"Ġvirus":11210,"ĠCommunist":11211,"ĠNicholas":11212,"Ġpel":11213,"Ġvalid":11214,"ĠBennett":11215,"ĠMust":11216,"Ġà¤ªà¤°à¤¤":11217,"Ġà¤ĺà¤Łà¤ķ":11218,"ĠHarvard":11219,"ĠLem":11220,"Ġprecipitation":11221,"uras":11222,"Ġdict":11223,"ersed":11224,"Ġcounterp":11225,"à¤§à¤ª":11226,"ĠLock":11227,"esty":11228,"ĠEmmy":11229,"Ġhybrid":11230,"NC":11231,"ĠLiving":11232,"ĠVincent":11233,"Ġbath":11234,"Ġwaste":11235,"Ġà¤ĵà¤µà¤°":11236,"Ġmyst":11237,"ĠDavies":11238,"Ġelig":11239,"ĠMalt":11240,"ĠRangers":11241,"Ġnit":11242,"Ġpole":11243,"Ġmini":11244,"Ġgovernments":11245,"Ġtraded":11246,"Ġartificial":11247,"Ġreward":11248,"ĠDram":11249,"ĠThunder":11250,"legraph":11251,"ĠCatherine":11252,"oda":11253,"Ġincom":11254,"ĠYellow":11255,"Ġslavery":11256,"ĠLocal":11257,"ĠLiberal":11258,"where":11259,"ĠFarm":11260,"Ġrequirements":11261,"Ġbanned":11262,"ĠDak":11263,"Ġflowers":11264,"Ġ1861":11265,"Ġtexts":11266,"Ġcenters":11267,"Ġobsc":11268,"ĠCredits":11269,"Ġearthquake":11270,"'s":11271,"à¤ķà¤¶":11272,"Ġecc":11273,"itarian":11274,"Ġvaried":11275,"ĠNext":11276,"ĠSwift":11277,"ĠMarket":11278,"Ġcategories":11279,"rehens":11280,"Ġtomb":11281,"ĠHob":11282,"ĠLook":11283,"Ġow":11284,"angel":11285,"Ġplatforms":11286,"Ġreviewed":11287,"Ġ240":11288,"ĠDonald":11289,"axy":11290,"Ġredes":11291,"ĠDarwin":11292,"ĠTransportation":11293,"ĠHughes":11294,"DI":11295,"ĠCurt":11296,"Ġconsiders":11297,"ĠPrix":11298,"Ġlie":11299,"uded":11300,"Ġprofession":11301,"itely":11302,"lete":11303,"ĠGuitar":11304,"Ġreduction":11305,"Ġarchitectural":11306,"Ġphrase":11307,"car":11308,"ethel":11309,"Ġdisb":11310,"Ġrespective":11311,"Ġtalks":11312,"Ġburned":11313,"tes":11314,"Ġimprovement":11315,"pike":11316,"onald":11317,"Ġhandled":11318,"Ġà¤ķà¤µà¤°":11319,"Ġadvised":11320,"Ġcopper":11321,"Ã¶n":11322,"rastructure":11323,"à¤¹à¤¬":11324,"Ġsongwriter":11325,"ĠOri":11326,"Ġunderstood":11327,"Ġfourteen":11328,"Ġhumor":11329,"Ġinduct":11330,"ĠAra":11331,"Ġlock":11332,"acles":11333,"Ġà¤Ľà¤µ":11334,"Ġconflic":11335,"ĠPeters":11336,"ĠIndonesia":11337,"Ġheir":11338,"Ġboilers":11339,"bal":11340,"ĠBald":11341,"Ġproceeded":11342,"ĠAli":11343,"Ã«":11344,"Ġamateur":11345,"ĠSwiss":11346,"ĠSaxon":11347,"uating":11348,"Ġshares":11349,"Ġinvestment":11350,"Ġintersects":11351,"Ġtranslated":11352,"mith":11353,"ĠEnt":11354,"Ġexplicit":11355,"Ġdestroyer":11356,"Ġsamples":11357,"cott":11358,"encing":11359,"ĠYam":11360,"Ġvoting":11361,"Ġrein":11362,"à¤Īà¤²":11363,"ĠBlu":11364,"ĠPic":11365,"Ġportr":11366,"Ġ1892":11367,"ĠMoscow":11368,"ĠInv":11369,"Ġà¤ĸà¤Ĺ":11370,"ye":11371,"Ġweigh":11372,"haw":11373,"Ġreferring":11374,"Ġsumm":11375,"ĠGallery":11376,"Ġconceived":11377,"ulty":11378,"Ġconnections":11379,"Ġdisplays":11380,"ĠCameron":11381,"arr":11382,"ĠRP":11383,"umble":11384,"ĠKate":11385,"Ġcompound":11386,"aha":11387,"Ġcontinuous":11388,"Ġsixteen":11389,"Ġcertainly":11390,"eto":11391,"Ġsoph":11392,"Ġadmin":11393,"Ġlabour":11394,"ĠPittsburgh":11395,"Ġfold":11396,"Ġpairs":11397,"tery":11398,"Ġrecon":11399,"Ġworn":11400,"Ġairfield":11401,"ĠOslo":11402,"Ġspoken":11403,"ÉĻ":11404,"ĠAer":11405,"ĠCraw":11406,"uri":11407,"Ġstuff":11408,"Ġcharity":11409,"Ġflows":11410,"Ġexceed":11411,"à¤Ĩà¤®":11412,"Ġsignature":11413,"ĠHarbor":11414,"Ġparks":11415,"Ġcleared":11416,"Ġá":11417,"ĠCad":11418,"Ġunw":11419,"Ġblind":11420,"Ġpraising":11421,"Ġconstitutional":11422,"rob":11423,"ĠSom":11424,"ĠGa":11425,"ĠGeoff":11426,"Ġphotography":11427,"Ġcatal":11428,"Ġqualifying":11429,"Ġfasc":11430,"strong":11431,"istent":11432,"ĠExper":11433,"Ġsurvival":11434,"gom":11435,"à¤īà¤²":11436,"seud":11437,"Ġtactics":11438,"ĠBroadcast":11439,"ĠMond":11440,"Ġprogramming":11441,"Ġgrossing":11442,"ĠSid":11443,"Ġsweet":11444,"Ġ1885":11445,"ĠTerry":11446,"Ġtoured":11447,"avor":11448,"ffield":11449,"Ġautumn":11450,"Ġshoulder":11451,"etheless":11452,"hum":11453,"ĠTow":11454,"ĠSecurity":11455,"ĠAntonio":11456,"Ġruler":11457,"icated":11458,"ĠGot":11459,"porting":11460,"Ġunlik":11461,"cribed":11462,"Ġfisher":11463,"ario":11464,"Ġreorgan":11465,"ĠRest":11466,"ĠAlaska":11467,"Ġmagnitude":11468,"Ġnat":11469,"ĠUpper":11470,"ashi":11471,"Ġconfidence":11472,"Ġ1888":11473,"Ġlegislative":11474,"Ġnautical":11475,"Ġà¤ªà¤¹à¤¨":11476,"Ġcommanding":11477,"Ġpatients":11478,"ĠWallace":11479,"Ã¢":11480,"Ġpap":11481,"ĠMason":11482,"Ġtaxes":11483,"Ġtested":11484,"Ġhem":11485,"Ġcommenced":11486,"Ġopportunities":11487,"Ġuranium":11488,"Ġenthusi":11489,"ingham":11490,"ĠFu":11491,"ĠEc":11492,"Ġattorney":11493,"Ġtonnes":11494,"Î±":11495,"Ġmoon":11496,"ĠSweet":11497,"illo":11498,"ĠCass":11499,"Ġà¤ļà¤®à¤ķ":11500,"ĠCBS":11501,"ĠRu":11502,"ĠEmer":11503,"ĠStill":11504,"ĠVel":11505,"Ġà¤¸à¤¬à¤ķ":11506,"Ġtransported":11507,"gi":11508,"Ġfulf":11509,"à¤¦à¤¸":11510,"ĠPast":11511,"Ġcompetitive":11512,"Ġrocks":11513,"Ġaccord":11514,"ĠMayor":11515,"ĠAdv":11516,"Ġcommunist":11517,"ĠStef":11518,"Ġfairly":11519,"ĠJTW":11520,"Ġrepresentation":11521,"Ġminority":11522,"ĠJTWC":11523,"ean":11524,"ĠCP":11525,"Ġcamps":11526,"Ġnoble":11527,"Ġmedicine":11528,"Ġexperiments":11529,"ĠSyria":11530,"Ġreinforced":11531,"Ġsovereign":11532,"Ġhole":11533,"Ġrelocated":11534,"Ġindeed":11535,"Ġmelody":11536,"ĠMalaysia":11537,"Ġfram":11538,"à¤ĩà¤«":11539,"minster":11540,"ĠPictures":11541,"Ġdece":11542,"ĠClay":11543,"ĠGrace":11544,"à¤¯à¤Ń":11545,"asks":11546,"ocation":11547,"expected":11548,"Ġuncon":11549,"Ġdischar":11550,"Ġmanga":11551,"ambers":11552,"Ġtraveling":11553,"ĠStars":11554,"anger":11555,"cester":11556,"Ġprinciples":11557,"Ð°":11558,"oca":11559,"ĠAftermath":11560,"Ġcommanders":11561,"Ġrevised":11562,"Ġrevolt":11563,"Ġcartoon":11564,"Ġsample":11565,"utton":11566,"Ġà¤Ńà¤Ĺ":11567,"ĠSug":11568,"Ġà¤µà¤¨à¤¸":11569,"Ġimpression":11570,"à¤¯à¤¥":11571,"Ġenforce":11572,"Ġnerv":11573,"ĠPoly":11574,"ĠHalf":11575,"Ġabuse":11576,"urricanes":11577,"Ġcrops":11578,"lad":11579,"uto":11580,"Ġchron":11581,"Ġ119":11582,"ussion":11583,"Ġextinct":11584,"ĠTrail":11585,"Ġwithdrawn":11586,"Ġinterpreted":11587,"Ġpromin":11588,"Ġprovinces":11589,"Ġcharacteristic":11590,"ĠYouT":11591,"ĠIsraeli":11592,"avia":11593,"aching":11594,"ĠSheffield":11595,"ĠLarry":11596,"eared":11597,"ĠOsc":11598,"Ġblues":11599,"Ġdisplaced":11600,"ĠFBI":11601,"ĠLuke":11602,"Ġextending":11603,"Ġconven":11604,"ags":11605,"Ġproposals":11606,"Ġvoices":11607,"ĠFIFA":11608,"DA":11609,"isive":11610,"Ġà¤°à¤¹à¤¸":11611,"Ġparticipation":11612,"Ġblocked":11613,"imp":11614,"ĠOfficer":11615,"Î¿":11616,"Ġwonder":11617,"ĠLiter":11618,"à¤°à¤ĸà¤£":11619,"Ġwarfare":11620,"ĠQuest":11621,"len":11622,"Ġconce":11623,"Ġmarine":11624,"ĠJefferson":11625,"itious":11626,"Ġprisoner":11627,"Ġcraft":11628,"Ġoptions":11629,"Ġherit":11630,"umph":11631,"Ġlights":11632,"Ġpractical":11633,"Ġlearns":11634,"Ã¥":11635,"orge":11636,"Ġà¤ħà¤µà¤°":11637,"ĠPriv":11638,"ĠHerald":11639,"ĠAuthority":11640,"ĠDallas":11641,"yd":11642,"Ġà¤¸à¤¸":11643,"à¤Ĺà¤¡à¤®":11644,"à¤¶à¤¬":11645,"ĠPS":11646,"Ġdistant":11647,"iciency":11648,"ĠYouTube":11649,"urd":11650,"Ġwarnings":11651,"ĠGuinea":11652,"ĠClarke":11653,"ĠSac":11654,"Ġà¥§à¥¯à¥¨":11655,"ĠJohnston":11656,"ĠBryan":11657,"Ġà¤®à¤²à¤¯":11658,"ĠTogether":11659,"ĠMix":11660,"Ġapproaches":11661,"Ġempty":11662,"zed":11663,"ĠIl":11664,"Ġjudg":11665,"ĠPerformance":11666,"ĠEth":11667,"uez":11668,"ĠAustin":11669,"ĠSteel":11670,"aser":11671,"ĠTai":11672,"ĠLink":11673,"ocity":11674,"ĠCyrus":11675,"Ġbull":11676,"ĠDaw":11677,"Ġrelatives":11678,"Ġvictim":11679,"ĠDefense":11680,"ĠChile":11681,"ĠGreater":11682,"merce":11683,"Ġstatistics":11684,"Ġcuts":11685,"ĠiP":11686,"Ġshifted":11687,"ER":11688,"rooms":11689,"Ġà¤°à¤£à¤¨":11690,"Ġ103":11691,"Ġburning":11692,"Ġrivalry":11693,"ĠRena":11694,"ĠWoman":11695,"ĠOrange":11696,"Ġ450":11697,"Ġtraditions":11698,"Ġgraduate":11699,"ĠNord":11700,"Ġcarries":11701,"ĠEis":11702,"ĠOwen":11703,"Ġnumbered":11704,"Ġairing":11705,"Ġrestore":11706,"ĠWells":11707,"Ġlighting":11708,"ĠClassic":11709,"ĠPlant":11710,"ĠEight":11711,"Ġclar":11712,"Ġskill":11713,"ĠOfficial":11714,"ĠFalls":11715,"Ġrehears":11716,"ationally":11717,"Ġdistricts":11718,"ĠAgency":11719,"ĠStudio":11720,"Ġgirlfriend":11721,"Ġabsent":11722,"Ġà¤ĭà¤¤":11723,"ĠParsons":11724,"Ġmultiplayer":11725,"Ġchore":11726,"Ġmans":11727,"Ġmyster":11728,"ĠNeil":11729,"Ġvaluable":11730,"Ġtransportation":11731,"Ġsings":11732,"Ġthunder":11733,"ĠOm":11734,"Ġmarch":11735,"ĠDanish":11736,"Ġpreparing":11737,"Ġcant":11738,"Ġrebels":11739,"ĠAA":11740,"Ġscores":11741,"à¤°à¤¬à¤¨":11742,"aters":11743,"umped":11744,"ĠOt":11745,"Ġparameter":11746,"ĠChelsea":11747,"Ġ167":11748,"à¤£à¤ª":11749,"Ġriding":11750,"berry":11751,"anche":11752,"ĠNev":11753,"ĠMcKin":11754,"iar":11755,"Ġinfl":11756,"Ġprotests":11757,"ĠXX":11758,"ĠFormation":11759,"Ġapplications":11760,"ĠDescription":11761,"Ġunlikely":11762,"Ġinclusion":11763,"Ġbell":11764,"Ġinterviews":11765,"Ġcyclones":11766,"Ġsalv":11767,"Ġsalary":11768,"Ġrecovery":11769,"Ġcinema":11770,"Ġwished":11771,"Ġpassion":11772,"Ġpm":11773,"Ġbrilliant":11774,"Ġpier":11775,"Ġà¤¬à¤Ĺ":11776,"ĠHav":11777,"ĠFisher":11778,"ĠGreatest":11779,"Ġmaintaining":11780,"Ġfilmm":11781,"ĠArmstrong":11782,"Ġcabinet":11783,"Ġfest":11784,"ĠEve":11785,"ĠQuebec":11786,"ĠEff":11787,"ĠVers":11788,"ĠSega":11789,"Ġamph":11790,"ĠBrazilian":11791,"Ġcreek":11792,"leans":11793,"Ġ1865":11794,"ĠCultural":11795,"ĠBeginning":11796,"Ġaccurate":11797,"Ġgarn":11798,"ĠRio":11799,"ĠNS":11800,"Ġcourses":11801,"Ġratio":11802,"Ġreforms":11803,"ĠSalt":11804,"aze":11805,"Ġ145":11806,"Ġsignificance":11807,"ĠKaiser":11808,"Ġaft":11809,"Ġintervention":11810,"Ġparas":11811,"ĠFourth":11812,"ATO":11813,"ĠActor":11814,"Ġbeneath":11815,"ĠSpirit":11816,"HL":11817,"ulus":11818,"ĠReich":11819,"Ġarguing":11820,"Ġracial":11821,"itate":11822,"Ġcontend":11823,"Ġà¥§à¥§":11824,"Ġestimates":11825,"Ġ101":11826,"Ġgrandfather":11827,"Ġdrummer":11828,"Ġrecurring":11829,"erver":11830,"ĠMend":11831,"ĠGay":11832,"Ġefficient":11833,"Ġà¤®à¤¤à¤¦":11834,"Ġpetition":11835,"utor":11836,"ĠAlt":11837,"Ġmorph":11838,"ĠCathedral":11839,"ĠAL":11840,"Ġgoog":11841,"asha":11842,"Ġdiverse":11843,"Ùħ":11844,"Ġprocesses":11845,"Ġvulnerable":11846,"à¤¯à¤Ł":11847,"Ġeating":11848,"Ġreleg":11849,"Ġcommunications":11850,"Ġadvertis":11851,"Ġtowers":11852,"eston":11853,"kh":11854,"ĠIns":11855,"Ġupset":11856,"Ġkills":11857,"abilities":11858,"Ã©t":11859,"Ġanswer":11860,"onge":11861,"Ġshock":11862,"Ġcolors":11863,"Ġ220":11864,"Ġà¤²à¤ĸà¤¨à¤Ĭ":11865,"ĠConstantin":11866,"Ġsponsored":11867,"Ġtoler":11868,"Ġ111":11869,"Ġansw":11870,"Ġ114":11871,"ĠMuhammad":11872,"beat":11873,"Ġcolumns":11874,"ĠJunior":11875,"Ġunexpected":11876,"Ġclothes":11877,"amas":11878,"Ġessentially":11879,"ĠSusan":11880,"Ġsentence":11881,"Ġà¤¬à¤ļà¤ªà¤¨":11882,"Ġà¤¬à¤¦à¤²à¤¨":11883,"ĠIvan":11884,"Ġà¤¶à¤²":11885,"ĠOrleans":11886,"Ġà¤łà¤¹à¤°":11887,"ĠUtah":11888,"rary":11889,"Ġgender":11890,"ĠXII":11891,"Ġshallow":11892,"Ġsurve":11893,"ĠHarold":11894,"Ġfaces":11895,"Ġimplemented":11896,"ĠGlobe":11897,"Ġà¤ķà¤ļ":11898,"Ġairline":11899,"ĠKane":11900,"Ġchronic":11901,"osexual":11902,"ĠNewton":11903,"Ã©s":11904,"ipped":11905,"Ġjet":11906,"ĠScar":11907,"achute":11908,"ĠMinor":11909,"Ġsteep":11910,"à¥¨à¥¦à¥§à¥":11911,"oria":11912,"Ġmate":11913,"affe":11914,"Ġmerged":11915,"Ġsacrif":11916,"ĠSerbian":11917,"Ġdecorated":11918,"Ġdim":11919,"Ġconsolid":11920,"Ġ118":11921,"ĠProduct":11922,"ĠFerr":11923,"olar":11924,"Ġlasting":11925,"vet":11926,"ĠSud":11927,"Ġà¤¶à¤¹":11928,"Ġemotion":11929,"Ġà¤Ĩà¤¯à¤°à¤²":11930,"Ġtale":11931,"ĠRichmond":11932,"Ġsurprised":11933,"Ġpip":11934,"Ġmood":11935,"Ġhtt":11936,"ĠProvince":11937,"Ġtheories":11938,"Ġmanage":11939,"Ġà¤¦à¤°à¤¬":11940,"Ġswit":11941,"Ġwidth":11942,"Ġsin":11943,"Ġà¤ªà¤°à¤¸":11944,"landers":11945,"Ġsummit":11946,"Ġcharted":11947,"Ġbeaten":11948,"Ġliner":11949,"iko":11950,"Ġà¤«à¤²à¤¸":11951,"ĠPanzer":11952,"Ġfate":11953,"Ġdeeply":11954,"Ġmerc":11955,"dess":11956,"Ġproof":11957,"Ġsquadrons":11958,"Ġscr":11959,"keeper":11960,"Ġreactions":11961,"ĠConstantine":11962,"aiden":11963,"Ġtriang":11964,"Ġpotentially":11965,"hers":11966,"ĠPok":11967,"ĠFull":11968,"à¤ķà¤¬":11969,"Ġdual":11970,"Ġho":11971,"Ġproportion":11972,"ĠGang":11973,"levard":11974,"Ġdrafted":11975,"ĠElectric":11976,"Ġdemo":11977,"Ġcrimes":11978,"castle":11979,"ĠPicture":11980,"ĠTyler":11981,"Ġmanip":11982,"Ġ230":11983,"ĠRepublicans":11984,"Ġrib":11985,"reated":11986,"Ġcivilians":11987,"Ġsuspic":11988,"Ġgrave":11989,"Ġheritage":11990,"Ġtours":11991,"Ġbreaks":11992,"Ġaltitude":11993,"ĠScientology":11994,"Ġdescent":11995,"Ġpresentation":11996,"Ġbeauty":11997,"ĠStuart":11998,"ĠTang":11999,"Ġrect":12000,"ĠWa":12001,"Ġsegments":12002,"Ġorange":12003,"Ġstructural":12004,"ĠEC":12005,"Arthur":12006,"sor":12007,"à¥Ģ:":12008,"ĠSultan":12009,"Ġbeating":12010,"ĠFighter":12011,"chi":12012,"enson":12013,"Ġà¤²à¤Ĺà¤¨":12014,"ĠJohann":12015,"ĠSout":12016,"ĠEnv":12017,"Ġâģ":12018,"ĠGameSp":12019,"Ġfunded":12020,"Ġoriented":12021,"Ġdancers":12022,"ĠApollo":12023,"bes":12024,"à¤°à¤¯à¤¤":12025,"Ġdense":12026,"cha":12027,"ĠUC":12028,"Ġaccommodate":12029,"Ġgolden":12030,"function":12031,"Ġboot":12032,"ĠBes":12033,"ĠAny":12034,"Ġphysics":12035,"Ġprinciple":12036,"Ġagriculture":12037,"Ġpersuaded":12038,"Ġwine":12039,"Ġdwarf":12040,"Ġhills":12041,"à¤ľà¤¦":12042,"ĠOrchest":12043,"Ġadminister":12044,"aping":12045,"Ġ129":12046,"Ġà¤ħà¤«à¤Ĺ":12047,"heric":12048,"izer":12049,"à®":12050,"Ġconfusion":12051,"ĠConservation":12052,"ĠIndonesian":12053,"born":12054,"cut":12055,"lon":12056,"ĠHeb":12057,"Ġgene":12058,"Ġrequiring":12059,"ĠAmendment":12060,"ĠRegister":12061,"Ġcomplained":12062,"ĠBuffalo":12063,"sts":12064,"ĠNature":12065,"à¤īà¤ª":12066,"Ġaddressed":12067,"Ġ1887":12068,"ĠSymphony":12069,"yself":12070,"Ġdevoted":12071,"ĠMeth":12072,"Ġà¤ĸà¤£":12073,"Ġfeared":12074,"ocket":12075,"Ġinteraction":12076,"ĠSide":12077,"Ġnurs":12078,"osph":12079,"Ġevident":12080,"ĠHunter":12081,"ĠDays":12082,"à¤¼à¥ĩà¤Ĥ":12083,"ĠGround":12084,"ĠControl":12085,"Ġrejoin":12086,"ĠWonder":12087,"Ġà¤Ńà¤°à¤¤":12088,"Ġintermedi":12089,"Ġsoutheastern":12090,"Ġsailing":12091,"anted":12092,"Ġusage":12093,"Ġenabled":12094,"Ġtribe":12095,"ĠCardiff":12096,"ĠPant":12097,"quest":12098,"onsin":12099,"ĠSyn":12100,"ĠWisc":12101,"à¤«à¤¨":12102,"à¤¸à¤ķà¤°":12103,"Ġjack":12104,"Ġassum":12105,"ometric":12106,"ĠMcN":12107,"ĠIslamic":12108,"isons":12109,"Ġpink":12110,"ĠHad":12111,"arks":12112,"Ġrecept":12113,"ĠWithout":12114,"Ġobservation":12115,"ĠBurns":12116,"ĠSection":12117,"ĠWalt":12118,"Ġoperates":12119,"Ġ1864":12120,"Ġresearchers":12121,"Ġà¤®à¤Ĺà¤§":12122,"Ġfame":12123,"oded":12124,"Ġfollowers":12125,"ĠTrade":12126,"ospel":12127,"ĠBrooks":12128,"Ġjurisdiction":12129,"rific":12130,"ĠKyle":12131,"Ġ102":12132,"Ġquarters":12133,"Ġcards":12134,"Ġà¤¡à¤¬à¤²":12135,"Ġtruck":12136,"Ġvoyage":12137,"ĠCavalry":12138,"Ġknee":12139,"Ġmythology":12140,"Ġholiday":12141,"35":12142,"ĠAber":12143,"ĠRuth":12144,"Ġà¥¨à¥¦à¥¦à¥¯":12145,"Ġkidn":12146,"Ġconstitu":12147,"Ġtension":12148,"Ġmud":12149,"ĠSox":12150,"à¤Ńà¤¦":12151,"Ġpregnant":12152,"usalem":12153,"Ġfert":12154,"ĠMind":12155,"ĠDanny":12156,"Ġà¤¸à¤®à¤¨":12157,"othy":12158,"Ġjudges":12159,"asp":12160,"ĠCode":12161,"Ġà¤Īà¤®":12162,"Ġstatements":12163,"gie":12164,"Ġà¤¨à¤ľà¤°":12165,"Ġà¤īà¤Ń":12166,"Ġsugar":12167,"Ġsuperst":12168,"Ġdiplomatic":12169,"ĠâģĦ":12170,"ĠTitan":12171,"Ġgh":12172,"ĠPrest":12173,"Ġwritings":12174,"ĠAbu":12175,"Ġsuddenly":12176,"sa":12177,"rene":12178,"ĠEdition":12179,"à¤Ĺà¤ł":12180,"Ġà¤¤à¤Ń":12181,"ĠExecutive":12182,"ĠMetropolitan":12183,"ÃŃn":12184,"Ġhighlighted":12185,"ĠTrad":12186,"ĠKid":12187,"ĠUntil":12188,"ĠAirlines":12189,"AL":12190,"urst":12191,"ĠFitz":12192,"Ġcommenting":12193,"Ġopens":12194,"nels":12195,"rically":12196,"sburg":12197,"ÃŃa":12198,"Ġsized":12199,"ĠHope":12200,"ĠBoeing":12201,"ĠJerusalem":12202,"osaurs":12203,"ĠBud":12204,"ĠStart":12205,"lington":12206,"ĠActress":12207,"Ġembarked":12208,"ni":12209,"Ġmanif":12210,"Ġlocally":12211,"Ġextensively":12212,"ĠManagement":12213,"Ġchallenges":12214,"master":12215,"à¤ķà¤Ń":12216,"Ġtooth":12217,"Ġflex":12218,"Ġdealing":12219,"ĠJustin":12220,"Ġuniversal":12221,"Ġsculpture":12222,"ĠBible":12223,"Ġbears":12224,"Ġadvancing":12225,"ĠQuar":12226,"Ġdocumented":12227,"ĠLegisl":12228,"ĠWisconsin":12229,"enos":12230,"Ġgaining":12231,"ĠPul":12232,"Ġages":12233,"Ġstudying":12234,"Ġthrown":12235,"Ġsimilarities":12236,"31":12237,"à¤ļà¤°à¤£":12238,"Ġproduces":12239,"Ġvariation":12240,"ĠGrade":12241,"Ġlifetime":12242,"ĠFact":12243,"ĠNas":12244,"Ġapply":12245,"Ġdetect":12246,"Ġhelps":12247,"Ġenzy":12248,"ĠTyphoon":12249,"Ġgardens":12250,"ĠTu":12251,"à¤Ĺà¤Łà¤¨":12252,"Ġgift":12253,"Ġfee":12254,"ĠRef":12255,"Ġdrown":12256,"ĠIndependence":12257,"Ġinput":12258,"Ġsubstitute":12259,"Ġequally":12260,"ucker":12261,"Ġà¤µà¤¨à¤¡":12262,"Ġcry":12263,"Ġnaming":12264,"phan":12265,"Ġinfrastructure":12266,"pine":12267,"uters":12268,"Ġeducated":12269,"Ġà¥¨à¥¦à¥§à¥¦":12270,"45":12271,"thodox":12272,"Ġresolved":12273,"Ġknocked":12274,"Ġexplaining":12275,"Ġsentenced":12276,"Ġboundaries":12277,"ulsion":12278,"ĠBased":12279,"ĠBarnes":12280,"ĠCentury":12281,"Ġdivorce":12282,"backs":12283,"Ġconj":12284,"Ġrings":12285,"Ġdisorder":12286,"ĠPatri":12287,"ĠCrus":12288,"ĠCe":12289,"Ġrivals":12290,"ĠSean":12291,"tc":12292,"ĠRO":12293,"Ġscre":12294,"ĠSchum":12295,"Ġdisturbance":12296,"ĠToy":12297,"Ã©n":12298,"ĠBaron":12299,"Ġ1886":12300,"Ġpredators":12301,"Ġtraditionally":12302,"ĠMovie":12303,"ĠMall":12304,"Ġpriest":12305,"Ġchemistry":12306,"Ġties":12307,"à¤ĸà¤Ń":12308,"Ġnep":12309,"Ġreceives":12310,"ĠSaturn":12311,"ancellor":12312,"ET":12313,"Ġà¤¬à¤ļà¤¨":12314,"Ġ978":12315,"ĠRogers":12316,"Ġtel":12317,"var":12318,"yr":12319,"ĠMult":12320,"Ġsword":12321,"Ġoverlook":12322,"atched":12323,"ĠMiles":12324,"ĠMontgom":12325,"ĠPierre":12326,"Ġdiscontin":12327,"ĠMontgomery":12328,"ju":12329,"mo":12330,"piece":12331,"à¤Ĺà¤ķ":12332,"Ġstretch":12333,"ĠCer":12334,"aco":12335,"ellar":12336,"ĠLeaf":12337,"Ġvolunteers":12338,"ĠTurkey":12339,"ĠFace":12340,"Ġ117":12341,"Ġinvolves":12342,"Ġsettlements":12343,"ĠAttorney":12344,"Ġurg":12345,"Ġsupern":12346,"Ġnut":12347,"ĠIcel":12348,"Ġforb":12349,"alls":12350,"Ġà¤¬à¤¹à¤¤":12351,"Ġguy":12352,"Ġà¥©à¥¦":12353,"Ġtape":12354,"unning":12355,"Ġvillain":12356,"Ġbenefits":12357,"Ġrendered":12358,"Ġà¤ªà¤ł":12359,"Ġstrand":12360,"Ġspawn":12361,"Ġcommercially":12362,"Ġgarnered":12363,"ÙĨ":12364,"Ġsmoke":12365,"Ġmaps":12366,"ĠScots":12367,"Ġexplore":12368,"197":12369,"Ġconsiderably":12370,"Ġtravelling":12371,"Ġconcerning":12372,"Ġrecruited":12373,"CO":12374,"Ġlift":12375,"ĠWes":12376,"rift":12377,"ĠBeh":12378,"Ġ1840":12379,"ĠSherman":12380,"Ġtickets":12381,"Ġà¤ħà¤µà¤¤":12382,"Ġà¤¦à¤¯":12383,"rien":12384,"izz":12385,"Ġassert":12386,"Ġ1862":12387,"ĠMacArthur":12388,"Ġproteins":12389,"ao":12390,"ĠCemetery":12391,"ĠMang":12392,"Ġseas":12393,"Ġspar":12394,"Ġrescued":12395,"uction":12396,"ĠWinn":12397,"ĠFil":12398,"ĠShah":12399,"anne":12400,"ĠAges":12401,"ĠBert":12402,"ĠChristians":12403,"Ġhostile":12404,"Ġstyl":12405,"Ġcircular":12406,"wald":12407,"Ġdimin":12408,"Ġcrashed":12409,"Ġcliff":12410,"Ġweakening":12411,"Ġashore":12412,"Ġib":12413,"ĠËĪ":12414,"à¤¨à¤Ĺ":12415,"ËĲ":12416,"Ġinhib":12417,"ĠSaf":12418,"ĠNATO":12419,"agers":12420,"Ġepic":12421,"hill":12422,"nt":12423,"ovak":12424,"Ġbatted":12425,"ĠIceland":12426,"Ġdying":12427,"ĠNeb":12428,"icking":12429,"Ġtasked":12430,"Ġconflicts":12431,"áº":12432,"ĠFlore":12433,"Ġelaborate":12434,"lights":12435,"ĠFern":12436,"Ġvig":12437,"ĠUnd":12438,"ĠSpider":12439,"Ġdoors":12440,"Ġdepicts":12441,"Ġmixture":12442,"Ġhoused":12443,"Ġescorted":12444,"Ġvelocity":12445,"Ġeditions":12446,"ĠMidd":12447,"à¤²à¤ľ":12448,"ĠFlow":12449,"Ġ1884":12450,"Ġborrow":12451,"itic":12452,"à¤¸à¤Ł":12453,"ĠAren":12454,"Ġà¤¶à¤¨":12455,"ĠInvest":12456,"gged":12457,"ĠFish":12458,"ĠKrist":12459,"Ġleaf":12460,"Ġpursuit":12461,"ĠLeonard":12462,"ĠCrow":12463,"Ġà¤Ľà¤ł":12464,"Ġmanufacturing":12465,"Ġconcurrent":12466,"Ġinning":12467,"Ġreass":12468,"à¤¶à¤ª":12469,"Ġabb":12470,"Ġcompetitions":12471,"Ġinnoc":12472,"ĠBaltic":12473,"ĠTourn":12474,"eling":12475,"Ġ1863":12476,"Ġcollections":12477,"ĠJudge":12478,"Ġpill":12479,"ĠThames":12480,"Ġauthorized":12481,"Ġgods":12482,"Ġcolours":12483,"Ġverte":12484,"Ġsupports":12485,"Ġhandling":12486,"ĠEvil":12487,"ĠRomney":12488,"Ġdinner":12489,"Ġimprisoned":12490,"WA":12491,"arest":12492,"Ġrand":12493,"ĠZone":12494,"Ġopposing":12495,"Ġtherm":12496,"Ġcam":12497,"Ġcensus":12498,"ĠLP":12499,"Ġchrom":12500,"ĠRegional":12501,"Ġwarships":12502,"lane":12503,"ourag":12504,"ĠHearts":12505,"Ġdrain":12506,"ĠStein":12507,"Ġrevival":12508,"Ġparticipants":12509,"Ġhyper":12510,"ĠBarbara":12511,"Ġteammate":12512,"Ġhorizont":12513,"Ġfra":12514,"Ġfron":12515,"ĠBask":12516,"ĠAthens":12517,"tains":12518,"Ġsor":12519,"Ġcow":12520,"ĠMi":12521,"ĠPas":12522,"Ġeventual":12523,"Ġtempo":12524,"Ġpursued":12525,"Ġvariations":12526,"Ø±":12527,"ĠBranch":12528,"Ġramp":12529,"ĠEnvironment":12530,"Ġcable":12531,"rogen":12532,"ĠComedy":12533,"cliff":12534,"Ġexamination":12535,"Ġharbour":12536,"Ġfavourite":12537,"Ġvirtually":12538,"ĠAgainst":12539,"ĠTru":12540,"ĠLev":12541,"Ġmedals":12542,"Ġpoliticians":12543,"Ġscreenplay":12544,"Ġtissue":12545,"zing":12546,"ĠHunt":12547,"Ġurged":12548,"Ġbeliefs":12549,"LA":12550,"wright":12551,"Ġãĥ":12552,"isition":12553,"ĠFight":12554,"ĠReport":12555,"ĠReagan":12556,"Ġsuspected":12557,"roe":12558,"Ġstones":12559,"ando":12560,"Ġ126":12561,"ĠRepresentatives":12562,"auc":12563,"ĠGran":12564,"Ġabroad":12565,"point":12566,"ulum":12567,"occ":12568,"Ġà¤īà¤ªà¤¦":12569,"Ġcongress":12570,"Ġportrait":12571,"Ġchase":12572,"ridor":12573,"Ġeasier":12574,"Ġrenewed":12575,"Ġveteran":12576,"ĠTerm":12577,"Ġgtc":12578,"ublin":12579,"ĠNancy":12580,"Ġuniversities":12581,"47":12582,"à¤¯à¤°à¤¤":12583,"ĠSonic":12584,"oba":12585,"ĠNova":12586,"Ġorganisms":12587,"Ġunve":12588,"Ġportal":12589,"gow":12590,"onation":12591,"Ġspur":12592,"Ġdecay":12593,"ĠTribune":12594,"inery":12595,"à¤ıà¤¡":12596,"Ġthereby":12597,"Ġpossess":12598,"Ġcattle":12599,"otion":12600,"ĠDJ":12601,"Ġpromise":12602,"anim":12603,"Ġstolen":12604,"Ġprox":12605,"ĠChad":12606,"Ġpromoting":12607,"à¤®à¤¹à¤¤":12608,"Ġlaps":12609,"ĠKon":12610,"Ġlicense":12611,"ĠPortugal":12612,"Ġremembered":12613,"Ġinherited":12614,"erts":12615,"igious":12616,"Ġrushing":12617,"Ġtrailer":12618,"Ġ1857":12619,"ĠDraft":12620,"Ġinterven":12621,"Ġpitcher":12622,"ĠLaboratory":12623,"ĠErnest":12624,"Ġhopes":12625,"Ġtaste":12626,"ĠHas":12627,"Ġcomics":12628,"Ġdecreased":12629,"Ġsharks":12630,"Ġrandom":12631,"leted":12632,"ĠNewcastle":12633,"Ġtracked":12634,"Ġcapturing":12635,"Ġconfirm":12636,"Ġloud":12637,"ĠEnergy":12638,"oi":12639,"Ġmail":12640,"amics":12641,"ĠWed":12642,"ĠJoint":12643,"quer":12644,"Ġprototype":12645,"Ġsav":12646,"Ġda":12647,"Ġvital":12648,"Ġ107":12649,"Ġaccessible":12650,"ĠLiberty":12651,"Ġrever":12652,"eps":12653,"Ġpositively":12654,"Ġbombardment":12655,"Ġwarned":12656,"Ġhandle":12657,"ĠMagic":12658,"Ġseparation":12659,"Ġcompositions":12660,"Ġaccidentally":12661,"ĠJosÃ©":12662,"Ġtools":12663,"ĠYouth":12664,"Ġtrapped":12665,"Ġinhab":12666,"vo":12667,"à¤£à¤®":12668,"Ġcostume":12669,"ĠBright":12670,"Ġcelebration":12671,"ĠConstantinople":12672,"bing":12673,"isan":12674,"idia":12675,"Ġupcoming":12676,"Ġinvaded":12677,"Ġà¥¨à¥ª":12678,"ĠMerced":12679,"ĠCharlotte":12680,"ĠAffairs":12681,"ĠGon":12682,"ĠPersonnel":12683,"Ġblend":12684,"amine":12685,"ĠAgu":12686,"ilda":12687,"Ġ157":12688,"Ġetc":12689,"Ġjuven":12690,"ĠSaw":12691,"ĠCryst":12692,"Ġparticles":12693,"ĠGlas":12694,"Ġbiological":12695,"fly":12696,"ded":12697,"ĠHom":12698,"ĠVoice":12699,"ĠFreedom":12700,"Ġoccasional":12701,"ĠHeavyweight":12702,"limin":12703,"mont":12704,"orf":12705,"Ġà¤®à¤ł":12706,"Ġdust":12707,"ĠMV":12708,"ĠBapt":12709,"Ġhoping":12710,"hou":12711,"ĠPete":12712,"Ġdependent":12713,"Ġtornado":12714,"Ġavoided":12715,"à¤¸à¤¹":12716,"rible":12717,"restrial":12718,"ĠCornwall":12719,"ĠChapel":12720,"Ġanticipated":12721,"Ġlaugh":12722,"ĠVo":12723,"Ġrains":12724,"ovic":12725,"Ġ138":12726,"Ġconfig":12727,"Ġlaboratory":12728,"ĠCinem":12729,"Ġnose":12730,"ework":12731,"icken":12732,"Ġmetric":12733,"Ġbiography":12734,"Ġboyfriend":12735,"ampton":12736,"Ġ1876":12737,"ĠÄĲ":12738,"Ġbomber":12739,"ĠSic":12740,"rior":12741,"Ġ116":12742,"Ġimpressive":12743,"Ġmarking":12744,"Ġgenu":12745,"ĠOthers":12746,"ht":12747,"ĠBeth":12748,"atsu":12749,"Ġbatteries":12750,"PS":12751,"Ġfed":12752,"Ġscandal":12753,"Ġdozen":12754,"Ġprovisions":12755,"ĠTechnology":12756,"ĠCase":12757,"Ġsinking":12758,"enberg":12759,"iah":12760,"ught":12761,"Ġfires":12762,"ĠCand":12763,"Ġliver":12764,"ĠLower":12765,"ptic":12766,"colm":12767,"Ġguests":12768,"Ġà¤ħà¤¸à¤«à¤²":12769,"ĠPedro":12770,"Ġ1877":12771,"Ġnickname":12772,"Ġpor":12773,"Ġnoticed":12774,"Ġpolitician":12775,"Ġà¤¸à¤°à¤¦":12776,"ĠFilming":12777,"ĠArmenian":12778,"ĠTree":12779,"ĠSex":12780,"ĠAntar":12781,"Ġparliamentary":12782,"ĠFriends":12783,"Ġtoxic":12784,"Ġindigenous":12785,"iously":12786,"Ġafford":12787,"Ġlighter":12788,"agles":12789,"phal":12790,"Ġconsumption":12791,"à¤ªà¤£à¤¨":12792,"ĠMembers":12793,"ĠLeices":12794,"Ġthreats":12795,"ĠKenneth":12796,"Ġrestrictions":12797,"Ġcorporate":12798,"nr":12799,"ĠVick":12800,"etta":12801,"Ġvolcanic":12802,"RC":12803,"held":12804,"Ġà¤¯à¤®":12805,"Ġeld":12806,"Ġà¤ıà¤¯à¤°à¤²":12807,"hl":12808,"Ġine":12809,"ĠChester":12810,"ĠMarines":12811,"Ġtrunk":12812,"Ġà¤ħà¤ķà¤¬à¤°":12813,"Ġtruly":12814,"Ġignored":12815,"Ġcash":12816,"ĠPeng":12817,"Ġhence":12818,"artime":12819,"Ġarguments":12820,"Ġcodice":12821,"ĠOscar":12822,"à¤¸à¤°à¤£":12823,"à¤¹à¤Ł":12824,"ĠCinc":12825,"ĠBark":12826,"ĠDuch":12827,"orted":12828,"Ġpref":12829,"Ġprogressed":12830,"Ġfier":12831,"osy":12832,"ĠThr":12833,"Ġdeputy":12834,"ĠIsaac":12835,"ĠProtestant":12836,"37":12837,"gÃ©":12838,"ĠSkin":12839,"Ġimposed":12840,"Ġoccurring":12841,"Ġthorough":12842,"ĠMeteorological":12843,"olia":12844,"Ġà¤īà¤¤à¤°":12845,"ĠChair":12846,"Ġmixing":12847,"ĠMalcolm":12848,"changed":12849,"ĠAction":12850,"ĠCena":12851,"Ġrugby":12852,"acht":12853,"ĠTake":12854,"ĠBears":12855,"oples":12856,"ĠOrchestra":12857,"48":12858,"à¤ķà¤¦à¤®":12859,"à¤Łà¤ķà¤°":12860,"ĠDublin":12861,"Ġrelation":12862,"Ġwound":12863,"Ġfles":12864,"alg":12865,"ĠTir":12866,"ĠBoulevard":12867,"ĠChamberlain":12868,"Ġmurdered":12869,"Ġà¤ıà¤¥à¤²":12870,"ĠAltern":12871,"à¤²à¤Ĺà¤Ńà¤Ĺ":12872,"heimer":12873,"lem":12874,"udi":12875,"ĠZero":12876,"ĠCEO":12877,"ĠThan":12878,"Ġordinary":12879,"Ġcustomers":12880,"ĠLamb":12881,"ĠRoom":12882,"Ġevacuation":12883,"bach":12884,"ielder":12885,"ĠGuild":12886,"ĠCareer":12887,"Ġdreadn":12888,"Hg":12889,"oom":12890,"Ġaf":12891,"Ġcu":12892,"Ġplates":12893,"Ġcontracts":12894,"Ġprest":12895,"Ġà¤ķà¤®à¤²":12896,"alin":12897,"Ġacre":12898,"Ġ1883":12899,"Ġphoto":12900,"Ġdefenders":12901,"38":12902,"atical":12903,"Ġà¤ªà¤¥":12904,"Ġexile":12905,"Ġ1881":12906,"racks":12907,"Ġcathedral":12908,"à¤·à¤ķà¤°":12909,"ĠWatch":12910,"ĠERA":12911,"36":12912,"ĠBreak":12913,"à¤«à¤²à¤¤":12914,"Ġ750":12915,"Ġà¤ĳà¤Ł":12916,"Ġintellectual":12917,"Ġwake":12918,"Ġmit":12919,"oting":12920,"ĠPel":12921,"Ġ128":12922,"à¤Łà¤ķà¤¥":12923,"ĠStudies":12924,"Ġchoir":12925,"ĠAthletic":12926,"Ġexplanation":12927,"Ġlawsuit":12928,"Ġdecrease":12929,"Ġfab":12930,"Ġà¤§à¤°à¤¤":12931,"Ġ1875":12932,"ĠGabri":12933,"Ġdebris":12934,"Ġdepicting":12935,"Ġspeculation":12936,"ĠOrd":12937,"Ġkiller":12938,"Ġfacil":12939,"Ġmechanism":12940,"ĠCyclone":12941,"iga":12942,"ocol":12943,"ĠEddie":12944,"Ġengineers":12945,"Ġtimber":12946,"Ġcomplicated":12947,"agg":12948,"ĠSlav":12949,"Ġterritorial":12950,"Ġkilog":12951,"Ġconversation":12952,"RS":12953,"à¤¹à¤µ":12954,"ĠPay":12955,"ĠLS":12956,"Ġà¥¨à¥©":12957,"ĠMicha":12958,"ĠBradley":12959,"Ġnephew":12960,"Ġstern":12961,"ĠRI":12962,"Ġdevelopments":12963,"Ġ1882":12964,"ĠContinental":12965,"Ġangry":12966,"ĠSA":12967,"ĠMann":12968,"ĠFuture":12969,"Ġindustries":12970,"Ġ1830":12971,"Ġdisappointed":12972,"Ä«":12973,"Ġmad":12974,"Ġaside":12975,"Ġà¤ħà¤¸à¤²":12976,"auge":12977,"uka":12978,"ĠVIII":12979,"etary":12980,"ishn":12981,"ĠWWF":12982,"osion":12983,"Ġeastward":12984,"Ġconquest":12985,"Ġinfer":12986,"Ġmos":12987,"Ġpreserve":12988,"emble":12989,"umbered":12990,"ĠTournament":12991,"ĠGlee":12992,"à¤µà¤¤à¤¨":12993,"Ġthreatening":12994,"Ġencounters":12995,"Ġune":12996,"Ġunt":12997,"ieg":12998,"ĠMetro":12999,"ĠAlberta":13000,"overed":13001,"itol":13002,"Ġinfection":13003,"ĠCollection":13004,"Ġposts":13005,"Ġlyrical":13006,"ĠArchbishop":13007,"ĠSerbia":13008,"ĠFriedrich":13009,"onial":13010,"Ġward":13011,"ulates":13012,"Ġlacking":13013,"Ġsuspension":13014,"Ġthrowing":13015,"Ġundertaken":13016,"Ġrevolutionary":13017,"icing":13018,"ĠPlace":13019,"Ġelite":13020,"ĠLuft":13021,"Ġthunderstorm":13022,"Ã´":13023,"itting":13024,"ĠChang":13025,"Ġbreast":13026,"ĠCincinn":13027,"Ġæ":13028,"entieth":13029,"ĠFr":13030,"ĠGates":13031,"Ġconfident":13032,"Ġgif":13033,"Ġisn":13034,"Ġremin":13035,"Ġhumanity":13036,"bel":13037,"itime":13038,"Ġmounts":13039,"ĠSad":13040,"ĠPros":13041,"abad":13042,"Ġspell":13043,"ĠVilla":13044,"ĠJoan":13045,"Ġantib":13046,"Ġstrikes":13047,"ĠTommy":13048,"Ġvicinity":13049,"iture":13050,"Ġstim":13051,"Ġconvicted":13052,"Ġpig":13053,"amount":13054,"Ġchampionships":13055,"Ġtouchdowns":13056,"ĠKin":13057,"Ġremoving":13058,"Ġfocuses":13059,"ĠGibral":13060,"ĠSpringfield":13061,"Ġpenn":13062,"Ġcontacted":13063,"Ġentert":13064,"rolled":13065,"Ġmessages":13066,"Ġfarmers":13067,"Ġexhibit":13068,"Ġmammals":13069,"ĠAncient":13070,"ritic":13071,"rank":13072,"ĠShep":13073,"Ġrealistic":13074,"Ġinaugural":13075,"encer":13076,"Ġà¤ħà¤Ł":13077,"Ġparameters":13078,"Ġarose":13079,"ortion":13080,"ĠUk":13081,"Ġconstantly":13082,"ĠMuslims":13083,"à¤®à¤°à¤£":13084,"Ġboost":13085,"ĠÃī":13086,"Ġdiamond":13087,"ĠKaz":13088,"ĠVeg":13089,"Ġhelicopter":13090,"icular":13091,"Ġthro":13092,"ellers":13093,"iked":13094,"Ġmetre":13095,"Ġpatri":13096,"Ġfnr":13097,"ĠCort":13098,"ĠDud":13099,"rieved":13100,"oirs":13101,"ĠMalta":13102,"ubble":13103,"ahl":13104,"Ġà¤¬à¤¦à¤²à¤¤":13105,"ĠMarshal":13106,"Ġà¤¶à¤°à¤£":13107,"ĠYugoslavia":13108,"Ġà¤¦à¤¤":13109,"ĠEsc":13110,"Ġcentered":13111,"Ġvoters":13112,"quiry":13113,"à¤°à¤ľà¤¨à¤¨":13114,"liminary":13115,"ĠGibraltar":13116,"ĠTint":13117,"Ġcollaborated":13118,"Ġsustain":13119,"Ġcorresponding":13120,"Ġabsorbed":13121,"ĠWagner":13122,"Ġadmir":13123,"Ġpredominantly":13124,"ĠHood":13125,"ĠFly":13126,"Ġperf":13127,"Ġasserted":13128,"ischer":13129,"Ġpatient":13130,"ĠCanu":13131,"ĠRound":13132,"Ġfeathers":13133,"ĠComics":13134,"ĠShiva":13135,"Ġsituations":13136,"ĠRobin":13137,"ĠTwitter":13138,"Ġillustrated":13139,"£o":13140,"Ġholes":13141,"ĠMaced":13142,"ĠMaine":13143,"Ġà¤¨à¤®à¤ķ":13144,"Ġdesper":13145,"enz":13146,"ĠJake":13147,"Ġviewing":13148,"ĠTaiwan":13149,"Ġtune":13150,"Ġcompiled":13151,"assy":13152,"Ġcastles":13153,"Ġapolog":13154,"ĠFormer":13155,"ĠRear":13156,"avan":13157,"Ġresid":13158,"Ġindependently":13159,"Ġlib":13160,"ĠHull":13161,"Ġreleasing":13162,"ĠReed":13163,"ĠTalk":13164,"Ġknows":13165,"regular":13166,"ĠCincinnati":13167,"uber":13168,"ĠEqu":13169,"à¤Ĩà¤²":13170,"ennial":13171,"Ġorganic":13172,"Ġ1866":13173,"Ġgrows":13174,"Ġpeninsula":13175,"Ġà¤®à¤ľà¤¦":13176,"à¥¨à¥¦à¥¦à¥":13177,"bu":13178,"hart":13179,"ĠParks":13180,"ĠWaters":13181,"flow":13182,"ĠAfghanistan":13183,"Ġà¤ªà¤¤à¤¨":13184,"ĠLords":13185,"Ġencom":13186,"Ġà¤ĳà¤¨à¤²":13187,"ĠAlliance":13188,"Ġ1869":13189,"à¤ªà¤°à¤®":13190,"Ġ149":13191,"ĠHispan":13192,"ĠAngelou":13193,"Ġspeeds":13194,"ĠNormandy":13195,"ipher":13196,"ribution":13197,"Ġ1867":13198,"à¤Ĩà¤¯":13199,"aults":13200,"Ġ1873":13201,"Ġbreeds":13202,"ĠJulian":13203,"Ġrelieved":13204,"ĠCond":13205,"ĠChem":13206,"Ġà¤ĩà¤£":13207,"Ġbowl":13208,"Ġà¤¦à¤°à¤µ":13209,"Ġenorm":13210,"Ġsheep":13211,"aneous":13212,"Ġcanceled":13213,"asury":13214,"ĠBrid":13215,"Ġblast":13216,"ĠNASA":13217,"Ġà¤µà¤¯à¤¸":13218,"Ġlayers":13219,"Ġaest":13220,"omed":13221,"rels":13222,"à¤¸à¤¨à¤ķ":13223,"ĠCry":13224,"Ġstored":13225,"ĠKill":13226,"ĠShield":13227,"Ġ1871":13228,"Ġpleased":13229,"enburg":13230,"Ġlover":13231,"ĠEdmund":13232,"Ġroadway":13233,"ĠVegas":13234,"music":13235,"ĠLud":13236,"ĠOrganization":13237,"GM":13238,"ĠMadison":13239,"ĠPokÃ©":13240,"found":13241,"instein":13242,"Ġcouldn":13243,"Ġmarched":13244,"Ġposter":13245,"Ġsuggestion":13246,"ĠBCE":13247,"à¤ķà¤£":13248,"Ġmask":13249,"ĠEld":13250,"Ġoffshore":13251,"overty":13252,"Ġexpanding":13253,"Ġvarying":13254,"HS":13255,"Ġfract":13256,"Ġpseud":13257,"izard":13258,"Ġoutstanding":13259,"Ġcolored":13260,"Ġgenres":13261,"ĠOlivia":13262,"ĠGregory":13263,"hall":13264,"à¤ļà¤¤à¤®":13265,"Ġclergy":13266,"Ġfundamental":13267,"ĠCou":13268,"ĠRush":13269,"Ġprosper":13270,"Ġlocomotives":13271,"Ġmild":13272,"Ġarena":13273,"Ġbutter":13274,"Ġzero":13275,"Ġpaying":13276,"ĠMut":13277,"ĠConservative":13278,"yan":13279,"Ġgrid":13280,"Ġà¤¦à¤®":13281,"ĠHus":13282,"Ġclosure":13283,"ĠBurke":13284,"Ġoxid":13285,"ĠRevolutionary":13286,"ĠMercury":13287,"ĠRus":13288,"odium":13289,"ringe":13290,"Ġaqu":13291,"ĠCut":13292,"cell":13293,"Ġsulf":13294,"ĠKra":13295,"ĠLeeds":13296,"Ġregulations":13297,"Ġsentiment":13298,"Ġ1878":13299,"Ġcelebrate":13300,"umberland":13301,"ĠHistorical":13302,"Ġbackst":13303,"Ġreporting":13304,"ĠExpl":13305,"Ġdisappeared":13306,"Ġhide":13307,"ĠNation":13308,"Ġperc":13309,"omon":13310,"ĠSolar":13311,"Ġbapt":13312,"Ġarmoured":13313,"ĠBrooklyn":13314,"ĠSchumacher":13315,"39":13316,"ĠSoph":13317,"ĠOrton":13318,"BO":13319,"gary":13320,"zes":13321,"Ġtent":13322,"roscop":13323,"Ġà¥¨à¥¨":13324,"Ġmagnetic":13325,"à¤¯à¤¬":13326,"acular":13327,"ĠBurg":13328,"Ġatop":13329,"ĠJNA":13330,"Ġà¤ķà¤²à¤ķà¤¤":13331,"ĠMonth":13332,"issioned":13333,"Ġfaculty":13334,"ĠSerge":13335,"Ġlinear":13336,"feld":13337,"Ġfungus":13338,"Ġattraction":13339,"imony":13340,"Ġwhatever":13341,"ĠOpera":13342,"onnie":13343,"Ġconspiracy":13344,"mates":13345,"Ġcha":13346,"ĠXI":13347,"Ġcurve":13348,"Ġdropping":13349,"ĠMLB":13350,"Ġinducted":13351,"pin":13352,"hend":13353,"Ġfant":13354,"Ġ1872":13355,"Ġpreceding":13356,"ĠPolitical":13357,"ÏĤ":13358,"ĠDennis":13359,"ĠVern":13360,"ĠHelen":13361,"list":13362,"à¤¨à¤ľ":13363,"ĠHubb":13364,"Ġtrig":13365,"ĠLeo":13366,"Ġradius":13367,"Ġcompanion":13368,"ĠPrinceton":13369,"ĠRNA":13370,"ĠNam":13371,"ailing":13372,"Ġremote":13373,"ĠMcKinley":13374,"GB":13375,"ĠAub":13376,"Ġdetected":13377,"Ġpositioned":13378,"ĠBrowns":13379,"Ġromance":13380,"Ġconced":13381,"Ġflour":13382,"Ġsubmer":13383,"Ġblamed":13384,"Ġreporter":13385,"gett":13386,"inated":13387,"isk":13388,"ĠCH":13389,"ĠMak":13390,"ĠFather":13391,"ĠNathan":13392,"usters":13393,"Ġpublicity":13394,"ĠCoal":13395,"Ġnevertheless":13396,"Ġà¤¤à¤°à¤²":13397,"ĠBrah":13398,"Ġwitnesses":13399,"sis":13400,"eda":13401,"ĠSor":13402,"Ġeagle":13403,"ĠNad":13404,"lett":13405,"Ġtargeted":13406,"Ġstability":13407,"Ġnoise":13408,"ĠBarcel":13409,"ĠGhost":13410,"ĠTigers":13411,"eness":13412,"Ġrepris":13413,"ĠMusical":13414,"Ġswept":13415,"bie":13416,"Ġlung":13417,"Ġproperly":13418,"ĠWel":13419,"Ġannex":13420,"Ġprogressive":13421,"Ġsubmarines":13422,"cont":13423,"Ġquoted":13424,"Ġcalculated":13425,"Ġwinners":13426,"Ġconfused":13427,"Ġparking":13428,"ĠinHg":13429,"areness":13430,"Ġdiversity":13431,"Ġà¤µà¤ľà¤¨":13432,"à¤īà¤¥":13433,"Ġretreated":13434,"Ġverses":13435,"Ġvariable":13436,"Ġfossils":13437,"rity":13438,"ĠHey":13439,"ĠSmack":13440,"Ġswing":13441,"Ġshelter":13442,"Ġcondemned":13443,"net":13444,"aba":13445,"Ġmonit":13446,"Ġfortifications":13447,"Ġrotation":13448,"Ġfocusing":13449,"Ġirregular":13450,"ĠDevil":13451,"Ġtelephone":13452,"ED":13453,"Ġfault":13454,"ĠTests":13455,"ĠNass":13456,"ĠIsle":13457,"ĠGlasgow":13458,"ĠHubbard":13459,"Ġgentle":13460,"Ġthanks":13461,"ĠCommons":13462,"Ġterminal":13463,"Ġrab":13464,"ĠIsab":13465,"Ġmachines":13466,"ĠPick":13467,"Ġà¤Ĺà¤¨":13468,"ĠLed":13469,"Ġrice":13470,"Ġflown":13471,"à¤µà¤¡":13472,"ĠSri":13473,"overy":13474,"Ġdrunk":13475,"Ġinstructions":13476,"ĠCanucks":13477,"Ġtap":13478,"Ġnice":13479,"Ġrecruit":13480,"ĠHerbert":13481,"Ġconcepts":13482,"Ġresignation":13483,"Ġdisbanded":13484,"Ġ_":13485,"ĠInsp":13486,"ĠKil":13487,"Ġencourag":13488,"Ġcruise":13489,"arded":13490,"Ġmentions":13491,"Ð¾":13492,"Ġconvince":13493,"Ġmelod":13494,"Ġbore":13495,"ĠRav":13496,"ĠHolland":13497,"Ġ~":13498,"Ġfo":13499,"igation":13500,"usc":13501,"istical":13502,"Ġscrap":13503,"ĠSeb":13504,"Ġtorpedoes":13505,"Ġchallenging":13506,"ĠFifth":13507,"Ġroster":13508,"Ġregiments":13509,"Ġinsurance":13510,"Ġrebounds":13511,"Ġworse":13512,"Ġsolely":13513,"Ġferry":13514,"Ġbrings":13515,"ĠMillennium":13516,"ĠCurrent":13517,"umi":13518,"Ġdirecting":13519,"ĠSalv":13520,"ĠMontana":13521,"ĠEpis":13522,"Ġicon":13523,"elin":13524,"ĠBour":13525,"Ġà¤¯à¤ķ":13526,"ĠInside":13527,"Ġtriumph":13528,"Ġtourist":13529,"Ġcreature":13530,"ĠPhillies":13531,"bi":13532,"asia":13533,"ĠMig":13534,"ĠStrong":13535,"Ġjudicial":13536,"ĠCeltic":13537,"Ġoct":13538,"ĠChet":13539,"ĠTheodore":13540,"Ġgear":13541,"avian":13542,"Ġstudios":13543,"Ã¶r":13544,"ĠAdventure":13545,"Ð¸":13546,"onso":13547,"Ġà¤ķà¤¤":13548,"ĠAqu":13549,"ĠMorning":13550,"ĠOcc":13551,"ĠMercedes":13552,"iors":13553,"ĠCM":13554,"à¤¼à¥Į":13555,"ĠYard":13556,"ĠWestminster":13557,"Ġcontribute":13558,"ĠHindi":13559,"DP":13560,"Ġcotton":13561,"leased":13562,"Ġhistorically":13563,"Ġ1868":13564,"Ġupdated":13565,"iffer":13566,"ourable":13567,"Ġscholarship":13568,"ĠTintin":13569,"Ġmyself":13570,"hentic":13571,"Ġrounded":13572,"Ġà¤ªà¤ļ":13573,"ĠPsych":13574,"ewise":13575,"ishops":13576,"Ġà¤ĳà¤¨":13577,"Ġdarker":13578,"Ġexamined":13579,"omical":13580,"acer":13581,"Ġsharing":13582,"Ġroot":13583,"atty":13584,"Ġfavored":13585,"à¤ıà¤¨à¤ı":13586,"sch":13587,"inter":13588,"Ġcosm":13589,"Ġà¤īà¤Ńà¤°":13590,"Ġediting":13591,"Ġgram":13592,"Ġà¤¸à¤¹à¤ľ":13593,"Ġlogo":13594,"Ġscreens":13595,"ĠSH":13596,"ĠPack":13597,"ĠPoe":13598,"ĠVerm":13599,"Ġjew":13600,"Ġà¤īà¤¦à¤¯":13601,"arma":13602,"ĠWikipedia":13603,"Ġbin":13604,"rium":13605,"ampa":13606,"Ġballs":13607,"Ġmeasuring":13608,"Ġjersey":13609,"ĠAthen":13610,"ĠDenver":13611,"Ġacclaimed":13612,"ĠBasketball":13613,"nda":13614,"ĠCox":13615,"ĠIb":13616,"aku":13617,"izers":13618,"Ġdistinction":13619,"ĠâĻ":13620,"ĠHIV":13621,"à¤¡à¤ķà¤°":13622,"ĠAustro":13623,"Ġsteadily":13624,"atar":13625,"ĠCC":13626,"ĠTheater":13627,"Ġbattlefield":13628,"ĠComputer":13629,"ĠGlou":13630,"Ġreconstruction":13631,"lined":13632,"Ãł":13633,"ĠFun":13634,"ĠAlbany":13635,"ĠCaes":13636,"á»ĩ":13637,"ĠBulgarian":13638,"Ġghost":13639,"Music":13640,"works":13641,"Ġconducting":13642,"Ġprompting":13643,"ĠRonald":13644,"Ġspacecraft":13645,"Ġmonastery":13646,"Ġeligible":13647,"Î½":13648,"Ġwartime":13649,"Ġflower":13650,"ĠAdditional":13651,"ĠTerritory":13652,"ĠMichaels":13653,"yc":13654,"aton":13655,"à¤¸à¤°à¤ķ":13656,"ĠBris":13657,"opard":13658,"ĠSciences":13659,"Ġtrio":13660,"eta":13661,"ĠIC":13662,"Ġà¤°à¤£":13663,"Ġagencies":13664,"endar":13665,"ĠAbra":13666,"Ġà¤Ĩà¤Ĺà¤®à¤¨":13667,"Ġwalked":13668,"ĠGothic":13669,"Ġmasc":13670,"ĠHi":13671,"Ġpresents":13672,"ĠPercy":13673,"Ġparticipating":13674,"ĠOttawa":13675,"Ġintegrated":13676,"ĠHok":13677,"à¤ħà¤Ĺà¤²":13678,"Ġdecisive":13679,"Ġconnects":13680,"Ġelevated":13681,"ĠCany":13682,"ĠChuck":13683,"Ġdisabled":13684,"Ġtroop":13685,"ĠCarlos":13686,"Ġaccomplished":13687,"Down":13688,"ĠBerm":13689,"ĠRivers":13690,"Ġconvey":13691,"Ġincidents":13692,"Ġcurved":13693,"Ġpostp":13694,"Ġloose":13695,"Ġà¤®à¤¶à¤¹":13696,"Ġion":13697,"ogs":13698,"ĠArc":13699,"Ġguards":13700,"Ġagrees":13701,"Ġcommitment":13702,"Ġgusts":13703,"di":13704,"arians":13705,"Ġhosp":13706,"ĠBod":13707,"Ġconvert":13708,"rip":13709,"rians":13710,"Ġrational":13711,"Ġkids":13712,"Ġrouting":13713,"ubs":13714,"Ġindirect":13715,"Ġkilometers":13716,"ĠBarcelona":13717,"atisf":13718,"ĠNevada":13719,"ĠMarl":13720,"Ġthemed":13721,"Ġrefuses":13722,"ettes":13723,"ĠMedic":13724,"Ġmotif":13725,"ĠArchae":13726,"Ġoptim":13727,"Ġconsequence":13728,"Ġtelesc":13729,"olan":13730,"ĠWis":13731,"Ġexterior":13732,"Ġcanon":13733,"Ġencompass":13734,"unge":13735,"Ġchann":13736,"Ġrunner":13737,"Ġclouds":13738,"Ġcemetery":13739,"Ġtough":13740,"Ġecho":13741,"ĠRosen":13742,"Ġcreatures":13743,"Ġopined":13744,"Ġsensitive":13745,"ĠCA":13746,"ĠCu":13747,"ĠDuc":13748,"Ġcomed":13749,"anka":13750,"Ġphysically":13751,"Ġrevenge":13752,"ĠHein":13753,"Ġwalks":13754,"Ġritual":13755,"ĠPokÃ©mon":13756,"assic":13757,"Ġà¤ħà¤ªà¤µ":13758,"core":13759,"Ġfinest":13760,"Ġmarg":13761,"Ġvenues":13762,"Ġproclaimed":13763,"vor":13764,"asi":13765,"à¤¬à¤ļ":13766,"Ġvaries":13767,"ĠMega":13768,"Ġà¤¸à¤ĸ":13769,"season":13770,"Ġlesser":13771,"Ġrebel":13772,"ĠMetac":13773,"Ġintermediate":13774,"Ġintend":13775,"Ġspots":13776,"Ġtransmission":13777,"ĠMilan":13778,"ĠDiamond":13779,"lex":13780,"ĠMC":13781,"ĠIP":13782,"Ġcentimet":13783,"Ġ137":13784,"appa":13785,"ĠCardinals":13786,"ci":13787,"Ġov":13788,"itars":13789,"à¤²à¤¡":13790,"Ġunh":13791,"Ġscout":13792,"reeks":13793,"Ġtheaters":13794,"Ġextends":13795,"Ġenhanced":13796,"Ġtouc":13797,"Ġprince":13798,"ĠEnix":13799,"Ġadds":13800,"Ġinsuff":13801,"Ġfile":13802,"agi":13803,"Ġdemographic":13804,"ĠSquad":13805,"ĠChurchill":13806,"arthy":13807,"ĠTas":13808,"Ġlakes":13809,"Ġà¤¬à¤ķ":13810,"ighed":13811,"ĠRBI":13812,"ĠFa":13813,"à¤®à¤ķà¤°à¤£":13814,"ĠColin":13815,"Ġceremonies":13816,"Ġmartial":13817,"Ġinitiative":13818,"Ġcomplimented":13819,"Ġreminisc":13820,"IC":13821,"à¤ĭ":13822,"Ġcontrad":13823,"Ġpeoples":13824,"ĠOperations":13825,"ĠDrake":13826,"Ġdeliberately":13827,"Ġà¤ªà¤¤à¤²":13828,"ĠRomanian":13829,"Ġborough":13830,"Ġlatest":13831,"actic":13832,"Ġepit":13833,"Ġà¤Ĭà¤¤à¤ķ":13834,"ĠParaly":13835,"Ġbowled":13836,"ĠRaymond":13837,"Ġpreparations":13838,"Ġmansion":13839,"ĠSmackDown":13840,"ĠParkway":13841,"ĠRegion":13842,"Ġsearching":13843,"ĠFoster":13844,"Ġdesired":13845,"ĠUnit":13846,"Ġremake":13847,"Ġministers":13848,"Ġheavier":13849,"ĠCircle":13850,"rush":13851,"herent":13852,"Ġharsh":13853,"ĠBody":13854,"Ġstom":13855,"Ġoutcome":13856,"Ġcontinental":13857,"Ġweakness":13858,"ĠStandard":13859,"ĠManuel":13860,"ĠTib":13861,"ĠWings":13862,"Ġyd":13863,"ĠSpeed":13864,"Ġcontributing":13865,"Ġà¥¨à¥¦à¥§à¥§":13866,"Ġencourage":13867,"ĠVoy":13868,"Ġsouthwestern":13869,"ĠWeather":13870,"ĠEmma":13871,"Ġtransformed":13872,"lake":13873,"Ġonwards":13874,"ido":13875,"ĠSteam":13876,"à¤¹à¤ľ":13877,"ĠShin":13878,"Ġà¤ĵà¤®":13879,"Ġprocessing":13880,"Ġprospect":13881,"Ġtom":13882,"Ġrook":13883,"Ġpossessed":13884,"Ġachievements":13885,"Ġwit":13886,"Ġfru":13887,"Ġhurt":13888,"ĠBass":13889,"iang":13890,"ĠAlam":13891,"Ġcoaches":13892,"vern":13893,"ĠRange":13894,"ĠDelta":13895,"cht":13896,"Ġplayable":13897,"ĠSans":13898,"ĠFood":13899,"ashire":13900,"Ġmoist":13901,"Ġpropaganda":13902,"arus":13903,"chw":13904,"ĠBlair":13905,"mitting":13906,"Ġconsideration":13907,"ĠFerdin":13908,"Ġnavigation":13909,"ĠMiddles":13910,"OR":13911,"Ġaided":13912,"abet":13913,"Ġcritically":13914,"ĠNorthwest":13915,"Ġrider":13916,"Ġconsistently":13917,"Ġautobiography":13918,"ho":13919,"Ġ124":13920,"Ġairborne":13921,"ĠVenice":13922,"ĠPlanet":13923,"Ġborders":13924,"ums":13925,"ĠKy":13926,"ĠBelie":13927,"Ġestimate":13928,"Ġconsciousness":13929,"Tunes":13930,"gor":13931,"ĠRichardson":13932,"Ġmechanics":13933,"ĠJamaica":13934,"Us":13935,"à¤ıà¤µ":13936,"Ġallied":13937,"ĠCarn":13938,"Ġ1879":13939,"Ġhomosexual":13940,"Ġvegetation":13941,"Ġdeposits":13942,"à¤¤à¤ķà¤°":13943,"atorial":13944,"Ġtourists":13945,"ironments":13946,"Ġmolecular":13947,"ĠArena":13948,"Ġascend":13949,"Ġcomplement":13950,"Ġlandmark":13951,"ĠContem":13952,"ĠDuncan":13953,"ĠIntellig":13954,"ĠPowell":13955,"Ġroutine":13956,"ĠParalymp":13957,"à¥Ĩ":13958,"Ġseal":13959,"Ġpermanently":13960,"ĠTab":13961,"ĠAnat":13962,"ĠCalgary":13963,"ĠComposition":13964,"Ġemerging":13965,"Ġadjust":13966,"Ġorchestral":13967,"ĠLancashire":13968,"Ġcro":13969,"Ġworker":13970,"Ġmonster":13971,"Ġdepiction":13972,"alties":13973,"Ġbelonging":13974,"Ġdoctrine":13975,"33":13976,"Ġreh":13977,"Ġspite":13978,"à¤ªà¤°à¤¨":13979,"ĠIsles":13980,"Ġachievement":13981,"Ġexercises":13982,"Ġmunicipal":13983,"oric":13984,"asaki":13985,"olars":13986,"Ġunanim":13987,"ĠCloud":13988,"Ġ148":13989,"Ġpriority":13990,"Ġpunishment":13991,"Ġamphib":13992,"alia":13993,"Ġà¤ħà¤Łà¤²":13994,"à¤ıà¤°":13995,"Ġà¤¨à¤¹à¤°":13996,"ĠHenderson":13997,"Ġsubtropical":13998,"Ġphenomenon":13999,"zig":14000,"ĠBerg":14001,"ĠConserv":14002,"Ġodd":14003,"Ġdock":14004,"rav":14005,"Ġà¤ĩà¤Ł":14006,"ĠâĢ²":14007,"Ġà¤ļà¤°à¤®":14008,"Ġabst":14009,"Ġnortheastern":14010,"Ġcomprising":14011,"Ġà¤¸à¤¦à¤¨":14012,"à¤īà¤ļ":14013,"Ġactively":14014,"rington":14015,"ĠFloyd":14016,"ĠMalay":14017,"Ġhypothesis":14018,"Ġmarsh":14019,"Ġstaged":14020,"riages":14021,"Ġpresidency":14022,"Ġenvironments":14023,"Ġjournalists":14024,"ĠMills":14025,"Ġperformers":14026,"ĠFrances":14027,"Ġdamaging":14028,"Ġsummon":14029,"Ġmanaging":14030,"Ġrevealing":14031,"Ġdimensional":14032,"px":14033,"ĠCN":14034,"Ġà¤µà¤ľ":14035,"ĠPon":14036,"à¤ĩà¤¨à¤°":14037,"Ġmilk":14038,"Ġdisputed":14039,"Ġassassination":14040,"ĠDj":14041,"ĠChan":14042,"Ġunre":14043,"ĠVic":14044,"à¤ĩà¤¸à¤¨":14045,"Ġintroduce":14046,"Ġhonors":14047,"Ġdelegates":14048,"the":14049,"isations":14050,"ĠHerman":14051,"Ġpayment":14052,"Ġsailors":14053,"ĠCrawford":14054,"Ġshaft":14055,"Ġfinance":14056,"ĠRodrig":14057,"Ġmemb":14058,"ĠEllen":14059,"ĠUsing":14060,"Ġpsychiat":14061,"Ġenlar":14062,"Ġwitnessed":14063,"Ġà¤¹à¤ķ":14064,"Ġconfer":14065,"Ġphosph":14066,"Ġpreventing":14067,"Ġarchaeological":14068,"Ġmysterious":14069,"ouch":14070,"Ġgates":14071,"ĠSprings":14072,"Ġdescript":14073,"Ġ1848":14074,"Ġphilosopher":14075,"Ġswitched":14076,"Ġreson":14077,"Ġsheet":14078,"ĠMarqu":14079,"ĠWhy":14080,"Ġversus":14081,"Ġawareness":14082,"Ġreluctant":14083,"omys":14084,"ĠMull":14085,"Ġdirections":14086,
[...]
