#version: 0.2 - Trained by `huggingface/tokenizers`
Ġ t
h e
a n
i n
a r
Ġ s
o n
a t
Ġt he
e r
Ġ ,
Ġ a
Ġ k
Ġ .
o r
e d
Ġ p
Ġ b
e n
i s
Ġ m
Ġ w
i t
e s
a l
Ġ c
Ġ o
h a
an d
Ġ f
a s
Ġ d
r e
Ġ in
Ġo f
in g
Ġ and
a a
i c
Ġt o
r a
r o
Ġ l
i l
Ġ n
Ġ h
a m
i on
Ġm a
o u
Ġ he
Ġ Ċ
Ġ "
y a
Ġ T
Ġ g
Ġ e
Ġk e
Ġ 1
l e
Ġ =
Ġ v
u r
Ġ S
en t
u s
Ġt h
Ġ A
Ġ j
u n
e l
o m
h i
e t
Ġ re
Ġ C
a d
Ġma in
i d
Ġ @
u t
i r
Ġ ha
o t
c h
c t
Ġk i
Ġs e
o l
Ġ M
Ġw as
Ġ '
i m
s t
i v
a y
Ġ B
Ġ on
Ġ or
l y
ĠT he
Ġs t
a k
i g
Ġ 2
Ġ r
Ġ )
Ġf or
Ġ (
Ġ I
c e
- @
Ġ@ -@
Ġb e
Ġ an
Ġa s
Ġ is
Ġ H
o w
it h
t er
a g
Ġ P
u l
at ion
t h
Ġki i
Ġw ith
u p
er s
i k
Ġ R
h ar
Ġth at
e m
Ġ D
Ġa l
a b
Ġp ar
Ġ1 9
o s
u m
Ġ W
a ar
Ġ at
r i
0 0
Ġw h
Ġ F
Ġb y
v er
es t
Ġ L
u d
Ġk aa
Ġc on
Ġ ar
Ġ G
o d
an t
Ġ N
Ġd e
Ġ it
a c
he r
Ġ ra
Ġn e
is t
ro m
y e
a v
Ġ un
Ġ J
h an
Ġk o
at e
Ġ E
h t
a p
es s
o p
a in
a h
Ġk ar
Ġp r
Ġh is
Ġc om
Ġp ra
Ġf rom
Ġ O
ou n
il l
ĠI n
Ġp ro
Ġs am
i f
o g
Ġe k
a at
l d
as t
is h
ar d
p e
er e
b er
i es
Ġ -
or t
o c
v e
en d
ic h
al l
Ġs h
Ġha i
a an
e e
Ġw ere
Ġ â
u g
r it
q u
on g
Ġe x
s e
Ġa p
Ġl e
Ġc h
n e
Ġâ Ģ
u b
Ġ y
k s
ar s
Ġa d
Ġ K
Ġp l
it y
k e
or e
iv e
at ed
i a
an s
an e
g e
Ġ U
Ġ us
t e
Ġha d
p t
Ġ :
Ġl i
ou r
m ent
Ġ 3
ha a
am e
Ġwh ich
i e
us t
in e
u c
Ġ2 0
Ġar e
i al
Ġ2 00
el l
o st
Ġn ot
or d
ar t
Ġ up
Ġ ro
on e
ct ion
ar y
he n
Ġa b
i an
ĠS t
ig ht
u e
an g
c l
t her
o v
ic al
aa d
a al
m an
Ġt e
Ġli ye
Ġd i
Ġg a
p l
o k
il e
Ġ ;
u k
Ġki ya
u re
t i
id e
Ġcom p
Ġ V
m er
f f
f ter
ou ld
ac k
Ġb ut
Ġf ir
s o
u ch
d er
ar i
ou s
Ġc l
Ġ 5
Ġ 4
Ġb hi
y on
in d
Ġ20 1
Ġcon t
r y
Ġin t
ag e
as s
w o
at i
hi k
ĠâĢ ĵ
Ġs ha
at h
Ġm an
ig n
Ġt ha
ya h
Ġa c
Ġfir st
he d
Ġhe r
it ion
re e
h it
Ġr es
Ġ1 8
an k
Ġit s
Ġa g
Ġthe ir
oun d
om e
at er
p er
i b
at a
Ġal so
ĠH e
ou t
p ort
Ġs a
as e
Ġd es
p r
Ġs c
on d
r ic
i p
a ch
im e
an a
Ġp er
il m
hi p
Ġw or
ur n
Ġj o
l ow
Ġe v
Ġd is
a i
en ce
ar e
Ġ en
Ġh ot
Ġha ve
Ġwh o
Ġon e
Ġ ye
Ġre c
ow n
ar k
d e
Ġj aat
al ly
Ġpar t
ha m
Ġga ya
Ġha s
h ya
ic e
i z
a ct
. @
Ġ@ .@
Ġt wo
l and
ou g
Ġt ak
r u
Ġt ra
Ġp e
Ġbe c
ur ing
e w
cl ud
Ġbe en
ĠA l
h y
or y
or m
ul t
is e
el y
Ġth is
Ġf ilm
aa m
Ġs er
, @
Ġ@ ,@
ĠT h
ĠI t
un d
Ġ 6
ation s
ra m
s h
Ġs p
in t
Ġof f
Ġo ut
Ġj a
Ġ im
ha ar
Ġa fter
Ġb har
Ġo ver
Ġg o
e ct
en s
ĠA n
Ġs he
Ġin clud
Ġpl ay
an ce
oun t
Ġ 7
as h
at t
Ġthe y
Ġo ther
Ġat t
Ġp ur
c he
Ġr up
Ġb ha
Ġp re
Ġc har
ar g
ĠU n
ion s
Ġ Y
w ay
ug h
ig h
es h
r on
w n
ĠR e
Ġra j
Ġw ould
Ġh im
w e
w ard
Ġm e
f t
Ġt ime
v el
a ce
Ġ /
ĠS e
Ġint o
Ġd o
ha an
Ġjaat aa
Ġ ut
at es
k i
ĠC h
Ġin ter
it ed
Ġ 8
ad i
c es
it e
Ġh o
a j
ha k
an i
l es
Ġcom m
Ġd w
os e
Ġh i
Ġ 9
Ġal l
Ġ19 9
Ġc o
Ġs aat
or s
ab le
Ġb et
g an
as on
Ġne w
d h
Ġs pe
as ed
Ġf e
em ber
ent s
Ġm ore
ol d
n a
v i
oug h
ing s
Ġs ak
mer ic
Ġkar ne
in al
d u
Ġs o
Ġ yah
a il
Ġse c
v ed
c ess
ĠD e
Ġsaat h
ah in
f er
is s
a us
ic t
r en
o y
Ġc ent
Ġt at
k ar
Ġh u
Ġw hen
a w
ic k
Ġc ol
il d
p h
Ġs ab
o b
i re
c k
Ġg ro
am b
ri b
ar ly
Ġm il
ĠA r
aar a
he re
Ġc ha
Ġre m
am p
re at
Ġk aar
ub l
Ġa m
Ġn ahin
Ġc an
Ġs up
on s
r al
Ġg ame
Ġt r
ĠO n
aa y
ct ed
Ġd uring
b ha
00 0
Ġw e
ro ugh
y og
Ġy aa
Ġan t
i x
h at
Ġag ain
r an
Ġm ost
Ġon ly
o od
k aar
ars h
Ġthe m
s s
ot h
ation al
Ġo p
ol low
Ġdw aara
Ġcon s
we en
Ġwor k
am il
o h
Ġth an
Ġp o
Ġ qu
or th
t on
Ġ1 0
ĠE n
an y
al e
ter n
Ġre le
Ġb an
Ġj an
Ġab out
k h
ĠN ew
er ed
t ed
al s
Ġb o
t ra
ou th
Ġf l
Ġs ong
or n
f ore
Ġun der
od e
Ġbet ween
Ġj is
Ġl ater
Ġn um
c ed
Ġm us
Ġn ir
Ġ 0
Ġs w
Ġv is
o ol
Ġth ree
i ed
r ed
in n
Ġre l
Ġbhar at
d i
Ġre t
u ra
ie w
Ġl ik
ar ch
Ġte am
Ġs ub
Ġp os
Ġas s
ar n
Ġth rough
Ġk n
Ġ end
in s
Ġb aad
Ġtat haa
Ġb ad
Ġs ing
Ġwh ile
at ing
en er
Ġrec ord
Ġe le
Ġs ur
Ġre g
ĠA meric
Ġse ason
b um
Ġst r
Ġm at
Ġ1 7
al i
Ġd ay
ro p
Ġ ]
Ġfor m
Ġsec ond
Ġb u
as ht
Ġs y
f orm
Ġw here
Ġb l
am es
t a
Ġs ome
oc k
aa v
h il
e ver
Ġe p
iv ed
ĠC om
t s
ic s
Ġp a
t aa
ĠL e
Ġv aal
Ġa ct
Ġ1 5
Ġl ag
Ġma de
is i
h one
Ġde f
Ġv a
Ġs uch
Ġk s
n i
Ġf ollow
ya an
Ġad hik
Ġ19 8
en e
is ion
Ġf our
Ġpra d
Ġ1 2
Ġp ol
Ġ 000
Ġp at
is hed
c c
Ġb ro
Ġv ya
aa j
Ġb h
Ġs an
Ġal bum
Ġg ay
Ġbe fore
Ġa v
it s
Ġd a
Ġap ane
Ġthe re
Ġspe c
Ġw rit
Ġdi ya
or k
o ot
Ġth i
u al
Ġye ar
Ġhot a
l i
Ġus e
id ent
Ġc ap
Ġye ars
ĠA t
ĠTh is
Ġus ed
d ition
Ġd r
er y
Ġap p
Ġp ad
Ġin d
Ġin c
if ic
Ġ ent
ur y
a z
ow ever
Ġh igh
i y
Ġc all
Ġp ubl
p ed
p os
Ġm et
Ġs et
Ġ [
Ġ1 6
Ġ19 4
Ġa ir
o ber
ĠA s
Ġep is
t ain
c ha
Ġl oc
Ġbe ing
Ġac c
if e
Ġnum ber
Ġ19 7
Ġthe n
Ġe m
Ġm in
Ġde c
Ġin v
Ġap pe
Ġpr es
vel op
le y
t en
k a
l l
Ġn aam
k aa
er m
Ġv ish
Ġm on
el d
ut e
ri ya
Ġagain st
at her
in a
Ġn o
Ġ1 1
Ġd et
d uc
Ġk a
Ġsh ow
ver n
it t
Ġ19 6
ot her
Ġv e
ĠâĢ Ķ
Ġchar act
ir d
r es
in ce
ĠA fter
Ġse ver
ĠB e
Ġv id
m aan
un e
b and
v en
Ġks he
Ġst hit
Ġc ar
Ġle ad
aus e
Ġm ill
Ġre ce
it i
Ġbec ame
ĠB rit
in es
av e
Ġinclud ing
Ġpr at
an n
ul ar
Ġm ov
Ġser ies
Ġw ell
ĠUn ited
ol og
r is
j ect
Ġb ack
w a
ow er
Ġs uc
Ġpe h
Ġb oth
Ġman y
ter s
aa ya
o j
r ess
Ġraj ya
Ġhu a
ĠC on
p s
at ur
ĠS c
iv ers
Ġf ound
p ar
Ġs m
Ġs hip
ĠS he
Ġ %
is ed
Ġg u
am en
Ġa ad
Ġ1 3
Ġv arsh
Ġd id
in ed
ik a
er n
ou se
Ġst ud
t ar
Ġb and
el f
it ies
ĠEn g
Ġl ong
Ġde velop
iv er
r id
Ġl o
oh n
Ġsa id
is m
Ġn a
l ed
Ġre v
f ul
Ġin st
at ive
Ġc re
u ro
Ġt ar
ĠJ ohn
Ġdes c
em ent
Ġdi re
Ġp op
Ġepis ode
Ġma y
ain ed
m i
er man
em b
Ġm od
Ġd if
Ġor ig
Ġ1 4
Ġc ould
ar an
t il
Ġcont in
ĠC l
Ġs im
Ġan y
ra p
Ġc han
Ġsever al
Ġtr ans
p le
Ġpr as
ĠAmeric an
Ġk h
Ġar t
Ġo b
ak i
th ough
Ġb el
ce pt
Ġl og
ers on
en g
Ġkn own
t y
m y
Ġ19 5
u ed
Ġmill ion
st em
i eld
Ġ Z
ĠA ust
Ġret urn
ro ss
Ġin f
b h
Ġcomp le
Ġdes ign
Ġ est
Ġs ign
s on
s ha
Ġs ang
Ġbe gan
Ġv ah
op le
ch ool
Ġpro v
Ġg ener
Ġ z
Ġk uch
ad e
al a
Ġs u
ĠB l
al ay
ul l
hi r
Ġd ist
v a
aan v
Ġkar te
e k
id ed
Ġr un
im es
Ġ $
ĠF or
c y
Ġl and
he l
Ġmus ic
ĠU S
Ġe ff
x t
Ġe arly
Ġh ue
i et
Ġo wn
Ġk am
ist s
ĠC ol
Ġrele ased
Ġd own
Ġp ass
Ġcall ed
Ġb ah
Ġun til
Ġn am
ĠW or
us h
ut ion
ment s
Ġkshe tra
Ġf in
Ġev am
y an
u ly
ur u
f or
Ġm and
Ġdis c
Ġgro up
Ġ19 3
u ally
Ġsam ay
Ġc ount
Ġm uk
Ġpur v
ial ly
v ing
k in
Ġgo vern
Ġc rit
hi e
Ġg ra
Ġ ed
ĠW ar
ĠS p
iz ed
Ġm ar
ak sh
v ent
Ġma d
m a
he s
ha p
Ġw ar
ill i
Ġma j
ir ed
ct or
Ġal ong
Ġ ya
Ġop en
et s
e b
Ġoff ic
pr ess
ĠBrit ish
i yon
Ġthe se
Ġex t
ar ed
n aa
l a
Ġs har
Ġpro du
ĠM ay
Ġpo int
Ġin s
Ġh ist
Ġ ud
Ġg aanv
g ed
ha as
Ã ©
Ġ19 1
ĠA d
end ed
b le
ent ly
e p
om et
ĠIn d
el s
Ġcl ass
ĠA ug
Ġo per
en n
k ing
Ġhot i
er v
Ġsy stem
Ġm ed
ward s
ĠSe pt
Ġg un
Ġsuc cess
ib le
r ut
Ġsam e
ĠSept ember
ee k
t ing
ĠWor ld
i j
Ġh one
Ġk ai
ĠSt ates
ra ft
e y
ĠAug ust
Ġb att
u es
Ġpe ople
m ed
Ġlik e
i o
Ġpro duc
Ġdesc rib
Ġra he
Ġbec ause
p or
Ġ3 0
Ġf inal
Ġcharact er
ction s
r ist
Ġ Q
ĠAl l
Ġres ult
Ġs hi
o ve
Ġd har
Ġpra kaar
ak e
Ġcon st
Ġst art
av y
aa pt
ra d
o on
Ġ2 5
ĠI s
Ġar ound
Ġan ya
ti ya
Ġre port
ĠM ar
Ġk m
ĠT e
us s
ĠP l
Ġj ab
ĠP ro
Ġn orth
p ur
Ġto ok
Ġfollow ing
Ġo cc
Ġsup port
Ġs ar
ĠAust ral
ĠO ct
Ġl a
Ġr an
Ġa ut
ĠG erman
Ġst ate
ov ember
Ġkaar an
re t
Ġhe ad
Ġs ix
an u
ac ed
iv es
l ing
ant s
ĠH owever
Ġvaal e
j a
Ġma an
Ġar r
Ġw ill
Ġen g
Ġkar ata
Ġan n
ks ha
Ġp rom
Ġrece ived
Ġc ity
ĠM e
Ġ19 2
Ġsak taa
Ġne ar
Ġcons id
i ous
ical ly
ĠOct ober
Ġan us
il ity
c hi
Ġl ine
Ġe ver
Ġ >
uro pe
ag ar
ap an
w ar
it al
Ġe ach
a ir
Ġf amil
ham p
Ġbu ild
Ġl ife
r at
Ġf ive
Ġde p
Ġra k
at ure
er t
Ġwor ld
iv ing
ik e
Ġsm all
it a
in i
Ġcent ury
ĠC an
Ġj in
Ġpart ic
Ġare a
at ely
ĠThe y
Ġcol le
or ed
Ġsab ase
Ġan g
Ġr ed
Ġs ad
Ġpubl ic
Ġd u
ha d
ar ge
Ġcont ro
b o
Ġmaj or
Ġh ind
ĠB y
Ġgay e
o ver
Ġt ri
Ġs ank
ord ing
Ġr est
v al
ĠJ une
ne y
Ġjan m
pe ct
ĠN orth
Ġmat ch
m p
l ish
Ġcon f
Ġap ni
ĠK ing
Ġser v
Ġv ari
Ġp ort
iss ion
Ġcon c
a ur
Ġre f
Ġv ers
oug ht
ĠJ uly
al es
Ġt y
a x
ĠCom m
os s
Ġ es
ric k
h on
Ġb r
ĠN ovember
Ġsing le
Ġj ust
v an
Ġjaat i
ur es
Ġpeh le
Ġsh uru
Ġv ik
ĠH ar
Ġhe l
Ġor der
Ġs ince
Ġk isi
Ġt it
il t
at s
at aa
asht riya
ĠA pr
ide o
ĠY ork
Ġl ast
Ġd iv
ĠApr il
Ġh al
ĠM c
ĠC ar
un g
Ġv ib
ion al
Ġt urn
Ġdif fer
ĠM arch
Ġle ft
in c
a im
m ber
Ġpra k
Ġal low
h al
Ġb as
ug g
ĠG e
iv ely
Ġf ar
Ġ if
in k
Ġad d
che s
Ġs outh
Ġut tar
av id
Ġpro g
Ġga i
Ġw on
ĠB ro
Ġpl ace
Ġto p
Ġbha s
vi ous
Ġle g
re en
Ġb re
Ġkaar y
ar th
Ġka ha
ĠI I
Ġl arge
Ġ Â
ur g
Ġd on
Ġn ow
Ġun ke
if ied
i er
Ġim p
Ġb ased
Ġ2 1
ro te
ro und
Ġs l
ot t
en a
uk h
Ġatt ack
ha s
Ġsam v
on y
i ent
Ġhu i
ĠD uring
on t
Ġs chool
em pt
b y
Ġth ird
Ġn ame
Ġ1 00
ĠDe ce
ĠC har
m e
id es
Ġbah ut
ro w
Ġ201 0
ee y
Ġc are
y le
ag ue
Ġc amp
Ġm uch
ĠDece mber
Ġmon th
Ġev ent
Ġinc re
Ġcomp any
Ġsh ort
Ġapp ro
Ġd ue
ar a
Ġun hone
Ġja ise
ĠS te
id dh
Ġan other
Ġwh at
ĠE d
Ġplay ed
. .
Ġinclud ed
b all
Ġex pl
Ġ200 9
Ġ200 8
ĠJ anu
od y
ĠJanu ary
ĠS outh
uk t
Ġp erson
ĠM ic
ud d
ak s
Ġo ld
Ġg h
Ġgovern ment
ad a
Ġp ower
Ġbhar tiya
Ġm ul
ag es
il y
Ġch al
Ġd am
Ġh ar
am ent
u j
Ġ2 4
Ġh ome
Ġb ar
g es
Ġg r
Ġbe g
Ġw rote
Ġha m
1 9
i ence
Ġc our
ĠW hen
ĠF r
Ġde ath
ĠP r
Ġb al
ot e
ur ed
ain s
Ġhot e
Ġd em
ĠO r
Ġm en
Ġbhas haa
Ġst ory
Ġre qu
ĠJ apan
Ġ. ..
Ġl arg
Ġsha amil
Ġk ill
Ġpr ati
k ti
g et
ren ch
Ġb i
Ġpos ition
om in
Ġrev iew
ĠM an
aa p
Ġres p
Ġ2 2
Ġv ideo
oc i
Ġh and
s y
v es
Ġl ed
Ġ i
Ġfe atur
Ġs ans
Ġfamil y
Ġs aam
i um
Ġj ile
om an
id d
iv en
Ġr ight
st er
Ġpre vious
Ġdescrib ed
is ter
Ġy ou
Ġw ay
Ġ200 7
is ke
h ile
es e
Ġma ke
Ġt erm
b har
Ġs k
Ġrele ase
ĠâĢ Ļ
j an
y s
Ġnam ed
Ġt w
for man
Ġsam band
Ġb est
Ġar m
ur ther
Ġe l
Ġcomm and
ch an
Ġ201 1
Ġma g
iv al
an c
o x
Ġev en
ivers ity
emb ers
ĠM us
Ġg ames
Ġte le
et er
Ġper form
v ers
Ġre pl
est ed
Ġl ist
Ġs ah
i od
h or
Ġatt empt
aa on
n er
l u
uc k
ĠG u
Ġb a
Ġ2 3
Ġpos s
Ġf oot
Ġc he
ac hed
ch it
Ġv ery
Ġinclud e
Ġp un
Ġth ose
Ġeff ect
Ġor gan
Ġpr aapt
Ġad dition
Ġbel ie
han e
ĠH is
o om
Ġw ater
Ġun hen
Ġst ill
Ġch ild
ĠN ational
i ya
Ġis s
Ġ &
b s
ĠF eb
Ġ X
ĠS h
Ġanus aar
en ces
ru ary
ĠFeb ruary
n ess
Ġg reat
Ġne xt
c hed
Ġa adi
Ġv iew
g y
Ġprad esh
Ġs it
Ġn et
Ġspec ies
ĠCh rist
ĠAn d
Ġbha ag
Ġp ut
j i
Ġsamv ath
Ġorig inal
l er
ĠP ar
ĠThe re
as ter
ri end
a f
Ġra haa
Ġper forman
Ġde b
rid ge
in ing
en se
Ġm ark
ĠF l
ya k
re w
Ġup yog
Ġc ur
Ġl et
ĠC o
Ġj ane
Ġper iod
Ġt em
um b
Ġp ost
Ġaad haar
o int
h od
illi am
ĠE urope
Ġst and
Ġwith in
Ġf ail
oun g
Ġex per
ru ct
e c
Ġm embers
Ġd ra
Ġn ik
Ġh on
Ġh um
Ġ201 2
Ġbu ilt
Ġhe ld
ot s
le t
aa g
Ġro le
i ans
Ġtar ah
ri ed
ĠF rench
hamp ions
Ġle kin
Ġp ah
Ġl ate
Ġal though
Ġfor mer
Ġb aar
ut ed
Ġw ind
re et
Ġd est
Ġc r
ac ks
Ġb ich
Ġre al
l o
olog y
he sh
Ġd el
Ġc or
i or
Ġs old
ra h
ul ation
m ak
ĠW est
Ġc aus
k ha
Ġst orm
y n
al d
2 0
rop ical
Ġday s
ĠB r
ĠR o
s elf
ic es
Ġe qu
ĠW illiam
Ġp h
Ġp ash
Ġli ya
Ġcl ub
ard s
Ġc ame
Ġest ab
Ġpres ent
Ġ19 0
b d
e g
it ary
Ġpol it
ug ht
ri pt
Ġbo ok
Ġ200 6
ag ed
t al
as th
ĠA ir
Ġs ide
Ġw est
f ord
Ġn iy
aan e
Ġh owever
pr es
Ġut p
er ing
Ġus ke
Ġst yle
om b
ud dh
ĠA m
Ġs ay
is on
Ġto wn
Ġsab hi
Ġf ew
Ġh ouse
Ġde v
Ġdhar m
at or
Ġro ad
ĠGe or
Ġgay i
ak ar
Ġloc al
il a
ur ch
Ġant ar
ha al
Ġ5 0
Ġkar naa
il ar
Ġk al
Ġd in
Ġof ten
Ġco ver
Ġki ye
Ġe ast
Ġm y
Ġcontin ued
os h
es tern
m it
Ġko i
arg at
Ġ <
iv id
om en
ru ction
ĠH er
Ġam ong
iv an
ĠD es
Ġkaa m
Ġad v
bha g
Ġpra m
c raft
re ad
Ġex p
Ġst hap
inn ing
Ġw in
Ġdiffer ent
Ġcl aim
pos ed
p ite
on es
Ġ2 7
Ġa meric
c on
ha y
ĠEng land
ĠN o
Ġs oc
Ġb at
Ġpro f
Ġ2 8
Ġant argat
Ġle vel
s ide
Ġcomm un
e ad
Ġjis amen
Ġf urther
e et
est s
Ġsam p
ĠT r
Ġappe ar
Ġs ark
Ġprodu ction
Ġs ent
ra y
Ġpra yog
Ġ |
ol l
Ġl aw
op s
Ġtak e
ĠB o
Ġs ound
ing ton
ĠO ne
Ġconsid ered
Ġ201 3
Ġv i
v ision
aa i
Ġ2 6
Ġw eek
ĠEng lish
Ġcare er
Ġhal f
itt le
Ġpar iv
ans h
k t
f ric
l ine
Ġre fer
ab hi
Ġ !
ĠC ity
Ġst ar
ro y
Ġha ving
Ġg l
Ġsa f
Ġd aksh
Ġpra bha
Ġ4 0
Ġele ct
Ġh y
aa h
Ġplay er
Ġc ast
ĠE l
Ġwith out
Ġma hat
Ġhist ory
ĠA cc
ĠB ar
l ab
ĠC ent
Ġprog ram
Ġever y
Ġj aan
Ġf un
el t
hy alay
Ġmov ed
ĠAn g
Ġa ay
m in
Ġpro te
Ġst at
Ġte en
ond on
Ġvers ion
ĠAl though
Ġinf lu
Ġbec ome
iz e
ab ly
ra j
ĠC ount
im ent
ars han
Ġs ol
ur al
Ġpart y
Ġsim ilar
ĠL ondon
Ġsha har
Ġinter n
Ġar th
Ġlog on
che en
Ġpram ukh
Ġstr ong
Ġvish wa
ul a
p ing
Ġs ugg
c om
Ġv ict
ut es
ĠB att
Ġinv ol
Ġ ur
hampions hip
is a
Ġl im
ĠG r
Ġwrit ten
il le
pl ay
Ġj ate
c o
Ġpr ess
Ġameric a
Ġl ess
al k
Ġda ura
r ation
Ġann oun
qu e
ĠP ark
Ġra il
ĠW ith
Ġre p
Ġth ough
ĠR iver
at ra
op e
Ġtra ck
m s
Ġ18 9
or ies
Ġg iven
Ġis ke
Ġsak ate
Ġw ant
ĠE x
Ġcl os
o or
pres ent
Ġ201 4
Ġt ro
ks h
Ġa ff
ha v
Ġa ap
Ġh ig
Ġl ow
Ġcontro l
og rap
se qu
Ġgo od
h in
ĠUn iversity
Ġsha bd
ĠP ol
ĠG ener
ri y
Ġcount ry
Ġt er
Ġd ar
ĠC al
Ġdef e
Ġim port
Ġf ire
Ġg ave
Ġf re
ĠH igh
Ġj ud
Ġne ver
Ġ200 5
ron t
n el
Ġto tal
Ġs on
ĠW hile
ĠW e
ee ks
Ġreturn ed
ĠN e
Ġra h
amb ar
Ġhind i
ain ing
Ġs at
Ġt imes
en cy
ent ion
Ġcom b
en ed
aa e
Ġor e
ir c
Ġf riend
Ġa av
Ġsh ould
our s
Ġf ind
Ġk ha
Ġin it
Ġw ent
Ġst haan
it er
s k
Ġpubl ished
um ent
Ġs and
Ġun ki
b e
Ġa ud
et h
a u
Ġne ed
Ġcomm on
Ġproduc ed
hya k
h ind
Ġnir maan
ĠD iv
Ġorig in
os p
Ġl ost
Ġreport ed
Ġus ing
Ġmuk hya
t o
is ing
Ġ2 9
Ġy oung
Ġto ur
Ġf act
Ġvis hesh
Ġbuild ing
Ġst ated
a ign
Ġl ight
Ġvya v
Ġmand ir
ra ct
Ġde cl
Ġmahat v
Ġpra cheen
Ġpro ject
ĠS m
Ġc y
ord s
ur ric
Ġcomp et
ĠAcc ording
pe c
ĠT ra
Ġt en
Ġcomp os
Ġrecord ed
aa b
Ġvaal i
Ġg et
re g
Ġp an
w ork
Ġre ad
Ġfor ces
Ġn ort
d om
Ġs um
aad i
us ed
ed er
ri es
kar an
Ġs qu
han i
Ġsh r
Ġship s
Ġc ross
Ġ ide
i i
Ġe ight
Ġm ot
in ess
Ġad hya
Ġserv ice
Ġis e
Ġperforman ce
ĠG o
Ġch un
Ġv al
Ġmil itary
ĠThe se
Ġcap t
Ġair craft
Ġf ather
ha ay
Ġma king
Ġan im
ĠS y
Ġaut hor
rick et
oy al
re am
Ġst e
ĠS w
Ġb us
ĠA ss
Ġh ow
x im
ĠC or
Ġhim self
Ġpl an
Ġbatt le
Ġdaura an
Ġ er
ĠAustral ia
b it
ubl ic
Ġtit le
Ġs omet
a ff
a ul
ĠSe c
it ive
Ġgro und
ee p
Ġse e
Ġsong s
Ġk aal
ou ther
ap t
Ġdon on
ens ive
Ġdevelop ment
ĠP res
is ht
j ab
ĠGener al
al th
Ġcrit ic
Ġw at
ĠM in
Ġdes h
it her
p p
r ish
Ġlag bhag
Ġk hil
ĠSt ate
Ġj ivan
Ġn av
Ġf ield
Ġg en
Ġk il
Ġm er
Ġint ro
h s
Ġdire ct
ic a
Ġra di
Ġf ree
outher n
Ġd as
Ġc le
Ġal ag
ĠJ ames
Ġfor ce
Ġre present
Ġn ar
wo od
Ġsar v
p hi
un ch
al t
Ġ201 5
as tern
Ġv ir
ika as
Ġe ar
ya d
Ġf t
Ġdest roy
Ġcharact ers
Ġv ol
Ġpop ular
Ġdu us
em y
end ing
Ġd h
Ġgener al
Ġrem ained
Ġn ational
Ġte ch
land s
ĠAr my
at ic
Ġh it
Ġse em
ĠG l
Ġsu ff
bhar at
Ġmonth s
f ield
hy am
Ġy og
Ġtele vision
Ġdi ed
Ġm id
Ġdevelop ed
u le
Ġis a
c ent
Ġchild ren
Ġd ik
b or
p an
Ġcamp aign
Ġocc ur
Ġr ashtriya
ir on
Ġ200 4
Ġ3 1
urric ane
f ic
Ġc al
n ing
ĠLe ague
it ar
ya at
Ġse ven
ist ed
Ġro ck
Ġse en
ri e
Ġ18 8
ĠM or
v in
Ġsign ific
Ġac ross
Ġhist or
er tain
Ġob s
ist an
her n
Ġf r
le ct
Ġ200 0
Ġrel ations
Ġkar ti
v iew
Ġa way
st it
Ġt est
Ġoffic ial
Ġfe et
Ġj ise
un hone
Ġj al
ĠP e
ĠRe g
Ġv ikaas
ĠDiv ision
Ġf av
Ġg ar
Ġf elt
m en
as es
am a
Ġsah it
Ġsark aar
ĠS im
ĠAmeric a
Ġc op
way s
Ġc ult
us ht
ĠS up
Ġab hi
Ġbh oom
z e
hi re
Ġnot ed
Ġpras iddh
Ġcre ated
Ġn ight
Ġr aaj
ĠR uss
Ġk an
Ġnir d
Ġannoun ced
Ġn on
ĠN or
ĠR ic
Ġre ached
c il
Ġal m
ĠP art
rit y
p ra
Ġa ward
ell ing
Ġpr im
Ġare as
o le
v id
ĠCount y
Ġvya kti
Ġc ricket
Ġk hel
ain t
Ġst ation
ĠRo ad
Ġto o
Ġ ?
p end
Ġran ge
ĠJapan ese
Ġf le
Ġpro cess
Ġc oun
ĠM ad
Ġja haan
ĠC ap
Ġk yon
Ġsuccess ful
Ġvari ous
al ity
h inn
it ra
Ġpolit ical
Ġth ought
ol ution
Ġsa w
Ġke val
Ġmand al
ĠM on
Ġfollow ed
ĠSt reet
Ġman a
Ġdaksh in
Ġa ver
ĠS er
Ġat h
Ġv ic
d ay
Ġf ull
Ġc ost
ĠE ast
m ing
ric t
Ġar g
iv il
ĠR ober
Ġplay ers
Ġbro ad
Ġperform ed
ank i
Ġl ab
Ġpa as
Ġser ved
ĠGeor ge
5 0
Ġme et
Ġk ing
ĠW hit
g ar
ĠH ol
Ġl ok
ĠT o
ir l
hi yon
iz ation
har d
Ġl ittle
Ġf ac
ĠP hil
in ation
al y
ĠH en
ree k
ĠA b
Ġ18 6
Ġj i
Ġspec ial
id a
g er
Ġf em
ur i
hy s
o ch
ĠP er
Ġb ody
Ġjan aa
Ġm i
kh and
aay en
Ġs un
Ġtak en
Ġ ident
Ġkill ed
Ġab le
Ġb ana
Ġag re
l ished
ul arly
aa k
Ġr ang
ar on
Ġt ropical
Ġdo es
g round
Ġthrough out
in o
Ġr ank
Ġt al
Ġa ak
ĠB ill
Ġa am
ik i
Ġf ight
id s
ra ph
Ġwh ite
aav a
Ġbec om
ap urn
Ġman ag
Ġp ak
Ġsignific ant
ĠE m
Ġco ast
as k
Ġl at
it ing
Ġpra v
ĠTh om
Ġst ruct
Ġm m
Ġwrit ing
ĠM ed
ĠMic ha
o ice
ber t
Ġ200 3
p i
am i
Ġt re
ee v
Ġb all
Ġc irc
Ġb ill
Ġm iss
ud e
Ġbl ack
ĠD avid
r as
Ġass oci
he te
Ġear li
Ġestab lished
y ing
Ġa ge
Ġent ire
l in
en ced
ĠRe c
n al
Ġappe ared
ar amb
Ġmil es
Ġpoint s
ĠAustral ian
Ġimp ro
Ġa a
Ġang re
uc ch
Ġal aava
Ġm ember
Ġact iv
an ya
ĠY ou
Ġn agar
o ks
Ġw omen
ĠQ u
Ġro ute
e en
Ġ18 7
Ġb ac
Ġin de
Ġp ri
og n
ra g
hs il
Ġstart ed
Ġfeatur es
pl oy
Ġh at
Ġro und
Ġcaus ed
Ġn ov
m ar
p at
Ġra ce
Ġdec ided
con om
Ġn adi
c ast
ĠA fric
Ġp hir
Ġpe ak
Ġs ite
Ġt ur
Ġevent ually
Ġadd ed
ĠH ouse
press ion
Ġv ig
Ġte hsil
Ġcent re
Ġm ix
ĠS qu
Ġpash chi
id ence
Ġb ase
Ġl ive
Ġke hete
ol i
ĠR oyal
c ks
Ġgro w
ar ing
v ari
et t
Ġinst ead
ĠH ist
c ap
Ġt ab
ad ron
re y
get her
Ġto gether
Ġmod ern
ell s
Ġc ut
Ġra hi
Ġon ce
he ad
Ġk abhi
Ġap ana
Ġ5 00
ĠIn tern
Ġloc ated
Ġkyon ki
Ġde g
Ġform ed
Ġtra dition
ĠP ort
ang u
l ess
Ġis kaa
b ar
ĠInd ian
Ġst age
bo ard
har i
Ġen c
Ġf ront
Ġh old
as hyak
h ing
o op
Ġp it
p on
o ff
Ġimport ant
ant i
Ġm ount
av ing
Ġ200 1
ak on
Ġv ast
aa ye
Ġd ur
ar ik
Ġvya p
Ġf if
Ġa ction
Ġcon ne
r up
Ġs aal
r ated
Ġvib hinn
r aa
Ġcre w
ot i
ĠP h
v ah
ant ic
Ġin j
c her
ou l
Ġg har
Ġcomple ted
u ke
Ġm ater
ĠCom p
ist ic
am er
Ġpro t
Ġmahatv apurn
Ġf all
Ġplay ing
Ġprof ess
ĠS an
Ġg an
ĠO ther
aar i
ir g
Ġh ost
Ġlo ok
Ġpop ulation
r ing
w aan
Ġs n
o oh
g en
Ġr ather
Ġv oc
Ġb aat
Ġs any
at ors
Ġpol ice
y l
Ġother s
Ġbro ther
Ġsur v
Ġv ill
ĠMicha el
n d
ĠS ch
le x
Ġs ant
ow s
Ġwor ks
Ġin form
Ġv iv
Ġsing h
Ġopen ed
Ġs il
Ġbe hind
ot ed
Ġ200 2
Ġp u
ign ed
s p
amp le
ud i
ĠBl ack
Ġgun s
l am
Ġcom ment
ce ed
an aa
Ġl ad
Ġf a
Ġs al
Ġban ane
Ã ¡
med i
Ġpro ble
b urg
o e
Ġj ag
Ġh ard
m ir
ĠA ct
ĠM y
Ġma hil
at ha
Ġcl ose
Ġhel p
Ġpr ed
a ut
Ġl oss
Ġdisc over
ĠFr ance
ĠM ag
ĠS ome
ĠÂ °
Ġm ur
Ġwork ed
Ġs aa
fic ult
r ashtriya
Ġaav ashyak
ĠS chool
Ġhe avy
rut i
Ġse par
Ġh og
Ġsup er
Ġpra ct
ĠA g
m on
Ġcur r
as y
he st
Ġsub sequ
b an
Ġconst ruction
Ġdif ficult
Ġan ti
Ġre b
Ġbre ak
m ad
Ġy oj
Ġind ust
Ġrelations hip
ant ra
Ġmad hya
Ġ Ã
Ġc ase
Ġw eeks
hie f
olog ical
Ġex ample
Ġd en
Ġc haar
ir st
ĠW ash
Ġlead ing
x ic
ks han
ĠF ran
Ġorigin ally
o f
ne et
Ġup on
ĠHen ry
Ġc at
Ġc reat
Ġutp aad
Ġse x
Ġacc om
Ġbha g
Ġalm ost
ly mp
Ġset t
Ġinv est
Ġhum an
Ġeng ine
Ġb orn
b on
Ġres pect
Ġprov ided
Ġ ucch
ĠM et
he t
Ġdam age
Ġac cept
ya ar
Ġsank hya
ĠR ed
Ġfour th
n on
en es
Ġsc ored
Ġapp oint
as ha
ent ial
Ġw he
Ġty p
haa i
Ġkil omet
Ġsh at
Ġre ve
em ents
ĠMus ic
Ġcour t
Ġb he
az ine
v it
Ġeff ort
ĠB est
Ġ6 0
Ġma k
iet y
ĠBatt le
Ġshi ksha
av es
and er
ĠCol le
ĠM il
Ġind ivid
c ing
Ġf ell
Ġb omb
w al
Ġs our
an ish
idd le
one y
Ġsc ene
Ġg hat
Ġbad e
e ar
id ing
Ġf und
it or
ha b
Ġar my
ge et
et y
Ġbro ught
Ġne g
Ġstud io
ĠL a
Ġle ast
Ġ3 5
Ġav ail
ic le
Ġwork ing
Ġfeatur ed
ĠPres ident
Ġm other
Ġallow ed
Ġwant ed
Ġc e
Ġ199 0
Ġe ither
ĠRe p
Ġpl aced
Ġn omin
Ġreg ion
Ġaver age
ĠM art
Ġto wards
Ġpar is
Ġf oc
a as
Ġprad aan
ĠG ro
Ġbus iness
ĠR ou
ĠWash ington
ĠPl ay
Ġmater ial
Ġcrit ics
Ġqu ick
ĠW il
ĠQ ue
as ing
ĠRober t
ĠB el
al on
Ġpro per
ograp hy
Ġoff ice
if orn
am s
Ġtro ops
Ġe conom
Ġrec ogn
Ġpl ann
Ġm ass
v ille
Ġrun s
hi b
Ġk av
Ġre ach
v avid
ĠSt ar
ill s
eng th
Ġmad hyam
Ġprabha av
Ġp ot
Ġ ul
Ġk um
ra v
ict ion
le b
Ġra m
Ġw ife
arn ed
art ment
Ġd ou
Ġh or
Ġest im
is c
Ġw id
i ers
Ġl ack
Ġinter est
ag o
han s
ĠP aul
B C
ast ha
ĠC ro
ap er
har an
ĠC our
ĠDes pite
Ġgener ally
Ġp ie
Ġit i
ri an
Ġcon dition
ĠF ollow
Ġex ec
Ġp ay
ate g
ov iet
Ġf ig
Ġjo ined
Ġsam ooh
vavid hyalay
Ġr en
ĠD r
Ġis land
ĠM ac
Ġro om
ĠAng el
ris on
em or
w est
ol ic
Ġev ents
ĠG ame
Ġph ot
Ġpartic ip
Ġl angu
Ġsh ot
ific ation
Ġst han
ĠM a
ĠH all
c ial
Ġkn ow
u ff
ĠC up
Ġd rop
Ġmed ia
s han
iforn ia
u el
Ġbelie ved
ir th
Ġradi o
Ġr ul
Ġmahil a
end er
ĠF irst
Ġy uddh
Ġse le
ĠFollow ing
ĠM ary
Ġraj a
Ġrepl aced
ĠG reat
oj an
k ed
Ġpr ast
Ġdesign ed
Ġvict ory
Ġpres ident
Ġh om
Ġan ek
Ġb ank
ya v
Ġa k
Ġm ph
art maan
Ġso on
c er
ĠJ e
c haar
Ġsur f
w an
ĠL ou
ant a
Ġcha hie
Ġpeh ali
Ġab hin
Ġv an
ant ri
ĠEurope an
Ġcon du
Ġm o
Ġh ours
ut ive
at in
Ġvaal a
ĠT wo
Ġk end
Ġs en
ut er
Ġsad sy
Ġpr an
Ġpa id
Ġb rit
Ġcent ral
s an
ke y
Ġinvol ved
ad es
Ġins p
od es
cept ion
Ġb are
am an
f all
og raph
er ous
Ġl ak
Ġb ig
ĠC hampionship
Ġfin ished
if f
Ġa as
Ġcolle ge
Ġ ill
Ġqu ar
Ġmod el
Ġcont rib
Ġp ain
Ġtra vel
Ġposs ible
Ġopen ing
Ġp ura
as ion
ĠV irg
Ġvish vavidhyalay
p ly
Ġpr iv
u on
Ġsay ing
al ed
Ġth reat
ch ana
Ġde k
at r
Ġsam bha
Ġavail able
Ġdire ctor
Ġl ength
Ġcent er
Ġtra ining
ant ry
h un
Ġsoc ial
Ġmin utes
Ġvarsh on
Ġrem ov
ish ing
ber g
Ġl y
Ġintro duc
Ġmul ti
ĠD on
Ġchar t
Ġ198 0
Ġex press
Ġsam aj
Ġcom mer
Ġkshe t
Ġm ust
c le
Ġintern ational
r il
Ġind ic
Ġex ist
Ġlarg est
ĠS ing
ĠRic hard
ers hip
Ġ8 0
Ġchan ge
Ġb ur
ag an
ab ad
Ġp ast
iti haas
Ġs outhern
Ġ201 6
ĠSc ott
it z
ight s
l im
port s
Ġhigh way
Ġpar k
ĠRou te
Ġduus are
Ġg old
pe cted
r est
n am
Ġjis kaa
Ġhig hest
Ġse qu
ĠF rom
Ġs us
Ġearli er
ĠT i
um e
Ġper cent
Ġjis ke
ĠAt l
Ġpartic ularly
Ġinit ially
il ed
ĠRep ublic
ot a
ĠIntern ational
Ġpar y
Ġ199 9
Ġspe ed
Ġya han
ĠKing dom
Ġiti haas
s el
ut ure
n neet
Ġfor ced
Ġd ene
Ġp hys
Ġk ul
ĠA c
s it
ĠChar les
Ġsam ud
Ġsw at
Ġ197 0
ĠR oman
ĠâĢ ĺ
ĠN avy
ĠB er
Ġrecord ing
Ġ3 6
Ġresp ons
i us
art an
atur al
u v
ĠO ff
t em
Ġw all
ĠWhit e
ter ed
Ġsc reen
Ġt aur
al aa
Ġend ed
Ġj ari
k o
ĠThom as
ik on
fer ence
ĠMc C
Ġis i
Ġnaam ak
ĠK e
Ġus ki
Ġgo al
Ġsthap it
Ġturn ed
ĠB ut
Ġmain tain
Ġpass ed
or ing
Ġwe ak
Ġro g
ĠV al
m b
Ġst op
Ġun ka
and s
ĠA p
Ġed uc
Ġreg ard
Ġban aaya
Ġc ou
urn a
Ġun its
Ġr is
Ġv arg
Ġpra ised
g o
Ġincre ased
Ġh urricane
pt ion
Ġtech n
Ġ rom
Ġ3 2
Ġnort hern
he ast
g ress
Ġnov el
ĠCh urch
Ġrel ig
ct s
ĠVirg in
ant ar
ĠT y
ĠCan ada
Ġp il
g a
Ġch urch
Ġl amb
he m
Ġre ason
ĠB ay
Ġc ode
Ġc red
Ġappear ance
Ġb adi
b a
un iya
s hip
Ġse ction
ĠD ay
Ġbo ard
Ġinde pend
Ġ4 5
Ġsan geet
k y
Ġwind s
Ġme as
at on
Ġim medi
t t
Ġ7 0
Ġs ura
Ġ ir
Ġp en
Ġadhya yan
st on
Ġp ers
Ġt reat
ĠSm ith
Ġm ove
Ġorder ed
as kaar
Ġsthap ana
Ġac hie
ĠInd ia
ab ha
Ġpo or
itt ee
Ġcont ract
Ġsc ore
Ġd ig
Ġab ove
Ġd er
p al
ĠP re
u f
as hi
Ġfilm s
Ġtak ing
ĠA lex
Ġlo ve
Ġsak ati
ĠM er
ry ing
Ġup lab
ed y
il ities
g ing
as i
Ġsign ed
Ġlim ited
Ġbet ter
Ġbeg inning
j e
ĠCal ifornia
d a
Ġvib ha
Ġpos itive
ĠGo vern
Ġb ra
aat a
ĠUn ion
and ing
Ġ18 5
ac y
aa f
Ġin n
Ġrak haa
du ction
Ġcy cl
o id
ĠG od
Ġsamband h
ĠBro wn
av al
cl us
Ġqu est
Ġ um
Ġp aan
Ġen ough
Ġacc ount
ugh ter
1 8
Ġ199 8
Ġsahit ya
and on
ĠIs land
at mak
Ġacc ording
Ġfe el
ĠFl or
Ġ 00
Ġs i
Ġj eet
Ġconc ern
Ġm or
Ġgo ing
Ġma ch
Ġrequ ired
Ġs low
ĠCour t
ĠÂ £
h u
hak on
Ġv y
ro s
Ġsub ject
ĠT om
ĠK n
Ġout side
r ast
Ġv arn
Ġst ates
Ġsp ent
b al
Ġb aa
ĠS en
Ġme an
il i
he e
Ġprat ham
Ġn im
Ġpro b
pl ic
at han
Ġvic haar
ĠC ong
ri p
Ġfoot ball
1 0
ay an
w are
Ġjab aki
w aad
ĠV ict
ar ies
ĠAss oci
Ġn ine
ĠA ward
Ġs iddh
Ġbl ock
Ġto ld
Ġass ist
asht ra
ĠR ock
Ġbad a
c is
ell ed
is l
ĠS am
Ġprevious ly
Ġsh oot
Ġc ivil
Ġ196 0
b ers
Ġab s
Ġele ments
ren g
Ġchun aav
ac es
ĠComp any
Ġ +
Ġob ject
Ġl ower
Ġcom e
min ist
Ġp ita
Ġfail ed
Ġpart s
Ġsany ukt
Ġ3 3
ĠM ount
Ġsab ha
ĠU K
ran ch
Ġits elf
Ġfor t
Ġh ous
Ġf low
ve y
hi m
as c
z z
al ion
Ġ18 4
ĠGerman y
Ġac cess
Ġke ep
o o
ri a
Ġv ist
Ġra in
Ġreview s
Ġraaj nneet
Ġd oc
ra b
ĠG old
Ġle k
ĠI m
pl es
ĠP eter
ĠN Y
Ġp ust
Ġsthit i
Ġn iv
Ġgu itar
ĠP al
en ing
Ġinter view
read y
Ġdire cted
ĠChrist ian
Ġha al
Ġgra du
Ġl ines
Ġra p
Ġm is
Ġdes pite
ar ily
Ġdet aa
ĠTh at
Ġj our
ch ar
le g
ol k
p ut
Ġnet work
Ġde ep
ĠS oc
er ved
Ġgroup s
er gy
ĠT imes
ĠC ast
ĠColle ge
ĠP at
Ġdeb ut
Ġvi ol
ht a
ul f
Ġch and
ĠM ark
k aal
Ġv r
Ġg ive
Ġf uture
Ġwh ose
aar e
e um
ĠAr t
Ġde al
Ġw ood
Ġpre mi
is kaa
Ġpre vent
l or
ĠW estern
tra khand
a un
Ġtrans fer
Ġclaim ed
Ġaddition al
ĠG ra
ĠD em
ib ility
b ed
Ġsp ace
Ġmin ute
Ġas ked
Ġst reng
ad h
Ġkar ke
Ġk han
Ġrail way
r or
ĠH ill
ĠS oviet
rie f
ĠF ilm
ap p
Ġsp an
ab ility
Ġfre qu
Ġf ood
en ge
Ġbi har
ĠFr ank
N A
ur s
ition s
Ġ199 7
Ġw estern
Ġpat r
Ġmark et
Ġpariv aar
ly ing
Ġwh om
ĠMe xic
Ġle ague
pr ing
Ġsaf al
Ġal ready
end s
ĠA wards
Ġse a
ĠGr and
s w
al an
Ġb aj
Ġa ks
Ġide a
on na
Ġt rib
Ġmag azine
on se
Ġev idence
Ġintroduc ed
y al
Ġut trakhand
Ġdr usht
Ġsh ren
ens ion
ar l
Ġquick ly
Ġj od
c haa
es an
Ġsit u
Ġb ridge
ad hik
T C
Ġcommun ity
Ġd han
Ġ3 7
av a
Ġg ran
Ġnir v
Ġmus ical
Ġus ually
i ra
ĠFor ce
Ġm ess
Ġele ction
Ġres e
ye k
ĠC oun
s am
ĠM ost
Ġ3 00
Ġde kh
Ġocc up
or es
pec ially
adi um
Ġstud y
Ġpa ir
ant u
Ġath wa
st r
Ġd illi
ad emy
ĠR ob
ul ly
Ġarr ived
o ke
ĠBrit ain
acks on
Ġrese arch
Ġl ay
Ġpur askaar
Ġh op
ish th
er ve
li ament
Ġantar rashtriya
Ġop pos
d on
Ġm ight
Ġ9 0
Ġkaa phi
Ġty pe
Ġl iter
Ġsomet imes
Ġvig yaan
Ġs ir
Ġfem ale
Ġsha kti
te en
ĠB ra
Ġan um
ĠH ot
u it
I I
ĠCh ic
Ġdes hon
Ġbhoom ika
Ġma har
n y
Ġresp onse
and a
Ġes pecially
Ġdec ision
Ġiss ue
k n
Ġd ate
Ġm oney
Ġbo x
Ġke y
Ġse va
ĠP ac
ik t
aal e
Ġcap tain
Ġpra ka
Ġst aff
hik its
Ġshow s
ic les
Ġs ize
ĠL ater
Ġsurf ace
in ent
Ġpre par
se c
Ġg re
ĠVict or
Ġe astern
r im
Ġg irl
z i
Ġt ax
ĠB en
Ġdis play
Ġsc ript
am m
Ġdet erm
Ġex c
Ġfl ood
Ġdisc uss
aaj ik
aan ya
Ġcar ried
Ġrem ain
Ġg ot
Ġmin or
Ġestim ated
d ra
l ict
Ġle kar
r d
Ġth im
Ġlarg er
Ġrem aining
Ġperson al
ĠM ill
Ġpress ure
Ġcomple te
Ġdefe ated
A A
aar on
por ary
ĠR es
2 00
Ġjis ase
at ory
ou d
ĠL os
ĠE arly
Ġ3 4
ĠVirgin ia
3 0
Ġbecom ing
Ġpol ic
Ġlangu age
Ġcommer cial
Ġappro xim
ĠS un
as hit
Ġsam aaj
Ġconsid er
v iron
ĠIn f
Ġ7 5
Ġent ered
Ġr as
Ġas h
Ġsugg ested
Ġ199 6
ĠI f
b i
Ġstud ents
Ġlat ter
it es
ĠO ver
Ġlag a
Ġr iver
Ġteam s
ĠM o
Ġcon v
Ġsamband hit
Ġinvest ig
z a
Ġsw ar
Ġha pp
Ġ199 5
Ġeffect s
chan ge
ya di
Ġt ai
un t
li ye
Ġc ertain
ĠSec ond
Ġly ric
Ġdra w
oc rat
Ġsur round
Ġchan ges
Ġt ul
Ġg e
Ġb rief
Ġd ark
Ġis aki
Ġs elf
Ġd ie
m as
end ar
ig ade
ĠJ ust
ĠS ha
ĠTe x
Ġac qu
eder al
all ed
ul ated
Ġn y
Ġpr ison
Ġcomple t
hya an
int u
Ġb ow
Ġpri or
t ari
Ġkshet ron
c an
Ġam ount
et ic
ĠJ ackson
Ġappoint ed
arn ing
Ġsum mer
Ġepis odes
Ġk har
ĠS l
Ġe mer
aan on
il es
ĠT er
Ġs ena
Ġprov ide
ĠO lymp
Ġst ay
Ġcour se
d es
Ġpar in
Ġred uc
Ġpar v
han a
Ġcomm ission
ad ian
Ġle aving
is er
mit ted
k en
Ġw inning
s aa
ĠL i
Ġequ ip
Ã Ń
ĠJ ack
Ġsc enes
Ġ3 8
Ġdestroy ed
Ġr id
Ġfle et
ĠCl ub
Ġup ar
ha vi
Ġright s
Ġm el
Ġcl im
Ġter rit
Ġ ult
ĠSp anish
Ġd ram
j o
Ġt or
id ents
Ġsan st
ĠM al
Ġm as
at ak
Ġuplab dh
ag on
Ġm arch
Ġw ide
ĠG reen
Ġstruct ure
Ġwrit er
ru cted
Ġis tem
Ġc hampionship
ĠD o
Ġistem aal
Ġd oll
ĠF le
Ġpra y
aa kar
Ġint ended
ines e
Ġdeg ree
Ġ199 4
sel ves
Ġpro posed
Ġm aam
ad o
Ġp al
Ġdiv ision
Ġarr ang
ĠPart y
Ġinflu ence
Ġb oy
Ġc ham
Ġo ur
Ġb ol
Ġover all
chit ect
ĠAssoci ation
Ġbroad cast
ord er
ĠLou is
Ġcre ate
ok ar
Ġes cap
ĠT our
Ġmov ement
c ript
Ġb ird
Ġdet ail
Ġrun ning
om m
Ġo x
le kh
he en
aw a
ĠM aj
ĠD i
Ġ195 0
Ġhog a
Ġam b
Ġn ish
Ġto w
ach an
haa haran
ra man
Ġb rah
Ġsy n
Ġdet e
Ġj eev
Ġsupport ed
us e
it ch
s ed
ĠEd ward
Ġagre ed
Ġa aj
Ġs aan
Ġcol l
Ġra d
ĠChic ago
ĠCh inese
Ġda ughter
Ġne arly
Ġf ans
aat i
Ġpur cha
Ġpur i
Ġaff ect
ĠS al
ess ion
Ġch hod
Ġestab lish
ĠD el
ĠCoun cil
haar an
le e
ĠM ont
ĠO per
Ġpra band
Ġst ars
Ġhel ped
Ġen s
ol an
Ġtra in
Ġa ise
Ġmar ried
ĠS ong
ĠM any
ip p
i en
Ã ¶
ent h
Ġvyap aar
Ġaward ed
ĠIn ter
d en
t u
Ġc ru
Ġun s
and ed
k rit
om er
Ġd uniya
Ġpah unch
Ġs ud
Ġaadhaar it
rity u
Ġfav or
Ġl iving
ro l
Ġpran ali
Ġm ile
ur t
ound s
ĠEn ter
Ġint ens
Ġcomple x
ab di
at re
Ġpat aa
Ġlong er
Ġrel ated
Ġbha v
at ively
k on
in ct
Ġd one
Ġpashchi m
b r
Ġb ani
Ġa isa
un k
Ġj ila
Ġdis s
u ing
ĠP ri
Ġhig her
Ġch ote
Ġ199 2
Ġem ploy
udd hi
Ġquar ter
che ster
Ġfe ature
raj ya
Ġbad al
Ġcurr ent
Ġchan ged
1 2
al ian
Ġplann ed
is amen
Ġcomp ared
l ik
Ġtem per
Ġem p
al and
Ġincre asing
Ġfun ction
hun ik
haal anki
osp ital
um p
Ġva haan
Ġexper ience
Ġus kaa
ud a
Ġcapt ured
k uch
ri al
ĠB et
Ġfif th
Ġb ul
y r
Ġgran th
Ġshat abdi
Ġc m
ĠLe g
Ġcon clud
ĠJohn son
ĠHist ory
ent y
Ġthem selves
Ġapproxim ately
Ġcap ital
Ġe urope
Ġniy am
Ġa st
b our
b ack
Ġth us
ĠC han
ri age
Ġn atural
Ġv artmaan
ĠS erv
Ġtra cks
at ives
Ġmost ly
Ġproduc er
Ġde ad
Ã ¼
Ġ18 0
Ġlead er
in em
Ġprog ress
ĠPac ific
Ġw ick
Ġla un
t ies
Ġs way
Ġgr and
ĠK ore
Ġmanag er
Ġwhe ther
Ġreg ular
ĠBill board
Ġp ani
ha i
Ġpl ant
Ġg as
Ġgr ant
th ing
ya han
e in
ĠSe a
Ġfor ward
ĠL ove
Ġjin ame
is ions
Ġhe av
Ġbr ing
or ation
Ġoper ations
rit i
Ġw oman
rish na
re ak
Ġc hi
Ġco ach
ĠB ack
itt ing
Ġshren ee
Ġkhil aaf
Ġrem ains
d ers
Ġv ij
Ġtrans port
Ġsang hat
Ġsaam aajik
Ġn ames
Ġprob ably
Ġa age
ah at
Ġserv ices
e ign
Ġf ace
ail y
Ġt arg
Ġwe ap
Ġb ang
ĠSc ot
Ġb ane
ĠUn der
Ġrah ata
Ġhe alth
st ant
ĠF ort
Ġsh ri
Ġch all
ĠF inal
Ġb it
Ġle kh
aramb h
an ces
Ġcount ries
ĠL ake
Ġprak ashit
Ġsam aan
Ġpro p
un a
Ġsold iers
ĠW al
Ġfoc us
Ġd ata
Ġte xt
Ġdep art
Ġ199 1
Ġbuild ings
ĠZ e
ĠS ar
Ġinclud es
Ġcop ies
Ġa at
Ġv oice
Ġpaan ch
ang a
Ġext ended
ĠII I
v ik
Ġpra ya
ĠS pe
c el
ĠSqu adron
Ġre ally
ĠS ince
at ah
Ġlyric s
Ġg ram
w in
Ġprom ot
ĠTr ans
ĠAtl antic
ĠJ o
Ġcol on
is es
Ġfl ag
ĠU TC
Ġiss ued
1 5
Ġbatt les
Ġn orm
ĠCong ress
Ġ4 9
Ġ199 3
ed ia
Ġs ik
Ġm al
Ġdist rib
Ġc hikits
Ġm rityu
Ġsuff ered
ad hi
Ġk it
ĠJ im
Ġimmedi ately
Ġbaa har
ĠB ig
ht e
Ġgo als
k ram
ĠFlor ida
ig yan
om s
Ġmaan av
Ġniy ant
Ġremov ed
ĠP et
Ġbre ed
ous ly
ir ikt
Ġro yal
Ġmix ed
Ġal ways
Ġad minist
Ġpriv ate
Ġlik ely
Ġa us
ĠO ld
Ġabhin ay
ĠT or
Ġoffic ers
Ġinit ial
Ġs ain
ĠJ ew
Ġv ia
Ġp hil
ant on
and al
Ġloc ation
Ġcomp an
Ġce leb
Ġp ow
ach ar
Ġex tra
ĠD ist
Ġstat us
ĠL aw
Ġvill age
Ġjag ah
Ġle ave
Ġincre ase
est ival
Ġinst r
Ġst ra
ĠQue en
b ury
Ġvis it
Ġinform ation
if y
Ġl aa
Ġproble ms
ad an
or por
d ro
Ġm ut
ĠTex as
ĠCh ina
ĠD V
Ġ5 7
ip al
ant r
Ġpr inc
an ks
ĠB oth
ĠB ur
Ġim m
Ġsubsequ ently
Ġpl ans
ĠM r
att a
Ġterm s
hip s
Ġprat ik
ĠHigh way
ĠE arth
Ġ4 8
Ġd omin
ĠT own
l ight
Ã ³
Ġ q
il s
Ġcomp uter
Ġsomet hing
Ġpeh la
Ġh okar
ĠH ow
ĠL ord
uc le
Ġp aar
Ġelect ron
re me
Ġs ch
d own
Ġem b
ant e
orn ing
ĠAn other
et te
Ġpra ch
Ġ194 0
em s
Ġadhik aar
m aat
re m
ĠTe ch
Ġhe art
Ġya haan
ĠM ax
Ġm om
Ġc a
Ġoff ered
Ġth r
viron ment
aay aa
Ġa ust
Ġmeet ing
Ġrahe te
Ġc and
Ġt ons
Ġ5 8
Ġvik sit
ak er
ĠE mp
e x
Ġat irikt
ĠW ood
Ġl if
Ġprad arshan
ĠCar ol
um ents
Ġan c
Ġinter se
ven ue
Ġmajor ity
Ġcons ist
Ġc ause
Ġd aal
ĠB oy
ĠR ail
Ġul lekh
Ġappro ach
Ġprofess ional
ĠCan adian
h o
Ġfin anc
ari yon
Ġstand ard
Ġappe ars
Ġcon cept
ĠAfric a
ĠS ir
Ġun it
ro t
art a
ĠDe p
Ġal tern
Ġsanghat han
Ġindivid ual
ur ies
on a
Ġm un
ank hya
Ġy et
ĠCent er
ĠC he
ac hes
ce an
Ġbrit ish
ĠIt s
Ġpl ot
Ġconf ir
od a
Ġpl at
Ġ18 3
Ġutp ann
Ġan u
Ġad op
am ed
um n
ig ar
Ġdam aged
l ad
Ġcle ar
Ġassoci ated
Ġus ne
w ell
ur ity
Ġmak es
Ġtak es
Ġrank ed
Ġ3 9
Ġsh own
ad ed
ĠCent ral
Ġcompos ed
ĠRuss ian
as ya
Ġcont ains
Ġmil i
Ġp et
Ġd ut
un ke
Ġdas hak
Ġfl ight
Ġc er
od h
Ġneed ed
Ġreve aled
um ed
Ġl aks
ol a
Ġatt acks
ĠN ort
Ġd arshan
Ġt ap
ĠC le
Ġv ot
Ġk ap
aat ak
Ġpartic ular
ĠSe ver
Ġ193 0
ĠT V
Ġrespect ively
it ude
it ted
Ġdiscover ed
Ġra ised
ĠB ow
ĠC amp
Ġimp act
Ġb ene
Ġjiname in
Ġdis p
ĠK ent
Ġnum erous
ĠN ot
Ġqu al
ĠDV D
Ġnum bers
Ġpak istan
v aj
Ġp aat
ĠT ur
am in
Ġcoun ter
Ġv ar
ĠAngel es
ĠC ha
Ġve h
Ġm it
n es
Ġis amen
Ġcommand er
Ġa ar
ve en
Ġk ala
ĠGro up
Ġinsp ired
Ġn ature
Ġant im
ro wn
al p
Ġin ch
ĠD is
g ra
m ain
Ġl ived
Ġtra de
Ġlaun ched
Ġhind u
ĠSup er
ĠM el
u als
up t
ĠE r
ĠE v
Ġj ay
Ġup per
Ġindust ry
Ġvya kt
Ġshuru yaat
u an
Ġoccur red
Ġcondition s
c i
Ġvis hay
Ġh our
Ġrecord s
Ġmov ing
Ġ17 9
a ction
h n
Ġs ales
ĠH al
Ġattempt ed
Ġar chitect
Ġ4 00
Ġbel ow
Ġshar ir
r ant
Ġattack ed
Ġraj d
a ult
Ġsc ient
el i
ch ing
ĠM ur
Ġwho le
v is
ĠM iss
un ki
inn er
Ġd hyaan
u x
Ġiss ues
Ġb irth
os aur
Ġact ive
Ġj ati
ĠO ut
Ġwe bs
Ġcrit ical
aar th
l it
ars hi
ak o
Ġan al
Ġan ub
Ġth ink
ĠY ear
ã ĥ
ĠCon t
Ġshr in
Ġad van
Ġp ath
ap riy
v ar
d ing
Ġar ab
st ra
Ġn ay
ver t
hi gan
Ġde kha
Ġso ft
Ġsing er
Ġcha p
Ġlist ed
Ġmet hod
Ġsele cted
Ġsl ight
Ġh ol
ĠEmp ire
Ġy ards
ĠP enn
6 0
ĠJ ose
Ġrefer red
Ġprim ary
ks hit
Ġpra yek
Ġsmall er
1 4
Ġk ath
Ġshar e
Ġ4 7
at ri
ell ow
Ġult im
Ġaavashyak taa
iti ya
Ġfin ally
Ġdefe at
Ġele cted
Ġs aad
ou ra
ug e
Ġresult ed
ĠSte p
n ic
air s
Ġdr um
Ġc as
Ġc it
Ġart ist
Ġport ray
Ġm ission
1 7
Ġleg isl
Ġw ord
ins on
ut ions
Ġoper ation
at ti
Ġass igned
r ate
ĠIt alian
Ġm ale
Ġbl ue
udd ha
en ant
Ġ4 2
Ġdem on
Ġch uk
Ġs pl
Ġl ink
Ġlarg ely
Ġr ate
Ġsugg est
Ġdoc ument
Ġoffic er
Ġconf lict
um an
Ġm ic
ĠW ill
Ġprak riya
ak ing
Ġrepl ace
Ġv it
ll ed
Ġst hal
Ġunder st
Ġsec ret
Ġ6 4
Ġex pected
Ġclos ed
Ġe arned
Ġbo oks
Ġlet ter
Ġma arg
Ġbad ha
Ġcomment ed
Ġdou ble
Ġcover ed
ĠFran cis
ĠMart in
Ġw a
ol s
ĠCor ps
Ġha ath
Ġs ac
on ly
Ġm ud
Ġeduc ation
Ġaud ience
ff ic
Ġ5 5
Ġm iddle
Ġmet er
j it
Ġk in
Ġy ug
ict ed
e ch
s ar
ut h
Ġsc hed
ost on
Ġsp ir
ĠRe v
Ġbh inn
Ġun able
Ġ4 4
Ġtradition al
Ġs id
Ġr at
Ġl os
og ue
Ġ15 0
Ġfriend s
ol f
Ġatt ention
Ġen ergy
Ġs ister
ĠV iet
ed ic
Ġnew sp
Ġd raft
h old
ast ic
Ġref used
Ġna e
ĠC rit
igh ter
Ġsk ool
y m
Ġma ha
Ġland s
Ġcont em
Ġkilomet re
Ġthem e
Ġb ab
Ġtai yaar
ĠC r
ĠMic higan
ĠM ass
Ġo pt
Ġsaam aanya
Ġhis saa
Ġ il
Ġj ans
ĠC at
an ik
Ġcom pl
ĠO l
Ġme ant
ct ing
ĠW ales
Ġinclude only
1 6
Ġk ab
Ġj un
ant asy
Ġangre ji
ĠL ong
Ġbl ood
iz ing
Ġab ility
Ġex am
ath olic
ut ch
Ġde pression
Ġdecl ared
ĠD av
Ġkan oon
Ġg iving
Ġre pe
Ġa fric
Ġperforman ces
Ġlik haa
mir al
ĠG ar
Ġsam arth
Ġg od
m ik
und red
ĠO x
Ġk ind
haar it
Ġmet al
Ġrelig ious
ro ad
Ġconst it
Ġsha shan
Ġfight ing
Ġ198 9
Ġprodu ce
ri er
Ġma atra
ĠT est
od ies
ers ey
Ġsc ience
ĠF er
Ġrec over
ĠAn n
ly wood
Ġquest ion
Ġne cess
Ġ7 8
ĠN et
emor ial
Ġmat ches
Ġlok apriy
Ġpur ush
Ġf ast
Ġa ane
i que
u a
p ass
s en
w ide
Ġg reen
Ġ5 2
Ġpur aa
1 1
Ġb ina
Ġyoj ana
ro dh
Ġrap id
Ġc hak
Ġcompet ition
is her
Ġy our
ag ing
ill a
ans ion
Ġser ious
Ġ194 2
haay ta
ĠB at
Ġpar amp
Ġmov ie
Ġm ention
ĠMaj or
Ġhon a
ov ers
ĠF ar
ĠMin ister
Ġ #
Ġl age
ĠL ab
Ġto uch
Ġvoc als
in id
Ġt um
Ġprad han
Ġa ab
ĠM att
Ġsam m
Ġw ing
ha at
Ġb ach
Ġd om
Ġg eet
ound ed
ch on
ĠSever al
ĠTe am
ĠW in
Ġcount y
erv ation
Ġj am
ĠC ons
Ġab andon
i ences
Ġcont act
M S
j oy
Ġsa haayta
j ar
aramb hik
Ġp ul
Ġsway an
qu ar
Ġks ham
Ġjan vari
Ġc ust
Ġkh oj
Ġsepar ate
Ġf al
Ġcar bon
Ġconst ructed
stit ute
y es
Ġcol or
Ġdirect ly
un ity
h ouse
ĠT ime
Ġaccom p
ĠS um
ul i
ĠF ox
Ġfe at
Ġma ar
vent ion
Ġpract ice
Ġma xim
Ġshrin kh
Ġd al
ish op
Ġex cept
Ġl ene
Ġcontin ue
Ġun ivers
Ġconc ert
Ġn ib
Ġhigh ly
cha at
Ġafric a
n ot
ars hit
Ġme ans
v ement
Ġp and
Ġm u
Ġpust ak
Ġg and
ĠF our
ing u
Ġnear by
Ġg yaan
ĠZe aland
Ġk hat
e che
Ġc hief
et a
Ġcomb at
Ġpresent ed
Ġm ob
Ġd ance
ib ly
Ġse vent
ĠH aw
Ġlevel s
Ġutpaad an
Ġra hane
Ġposition s
ĠAfric an
it ation
in king
ac her
Ġann ual
Ġreduc ed
Ġnot es
ĠMexic o
gar h
in ary
Ġb ud
Ġo il
ĠB u
os en
ag n
Ġcontro vers
Ġch or
Ġpad aarth
g i
ĠCh ris
Ġva ast
Ġg i
ĠW all
Ġaks ar
hik a
Ġkaary kram
er o
w as
Ġ192 0
Ġad ult
he el
Ġcult ure
ĠH ung
Ġne igh
ĠDem ocrat
esh war
ith vi
Ġed ition
it an
Ġl ee
Ġadv ance
Ġv o
Ġatt ended
Ġtri ed
id i
ik aran
Ġvik ram
Ġn ucle
Ġaccept ed
Ġn i
Ġ18 2
aad hik
ac ing
ĠS k
Ġhor se
Ġcand id
ĠB rad
pl ied
Ġdire ction
Ġt el
ĠSt one
ĠB ob
Ġpad d
Ġkum aun
l ike
Ġtw enty
ĠO s
Ġg al
Ġ6 5
ham mad
Ġ194 5
Ġsour ce
ĠMad onna
Ġcon gress
f ect
Ġpah un
Ġst ating
ĠT re
Ġ4 3
Ġvibha ag
Ġnew s
w rit
Ġre in
o es
ĠB C
Ġleg al
ess ed
Ġc ases
Ġinst it
Ġpariv artan
ter y
ĠScot land
Ġm em
z il
Ġp le
Ġd im
Ġny aay
id er
ie f
ĠJ ones
Ġschool s
Ġch o
Ġdis m
Ġs adi
Ġpr int
Ä ĩ
Ġk ram
Ġsang h
Ġus es
rap ati
id han
Ġp ati
Ġprast ut
Ġsub s
ĠH am
ĠV er
c haan
Ġgovern or
ĠT im
ĠThe ir
ĠS o
igyan ik
Ġv aj
Ġins ide
Ġy ard
Ġn ai
ĠC ross
ĠG reek
ĠDep artment
ĠK enn
Ġmar riage
Ġ194 4
Ġd il
av ik
Ġo vers
Ġk intu
Ġth ick
Ġsam sk
Ġrec omm
ian ce
ill ery
Ġeffort s
Ġput r
ĠP ost
ch al
Ġman aged
Ġmur der
Ġresult ing
Ġspec ific
Ġhy dro
Ġm orning
Ġhe ro
Ġend ing
ill ed
Ġpur s
Ġ ik
Ġpro pos
Ġvyav astha
Ġw ords
Ġmulti ple
ed s
ir es
Ġc ell
ĠL oc
Ġvari ety
Ġkal ak
Ġen vironment
Ġpre c
Ġvid y
is ation
ĠTh ree
Ġan up
Ġform s
Ġsy mb
ut enant
in et
Ġ4 6
Ġn ation
Ġmean ing
Ġinc orpor
uj u
ĠC are
Ġshow ed
Ġrespons ible
Ġrajd hani
Ġdrop ped
Ġt im
Ġseem aa
Ġke pt
ard en
ag a
ĠF oot
Å į
gy pt
Ġne eche
Ġbeg ins
Ġsu vid
ĠInf antry
ĠL ad
Ġen joy
itihaas ik
ĠO p
tra ck
Ġag ast
Ġqu ality
Ġp aaya
e v
Ġpre m
Ġcer em
ĠSim ps
ĠServ ice
Ġcycl one
al u
Ġbhag waan
cl aim
Ġb ag
Ġav as
Ġra chana
Ġsak e
t hel
ar bh
Ġha st
per or
Ġa art
p a
ceed ed
Ġ198 8
ĠRec ords
Ġhe tu
Ġv ip
Ġsch ol
Ġhous es
Ġgre ater
Ġmark ed
Ġprad arshit
ĠWilliam s
Ġs ap
Ġse arch
j on
ĠF in
Ġs aar
Ġun c
u z
Ġk os
Ġsam aapt
ĠC reek
Ġche m
ud h
Ġin ches
Ġka hani
Ġp ick
Ġ194 1
Ġcontin ues
ĠM od
Ġshrinkh alaa
A S
Ġt ail
ĠG ames
Ġeconom ic
Ġback ground
h r
ĠâĢ Ŀ
Ġmed ical
Ġtul ana
Ġ198 7
Ġg erman
Ġl ap
Ġaad hunik
Ġr ule
Ġand h
Ġsqu adron
ĠPar liament
ĠSec ret
op er
ul ations
Ġj une
ell ig
Ġbe at
Ġra kh
Ġinter p
ĠSt an
ik sha
ĠP an
ĠSoc iety
ub e
ĠE gypt
um ber
Ġj ok
Ġelect ric
Ġfar m
Ġstart ing
d ha
Ġpar am
1 3
Ġh undred
g s
Ġsett le
Ġl ot
Ġallow ing
Ġc orn
ĠL uc
ist ry
Ġcondu cted
Ġshe ers
Ġproper ty
Ġse g
asth an
Ġdis ambar
j ati
th ur
is aki
Ġwebs ite
yad a
ĠS ur
om a
Ġz ile
rup t
k al
Ġch h
Ġstr ugg
rad esh
i el
Ġw o
il ing
ĠS il
Ġ198 6
Ġis liye
Ġb az
Ġth ings
Ġc ard
Ġsp ot
Ġpot ential
Ġpres ence
ĠJ er
Ġap ril
Ġj uly
Ġs apt
Ġnirv achan
Ġpraya as
f ort
Ġ ess
g ian
Ġsp asht
Ġim age
ĠBe c
ak es
Ġa ate
per ial
ĠS outhern
ĠComm ittee
Ġview ers
Ġm ind
Ġsit ambar
Ġfor eign
Ġmet res
Ġcont rast
Ġv in
ĠL atin
Ġsc oring
Ġb order
ĠPr ince
Ġpra ant
ĠU p
Ġs ides
Ġnik al
ĠT w
Ġth ir
ĠB ridge
Ġo on
ĠâĢ ľ
ĠL ee
ee kaar
ĠStep hen
Ġfinanc ial
Ġjans ankhya
Ġde vi
Ġtrans l
Ġtransfer red
Ġvarn an
Ġshi v
ĠOx ford
Ġman us
ĠS a
Ġbecom es
Ġgh osh
Ġob tain
Ġtra ffic
Ġst ories
ent al
Ġcolle ction
ĠH el
Ġdel ay
ĠCap tain
Ġg at
ĠC amb
ver y
Ġmil taa
Ġpeak ed
Ġut tari
iv i
Ġprav esh
Ġen emy
Ġ5 4
ĠNew s
Ġvoc al
Ġma uju
Ġpashchi mi
asht rapati
Ġfound ed
it v
al ing
ĠJose ph
ist ics
Ġenc oun
ĠCl ass
Ġown ed
s hi
Ġto day
Ġv er
ain e
Ġvid hi
Ġmil a
Ġtarg et
ĠL ike
st one
Ġatt end
Ġanim als
han g
Ġapp ar
Ġpolic y
Ġan k
Ġprabha vit
ĠAd miral
Ġport ion
Ġd og
Ġattempt s
op h
Ġconclud ed
oc key
ĠC hief
v ak
Ġst one
Ġprim arily
ha g
ĠB oston
Ġrel atively
Ġcast le
Ġindepend ent
Ġf ederal
ĠH or
Ġact ually
Ġwrit e
Ġresp ond
kar ee
ov a
Ġpur vi
hans abha
Ġsc ale
and h
Ġp sy
Ġ194 3
Ġto urn
ad el
Ġop port
ĠD ire
ĠMan chester
T V
Ġ Î
ateg ory
Ġme chan
ĠJe ff
Ġsang rah
Ġz yada
ks he
ĠHar rison
Ġkh ud
m ark
Ġya di
ĠSw ed
ian o
Ġdist ance
Ġse at
ĠD ar
Ġcont ent
Ġpie ce
ĠBec ause
ĠBe fore
for ce
ys is
Ġobs erved
ĠS ol
ĠDe f
Ġfig ure
ĠH urricane
ĠW ind
Ġwat ers
Ġact ing
Ġlab el
r ight
Ġc amer
hak ar
Ġact or
Ġtit led
ĠB BC
ic ed
Ġjour nal
Ġo kt
Ġsw asth
Ġvist aar
Ġwrit ers
as han
Ġpat tern
Ġfeat uring
ĠW ay
Ġdrusht i
Ġstreng th
re l
ĠF red
Ġthe ory
Ġokt ober
ĠComm ission
on ic
Ġp ack
Ġa ag
hamp ion
om y
8 0
Ġh us
Ġk ah
Ġaart hik
Ġdist inct
Ġp urna
ab eth
Ġsitu ation
Ġch ina
Ġr ing
Ġduus ari
ĠL ife
Ġhaal anki
Ġwith dra
Ġchar ge
Ġadhik ansh
Ġpar ents
Ġjo b
ĠL ine
ĠO tt
Ġpass eng
oc ks
m ission
Ġer a
Ġdis e
ĠG i
Ġtri al
Ġm aster
Ġraajnneet ik
Ġdiv ided
ĠSer ies
Ġon to
ĠL ittle
haa ya
Ġcompan ies
Ġplat form
Ġcol lab
ĠBatt alion
Ġconc ent
ad em
Ġb ound
ĠCol umb
if t
Ġd ab
ak h
p ose
ĠS pec
Ġslight ly
Ġa ata
Ġpar antu
ĠEnter tain
Ġr ating
st ein
Ġch itra
Ġm ish
Ġc ab
ĠD un
umb ai
Ġmaxim um
ĠPar is
Ġbro ke
Ġpower ful
eng al
Ġa i
esh th
Ġt a
Ġs elling
ĠM at
Ġ198 5
Ġcon ver
ĠAr m
ĠHist or
Ġmin im
Ġtor ped
Ġinn ings
aran ces
Ġst esan
Ġc inem
ĠL o
Ġud yog
Ġv im
Ġplay s
Ġa ctions
Ġg ati
ir i
ĠB us
van ia
Ġre ject
Ġl ic
Ġmad ad
ĠP op
Ġ198 4
Ġsus p
am ous
Ġsam asya
Ġvid hansabha
ha av
Ġgra ph
s aay
Ġsqu are
aan i
Ġmot or
ĠAc ademy
Ġultim ately
Ġro ugh
Ġdesign ated
Ġcomplet ely
an es
Ġki mi
Ġis lam
Ġnav al
Ġat y
r ig
ĠCro at
Ġs hik
aa ki
Ġ5 3
Ġchan nel
Ġ6 00
Ġfilm on
Ġresult s
Ġprat inid
Ġproble m
te g
ĠY oung
Ġp aal
el a
al le
Ġl ig
ind u
ĠS aint
Ġsoc iety
ĠMus eum
Ġs ought
A F
qu es
Ġaak aar
Ġmain ly
ĠM ore
ap ore
Ġy atra
Ġpadd ati
Ġs out
le kin
Ġwin ter
Ġpura ane
Ġactiv ity
und ar
Ġ ice
Ġud des
Ġsour ces
ol ved
in ated
os raa
Ġsuc hi
Ġb ott
ĠA rab
or a
Ġpr ithvi
Ġmag n
l ines
Ġvid haan
Ġh ospital
Ġth ous
Ġs av
Ġa f
aay u
Ġcomb ined
Ġcal endar
Ġsecond s
Ġofficial s
Ġcall ing
ĠEntertain ment
ĠCon f
w ai
Ġstr uck
as a
Ġrah ati
Ġv ess
ĠD en
Ġinflu enced
Ġsang ra
Ġt un
Ġrequ ire
w hile
Ġsans karan
Ġin g
ct ic
ĠIt aly
Ġnik aal
at am
ĠA ut
or i
Ġcon sec
ĠN H
Ġalong side
ĠV an
Ġrak hane
Ġaust ral
Ġgl ob
Ġnort heast
s i
Ġk osh
Ġrec ent
Ġuddes hy
Ġsystem s
ĠM ul
Ġval ue
agan ana
Ġpad aa
it ness
ad ing
Ġp av
Ġ17 7
ir ing
ĠBr igade
Ġdel iv
Ġdik haai
Ġ9 7
Ġgreat est
r ative
ĠAmeric ans
Ġm ata
s her
Ġe ye
Ġs ust
Ġk ya
ĠI re
ĠR ay
Ġk is
ne w
Ġart ists
Ġpu ure
Ġre form
ĠSt r
Ġeng land
Ġsiddh ant
Ġ à
Ġart icle
Ġc row
Ġp ee
Ġus ee
Ġnomin ated
Ġb urn
yon d
Ġe th
aap an
Ġsthan eey
Ġtr ue
Ġdr ug
Ġg ained
Ġdist rict
ang al
Ġwe ather
Ġjaan karee
ip ur
Ġwid ely
aag at
Ġt ahat
s a
ĠT od
Ġconfir med
Ġfar vari
ul ed
quar ters
n ed
ĠIre land
Ġm antri
ĠS ub
ĠReg iment
l as
Ġbe havi
ĠG ood
Ġb uddha
Ġprom oted
Ġprach lit
p ool
us ion
Ġpass ing
Ġhe re
Ġaab aadi
Ġreach ing
Ġres ist
Ġsamsk ruti
Ġkar m
ik sh
Ġpro ved
Ġjo in
Ġhus band
ĠS hi
Ġdu uri
l ers
ĠA venue
Ġhand s
Ġexpl ained
Ġcoun cil
ro g
Ġpil ot
Ġa al
os a
Ġpe ace
Ġnorth west
Ġksham ta
Ġsubsequ ent
ĠFle et
Ġs ens
ini um
pr ise
Ġcom ing
Ġes c
Ġalbum s
hi d
Ġstud ies
ĠL ie
Ġst reet
Ġban aae
Ġspe ct
Ġvers ions
Ġsamarth an
Ġdharm ik
ast haa
Ġniyant ran
Ġinv asion
Ġre kha
ani yon
u y
eg a
ĠOr ig
on n
Ġdw eep
Ġsix th
Ġghosh naa
p it
Ġbha i
t ation
at ar
Ġaay aa
Ġa isi
ple ment
de v
Ġyoj it
Ġser ve
Ġdig ital
Ġsay s
Ġl in
Ġshort ly
Ġc ities
ut t
Ġred u
Ġexpress ed
Ġcaus ing
Ġphys ical
Ġb ik
Ġ5 6
Ġjan aganana
d y
Ġla unch
t own
Ġs ense
Ġrece ption
ĠVictor ia
ĠV ol
Ġtow er
l ie
ĠC atholic
Ġt ip
ip edia
ĠT ropical
Ġsam rajya
iz abeth
Ġk g
ish y
pt on
Ġpras has
aj a
Ġadhya ksh
Ġsex ual
ĠVal ley
Ġs ports
Ġv il
Ġvr uddhi
Ġres idents
Ġparin aam
Ġvish isht
Ġp aper
et ar
ĠL ive
Ġem ot
ĠL ight
ĠE le
Ġdr ive
ĠC y
Ġt able
Ġj e
Ġ9 5
Ġpr er
Ġst adium
ig at
Ġbro wn
ĠM iddle
Ġ197 1
Ġ196 8
Ġpraka ash
Ġk ad
Ġh un
Ġseason s
Ġd ang
Ġappe arances
Ġcommun ic
Ġvyap ak
Ġsans krit
n ay
Ġ {
Ġold er
Ġ iron
Ġstud ent
Ġbad h
Ġident ified
Ġjin hone
emb ly
Ġj aae
ĠW at
ĠW W
h is
Ġsen ior
aav aran
Ġoff er
Ġdoll ar
Ġ8 5
Ġarm bh
w here
ĠSt ud
Ġav oid
Ġbeg in
Ġd edic
ĠR a
ĠCar l
Ġt ells
Ġst ep
ĠSh ow
is aa
Ġ197 2
kn own
Ġf an
Ġshe ll
Ġrepresent ed
Ġsura ksha
iv ity
eeks han
ot y
g ia
igh th
ĠD ani
Ġlaw s
ic ks
b aad
ĠIn de
Ġsud haar
Ġwe ight
Ġfl oor
Ġart illery
Ġh ors
ĠC ra
b ad
s ing
in us
Ġ4 1
ac u
our ed
Ġbat aaya
c ar
Ġcomp ar
Ġweap ons
Ġa head
man a
Ġ196 7
Ġinstr ument
ĠFoot ball
Ġjin hen
Ġro b
ĠTh rough
ĠT ri
Ġp age
Ġneg oti
Ġsp read
ĠT ay
Ġnird es
Ġal one
Ġp ed
ĠW eek
an on
Ġ198 3
z ar
Ġheav ily
ĠD utch
ped ition
Ġk he
Ġmat ter
Ġsaam ne
ĠU pon
Ġkar en
ar ian
Ġchikits a
Ġrefer ence
ac haar
ĠF e
Ġpr ishth
ĠT em
ĠT op
ĠJ ul
har a
Ġset ting
Ġdef ense
Ġud haaharan
Ġn ob
ograp her
Ġoffic ially
Ġd aa
Ġpo et
il ly
ĠI ll
Ġsound track
Ġp ict
Ġgrow th
Ġe as
ĠH ome
Ġ9 9
Ġorgan ization
Ġexec utive
Ġl aal
ac ity
Ġ198 2
Ġequip ment
Ġcapt ure
Ġfig ures
Ġres c
Ġbaz aar
an ic
Ġdeb uted
Ġinj ury
Ġ12 0
Ġ193 9
Ġprom inent
an ge
Ġh all
ĠR og
Ġcons isted
Ġsw eekaar
Ġv en
Ġj ar
Ġjis ane
Ġsans ad
ĠSy stem
d o
Ġbhoom i
Ġtech ni
Ġfir ed
Ġdo ing
he w
ĠC ivil
Ġcha ir
Ġsu it
Ġvis hes
r ance
Ġc ert
Ġhot el
Ġdef end
ĠB ond
ĠI S
Ġb ed
Ġsing les
Ġha bit
Ġarg ued
Ġk rishna
st ruction
Ġair ed
Ġf at
war oop
n eey
Ġ5 9
if ying
ian a
Ġbh ug
ch and
ĠM en
ĠH y
Ġ197 5
ant ly
Ġ7 4
t an
and han
Ġcou ple
Ġe arth
man it
Ġcontem porary
ĠH omer
Ġreturn ing
Ġprote ct
ut ing
h ood
us hed
Ġlead ers
ĠTh ough
Ġel se
Ġdou b
ĠR om
Ġra ashtrapati
Ġd yn
ell er
Ġt ree
Ġkar n
ĠNort hern
ĠR am
v y
Ġaffect ed
Ġa im
Ġla id
Ġed itor
Ġur ja
Ġav adhi
Ġsanst ha
f ilm
ĠH ard
Ġrak t
Ġpie ces
ĠB or
Ġ197 9
n an
Ġn ak
sha q
Ġ196 9
Ġa itihaasik
Ġmaintain ed
l an
un der
z y
Ġun iversity
Ġactiv ities
Ġcom es
Ġwe b
Ġlaa bh
aat mak
Ġ *
Ġm aa
es hi
or ks
Ġocc asion
Ġnir mit
Ġvis ited
Ġtourn ament
Ġspe ech
a ya
Ġpar eekshan
Ġc art
Ġsamband hi
int end
im et
k an
ĠM i
Ġcritic ized
ĠJ on
ur b
ĠSt orm
Ġ196 4
Ġsapt arshi
Ġworld wide
est ic
bo x
Ġ197 3
Ġg ir
Ġcit iz
ock ed
clus ion
c ell
Ġgu est
Ġ7 2
Ġpash chaat
Ġ196 5
ĠCarol ina
ĠGovern ment
y am
Ġf er
udi os
Ġform ation
Ġmil akar
Ġsant haan
Ġk ris
Ġas pect
Ġad apt
Ġre ign
v ard
Ġto ward
Ġniv as
ru it
Ġfe ed
Ġele ment
Ġterrit ory
Ġplan et
im a
Ġgu ard
Ġsad as
hen s
Ġum r
Ġt rying
Ġd ub
Ġst ations
Ġcrow d
t am
ĠScott ish
el ve
Ġat m
uck y
r ane
er a
ĠC D
Ġpaid aa
Ġmach ine
ĠDist rict
Ġfollow s
Ġ7 6
velop ment
Ġl it
sy l
Ġtre es
ut i
ĠO cean
Ġn iti
hi o
ĠW rit
Ġs pring
Ġking dom
Ġf ram
Ġvyav saay
Ġf air
om ers
ĠOper ation
Ġf ully
ĠM D
Ġbird s
Ġthere fore
ĠSh ort
ĠGovern or
Ġsur vey
Ġacc ident
Ġclaim s
Ġadd ress
Ġf iction
ars ha
ĠF antasy
Ġdi z
Ġhom es
Ġpan cha
ĠF ield
ĠBack ground
Ġad j
Ġreport s
ic ient
Ġhistor ian
stit ution
rit v
ĠCast le
Ġsup ply
ĠGu ard
Ġ197 6
led ge
ĠR od
Ġtreat ment
ĠCol on
Ġt u
Ġch osen
ĠB a
Ġrain fall
Ġfrequ ently
ĠD uke
ĠP ers
Ġa pe
oj na
is ters
Ġp aksh
Ġ196 6
Ġsah yog
Ġt on
F A
Ġtw ice
ad s
ast e
ry st
os is
ĠM arsh
ĠL ew
Ġdram a
ĠG irl
Ġcan cer
Ġop in
Ġhy p
iz es
ĠSt udios
uch it
Ġ197 4
B A
Ã ¨
im b
Ġbac chon
Ġescap e
Ġdesc ript
ĠPol ish
r ich
Ġt aap
Ġsank et
Ġspir it
ĠG re
Ġdo osraa
Ġkaar yak
Ġw ild
Ġle aves
Ġpah chaan
f e
Ġsim ply
Ġnik at
uf act
Ġ201 8
Ġvyav haar
ã Ĥ
ĠE astern
Ġ6 2
Ġprat ish
Ġbill ion
Ġraj asthan
Ġsil ver
ĠLi ber
ric ult
Ġn or
en c
Ġ5 1
Ġent er
Ġkh and
ĠSen ate
Ġwall s
Ġman ufact
ĠN ight
ya haan
ĠS n
il it
Ġas ia
ag ree
Ġ17 8
Ġf aced
Ġ8 00
hy at
Ġ6 6
Ġpras hi
Ġoper ated
aap as
Ġtyp ically
Ġmom ent
m o
r ical
ĠL ib
Ġcont ained
ĠAnd rew
Ġm ist
Ġarm s
d in
ĠC orn
ha se
w all
Ġg rew
ĠB art
Ġsurround ing
ĠD am
Ġdin on
ok t
Ġcan not
ĠDe v
Ġmanag ement
Ġim press
ĠH an
Ġaus at
ĠChrist mas
Ġpun jab
Ġt ask
Ġdi am
ĠPenn syl
Ġel im
Ġexper iment
Ġp i
Ġn ative
Ġher self
Ġwick et
Ġparamp ara
m ond
Ġf uel
os hit
Ġ0 9
Ġw ounded
Ġpass es
ĠAll ied
ĠMe an
Ġchall eng
Ġatt ra
Ġm ant
ĠD et
in y
Ġpa ha
Ġp as
ĠR et
Ġnot hing
Ġra ashtra
ĠWil son
Ġatt rib
Ġadvan ced
at o
ab h
Ġauthor ity
ful ly
Ġpr aa
ĠTay lor
ĠS S
Ġv ote
Ġe g
Ġl ives
ĠW hat
Ġor ders
ĠAlex ander
Ã ¤
Ġass ault
Ġshoot ing
Ġconsec utive
ĠE s
Ġhon or
Ġw aapas
Ġshi ft
Ġser ving
Ġun known
Ġyog adan
Ġmauju ud
Ġ194 8
Ġb ass
ult an
Ġop posed
Ġchal aa
ent ed
ĠO f
Ġsha adi
ap ur
Ġch ose
Ġlag ata
um i
Ġemp has
Ġact ors
ĠP en
Ġviv aah
Ġwork ers
ĠJ ac
Ġnew ly
Ġ7 7
Ġgrow ing
Ġnet ritv
Ġro ll
Ġcoll ap
Ġon line
ĠE ach
Ġparticip ated
Ġb or
ĠJ oe
w ater
Ġp ich
ra in
Ġbene f
Ġk at
ess ions
ha ane
Ġproduc ers
Ġ198 1
Ġsuvid ha
art i
Ġcas ual
Ġra ksha
Ġm arg
y ata
ank a
aay i
Ġnorm al
ĠF estival
Ġswat antra
Ġbas is
Ġsequ ence
Ġco al
ĠBl ue
Ġse ek
ĠN i
Ġlos ing
Ġcap acity
Ġadop ted
Ġfilm ing
Ġneg ative
Ġhe ard
Ġad h
Ġf lying
Ġth ik
Ġoff ensive
Ġtem pl
Ġin iti
Ġsever e
ĠPennsyl vania
Ġs we
Ġag ent
lik hit
ĠIs lands
Ġsadas yon
Ġ197 7
Ġop pon
Ġoppos ition
ant raa
Ġup g
Ġanus andhan
ĠC ard
ĠChar t
ĠB ab
ĠIn stitute
Ġcreat ing
Ġris k
haa yak
Ġnewsp aper
Ġbo at
Ġend s
Ġnim n
ĠG all
Ġsan ra
Ġb ij
ree y
Ġpol l
Ġk er
ing er
ĠJ un
Ġadv ant
Ġn aatak
ĠS ound
Ġse v
Ġprast aav
ĠT hir
Ġstr ike
t hen
Ġprodu ct
Ġsand arbh
Ġhors es
Ġ x
ĠM ike
Ġal i
Ġpar iy
g on
ĠRe ception
ĠI rish
lad esh
Ġv aa
g u
ĠC a
Ġprom pt
Ġabandon ed
Ġr ival
Ġsy m
Ġsambha v
Ġlek hak
ĠF urther
is ers
ed om
is se
ĠBe at
Ġagre ement
Ġexp ansion
Ġbhashaa on
Ġch oti
Ġma ang
Ġele v
Ġ25 0
m ore
Ġcont ain
Ġ6 7
Ġa wards
g h
adel phi
ĠR adi
Ġcol umn
Ġdet ii
ur at
Ġmeas ure
ĠHar ry
Ġpratish at
Ġsam iti
antraa a
u ous
ĠSp ain
ĠJ ersey
Ġland ing
l av
us es
Ġindivid uals
Ġregard ed
ak a
Ġfl u
Ġfail ure
Ġhistor ical
m outh
y at
Ġswasth ya
m al
Ġse mi
Ġfilm ed
c ul
ha ps
ath y
p ond
ot ic
Ġst ore
Ġim ag
Ġ191 8
Ġma id
Ġint ellig
Ġbe yond
Ġcritic ism
ud yog
Ġn it
Ġha ir
Ġinc ident
Ġadminist ration
ell a
Ġdis ha
pl ies
ĠCo ast
Ġd ial
Ġ201 7
ĠSqu are
ro om
Ġin hen
Ġtar af
Ġnot e
adelphi a
ĠP ublic
Ġf amous
Ġjan ata
Ġbhe etar
os i
Ġnecess ary
ĠD an
vaj anik
Ġde ploy
Ġ194 7
ĠF orm
Ġ197 8
Ġposs ibly
Ġ6 3
s et
Ġb odies
k ins
Ġin hone
Ġrec on
Ġdism iss
Ġg amb
19 9
Ġpar alle
Ġbelie ve
Ġâ Ī
Ġap plic
Ġste el
Ġprati yog
Ġre ar
ap ers
ific ations
Ġg ad
Ġkam i
Ġ191 4
Ġv ak
Ġachie ved
m et
Ġide as
Ġpr arambh
Ġdise ase
ĠF re
uc hi
Ġhas il
ĠIs ra
ĠB re
Ġarth ath
Ġmahila on
Ġlak h
k et
Ġro les
Ġdef in
Ġnar row
Ġsamud aay
Ġst ri
ari o
rop hy
Ġl en
Ġis se
ĠL and
ĠPro duction
Ġret ired
ran ge
Ġkill ing
Ġfell ow
i enced
uc cess
ark ed
iver pool
Ġpee che
ĠM id
r in
ic i
ch hee
y t
rit ik
im ate
Ġinf antry
m at
Ġro w
end ra
ee b
ĠAr thur
ĠB ul
ĠRev olution
Ġrepe ated
p ati
Ġsol o
ta ur
is han
Ġr it
Ġbe aut
n g
ok ing
ĠBro ad
Ġpur pose
Ġt aaki
Ġper man
Ġtra v
Ġlead ership
Ġ7 3
ĠD a
Ġeffect ive
Ġt i
ĠD ue
Ġtorped o
v ish
ĠP erson
Ġar med
ĠL es
Ġtri p
Ġw ave
Ġ194 6
Ġbrief ly
Ġv aar
Ġrece ive
im ents
Ġinter change
ĠBo ard
Ġ196 2
ĠEl izabeth
Ġcross ing
Ġspl it
ĠS and
ĠC ub
Ġanim al
Ġgrant ed
st ream
ĠG erm
Ġbud get
Ġ16 0
Ġsha kha
Ġt ry
Ġjay ega
in ity
Ġle arn
Ġup anya
Ġin teg
Ġperson nel
Ġroad s
Ġpl ants
Ġreject ed
Ġs ort
Ġgro ss
ĠDo ctor
ĠM os
Ġimpro ved
Ġtyp es
ĠMean while
Ġde ck
Ġra chan
Ġcom ic
Ġpad ataa
Ġtw elve
ĠD ur
ol n
ĠRepublic an
Ġkhil aadi
Ġkilomet res
Ġtechn ology
Ġsur r
ĠAl bum
Ġext ensive
por ters
ig er
aval ry
Ġpat ni
ĠU l
Ġ195 6
ari b
Ġf ranch
Ġpre fer
Ġstra ight
Ġvaj ah
Ġdescrib es
Ġcult ural
Ġturn s
Ġexp anded
ut ik
Ġbro ken
ĠL ind
ĠO hio
2 5
f al
Ġy ellow
Ġhigh light
Ġex hib
Ġch oice
act er
ĠR os
Ġpl aces
z er
Ġev acu
is f
c Ã©
al am
am em
av an
Ġa id
Ġg ives
ĠC ham
Ġsec urity
b reak
w at
ĠSecret ary
Ġsuccessful ly
Ġand olan
ti re
ĠBo ok
Ġvij ay
ĠA re
Ġan uk
Ġdid n
Ġ8 7
asth it
ro ll
Ġpar ib
ĠJ ud
orn ament
4 0
Ġexpl os
Ġj ul
Ġ196 3
il and
ĠS R
Ġthe atre
Ġ ic
Ġg uru
Ġcre ation
ĠG al
Ġorgan ized
Ġkav i
ĠB as
Ġf ought
ast ra
Ġt end
ĠD oug
Ġper fect
ĠM ov
Ġha j
Ġprote ction
Ġca ught
ol t
ay s
Ġsugg ests
Ġsevent h
h us
Ġcomm ittee
et ts
Ġveh icles
Ġnucle ar
Ġis lands
Ġcommission ed
aan a
Ġassoci ation
Ġro of
Ġcha h
Ġacqu ired
ĠE ven
Ġsam maan
Ġdaksh ini
Ġanc ient
Ġprak ritik
w orth
Ġstr ik
s hik
aaye in
Ġlook ing
ĠCamb ridge
Ġpariy ojna
ĠGeor gia
ill ing
ĠAl so
Ġhe ight
ad on
Ġmus lim
g al
Ġm uj
Ġj h
Ġsoft ware
ĠE p
Ġli ber
Ġar c
Ġjis aki
Ġw al
Ġ6 9
Ġcon vers
Ġf ish
and i
Ġj at
Ġch it
Ġsa haayak
Ġset s
ĠH it
Ġcommon ly
Ġal le
um es
ĠPhil adelphia
Ġcom edy
Ġangre zi
Ġenc oura
cl es
r ary
rit hik
ani ed
ĠAd dition
Ġdeterm ined
iy r
Ġk r
Ġrequ est
Ġstand ing
ĠH on
Ġgen us
Ġauthor ities
Ġgand hi
ap ane
Ġcontro lled
ig g
op her
Ġp esh
Ġhead quarters
att le
Ġk as
Ġrec ently
Ġmention ed
out s
cha e
ĠRuss ia
Ġcha ah
Ġac id
Ġcent uries
m un
o ye
Ġprov ides
st ead
ĠK ar
Ġm umbai
ag i
Ġill ust
Ġand ar
Ġe c
ĠS und
m od
Ġb engal
Ġg ather
y aad
Ġcont aining
Ġdo ctor
han th
ut ation
Ġva hi
s hire
burg h
Ġfamil ies
ĠN ever
Ġun ique
Ġfind s
Ġn rity
Ġdec re
rest ling
intend o
Ġdep ict
Ġf ran
ĠP oint
Ġfr esh
ra k
Ġent ertain
Ġk ick
Ġad vert
is p
ĠR el
ad ak
ĠW ars
Ġa y
Ġd anc
ĠAm ong
Ġp iano
ĠL iverpool
Ġtit les
Ġexist ing
Ġd hire
Ġg ang
ash mir
ĠDe velopment
Ġch uke
Ġsing ing
Ġ9 6
Ġvid ha
ra q
y les
art s
Ġcon ference
ĠN intendo
res pond
ograph ic
Ġt ank
ĠColumb ia
Ġn ag
Ġth ing
ĠR ol
Ġfin ish
ĠPr ime
Ġanub hav
sk rithik
ĠAs ia
ĠComm on
it led
av i
Ġa ank
Ġma al
Ġswat antraaa
Ġsaar vajanik
Ġbatt alion
Ġphil os
Ġs port
Ġad vent
Ġentire ly
aal on
ĠL inc
Ġli br
rid ay
ĠP ot
Ġsaam agree
ĠB ad
Ġparib haas
Ġor che
Ġgan anaa
ĠJe an
Ġsha h
Ġw alk
ĠHe ad
Ġs in
Ġa w
ĠW el
Ġpow ers
Ġf ix
Ġcontrib uted
Ġa j
ĠM ot
Ġcon ve
ĠKore an
ĠB urn
Ġst ock
ee karan
Ġsim ple
ĠLinc oln
Ġk atha
Ġpraband han
p et
ĠG il
ĠV en
le ton
Ġwh y
Ġac chhee
ic ial
Ġtouch down
Ġatm osp
Ġd arsh
Ġdef ence
Ġdef ined
Ġav asthaa
ai re
ath it
Ġthem es
Ġaty ant
Ġ191 7
Ġyoung er
ĠBra zil
is ha
ĠK en
Ġdet ect
Ġk riya
ĠPe ople
Ġspec im
Ġparis had
Ġanu waad
ĠLie utenant
har sh
Ġcurr ently
ol es
ĠOff ice
Ġwor th
ĠOr der
Ġqu ite
Ġflood ing
Ġo lymp
Ġdw itiya
Ġdef ensive
ip s
ĠAr g
Ġindust rial
igar h
Ġmount ain
atur es
ĠJew ish
Ġloc ations
A T
p o
Ġsched uled
k ai
Ġ201 9
int on
Ġhouse hold
Ġpurcha sed
Ġd urg
ag er
Ġ8 8
ĠSing apore
Ġlag u
ĠB alt
Ġun us
ĠFrancis co
Ġvict im
Ġarr ival
Ġres emb
Ġmany ata
ir t
oun der
Ġ6 8
Ġcerem ony
Ġadvant age
Ġaccomp anied
ĠS ix
Ġva igyanik
Ġex pedition
Ġt alk
ĠGr ant
Ġg end
el ess
Ġsark ari
in ke
Ġanum ati
ĠP o
Ġdedic ated
ĠE ll
ach us
ĠDis ney
Ġ196 1
Ġs han
Ġperform ing
ĠP ress
S tation
ĠK ey
Ġm outh
Ġext rem
in th
ĠH ay
och na
Ġsele ction
ĠâĪ Ĵ
Ġf il
Ġpain ting
ĠCare y
d em
ĠLew is
Ġga iyr
Ġe ch
Ġhold ing
Ġanal ysis
Ġn ij
Ġt amil
Ã¡ n
Ġlaks han
Ġt ii
Ġobs erv
Ġmount ed
n ers
ĠPlay Station
Ġintens ity
ĠL u
ash ion
Ġd aily
Ġg ur
y er
Ġlet ters
Ġb en
Ġj aa
Ġp hen
Ġoccup ied
z en
is hes
m id
ul s
ĠU r
Ġaut om
bhar tiya
ĠH MS
Ġcar ry
ĠS us
Ġmy th
ĠB ell
ĠD ie
g han
z ant
Ġcons ists
ĠU N
Ġr ated
ĠD ark
he im
Ġsam manit
ord an
Ġja isi
Ġclos ely
Ġchar ts
Ġv ansh
aad ee
d ed
Ġr ise
m es
Ġb aav
Ġbal ki
v yav
ĠK el
ĠT urn
ĠCon ference
Ġs ession
Ġfor est
n u
ĠAnd erson
Ġbel ong
Ġcor respond
Ġfir m
Ġprote cted
ĠSte ve
ĠMill er
ĠRadi o
om ic
ĠH a
olog ist
Ġ ub
ord on
ĠOlymp ic
w ad
Ġag ar
Ġm ast
c op
ĠB rian
Ġparalle l
Ġvast u
j u
Ġs ut
ag le
Ġtra ins
Ġsupport ing
Ġesc ort
ĠI V
Ġro op
Ġ7 00
Ġ8 9
Ġlab or
Ġfac ilities
Ġaad hik
Ġbo ats
Ġad ap
Ġdekh ne
Ġsecond ary
sher eshth
Ġe yes
ĠOn ce
Ġdra wn
Ġcall s
ed i
Ġc hampion
Ġvaast avik
ap ar
Ġ191 9
ic ip
Ġjo int
Ġreg ions
ĠEn d
Ġt all
pe h
Ġmot ion
Ġraj yon
Ġc ra
ĠBy zant
ĠRail way
Ġest ate
Ġus ase
Ġreg iment
F L
Ġres ident
Ġshabd on
Ġac adem
ĠNH L
Ġvis ual
Ġstruct ures
oc ated
Ġmic ro
Ġz yaad
us ke
Ġpro s
c a
ig yaan
Ġsub mar
ĠS har
Ġnot able
n at
u va
em an
ru ce
por ation
ĠEm peror
ul ate
Ġex er
Ġwat ch
Ġb ranch
ĠW ater
Ġ195 7
Ġanum aan
Ġsa j
Ġcamer a
Ã ¸
ĠN ap
ann ing
Ġprov iding
Ġp ush
av ar
re ct
Ġrece iving
Ġopport unity
Ġvis haal
Ġfoc used
Ġk adi
Ġv ivid
Ġcitiz ens
Ġeng aged
on ia
rop ri
up ar
ĠJ r
rap radesh
Ġne ut
ĠSum mer
Ġ13 0
Ġli e
man n
Ġh ill
ĠG ulf
Ġexper ienced
Ġun f
Ġsit es
ĠC hap
2 2
Ġ191 5
y o
aan aa
Ġmus eum
g aa
ĠG er
Ġkris hi
Ġath let
ĠHol lywood
ĠSpec ial
ĠAt t
Ġsarv shereshth
Ġv on
Ġvol ume
Ġs undar
Ġre action
Ġind ia
Ġandh rapradesh
ĠOn ly
if ically
Ġsymb ol
ad u
ĠGerm ans
Ġrecogn ized
ĠWal ter
Ġtemper ature
l aa
r ik
Ġmod er
Ġ193 6
ĠDav is
ĠRe view
Ġview ed
Ġg ain
Ġnir nay
Ġ193 8
Ġmo hammad
ĠG ib
Ġun d
Ġshar ed
Ġr asht
ap aas
Ġmuk hyalay
A R
Ġh ired
Ġsout heast
ĠDani el
u hik
ac hi
Ġte ach
Ġin ke
ĠTi T
Ġ7 9
ĠTi P
Ġdo or
Ġm ash
cript ion
Ġpublic ation
a e
Ġto ornament
Ġrapid ly
n agar
Ġschol ars
ĠY e
Ġgat ivid
adhik ansh
Ġe t
Ġr end
Ġc old
Ġstreng then
ĠL et
Ġth row
ĠB ank
if orm
Ġsa hi
Ġ9 4
ĠDemocrat ic
ĠF all
Ġsh o
Ġal p
Ġproject s
Ġc ells
Ġadd ing
Ġtrans form
Ġpo em
un te
st anding
Ġcont est
un ka
Ġr are
Ġv ay
Ġtra il
Ġref lect
Ġeconom y
Ġfl at
Ġlag aaya
Ġ195 3
Ġex act
Ġchan ce
Ġp aint
Ġreg ister
Ġed ge
ĠSer b
Ġsaan skrithik
Ġcasual ties
ĠBet ween
m ath
ĠR ome
y ug
ĠBe yon
Ġm ig
haar a
Ġd ry
Ġ195 5
char ya
ast y
Ġ195 8
ĠJ our
Ġmuk t
Ġur ban
Ġdevelop ing
Ġ191 6
Ġt ik
at hi
pos ition
Ġgl ass
ĠG reg
Ġem pl
ĠTe le
Ġste am
at v
ur r
Ġinterse ction
Ġnimn likhit
Ġ }
Ġs ave
Ġ195 4
m and
Ġ195 2
Ġm art
Ġsha s
Ġjeet a
Ġc ars
c ome
ĠW omen
Ġchal ata
if ul
Ġappro ved
Ä ģ
Ġen l
Ġ9 8
ĠB al
Ġst rip
ĠN az
Ġdom estic
Ġg ol
se y
Ġnir maat
Ġact ress
Ġaadhik arik
Ġgo es
b l
Ġdis app
Ġap ar
ce ived
ĠE lect
2 1
ks hak
Ġhead s
ĠLad y
Ġk sh
Ġ195 9
Ġloss es
ĠD aily
ri f
Ġallow s
Ġrul es
Ġband s
Ġprepar ed
k ul
ĠM ain
ĠInd ust
Ġla ut
Ġbelie f
Ġsignificant ly
Ġliter ature
Ġco ol
ĠMus lim
in ate
Ġma atr
i ber
Ġvi rodh
Ġm ode
Ġt anks
Ġst ream
Ġve en
Ġw itness
Ġviv aad
ĠS E
Ġany thing
ĠM alay
Ġtown s
Ġl b
ut s
ĠN ic
ha j
ĠSy d
Ġabhinay ta
Ġg adh
Ġreason s
m arg
Ġparv at
Ġsha pe
Ġk new
Ġsouth west
Ġaam taur
ĠM u
Ġpatr ika
ĠT en
ag ement
v est
Ġhe n
Ġjaan ch
ĠBeyon cÃ©
ĠE arl
Ġmil ti
w art
Ġl ov
Ġma haan
Ġpras aar
Ġuns uccess
Ġmess age
Ġtr ust
Ġcolle ct
Ġchampionship s
Ġrough ly
ĠH un
Ġvid waan
ĠComm and
Ġkend riya
Ġc am
ic hay
Ġis ol
ill er
Ġresist ance
aj i
o ir
Ġaustral ia
B S
Ġsh all
ĠSt ation
os hi
Ġsim it
ĠF air
st ate
k er
Ġres erve
Ġ ign
ap pe
Ġfranch ise
w ise
Ġc ore
Ġd ow
thel ess
Ġ8 4
w ing
Ġj on
Ġr u
Ġchar an
ĠA D
v ya
ile y
Ġsak riy
v iv
Ġbrother s
Ġmaam le
ĠM em
Ġneigh bor
ony m
ĠSup reme
ĠColon el
j ood
Ġhog i
Ġag ricult
Ġm ir
Ġgame play
ĠS pring
Ġn ick
Ġrev ers
ĠA sh
Ġsam uhik
ĠR oss
Ġstory line
Ġy outh
Ġja isaa
Ġmiss ing
Ġemploy ed
Ġaltern ative
w ani
Ġa ath
Ġget ting
Ġinj ured
Ġper haps
ild ing
ĠKent ucky
ĠInde pend
Ġwat ched
Ġconne cted
Ġkosh ish
b ell
ĠM as
pr int
Ġopin ion
Ġview s
Ġcompos ition
il on
Ġpopular ity
Ġma he
un hen
b ound
aw are
Ġbaar i
Ġmob ile
Ġpra udyog
Ġ193 7
Ġ194 9
ĠP ict
in amen
Ġp hone
Ġdescript ion
Ġconver ted
Ġplann ing
Ġren amed
Ġregard ing
Ġpsy ch
ĠB ern
Ġ17 5
lo ad
ĠNor way
Ġaas apaas
ay en
ĠB all
rop ol
Ġdecl ined
g ers
Ġenjoy ed
ĠCh ild
Ġsub stant
uk a
Ġnird haarit
ĠAl b
Ġinst all
an cy
ĠM TV
Ġdep th
Ġsha ped
Ġkum aar
Ġd ena
ĠK ir
Ġ8 6
Ġrep utation
ĠOlymp ics
re ts
Ġban aai
ph one
ĠD ream
Ġbas ket
Ġd rew
ĠR on
ĠB ase
Ġolymp ic
ul pt
Ġst ages
Ġape ksha
et i
ad or
er ts
Ġre tire
Ġcred it
2 4
ak an
ĠR hod
Ġsthan on
ĠMass achus
Ġc ited
Ġdist ingu
Ġequ al
Ġknow ledge
Ġbaav jood
Ġeas ily
er al
Ġte es
Ġlim it
ĠG ram
r ations
Ġn aa
ĠAb b
ĠAir port
Ġpar ish
ĠMassachus etts
g ram
z ed
Ġsanra chana
arn er
Ġjour ney
Ġsur ya
Ġhead ed
Ġchuk aa
Ġbha utik
Ġaut h
Ġpra chaar
Ġex pect
s es
Ġbh ojan
att an
Ġincreasing ly
ad har
ĠA C
Ġsha asha
à ¦
ĠF ree
Ġe ld
Ġp aae
m uk
ĠCl ark
d har
Ġh its
Ġturn ing
ĠT ro
amil y
v arsh
Ġgu jar
Ġmahe ene
Ġcamp us
j ha
Ġ11 0
Ġcon g
Ġnir bhar
Ġappro ached
Ġal c
Ġconstit ution
Ġpa ud
Ġnij ee
Ġk ahin
Ġj or
Ġf ashion
ĠS el
Ġrespond ed
Ġlag ane
ĠAb out
ĠGold en
ĠG ree
Ġoper ating
ri ff
ign ment
aks hi
Ġoper a
Ġexist ence
il arly
ĠCl ar
atak a
Ġac ademy
ik h
Ġup achaar
Ġso ochna
ĠH art
Ġr ic
Ġcolle cted
Ġvidy ut
Ġsyn t
is hi
Ġb es
Ġre act
Ġch ini
Ġsuc ceeded
ĠD own
Ġsaf ety
Ġintro duction
Ġmod els
Ġs agar
Ġpra jati
Ġ9 3
Ġn as
ro d
Ġex change
n ik
Ġh ip
Ġcollab or
Ġshow ing
Ġpu ja
Ġdetail s
Ġocc as
ĠMc G
Ġglob al
Ġa ch
Ġimpro ve
Ġv ent
ig en
ĠSimps ons
ĠP u
Ġle arned
Ġmaan ate
Ġniy ukt
Ġsol id
Ġp hase
Ġr hy
Ġ195 1
Ġn aag
Ġsust ained
Ġpromot ion
r aaj
Ġswar oop
f riend
p es
â Ģ
asth iti
Ġscient ific
Ġpar as
Ġlag aat
Ġsam ar
Ġsafal ataa
Ġpl ate
o ok
Ġsang harsh
ĠSong s
Ġcar rying
Ġstat ement
Ġmed al
Ġaay ojan
Ġdiz in
op hy
Ġbase ball
Ġj ain
Ġ191 0
Ġassist ant
ĠIm perial
our ces
Ġk ashmir
Ġseem s
Ġhum ans
Ġform ula
as ham
ig ation
ĠR em
ĠViet nam
Ġj u
Ġcred ited
Ġs idd
Ġbur ied
ak en
ĠCap e
ĠI r
ins ula
Ġarrang ed
Ġit ems
Ġprogram s
ĠS her
Ġaa e
f l
Ġghat ana
Ġo d
and y
B N
c ol
Ġch ale
ĠOtt oman
Ġse ctions
b ro
Ġproduc ing
Ġg all
ĠA v
m antri
Ġdesign s
u ct
le cted
Ġpro ceed
Ġearli est
ĠB on
Ġweak ened
ĠPol and
Ġabhi yaan
a ug
Ġk avy
ĠSyd ney
ĠShort ly
Ġst re
ĠK a
Ġgadh wal
ino is
Ġsettle ment
Ġret ained
Ġpray ukt
t ime
Ġlast ed
Ġpolit ics
Ġc rown
ĠR oy
Ġac ha
Ġkend ra
2 3
Ġ0 6
ival ent
Ġfree way
Ġnim na
Ġdistrib ution
Ġt ag
ĠN aval
ĠMary land
Ġnay aa
Ġland fall
Ġseg ment
Ġun ion
Ġap plied
ĠPr in
Ġac res
Ġst rot
Ġreb u
ra cy
Ġex clus
ĠI G
ĠP ass
ĠR ese
Ġvishwa as
Ġ6 1
ĠMo ore
Ġw ars
iss ance
Ġgen re
ot hes
Ġch int
A C
e ction
v aal
ret t
Ġprote in
Ġ7 1
ĠAr ts
Ġindepend ence
in ic
le ep
Ġcon sequ
ĠJ es
Ġw r
eder ation
v artmaan
Ġkar od
Ġpra arambhik
Ġplay off
b ody
ĠM arg
Ġ0 8
Ġtempl ate
eg aa
i Äĩ
Ġnish chit
c ious
ong e
Ġv ac
Ġpun ar
Ġeurope a
ĠS at
Ġal t
Ġcandid ate
ĠWW E
Ġcal c
Ġviol ence
Ġf illed
Ġcoast al
Ġdut y
har e
ĠAn t
Ġpre t
Ġcomb ination
p ad
Ġent rance
Ġvim aan
Ġsc ulpt
are et
usht i
aa z
Ġma dh
Ġbat tery
k um
ĠW ho
el son
enn is
Ġjud e
Ġindic ated
Ġshe l
Ġway s
y ar
hed ral
haay en
ĠBow l
Ġlet e
ir ation
Ġbott om
Ġt act
Ġrev olution
Å ¡
Ġh ang
les han
Ġak raman
ti yon
Ġgradu ally
ra at
ĠComm un
ĠR un
ĠPhil ip
Ġba it
Ġdeliv ered
Ġ193 5
ir an
ie ge
r um
Ġdarsh ata
w ich
Ġstop ped
Ġz one
Ġeng ines
Ġprinc ipal
Å Ĥ
et her
Ġpart ies
Ġun amem
wai i
og en
it ors
Ġim ages
ĠUn ivers
Ġent ry
iz ations
cher s
ĠPre mi
ic ian
el ine
ĠJ an
Ġsamp ark
pect ive
Ġbhaag on
ĠMul der
Ġatt ract
Ġact s
aat h
ĠN ick
Ġrefer ences
Ġmanus hya
ĠC op
Ġcomp on
Ġtar ee
ĠG ordon
ob i
i ah
Ġsup plies
ud haaharan
Ġkaar yon
Ġfind ing
Ġche ck
Ġm emorial
Ġit yadi
Ġva ish
het ic
2 7
Ġva id
ĠSt adium
Ġdi pl
Ġappe al
Ġprison ers
Ġp es
Ġb om
ĠW ell
Ġch ota
Ġm ort
ĠM ap
re ll
ĠIn c
Ġ193 3
Ġbach che
iy ar
ĠPro f
Ġextrem ely
ĠRhod es
Ġb il
Ġadap ted
Ġprofess or
Ġsn ow
Ġsec ure
Ġeven ing
Ġb hed
Ġek al
Ġim plement
Ġvip areet
2 6
Ġj im
ĠR ose
Ġsw im
ĠK im
Ġempl oye
p y
Ġent itled
Ġdec ade
Ġt ick
ab les
Ġsa il
l ic
ĠB and
ĠF ire
ĠSt aff
ĠÃ Ĺ
Ġ19 00
Ġbas ic
ĠThe atre
Ġun cle
bour ne
Ġb ond
Ġs ell
erv ative
Ġb er
Ġparis th
as at
ĠJ ay
ivers ary
Ġpropos al
sen al
Ġw inner
Ġte acher
Ġsambha av
ans as
Ġbr igade
Ġrul ed
Ġinvestig ation
Ġr us
Ġcons um
ĠG am
ĠH ere
Ġland an
idd en
Ġst ret
ĠH amil
ĠAn th
v aale
Ġsh op
Ġredu ce
Ġthreat ened
ent ially
un ction
ĠE ric
Ġupanya as
le ase
Ġv ed
Ġrel ief
Ġintern al
Ġb ought
Ġprodu cts
ĠJust ice
ĠSp ace
Ġ8 3
ĠP ower
Ġspec ifically
Ġmaam alon
Ġpr ice
Ġsurv ived
Ġkn ots
Ġsir f
Ġbe em
Ġwrit es
Ġstud ied
Ġ0 7
c hen
ron ic
Ġk rit
Ġdeath s
o i
Ġrelig ion
T he
ĠD rag
ĠV II
Ġm ales
Ġro utes
b ra
Ġun p
ĠM oon
el u
Ġspe ak
Ġcaus es
p hir
Ġprashi kshan
Ġf ict
ie val
ĠIn stead
Ġsp ons
Ġs oul
Ġp urn
ĠA ge
uc ks
Ġcorn er
g am
o z
ĠM un
igh ters
ph oon
Ġv oted
pt i
Ġdr iving
Ġn is
ĠS hak
ĠJ ane
por ter
Ġbrit ain
k es
Ġma p
Ġag o
Ġelectron ic
Ġdep artment
Ġ Ø
Ġ id
Ġdr ess
Ġdr ishy
B I
Ġemer g
th an
a ctions
Ġd ream
ĠEng ine
Ġevery thing
ĠM emorial
Ġimport ance
Ġrec alled
Ġw ides
Ġcha ut
Ġrest aur
Ġbreed ing
rom e
Ġportray ed
Ġmed ic
ok ed
ing ly
Ġinter ested
ĠAl bert
ĠT ony
Ġcontrovers y
atin um
ĠIn t
Ġsan cha
ont o
ĠK ong
Ġne pal
Ġcap able
w eep
Ġ u
Ġoff ers
Ġcross ed
Ġon es
ĠF A
Ġreturn s
hit iv
Ġfound ation
Ġmem ory
av en
Ġr ich
ĠMc K
c rib
Ġap art
Ġmet ers
Ġpre ced
Ġown er
Ġvidha yak
pr at
Ġwe alth
Ġnomin ation
ĠDire ctor
Ġcon vin
Ġg ha
rid ges
Ġro se
ch ang
ĠAl an
ĠPhil ipp
Ġrecomm ended
Ġact ual
2 8
Ġt ell
re al
Ġgh oshit
ĠSing les
i ar
Ġin kaa
r ence
Ġf ly
Ġra at
Ġconcern s
Ġinst alled
Ġarr ested
Ġcr im
Ġma il
em ies
um a
Ġadhik ari
Ġobject s
Ġ17 6
im on
Ġd ates
ot tar
ĠAd ams
Ġbang ladesh
ĠSim on
ĠIG N
ĠCon stant
oy s
Ġad mitted
rad ed
Ġfund s
Ġpraudyog iki
m us
Ġinv ited
Ġret reat
Ġequip ped
ĠY our
Ġpen al
Ġbrah man
ĠCrit ical
Ġadh inium
sk y
Ġs ug
ĠW ild
ruct ure
Ġâ Ĥ
Ġmaan ak
aaj i
Ġprat ya
Ġc od
osaur us
inal s
ĠHamil ton
Ġpratinid hitiv
ur d
ĠF ound
Ġcon qu
ĠN BA
ĠBe ach
Ġf it
Ġstart s
s har
ĠA ri
Ġdemon st
ĠB ir
ĠB os
kn ow
Ġk id
re te
ĠA f
ĠV ideo
rane an
Ġcr ime
ĠC E
Ġe j
ĠAl f
ĠAd am
Ġremain der
Ġchar ged
ĠC irc
ĠP it
an j
ĠD ra
Ġev olution
Ġsheers h
Ġext ension
Ġvir t
Ġkos hika
ĠPl ot
Ġkath in
I A
Ġsome one
Ġprom ote
Ġus amen
p read
Ġb low
Ġrom antic
Ġrak hte
ĠRese arch
Ġ0 5
vel and
Ġcomm it
Ġmus h
t ic
ĠT a
ĠDe ath
ĠInd ones
Ġfem ales
Ġtak n
form ula
Ġconsist ing
Ġcompos er
Ġintellig ence
ĠI ron
ĠJ enn
Ġident ity
Ġn est
Ġh ope
o ard
ĠR i
Ġpar liament
ĠV ill
and ar
Ġp up
ĠLe on
ghan istan
Ġr ural
Ġb on
ĠC ult
Ġcl oud
Ġraj marg
Ġlag i
Ġcol our
Ġa er
Ġaay u
c hak
ĠG un
el an
R A
ens us
Ġte j
Ġtyp ical
Ġs kin
Ġconsider able
ĠPro ject
o oth
hi bit
ĠMed ia
Ġw ed
ĠNet her
Ġfield s
Ġlagaat aar
Ġf rag
ĠMil itary
Ġs aare
Ġsak asham
le ts
ĠA st
Ġkav ita
Ġ17 0
ĠTod ay
Ġj it
Ġtem ple
Ġso le
ad er
Ġread ing
Ġun ited
Ġman ner
Ġclass es
ĠTrans port
ĠKenn edy
Ġ ug
Ġt an
Ġdut ies
v ements
ut a
Ġ193 2
Ġground s
Ġhydro gen
Ġform al
og y
id ers
Ġha waii
Ġup karan
ĠSc ience
Ġ193 4
Ġperman ent
Ġoccur s
Ġcle an
ion e
al ee
Ġrem ix
ĠHow ard
Ġe ighth
ĠIn it
u i
Ġvist rut
ĠSund ay
j al
Ġequ ivalent
ens ions
ĠIndian a
Ġaspect s
Ġl ane
Ġcomp ris
Ġdec ades
Ġterm inus
ĠNor we
e f
Ġ192 1
Ġd haat
ĠIS BN
Ġalc oh
ĠL yn
Ġpas and
ĠW ork
at en
Ġfre edom
ĠPort ug
ale en
ĠSc ully
Ġd ated
im an
aat ar
Ġchall enge
Ġa ati
Ġh ockey
Ġp ig
Ġpaal an
ert o
ĠW alk
ĠHit ler
Ġl aksh
ch ant
Ġvol can
y as
ĠF ive
Ġlek han
os lav
Ġ192 6
Ġf ine
Ġnot ing
Ġnet aa
Ġpost ed
Ġnyaay alay
Ġfl o
Ġsarv aadhik
Ġpraka ashan
Ġg yaat
ĠB ry
ik rut
ub b
ĠS in
hya pi
ĠB ush
ĠSt and
reg on
ĠTur k
ĠB i
so ft
Ġdescrib ing
Ġvir us
a fter
ĠB rist
Ġ192 7
Ġinvol ving
ĠO b
ĠAss embly
Ġsup porters
Ġslow ly
Ġ193 1
iv als
Ġc ryst
AA F
os ed
Ġya hi
Ġobtain ed
er ted
Ġin her
Ġwar m
Ġt ivi
Ġent ering
Ġc ategory
Ġf oss
Ġdeb ate
w estern
Ġv ide
cap e
Ġjun ior
Ġvess els
m ic
Ġpat rol
ĠCon c
Ġfa ith
ĠD isc
Ġair port
Ġya d
ĠD ig
Ġy ani
Ġen emies
ĠCon stitution
Ġsh ots
ris is
Ġr ig
Ġintern et
Ġsett led
Ġcinem a
il ation
Ġcol ony
Ġold est
Ġt orn
ar es
ĠW eb
Ġ191 2
Ġconne ction
ĠMount ain
ĠRol ling
Ġse lect
Ġmul ya
Ġlik hi
ĠP ier
Ġarm or
Ġj apan
ĠMag azine
ĠH ou
ĠArg ent
ĠR yan
Ġro t
Ġchar chaa
Ġlaks hya
or gan
Ġsong writ
Ġrecogn ition
Ġconcern ed
Ġpurcha se
Ġpra g
Ġtaree ke
ag ues
ĠN ow
Ġcondu ct
Ġrank ing
ost er
Ġatt ached
Ġyog ic
Ġpat ron
ĠCle veland
Ġsaad haaran
Ġqu ot
Ġchem ical
Ġm ere
Ġinc ome
Ġjin ke
Ġg ard
Ġdecl ine
Ġhat ya
Ġder ived
Ġdepart ure
ĠIll inois
Ġn ig
Ġwides pread
Ġr i
Ġpre y
Ġdec or
Ġgo og
kshe p
he astern
Ġpras hans
et ri
Ġdem and
Ġbe ar
ĠE duc
ĠDoug las
Ġde leg
Ġacc used
Ġsur g
Ġsound s
ĠC ab
arg o
Ġdisapp oint
Ġass umed
ĠWeek ly
ĠIn di
Ġcert ified
Ġp y
ĠU t
ĠThrough out
Ġl ake
Ġd ro
ĠT reat
ĠFred er
r uk
Ġke hal
Ġhis se
it ya
ĠB ol
Ġ192 9
at us
Ġwe aring
ĠAnd y
Ġsequ el
Ġvishes hta
Ġn aj
Ġad hi
et on
Ġhat hi
Ġg athan
Ġpass age
Ġpun ah
Ġreal ity
com ing
ĠThir d
or ney
Ġhost ed
Ġcirc um
Ġgirl s
Ġac know
ĠStan ley
ĠFor est
ĠF amily
Ġac claim
ĠO regon
ĠPl an
Ġs essions
ĠS av
id ge
ich on
Ġmaan akar
Ġval ley
ĠL enn
ĠN ar
Ġcomm itted
ĠA pp
Ġthous ands
n ai
bor ne
ĠRog er
ĠAr senal
Ġreg ional
Ġtrans ition
ĠG a
oc al
Ġchar ges
cha i
Ġs ale
ang er
Ġ14 0
Ġf olk
ot o
Ġpop ulations
iter ranean
Ġt as
Ġnow iki
Ġp in
agon ist
Ġb oli
Ġag ency
Ġ191 3
ĠRec ording
ĠBeat les
Ġden ied
uk i
Ġfa is
at ro
Ġliter ary
Ġpar i
Ġsup posed
ĠB ruce
Ġaad esh
Ġj hil
ĠKe vin
Ġgener ation
ĠNorwe gian
udd en
Ġbhav ish
aad h
ĠMed iterranean
g ium
ĠJ ordan
amp arik
Ġvik ipedia
Ġbeg un
ĠPr inc
Ġj ur
ĠM ir
Ġsha st
Ġbha av
maat r
Ġf estival
Ġth in
ĠL ow
Ġwick ets
ĠBrist ol
Ġ192 2
y ukt
as hed
ra ge
ĠR ain
Ġstrong ly
k isi
Ġproper ties
Ġpary aapt
ĠD er
Ġo l
Ġan sw
Ġja il
ani um
Ġja w
Ġcirc ulation
ak sha
Ġfict ional
ĠChan nel
ĠO k
Ġreplace ment
Ġpasseng ers
Ġtat v
Ġposs ibility
Ġtechn ical
Ġs aint
ya alay
Ġprak ruti
Ġcy cle
ĠF ederal
Ġqu ant
Ġdr iver
Ġbehavi or
Ġt ub
Ġsa iled
Ġsub t
Ġanim ated
s ia
Ġf ruit
Ġmin ister
Ġread y
Ġyog ya
Ġn u
Ġsha q
Ġ8 2
ĠD E
achar ya
em ed
Ġmov es
Ġthir ty
Ġtakn eek
Ġutpaad a
Ġassist ance
ut ra
Ġdown town
d ow
v ens
v ansh
Ġn one
ap ak
Ġkar eeb
Ġpratiyog ita
Ġpat har
Ġkhel on
ps on
ut on
e z
ĠMexic an
Ġ0 4
Ġgerman y
Ġex ception
Ġpradhan mantri
ĠM aster
Ġr ar
j eev
ĠD og
Ġvol unte
Ġsamud r
Ġv as
iv aar
ĠR ow
Ġman or
ism s
Ġshe et
az a
Ġ191 1
Ġc rop
g n
Ġbring ing
p us
r un
al o
ĠG en
Ġdest ruction
Ġor ient
Ġcommand ed
ĠKore a
Ġincorpor ated
Ġcost s
Ġoppos ite
Ġfeel ing
Ġ192 8
ĠCol or
pl ace
Ġspe aking
Ġmiss ions
Ġmiss ed
w en
Ġdem ol
Ġlet aa
Ġw arning
Ġcr ash
Ġt antra
Ġbra in
Ġmethod s
Ġint ention
maan a
ĠD u
Ġt ied
Ġbha wan
ĠF ame
Ġvibha jit
Ġnaag arik
ens es
ak istan
Ġbreak ing
it o
Ġvyakti yon
us ne
hi a
Ġchaah ate
Ġunus ual
om ot
ĠWith in
Ġ9 00
Ġvid ro
Ġvid eshi
Ġm ent
oth ing
Ġavas ar
Ġnirmaat aa
ĠH ug
ĠSc ient
Ġfin ishing
an o
Ġk aan
il dh
Ġpr ash
Ġs ons
ĠL isa
od i
Ġsp ok
Ġalle ged
Ġro k
Ġstr ateg
va as
Ġatmosp here
Ġtat kaal
ĠAddition ally
Ġattrib uted
Ġserv es
Ġ ib
Ġt ark
Ġhe at
Ġn ovember
ĠF ore
Ġvid hyalay
ĠPh ill
Ġstay ed
op al
Ġemer ged
hat ar
Ġrecover ed
we alth
ar et
ĠAn im
Ġneed s
Ġdek hen
Ġik ai
ri ers
Ġdr iven
Ġs ki
Ġport ra
yad hik
ĠMor ris
ĠNor man
Ġr um
Ġv ary
Ġoccasion ally
Ġd ivers
Ġg han
ĠConf eder
ĠS ab
ĠChar l
b oot
Ġsat ya
Ġchor us
Ġpred e
Ġeffect ively
Ġnav ambar
Ġp ure
oy d
Ġclass ic
Ġbel t
ĠPri or
ĠF ord
Ġsc he
Ġsup erv
Ġmaterial s
ĠRob inson
Ġmit ti
s c
Ġma us
Ġreg ularly
Ġdiscover y
w ick
Ġestablish ment
Ġv aat
Ġpar iksha
Ġout er
Ġauth ors
ĠHaw ai
Ġc avalry
Ġkin are
ad d
Ġsar al
ĠTele vision
es haa
Ġ13 5
Ġd ha
so le
ĠG ill
Ġ192 4
Ġcour ts
Ġprov ince
ksh m
Ġa arambh
Ġm ole
Ġin aki
el le
ĠTem ple
Ġkar yaalay
Ġpart ner
P A
Ġma hav
ĠF inn
ĠP a
war on
Ġk ali
ĠB arn
Ġkend rit
Ġrespons ibility
ĠâĢ ĭ
Ġaccom mod
ĠN C
Ġsamp rad
Ġdiffer ences
Ġcomplet ion
Ġag gress
ĠA round
ĠSt ra
ab ase
ĠUn like
ĠCon struction
haay ee
ab led
or ter
in er
aad hi
Ġdiss ip
ĠN elson
Ġp yaar
ĠD or
Ġsepar ated
Ġinterp ret
Ġattra cted
Ġis h
ap i
aaya k
ĠN ations
ĠAn ne
ĠAn ton
Ġapp ropri
Ġother wise
Ġpers u
Ġgamb hir
ĠH ell
Ġdiv isions
Ġsurv iving
Ġan uro
Ġclass ified
ĠSwed en
Ġg am
ĠS ky
Ġbaj aay
Ġne ither
ĠN BC
Ġpl ane
ĠDe an
Ġ192 5
Ġm ult
ĠL anc
ath mik
we ight
g est
Ġs ed
es c
ĠA I
ram a
Ġaud io
ĠIsra el
ĠE ver
Ġmil te
act ive
Ġrem ember
Ġclass ification
y aa
Ġcommun ities
ĠPremi er
Ġpict ure
Ġco ord
Ġclub s
Ġfr ance
Ġp ank
pur v
Ġrat ings
Ġclim ate
Ġcru iser
Ġphot ograph
Ġbasket ball
d oor
Ġab oard
ĠMor gan
ic op
ĠPat rick
Ġdhar a
ar m
Ġst ood
Ġele ven
Ġmusic ians
och ana
Ġpit ch
Ġsamv idhan
Ġk had
Ġb indu
i ro
Ã³ n
Ġdes ire
aag ar
Ġroom s
w aar
ĠT al
Ġveh icle
ĠJour nal
Ġast ron
ĠWel sh
p ash
ĠN ich
Ġcat ch
Ġanc est
Ġrein force
Ġ0 3
ĠTor onto
in der
Ġs ata
Ġpenal ty
Ġprede cess
Ġm ath
Ġrequ ested
Ġ ich
ĠS ports
Ġy aad
Ġdis appe
Ġapp re
te enth
Ġsam bh
Ġrel ative
Ġvot es
Ġd ating
Ġfund ing
Ġghar elu
Ġra y
ĠCh ron
ĠByzant ine
ĠProf ess
Ġte x
Ġmov ements
ĠAll en
ob e
Ġseem ed
ĠUS S
d s
ip i
ĠE very
Ġbha kt
Ġbattles hips
w orks
Ġs ind
ĠP ow
Ġform at
ĠMatt hew
Ġgraph ics
ĠNether lands
Ġ ille
Ġma c
Ġr ug
ildh ood
j ee
Ġd ens
ut her
ĠM it
Ġra ise
Ġrest ored
Ġhop ed
n ir
he ey
ĠR ich
Ġar ts
Ġsur pr
Ġham aare
2 9
Ġg ul
ol ph
ab i
Ġim pos
Ġhistor ians
Ġprogram me
Ġum mid
Ġchair man
Ġma h
Ġvir uddh
ams waroop
i os
Ġdifficult y
ĠP ur
ĠDes ign
ĠI mp
Ġ20 20
ĠS u
Ġaccount s
ub le
Ġnik aale
ic it
Ġsh il
l on
ĠF I
Ġne p
Ġass emb
Ġbhe j
Ġmahar ashtra
Ġfe ar
ap a
o hi
ĠD NA
el er
ly n
Ġfl ank
Ġsad ak
Ġsat isf
ĠJew s
M A
ĠW id
Ġ9 1
Ġn id
Ġham eshaa
am ar
Ġk haas
á »
ĠS ax
ĠAg ain
Ġdelay ed
Ġin ner
Ġgreat ly
Ġpremi ere
Ġwr ong
ha bit
Ġma ans
ol is
ht i
Ġann iversary
Ġinsp iration
Ġsambhaav na
Ġsp oke
Ġsam jha
Ġbatt ing
ĠM ars
Ġinj uries
Ġprak at
n av
o os
Ġut s
ĠCent re
Ġdaa wa
Ġb in
Ġin se
Ġsurround ed
re ck
Ġcon vent
Ġtri es
Ġchun aa
w hat
sha h
Ġg arden
ĠC as
Ġstr ate
Ġgr ass
har on
ol as
ĠI raq
Ġstrate gy
7 0
r ang
Ġpra ise
ĠMar ine
Ġweap on
as m
ab or
Ġmil it
Ġch at
Ġmass ive
ĠL y
esh on
hem at
Ġarchitect ure
Ã ±
ul k
Ġlibr ary
ĠB ishop
ĠE st
Ġcons ult
Ġform ing
Ġv aayu
ĠA z
upar okt
r ating
ĠT rib
ĠMar c
Ġlangu ages
Ġclaim ing
Ġkhel aa
Ġpak ad
Ġdeterm ine
Ġdocument ary
Ġsam achar
aad an
Ġaccom pl
Ġchuk i
Ġres ources
Ġrec ru
ĠJ am
Ġinter ior
Ġtem porary
Ġmess iah
Ġma ut
ĠB urg
ĠP A
ik ta
itz er
Ġraajnneet i
ag re
ĠL ast
Ġstand s
ĠH op
hak t
Ġvyakt igat
Ġsain ya
Ġat yadhik
Ġ8 1
ĠAr men
Ġ192 3
Ġc ul
haa j
ĠPro t
b at
us aar
Ġcross es
Ġma hal
t ab
ar ation
Ġvya k
em et
ĠP C
Ġwor st
Ġjin ka
Ġsaa mana
Ġs end
Ġfl ed
aa hit
Ġens ure
oty pe
Ġsche me
ĠN FL
Ġsuper ior
ĠHe art
ĠCroat ian
Ġpar maan
Ġho on
ĠAr n
Ġsa u
Ġpahun chaa
E S
Ġmaj boot
ars i
Ġabs or
ĠIs lam
ĠRuss ell
Ġbomb ard
tern al
Ġinvol vement
Ġma han
ĠD om
on i
est on
ĠBar b
Ġv ans
ĠThom pson
Ġdismiss ed
ur ti
Ġsome what
ataa on
Ġadapt ation
Ġrem n
a han
Ġd ham
ĠR ac
Ġsura kshit
e or
Ġp ai
Ġv ert
b rid
en ess
Ġad m
Ġpresident ial
Ġsynt hes
be an
Ġconvin ced
ĠPu erto
Ġma ichon
ĠLib rary
Ġpart n
Ġinter ests
s amb
Ġimmedi ate
Ġcolon ial
ĠCo oper
ĠWin ter
g r
ac ent
ĠCar ter
Ġa stit
is liye
iv as
Ġabhin etri
D S
Ġmed ieval
Ġtechni ques
Ġres erv
Ġacadem ic
Ġe arn
go ing
ĠKel ly
Ġstre ets
Ġr if
chal it
i pl
Ġc raft
an an
ĠHol y
Ġvis ible
Ġeg gs
Ġ Å
Ġn inth
r us
Ġme ets
ĠBro ther
Ġfran c
Ġrom an
ĠH end
Ġclass ical
Ġfall ing
Ġw ings
ĠG ard
Ġbr ight
ĠMod ern
Ġthr one
ĠLab or
n ee
ĠAl ong
Ġim aar
ĠH ind
att is
els en
Ġpasseng er
ic ide
Ġl oyal
Ġdep end
Ġkalak aar
Ġf ighter
us ing
Ġra ces
Ġsum m
ĠW right
ĠN ob
han na
ĠK er
Ġcomm emor
Ġstar red
Ġ1 000
Ġd ars
ĠV ari
Ġgh ati
Ġgh ante
Ġlad aai
Ġn asht
ĠR ick
Ġob l
eg i
Ġadult s
Ġevery one
ĠHung arian
y gen
Ġrhy th
Ġur du
Ġvast av
Ġsurv iv
id ay
ĠB enn
Ġkha di
Ġchak ra
Ġhold s
Ġreview er
Ġs ultan
is are
Ġal ien
Ġsh ut
Ġantar iksh
enc ies
Ġsee ing
Ġy uva
Ġsubmar ine
Ġbe hatar
Ġpa udi
Ġfac ility
Ġdo ct
Ġup d
ĠTh us
Ġabs ence
y ard
ron ze
Ġsamp atti
Ġsal aah
Ġpremi ered
Ġren ew
Ġs ight
ĠA th
Ġgra han
ĠEduc ation
ĠTech n
Ġf itted
aad iyon
Ġcor rect
ĠCor poration
Ġencoura ged
ro it
Ġl em
ish k
Ġengine er
Ġfavor ite
ĠPark er
Ġconst ant
ĠPro v
Ġappear ing
Ġalm oda
Ġmod ified
Ġoper ate
v as
l ag
Ġastit v
Ġn il
ut tar
Ġcon clusion
Ġstand ards
Ġlead s
ĠBat man
Ġde emed
Ġele ctions
F C
k ee
ĠT ok
ĠS anta
Ġsh odh
ĠHar ris
Ġdrusht ikon
ĠI d
Ġsy nd
Ġcharacter istics
Ġquest ions
j ay
o en
Ġ ere
Ġf ron
Ġj iv
Ġattack ing
art it
or ia
Ġd uk
Ġprot est
Ġbrah m
ro id
Ġtemper atures
Ġg ap
te xt
ĠT ot
a ust
Ġcirc uit
Ġlegisl ation
Ġafter wards
Ġdistrib uted
Ġ190 8
Ġl ies
Ġar ch
Ġland ed
ĠMur ray
Ġcar rier
Ġ189 0
ĠSoc ial
Ġullekh neey
ĠR ap
Ġany one
l ock
Ġpaar amparik
Ġresc ue
Ġconve ction
Ġretire ment
Ġvish leshan
Ġ190 5
Ġor bit
Ġhe ar
Ġsuff ering
ĠKn ight
ĠL ate
ob ile
as ure
Ġd us
Ġan and
Ġsh uk
Ġshar k
Ġst em
Ġsamm elan
ow a
Ġpain ted
Ġcontrovers ial
ix on
Ġsqu ad
Ġyog a
haas aagar
Ġmuj he
ĠT enn
ĠD omin
Ġpl atinum
ĠPol ice
er ik
Ġg one
ter ing
Ġfl ash
Ġlook ed
Ġd aan
ur ches
ĠPal ace
us al
A r
ĠBer lin
n ar
s ang
Ġl ing
ten ance
ĠHou ston
ĠComm ander
Ġattempt ing
b ah
o a
ĠAd vent
Ġbelie ves
Ġrail road
ĠSt ory
Ġlik he
Ġgu zar
Ġfoot age
Ġpich ley
ha w
Ġkali yug
ĠO bs
p aat
ĠM inn
ul u
Ġbu y
s ki
ĠMar ia
Ġhabit at
Ġin habit
Ġha ar
ĠH ospital
Ġgener ated
Ġas pat
ropol itan
Ġf as
ĠR aj
Ġsec ured
Ġdep icted
Ġarrang ement
Ġar chae
Ġch ot
Ġkh ol
Ġg or
ĠCommon wealth
ĠY ug
un es
Ġlong est
n ight
Ġw ins
Ġimm ig
Ġdomin ated
k ari
ell ite
hy ik
Ġbig gest
Ġst yles
ĠG et
Ġcontin uing
ĠUS A
Ġjud ge
isht ha
ĠSwed ish
Ġto d
ĠC ategory
Ġaud yog
aab ar
Ġbattles hip
Ġma haasaagar
ud es
ind a
Ġa ur
Ġm alay
kar non
Ġgar rison
Ġch in
Ġtra p
ĠSil ver
f are
Ġsp in
Ġp ip
Ġne ck
ram on
Ġar j
Ġunsuccess ful
n els
y ot
st ic
og an
Ġvish yon
Ġt ib
ĠRober ts
ult ane
ĠIndi ans
Ġout break
Ġprer it
ĠJac ob
Ġzyaad aatar
Ġs udden
Ġtra ined
Ġsan chalit
ĠBe ck
Ġrepresent ing
Ġhistor ic
ĠM ort
h ra
ar ak
Ġappar ent
s ad
Ġbo il
Ġdoll ars
j id
Ġg ets
Ġmeas ures
Ġbar aabar
m ay
in ter
ĠTra ck
Ġachie ve
Ġchap ter
Ġacknow led
ĠN a
Ġjul ian
Ġna uk
ĠSimps on
e enth
Ġm ine
ĠAut hor
Ġrele ases
Ġcop y
Ġinform ed
b el
al ak
ĠW arner
Ġrep ro
ĠR AAF
Ġsurg ery
Ġs ke
ĠL ar
m ost
d ar
f ire
Ġclos er
Ġdemon str
l ok
Ġpad ak
ĠMer c
ig an
Ġcon vention
Ġb ats
du us
Ġ12 5
Ġj ame
Ġart icles
ĠO t
Ġek maatr
emet ery
Ġse es
Ġformer ly
Ġfact or
Ġpav itra
it is
ĠNet work
or age
Ġcontin u
Ġtaap maana
t at
ather ine
Ġn az
Ġ10 5
Ġparisth iti
Ġemerg ency
Ġrad ar
Ġing ine
p ana
Ġde pos
Ġ190 9
Ġviv aran
Ġw el
Ġr ide
aar atmak
Ġgra de
Ġo op
ĠJ ason
Ġdeploy ed
ĠYug oslav
Ġv eter
ĠAnth ony
ĠK at
Ġstr ing
Ġun iform
Ġlog o
Ġprat id
Ġf ur
Ġs iege
Ġj um
Ġha z
ac he
p hy
Ġprati band
Ġinstr uments
I S
Ġve get
Ġnov els
Ġdipl om
Ġin e
Ġpra athmik
Ġfir ing
Ġhel icop
n ames
Ġmoder ate
bh ut
Ġtri als
Ġinflu ential
na on
Ġsuccess or
Ġnib haai
ĠR AF
ri h
ĠCroat ia
b ing
Ġloc omot
Ġemot ional
Ġw arn
es ter
Ġunder t
Ġown ers
C A
te es
ĠDet roit
b urn
Ġdiscuss ed
ĠD ick
Ġex cess
Ġaal ochana
ĠFound ation
Ġfact ors
ĠT ar
ĠAs ian
Ġtre ated
Ġm ool
aar oh
ĠP ope
w l
Ġinflu ences
Ġmon arch
Ġnar rative
pos es
v ant
ĠG aga
Ġpol y
ĠCham ber
re es
art aaon
Ġsangra kshan
Ġf ounder
ĠX box
Ġlink ed
Ġp ull
Ġg anga
ant arik
Ġhapp y
Ġn ave
st an
ĠK h
Ġvikram i
hi yaan
og ram
Ġexper iences
Ġjournal ist
Ġt one
Ġ190 7
m aa
pe are
Ġch ildhood
Ġgi ant
ĠPrin cess
i yaan
Ġbr and
ĠSam uel
Ġv el
ust ed
Ġdef ended
ĠOr gan
Ġenvironment al
Ġappar ently
Ġs ure
ĠL aur
Ġo cean
Ġse ed
Ġoffic es
s ible
Ġgranth on
k han
Ġthe or
Ġco ins
t ure
Ġa x
im ore
Ġsamm ilit
Ġvictim s
ell i
Ġass ass
or g
Ġexec uted
ĠSpe ars
are erik
Ġleg s
Ġvast uon
f ar
Ġna hi
Ġsw ami
Ġalcoh ol
ĠJes us
Ġinc om
aks har
antar it
Ġh ataa
ĠC art
Ġsc rap
ach ment
Ġvit tiya
Ġsheers hak
Ġcomp aniyon
Ġsk ills
Ġkr anti
n oon
Ġprefer red
st ances
ĠB ou
Ġdiffer ence
at an
Ġkar e
esh nal
m ate
Ġ9 2
ĠW y
Ġcha in
Ġchal ane
Ġwood en
Ġb ind
ĠRe al
Ġdesign ation
ĠNi elsen
ĠS omers
ĠB ed
Ġhun ting
Ġg rey
Ġent ers
riy aaon
ĠS i
ĠMel bourne
Ġhundred s
ĠV ice
ĠEx press
ĠEv ans
ĠO ak
rut t
Ġfoot bal
ĠR ad
et ime
us ter
Ġka ise
Ġst ead
Ġad heen
ut or
Ġres igned
Ġinst ance
pr as
Ġrid ge
Ġpratik riya
or ous
Ġa up
Ġim pr
Ġdev ice
ĠCl inton
Ġchar itra
Ġpoint ed
Ġwat ching
Ġc ateg
Ġc ub
Ġprof it
Ġcust om
Ġgujar at
Ġn ain
Ġreve als
Ġ uchit
Ġb id
Ġab d
ann y
Ġdel iver
Ġdisplay ed
hi v
ĠSte wart
Ġpoet ry
Ġen han
Ġco in
ved a
Ġshahar on
Ġrelationship s
ĠNever theless
Ġint ent
ĠM P
Ġpat na
ĠCol l
ag u
ĠW ing
Ġtak anic
amb h
Ġthous and
haa jan
ij an
Ġmud ra
b aa
Ġan ant
ĠL im
Ġprevent ed
Ġa yog
ĠT ower
Ġval ues
Ġtest ing
Ġv ul
id ency
ĠR aw
ast a
Ġad haar
ĠHe avy
ĠBro ok
Ġpancha g
Ġl ob
Ġst hir
Ġba han
Ġfac ing
ĠOrig in
Ġvis ion
Ġhar m
Ġparticip ate
Ġfram e
Ġra ashi
Ġz ar
g aar
Ġp ages
Ġdrum s
Ġmaid an
m ith
Ġp ushed
Ġy atri
Ġhapp ened
Ġprashas an
k intu
Ġthere after
Ġfle w
m ph
ip pi
Ġparin amswaroop
Ġvisit ors
el and
ĠB ird
Ġform ally
ĠTurk ish
Ġox ygen
Ġe asy
ur ance
haa on
Ġres ign
ush ing
Ġoppon ents
Ġreported ly
or er
Ġle arning
Ġint ense
taa h
Ġhand ed
Ġboy s
Ġh uge
og ether
ate ey
Ġto ll
Ġnot ably
Ġsans hod
Ġis ai
Ġanim ation
Ġtem por
Ġkal endar
Ġex isted
ĠH ans
Ġdepart ed
y ank
ar ia
Ġb ak
Ġf ra
Ġra cing
ĠSar ah
ĠLenn on
ap e
Ġad haarit
olk ata
j amin
Ġby pass
Ġrem ove
d esh
if er
Ġannoun ce
Ġsurr ender
ĠGree ce
taa on
hind i
Ġaccomp any
o kshm
Ġd os
Ġhe aring
Ġg upt
Ġmed ium
ĠQue ens
Ġdetail ed
Ġunderst and
arib bean
Ġemploye es
Ġp ound
Ġpubl isher
ĠAust ria
Ġav o
olog ists
Ġsid he
ha st
ug u
Ġnorm ally
ĠBalt imore
Ġadhik tar
ĠL ane
Ġex posed
S P
Ġperiod s
Ġsh ore
Ġext ent
Ġdial ogue
ĠAlbum s
Ġexer c
Ġli qu
ida e
Ġvide os
v aan
ĠColor ado
Ġk ings
attis garh
hel m
Ġ190 4
Ġdraw ing
Ġint el
w on
ĠC re
Ġbe ach
Ġshe sh
Ġmil ane
Ġkhar id
Ġte eth
Ġut il
Ġ190 6
Ġresident ial
and ra
ĠS out
Ġre un
ĠC ur
Ġsubstant ial
Ġarr est
a ise
Ġkeep ing
Ġunivers e
Ġt ests
Ġr aay
ks hi
Ġdoes n
Ġcrim inal
o is
ull ivan
ĠTh or
Ġconv oy
in hone
ĠB ang
Ġreb ell
ĠWrit ing
ĠMarsh all
ĠR oc
Ġdi agn
Ġ188 0
w ari
haa yad
Ġvaa han
Ġexam ples
Ġst able
end ment
Ġchaar on
Ġwind ow
Ġcru isers
Ġrakh ata
ĠC R
Ġag ents
ic ians
Ġwhe el
ĠH orn
Ġniyam it
Ġgram in
Ġimpress ed
g l
che ll
ĠEr n
ĠHor se
at ically
Ġm amm
ĠC hi
Ġsap taah
Ġex pos
ars on
rat or
ĠInit ially
Ġn ic
ĠGu y
ĠC all
ura d
Ġafter noon
Ġdek hte
Ġniyant rit
Ġsam aaroh
Ġterrit ories
j ag
ĠS on
Ġent hus
b ridge
Ġs hir
Ġdik haaya
Ġfall s
in kaa
ĠD ave
Ġcan c
Ġt ie
Ġbet e
ĠBr ig
Ġta ught
ic ipal
Ġra b
um ph
Ġreview ers
ĠH uman
Ġenthus i
l ah
Ġb acter
st ers
Ġjim med
ĠFreder ick
Ġra id
ist ani
Ġnirdes hak
sh ri
we in
ril anka
Ġisol ated
Ġparmaan u
Ġfe ud
ĠCon ne
Ġjud aa
d rew
vers e
Ġimpr ison
ĠAp ple
Ġsym pt
Ġoop aadhi
Ġg ate
ĠC am
ĠW restling
Ġup n
asc ar
Ġvess el
as er
ĠM L
ĠB ure
ĠB anks
ĠD C
Ġdiam eter
Ġse ctor
Ġpl us
Ġaudyog ic
Ġbha sha
Ġlamb ey
Ġcommun ist
in hen
un i
uk ti
Ġaay e
Ġlic ense
Ġengine ering
ĠH aving
Ġindic ate
Ġpick ed
Ġmain tenance
Ġor d
ĠR h
Ġpra maan
Ġlo ks
Ġnegoti ations
ĠSomers et
Ġgood s
Ġunc ertain
Ġr ud
ĠJ ess
Ġpras ad
Ġj ap
Ġun ase
ĠOp en
ĠA k
Ġam ar
Ġencoun tered
Ġappre ci
Ġag ed
Ġinter cept
Ġl es
Ġsn aatak
Ġeth nic
p ower
ĠAr k
ĠPlay er
Ġach che
Ġp ounds
Ġb ridges
ĠAn na
Ġ16 4
ĠM ario
Ġpro ced
ĠRe lease
Ġsim ultane
Ġpah al
Ġdang erous
a isa
Ġp att
Ġwith drew
Ġfrequ ent
Ġvichaar on
vel t
p ha
vi ya
ĠChampionship s
ĠGil bert
p ie
x ual
ĠL in
Ġim perial
Ġpa hari
bor ough
C C
Ġout f
d ale
ral ay
Ġweek end
ro ke
Ġcom ments
ag h
Ġlo ad
Ġref ers
ĠAng lo
Ġlamb aai
Ġsancha alan
Ġsata ha
Ġpan el
Ġout put
Ġupg raded
er b
ĠT han
Ġlow est
ĠGi ants
se a
Ġdet er
Ġ36 0
ĠMi ami
Ġs ul
Ġres ear
Ġser ial
Ġvaat aavaran
rap y
Ġl aagat
ĠS ee
Ġper mission
Ġrel ie
Ġspecim ens
ĠTreat y
Ġan sh
Ġab b
k am
Ġk or
ĠSe attle
Ġniv esh
Ġwhere as
Ġtur b
3 5
Ġw et
han aa
vi ation
Ġpolic ies
Ġc risis
Ġpart ly
Ġsign al
Ġorgan izations
Ġtha k
in ction
ĠW h
rit e
Ġrar ely
Ġd iver
Ġvyavsaay ik
Ġpro sec
es ota
ĠEd ge
Ġvyak hya
y u
ul an
Ġag ree
hab aad
Ġl ose
ĠH and
it ter
Ġto t
ĠAl ab
Ë Ī
Ġpro port
Ġtechni que
ĠS oon
ĠTre k
an th
Ġv ice
as w
ab haa
av at
Ġadv ice
Ġtravel ed
Ġmor al
ã ģ
ĠUS D
Ġperson ality
Ġt rophy
ĠUl t
Ġdesign er
Ġcreat ive
Ġb ast
ĠN at
Ġcom plic
ow ed
Ġtur rets
Ġaspat aal
Ġp aane
ĠA R
ĠN orm
Ġ16 5
s he
Ġk un
Ġ Ä
Ġfav our
ĠI owa
od s
Ġsp ending
Ġrest ric
Ġ187 0
aan ki
Ġfinal s
Ġsaa man
el ic
Ġrecord ings
Ġba ith
Ġte ji
Ġli p
Ġfinal e
Ġo ption
Ġpart ially
ĠFor ces
Ġcritic ised
ĠHe alth
Ġrest rict
ĠCount ry
Ġsamooh on
hy atah
Ġdown load
Ġgan it
Ġexc ell
Ġmain stream
ĠC aribbean
Ġmarg in
ĠAr ch
Ġpa im
Ġdifficult ies
vyav astha
ĠAlab ama
Ġsh ram
Ġcan al
Ġant icip
bo ok
Ġcompet e
Ġcor por
haay aa
wa as
Ġse ats
Ġr ates
Ġvers e
Ġsaf ed
ĠThe n
ĠAn ti
Ġmaus am
a id
Ġminim um
Ġham alaa
aa en
Ġse m
Ġmon ument
Ġbhe ja
Ġchhod kar
ĠLaw rence
o orn
Ġc overs
and hit
Ġmur ti
Ġf ung
oc ch
Ġy at
Ġs la
Ã §
Ġconst ruct
ĠNap ole
Ġs leep
ĠB uff
Ġlist ing
Ġfun ctions
Ġs atta
ĠCan al
j is
Ġt uk
Ġwind ows
ĠMiss ou
Ġr in
O S
haan on
Ġdescrib e
Ġkar egaa
yak t
ĠMiss iss
Ġy ukt
Ġnot ice
ĠBro s
ĠChar lie
Ġext reme
Ġconc erts
T A
Ġrepresent ative
Ġsuff icient
Ġpartn ership
ĠCro wn
Ġr ani
ĠV I
z on
pl er
ors hip
Ġdiv or
Ġbas es
Ġpo ol
ĠBe g
Ġan ch
Ġkha ad
Ġf ighters
Ġmar ks
ĠPol it
w ali
Ġcha atr
Ġ190 1
Ġpit ched
Ġjok him
Ġfor cing
ĠH amp
ĠN on
Ġli pi
Ġcont ra
ĠMc D
ĠBl ood
Ġco ff
ĠDe ad
Ġ15 5
Ġrep air
Ġdyn asty
ĠS han
ograph ical
ĠSen ator
ĠRet urn
Ġt isare
Ġr ub
Ġfriend ly
ĠMin istry
Ġprompt ed
Ġa ware
Ġan uv
Ġh ull
Ġpar ip
ĠG arden
ĠK r
Ġshe ar
Ġadhik ariyon
Ġaat m
ĠI an
ĠK han
Ġsab hy
Ġag ra
Ġchal ate
ĠR ace
r ine
Ġpaint ings
Ġl ists
Ġan aly
Ġdestroy ers
Ġcred its
Ġcollap se
Ġinn ov
o ons
Ġb ay
Ġsy mp
Ġprinc ip
Ġch urches
Ġchan ging
Ġkh ul
Ġbal ance
ĠÃ Ĩ
Ġneighbor hood
y aapan
Ġin amen
ic y
Ġappro val
ĠGram my
ĠTown ship
Ġadj acent
m ates
Ġag le
ĠD ance
ĠHung ary
m und
Ġsha areerik
ĠNaz i
m ah
Ġsam iksha
pl ed
Ġghat naon
ose velt
Ġbomb ers
r ata
Ġf ishing
Ġgu ar
Ġin aug
Ġcreat or
ĠShak es
Ġjo ining
Ġda ur
Ġtrav elled
crib ed
d ie
Ġs ib
ĠC ru
Ġsan chaar
a ud
Ġmant ralay
Ġd ies
Ġv aad
kar on
Ġhous ing
Ġt am
Ġan th
Ġinstrument al
Ġ0 1
ĠBel gium
Ġpurush on
f ace
ĠE vent
Ġha wa
Ġso okshm
ĠChrist opher
ĠMed al
Ġdab aav
Ġcart oon
Ġa cted
Ġjis ame
i pe
Ġgro wn
Ġexpl o
Ġj ana
ĠAustral ians
Ġcan ada
Ġdar j
Ġarab i
ĠDie go
har aa
Ġleg end
Ġarg ument
Ġmom ents
Ġas p
har m
ia i
Ġtrib ute
Ġdhan g
Ġvill ages
ĠG ab
ov en
Ġpur poses
ĠRe present
p oint
Ġit naa
k ris
od ore
Ġround s
Ġprot agonist
Ġjat il
p ura
Ġpr on
Ġjiv it
es han
Ġsu icide
Ġdhaat u
Ġal leg
Ġab hya
Ġvarn it
Ġsam ak
and e
iv ated
ĠAd minist
inent al
ĠC amer
if al
ĠChild ren
ĠH ills
al ions
ĠC red
Ġas ian
ĠC old
ĠMic hel
n s
r ani
Ġpow ered
ĠH em
bha av
oun ced
Ġ11 5
Ä į
Ġas ks
ĠH o
Ġpar ik
Ġscient ists
Ġprec ip
or ial
Ġappoint ment
Ġminim al
ĠRec ord
Ġtreat y
Ġstorm s
Ġbhug tan
Ġelse where
Ġwed ding
im eter
ĠL l
Ġpro ts
Ġac re
ird ohi
Ġadv is
Ġfal se
Ġneut ral
9 0
Ġ17 4
ĠH ud
Ġposs ession
Ġw aalon
der abad
chaar ik
ĠBen jamin
ĠMic ro
h attan
ĠM uch
19 8
names e
Ġcover ing
T S
Ġa kh
Ġun like
Ġhel ping
Ġelim inated
Ġf als
Ġshi eld
ĠGuard ian
Ġ190 2
ĠLeg acy
ĠViet namese
ĠV is
19 6
Ġvict ories
Ġsurv ive
Ġsain ik
Ġdisp ute
Ġrestaur ant
ĠAlf red
3 1
Ġj aag
ant ric
op es
Ġdeg rees
Ġbenef it
l ap
Ġsir ies
Ġt elling
Ġso il
Ġvish nu
Ġlo an
Ġsank raman
umb ak
Ġm aap
ĠT un
Ġpre p
Ġseek ing
ĠH ockey
ang ers
Ġcha atro
bha v
bha sha
Ġ190 3
Ġnewsp apers
Ġloks abhaa
Ġc argo
Ġsur prise
Ġfact ory
Ġup asthiti
Ġoccup ation
Ġban anaa
Ġup yukt
or ious
haan aa
pra arambhik
Ġabs ol
ĠMinn esota
in ces
Ġth or
for ced
Ġoccas ions
Ġbhavish ya
Ġp ap
Ġc hen
Ġv aan
oc ol
Ġsha kt
Ġ16 8
Ġarr iving
hal f
Ġv aak
ĠA ff
Ġkar t
Ġadvent ure
Ġ Ð
Ġpr ime
Ġtun nel
rup ted
Ġmanus cript
Ġro ut
Ġag g
C ap
Ġsev aaon
ĠR and
ist a
hit a
ĠH ong
ĠMan hattan
at kaar
iv ia
Ġdi et
Ġsc at
Ġil aa
ij i
Ġf ate
Ġsm ooth
ĠWalk er
Ġk ush
chit r
3 7
Ġj et
ĠE uro
ĠFrank lin
u ram
Ġsamaj ha
ĠF ried
Ġco oper
Ġstrugg le
peh le
Ġmill imet
inc ial
Ġmahar aj
ĠInter state
ul on
Ġkit aab
ard o
Ġpres erved
Ġcandid ates
Ġv irdohi
ĠG ot
Ġsam raat
Ġmat lab
Ġgr aa
ain ik
ĠY an
Ġem peror
Ġbet i
Ġsched ule
v aa
ĠF ront
ans hik
bh umi
Ġutp atti
ĠPen insula
3 6
Ġa h
aan ee
Ġwe ar
v ast
Ġf ee
ig e
Ġchh attisgarh
har t
ĠF al
ĠRo osevelt
Ġph r
Ġm ugh
ĠI ce
Ġne uy
ĠK urt
Ġpublic ly
Ġham en
Ġteach ing
ĠR en
ain ts
Ġmuk hyatah
og a
Ġcompet ed
Ġto m
ok er
Ġacc ur
Ġviol ent
ĠS atur
ĠFl ight
Ġr ivers
ĠShe l
ant aran
ti er
nam ed
ish ment
Ġaap ako
Ġbeaut iful
em en
ĠIndust ry
Ġcha ud
ĠBul gar
x y
id en
Ġal ignment
Ġconc rete
Ġhon our
Ġl an
Ġres umed
mun ition
aa yon
Ġgativid hiyon
ĠMarg aret
L C
Ġimpos sible
an ia
ur as
ĠK ansas
Ġdi ye
Ġprati bha
Ġtatkaal een
on der
ĠKn ow
p ot
Ġma ane
ĠW olf
ub h
Ġpil ots
Ġagricult ural
ĠDig ital
Ġs aaj
k il
ĠO d
Ġsurviv ors
Ġt aar
Ġb ure
and aar
Ġab ilities
Ġev il
Ġtw in
par antu
Ġsuit able
ay e
l aav
Ġc hampions
r ates
Ġa and
Ġb ri
Ġn ations
Ġpra j
Ġlo op
hav in
ĠPort land
Ġass isted
Ġadv oc
ĠH indu
Ġpo ison
Ġass ists
ĠHot el
Ġintens ified
ĠBu ilding
Ġmaan anaa
ĠSatur day
Ġm ane
hi ya
ate e
Ġunder ground
Ġmin es
Ġche t
Ġeld er
Ġdefe ating
ĠB orn
ĠW ol
Ġtr uth
3 8
Ġs om
Ġm arsh
Ġsat ellite
ĠT amil
iven ess
row s
Ġunderst anding
Ġus ual
ĠCo le
Ġinterest ing
Ġprashas nic
Ġbal leb
ro c
Ġres olution
Ġsamaj hane
Ġtakneek ee
ik ar
Ġal um
ĠW ard
ĠU E
Ġsign s
Ġbik ri
il ty
Ġs ard
Ġw aves
Ġj har
Ġle ct
v ir
Ġe la
f ish
Ġsw itch
Ġparis ar
Ġc iting
Ġsub mitted
i ples
Ġcommunic ation
Ġoppon ent
ĠAre a
Ġbe half
Ġsign ing
Ġmas jid
Ġspirit ual
ĠD w
Ġret ail
Ġdyn am
Ġc arch
Ġfif teen
Ġbusiness es
k at
Ġp ace
ĠC ob
onym ous
al it
Ġback ing
pres ents
Ġsubject s
Ġsympt oms
Ġnir antar
Ġvib haajan
e ing
st ar
Ġfor ty
Ġ10 4
Ġass ess
ĠHer o
Ġm oul
ĠB ull
Ġpercent age
ĠB ox
Ġfor ests
r ants
Ġkar aayaa
Ġclos ing
Ġpremi er
ĠB an
r ud
eek rut
y d
ĠP rom
Ġsitu ated
ĠBl ues
ĠShakes peare
s abhi
Ġhe m
Ġv et
ĠHal o
Ġnirdes hit
pra yek
Ġpaim aane
Ġs haayad
Ġnam ak
ĠPro gram
ĠN ative
Ġshar ma
Ġmat hemat
Ġsarv occh
Ġprat im
Ġnish k
Ġvo iced
Ġch lor
ĠV inc
Ġwor ship
os ph
ĠW a
Ġap an
ĠTenn ess
b ec
Ġre presents
Ġban ks
Ġras inic
m ul
ir y
Ġr uchi
Ġfor ec
v att
Ġam munition
ĠBr un
ĠA ud
inn ers
ĠCamp bell
g aanv
ut ical
up ta
ra c
Ġpe ed
ĠOff ic
Ä ĥ
Ġpro l
ĠK ings
19 5
Ġtorn ado
Ġas king
ĠF riend
Ġill ness
ong ol
Ġsa ch
ka ash
Ġcontro ll
Ġmarket ing
Ġbhaav ana
ĠAth let
in ian
Ġb ark
Ġd and
Ġn eshnal
ĠN ash
ma ha
ĠEgypt ian
Ġcollab oration
ĠS ullivan
Ġst an
ĠD est
Ġislam ic
Ġsanstha apak
Ġqu een
Ġrep airs
pec ies
Ġgen etic
Ġs alt
ic o
Ġdis aster
Ġbad laav
ĠGra ham
en z
Ġap artment
Ġsand hi
Ġex it
Ġcha hta
Ġwill ing
Ġovers e
Ġsam ast
ĠSte ven
Ġjun ction
Ġsidd hanth
Ġw rest
Ġna u
Ġt enth
ine a
Ġfeel ings
ĠLuc as
ĠWind ows
han u
Ġdh ru
Ġattend ance
Ġhaj aar
is en
ĠC O
Ġel abor
Ġsusp ended
Ġr ising
ĠE P
ens is
Ġdoc uments
ĠDrag on
j in
s aam
Ġpary aavaran
Ġb ran
ri x
Ã© e
Ġaud iences
Ġearth qu
Ġlie utenant
Ġis isi
Ġkar y
Ġaff airs
Ġfav ou
Ġvij eta
Ġkap ur
Ġfl ights
Ġdel iber
h ne
Ġch une
Ġto uring
ĠE c
aad hunik
ĠHistor ic
Ġk aksha
ĠM es
Ġrec re
ĠMc L
ĠSte vens
Ġpadaarth on
Ġt ay
Ġs or
ird aar
Ġsol ution
Ġgold en
Ġab ol
Ġich ha
Ġk ir
ord ers
Ġsk ull
Ġ10 9
ja ise
Ġfun eral
ĠPal est
i ye
Ġm im
Ġa antarik
ĠA le
we et
Ġprof ile
Ġtarg ets
Ġpraa ia
Ġela habaad
Ġ0 2
Ġgl ac
Ġsat r
Ġmount ains
Ġmeas ured
ĠMississ ippi
ĠTenness ee
n ament
Ġ3 50
Ġsand esh
ĠLouis iana
c ular
Ġf ont
od ge
Ġregister ed
ĠM ess
ue z
Ġoper ational
Ġorche st
em a
Ġaff air
ĠLab our
han o
ĠSe ason
Ġvidro h
Ġka hana
ĠBus iness
ĠG ate
Ġprabha vi
Ġkshet reey
ĠMont real
Ġnu ks
Ġa ash
Ġb ataa
Ġadop t
Ġcab inet
s aath
or ph
ish chit
Ġcomp ilation
Ġaff ili
O T
z ing
Ġke e
Ġas am
Ġvish w
ĠSm all
hyam antri
Ġpoor ly
Ġgal at
Ġsamasya on
Ġaim ed
Ġf iled
Ġaas aani
ot he
Ġvert ical
ĠDe pression
Ġsamar pit
ĠPhilipp ines
Ġk und
ic an
Ġma has
u ary
Ġd aay
ap olis
Ġcons cious
urr ent
Ġh orn
Ġv ive
ĠMissou ri
Ġall iance
d aksh
f ather
Ġst orage
ze ch
Ġrecogn ised
I V
Ġfif ty
al pur
Ġlik ed
7 5
ĠD al
Ġunder w
Ġstat ue
Ġentertain ment
at y
Ġy am
Ġme g
Ġtempor arily
Ġrepl acing
Ġsangrah alay
Ġexplos ion
h and
Ġre ven
ri ft
Ġfavor able
ate ur
Ġshell s
iss ions
Ġbas in
ĠMit chell
ĠB illy
Ġraj vansh
Ġinterp re
ĠA BC
ĠU s
form ation
Ġniyam on
Ġcerem on
Ġin du
se x
Ġrecomm end
Ġja zz
ĠSe ven
vi jan
hap an
ues e
Ġshik aar
Ġk rant
Ġm os
ĠC ow
Ġrak hi
Ġsequ ences
ĠK arl
Ġch atur
Ġnird esan
adhar ana
Ġb aag
Ġl ock
ĠM ach
l ife
er i
al in
Ġth inking
Ġres idence
Ġdirect ors
aav d
ĠCrit ics
ĠIndepend ent
Ġoff ering
3 9
ĠT ag
ĠF em
ol id
pt y
Ġuse ful
Ġaar ope
Ġs rilanka
Ġrev ol
Ġs oviet
ĠWar ren
Ġexp ensive
Ġfais la
ĠR ing
est one
Ġsaf e
Ġfem in
ĠP ed
Ġrest oration
Ġvr iksh
Ġpattern s
ol y
Ġkar iyar
Ġav ish
Ġm udd
ĠV o
Ġref lected
ox ide
Ġprepar ation
Ġker ala
Ġw ore
ĠC zech
ell o
arg ah
Ġrem ark
Ġdaal aa
Ġjaan i
Ġter ror
ĠD S
ati o
Ġmin i
Ġm ental
Ġal ter
Ġud yaan
Ġish war
Ġd ost
Ġgra h
Ġparibhaas hit
3 4
n et
ĠK an
ov ak
Ġrel uct
ming ham
w aayu
Ġg reg
Ġamong st
Ġdi was
Ġsk et
Ġfr ig
yl an
Ġfat al
in burgh
ĠKir k
gra de
Ġv yan
ĠM aur
Ġcontrib utions
Ġk ile
Ġm ans
ĠL ith
va haan
ĠGu ide
Ġsuggest ing
Ġdrug s
er g
ir s
Ġcomple ting
en na
Ġgu ide
Ġsu z
Ġwon der
Ġdev taa
Ġtur ant
Ġdeliv ery
ĠS ant
Ġst ores
art ney
Ġrebu ilt
Ø §
ar ai
Ġf urn
iv a
Ġ189 6
Ġcle arly
Ġbadha ane
Ġup asthit
Ġover w
Ġupyog k
ĠPers ian
Ġescap ed
Ġk W
ag ascar
Ġpras ar
Ġtrib es
Ġshan kar
b ishop
Ġdh wani
Ġhor ror
ĠCub a
Ġthe r
Ġcom fort
Ġcover age
ĠPh oen
Ġbow ling
Ġpul led
Ġcons ervative
eng er
Ġcanc elled
z ona
Ġs isters
Ġer upt
Ġprasaar an
Ġkehal aata
Ã º
Ġwas n
Ġamount s
hit iy
Ġas c
ĠJ u
Ġdec ides
Ġsav ed
Ġpraa yah
Ġc ous
T his
Ġj aay
id as
ĠSn ow
Ġkar ier
Ġdep ending
Ġcast ing
Ġlamb ii
Ġdram atic
S A
ir m
Ġphot ography
Ġc ad
Ġant at
cha y
Ġba hari
ur ring
ĠE conom
Ġkarn ataka
Ġsut ara
Ġgun vatt
haal ee
Ġlack ed
Ġti imon
ĠF iles
ĠG rey
Ġsh anti
Ġpo le
Ġpariv artit
Ġpar ent
Ġprat ishth
Ġpers pective
zz le
Ġass embly
Ġmon itor
Ġpred omin
lah oma
Ġown ership
Ġeng agement
Ġadminist rative
Ġbadha ava
is d
all i
Ġkaar non
Ġshar p
ĠJo han
s and
ank hyak
Ġarg ues
Ġ186 0
al ia
Ġor b
ess es
Ġav adharana
ĠCy cl
Ġsamp oorn
Ġcolon ies
ur an
ur st
ĠInd ies
Ġexpl ain
il st
Ġcon text
for mer
ĠAri zona
b aar
Ġpo ems
Ġship ping
Ġart istic
Ġarm ored
Ġfast est
Ġdro ve
Ġn an
Ġpaat h
Ġbound ary
Ġm ys
ĠIn s
Ġinstit utions
Ġmer chant
Ġtre k
Ġg ust
Ġnain ital
ĠMar ie
Ġpes he
ĠBure au
Ġt iss
ut y
b oy
Ġin put
v aar
ĠD ylan
ob a
Ġcontrol s
Ġflag ship
ĠT el
ars ity
Ġpur ana
Ġcompar ison
Ġplayoff s
Ġsk y
ed ing
ĠSc out
Ġide al
Ġlay er
isp ard
hitiy ik
Ġsh ant
Ġran ks
Ġbaj e
Ġremn ants
Ġvik alp
Ġnuks aan
ĠS em
Ġst ab
Ġcharacter ized
amm u
Ġbon us
s any
ut ton
Ġconne ct
Ġd ard
ur er
ĠJ osh
amer ica
Ġkhe ti
oj it
Ġvidwaan on
ĠH amm
et ta
Ġnam it
Ġexpl ains
Ġarm ament
Ġdiam ond
Ġmilit ia
v on
à ¸
Ġde kar
c ru
Ġin land
uk hi
Ġbl ocks
Ġ189 8
Ġapplic ation
v ib
Ġacc eler
Ġsever ely
en ni
Ġw ants
Ġl av
Ġv arsha
ab e
Ġcrew s
Ġsp end
ĠWil helm
Ġnig am
ff ect
Ġbad ly
Ġdistinct ive
Ġrestric ted
p ng
Ġb ronze
ĠS ony
Ġh riday
Ġban aaye
Ġpract ices
Ġexc av
Ġlin ks
Ġp ale
Ġfr ust
tari o
Ġinstit ution
ĠConfeder ate
Ġe arning
Ġex clud
awa hik
h l
or ld
el o
Ġf aster
ul ating
Ġho le
Ġsab it
Ġread ers
ĠSw itzer
Ġdemonst rated
Ġthe at
Ġc haa
ĠS yn
Ġrang ing
Ġfall en
Ġjar urat
Ġnivas ee
as ant
Ġpal ace
Ġfix ed
Ġke em
ul es
Ġsh ish
Å «
Ġob vious
Ġc os
Ġth rew
Ġcon dem
Ġvis iting
Ġwid er
ot ton
Ġqu iet
ĠSwitzer land
an eey
ĠA my
ap ni
ĠMr s
Ġinhabit ants
ĠL iz
Ġ16 6
Ġmay or
Ġsamprad aay
Ġgunvatt ta
ĠM ack
ĠR idge
Ġref uge
Ġb le
Ġmin ing
ĠCo ok
je ction
don on
g or
ĠL ang
ĠMur phy
Ġch ali
Ġdist urb
Ġarr ive
Ġwithdra w
ĠBroad way
n o
ĠC her
Ġun ako
Ġy ield
Ġrid ers
Ġg ane
ĠF ederation
ann ada
Ġ189 9
Ġspot ted
Ġphilos ophy
Ġappropri ate
ay ana
ĠHar vey
Ġsur ge
Ġp ushti
Ġn at
ĠPro te
Ġbab y
Ġtri ple
Ġbul k
ĠS uch
aal at
eng ali
Ġmane u
Ġan ter
Ġev olved
Ġvul ner
Ġt irth
Ġnomin ations
Ġkadi yaan
Ġre aches
ap ati
Ġ189 3
Ġsiddh anton
u able
an ced
Ġs ung
Ġfor g
ĠBar ry
Ġdistingu ished
st e
Ġpar ichay
Ġaut obi
p in
Ġna it
Ġhast akshar
p ent
af al
od ox
ĠM ah
ĠAl i
Ġcho ose
rupt ion
Ġexhib ition
b u
l ings
Ġnorth ward
ides hak
Ġvivid h
Ġis ane
Ġvaish vik
Ġf ro
Ġinst ru
Ġprint ed
ĠOrig inal
ya g
Ġv s
Ġprep are
ĠR al
ral tar
aak on
ĠD ou
ast ro
Ġ10 8
Ġka han
Ġdisc ipl
Ġchand ra
Ġdomin ant
ĠOk lahoma
Ġ uj
Ġa z
Ġp ine
Ġn ich
ĠAust rian
ĠSar os
ed a
Ġmuk hyamantri
Ġfamil iar
Ġchap el
Ġsubs pecies
ĠIntern et
ch ha
Ġpred icted
p ro
ak aal
Ġhousehold s
Ġpraband h
M I
ĠL or
Ġhead ing
Ġ10 6
Ġintel lect
p ary
ĠW ik
Ġun ex
ĠAl ber
Ġh ung
Ġab und
ad hya
Ġsl aves
ĠDel aware
Ġw reck
ĠJ uan
Ġrepeated ly
Ġvaar shik
l ocal
arsh ith
d w
Ġd aw
sequ ently
ĠPh Cap
Ġjag at
ĠTi G
ĠTiT B
ĠTiT E
ĠTiP B
ĠTiP E
Ġpredecess or
Ġst ick
ĠH u
Ġsamp ann
Ġs ick
Ġsh ock
Ġk irdaar
Ġbe am
ars hak
Ġcap s
ivaar y
Ġthe atr
Ġh an
Ġma hak
Ġst rict
ĠF if
agar h
Ġkhat m
Ġneuy ork
Ġw ire
hy l
Ġam la
Ġm ari
Ġpl ain
Ġcar riers
bh u
rit iyon
Ġso ch
Ġt ir
Ġp or
Ġatt ained
Ġprat ispard
ĠPer ry
ĠLes lie
Ġb oss
Ġme at
Ġdesc end
Ġprodu ctions
ĠA ld
g ie
ĠS had
ast s
Ġall ies
Ġexcell ent
i est
Ġfriend ship
Ġprop ag
_ _
ĠP il
Ġkar enge
Ġsa un
Ġpred ict
Ġt ack
Ġal ive
ĠTer rit
ĠDen mark
Ġcircum stances
Ġh onge
am ine
ĠM other
bha al
Ġpeak ing
Ġserious ly
Ġpret ty
Ġille gal
Ġsecret ary
Ġkanoon ee
Ġn ut
ke es
az z
Ġbi ographer
od ium
so os
Ġover t
Ġfranc isi
as ka
ĠL ess
Ġrok ane
ĠTok yo
Ġco inc
Ġaad hyat
Ġkshetra fal
press ed
Ġdiscuss ion
b ird
Ġha w
Ġdis agre
Ġda ure
Ġmeet ings
ĠOrigin ally
Ġabhya as
Ġk iss
Ġchar ter
Ġsol ar
Ġbom bs
Ġv itt
ĠIn n
Ġshuru u
ĠTr ust
Ġpura ani
Ġf arsi
ch t
st orm
Ġper ceived
Ġkh ub
ĠB uc
Ġsans ar
ĠBab y
Ġj aakar
Ġr ib
Ġer ror
ocrat ic
Ġaltern ate
Ġmaans ik
adi er
Ġtele vijan
Ġwa iting
b es
l og
Ġt ight
Ġm urad
Ġwh ilst
ĠE xt
Ġjo bs
Ġdefin ition
ot te
Ġpra pti
ugh ters
Ġ15 4
Ġlo oks
Ġwest ward
ĠJon athan
h um
Ġrem arked
Ġras ayan
ĠC hel
in ating
Ġmag ic
ĠAtl anta
ĠBase ball
Ġs ari
ĠG h
Ġrec onna
ĠPlay ers
Ġsurr end
Ġsim ilarly
3 3
ĠJohn ny
ĠRi hanna
s ans
Ġk olkata
Ġd hak
Ġmat ters
Ġcham ber
Ġbeem aari
ĠP le
Ġart ific
Ġbr ig
sh ore
Ġbatt alions
Ġplan ets
yr us
ĠCamp aign
ĠAbb ey
v at
ha on
Ġn avy
Ġdhar awahik
Ġsamband hon
Ġre venue
ĠRic o
Ġb one
ing h
Ġsh uddh
Ġsun k
Ġbehavi our
on omy
Ġc rick
Ġarm our
Ġswar na
ĠN ixon
Ġgar mi
Ġcivil ian
Ġjap ani
Ġro j
aw s
Ġd arsha
Ġliqu id
ĠJ os
Ġdr ivers
bh oot
h ru
Ġret ain
er k
Ġport s
Ġsuz av
Ġkha g
Ġanup aat
Ġkhaad ya
r ar
Ġj ald
ol ly
Ġstrengthen ed
ĠPri ze
ĠPit ts
ĠN AS
ĠSp ir
O C
Ġan ivaary
ĠW ag
Ġjust ice
Ġsimultane ously
ĠUE FA
Ġreconna issance
T W
Ġty phoon
Ġleg acy
Ġpratya ksh
ĠArn old
Ġaak arshith
u art
ĠLe x
ĠEd wards
Ġpaat r
' s
Ġcon sole
Ġro ots
Ġmaha soos
Ġis vi
ĠS ig
Ġche st
ja haan
Ġapar aadh
ro gen
est yle
Ġdem anded
Ġind ian
Ġair line
Ġsamp adak
Ġ189 7
Ġmurad abad
Ġh ills
ĠS oul
ĠM S
ĠM ans
Ġback ed
pur i
ic ate
Ġun re
ĠJ ar
ine ering
Ġvic ha
c ow
Ġc ock
id al
ĠP i
Ġcom ics
Ġya j
Ġf antasy
ĠA S
ĠRail road
Ġm oon
ĠR oll
Ġins isted
Ġrad ical
ĠJim my
Ġdo ors
Ġext end
Ġenl isted
Ġex pression
ĠMc M
Ġathlet es
Ġbomb ing
Ġoon chai
Ġprash n
le te
ent le
ĠC ost
Ġart work
Ġprom ised
ĠKe ith
ĠR ub
Ġhor iz
Ġaand olan
Ġbe ch
Ġman ch
Ġvahi in
Ġdw ar
Ġperson ally
ba hari
ĠL ov
Ġdem ands
Ġguitar ist
Ġsain ikon
Ġsaad han
g ad
Ġc up
ĠUnivers al
Ġd ast
aay iyon
Ġl aayaa
ric e
Ġaur ang
Ġl anes
Ġh idden
el ing
ad al
Ġcha yan
Ġp ione
Ġorche stra
ĠT ol
Ġj ung
ac re
olog ies
Ġport ions
ĠRac hel
Ġuttar adhik
ĠT an
Ġmain land
ĠT ai
Ġun n
if ies
ail s
ple te
Ġstrugg led
Ġaud ition
Ġess ential
ou ver
Ġmach h
Ġk ore
ĠMicro soft
ĠH ann
Ġ16 9
reg ation
ĠPe ace
ĠImp act
Ġs pr
is had
Ġdemol ished
Ġjana jati
as ank
Ġ12 7
pur vak
Ġshakt is
Ġs q
Ġgu ilty
Ġincre ases
jan ak
Ġhy brid
Ġangre jon
ĠP ubl
ĠAr c
Ġp el
ult y
Ġrul ing
Ġmedic ine
ĠYan kees
ĠL ost
Ġcomp ens
Ġswim ming
Ġarm ies
Ġl aane
ĠN ine
Ġraj kum
Ġfe els
az ines
Ġorgan isation
ĠTra cy
ĠPe arl
Ġcount ies
ĠMa ya
Ġa charya
ĠB omb
Ġ18 50
Ġm itra
Ġsur pass
Ġur anium
aas iyon
Ġmis han
Ġcompl iment
ĠP akistan
Ġjame en
ĠN ik
Ġpro ve
Ġsh rad
Ġdisc ont
hab ad
Ġopport un
Ġkaaryak ramon
Ġconvers ion
ĠBir mingham
am ond
ĠP ars
ĠR ights
ai ya
Ġstar ring
ĠSha w
Ġdanc ing
Ù Ħ
Ġthe ater
Ġb ath
Ġo v
Ġpash u
ĠFurther more
f olk
us hi
v ay
Ġb haar
ĠEnter prise
ĠOb ama
n ap
Ġy uv
Ġ189 5
Ġcul min
ĠEvent ually
Ġw ard
hi ra
ank aal
Ġfe ather
Ġexp and
h ri
Ġra c
ĠDef ence
ĠPhoen ix
ut o
Ġsha ik
ĠCan ter
ĠMcC artney
f i
Ġexact ly
ĠM ik
ĠB aker
Ġcl othing
Ġtat won
Ġobject ive
Ġa akar
Ġk aus
Ġek ad
Ġcomp ounds
Ġpurs ue
ab a
Ġcha d
Ġbelie ving
har th
Ġrel ies
Ġlik hit
Ġdisc overs
Ġkad am
Ġelev ation
av ia
Ġcl ock
Ġexpl an
min ster
ĠG ray
ĠJ up
Ġsuc ceed
Ġarth vyavastha
Ġvit aran
Ġdoub t
im m
ap rat
Ġbadh ati
j iland
ĠR ab
ĠComm unity
Ġdang er
in ations
Ġac ou
19 7
Ġjod a
ĠHud son
Ġacc um
Ġgan raaj
ĠâĤ ¹
ak ed
Ġgra y
ctic ut
Ġl ou
ĠE t
Ġch rom
Ġpun k
Ġconcent ration
ĠGirl s
Ġoverse as
ik s
Ġal tered
uc he
ati yon
Ġraj an
Ġaat ma
ĠM ari
ĠCh and
Ġvan as
Ġma had
ok ta
ĠN ag
Ġpad hai
ĠWay ne
Ġelect rical
ĠBob by
b ow
an na
Ġeng age
Ã ¦
ĠMad agascar
Ġpary aton
ĠM int
Ġtra ding
ĠWor ks
Ġphot o
Ġemp ire
Ġt ort
Ġtravel s
Ġuplab d
ĠConne cticut
c haai
Ġ å
ĠTod d
w et
aa chit
Ġro osi
Ġcan cel
Ġrequ ires
pra cheen
Ġus ers
di yon
az ing
Ġste ps
Ġrevers e
on ald
Ġun i
dh ish
Ġlist en
ĠMor rison
Ġindic ating
us han
Ġang le
Ġgi raft
Ġt ale
ar aagat
ol lo
ĠOn tario
Ġlag hu
I n
b hed
f eld
Ġst haayee
Ġun e
Ġg arn
ach al
Ġen cl
Ġere cted
Ġvyan jan
ĠT it
Ġdeter ior
Ġm ol
Ġmusic ian
Ġaat ank
Ġb uk
Ġus er
Ġorig ins
Ġencoun ter
Ġbij li
ĠLith uan
ut p
ĠF riday
Ġlik hane
sha ala
yad hyapi
ĠFore ign
Ġb rick
Ġdef ences
Ġpublic ations
Ġren ov
ren cy
Ġvid esh
Ġremov al
ĠBern ard
Ġkrant ik
Ġpar ody
Ġsett lers
Ġlegisl ature
Ġs itting
Ġm ang
Ġfor th
ĠâĢ ¦
ĠCanter bury
Ġsup plied
Ġdec isions
Ġmast ishk
Ġshaktis haalee
b n
ĠS id
Ġra ising
Ġris hi
Ġaer ial
ĠT s
iv ation
j ivan
Ġb ib
her s
Ġafter math
ens ively
ĠB ach
Ġorgan ised
Ġsac hiv
Ġk aat
ĠC S
Ġsc en
Ġcampaign s
Ġstrik ing
Ġper mitted
Ġ15 6
Ġhigh ways
ĠAll ies
Ġterm inal
Ġpariv ahan
Ġtro uble
ĠBoy s
Ġlen aa
on ian
ĠA bd
qu ote
Ġman aaya
Ġqu ad
Ġupyog i
ĠTy pe
c ott
Ġtele phone
Ġd haaran
Ġin qu
Ġha ul
ĠH D
Ġimpro vements
Ġt il
ĠA M
anc ouver
ĠM anu
Ġbe e
Ġbl ind
ĠPr uss
Ġprav aah
Ġtransl ation
Ġacknowled ged
Ġat i
ĠL am
ph ot
g un
in aki
Ġh ari
ĠA ra
Ġmish ran
Ġwal king
p rad
ĠG riff
Ġed ited
Ġgradu ated
Ġnave en
ĠÃĨ thel
Ġb aal
Ġm emor
Ġw restling
ĠH ugh
Ġchi hn
h ol
Ġd ug
Ġex ternal
Ġsik h
Ġven ue
Ġwealth y
ya ge
Ġreal ized
ĠMount ains
claim ed
Ġcrick eter
ct ive
ĠV ancouver
Ġmet ric
Ġexec ution
Ġmash in
Ġdissip ated
Ġsold ier
ĠNapole on
ĠT ed
our ce
Ġdr essed
rat ropical
Ġinterpret ation
v aad
ĠF is
Ġpubl ishing
Ġty aag
ch o
ĠI ran
Ġdevelop ers
Ġconf ron
Ġvig yaapan
Ġsam aad
Ġjin aki
Ġmiss ile
Ġlekh on
Ġobserv ations
Ġra ids
Ġceleb rated
Ġ Ï
Ġb ata
ol en
old s
Ġquarter back
Ġmun icipal
Ġiniti ated
Ġjur isd
Ġtheatr ical
ar oop
ĠCom mer
Ġdeb t
h ate
end a
udd in
Ġmark ets
ĠOut standing
it age
ĠT NA
Ġsabhy ataa
it udes
ig a
Ġsh orter
Ġfew er
d am
et ers
ĠB ath
Ġident ify
Ġconne cting
Ġsamud ri
Ġtees ri
ĠAdminist ration
b ai
m ati
ĠS ak
ĠD all
ĠL ist
Ġaggress ive
and o
ĠB uddh
ĠL ion
ac ha
Ġd at
ĠG ary
Ġtur ret
Ġblock quote
Ġlands cape
j or
r ors
ĠH ip
Ġro ak
ary ana
Ġsub ur
Ġfound ing
Ġorigin ated
Ġt rit
Ġpr ut
or al
ic ation
ur ation
Ġchar ity
Ġconsid ering
ĠSy mph
enni um
E C
Ġm angal
ak rit
Ġun less
Ġpro hib
Ġvi ra
Ġcut ting
Ġevacu ated
t ak
Ġr iy
Ġcan non
Ġcor ps
Ġannounce ment
ad it
ĠL as
Ġup karnon
ĠCon n
f a
Ġis ot
Ġpl acing
iz er
Ġb ars
Ġpart ial
Ġestablish ing
Ġpand it
ĠJup iter
it als
Ġas k
ĠL en
Ġstation ed
ĠDr ive
Ġpros pect
f unction
en cing
ĠO ur
ect ed
Ġdef ending
ĠPortug uese
Ġk ol
Ġsha hi
Ġl iv
gan j
Ġhe ct
Ġv aran
ĠA P
Ġpri ze
Ġrebell ion
ra ine
ir ates
ĠR at
Ġf ib
ok ie
Ġmag azines
Ġhyp othes
Ġb ones
Ġbat ch
Ġvol t
Ġhost s
Ġarrang ements
Ġstrateg ic
Ġdens ity
as hak
ĠC hampions
pe ksh
ham ed
ens on
Ġdec ide
Ġrep ublic
ĠG or
Ġres ort
Ġdon ated
Ġcirc le
Ġsaa hitiyik
id el
ĠMon te
Ġfrequ ency
ĠPot ter
Ġch hat
ĠNC AA
Ġan ime
par ichay
com p
play er
ĠC hampion
Ġsc ot
Ġud aan
Ġindic ates
Ġdog s
Ġexpos ure
Ġl ying
Ġon going
Ġcou p
Ġapproach ing
er r
ĠG ene
Ġ18 00
Ġput ting
ĠBrad man
Ġwaters hed
ĠTri ple
Ġinse cts
ĠC ov
ang re
ĠPr im
h ous
Ġab haav
Ġext ratropical
Ġqual ified
Ġmish ra
Ġf ill
Ġtal ent
Ġunivers al
Ġtub es
ac haa
Ġcl in
ĠAl ice
Ġcolle agues
Ġfun ny
he ars
ĠT rophy
bad dh
ra ce
Ġ15 8
Ġred e
Ġmer ely
Ġclos est
Ġhaath on
g ro
g ate
h ot
al og
ĠN atural
Ġnar ayan
ĠHon or
ĠM ission
Ġyoung est
Ġbattle cru
Ġgather ed
Ġdw aar
Ġgar m
Ġb ot
Ġr and
Ġdis pl
vent h
Ġcr uc
ĠA h
ri yon
Ġlim its
Ġvol umes
Ġcollap sed
ĠDe b
Ġw ine
Ġj ury
ĠDw ight
Ġdu o
Ġneigh bour
Ġwithdra wal
Ġp hon
Ġbe aring
ĠH av
Ġ189 4
Ġmagn itude
g om
Ġh ins
Ġad arsh
ĠV i
Ġdes ert
Ġstrong est
ĠFle ming
A N
b orn
ar as
ol ve
Ġmov ies
Ġir an
ĠRes erve
sany ukt
Ġex ha
ĠMar vel
Ã¼ r
ĠN O
Ġsam r
ham pton
Ġvis its
Ġrang es
enes is
Ġradi ation
Ġfeed ing
Ġchalleng ed
Ġs her
ĠL at
Ġsp aces
Ġconf ront
ili am
Ġspecim en
Ġrhyth m
usal em
Ġc ens
Ġn un
Ġit aly
Ġ188 9
Ġbaa ki
ari ans
hy ath
Ġsuccess ion
es ar
ent on
Ġpl astic
Ġeduc ational
Ġbirth day
aprat ham
Ġlak di
Ġy on
Ġev alu
Ġend ors
Ġprov ision
Ġbat ter
Ġaus had
ĠHamp shire
le m
Ġj ang
ĠOl iver
Ġkoshika on
Ġt ennis
in is
ĠL t
Ġdo odh
Ġav s
Ġav atar
Ġmembers hip
Ġarth sha
Ġswe et
Ġconvent ional
n ia
Ġdis pat
vya kti
b rit
Ġb ull
Ġj ack
ĠC hes
Ġdub bed
ĠYe ars
ĠEd inburgh
Ġtal king
f ers
oc racy
Ġban aata
Ġcop per
Ġpers ons
Ġn urs
g haat
Ġp apers
Ġn idhan
ĠF lying
Ġsam ved
ĠMet eor
ĠPerson al
b ul
Ã °
aa hi
oth ic
ĠT on
ĠTh ose
Ġganraaj ya
s abase
ĠS omet
ĠB ee
ĠF und
ĠN eg
port ed
Ġny aaya
Ġsev aayen
ĠB ah
Ġk on
erm a
Ġkil ogram
Ġjal waayu
Ġpromot ional
asank hyik
Ġc ant
Ġban aakar
Ġrel i
Ġinv ent
Ġann ually
Ġconcent rated
Ġmar ry
Ġrak hana
Ġucch aran
Ġse ized
ond a
Ġall aah
Ġemphas is
Ġprasaar it
Ġtick et
m ans
Ġsaat hi
Ġtop ped
Ġhe rit
ĠP am
Ġatt ending
Ġlik h
ask et
ĠY orks
Ġcons ervation
r asht
ĠA x
it ively
ĠChar ts
Ġkal pana
Ġweek ly
ĠR an
Ġleg it
Ġinvest ment
Ġexperiment al
igen ous
M E
ra ja
Ġnirv aachit
Ġexerc ise
ĠS hip
Ġsp a
ĠCon vention
p el
is an
ĠS ay
ĠD ub
Ġsynd rome
Ġsha ft
Ġoff ense
Ġgiraft aar
Ġc ir
em ic
Ġaap urti
Ġp ink
ire land
ĠE li
Ġbana ate
Ġvot ing
Ġej ineering
ĠVill age
Ġphotograph s
ro lled
Ġteen on
Ġ189 1
Ġutpaad on
Ġto mb
ĠP rop
Ġdra g
Ġmandir on
Ġinvestig ate
Ġt rough
Ġwas te
ĠJ oy
Ġadvert ising
ch unki
ens ed
Ġatt itude
Ġs ending
ĠD ale
Ġsc ar
Ġfort ress
Ġb ishop
Ġin kaar
Ġprov incial
n ame
au x
ĠFin ally
ĠTot al
c ase
Ġth under
Ġpad ati
Ġ24 0
Ġ186 1
ĠPer forman
Ġyah ud
Ġvyakt itv
ĠYorks hire
ĠD yn
Ġat omic
ĠAnd re
Ġtur ki
ĠVictor ian
Ġh aryana
ĠK al
Ġval id
Ġemploy ment
ĠDemocrat s
ill o
Ġex ter
Ġmar ine
Ġwa it
Ġagg reg
Ġm all
ces ter
Ġdr inking
Ġportray al
Ġexclus ive
Ġcompon ent
ĠBrother s
ĠH az
od on
Ġce ased
Ġelectric ity
ĠC elt
ĠW here
Ġflood ed
ĠCra ig
ĠArgent ina
ĠLl oyd
Ġm es
Ġd ict
Ġco at
du ce
Ġreg ime
ĠChristian ity
ĠSt ock
Ġt athy
Ġw ish
ĠMag n
muk hya
ĠMed ical
ĠJer ry
ĠB ac
Ġbe ats
Ġpr ince
ock et
ĠBo oks
Ġball ad
Ġcompon ents
Ġfoss il
b ac
all ing
Ġadhik aron
art hak
Ġvy as
Ġc hip
id o
aad han
Ġgradu ate
Ġgreg ory
Ġst ere
ĠP ink
ĠE ug
Ġsh al
Ġhim alay
Ġmat ure
Ġmon aster
Ġham ale
Ġk u
Ġh itting
Ġg ene
Ġr uk
ill es
Ġadhik tam
Ġscat tered
ĠD od
jab aki
Ġquestion ed
Ġpop ul
ra yog
Ġex ists
Ġch ron
Ġro ot
ov iÄĩ
Ġsl ave
Ġuncle ar
Ġrug by
ad ers
ĠOver all
vaal i
Ġas afal
Ġkar a
ric ts
Ġrepl ied
Ġmechan ical
ĠChron icle
a ver
Ġr isht
Ġil aaj
Ġunderw ent
Ġoverw hel
4 7
Ġ15 9
Ġrepresent atives
Ġcat hedral
ĠColl ins
ĠM I
Ġassemb led
Ġartific ial
Ġv aap
ĠK ap
ows ki
Ġliber al
Ġcomment ary
Ġ00 7
Ġpict ures
Ġgend b
Ġbacter ia
Ġcous in
Ġn inet
ad dh
ĠW ii
ult s
Ġdev ices
Ġident ical
Ġaf ghanistan
Ġch rist
ĠHer itage
ĠServ ices
Ġm anga
ĠF at
ass ador
Ġlaw yer
ĠS che
est y
ĠV ik
ctor al
Ġ urg
ĠMar ge
ĠGl en
ĠHow e
ot ten
Ġcomp rom
Ġdur ation
ĠFin land
Ġhelicop ter
Ġbran ches
ate ver
ere e
Ġro d
Ġcol ors
Ġter rain
Ġraaj aaon
Ġthir teen
Ġf ed
Ġj ammu
ĠAn c
Ġexper t
yt ah
Ġacou stic
Ġc hamp
ĠT ig
Ġimag ery
Ġlov ed
am ents
ĠH old
Ġmis r
ht aa
Ġdev ast
ag ari
cast le
t r
ĠT ax
ĠS ign
un kh
ĠTurn er
Ġaccompany ing
Ġth ro
Ġkar av
Ġch umbak
Ġsank at
Ġ189 2
Ġd haan
ĠM ason
Ġred es
Ġel ig
ĠA T
ĠP hys
Ġda ughters
Ġkha ane
od ed
Ġdis band
Ġprati p
Ġaak arshan
Ġbur ial
Ġpen et
Ġsurrend ered
m aster
le ction
Ġst ops
Ġsl ip
Ġten ure
u in
Ġt ube
Ġgu y
Ġarr ives
Ġkhe le
kshi pt
Ġad hy
ach ute
Ġstrong er
Ġconsist ent
ĠProt est
ĠQueens land
Ġd read
Ġpr ices
Ġsam an
Ġpre v
Ġshar aab
ĠEx ec
ĠNor folk
Ġreduc ing
Ġbil kul
daksh in
k har
and hi
Ġpar ks
Ġcomp ound
r Ã©
Ġd ably
Ġn erv
ĠL ock
Ġob st
Ġph osph
Ġelect ro
ĠHard y
as iy
ri ors
Ġcompet ing
Ġkhil ne
ĠSim ilarly
Ġexclus ively
v yakt
ĠP ad
av or
Ġtra ded
Ġsw aam
Ġcommand ing
Ġfail ing
Ġe at
Ġreve al
ĠHawai i
Ġt ru
Ġs iz
man i
cha ariyon
Ġb ell
ĠC ricket
Ġmy st
ĠDi amond
ĠBur ton
ĠProfess or
f in
Ġg rid
ers ed
Ġpr athit
ĠTra ining
Ġdestroy ing
Ġ188 5
ĠBel gian
Ġcontrib ution
Ġflow ers
Ġreinforce ments
p un
Ġk riti
aal a
Ġman ov
arg ed
ĠBe aut
Ġty o
Ġpust akon
ĠCommun ist
Ġj ames
ĠP att
Ġman ip
nat ik
ĠNich olas
ans heel
Ġshar es
ĠHar vard
ĠBo at
u rop
Ġj ump
itar ian
Ġprecip itation
ĠTh under
Ġ188 8
Ġgovern ments
Ġph ool
Ġameric an
ĠEm my
N C
ĠL iving
av aar
Ġban ataa
ĠVinc ent
p ike
y ojan
Ġsp ain
ĠLoc al
Ġsla very
ĠR angers
Ġpahun che
Ġc oc
Ġre ward
3 2
k eey
ĠB our
p ath
ĠC atherine
ab hik
ĠY ellow
Ġ16 7
Ġgaya k
Ġban ned
Ġfail aa
Ġimpro vement
Ġrequire ments
ĠLiber al
Ġtex ts
ch h
ĠN ov
ib ilities
Ġdec ay
Ġsal v
Ġrog i
int s
Ġdev ataaon
Ġobs c
Ġprut hak
Ġcent ers
Ġlegisl ative
ĠCred its
Ġearthqu ake
ĠS et
ĠH il
Ġdis ch
Ġf ame
Ġaad mi
ĠSw ift
Ġj ad
Ġvari ed
ĠNe xt
Ġgoog le
ĠBenn ett
Ġcateg ories
Ġb und
Ġli b
Ġschol ar
4 5
ĠM ust
ĠF a
Ġport al
ĠMark et
Ġplatform s
et hel
Ġstr ess
Ġair field
Ġreview ed
Ġnird esh
ĠDon ald
Ġherit age
as ar
Ġkaa f
Ġchun aut
Ġsaa ksha
ĠTransport ation
ĠHug hes
D I
c al
k ash
Ġra mp
Ġcl ar
Ġ14 5
Ġconsid ers
Ġprofess ion
Ġbe es
ĠPri x
ĠDav ies
4 8
k u
ĠH ur
ĠGu itar
Ġkalak aaron
an jan
it ely
ĠD eep
ĠV e
Ġarchitect ural
Ġredu ction
Ġphr ase
m ers
ĠTra il
eev r
Ġrespect ive
Ġburn ed
Ġs oph
ĠT ow
ĠH ob
Ġdar ja
Ġnay e
Ġhand led
Ġtal ks
ĠDar win
Ġprashans a
Ġparisthiti yon
ĠP ic
Ġadv ised
rast ructure
y ik
Ġhum or
Ġhy per
Ġsongwrit er
ĠC hen
ĠM ond
aaye e
Ġunderst ood
Ġp ier
Ġb uddhi
Ġma heen
Ġat ah
Ġfour teen
ĠSax on
ry pt
ĠPet ers
ĠIndones ia
Ġboil ers
Ġaup chaarik
Ġk athan
Ġad min
Ġsm riti
Ġapeksha akrit
ĠA er
Ġpro ceeded
ach ing
Ġfund ament
Ġn aw
Ġsam ples
Ã¶ n
Ġparam eter
Ã «
Ġn ideshak
Ġam ateur
ĠSw iss
Ġkhil aadiyon
ĠOs lo
ĠK on
Ġbah um
Ġhind ust
Ġexpl icit
Ġinterse cts
Ġtransl ated
Ġprer ana
Ġt ut
Ġdestroy er
Ġconne ctions
Ġspok en
ĠK l
ĠAp pe
cul es
ing e
Ġsp ar
Ġinter medi
omet ric
Ġrak he
ĠMos cow
Ġc reek
Ġj ha
ĠL em
ĠE ar
ĠS ac
ag ger
str ong
Ġsam ple
ĠDe c
kaar on
Ġrefer ring
ĠGall ery
Ġb haa
Ġj ersey
ĠC ad
Ġcon ceived
Ġch havi
Ġlag ati
Ġdisplay s
ĠCamer on
Ġp ill
ĠR P
Ġcontin uous
Ġsix teen
Ġcertain ly
Ġcommunic ations
ĠS om
Ġ22 0
Ġlab our
Ġopt im
ĠPitts burgh
Ġo s
Ġwe igh
Ġpair s
Ġpaat hyak
ĠUp per
v et
an and
ĠR ud
ist ent
Ġrec ip
Ġsak en
aks han
Ġconstitution al
É Ļ
port ing
Ġwor n
ĠHar bor
Ġpaud hon
Ġj aaye
Ġst uff
ation ally
ish or
Ġshould er
Ġflow s
Ġtow ers
Ġroop on
Ġm ood
Ġor ange
Ġex ceed
Ġsign ature
Ġcle ared
mand ir
Ġ á
il ia
ri um
Ġy antra
ĠE dition
Ġpra ising
Ġvik i
Ġtact ics
as hes
ber ry
ĠK ate
ĠGe off
Ġqual ifying
Ġnew jiland
ĠEx per
Ġsurv ival
Ġpratinid hi
Ġ23 0
Ġprinc iples
ot hy
Ġ4 50
Ġcor on
Ġprogram ming
Ġvishesh gy
Ġmel ody
Ġw il
se ud
Ġrece pt
ĠSc ar
ĠBroad cast
Ġf est
Ġrul er
Ġgross ing
Ġa ft
Ġf asc
Ġl ar
us ee
Ġcha iye
d aan
Ġconf idence
ĠTer ry
kris ht
Ġto ured
Ġsamaad haan
ethel ess
z es
om on
av arti
iti ous
ĠSec urity
Ġmer c
Ġsus pect
ĠAnton io
Ġv ifal
ĠB reak
Ġun lik
Ġex hibit
ed an
ĠS ide
Ġre organ
ĠAl aska
Ġj yot
Ġna utical
Ġt ested
ĠB ald
ĠK ane
Ġro cks
Ġcomp ut
Ġ11 8
ĠWall ace
Ġpati ents
d han
Ã ¢
Ġma ani
Ġtax es
z an
Ġp akshi
Ġcomm enced
Ġopportun ities
Ġatt orney
Ġsun ishchit
Ġrecover y
Ġton nes
Ġh arsh
um ble
ĠO ri
oc ity
Ġshr unkh
Ġtravel ing
Î ±
ĠS weet
Ġun con
oc ation
Ġ10 1
Ġexper iments
Ġoon chaai
b acks
as ters
ĠC ass
Ġtar ang
ĠMay or
Ġjeet ne
en cer
ĠC BS
ĠP sy
Ġra igarh
ĠSt ill
war a
Ġtransport ed
Ġf ulf
Ġd ock
Ġsamp urna
n ak
Ġch ronic
ĠSt at
Ġso ver
Ġbl ues
ĠBl u
Ġdem o
Ġcompet itive
n ought
ane y
Ġacc ord
Ġminor ity
Ġfair ly
Ġne uro
ĠJ TW
Ġen force
ail ed
Ġrev olt
Ġrepresent ation
Ġrein forced
Ġnob le
ĠJTW C
ĠC P
Ġhis son
ĠSte f
Ġ186 5
Ġkav it
Ġdek hakar
Ġinstit ute
ic ing
Ġkar ane
ĠSy ria
ĠGra ce
ic ul
ons in
Ġrel ocated
Ġprav riti
Ġinde ed
Ġchikits ak
ĠMalay sia
Ġaadhyat mik
Ġsover eign
g in
l ain
Ġp aa
Ġf ile
ro oms
ĠR est
Ġcon ce
ĠPict ures
ug ar
ĠShe ff
ĠCl ay
Ġburn ing
ya hi
ĠC er
ri en
ĠSt ars
Ġsthan antarit
Ġcrop s
Ð °
ĠAfter math
Ġrev ised
Ġcommand ers
Ġpract ical
Ġclim b
Ġvaid ic
Ġbl og
Ġjay e
Ġchen nai
Ġim pression
Ġover lap
ĠEn t
Ġpahunch ane
Ġsam anta
Ġwar fare
ĠC it
Ġcon d
app a
Ġpraband hak
Ġsm art
Ġab use
Ġsup plement
Ġprov inces
uss ion
Ġprom in
urric anes
iff s
ĠF ro
Ġwithdra wn
Ġprag ati
Ġinterpre ted
Ġswaam itv
Ġo m
Ġ11 9
Ġadhya y
Ġnyaaya dhish
Ġd ush
Ġg ala
ĠYou T
ĠIsra eli
ed aar
ĠL uke
Ġcharacter istic
Ġmulti player
ĠLar ry
Ġdispl aced
ĠSheff ield
n ath
ang le
Ġsak shar
st ance
iv ik
ĠP ast
ĠF BI
Ġext ending
Ġblock ed
Ġvo ices
ĠSus an
c ially
Ġit ani
Ġra has
Ġlif t
Ġpropos als
Ġaal oc
Ġbeaut y
ĠFI FA
D A
p ers
as av
as ia
id hyalay
Ġdist ricts
Ġparticip ation
Ġuts av
Ġg ender
ĠOffic er
Î ¿
om as
ĠL iter
Ġtr end
Ġaut umn
ĠGame S
Ġ185 7
Ġic on
Ġparibhaas ha
g at
p ak
Ġr iding
Ġchal ati
ĠQu est
Ġre jo
ch y
Ġbad hane
Ġhy derabad
Ġgar bh
ĠJeff erson
Ġlet i
Ġlight s
Ġprison er
it ure
Ġma are
ĠPr iv
Ġopt ions
e an
Ġkarm chaariyon
Ġlearn s
Ã ¥
ig s
ĠP S
ĠR ena
ĠHer ald
Ġchunaav on
ĠAuthor ity
ĠDall as
Ġdist ant
ici ency
Ġsambh d
ĠB ert
Ġst reak
Ġraj put
ĠGu inea
ĠClar ke
Ġwarn ings
ĠYouT ube
b ian
n aayen
Ġth os
ĠC urt
Ġsam eep
Ġpre gn
Ġem pty
Ġcryst al
ĠR oom
Ġsc ores
Ġ11 1
ĠJohn ston
ĠBry an
ĠT ogether
ĠM ix
Ġappro aches
Ġjud g
Ġindust ries
Ġimaar at
ĠPerforman ce
ĠAust in
Ġbar b
ĠC yrus
Ġrel atives
Ġbr ands
Ġsk ill
Ġmer i
Ġmor ph
ĠM ey
Ġch u
ĠK in
ire ct
Ġmy ster
ĠDef ense
ĠO range
band han
ĠSte el
Ġi P
ĠGre ater
Ġsug ar
ĠD aw
Ġstat istics
Ġcut s
Ġshift ed
l ist
Ġsh od
Ġdiv asiy
Ġjam aa
Ġrival ry
Ġt ent
Ġp ant
Ġl od
ĠW oman
qu ate
Ġtradition s
E R
ha ari
ĠW ells
Ġass am
Ġcar ries
Ġlin er
os han
ĠO wen
Ġch ore
Ġair ing
Ġnumber ed
Ġrest ore
Ġun w
Ġkar aane
ĠV ic
Ġout l
Ġlight ing
ĠN ord
ĠClass ic
Ġs ings
ad ar
ĠE ight
Ġhu ye
ubl in
ala ya
ĠOff icial
Ġabs ent
Ġkhar ch
Ġre hears
ĠI l
ĠW heel
Ġrock et
ĠAg ency
Ġgirl friend
ĠStud io
Ġorient ed
Ġover lo
ĠPars ons
as an
ĠJ ama
Ġval uable
Ġtransport ation
en os
ĠD anish
act s
kh on
Ġbr illi
Ġrom ance
Ġprepar ing
Ġandh ra
ĠH at
Ġ188 7
Ġreb els
Ġkaus hal
m el
ĠA A
ĠV el
land ers
alam aanon
Ġpe edi
Ġran neet
had ur
ĠChel sea
Ġun com
rut h
ir ate
ak ers
Ġvid ya
Ġprot ests
Ġkarav aaya
s or
cl iff
Ġbh u
ĠX X
ĠDes cription
ĠForm ation
Ġapplic ations
ĠMcK in
ĠRal ph
Ġunlik ely
Ġin clusion
ĠAlex and
Ġhol iday
u its
Ġk one
ĠH ab
Ġpass ion
ĠNe ar
Ġsal ary
Ġcycl ones
Ġinterview s
ĠCat hedral
h ill
Ġw ished
ĠT am
Ġpra khand
ĠCra w
a ired
Ġt eevr
Ġb hat
Ġe ating
Ġst all
ph al
Ġband argah
ĠNe il
Ġsum mit
Ġs ukh
ic hi
Ġsur ve
Ġnird haaran
ĠGreat est
Ġmaintain ing
Ġgrand father
Ġa aw
Ġp m
Ġdin osaur
Ġbhag id
ĠArm strong
Ġf rench
ĠE ve
Ġfilm mak
Ġhar aaya
ĠOr le
ĠQue bec
ĠW alt
ĠE mer
ĠV ers
Ġpres idency
sha alee
ĠBrazil ian
Ġpeed it
he ll
Ġto ler
Ġma z
ĠSe ga
Ġdra v
ĠCult ural
ĠBeg inning
ĠN S
Ġud hyam
Ġcamp s
Ġaccur ate
er ving
Ġr atio
ĠD in
Ġcour ses
Ġphys ics
Ġreform s
Ġavish kaar
w er
Ġn aar
Ġun m
ee per
Ġsignific ance
ĠKa iser
Ġkore a
ĠC os
Ġek s
Ġinter vention
Ġz ila
ĠFour th
AT O
ĠSpir it
ĠA ctor
ĠH ad
Ġra chit
Ġra cial
Ġinf lict
Ġbene ath
H L
Ġprat ap
Ġbah u
Ġarg uing
Ġestim ates
Ġlak hanu
samb andhit
Ġd ainik
Ġrec urring
Ġdrum mer
s burg
Ġpet ition
Ġcarbon ic
ura v
ĠA L
Ġsm oke
Ġna yak
ling ton
Ġprocess es
Ġnikaal a
Ġdivers e
Ù ħ
Ġsha astra
ĠNe v
Ġvulner able
p u
Ġj angal
hak ti
Ġrele g
ĠPro du
Ġadvert is
Ġm ate
Ġme jab
Ġgun a
Ġcorpor ate
th odox
Ġup set
Ġkill s
Ġansw er
b od
Ġp ac
Ġd op
Ġd ual
ang i
Ġsw it
Ġdarshan ik
Ġspons ored
N e
b ank
Ġm aad
hi y
et e
osp el
kaal ay
Ġpaar it
Ġt rick
pr ati
Ġagricult ure
Ġanuro dh
Ġj ite
Ġdek hi
ĠConstant in
ab ilities
ros cop
ĠJun ior
Ġcolumn s
Ġrup ee
Ġbang la
Ġsac rif
Ġpratishth it
Ġunex pected
ra ham
ĠC e
um s
Ġcl othes
Ġ10 2
ĠRe ich
aav at
Ġkh o
Ġess entially
Ġdwar f
i as
Ġsans kaar
Ġsent ence
ĠOrle ans
p ol
ĠM end
Ġfor e
ĠX II
Ġbac hapan
Ġshall ow
ĠUt ah
ag ram
ĠR y
Ġsa iling
ose xual
Ġcons olid
Ġtour s
ĠGl obe
Ġfac es
Ġimplement ed
p ram
ĠK am
Ġ11 7
Ġlif etime
ĠT ham
av ya
ĠNew ton
ĠHar old
ĠBro oks
it able
Ġsh un
de y
Ġsarv apratham
Ġsanghathan on
Ġmain e
ĠMin or
Ġk ila
en berg
Ġmer ged
ĠSerb ian
Ġdecor ated
d iv
ck er
Ġjimmed aar
Ġre ct
Ġman age
Ġchar ted
Ġsambha vit
Ġm aah
ap s
adi yon
Ġlast ing
uck er
Ġbar f
Ġox ide
ĠFall s
Ġcoff ee
Ġ ireland
Ġp enn
Ġhe ir
um ar
Ġemot ion
Ġthe ories
Ġc ards
ha ate
Ġn om
ĠA y
Ġr aav
ap ad
Ġcent imet
ĠRich mond
Ġsurpr ised
aavd haan
Ġh tt
Ġbe ating
ĠProv ince
ĠS pr
Ġwid th
Ġchem istry
Ġto oth
ĠCh ile
Ġyog yata
ĠQu ar
ĠHal f
Ġbeat en
Ġp ate
Ġar chi
igyan ikon
d ess
Ġr ings
ĠR io
hya art
ĠPan zer
Ġg oli
id ia
ak u
Ġraj natik
Ġ186 4
Ġdeep ly
Ġsurvey kshan
Ġam p
ĠShe p
pan ik
ett es
Ġjati yon
ĠElect ric
ah on
Ġpro of
Ġup abh
Ġdec is
Ġsquadron s
Ġprajati yon
ĠS ud
Ġre actions
ac le
Ġsh rey
Ġscreen play
ĠConstant ine
Ġo ct
ĠW he
Ġnadi yon
Ġpot entially
Ġvaast uk
Ġalt itude
ar o
Ġg ear
Ġen act
ĠOr che
Ġ188 6
Ġlad ki
kshe tra
b in
ĠF ull
Ġfle x
am ount
Ġch hap
Ġaustral ian
Ġproport ion
Ġd rift
re ated
ad esh
Ġgra ve
Ġdraft ed
le vard
Ġcr imes
ĠPict ure
h ou
Ġpr arth
Ġsh y
Ġch ith
ĠLe v
Ġlag ate
li um
ĠRepublic ans
ĠTy ler
Ġgard ens
Ġw iliam
Ġaap ke
Ġcivil ians
Ġmish rit
Ġsusp ic
Ġkush al
b ach
Ġn ip
Ġass um
Ġbre aks
ĠTra de
Ġseg ments
ĠScient ology
à ¤
Ġk ach
Ġhe ll
ĠSt uart
Ġdesc ent
Ġpresent ation
Ġshr eshth
Ġkram shah
Ġcon ven
oc ene
Ġstruct ural
Ġdanc ers
esc ope
Ġdars hakon
ĠW onder
ĠE C
ov an
ff e
ani j
Ġkn ee
Ar thur
ak aar
ĠF ighter
Ġfund ed
Ġtrib e
Ġvicha ard
rit t
Ġab hik
ĠAp ollo
Ġd ense
ĠS ultan
ĠU C
und a
Ġaccommod ate
Ġâ ģ
Ġsup ern
Ã© n
Ġsaam aan
Ġprincip le
Ġk ism
ot es
ĠAr chi
Ġkah ata
Ġpersu aded
t ee
ĠP ok
her ic
eg as
is ons
Ġdis order
hat aa
bo ards
ĠMu hammad
Ġmahav idhyalay
Ġadmin ister
Ġl ung
Ġbe ars
à ®
er ver
Ġj aad
ma har
Ġanup rayog
Ġvaar ta
Ġt ension
en burg
is he
ĠC ode
ĠK u
iy am
Ġconf usion
Ġpost er
vish wa
Ġde h
qu al
Ġpura ana
ĠCons ervation
ĠIndones ian
Ġc arn
ĠY am
g us
Ġre ver
Ġgun on
Ġrequ iring
ĠAm endment
Ġ188 4
ĠReg ister
Ġs ic
Ġr ip
Ġinter action
Ġ12 6
Ġcompl ained
Ġpancha yat
ĠBuff alo
Ġb ai
ĠG ang
ĠN ature
Ġlok t
Ġaddress ed
ĠSymph ony
c ia
Ġg ift
Ġr aa
ĠI van
Ġdev oted
Ġquar ters
ĠJo an
ĠN as
Ġfe ared
Ġkaar ak
g aj
Ġev ident
let t
pi racy
Ġsout heastern
ĠHun ter
k ala
Ġs uk
ĠG round
ka on
Ġmar athi
Ġshuruu aat
c at
Ġt ies
Ġop ens
ĠDay s
Ġus age
Ġen abled
ĠAd v
ĠPl ant
ĠCard iff
Ġa qu
ĠP oll
os ing
Ġra v
Ġshr im
Ġobl ig
av el
ee van
Ġ184 0
ĠIslam ic
Ġdiplom atic
ak atha
ĠW isc
ĠWith out
Ġobs ervation
ĠA ber
ĠSe ction
Ġoper ates
Ġreport ing
Ġhand le
Ġresear chers
Ġjurisd iction
Ġk ot
ĠT ob
ĠC ann
ĠP ant
Ġfollow ers
Ġext inct
Ġash ram
Ġbow l
Ġsaaksha atkaar
ĠT ang
ri fic
ĠK yle
Ġ15 7
Ġstat ements
b ie
Ġconstit u
Ġvo yage
Ġdurg hat
ĠC avalry
Ġmyth ology
ĠF ather
Ġsak aaratmak
ĠBurn s
it ated
ĠM ind
ri or
Ġtar a
ĠFl ag
Ġpregn ant
v aadi
Ġf ab
ĠS ox
og le
Ġmag adh
Ġmahar aja
re hens
ĠD anny
Ġag es
Ġjud ges
Ġpratiband h
par ik
Ġmugh al
Ġvanas pati
p en
Ġâģ Ħ
u il
Ġp ist
Ġwrit ings
Ġsudden ly
n ut
Ġ10 7
Ġvis phot
iet h
Ġbhoom ik
Ġsculpt ure
ĠP y
ild a
ss on
haal aanki
ĠAb u
ĠMet ropolitan
Ġgod s
Ġhighlight ed
ĠExec utive
Ġsambhd dha
Ġt abhi
ĠUn til
Ġso oc
ĠAir lines
Ġ186 2
ÃŃ n
c ut
w arsity
Ġs ized
ĠF itz
Ġup ree
Ġbl ast
Ġcomment ing
ĠPier re
A L
w and
Ġst ones
ĠH ope
os y
Ġvan ade
Ġhapp en
ÃŃ a
Ġanant pur
v o
Ġman if
ĠBo eing
ĠGra de
cel and
ĠJer usalem
Ġs ulf
ak arta
Ġcon j
Ġad il
ĠSt art
so on
Ġshi kshan
ĠAct ress
Ġemb arked
Ġt in
Ġma ps
Ġg op
Ġst yl
Ġloc ally
Ġext ensively
ĠMan agement
Ġdeal ing
Ġchalleng es
m ud
Ġd avid
ĠB ible
od aa
pl ant
bha s
Ġins pe
ij ing
Ġjal di
ĠLeg isl
Ġadvan cing
Ġdocument ed
Ġkhad aa
ĠWisc onsin
Ġb ir
Ġg aining
Ġstud ying
uniya di
Ġk ut
Ġth rown
Ġsimilar ities
es haan
Ġr aste
Ġkh in
Ġproduc es
Ġvari ation
Ġhar mon
ĠJust in
Ġchaa he
d an
Ġd rown
Ġapp ly
Ġhel ps
ĠMont gom
ĠMontgom ery
k as
it hi
Ġsw ord
Ġhar bour
ĠTy phoon
Ġa u
ane k
Ġsha k
Ġsw arg
Ġsub stitute
Ġ11 6
ĠIndepend ence
Ġse as
ab we
Ġequ ally
Ġpaan cha
ĠMax im
Ġpeshe war
ĠM ann
Ġinf rastructure
sha har
Ġnam ing
ot ion
ĠB es
Ġeduc ated
Ġlek hakon
Ġ97 8
uls ion
Ġdivor ce
Ġres olved
Ġkn ocked
Ġexpl aining
Ġsent enced
Ġbound aries
Ġvil ay
pie ce
Ġn aus
ĠB ased
ĠCent ury
ĠCr us
ĠBarn es
Ġf ox
ik el
um in
Ġg olf
Ġr ivals
Ġan em
Ġch att
ĠSe an
imb abwe
ĠMov ie
Ġbeem aa
Ġsamjha ute
Ġdisturb ance
an im
ĠS op
ĠR O
chaar ee
Ġcounter p
Ġc ash
Ġc atholic
Ġg aaya
ĠSch um
Ġpred ators
Ġch ou
ob al
Ġbad ale
Ġtem po
Ġtradition ally
ay er
ĠF ern
Ġja ipur
Ġpri est
Ġbab a
Ġshik har
Ġtiss ue
ĠP ap
ah it
Ġup s
Ġep ic
Ġva ik
Ġrece ives
cell or
E T
b us
Ġfe ver
Ġsak aa
ĠRog ers
ĠSat urn
Ġshrunkh laa
Ġd ust
ct ors
Ġad e
Ġnav ig
Ġ186 3
Ġjaw aab
Ġnauk ari
Ġforec ast
hi z
ĠM all
n ag
Ġdisc s
Ġprote ins
ĠMil es
Ġtap e
Ġdiscont in
ĠN ova
Ġcl ip
Ġ uk
Ġsw ing
ĠLe af
Ġvolunte ers
Ġg ale
ĠF ace
ĠTur key
ici ently
Ġrand om
ad aa
ĠM idd
Ġinvol ves
Ġsettle ments
Ġbenef its
ĠAtt orney
or us
Ġang el
Ġkaal e
Ġstret ch
Ġilaa ke
c ham
Ġf old
am o
Ġut krisht
Ġtees raa
sand arbh
v ised
ig ya
ick ing
Ġrem ote
Ġvill ain
ĠPat ri
Ġkap ade
Ġrend ered
Ġvichaard haara
a way
m ont
Ġk oun
ĠH i
ip her
Ġbh oj
Ġcomple ment
Ġcommer cially
Ġavas hya
Ġgarn ered
Ġspa wn
Ù Ĩ
Ġja haaj
Ġparv ati
vaal a
m aar
Ġst roke
ĠF act
ĠSc ots
Ġexpl ore
ĠChrist ians
Ġconsider ably
Ġtrav elling
Ġbait hak
Ġrecru ited
C O
ĠD raft
Ġconcern ing
Ġvishes ht
Ġtick ets
oc ent
ĠAn tar
Ġ13 8
ĠMac Arthur
Ġchith ran
f ly
ĠC emetery
ĠSte in
Ġvarg eekaran
Ġtim ber
Ġresc ued
Ġbhug olic
Ġsakshar taa
or f
ell ar
Ġvel ocity
Ġs if
Ġc ow
aa c
ĠA ges
Ġsan kshipt
Ġtw achaa
Ġdim in
Ġfals waroop
ag ers
Ġpar id
bh ug
Ġhost ile
Ġl ah
Ġg um
Ġ12 8
Ġcr ashed
n aam
ĠM and
Ġst er
Ġst ern
ell ers
Ġweak ening
Ġash ore
Ġ ËĪ
Ġd ying
Ġg ov
Ë Ĳ
ĠN ATO
asw ati
ĠI celand
Ġbatt ed
Ġanub andh
ĠN eb
ne x
eg hra
ĠBar on
ĠCont rol
Ġconflict s
Ġtask ed
Ġkaaf ii
á º
ĠS af
ĠC row
Ġmix ture
Ġver te
Ġelabor ate
j ain
l ights
ĠSp ider
Ġhous ed
Ġdepict s
Ġescort ed
Ġksh at
Ġpar ic
ib i
Ġed itions
Ġfor b
ĠF low
Ġsam hita
Ġpat ent
Ġstud ios
Ġbor row
yank an
Ġma ham
ĠIn vest
ĠFar m
Ġtan aav
ar aar
Ġm antra
Ġf n
om i
har y
Ġle af
ĠK rist
Ġpurs uit
ĠLeon ard
W A
Ġas w
ĠR uth
Ġpak istani
Ġmanufact uring
Ġin ning
Ġre ass
ric ks
Ġcompet itions
Ġkaal panik
Ġsaan sad
Ġanu y
ĠBalt ic
ou rag
ĠT ake
ĠC had
ĠB ud
Ġbha y
Ġ12 9
Ġcolle ctions
ĠJud ge
v ad
Ġl ac
Ġauthor ized
Ġpaud he
ĠTham es
Ġd inner
Ġv ital
ĠS alt
hi es
ĠI g
Ġcol ours
ala ate
Ġsupport s
Ġhand ling
ĠEv il
ĠRom ney
Ġimprison ed
Ġtyo haar
et ary
ĠP ul
Ġal igarh
ĠZ one
Ġoppos ing
Ġshuk la
Ġc ensus
ĠL P
Ġmus alamaanon
Ġkill er
Ġdra in
Ġdek he
Ġwars hips
ag les
ĠHe arts
Ġteam mate
Ġrev ival
Ġparticip ants
ĠBarb ara
Ġhoriz ont
el ia
ĠAt hens
b ur
Ġg t
un ning
ard i
Ġvari ations
Ġevent ual
ĠReg ional
Ġ187 6
Ġpurs ued
Ġuni warsity
i ation
w right
Ø ±
ĠEn vironment
Ġpol ar
Ġdas ha
he y
Ġc able
ur veda
ĠW ant
rit ic
ĠCom edy
Ġmed als
Ġ187 7
Ġgre esh
Ġkab ja
Ġexam ination
Ġvirt ually
ĠAgain st
Ġfavou rite
ic on
Ġg ates
Ġtr unk
Ġdr ink
ĠD ak
Ġal ps
Ġab road
ĠRe agan
Ġpolit icians
ĠSher man
ghaat an
L A
Ġpar king
Ġur ged
Ġbelief s
Ġveter an
Ġ ãĥ
is ition
ĠF ight
ĠRe port
Ġsus pected
ur red
Ġal ank
ĠK id
Ġpad e
Ġlabor atory
ĠRepresent atives
Ġb ali
ĠH unt
Ġcirc ular
ĠMag ic
Ġh orm
ĠB uck
Ġvar isht
Ġunivers ities
Ġphen omen
Ġcha se
Ġkhar aab
Ġeas ier
Ġrenew ed
s is
Ġre porter
ig ious
ĠRe f
Ġut sar
Ġgt c
d arshan
g ary
ĠF isher
ĠN ancy
Ġsub ah
Ġpat an
Ġupg rah
g Ã©
ĠS onic
Ġorgan isms
Ġhop es
Ġbhakt hi
Ġb arn
Ġra hen
Ġun ve
Ġdi waar
Ġvid hyaart
Ġbi ological
Ġjari ye
Ġan j
Ġ188 1
Ġrog on
Ġker ani
pash chi
ĠTrib une
Ġnaz ar
Ġprots aahit
ĠB ranch
ĠW es
Ġun de
Ġthere by
Ġpust kaalay
Ġju ven
h pur
Ġc attle
Ġst olen
ĠO h
qu er
Ġrec all
Ġoff is
Ġnir yaat
Ġposs ess
Ġ188 3
Ġpromot ing
Ġsanshod han
b rew
Ġo t
Ġe agle
ĠD J
Ġprat ha
Ġshar ks
Ġparamp araagat
Ġinher ited
ack ed
Ġoff s
Ġins urance
k rut
w orld
ar at
ĠJ oint
rest rial
Ġboy friend
ĠPortug al
Ġremember ed
ĠS or
Ġr ushing
pe e
Ġkam ai
Ġrachan aaon
Ġtrail er
Ġanuro op
Ġv ina
Ġkey board
Ġshas kaon
ĠP as
Ġpit cher
Ġvyapaar ik
ĠLabor atory
ĠErn est
ud ed
ang ular
rid or
Ġt aste
Ġl oud
Ġdecre ased
it ic
od ia
ĠNew castle
Ġshuru aati
Ġtrack ed
Ġcapt uring
Ġbe had
ĠEn ergy
Ġbh oot
20 11
ĠLeg end
Ġconfir m
ĠW ed
ect or
Ġprot otype
Ġbombard ment
Ġ7 50
Ġbi ography
Ġpan j
Ġaccess ible
ĠLiber ty
Ġpos itively
ĠPl ace
ĠEl li
Ġw arned
Ġto ols
Ġcompos itions
Ġ187 5
Ġsepar ation
Ġaccident ally
ĠJos Ã©
en o
Ġd ak
ĠG on
ĠY outh
rib le
Ġspect rum
Ġkid nap
Ġtrap ped
Ġb um
ot on
ĠBr ight
Ġcost ume
ĠMet ro
Ġceleb ration
Ġdos ha
ĠConstantin ople
Ġk hit
ĠGl as
Ġjhar khand
i ents
Ġp ith
ĠT erm
Ġup coming
Ġinv aded
Ġel ite
ĠMer ced
Ġmaal ik
ĠCharl otte
ĠAff airs
y ut
Ġ188 2
Ġdekh bhaal
Ġsthal on
ĠPerson nel
Ġto xic
ard h
mad hya
ick en
Ġhard ware
Ġet c
Ġshast reey
Ġf ant
ĠC ryst
ij na
Ġpartic les
Ġmark ing
Ġaks har
Ġtip pan
Ġdepend ent
in ates
Ġp uj
Ġl iver
ĠF ish
ram id
Ġhop ing
Ġm ask
Ġpr est
ti yaan
ĠV oice
ĠCan adi
alp ik
ĠFre edom
Ġoccas ional
Ġmush kil
ĠHeavy weight
Ġn ose
ĠC ase
ĠM V
Ġprom ise
Ġconf ig
get t
Ġbac haane
it ol
ĠS aw
Ġst ambh
Ġra g
Ġbom ber
Ġavo ided
f ound
aa q
Ġn aat
ĠT itan
Ġinter act
Ġim plic
ĠCorn wall
ĠChap el
Ġanticip ated
g ow
Ġd awa
il ie
Ġ11 4
Ġkh ate
r one
at antr
Ġsang yojan
Ġkha dey
ĠC inem
Ġsc andal
Ġtr uck
Ġimpress ive
Ġnit rogen
Ġnait ik
Ġth odaa
Ġra ins
Ġkn ock
Ġmix ing
ĠPet e
Ġsusp ension
ĠÄ Ĳ
Ġapan aaya
Ġs inking
ik o
ĠOther s
Ġil aakon
Ġs ag
Ġsa ura
Ġnam oon
Ġkrantik ari
Ġbatter ies
P S
Ġ18 30
Ġag rani
Ġdo zen
ani yaan
Ġprov isions
Ġpolit ician
ĠTechn ology
h ali
ĠT ree
Ġair lines
Ġkarm chaaree
Ġvak t
Ġkhit aab
Ġm rit
it u
Ġsans aadhan
Ġjaan ate
col m
Ġp anc
ĠA qu
ĠB apt
ĠF il
Ġpl ates
Ġfir es
ĠAr chitect
Ġcan n
Ġgu ests
to ok
Ġmaha bharat
Ġhen ce
he tra
Ġtra dem
Ġnick name
prat ham
ĠPed ro
Ġf o
Ġf isher
Ġr ice
ag en
Ġnot iced
Ġmahat ma
Ġparliament ary
ol ia
pt ic
Ġrel ation
ĠFilm ing
ĠArmen ian
Ġp um
al is
ĠFriend s
Ġg ym
Ġpar ade
Ġind igenous
Ġaff ord
c our
l al
Ġl ighter
ĠF un
ah l
aan k
Ġud a
Ġconsum ption
Ġtru ly
n im
ĠT ak
ĠS ic
ĠM embers
Ġst im
art ime
ĠLe ices
ĠZ ero
Ġsamp adan
Ġthreat s
ĠKenn eth
Ġord inary
Ġrestrict ions
Ġv amp
ĠP eng
aar t
Ġvolcan ic
R C
ed e
Ġb uniyadi
ay ik
Ġav yav
Ġbol lywood
d is
Ġk en
Ġm ith
ro e
Ġh ide
ĠB ark
Ġut haa
ĠMar ines
ĠChe ster
Ġign ored
b ast
ov ic
ip h
ĠAl ban
emb le
Ġmaj ab
Ġarg uments
ĠOs car
Ġcod ice
ĠR u
Ġdep uty
Ġprocess ing
Ġprogress ed
iel der
c or
t n
ĠT ul
Ġne hru
ip on
Ġbas aa
heim er
Ġsh ishy
ari us
Ġja ev
Ġban aati
ĠIs aac
Ġpen insula
Ġspok es
ĠProtest ant
y st
Ġk aksh
Ġl ord
Ġma as
ol o
ant ron
ĠN am
Ġim posed
Ġoccur ring
Ġabhi vyakti
Ġthor ough
ĠMeteor ological
Ġtippan ee
g ans
in ery
Ġma uk
inn ed
Ġlat in
ĠMal colm
Ġpraya ason
chang ed
Ġs ate
ĠA ction
ot ing
op les
Ġmet re
ĠBe ars
Ġz ero
Ġg rih
ĠC inc
ĠC ena
ĠP on
Ġvik hyath
Ġtw anti
Ġ186 7
Ġsanst haanon
gra han
ĠOrche stra
er ia
Ġb is
Ġj ai
ĠD ublin
Ġjud i
Ġ186 9
Ġneut ron
ro v
av ian
Ġbo ost
Ġpat ri
Ġmurder ed
Ġanuk ool
ĠChamber lain
ĠBou levard
Ġw ound
ĠC and
ang ik
Ġbre ast
Ġcontract s
Ġcust omers
Ġpratispard haa
ĠAl tern
ĠCE O
Ġc u
ĠK az
Ġthe rapy
ĠC het
ĠIn v
Ġ187 3
Ġash ok
Ġox id
Ġevacu ation
a isi
omb ia
ĠCare er
Ġzyaad a
lag bhag
Ġdread nought
H g
Ġbee j
h all
Ġc ement
Ġex ile
aal iyon
Ġdefend ers
Ġksh ati
Ġyad hyapi
id ar
ĠL amb
ĠK o
Ġmechan ism
ruk habad
Ġin fer
ĠP ra
ĠE RA
Ġpaathyak ram
Ġf inger
ĠA ren
aan ch
Ġpack age
Ġintellect ual
it ime
us ki
Ġra hanaa
act ic
Ġ187 1
ĠStud ies
Ġlaws uit
mo han
ĠAthlet ic
Ġexplan ation
Ġis n
Ġdecre ase
on so
ĠP ay
Ġsc out
Ġbl ike
ung a
Ġdeb ris
ĠFer r
Ġdepict ing
ĠGab ri
he ld
Ġw ake
Ġg if
Ġmuk ti
Ġcomplic ated
att ar
Ġspec ulation
Ġsanst haaon
Ġprogress ive
ĠLu ft
Ġnishk arsh
ĠCycl one
ar us
as p
Ġn ur
ir maan
os ion
ie g
ĠEd die
Ġ186 6
Ġengine ers
R S
Ġar ena
ac les
ĠHe y
ĠAn y
Ġsm arak
Ġ187 2
Ġterrit orial
Ġconvers ation
t z
Ġst amp
Ġas ide
ĠR I
ĠL S
ĠL ower
ĠCha ir
ĠBrad ley
Ġnep hew
Ġbhasha ayen
f low
Ġdevelop ments
Ġinf ection
Ġang ry
ĠCont inental
Ġmagn etic
Ġconqu est
ĠS A
Ġr iv
ĠF uture
ov ar
Ġve g
Ġencoun ters
Ġdisappoint ed
Ġportra it
Ä «
ub a
Ġport ug
Ġeast ward
ĠSl av
Ġgraph ic
ĠVII I
ĠH app
ĠG lee
Ġsh ulk
Ġread er
Ġsuper st
ĠWW F
Ġs ati
kar a
Ġpres erve
Ġdhar ti
Ġnay i
Ġb ain
Ġpost s
ĠTour nament
umber ed
Ġthrow ing
ra cks
Ġg ren
Ġde e
ĠK it
Ġkal yaan
Ġhuman ity
Ġthreat ening
Ġmel a
b en
ĠAlber ta
ha ul
ass ic
hap it
Ġly rical
Ġkarn ulu
c ore
Ġst eep
Ġ187 8
ĠColle ction
Ġwood s
ĠSerb ia
ĠArch bishop
ĠFried rich
Ġd ed
har aai
Ġlack ing
Ġconv icted
Ġrevolution ary
Ġmanor anjan
Ġundert aken
g rim
er ies
Ġp has
Ġpar at
Ġ14 9
Ġbre ad
Ġthunder storm
z o
Ã ´
Ġk and
ĠV illa
Ġconf ident
Ġmount s
Ġjod ne
duus are
Ġprarth ana
ĠCinc inn
Ġ æ
ent ieth
ĠC ort
ĠG ates
Ġsura j
Ġhol es
p ic
Ġun ani
Ġorgan ic
yav ad
Ġjor ge
n adu
s at
Ġvic inity
Ġrog iyon
ĠTom my
Ġshop ping
ap h
Ġsp ell
Ġreal istic
Ġeg g
Ġstrik es
anij yik
Ġt ad
Ġs ou
ĠLe o
ĠPar ks
Ġtouchdown s
or ic
Ġb im
Ġkaary kaal
Ġfac ilit
Ġremov ing
Ġbur st
Ġmess ages
Ġfocus es
Ġsuvid haayen
Ġud ghaatan
ĠBel le
Ġcontact ed
Ġfarm ers
Ġmamm als
Ġvira asat
r ass
ha sh
ĠD uch
Ġres id
Ġrem ar
Ġchit rit
ĠSpring field
duus ari
Ġinaug ural
in on
Ġb apt
ĠT int
Ġj ilon
Ġro ster
Ġbut ter
Ġper c
Ġen com
Ġla ugh
Ġparam eters
ĠAnc ient
Ġt ang
Ġt amb
ĠF ab
Ġar ose
ĠG ay
ĠU k
aj eet
Ġret rie
Ġconst antly
Ġchal aane
Ġvot ers
ĠMuslim s
Ġho ok
Ġkaal i
ĠÃ ī
Ġkath or
oir s
Ġk ur
is al
Ġl un
ay on
ard ed
Ġn al
ĠE g
ath on
rib ution
Ġbal ak
ĠMal ta
mus ic
Ġmool yankan
ĠDe cl
Ġlo ver
uj i
ĠCo al
Ġfn r
Ġt une
ub ble
Ġpat ra
lim inary
ĠMarsh al
Ġkary rat
Ġdh und
ĠYugoslav ia
Ġsem if
Ġfundament al
Ġmyster ious
Ġn and
ĠT ir
ĠP ine
Ġdes per
Ġcent ered
Ġcorrespond ing
Ġarj una
Ġtar eek
Ġbre ath
Ġsust ain
Ġcollabor ated
Ġabsor bed
ĠWag ner
ĠG y
Ġshe ep
Ġvya karan
rav at
Ġpredomin antly
Ġbrilli ant
ĠB asket
ĠH ood
Ġass erted
Ġcast les
ari um
Ġhas ya
ĠCom ics
Ġnet aaon
Ġsitu ations
ĠRob in
Ġkaaryak ari
Ġillust rated
ĠGib raltar
Ġfeather s
v igyaan
£ o
ĠM aced
ĠM aine
uk ta
ĠTw itter
ĠTai wan
Ġpar eshaan
ĠF ly
Ġwe in
Ġview ing
Ġraajnneet ijna
ĠCincinn ati
l en
ĠJ ake
Ġap olog
Ġcomp iled
ĠFor mer
Ġput ree
ĠShi va
Ġfilm ein
Ġqu e
Ġshi kshak
rad es
Ġkhel te
Ġindepend ently
shi ksha
ĠH ull
ass y
ĠRe ed
Ġrele asing
Ġcham ak
as am
om ing
Ġkn ows
Ġgh ost
g hat
o har
Ġar ya
du ate
Ġda ud
enn ial
Ġgrow s
Ġbank ing
Ġa ach
Ġj ew
ant ee
Ġch hid
att y
ĠRe ar
atur ally
Ġmu q
ĠWat ers
Ġsuvidha on
ant o
ier ra
Ġbill ian
Ġsaal on
Ġspeed s
ĠAf ghanistan
r aam
ch in
ĠF el
ĠL ords
iy at
ĠAll iance
Ġdhru v
Ġw ool
Ġc el
as ury
Ġst ored
Ġdhar na
ĠAngel ou
ĠNorm andy
on ica
Ġk ids
ank it
Ġbreed s
d r
ĠR ound
Ġrem ind
Ġbad la
Ġaa haar
Ġlay ers
Ġrelie ved
ĠC ond
ĠSt re
200 7
chand ra
ab l
ant rit
ane ous
Ġen orm
ki i
Ġcal ifornia
umber land
Ġcancel ed
k abhi
im ir
par in
Ġtour ist
Ġben ch
ĠNAS A
p urna
Ġg ath
Ġfung us
Ġa est
Ġb am
Ġnaam on
ves han
Ġi raq
Ġst up
Ġat op
Ġcr est
Ġple ased
rel s
ĠShi eld
Ġpros per
ĠPok Ã©
k im
Ġs hed
Ġa hamed
ĠT ha
Ġit em
Ġkar r
ĠV egas
ĠY ank
ĠEd mund
Ġroad way
Ġjeev on
ĠD ud
ĠL ud
ĠK ill
Ġback st
Ġkhan ij
ĠOrgan ization
Ġpratim aa
j ak
Ġout standing
ĠMad ison
Ġchint aa
G M
a o
ro ton
ok es
Ġcould n
Ġmar ched
chi at
Ġexp anding
Ġsuggest ion
ĠBC E
ĠJul ian
s u
Ġj er
ĠE ld
Ġoff shore
Ġcol ored
ali ye
Ġfar rukhabad
Ã¶ r
Ġvary ing
H S
c ont
Ġp seud
Ġgen res
ĠSim ilar
Ġprabhaav shaalee
ĠOl ivia
Ġtik aa
ĠGreg ory
Ġarthsha astra
Ġs ne
Ġcl ergy
Ġlocomot ives
ĠH us
ĠR us
Ġexec ut
Ġpustak en
ĠSol ar
Ġinteg rated
Ġaaw aaj
ĠE qu
Ġdis lik
Ġreg ulations
Ġflow er
Ġsaaman ytah
Ġaurang abad
m ail
Ġb ore
ĠC hem
ut am
Ġar d
Ġsam av
Ġpay ing
ĠCons ervative
Ġvivid hta
Ġadil abad
Ġt antr
Ġk ishor
Ġh ans
ĠDe put
Ġtar al
Ġ14 8
Ġclos ure
ĠBur ke
ĠRevolution ary
ĠMerc ury
ov sky
Ġvay ask
p se
ann ed
Ġkrit rim
Ġbata ate
ug s
ens ional
ĠLe eds
Ġsent iment
Ġ186 8
Ġscreen ing
Ġceleb rate
ĠHistor ical
us ic
ĠTe leg
Ġradi us
Ġdisappe ared
Ġadilabad u
as hay
ĠN ation
ki ra
Ġba andh
Ġshahar i
Ġprint ing
idhan ik
Ġrekha ansh
ari zed
ham at
Ġniv aasiyon
Ġupyogk arta
Ġpl aya
Ġarm oured
Ġhaj aaron
Ġsaj aa
ĠBrook lyn
ĠSchum acher
Ġag ni
Ġgh um
ĠOr ton
B O
d aar
ist ical
over ed
Ġfa ction
Ġvaap asi
s il
v il
Ġ ion
ĠJ NA
Ġmuk h
Ġmad ras
ĠSer ge
Ġkeem at
k ot
Ġd um
che et
Ġpublic ity
Ġfac ulty
ar en
ĠB eth
ac c
Ġattra ction
Ġwh ale
Ġwh atever
Ġcons piracy
Ġsw ap
Ġdrop ping
ĠOper a
Ġyahud ee
Ġst ability
ĠL ink
ast on
ĠX I
Ġcur ve
ĠAm b
Ġmel od
onn ie
Ġcra ck
ĠML B
Ġindu cted
k ad
Ġst om
op ol
Ġsamv aad
Ġak bar
Ġpreced ing
ĠPolit ical
vib hinn
4 6
Ï Ĥ
ĠD ennis
ti i
Ġfl our
Ġpa han
ĠMe g
d al
is k
ĠH ubb
Ġed iting
over y
Ġcompan ion
ĠHel en
Ġkis aan
ĠPrinc eton
Ġre pr
Ġan nex
ĠR NA
ĠK il
Ġam ino
Ġachie vement
ĠBrown s
ĠMcKin ley
G B
Ġb ish
Ġd iversity
le w
ĠA ub
hi an
ĠB rah
Ġsim pl
Ġinf l
Ġposition ed
Ġphot ographer
Ġcham oli
cel ona
Ġswe pt
Ġdetect ed
Ġcon ced
Ġsub mer
Ġbl amed
Ġ13 7
Ġb od
Ġl ens
ĠC H
Ġnever theless
Ġwitness es
Ġupn iv
Ġmaheen on
Ġno ise
Ġcontin ental
asha stra
Ġtarget ed
Ġchumbak eey
ĠC av
ĠHer bert
Ġjok i
ĠGh ost
ĠTig ers
Ġcon fer
ĠMus ical
Ġir reg
ĠC ut
Ġrem inis
Ġg ud
Ġsa haj
Ġraj asav
Ġreg iments
Ġath lete
Ġproper ly
Ġkarr wai
ha are
Ġpra ani
iss a
Ġtr igg
Ġmach ines
Ġsubmar ines
Ġcalc ulated
un s
Ġrec ruit
Ġqu oted
Ġrid er
Ġpunjab i
Ġs odium
Ġw inners
Ġconf used
Ġsamp adit
Ġrom e
Ġchand ram
pram ukh
Ġin Hg
Ġv erma
ac ritic
rit ti
Ġsamr udh
Ġret reated
Ġrahe en
Ġvari able
Ġvers es
Ġconcept s
Ġfoss ils
Ġsamak aleen
ĠL ot
Ġde ce
ram it
ĠSm ack
Ġfocus ing
Ġpow der
Ġcondem ned
Ġalps ankhyak
Ġfort ifications
Ġpati ent
Ġfrag ment
Ġyad av
om es
Ġro tation
aal i
Ġmil k
Ġnam akan
Ã© s
ĠMet hod
ĠDev il
Ġfil ter
E D
as aki
ĠT ests
ĠN ass
Ġthan ks
ĠIs le
ĠGlas gow
ĠHubb ard
Ġn aks
Ġg entle
ĠO il
hit e
ĠComm ons
car bon
Ġmoul ik
Ġd an
Ġh osp
Ġg ri
sha d
ĠIs ab
ĠEx pl
Ġcru ise
Ġfer ry
or o
Ġg av
Ġflow n
Ġjar uri
Ġn ice
ĠP ick
erm uda
ĠCan ucks
Ġinstru ctions
Ġsiz an
Ġp adi
ub s
Ġresign ation
Ġdisband ed
Ġ _
Ġh are
Ġv anijyik
ul um
na e
Ġmet ro
Ġenc ourag
ĠT oy
ĠM ut
ĠL ed
Ġball s
Ġbadal ane
Ġment ions
Ð ¾
ĠS pect
ĠB ris
Ġsa hib
Ġadd a
Ġconv ince
b as
l ake
el on
ĠM ig
Ġpur anic
Ġbr ings
ĠHol land
Ġthr iller
Ġ ~
Ġw rap
war eness
Ġjud icial
Ġreb ounds
Ġshakti yon
Ġtorped oes
Ġchalleng ing
ĠFif th
Ġtrit iy
Ġa az
Ġc ro
ich it
Ġup ris
Ġwor se
Ġdem ocratic
Ġsole ly
h oor
j ans
Ġg y
om ical
Ġwas h
Ġlo ose
Ġfin ance
Ġdisc rim
ĠMill ennium
ĠMont ana
Ġn ari
ĠS ri
Ġdirect ing
Ġjaa egi
Ġc igar
ĠIn side
end han
Ġcreat ure
Ġlap s
ĠPhill ies
a uc
s ay
Ġp aks
Ġh il
ĠStr ong
ĠCelt ic
e es
Ġp us
ĠMon th
ĠAdvent ure
Ð ¸
Ġl or
ĠM orning
ĠP in
Ġad aalat
Ġtri umph
ĠMerced es
ĠC M
ĠR ush
ĠV ick
ĠWest minster
Ġbaat cheet
Ġcontrib ute
ĠEp is
ĠHind i
Ġmys elf
D P
Ġc otton
le ased
Ġab ort
Ġcha al
Ġhistor ically
Ġaak hri
Ġdark er
Ġparas par
Ġupd ated
Ġl ava
Ġj aaya
im er
ĠThe odore
Ġis ra
hen tic
Ġam ir
aav haar
arth y
ĠPer cy
Ġround ed
oura ble
Ġmaar ane
Ġscholars hip
Ġlan baa
ĠTint in
v or
Ġl as
ang el
ator ial
o ed
ission ed
ĠSy l
Ġexam ined
Ġpro xim
iz z
ult ure
Ġshar ing
ĠO cc
qu et
ĠY ard
Ġfav ored
ĠTown s
Ġmonaster y
un ci
ch ild
Ġdist inction
Ġgra v
Ġnid aan
ivas ee
Ġs lee
Ġm emb
al maan
Ġn ath
Ġn ira
Ġam rit
ĠGu ild
Ġfr ank
Ġbag eshwar
Ġfas al
ĠS H
ĠP oe
if fer
ĠWik ipedia
ĠP ack
est ion
ĠMe ga
Ġmeas uring
i ors
id ian
ri ans
ĠUn it
ĠAust ro
Ġbattle field
pal ika
ĠDen ver
Ġacclaim ed
Ġmudd on
ĠBasket ball
ĠC ox
Ġâ Ļ
ater n
icip ality
ĠC arn
ig o
ĠH IV
Ġsank alp
Ġ187 9
Ġcondu cting
cis es
ingu ished
Ġrecon struction
ad y
ak t
Ġsar aswati
Ġtri o
abha av
Ġstead ily
Ġt aare
ĠC C
ĠThe ater
Ġag encies
ĠGl ou
ĠComp uter
rip aya
z ig
Ã ł
Ġb odh
th al
Ġgu ards
Ġtar ika
ĠBr and
Ġvishesh kar
Ġ184 8
ĠAlb any
Ġcloud s
á» ĩ
ĠBulgar ian
M usic
c ope
s er
s ark
Ġm asc
Ġw artime
re ens
Ġdis abled
ĠCl a
Ġeff icient
pat ti
Ġspace craft
Ġsens itive
Ġprompt ing
Ġelig ible
Î ½
Ġcan on
ĠAddition al
ĠRon ald
ĠTerrit ory
ĠI C
Ġun nat
Ġga haraai
Ġshe eghra
ĠSc iences
ĠPro duc
Ġk ud
Ġb hang
ĠG othic
Ġy ata
hay al
Ġwalk ed
Ġrout ine
ĠT u
ĠH erm
se ason
Ġpres ents
pur ush
Ġparticip ating
ĠOtt awa
Ġpropag anda
Ġud aar
Ġconne cts
Ġelev ated
Ġdecis ive
Ġtareek on
9 9
ĠB ody
ik es
ew ise
ĠCh uck
Ġtro op
ĠCarl os
Ġaccompl ished
Ġyata yaat
D own
ĠR ivers
Ġpra aroop
Ġsp ots
Ġinc idents
Ġkh ule
Ġmed i
Ġcur ved
Ġvir gon
ĠMicha els
Ġgust s
Ġagre es
Ġcommit ment
Ġr ational
th on
op ra
op ard
Ġro uting
Ġprad arsh
ĠBar celona
Ġmot if
Ġkilomet ers
Ġbach ane
Ġaag aman
Ġrit ual
Ġvent ure
Ġin hab
ĠT as
ut an
Ġst range
Ġind irect
Ġpratid wand
ĠNev ada
j ud
w atah
ĠAr chae
Ġthem ed
Ġsw a
ĠMar l
Ġref uses
Ġconsequ ence
Ġexter ior
Ġres on
ĠWe ather
Ġencom pass
t he
w ig
Ġa waas
it ars
op an
Ġsang ram
Ġrun ner
Ġmun h
Ġshas ankaal
e h
Ġc emetery
Ġf ru
Ġcom ed
Ġinter v
Ġop ined
Ġcreat ures
arshi ya
Ġp ump
Ġto ugh
ya ari
ĠC A
Ġphys ically
Ġvidy aman
Ġflu or
Ġrit u
Ġreven ge
st own
Ġar dh
ĠK ra
Ġ21 0
Ġwal ks
ĠPokÃ© mon
om ed
ĠR osen
ull ah
Ġfin est
20 12
Ġven ues
s by
Ġpro claimed
bah ut
Ġp is
Ġv aries
ĠR ug
ĠAt hen
Ġucch tam
din and
ĠH og
Ġy d
Ġpo on
Ġep it
ĠCan yon
Ġless er
Ġkahan iyon
Ġscot land
ic us
Ġto uc
Ġdi ary
ail ing
Ġdem ographic
Ġgeet on
Ġintermedi ate
y i
ic ated
Ġke en
Ġtrans mission
Ġlokapriy ata
Ġiniti ative
u u
im ately
ĠI P
ĠP el
Ġreg ist
Ġmer aa
ĠMil an
ĠM C
ac ular
Ġline ar
Ġmanag ing
ĠCard inals
b ek
Ġm ansion
un ge
Ġun he
Ġext ends
Ġdiv ijan
Ġsand erb
Ġenhan ced
Ġtheat ers
Ġuttaradhik ari
Ġlah ore
Ġg up
ĠEn ix
Ġmon soon
Ġins uff
Ġadd s
Ġvaj an
Ġcalc ium
Ġy u
att s
Ġham aari
ĠChurch ill
Ġsanderb hit
am ation
ig hed
ĠR BI
ĠW is
ard han
Ġcont rad
ĠCol in
Ġprak riyaaon
Ġmart ial
Ġsamjha uta
Ġceremon ies
Ġcompliment ed
I C
ar am
Ġg ut
ĠB ass
Ġpe oples
ĠReg ion
san geet
ĠOper ations
ĠCirc le
ĠDra ke
Ġdeliber ately
Ġp une
ĠC rim
Ġch ha
Ġam phi
Ġpras hanth
Ġsouth western
Ġlat est
Ġsambha watah
ĠRoman ian
ĠDer by
Ġs one
am ing
Ġg est
Ġcon vey
Ġ10 3
ĠPar aly
Ġprepar ations
Ġbow led
ĠRay mond
ĠSmack Down
Ġt ong
at akon
as hire
Ġh unt
ur re
Ġkaar k
ĠPark way
Ġbac haa
Ġsearch ing
Ġbor ough
l ia
ĠF oster
ĠHe in
Ġdes ired
Ġrem ake
Ġmin isters
Ġ14 6
Ġdra gon
Ġheav ier
Ġvip anan
Ġmash hoor
Ġout come
ĠEm ma
Ġweak ness
ĠSpe ed
ĠStand ard
uton ium
ĠManu el
ĠT ib
ĠW ings
Ġsil ent
Ġcontrib uting
Ġencoura ge
Ġautobi ography
Ġa anshik
Ġk rish
Ġb orders
ad hy
ust y
Ġgen es
adhik aar
Ġmauju uda
Ġdiz ine
Ġtransform ed
Ġon wards
aad haaran
Ġman aa
Ġprayog shaala
Ġvar na
Ġjit na
Ġarj eet
p ost
om al
ĠBl air
Ġsocial ist
Ġachie vements
at isf
Ġf ier
orm al
Ġep a
Ġsthit iyon
Ġrajya pal
Ġposs essed
Ġh urt
ĠN av
Ġad mir
Ġco aches
Ġmo ist
Ġaas aan
Ġanal og
Ġdast ave
Ġplaya ble
ĠR ange
Ġ27 0
Ġbhe ed
ĠDel ta
Ġmut ab
vis hesh
ĠF ood
Ġpl as
Ġbet a
Ġ12 00
Ġair borne
Ġmon ster
Ġdiv ine
Ġnav igation
alt ies
st and
ĠH um
Ġde er
Ġjaan waron
Ġestim ate
Ġpary atak
Ġconsider ation
ĠMidd les
O R
Ġa ided
Ġcrit ically
ĠNorth west
Ġexpl oration
ĠSh in
Ġconsist ently
tat haa
Ġroj gaar
ĠP un
Ġpar ajeet
ĠSt age
Ġaut o
Ġph ul
200 8
ĠVen ice
Ġfrig ate
ĠS ans
Ġsoc iet
Ġghar on
ĠBel ie
Ġultim ate
Ġconscious ness
Ġmachh lee
T unes
ed ar
op hil
Ġmet ropolitan
Ġba hadur
Ġkav iyon
Ġhom osexual
ĠRichard son
Ġmechan ics
ĠJama ica
p ari
Ġv rutt
Ġcl ay
Ġall ied
Ġbac haav
Ġscient ist
Ġdepos its
Ġveget ation
Ġcub ic
Ġballeb aaj
ul ates
ĠW hy
Ġ12 4
Ġtrans it
Ġtour ists
ĠSch ol
viron ments
Ġsubt ropical
Ġtib et
asankhyik ee
ĠAren a
ĠE isen
ĠCon tem
Ġmut ual
ĠDun can
Ġsahyog i
ĠInt ellig
Ġmole cular
ĠPow ell
Ġthak ur
Ġorchest ral
Ġyaj na
ĠParaly mp
r ington
Ġa ug
ene z
Ġperman ently
Ġphilos opher
id an
Ġse al
Ġbha ashan
ĠCom position
Ġcor poration
ĠCal gary
Ġnort heastern
Ġemer ging
Ġhast kshep
Ġadj ust
Ġbelong ing
ĠLanc ashire
s amp
Ġwork er
Ġdep iction
rish y
yr ight
Ġdoct rine
Ġphenomen on
s ur
Ġsp ite
ĠIs les
Ġexer cises
Ġhypothes is
Ġvaik alpik
at u
Ġp ag
Ġin ex
Ġan at
Ġun anim
ush yon
Ġpurv aj
Ġpun ishment
Ġce iling
Ġprior ity
Ġmajab oor
g har
h re
j iv
Ġha ani
Ġar ist
ok a
Ġpad on
iy an
Ġbat aata
Ġod d
ĠHend erson
Ġt aj
at em
Ġk ale
Ġp aata
ent e
ĠM ol
Ġsh wet
Ġbha d
ĠCl oud
Ġnet works
Ġnagar ikon
l ind
w yn
Ġa kaash
ĠâĢ ²
Ġ11 2
pat r
oud hary
Ġni hit
Ġcompris ing
al ysis
and in
Ġpos han
Ġele ph
Ġact ively
cy cl
ĠFl oyd
Ġhon ors
n or
Ġst aged
ri ages
ĠU sing
Ġen vironments
lin der
Ġjournal ists
a antar
Ġk annada
Ġw eld
ĠM ills
im al
ali yon
Ġdam aging
Ġperform ers
Ġbat on
Ġsum mon
ĠFran ces
Ġreve aling
Ġdim ensional
Ġdial ect
Ġlakshan on
p x
Ġt aal
is ations
ĠC N
im ony
ag ya
hib addh
Ġdisp uted
ĠCons erv
Ġassass ination
Ġja ateey
ĠAn at
Ġintro duce
Ġtrib ut
Ġdeleg ates
d as
an ch
Ġo ak
Ġe endhan
Ġpay ment
Ġsail ors
Ġabsol ute
ĠCraw ford
Ġmutab ik
Ġd ive
arch y
Ġchan nels
ĠBer g
ĠRod rig
ĠH amb
ver ty
pl ing
ank ar
Ġprastaav it
ĠEll en
Ġwitness ed
j aat
n is
Ġa wareness
Ġprevent ing
Ġarchae ological
Ġtradem ark
Ġm oh
Ġsha dow
Ġvers us
Ġcho ir
Ġswit ched
ĠSpr ings
Ġmauk hik
Ġdire ctions
ĠMar qu
ĠTr ue
vaj i
Ġsurpr ising
Ġreluct ant
aavhaar ik
d ad
Ġm ild
Ġw ales
om ys
Ġas ht
os es
ang han
ĠKe pler
Ġdig it
Ġpesh kash
Ġproced ure
Ù Ī
Ġhu in
osp here
ĠAss ist
Ġreb el
Ġdiscuss ing
Ġkalak atta
Ġshel ter
Ġtas ks
Ġdispat ched
ĠCryst al
B rien
ig u
vid ence
ĠGro ve
Ġpray tn
ĠLeices ter
Ġin di
ĠM obile
Ġan ud
ĠE ffect
Ġmet als
Ġi Tunes
Ġdar bar
Ġunsuccess fully
ĠEngine ering
m ach
Ã ª
Ġp id
it ri
Ġpo verty
Ġsub ord
Ġ13 6
Ġarg ue
Ġbelong ed
ĠPalest ine
Ġhins a
à °
as is
Ġg arib
st ad
ĠAl pha
Ġstr ings
Ġ11 3
Ġlength s
Ġcoach ing
ĠWat ch
ĠFis cher
ig on
up an
Ġ187 4
ĠVer onica
Ġfab ric
Ġcons ensus
Ġka ashi
Ġcor ruption
Ġmahil aayein
ĠFilm s
urr ently
or agarh
Ġg hayal
art ak
ov es
ind agi
Ġpun arn
Ġeight een
Ġmanov igyaan
p urn
w ast
Ġra w
Ġga uge
Ġchar les
Ġ28 0
Ġexpect ations
ĠTeleg raph
Ġs aving
Ġg her
Ġse ar
ol ith
ĠB ron
od hi
ĠU B
Ġlist ening
Ġimpro ving
Ġaas haa
ĠHead quarters
c ock
Ġse eds
Ġwh ales
ĠK y
Ġab ha
Ġexecut ives
man ia
Ġtr il
Ġna har
Ġvari ant
Ġup aay
Ġform ations
Ġaap as
Ġjaaye gaa
Ġbhagid aari
Ġpith oragarh
ĠH ok
Ġbu ff
Ġind uc
Ġcar ved
Ġtem ples
Ġintern ationally
Ġphot os
Ġk ri
ic ations
ov ich
Ġlo aded
Ġmaa ikel
Ã¨ re
ĠMas ters
Ġpsych ological
Ġs ip
Ġn aturally
ĠCult ure
Ġshun ya
ĠH ass
ac o
Ġga j
Ġind ones
k inson
ent a
ĠF landers
hen d
Ġcomp rehens
ĠTr uman
Ġpriv ile
Ġobject ives
writ er
à §
Ġk hya
ĠM om
Ġch up
Ġind ra
Ġgu itars
head s
ban on
Ġsymb ols
Ġprishth bhumi
ĠRoc he
Ġsurpass ed
Ġm bar
it on
ĠP ly
ĠP ep
ĠG ran
Ġbhar tee
ĠSe as
aay at
Ġrak hti
Ġlamb i
Ġrequire ment
at ham
Ġship ped
ĠMc N
ĠPlan et
Ġrajan eta
Ġmyst ery
Ġ yaan
Ġle agues
Ġout door
Ġfl esh
Ġadv ocated
mon ton
Ġsubmer ged
b rah
an us
Ġb rut
Ġka hi
Ġvir al
Ġhat aane
âĢ ¢
Ġpatt ee
Ġabund ant
gus on
Ġg il
Ġre op
os ity
oc c
Ġmet all
Ġacc us
Ġdist ur
ĠDes ert
ĠWat son
Ġopin ions
Ġnerv ous
ĠDud ley
l s
ut ely
Ġbadh ata
Ġguar antee
Ġoverwhel ming
ĠDeput y
Ġa viation
en stein
Ġd ign
Ġaccept ance
Ġstay ing
Ġmart in
Ġhathi yaar
Ġcruc ial
Ġvish was
Ġgener a
ĠT ab
ĠT ucker
Ġst air
ĠP unk
ang ered
Ġassoci ate
Ġghat ak
Ġhorse power
ĠObs erv
he ro
ĠM ail
Ġpr aadhik
Ġhi er
van iv
ĠUr ban
raaj nneet
Ġbang al
Ġlocomot ive
Ġgreesh mak
Ġpart ners
ĠBe ijing
Ġsar a
ĠMach ine
Ġchunaut i
in qu
oc ese
ĠV lad
Ġspec ulated
wa ffe
ush k
ĠAd ela
Ġsun a
ien na
Ġgath bandhan
Ġun chaa
ĠCom b
Ġaut hentic
ott o
Ġchal aaya
ĠGib son
Ġcompris ed
ĠProfess ional
Ġlar va
ĠM ull
ak aa
ĠE agle
Ġlak es
ĠMcC arthy
Ġblock ade
Ġteacher s
is heel
ĠSe x
oth s
Ġexpl ored
ĠGu adal
20 14
cript ions
ĠBapt ist
j un
l ay
ac on
ib al
Ġpre g
par iv
Ġest ates
Ġcolle cting
Ġfrag ments
ĠApp ro
Ġrefuge es
b its
Ġ185 8
Ġdoct ors
ĠR if
Ġpl um
ĠNew man
Ġgaanv on
Ġtri ps
ĠTr inity
Ġcompos ers
Ġpan ch
Ġsuff er
Ġconsequ ences
Ġassess ment
Ġhorizont al
hi ma
Ġsha am
ĠCl if
Ġrep et
âĢ ĺ
Ġb engali
aa bha
Ġus hn
Ġass ets
Ġpran aaliyon
oty pes
Ġresemb le
b aal
Ġr ath
Ġit ane
ph ic
Ġpop e
ĠAng le
Ġdiss olved
Ġcompl aints
Ġimmig rants
Ġmathemat ics
M C
ĠF eder
Ġus ko
Ġsab oot
Ġunder water
Ġunder took
Ġsang heey
Ġaver aged
Ġcontem por
Ġgam ing
Ġfra ud
Ġgraa hakon
Ġud ai
Ġche ss
Ġhabit ats
ĠMey er
Ġperc ussion
Ġf ract
ro le
ĠA aron
ĠB ott
ĠCom ple
oss ain
Ġpost hum
lab h
Ġcab in
Ġturb ines
il ian
Ġv ind
us ha
ah n
Ġem ig
Ġcame o
Ġm ock
um andal
ĠV erm
Ġkh al
ĠMon ster
Ġmanufact ured
Ġtamil nadu
Ġcomprom ise
Ġr ushed
ĠL uther
ĠN g
Ġit al
ee f
ov o
Ġchal akar
ĠMet acritic
Ġ185 1
ĠC ool
Ġlik hte
Ġsing apore
Ġhom eless
Ġbadh ate
Ġpari waron
uil era
R I
ou ch
ĠM ick
na uj
Ġpad ane
is ane
oc kh
Ġman ages
Ġsc reens
Ġsangra kshit
Ġrecon st
Ġdus ron
Ġsate ek
p akistan
Ġk y
Ġpu un
ĠWell ington
Ġerupt ion
Ġek ikrut
Ġcoast line
je ctions
Ġgod dess
igg ins
ĠB ermuda
Ġpar s
Ġgraa hak
Ġt rop
ĠD j
Ġinter actions
Ġens uing
4 4
s al
w ed
Ġc ave
ĠW rest
Ġde ev
Ġpa ul
Ġinc red
ograp hed
Ġbra zil
Ġhonor ary
Ġstab il
m other
ud hon
cha s
Ġsign als
ĠMar x
ĠTim ber
ĠLuft waffe
ch ants
Ġr asta
ĠP ale
em ploy
Ġsw aad
Ġsing ers
Ġpash uon
Ġlength y
Ġnaj ar
ist ing
Ġam id
Ġrel ied
Ġmill ions
ull a
Ġmalay alam
ĠShel ley
Ġa ster
ĠK em
aw an
Ġud dh
ĠMon roe
Ġgativid hi
Ġloyal ty
Ġt air
Ġp ind
ol ine
ĠF ur
ber n
Ġland ings
Ġinstrument ation
Ġreserv es
Ġlem urs
ĠOt to
b hi
et ical
Ġint act
Ġfe ars
Ġliter ally
ĠSal v
ĠWol ver
ĠRP G
k yon
t ha
Ġp ounder
ĠR ight
Ġcomp ress
ount ed
Ġant hem
Ġqual ities
Ġeld est
k ap
am at
Ġga urav
kaar i
Ġpad hane
ĠAd rian
ĠPro gress
Ġamb assador
Ġunve iled
r ath
Ġc ats
le in
ĠM oney
th rough
aar ak
Ġextra ord
Ġess ay
Ġflu id
Ġsaaj ha
ĠG az
Ġbhar aa
Ġbhar ti
ĠSel ena
Ġh ipp
Ġdi oxide
ok i
cc a
ats u
ĠWood s
Ġemot ions
Ġrasht ron
Ġpraj nan
em pl
Ġcomp aring
Ġdef enses
Ġdel ight
Ġvig ya
ĠAg uilera
Ġkhat ra
Ġchit ron
Ġjaa en
Ġvans haj
Ġin cl
ph il
Ġpat akatha
ĠNot able
brit ish
aabha avik
Ġp ik
Ġm ouse
ĠW ool
ĠCh oice
Ġbol ne
Ġroll ing
Ġgross ed
ĠRena issance
Ġb oun
Ġf i
ĠCap ital
Ġspect ators
ĠCab inet
Ġbattlecru isers
Ġsooc hibaddh
Ġl ux
le k
Ġeng aging
Ġaap ane
Ġexplos ive
Ġs roton
Ġo wing
ĠN A
Ġprati rodh
Ġtw entieth
Ġdise ases
Ġsport ing
ĠEll is
Ġmig ration
Ġsongwrit ing
ĠVari ous
v ayan
Ġde alt
Ġwe ighed
Ġrel ating
Ġpram uk
ĠMax well
Ġintellig ent
Ġhen ry
ĠFem ale
Ġriy asat
b b
t le
Ġm int
Ġr ally
Ġcon vert
Ġcl an
Ġkha bar
Ġcost umes
Ġlif ted
Ġroll er
Ġenorm ous
Ġa wa
Ġb raj
ĠC u
Ġab hile
Ġsang am
ĠFl ames
Ġvaak ya
ĠLt d
Ġb old
Ġcomp act
Ġjo ke
ĠSc reen
Ġdecl aration
pp en
ĠAg ricult
Ġquant ities
Ġbats man
ĠMV P
Ġs el
ĠS I
ĠM k
ops is
ĠEx pedition
ĠNe pt
ĠMed ic
ĠâĤ ¬
ĠPhill ips
ĠDak ota
ĠM ine
ang ar
Ġme xic
Ġ185 9
Ġdiscuss ions
Ġmist ake
ha il
Ġde als
Ġtra m
Ġbh rasht
Ġwar rant
Ġpolit ically
hind u
Ġvyapaar ee
ĠT amp
ĠG enesis
ber y
Ġbo ot
Ġrev ived
Ġinst ructed
Ġkam jor
eek ruti
Ġpatrol s
Ġghan atv
ro us
Ġre ef
Ġman ova
Ġen rolled
Ġbah ati
Ġtour ism
Ġram ayana
Ġbra ke
Ġgall ery
Ġh urricanes
ne ath
ĠLe igh
Ġappe aled
Ġsu ited
Ġniy ukti
Ġfa ult
Ġchak rav
5 7
g uru
Ġb aan
Ġan x
ĠE U
Ġad de
ĠArt icle
Ġpatr kaar
Ġp aap
ĠM Ã©
st able
Ġch ol
ĠHe aven
Ġsc or
ĠNew port
Ġbl ank
Ġt ensions
Ġgener ate
Ġsah mati
ĠAb raham
ĠMov ement
ĠChand ler
ĠAdela ide
F or
Ð µ
Ġt aat
Ġto ol
ĠB og
ĠN L
Ġch hed
Ġbh anti
Ġslow er
ĠSoviet s
ĠFer dinand
Ġchlor ide
t es
ur ers
ĠH anc
ke le
Ġinter ference
Ġhi j
va hi
found land
ag g
Ġpar ad
ere k
li er
ka ha
Ġinvol ve
ĠGeoff rey
ar u
olog ically
Ġhar aa
ĠMet al
ĠBut ler
ĠKn ights
Ġfunction al
Ġvocal ist
Ġmush room
Ġdaw aaon
Ġrajkum aar
Ġf are
Ġst y
ĠR iley
Ġ13 1
aur us
Ġterm ed
Ġtact ical
ĠCurt is
ent ine
Ġup as
Ġover come
Ġspec ified
Ġcre ates
Ġya heen
Ġref eree
waad ee
Ġchap ters
Ġbhautik ee
Ġib n
Ġmole cules
in stein
Ġw ishes
ir ty
ali ber
ĠThere fore
Ġ26 0
Ġcult ures
Ġwid ow
Ġbit ter
ĠSur rey
nan cy
Ġdiscipl ine
ĠC ome
ond e
Ġper m
Ġcha aval
ĠSp encer
Ġpradesh on
Ġcur rency
ĠBar rett
Ġcoun sel
Ġtal ab
Ġinterse ctions
Ġalleg ations
Ġreminis cent
ha di
Ġkar an
Ġmod est
ĠMad rid
Ġexhib ited
ovak ia
ĠPubl ishing
vyakt igat
l od
Ġb ail
st h
ĠL ic
Ġad ivasee
Ġimport ed
Ġbhav y
ĠCont in
ĠEs sex
f an
w ami
z ac
Ġb arg
Ġg in
Ġbe er
ĠP ut
ĠP rison
Ġch itt
ĠV iew
Ġsn aan
Ġnob el
ĠMot or
Ġj av
ke ley
ĠCom bat
Ġpahun cha
ĠPly mouth
r and
ha apan
Ġd iving
ĠS ad
ct u
ian g
ĠHe ath
ĠB rid
ok o
ĠFran co
Ġaavashyaktaa on
Ġgi ravat
ĠØ §
Ġrif le
ĠGameS pot
Ġc hik
Ġut ar
Ġpa ise
ĠSte am
Ġcr ust
Ġvarg eekrut
Ġthick ness
Ġkis aanon
ĠRel ations
ĠBurg er
Ġshir t
Ġsacrif ice
Ġdislik ed
Ġgrav ity
is le
Ġjo ins
Ġant s
Ġass ign
Ġhar bor
Ġathlet ic
ĠMarc us
Ġgreeshmak aleen
d rop
Ġp ic
Ġmus almaan
Ġcontin ent
Ġmo han
Ġchhod ane
Ġproceed s
Ġcir cles
Ġsp ores
m n
ĠT all
up yog
Ġpr aay
Ġmet ab
rew s
riy aayein
b re
Ġj wal
ĠB ot
Ġcha alak
Ġexp ense
Ġinde x
Ġsaa f
ĠBos nia
Ġavs hesh
Ġproxim ity
p and
ĠA viation
ĠK hal
iz ers
af a
ĠRes ident
Ġnick named
Ġinstall ation
Ġg ari
jan vari
Ġregard less
Ġmach inery
ĠNob el
Ġchandram aa
ĠContem porary
Ġc aliber
us kaa
Ġwas hed
ĠE ss
Ġso ok
Ġass ert
ĠLe ad
Ġfight s
fort un
ĠTw enty
ĠIndust rial
Ġski ing
S ee
s aal
Ġt et
ĠT ales
ol m
Ġh ur
im i
ĠH as
ang at
ram andal
Ġsup porter
Ġdet on
Ġtit hi
Ġpan els
Ġshr ik
Ġsepar ately
ĠRom ans
ĠHanc ock
m or
u er
Ġg hira
ĠRe ading
Ġpron ounced
N S
Ġl uc
ĠC ath
ĠB rew
Ġrel ay
Ġnorth western
ades hi
Ġpary atakon
Ġinterview ed
Ġsym ph
ĠBrig adier
ĠB engal
ĠN um
Ġtop ic
ĠFl ood
Ġrep aired
ĠFlor ence
Ġcust ody
ĠJer emy
R O
s ant
Ġp riy
es i
re z
Ġdec om
ina e
Ġcomment ators
Ġrul ers
ĠDani els
ĠElect ronic
Ġfron tier
Ġjum ping
Ġchet ana
Ġdynam ic
Ġup aad
ĠSt ories
uch hed
che l
Ġfar ming
ĠGl ass
4 9
p ich
Ġpro ud
ĠAl t
ĠRe con
Ġpop ulated
Ġhon i
Ġ37 0
ĠSha h
ĠSo ft
Ġpaha chaan
l antic
Ġb hit
Ġg reet
Ġ3 000
Ġcur ves
Ġfre ed
Ġbank rupt
roll ing
Ġlob by
g it
Ġg reek
ĠH erman
Ġpl a
ĠU sher
ĠV ienna
Ġsa hamat
Ġtar on
aak u
Ġacqu ire
Ġmaha dev
Ġmem ories
ĠBald win
ot illa
hel or
Ġkan ya
ĠRoman ia
Ġm ars
Ġd ors
end ers
Ġpl utonium
Ġsuccess ive
Ġknow ing
Ġredes ign
Ġk has
ĠB od
Ġpra man
Ġop ar
Ġed it
ĠHer gÃ©
ĠNor se
Ġelectron ics
ĠAdmiral ty
Ġnikaal ane
Ġsym met
ĠArk ansas
4 2
ura i
Ġfar ms
ĠPr eston
Ġce ase
Ġul anghan
ĠJenn ifer
ĠK ub
Ġut tam
Ġall ocated
Ġva ise
ĠChar acter
Ġ ip
am ic
oc ha
Ġunder go
Ġz ones
Ġcy linder
ĠCha se
ĠShad ow
Ġvaastuk ala
us i
Ġch ord
Ġcont ested
elf th
oph ical
Ġpaha diyon
e urope
v ach
ĠJ G
Ġfe es
Ġcent res
Ġda wn
Ġlic ensed
ĠMcD onald
Ġo osh
ĠT iger
us c
Ġdis gu
ash ing
Ġbet ray
ĠBl ake
Ġcy lind
Ġjod i
Ġkahani yaan
Ġeditor ial
Ġgather ing
Ġcam el
Ġflo ors
Ġdemonstr ate
ĠBanks ia
P a
j ila
Ġh ossain
Ġma uka
ĠS uff
Ġun aware
pr ishth
Ġpubl ish
Ġdem anding
Ġaak arshak
Ġbill s
Ġfer til
ĠB uch
ĠL af
ard ing
Ġsec ular
Ġreg ul
Ġdown lo
Ġmaneu ver
b ag
m ill
Ġe uro
ĠF M
Ġsam bod
Ġap pl
Ġout s
Ġpre liminary
Ġh ub
ist ence
Ġprat ist
Ġcompar able
ĠProte ction
Ġnun atam
m m
n as
and an
ĠP ent
ee ki
Ġinter rupted
Ġmet ap
rist i
ĠOr thodox
ĠHis pan
Ġdra vy
Ġlamb e
ĠBow ie
Ġguar ante
d ict
Ï ģ
Ġc ere
ĠC ou
ĠJan et
ĠId ol
Ġg os
Ġe ction
ent in
Ġal ly
ĠW iz
ĠJ en
band heey
Ġ13 9
Ġdur labh
Ġsansad hano
l ass
ĠMin ogue
ĠCap itol
Ġshat ru
ĠMcC ain
Ġsansad eey
Ġautom atic
Ġchaut he
Ġdiscontin ued
l ot
qu in
de en
ĠAll music
Ġtrack ing
Ġsamud aayon
Ġkos hik
Ġscrap ped
w w
Ġp all
Ġg yan
ĠS uz
ĠC ry
ĠM anning
Ġqu it
Ġpras idd
Ġdam ages
200 6
Ġadvan ces
ĠHawai ian
p ow
is ans
Ġl ut
ĠK es
Ġkan nauj
ĠPer th
ĠSk inner
Ġnikal ne
ro ck
Ġinst ruction
Ġgra in
ĠSp it
19 0
jan asankhyikee
Ġpu zz
Ġmass acre
ĠSing le
Ġnak aaratmak
Ġflo ating
U C
Û Į
Ġke hane
ĠRe yn
ma had
ĠEd monton
Ġjaan ane
Ġcop yright
ĠPort s
Ġmaar aa
Ġdeploy ment
dhar m
Ġninet eenth
g ic
Ġg ira
ai ro
ĠSp onge
Ġprote cting
Ġfle e
asha st
Ġcoll ision
Ġpsy chiat
Ġjung lee
Ġf usion
Ġper pet
ount ain
ĠNew foundland
ĠSen ior
antr iki
Ġnecess arily
Ġsubs idi
Ġpav ed
Ġcooper ation
Ġam pl
Ġ15 2
Ġoper ator
Ġmass es
Ġdisp utes
Ġvit amin
Ġaank adon
ĠLanc aster
Ġadminister ed
u ine
Ġp ach
Ġj as
ol ves
Ġsam et
Ġban ate
Ġhal ted
Ġbus y
Ġvy aavhaarik
ĠMot ion
ĠM ile
Ġab st
Ġtr ump
Ġbul aayaa
w aadi
Ġw are
Ġun rest
ee ping
Ġsc orer
Ġcol oured
elf are
Ġ14 7
ble m
rat ors
Ã £o
Ġn aak
ut hi
ah u
Ġga haraa
Ġsw abhaav
ĠGener ation
Ġseem ingly
Ġopt ed
Ġcrown ed
Ġsket ch
Ġneighbour ing
v arg
Ġa kshan
Ġth odi
et ies
ĠC rom
em i
kh ney
Ġreg ained
ious ly
Ġproject ed
Ġplan es
ĠGon z
Ġamphi b
kyon ki
p aar
Ġp ile
Ġsa x
Ġsp o
hak aari
Ġer rors
Ġcitiz en
isp here
ĠCirc uit
Ġdee per
Ġupris ing
enez uel
ĠS ib
Ġan a
Ġun named
Ġko y
end en
Ġpad am
Ġhon est
Ġcor ridor
Ġ184 5
Ġnish chay
ĠTur ks
Ġdescend ants
e ches
ĠM ake
ots av
Ġless ons
Ġcontra cted
Ġd aab
ĠH ors
Ġprat iv
Ġaad he
Ġopen ly
Ġsad an
Ġbar ely
ĠPre par
gra duate
Ġnikal ati
ĠBeaut iful
Ġl amp
ĠT ask
Ġr ashtra
ĠO S
Ġsam eekaran
Ġdis place
Ġdesc ended
Ġdist ort
Ġvyav asthit
Ġcapt ivity
ĠÃ ģ
Ġsett ings
Ġaccompl ish
Ġtot ally
5 00
at hetic
ĠC G
ĠH om
Ġen v
ĠOn line
Ġtai yaari
Ġatmosp heric
Ġstead y
Ġk wal
ĠH off
Ġpar sh
Ġsa hab
ace ous
Ġsuc hak
Ġpriv ately
ĠBa ham
ĠBuddh ist
Ġt ath
Ġto ss
Ġl acks
ĠSt ore
Ġsup reme
ĠDel hi
Ġadhi grahan
ĠProdu ctions
ad hin
Ġek ta
ĠÂ µ
Ġ185 4
ĠSen ators
b ari
Ġk es
Ġ18 20
ura cy
Ġem bar
Ġgener als
Ġbah ya
Ġamb itious
ĠCarol ine
Ġvolcan o
Ġupabh okta
ĠB om
Ġpur ti
Ġchar non
ran n
Ġnum er
Ġsw aabhaavik
Ġnorthwest ward
ĠS ierra
Ġse iz
Ġ15 00
Ġjok es
Ġexcess ive
ch ina
Ġse vaniv
ĠL ogan
Ġsub urb
Ġinv ented
Ġdevelop er
Ġcre am
Ġdik haa
Ġrecogn ize
ĠLou ise
ĠMo z
as utra
Ġn aksh
Ġut t
amb hav
ĠMy st
ĠMount ed
Ġrap per
ĠAdvent ures
5 6
d illi
Ġn in
Ġg ains
ĠA F
Ġr aag
ĠCh all
Ġsub stance
ĠSp y
fic ial
onn ell
m ata
ic ular
Ġcont ing
Ġen able
ĠCal vin
Ġread s
ĠGl obal
Ġdab l
Ġcoal ition
Ġdeleg ation
Ġummid avaar
dw itiya
Ġn ests
ant ha
Ġher ald
Ġpres um
ĠBe ar
ĠPal mer
Ġdelay s
Ġrestaur ants
ĠNash ville
ya i
ol in
Ġbhi m
Ġva igyanikon
ĠBl oom
ĠHar per
Ġput s
Ġconj unction
Ġpreg nancy
m ere
ĠT hi
Ġre iss
ĠR ams
ĠG as
Ġcl ient
Ġjo y
Ġsad aa
Ġbaar ah
ope z
Ġupn aam
Ġaggreg ate
Ġro y
Ġdon o
aks hit
Ġnaw ab
Ġres erved
Ġpras ann
sha ah
Ġvast ra
Ġnag ari
Ġther mal
Ġshaik shik
ĠJ ur
pur vi
Ġabhi y
Ġvr ath
Ġre hab
ĠL is
oj ak
Ġdecl aring
Ġfatal ities
ar ayan
od ing
Ġsh ops
Ġrele vant
Ġdh ok
ĠPrinc ipal
Ġhan uman
o ft
ay at
Ġr ush
Ġbe et
ĠP all
Ġkar yan
ong a
Ġed ges
Ġmaan viya
ĠHol ly
ĠLyn ch
m arch
p radesh
aa han
Ġl ords
ĠW hi
op ia
aam i
Ġmin er
ĠAll Music
jan m
ĠCommission er
ĠMul ti
ĠMaur ice
Ġprohib ited
ra van
ĠN othing
Ġex ped
anc ing
ĠEm ily
Ġpers ec
z eb
Ġb urg
ĠD rama
op y
ĠV ar
Ġteam mates
Ġkh ush
ĠPl aza
Ġsangeet kaar
Ġ185 6
l ies
ĠN umber
Ġ3 20
Ġ12 1
az on
ĠAir borne
ĠArab ic
Ġkhol aa
Ġdarsha ya
h w
p ine
Ġt iger
ĠS P
Ġim ped
Ġpay e
ĠAp art
Ġthr ust
Ġstrugg ling
s un
w ind
Ġk haanaa
un c
Ġun t
ĠV a
Ġdis pos
ĠBus ch
Ġchaut hi
y ers
z el
in ator
it ches
Ġd hi
Ġback up
ters hire
Ġsix ty
ĠPar achute
ĠPar amount
Ġreal izes
Ġkit chen
ĠGar field
ĠDam age
ĠDev on
Ġelim inate
osy stem
ĠChair man
im mer
Ġar bit
iz a
Ġso ap
ĠCon sequently
Ġstory lines
Ġhon ours
Ġaav riti
igar aanee
Ġautom atically
ĠAI DS
Ġincom plete
U s
le ment
Ġv itar
ĠB ri
Ġut haaya
Ġfl or
bird s
Ġcomput ers
at ch
ter a
Ġfind ings
Ġcal m
Ġacqu isition
Ġpaha ad
Ġin ver
ĠP om
ĠP av
Ġun employ
Ġga hari
Ġper mit
Ġmer chants
Ġbahum at
Ġm our
Ġm isc
as urat
ing ham
Ġra ys
Ġch oudhary
Ġup an
Ġinc or
Ġdraw s
Ġsaan s
Ġru ins
Ġre eti
ĠAr ctic
itt y
Ġiron cl
Ġakshan sh
Ġn iz
ĠS old
im id
ith m
ĠL arge
Ġcon cess
ĠK os
ĠSt op
Ġlo ading
Ġoper as
Ġjin ase
Ġgr ants
Ġsk ulon
Ġlay out
Ġca ution
Ġperfect ly
l ude
Ġsl ot
Ġsurf aces
Ġbaj et
Ġrevers ed
Ġvina ash
Ġpaks hiyon
et ics
ik shan
Ġag ali
Ġrest ra
ĠPan ama
Ġadapt ations
Ġunus ually
Ġdistingu ish
Ġattract ive
ĠTun nel
Ġau ction
I N
Ġk ham
en v
ay ette
ne um
Ġover d
Ġexper ts
Ġclim bing
ĠChan cellor
Ġesc al
Ġgir jag
Ġdemonst ration
Ġkee ps
Ġf us
ist ically
Ġmil an
ĠForm ula
ĠGriff in
O L
am andal
ĠG ust
Ġmod es
Ġped est
Ġkaaryak arta
Ġstream s
ĠFinn ish
Ġremark able
Ġscen ario
Ġmemor able
Ġinsuff icient
Ġa kele
Ġh iding
ĠE SP
Ġdec omm
Ġchan ces
aki yon
ĠSp in
war ik
let cher
Ġrob ot
ĠJac ques
ĠJun ction
Ġproceed ings
h ata
r ug
Ġp ocket
Ġf u
Ġsuff iciently
ux ili
ĠIr ving
Ġunp op
Ġvolt age
Ġvishesht aayen
c ies
rit a
Ġpi pe
il ion
ĠS ue
Ġis paat
ist le
Ġer osion
Ġak ruti
Ġkram ash
I f
ĠA ur
ĠB ast
Ġsh or
Ġinter fer
ĠHol mes
Ġsil k
Ġbhag alpur
Ġmak ka
Ġmotor way
Ġemphas ized
R T
ĠR up
ĠF i
Ġmon t
ĠPh ant
ĠDr um
ĠSponge B
Ġm am
Ġprogress ion
Ġlif estyle
Ġmob il
Ġsubt le
ĠMichel le
ĠStart ing
at um
Ġb un
Ġun hap
Ġdif f
Ġbal on
hyak aal
ĠTo o
ĠWind sor
Ġà ¦
ĠArmen ia
Ġappreci ated
ĠAdv ance
à ²
ĠM ongol
iv ic
od hya
Ġja ivik
Ġlag aae
Ġdet ached
Ġprat ishtha
Ġkam are
Ġincorpor ates
Ġalleged ly
Ġfest ivals
Ġmanif est
ran o
Ġass essed
Ġdist ra
ĠEd win
Ġnight s
Ġdravy aman
b haar
ĠS N
Ġbut t
Ġwor ried
sh uru
Ġover th
udd hik
ĠSer bs
Ġbomb ai
ĠLind wall
Ġveter ans
e em
ĠS C
ent ry
ĠF ac
Ġra man
Ġag yaat
Ġja haa
led on
Ġnear est
Ġflag s
ĠStan ford
Ġtun nels
Ġnamak aran
m itt
Ġp hyl
Ġpl ed
Ġ5 50
ĠRe form
aj an
Ġco ok
Ġmadhyam ik
ĠBer keley
ĠSol omon
Ġunp re
Ġkwal if
r s
s ah
Å ¾
Ġo z
ĠL ag
Ġsee khney
Ġbaat en
Ġmu zzle
ĠMond ay
Ġs oci
Ġb og
en za
Ġn igaraanee
ĠM ak
ĠSt alin
hap ur
Ġvik iran
ĠGu atem
Ġpost pon
ĠMart ha
200 9
ĠCr ime
Ġirreg ular
g ang
s hit
Ġt ide
Ġv anya
ĠM am
Ġor al
ĠSup erman
Ġthought s
less ly
ĠKore ans
Ġbond s
g anga
y ojit
ol ics
ĠL av
Ġmod ifications
Ġple asure
Ġakh il
Ġutsar jan
Î ¹
op hone
Ġsp anish
Ġmal aria
l ak
m il
w aaya
Ġt irt
Ġor gans
ĠO ber
Ġatt achment
Ġspe eches
ĠIll ust
wali or
Ġe ase
ĠP rice
Ġinc ons
Ġvik aar
ĠPres ley
ĠStar r
Ġflood s
ĠBor ough
ĠGer ald
Ġstrip ped
Ġm ongol
Ġre vel
ĠR andy
ap ril
Ġsh andaar
Ġmag ist
ĠLeg ion
Ġniti yon
Ġanumaan it
l ar
p ay
à ´
Ġg aadi
Ġde press
Ġup grade
pl in
Ġam endment
Ġban ati
Ġbo om
oj i
ĠSp iel
off icial
Ġshren iyon
Ġqual ify
Ġsalaah kaar
b ane
b ours
s ank
Ġt iv
ar ish
Ġe cl
ut ors
ol ades
ĠK om
Ġut te
Ġbh andar
Ġsm ith
ĠRec re
Ġpush ing
viv aran
Ġcomfort able
Ġexha ust
Ġbhoomik aaon
Ġm uly
ak al
ĠW ald
Ġwh it
ĠY et
Ġav ar
ras ka
Ġjati yaan
Ġe bn
st ock
Ġmer ger
Ġrang ed
Ġintroduc ing
Ġinvestig ated
can al
Ġgad hy
Ġdiagn osed
ĠBroadcast ing
Ġnaus ena
Ġt ended
ra id
ĠW ake
ĠSt rat
ĠCl aire
Ġart if
ĠAugust us
akh and
ĠR ip
ĠK iss
haa en
iy aa
Ġsar war
ĠGu ards
Ġaam antrit
ĠFinal s
Ġnak ed
ĠPier ce
pent er
Ñ Ģ
Ġst ance
av ati
Ġcons ent
Ġgener ations
Ġsant ulan
Ġ33 0
Ġcounter att
Ġcamer as
ĠCub an
c os
ĠP age
der land
Ġgo alk
Ġmus cle
Ġbah us
ĠJenn ings
Ġmejab ani
Ġinhab ited
Ġhe lium
Ġan arch
ĠK ot
ĠMan or
pra k
ĠBulgar ia
Ġjyot ish
p ani
s aan
ĠP eg
Ġnot ion
Ġspe aker
Ġjan apad
Ġline up
bo at
ĠGabri el
V A
ĠS hang
Ġsec uring
Ġconf ined
Ġprot ocol
ĠHay es
peh ali
Ġstrengthen ing
ĠRhodes ia
ĠCommer cial
g ence
r ans
on om
ĠH ale
Ġman ushyon
ĠAl c
haan ak
Ġcolle ges
Ġham let
mar ks
Ġmaintain s
ĠÎ ¼
Ġdurghat ana
ir us
Ġbhar i
Ġele ctoral
Ġsan va
Ġsang ya
Ġdest ination
Ġsaw aal
Ġshat ak
Ġgrand son
ĠChap man
Ġpy ramid
ĠMir ror
Ġre e
Ġr ent
ul it
Ġkar o
oc aust
Ġex port
Ġpad m
Ġjod hpur
Ġast haayee
Ġdoub les
l ord
Ġa ids
im aan
Ġsp ur
Ġmon ks
Ġang er
ĠMc A
ĠTurn pike
ĠHop kins
Ġal ign
ĠF C
Ġar ray
Ġde en
che z
Ġhind uon
ĠSw ord
rie ved
Ġvisheshta on
b ot
h ower
ĠTh ings
Ġka id
Ġwater line
Ġsac red
r ise
ang an
pl ane
sha bd
Ġmonth ly
Ġsol utions
Ġpray ojan
Ġank it
Ġub har
b age
ĠS ter
Ġpra bal
Ġâ ĺ
velop ed
Ġcare fully
ĠPol y
ĠLa ura
Ġdom ain
ĠSpongeB ob
j am
Ġt aan
Ġanus aran
ĠMan ager
Ġcou rage
Ġs print
Ġa in
Ġp orn
Ġl on
Ġg ig
Ġde le
Ġcl us
ĠGl enn
Ġwel come
Ġaaloc hakon
Ġembar rass
or ian
Ġw itch
ĠC ec
ĠN athan
end um
Ġy udh
hen t
li yon
Ġinf ected
Ġmuk hyat
20 10
Ġdas hakon
Ġident ification
ĠBer ry
Ġgradu ating
Ġelder ly
ie ce
Ġsc ope
Ġja ik
Ġpre val
Ġsan l
bor o
Ġvy utp
Ġfort une
Ġnick el
ir ts
Ġan chal
Ġas ar
ĠP irates
ram s
Ġsuch it
ott am
Ġgar am
Ġens emble
Ġincorpor ate
ĠSub sequently
Ġenthusi astic
Ġlegit imate
ĠM ade
av astha
Ġsam gr
ren e
Ġbar rier
Ġrequ ests
A M
Ġl ion
Ġkar w
Ġsuccess es
Ġphys ician
Ġboard ing
ahat ya
Ġrepe at
Ġmeasure ments
Ġalp ha
Ġbrig ades
Ġkhag ol
h ma
v ic
us tees
ĠH ess
Ġnir n
Ġbl acks
ĠEd gar
Ġsat ir
Ġmi ra
Ġum p
Ġdisp ers
Ġmir ror
ĠB ran
Ġbet aa
Ġkh uda
Ġangre j
sam ay
Ġrakh kar
Ġcompens ation
f old
Ġd olph
ĠH M
Ġtop ics
Ġescap es
ĠVen us
Ġvirt ual
Ġnur se
e a
z eg
ĠS aints
ĠE aster
are kha
Ġret ros
Ġgay in
ged y
Ġsex ually
Ġdisappe ar
ĠSpiel berg
ĠF letcher
op l
Ġex ceeded
Ġro okie
az e
Ġdark ness
Ġopt ical
Ġstep ped
Ġshal ya
I D
Ġs arg
Ġc ord
ha ata
Ġre ly
ĠM ember
ig ger
Ġsh atee
Ġwor ksh
Ġdr ives
Ġinv itation
Ġhon ored
angu age
Ġtrib al
Ġlay ing
Ġmist aken
ĠBas in
ĠReview s
ÅĤ aw
Ġinher it
ĠL ay
ĠL og
Ġpra aniyon
ĠBr andon
Ġread ily
Ġgen uine
Ġhealth y
rif ied
p as
Ġs ita
Ġw ounds
Ġd ish
ut v
ĠArt ist
Ġceleb rity
ĠKenn y
Ġyatri yon
ĠSout hampton
Ġs iv
Ġv ash
ĠR ah
Ġra pe
Ġhis aab
ke val
Ġcl uster
ib an
ĠTh r
Ġele venth
Ġplace ment
Ġpress ed
ĠHam mer
Ġchint an
Ġsoph istic
Ġranneet i
Ġincor rect
Ġb ans
Ġc av
ĠSe bast
Ġprom ising
Ġcor re
Ġdefe ats
ĠTra vel
Ġmid night
Ġdefin itely
Ġconsequ ently
ĠPatt on
b ij
ik er
ĠG an
Ġdef ault
maan av
ĠSur vey
ĠBol ton
Ġmonarch y
Ġax is
Ġmarsh all
Ġn ars
us a
Ġj iti
Ġre per
Ġle ather
Ġmat bhed
Ġel bum
Ġmiss iles
Ġsumm ary
Ġsanshod hit
bai jan
raam ak
p op
Ġp ian
ĠS r
Ġre print
ĠH oll
Ġpre view
Ġass ume
ĠLe ader
Ġloc ate
Ġgh oom
Ġcompet itors
Ġpain ter
ĠSing h
Ġreflect s
Ġanth rop
ĠNO K
Ġbangal ore
I T
g art
Ġtra its
Ġtat ha
Ġsub stit
Ġthird s
ĠArt illery
ĠGard ens
ar chi
is or
am on
ĠM ing
ĠH ig
ĠIn formation
Ġek atra
so ver
Ġac ids
Ġtak ar
aam arsh
Ġchar m
Ġass ignment
Ġ12 2
Ġmag ical
Ġdeg aa
ĠHend rix
vast av
Ġmathemat ical
Ġmaneu vers
a itihaasik
m ish
Ġd up
ra il
Ġg rap
st a
ĠG ren
Ġ6 50
Ġsank alan
Ġdh vaj
Ġtal ash
Ġmur tiyon
Ġslow ed
Ġ184 9
Ġexc iting
Ġpup ils
ĠRug by
Ġp am
ĠS ite
Ġkh ur
eng i
van agari
Ġprof its
Ġjeev anu
ĠCr ane
ĠTre asury
Ġspawn ed
bhug ol
ĠIntellig ence
Ġunpop ular
R e
Ġf itting
ĠP orter
ĠD ow
Ġcl iff
Ġsw ed
Ġacc uracy
Ġins cription
ĠGo eb
Ġconv inc
Ġconclud es
Ġmoment um
Ġentertain ing
Ġemploye e
c in
Ġv adh
hap at
ĠLight ning
Ġnegoti ated
Ġdisappoint ment
s ee
Ġ ãĤ
is ure
im o
Ġpe eth
Ġtechn ologies
ĠRock y
Ġhero es
Ġmotor cy
Ġaank ade
Ġfemin ist
Ġmuly on
Ġfor ts
ĠP ak
ĠL ac
pt ical
cl amation
Ġcons umed
Ġdu et
Ġrasht ramandal
Ġcontroll ing
D T
Ġy ash
ĠV ul
ĠV ish
ict ions
Ġcap abilities
Ġdist ances
bro ok
Ġdat abase
ĠEisen hower
he art
Ġk ati
as it
ro ft
ĠS hen
ab ul
Ġkaa yam
Ġun ity
ess a
bha d
ps y
Ġnorth bound
Ġref it
Ġitihaas kaar
Ġaffect ing
Ġdim ensions
Ġcho osing
Ġpariyojna on
Ġenforce ment
dis ambar
al at
Ġl ined
ĠS MS
Ġany where
ting ham
ĠX V
Ġcal cul
aari warik
Ġglob e
Ġprajati yaan
Ġpank ti
ĠRh ode
ĠCit iz
Ġstom ach
Ġf ut
aa ble
ber ger
Ġsw ift
Ġvid hiyon
Ġnish p
Ġbhug ol
ĠWars aw
ĠPow ers
ĠStef ani
5 5
ar bon
uk on
Ġdr ish
Ġcat alog
Ġkhat re
Ġsamaapt i
Ġudyog on
ĠArgent ine
haaj apa
Ġp aayi
Ġin hibit
em es
op ot
Ġsam arthak
ĠK or
Ġpos ed
Ġdec iding
Ġtab les
Ġcolon el
Ġcinem at
Ġneighbor ing
Ġvolunte er
Ġasam arth
Ġvaran asi
Ġdrain age
Ġupniv esh
ĠAl most
Ġlo os
Ġtest imony
ĠCast ro
ãĥ ¼
ĠLuc y
ĠJeff rey
Ġkatha on
Ġproced ures
aar an
ĠG one
Ġad bhut
Ġtha iland
ĠHe brew
Ġsp here
Ġwould n
ons cious
Ġsw aagat
Ġsoc ity
Ġgan esh
Ġder iv
ĠFer guson
ĠHan na
Ġlimit ations
Ġric hard
Ġevolution ary
Ġpredecess ors
Ġsind h
a hi
b is
Ġd ys
Ġv arshiya
Ġav aid
ĠPl aces
Ġreal ize
Ġfre ight
ĠSus sex
Ġconfig uration
Ġisra el
Ġgup ha
Ġpr in
Ġro bert
ĠBrit ney
Ġconst ra
ĠOr d
Ġ185 5
Ġkath ith
Ġcust oms
Ġstrugg les
Ġarc ade
Ġnich le
s ian
at rit
le af
ĠSt yle
Ġsp are
ann er
Ġba hes
ĠWill is
Ġspeak ers
Ġpreced ed
Ġakh baar
ĠRI AA
Ġmanova igyanik
ĠR S
ri et
ell ation
ĠColumb us
Ġkid ney
ĠReyn olds
v ara
pr ent
ĠUnivers e
ĠMort on
Ġaccord ance
an er
Ġin k
ent ric
ĠB h
ĠH utch
Ġcl er
Ġbes ie
a havin
et ically
ĠB un
ĠR ice
Ġres pected
Ġpe ya
Ġed itors
Ġchun ki
ĠHen ri
ĠFran z
Ġcho ices
ĠMun ich
chang es
ĠVari ety
Ġsubur ban
Ġnaat akon
ĠGuadal canal
Ġ ^
Ġp he
Ġban waaya
Ġret ro
Ġreg ret
Ġspecial ist
clus ive
Ġillust rations
Ġenhan ce
Ġtantr ika
h ant
o chan
ĠH im
Ġle ase
Ġent ries
Ġsim aaon
Ġgovern ing
be it
ĠAnn ie
Ġprec ise
Ġhang ing
Ġshast ri
Ġles bian
Ġabsol utely
uche ss
Ġt ain
Ġas li
aam aanya
Ġutpaad ak
Ġske leton
Ġcos m
cycl op
ast i
qu i
aam on
Ġstar eey
Ġnob ility
Ġbass ist
Ġkick ed
Ġshish u
hous es
Ġdhaan che
Ġplas ma
Ġf art
utt le
Ġblow n
Ġjimmed aari
Ġadvoc ate
Ġabol ished
ĠLithuan ia
t ad
Ġd ad
Ġe ars
ir med
Ġat oms
Ġpro ven
Ġcont ents
Ġinter f
ĠBe yond
Ġnik aay
Ġir aad
Ġmun icipality
ĠÅ ł
Ġlem ur
Ġkhul aa
Å Ħ
Ġs ire
Ġrachan aayen
Ġendors ed
ĠNeb raska
ĠWrest le
Ġextraord inary
at haa
Ġun l
ber ra
Ġsw amp
Ġ14 4
Ġwar riors
jan on
ĠRuss ians
Ġcondu ctor
Ġsafal taa
ĠDa wn
Ġresemb les
ĠGree ks
Ġt ender
ĠP red
ĠE ighth
ĠO g
ĠAn a
Ġham ane
Ġteen age
Ġbol te
Ġik att
Ġved a
Ġpig e
st han
Ġsp her
Ġunder neath
Ġnam ely
Ġmuk aable
ĠAd ri
Ġden omin
Ġ184 7
200 5
rel ated
Ġamar eeki
Ġcomprehens ive
s m
qu est
ĠK as
Ġsa haara
Ġsc ales
Ġcha ins
Ġtw elfth
Ġwant ing
Ġsyn th
Ġpratiyog it
cles i
unci ation
ar ya
Ġte a
Ġ18 12
Ġunder lying
Ġ13 2
aayen ge
Ã¤ n
ogen ic
Ġinnov ative
G S
ha e
ad ic
Ġun ders
if a
Ġsh ub
hy d
Ġme ley
ĠTra dition
Ġcommer ce
ĠLo ok
Ġsard aar
akaal een
ĠEug ene
H A
Ġs risti
ĠV ern
ari ous
Ġsa has
Ġhim achal
kar ita
Ġjan kshan
Ġeff iciency
Ġche er
Ġconqu ered
Ġcompris es
Ġpratidwand vi
c ip
ĠT rip
ĠG ross
Ġsaf ely
l ance
Ġc amb
Ġd ach
Ġv ow
Ġpar d
Ġne env
Ġcomp aniyaan
ĠCh al
Ġsw eekruti
hon en
Ġspecial ized
Ġren own
Ġnation ally
ĠLithuan ian
f oot
ĠT ruth
Ġre writ
Ġmat urity
Ġmat daan
Ġext inction
Ġpray er
Ġsap ta
ĠHamm ond
Ġhosp itals
m ons
Ġis ko
ĠD iet
Ġkar kon
ject ed
Ġrahe gaa
Ġprati b
san kshep
ĠBoy d
sar v
ĠVol t
Ġcong regation
saam aanya
ĠQuar ter
8 6
Ġdo ord
Ġsad a
yn t
Ġlim estone
Ġkey boards
Ġsecret ly
ĠSout heast
ĠUlt imately
Ġsaman vay
h ist
en i
en ha
Ġne ur
ark ing
ĠCon vers
Ġpoint ing
ĠPop ular
Ġkhub asurat
Ġd alon
Ġkh un
yl um
Ġcou pled
ĠDou ble
Ġsociet ies
f ast
p re
v ati
Ġa arambhik
Ġto y
ĠS hir
ĠR ather
ĠR hys
ĠD erek
ab et
mi yon
Ġext ant
Ġinvestig ations
ĠDist inguished
Ġimprison ment
role um
ĠCath olics
l ides
Ġl ocked
ĠP and
if ier
ie v
Ġpurv ottar
Ġfort ified
Ġsubstant ially
Ġrum ors
en ic
es hiyon
Ġc ros
Ġl inking
Ġro de
ĠCom ic
Ġmon uments
Ġsang athit
Ġadvent ures
ĠUlt imate
8 5
op hon
ĠMet all
ĠRoberts on
Ġjudg ment
k ik
ĠT alk
Ġse ize
Ġy atha
Ġrel ax
Ġang on
has an
Ġfact s
ĠRoad s
Ġtel escope
ĠLo is
Ġnegoti ate
Ġjwal am
Ġp eter
ha ad
ir k
ĠI X
ĠH V
Ġper ception
Ġkaal a
ĠSal is
comp any
ĠTax onomy
Ġgif ts
ed ed
ad ik
Ġpra manit
ĠO C
Ġsh ushk
Ġgen ius
Ġir re
ĠAssoci ated
ĠRem ix
ĠEconom ic
Ġsubsidi ary
Ġgirjag har
Ġn abhik
Ġth ank
ĠB ak
ĠD art
ĠW ander
Ġim per
haas ha
Ġtotal ed
ĠSha ck
Ġenact ed
Ġdors al
p id
á ¹
Ġt t
ĠB M
ĠF ant
Ġres olve
Ġks han
aaj e
Ġdr unk
Ġreal m
Ġin ade
Ġpar aamarsh
ov ina
ĠV on
ĠAr ms
Ġreg ulation
Ġpad osi
Ġrun way
haas ana
ĠAnd rÃ©
ĠSw an
Ġnational ist
ĠSound track
Ġlaksh mi
ĠD um
Ġal beit
Ġret aining
Ġvishvavidhyalay on
Ġprotect ive
Ġmillimet res
Ġanter rashtriya
E F
b uk
Ġe aten
Ġpra yad
ans hi
ff ord
per ed
Ġka he
Ġconv iction
Ġsynthes is
an che
Ġd ent
ig inal
Ġab u
Ġam azing
ĠBl aine
af e
Ġjaan avar
h alaate
Ġa ana
al ous
ĠR Ã©
ĠN ed
ht ah
Ġgay an
Ġinf ant
Ġrang on
Ġmur ders
agon ists
Ġwel com
ĠHamb urg
b et
Ġf ake
ut ter
ĠW inn
ment ed
ord e
hya ksh
Ġchar am
Ġpres ervation
Ġgu ided
ĠQu inn
ĠOut side
Ġbind ing
Ġbast i
ĠFerr ari
os l
ĠL az
ib ar
Ġcha dha
Ġgra vit
ĠFr aser
ĠSun derland
Ġtend ency
Ġhindust ani
Ġdece ased
in as
Ġb ob
Ġd ome
Ġma ance
od o
Ġmin eral
ĠMon ument
Ġsany antr
Ġfa ctions
Ġsway am
Ġgal ati
Ġbott le
Ġsexual ity
Ġprashi kshit
Ġhelicop ters
Ġanch or
ĠJoy ce
w ie
ĠA zer
ĠD re
Ġkaa gaj
Ġbh uj
Ġsouth bound
Ġoccup y
agon al
Ġcrowd s
Ġsamved ansheel
ĠS port
ig ne
ĠIn g
Ġy od
aam ee
cc entric
Ġrun ners
Ġmer chand
apurn a
Ġintroduc es
Ġachie ving
ĠIm m
Ġox igen
ĠJo el
Ġfresh man
Ġanuv anshik
r ith
ĠR acing
ks on
sh il
Ġam bed
Ġdesign ers
ĠCrit ic
Ġah med
ĠLess er
ĠSalis bury
Ù Ĭ
Ġj eevan
che v
ĠRe y
Ġdep ends
Ġgar age
ĠHol ocaust
Ġbreak down
ĠGame play
Ġ185 3
Ġthin ks
ĠScout ing
Ġtatha api
Ġv achan
ĠS T
ul us
ĠG av
Ġad her
te y
out ed
Ġbhar e
ĠFor bes
agar a
ĠWhit ney
Ġactiv ated
Ġrad d
ĠBright on
ĠESP N
p g
Ġw ww
Ġg ird
Ġe ll
Ġst unt
ĠD ata
op us
ne ver
Ġcont rary
ect ive
Ġmaan ane
Ġeng ra
Ġ185 2
ĠTor res
Ġemb ra
ĠWill ie
Ġvak il
Ġmalay sia
Ġinflict ed
m aj
ĠB ru
ab ling
ĠW oll
oc co
Ġkaar ob
Ġcar riage
Ġvy ang
Ġexc ited
ĠLind a
Ġintercept ed
Ġconfron ted
Ġs ri
ĠA U
ĠC ant
ĠD oll
ĠJ enna
Ġsa ik
Ġpat haar
Ġserv ants
Ġreal ised
Ġavail ability
antar rashtriya
Ġparinaam on
ĠDomin ican
e ctions
É ª
Ġpra anton
hit i
Ġhar ass
ĠAir craft
hib ition
Ġsevent een
ĠAx is
6 6
Ġc him
Ġg ly
Ġth omas
oc he
Ġsc ream
Ġmon sters
Ġgu id
Ġwood land
ĠNort on
ĠArab ian
Ġali ens
Ġvay umandal
Ġinqu iry
ĠTimber lake
ĠD y
Ġsp ont
Ġmat ched
Ġna id
Ġgra ce
ĠAnd ers
Ġscript s
okt ober
cliff e
Ġsafaltaa purvak
c hik
Ġj aal
ĠM ale
Ġhigh lights
bhag waan
ĠScot ia
kari bandheey
Ġprosec ution
Ġreli able
ĠE y
com mun
Ġprabhaav on
Ġ184 6
Ġimm une
ĠKar en
ĠLu is
as u
ra de
ĠC oul
ĠAl am
Ġbh opal
Ġeffect iveness
Ġter restrial
Ġdraw ings
ĠBu enos
Ġnis haan
Ġexplicit ly
Ġindones ia
ĠPorts mouth
Ġdecomm issioned
ĠA ven
ct uary
ĠHe at
Ġ14 1
Ġpit ching
Ġsil ence
Ġsubs id
imb ledon
Ġpatrika on
j une
Ġa an
ĠD oc
Ġpra an
Ġprad oos
Ġmet eor
eld a
aah ran
Ġball ot
Ġactiv ist
inid ad
Ġtempl ates
Ġcollect ive
Ġkhin ch
ĠâĢ ¢
Ġworld s
Ġrefer endum
Ġsol ve
Ġ183 2
zy me
ĠLim ited
a ant
Ġan ush
Ġshi vaji
sit ambar
ĠDay ton
Ġmahan agar
Ġadm ired
ĠDyn asty
is ar
Ġd orm
ĠM umbai
land o
Ġvis haan
ĠSc andin
Ġlo he
Ġvari ants
Ġyat harth
Ġadopt ion
ou b
ĠM ys
ĠN ame
ht on
Ġep id
omet ry
Ġbr ass
Ġbas ement
haal it
Ġdepart ments
Ġanal ys
Ġrachan aatmak
Ġancest ors
Ġyam una
s ab
Ġv ard
ĠD ry
Ġâ Ĩ
Ġper former
Ġ... .
m atic
Ġd irg
ic ia
ĠM Ã¼
ge on
Ġcl erk
Ġac haanak
Ġgo a
Ġjan ak
ret ion
Ġsid haa
Ġpratid in
ĠPeters burg
mahad weep
Ġm ew
Ġm ote
ĠA N
Ġj ode
ol ar
Ġac ute
Ġut ana
Ġcare ers
ĠMy c
Ġstop ping
ĠMod el
Ġcitizens hip
Ġpank h
Ġdiagn osis
ĠElli ott
Ġpuun ji
uxili ary
ĠW ang
Ġun heen
ĠJ ag
Ġdi p
Ġret ali
Ġend angered
Ġvari eties
oura ge
Ġparik rama
C l
Ġg rat
Ġmot ivated
ĠPhil os
Ġfeed back
ĠDur ham
ĠNon etheless
Ġbure e
Ġsubur bs
ĠSic ily
Ġb ush
im ay
ĠB irth
ĠH umph
Ġorgan isations
Ġir ani
Ġtax i
ropol is
Ġcateg or
ĠBes ides
Ġvyutp ann
k ov
ĠT ell
Ġe ccentric
Ġke halaate
Ġv iet
ĠC oc
ĠC ock
ĠN ME
Ġtr im
Ġhom age
ĠBa iley
ĠEngine ers
ĠHug o
Ġorb ital
y uddh
Ġp uk
Ġg athit
ĠB alk
est ock
ĠG iven
ĠO maha
ĠCom par
Ġsad hana
ĠWeb ber
Ġf et
Ġde pr
Ġunder m
Ġbh atta
Ġfail s
Ġsant an
Ġconclud ing
Ġsulf ur
x ter
ĠS ed
ĠR are
ĠL yon
Ġher b
aw aadee
ĠAust en
Ġbar racks
ĠBo oth
Ġattrib utes
ĠCa esar
Ġvac c
Ġgov ind
Ġa was
Ġh ath
ĠL odge
Ġout lets
Ġmed ian
ĠPl ate
Ġdem ocracy
Ġpahunch ne
Ġparampara on
opot am
ĠF ear
Ġdw ipon
Ġvis uals
arn i
Ġbaad h
Ġrece iver
Ġann oy
Ġmot i
Ġfav oured
Ġbot an
Ġthro at
k hel
Ġl ingu
Ġba yaan
Ġprach lan
Ġrecon cil
Ġtril ogy
j uly
Ġg ag
Ġor n
ĠH ast
Ġpl ag
Ġhas an
aay an
Ġseason al
Ġcrit eria
ara ant
lu ence
Ġcountry side
ko i
ĠSha wn
Ġdomin ance
angal ore
ĠMap le
Ġnep ali
Ġphas es
l amb
Ġt ah
Ġb air
en ary
ik k
Ġsh ale
Ġle kha
aal an
Ġcomm ended
Ġequ ity
ĠFran Ã§
ĠPri est
Ġdaal ane
ĠHistor ian
Ġtik at
Ġsatisf ied
Ġdinosaur s
Ġbish ops
Ġunhap py
Ġgoalk eeper
9 6
aa wal
Ġst uck
Ġmar itime
Ġred d
Ġche ap
Ġple ase
Ġdescript ions
Ġreflect ing
ĠGard ner
Ġavaid h
4 3
Ġ ç
ĠC reat
ĠR uther
ĠJ ava
Ġam al
Ġgovern ed
king ham
Ġcolle ague
Ġcr us
Ġprim itive
Ġsaar v
Ġcorrespond ence
ĠPhilipp ine
Ġacceler ated
Ġisot opes
Ġaaz aadee
Ġkale ge
c omb
ĠH ers
ke ys
Ġmill imeter
Ġcham bers
ĠGi ant
ĠAssist ant
l esh
as ana
Ġhe ating
ĠW ilm
Ġex agger
aad it
per m
Ġchar ting
band i
Ġdist ress
Ġkha ali
Ġwat ches
ĠMac L
ĠDist ribution
Ġinstall ment
aawal ee
w aj
Ġg haas
all a
Ġsha hid
Ġut aar
Ġval ued
Ġdh ul
sam ud
Ġchi zon
ĠMore over
Ġdream s
Ġpuzz les
ĠBaham as
Ġc ott
Ġf itness
ĠS my
ĠD uchess
Ġbh ub
ĠCan berra
Ġfre ely
Ġdrop s
Ġkend ron
unk er
undar ya
Ġtalk ed
Ġobserv ers
Ġvive chan
ĠPruss ia
Ġital vi
M ania
Ġn Ã©e
ĠS ew
ad in
op old
if ax
ĠY ar
Ġz inc
ives hik
ĠPe arson
atak ottar
Ġec osystem
Ġborrow ed
ĠE van
Ġsa han
Ġam mon
ĠMon ica
Ġpers isted
ĠSn ake
b il
m end
ĠB ened
ĠP ix
ja han
ĠSy rian
Ġaver aging
ĠAngel a
Ġincorpor ating
Ġpee chha
c us
ĠE ye
Ġshort ened
Ġperform s
Ġnadi yaan
ĠHall ow
Ġprop eller
k osh
p han
Ġ idi
Ġt ier
es ters
ĠW ong
Ġgo alt
Ġgra b
Ġlov es
Ġsib lings
Ġremar ks
I t
Ð ½
an as
as ad
Ġv ine
ĠF ell
Ġacc ent
ĠSp ot
Ġstra in
l ical
om o
ĠR overs
Ġpar m
ĠL ions
ĠL opez
cl ass
iy o
Ġdown ed
Ġnik laa
Ġpresent ing
Ġste al
Ġmagn et
Ġfurn iture
ĠEnvironment al
Ġjuven ile
z ens
Ġk ag
Ġc ater
id ium
ĠY ang
aw i
Ġbh um
Ġfound ations
Ġhar vest
Ġmag ar
Ġbusiness man
Ġpaat ro
Ġintent ions
Ġfrust rated
w adi
is lam
ĠD iana
ĠW end
ĠCar r
Ġlad ane
ĠAc adem
Ġbow ler
Ġavo iding
Ġalum inium
z ym
ur up
ĠH ed
ĠG ala
Ġle aked
ĠÂ ²
be at
Ġer up
Ġens ured
Ġprec urs
ĠVol ume
Ġexhib its
Ġdetect ive
ĠRh ine
Ġal ert
ĠN ig
ĠE agles
ĠO st
cl er
Ġdet achment
ĠAir es
Ġdifferent i
wan aaon
Ġinse ct
lok an
Ġchou han
b uddha
f act
ou fl
ĠD ana
Ġman ju
Ġquant ity
Ġorb its
Ġsaun p
ĠO ppen
ary ukt
pr ithvi
Ġpre f
Ġend e
Ġsound ed
Ġbus es
Ġmor ale
Ġphen k
saam aajik
Ġchamp avat
ĠRecre ation
k ut
Ġs aves
Ġm aapan
Ġl unch
ĠS AS
Ġst ip
ĠR av
Ġcha andi
Ġepis od
Ġsuper hero
ĠEngine er
Ġimmig ration
Ġdrish yon
at al
Ġh int
Ġv igh
id ity
im edia
Ġpra kshe
Ġsam aksh
ĠNew ark
Ġste ering
Ġeconom ics
aun ton
Ġbroadcast ing
Ġmahak avy
Ġv ai
ĠL akes
Ġy antric
Ġtra ils
ĠCom pton
Ġsad akon
ĠÂ ·
rag upta
Ġbox es
Ġbox ing
Ġtransform ation
Ġdisagre ed
Ġrahas y
b ard
ha am
Ġl oot
os ure
av is
ĠAd d
Ġdeterm ination
200 1
Ġ183 7
Ġmud de
ĠConc ert
ĠJess e
Ġpoison ing
ĠJosh ua
Ġsambod hit
h orn
k riy
ar aj
Ġp ond
Ġb icy
Ġr er
ĠBe ast
Ġsl opes
Ġvibha agon
Ġ184 4
ĠDi á»ĩ
ĠTib et
ĠTamp a
b ang
he ed
Ġp harm
Ġpar e
ĠJ a
Ġpra bhut
Ġad w
ost al
iz ar
ĠTh orn
ale kh
Ġdevelop s
ĠBl ock
ĠAd ult
ij ya
Ġhar aakar
Ġorgan ize
Ġexp elled
Ġpil grim
Ġnucle us
Ġovers ee
Ġjh uk
Ġaank h
Ġisol ation
Ġhect are
ĠHold en
Ġawas aiya
N T
v ana
Ġp neum
Ġb inary
Ġ18 15
Ġlow ered
ĠPlay ing
sw ick
200 4
Ġnortheast ward
Ġdoub led
ĠStra it
Ġreun ited
Ġhect ares
ĠDiá»ĩ m
Ġb haajapa
Ġst ing
ab ar
Ġun ne
ast ical
ĠK ol
Ġem irate
ĠPl at
Ġtele gu
ĠSav age
Ġpromin ence
ra f
ĠI vy
ĠH ous
ĠP itt
av as
Ġsha sit
Ġafter ward
Ġ12 3
ific ate
Ġmar ble
Ġmahat va
ĠAng lic
Ġcle aring
shan ik
Ġrespons ibilities
Ġportra ys
Ġmath ura
Ġchrom os
ĠSans krit
j ana
Ġk orpor
ĠS ugar
Ġover time
ĠNe ither
Ġscreen ed
Ġris es
ĠBang ladesh
Ġprots aahan
Ġlarva e
9 8
at oes
Ġp ub
Ġd ull
Ġl ang
Ġg ospel
ĠE MI
ĠK arn
du ctive
Ġcan cell
Ġreg ain
ĠPro s
Ġtal ika
Ġbig ger
ĠAntar ctic
Ġsa ha
Ġdep ot
Ġsmall est
Ġsl am
ĠBut ter
Ġhaal aanki
ĠChap ter
Ġcontinu ously
ĠDest iny
Ġgala xy
ĠW as
Ġcomp ati
Ġpur ple
ĠAr med
Ġbad haayaa
rop ods
Ġbh ul
Ġud desh
Ġ184 1
Ġbadal akar
Ġpersu ade
Ġaatm ahatya
Ġexclud ed
Ġmexic o
4 1
9 5
Ġo wl
ĠM ana
im aar
ĠD ock
ew ork
Ġop aration
Ġret iring
Ġland mark
ĠMc E
Ġfun k
Ġkha ataa
Ġsymb olic
Ġine vit
b ut
Ø ¯
Ġin ability
ya y
ĠT ill
ul in
ĠF alk
Ġsup press
oh l
ĠLe ft
Ġshel ters
Ġvet an
el ly
ĠC ert
ak ram
ag ast
ĠD over
ah o
Ġga utam
ok u
duc ed
ĠInd ivid
ĠKing ston
Ġche hre
Ġtur k
Ġrespons es
Ġanu yai
ighth ouse
Ġrow s
ĠCru z
Ġfrig ates
Ġtong ue
Ġdeev aaron
g ol
p m
ĠT ank
ĠK art
Ġper ipher
ham i
ĠSchool s
Ġplat oon
Ġtail ed
ĠAsh ley
Ġkehal aati
Ġdisch arge
t ur
v ol
Ġt ales
ĠE urop
ap on
Ġ20 2
Ġdis k
che t
Ġshar t
Ġjud ged
ĠIm medi
Ġbul let
Ġchh ot
ĠWrit ers
Ġnarrow ly
Ġshil p
ĠKnow les
Ġgendb aaj
l ide
l ob
as al
Ġan onymous
Ġ179 0
Ġpeace ful
avan ee
Ġaccommod ation
Ġmanuscript s
Ġmans ap
ĠHann ah
ĠÂµ m
c hikits
s ik
w ati
Ġw elfare
Ġcon form
ant hi
Ġek atrit
arth ath
Ġyoj an
Ġgradu ation
Ġshaik shanik
ha el
Ġst ew
aan g
Ġve er
Ġshi ks
Ġcommand s
Ġbreak through
Ġaccept ing
Ġmas ik
Ġfair y
Ġroof s
Ġpratiband hit
Ġmuq ab
Ġb red
am ay
ĠH ave
ĠD ob
Ġga hare
ĠBro ck
sing h
Ġfram es
ĠAlexand ria
Ġmaad aa
ĠXII I
ĠMedic ine
it ative
ra ksha
ĠH ollow
ĠP ain
ĠG aza
pr er
Ġmill s
ising h
Ġsahitya kar
ĠMov ing
Ġenl arged
Ġdele ted
t el
ĠB L
ĠF iction
av yon
ĠJ in
ell es
ĠMin ne
Ġrock y
ĠSing er
ĠRet rieved
ĠAdri atic
m ukh
est e
Ġleg ally
Ġniy at
Ġbrah ma
Ġ183 5
199 0
ĠDod gers
9 7
Ġs op
Ġc ry
ĠC IA
Ġas aamaanya
ĠR ot
ĠL il
av aadi
Ġtra ce
Ġmaan akon
Ġba anta
Ġtro ubl
ĠWrit ten
Ġabol ition
Ġgarmi yon
ĠCost a
Ġdush man
G A
f ront
j ani
Ġt ren
un ion
el age
ad as
st in
vi Äĩ
Ġbl ame
aksh mi
ĠAst ron
g raph
Ġ \
Ġp aariwarik
Ġhe ter
Ġg aay
Ġg ills
Ġap il
Ġup mahadweep
kaar y
ĠCom pan
Ġpat ch
Ġcount ed
ĠTra in
Ġfinanc ially
Ġpoll ution
Ġnirmaat aaon
Ġreven ues
Ġmahad weep
Ġkavit aaon
U P
k end
s hya
w oman
Ġaav edan
Ġcapt ive
Ġmun i
pash chaat
ĠBird s
ĠCe leb
or an
ra i
Ġqu art
omet own
ĠGu err
ĠFa ith
Ġsovereign ty
c ot
Ġv ag
all ow
Ġga z
ĠRe ver
Ġinter face
Ġexpress ing
Ġlaunch ing
aust ral
Ġcentimet res
Ġhorm one
Ġwash ington
ĠS ul
Ġmod i
sha hi
Ġnar esh
ĠPresident ial
Ġovers aw
Ġchaah ati
Ġdaay itv
Ġunw illing
Ġvidhyaart hee
Ġf iles
ic he
ĠL omb
ĠJ azz
Ġshort age
ator ies
Ġtro ut
Ġkan pur
Ġmanag ers
Ġsen aaon
Ġtourn aments
Ġmaatr ub
Ġenthusi asm
Ġsymp athetic
ĠMcM ahon
Ġreleg ated
Ġcontempor aries
c ra
g irl
j ai
il der
Ġj ose
Ġro sh
Ġcons ort
ĠAll an
ruct ive
ĠCap com
Ġactiv ists
Ġpri ests
Ġphys ic
Ġconv oys
ĠBet ty
Ġ183 6
Ġine ffect
Ġdisplace ment
Ġwelcom ed
ĠA way
ĠW ick
ill on
qu el
und y
Ġpre ference
Ġmed ley
Ġgh ode
ĠIndian apolis
br ates
Ġshakha on
Ġautom obile
Ġrecommend ations
Ġdeterior ated
Ġinfer ior
b ald
ar med
Ġs ued
Ġc ort
Ġsm ugg
Ġweak en
Ġclim ax
ĠUnder ground
Ġgujar ati
Ġimplement ation
Ġtakneek on
ĠObs erver
Ġaccum ulated
ĠRuther ford
er os
Ġb artan
ĠE yes
Ġsh ocked
Ġsm oking
Ġsn atakottar
Ġanek on
ga e
don ald
ĠCr ash
ĠDan ube
ocol ate
Ġrecommend ation
ĠJohan n
Ġclin ical
Ġrejo ined
Ġfier ce
olith ic
f at
m ag
u en
w alk
Ġp ension
aa iyon
ĠS pl
st en
ĠB oot
ĠR ag
Ġasp ir
Ġasw eekaar
ĠSerge ant
ĠNept une
ĠWrestle Mania
ĠD rew
Ġar un
ve er
Ġch hip
Ġte ar
Ġship ments
va igyanik
oe uv
Ġadhyaksh ata
hi ro
ĠB ib
ĠF ul
Ġkam edi
Ġtax on
Ġpoll s
Ġworth y
ĠAv on
Ġguzar ati
Ġtheor etical
ĠTha iland
ya ble
Ġan kon
ĠR oth
av ali
hip el
ens ing
Ġcar b
Ġtele vised
Ġter ra
Ġgrand mother
ĠJul ia
Ġwonder ful
Ġs asha
Ġf og
Ġra hit
Ġle an
eng land
ĠMa har
Ġsadsy ta
ĠHal ifax
ĠWin chester
ĠCra zy
v ous
an um
ad ish
ĠH od
ĠH utton
Ġmod ule
Ġmand i
ĠFr inge
Ġjagah on
Ġjar ur
Ġbed room
Ġbuk amp
ĠPrim ary
Ġphyl ogen
r ide
Ġ ij
ha us
Ġg ond
ĠL ans
ub les
Ġup araant
Ġbh ram
ĠAfter wards
ĠJohn s
Ġsit com
Ġwind os
Ġdharm on
Ġcontact s
Ġevacu ate
haw ks
Ġvishwas aneey
ĠP P
Ġsha il
esh non
ki en
Ġacc idents
Ġ23 5
ĠGeor gian
Ġlaw yers
Ġnar rator
Ġcat ches
Ġsubject ed
Ġcas em
Ġfran cis
r ush
Ġg aanaa
Ġr ana
ht ar
ial s
Ġbut ton
Ġunder graduate
Ġmat rix
ka hani
Ġvish way
Ġradio active
Ġbhej ne
ĠAR IA
ic z
ap or
og e
ĠRe id
ĠLe vel
Ġfav ourable
Ġsn ap
hem es
Ġmeant ime
Ġ177 6
ĠDisc overy
Ġri ot
ĠPruss ian
Ġlokt antr
or am
is ia
ra chana
Ġv ich
ĠS es
ĠB ever
Ġbe ings
ĠE S
ap at
Ġint rig
Ġsa undarya
Ġlad akiyon
Ġinvestig ating
Ġroop antaran
Ġsheet akaaleen
Ġsind hu
Ġconfront ation
Ġd ada
ĠL C
Ġda ant
ann on
Ġvib hakt
Ġmen u
Ġkal am
Ġsol ahavin
Ġhapp ens
Ġpurs uing
Ġcompar isons
Ġparsh v
R L
Ï Ħ
hi ms
ch u
ĠG Ã¶
ĠN im
Ġga han
Ġrec apt
Ġpo ocha
Ġreview ing
Ġmean while
Ġik aayiyon
Ġalt ogether
Ġprol ong
ĠWheel er
Ġpatra karita
Ġprayad weep
Ġuddesh yon
k ya
an or
Ġch ic
Ġdiv ya
ĠPer u
Ġdeg ener
Ġaccount ing
Ġimag ination
Ġtib eti
ĠVis ual
Ġchaud aa
Ġchet avanee
Ġaffili ated
Ġanuy aayi
Ġsuperst ructure
c aster
l ig
Ġf ins
us arai
ĠG ould
ĠAr ist
Ġmaan ata
ĠBar ber
Ġchi z
Ġencourag ing
ĠMiddles ex
Ġpradoos han
Ġn erve
ĠP os
up s
rit es
Ġab rupt
Ġshow c
Ġaad ha
ĠSp ani
Ġorder ing
Ġmaam la
Ġchi d
ĠVen et
Ġrecre ational
ĠSebast ian
ĠS ag
ĠM oor
ĠH aven
Ġpro c
oy le
Ġgener ic
rad un
Ġghat naayen
Ġlak hon
Ġ183 9
ĠBrad ford
Ġadm its
Ġwrest lers
Ġrenown ed
w ald
à ¨
Ġ é
Ġh ometown
Ġnew er
Ġaver ages
Ġpaksh on
Ġmanufact urer
Ġt ends
Ġhe sit
ĠL an
ĠL um
Ġexp enses
ĠAng els
Ġobs erve
Ġsaa peksh
Ġdram atically
Ġaushad hi
iyam it
Ġindi ra
Ġtiv rata
g iri
Ñ ģ
ro b
Ġma i
Ġv ector
ĠP itch
ĠL iv
iger ia
Ġmonitor ing
Ġsemif inal
Ġpostpon ed
Ġyod dha
Ġm og
ĠC urrent
st s
Ġan aaj
ish war
Ġap rat
ĠK ens
Ġdis rupt
ĠBrit t
Ġdisc o
Ġla uded
Ġrest art
Ġsamaaj awaadee
ĠInter ior
enezuel a
Ġt ired
Ġs ends
Ġb eds
ig uous
Ġpr ant
Ġref usal
Ġpah alu
Ġevery body
ĠTra fford
Ġelectron s
k un
w el
as hetra
Ġl am
Ġth read
Ġhot els
ene g
Ġdecl ining
Ġtap asya
Ġkind s
ĠEven ing
Ġstrik er
ĠJess ica
Ġparik l
Ġencl osed
ĠLiter ary
ĠLaf ayette
Ġk ata
Ġp od
Ġb amb
Ġd v
Ġl u
Ġke et
st op
Ġpr ide
ok en
Ġim pl
Ġnam ankit
Ġel izabeth
Ġview er
Ġter rible
Ġcle ver
aak aat
ĠDon na
Ġrebu ilding
Ġmaz door
Ġunne cess
o ids
Ġf ederation
ĠT ina
et ing
ĠR id
ĠV ince
red ited
alay on
Ġsad ar
Ġlos es
Ġnikal ataa
Ġausat an
rell a
Ġpure ly
Ġtaat pary
Ġb os
ĠM ira
Ġst ake
Ġcap ability
Ġoper ators
Ġstar on
Ġ179 9
Ġmoder ately
ĠFree way
Ġpahal uon
Ġdiscrim ination
n ery
n iveshik
ĠC ly
Ġis aliye
th or
Ġad mission
Ġdis cl
Ġform ats
ern s
ĠComm odore
ĠSh ore
Ġsark aron
Ġreason able
ĠPriv ate
Ġadvertis ement
Ġthunderstorm s
Ġtrigg ered
Ġk het
Ġb ord
Ġd ining
ĠM ater
ph is
ĠSte wie
Ġkad ap
Ġdedic ation
ĠGre ene
Ġgha di
Ġsleep ing
Ġhtt p
ĠHapp y
ĠRoche ster
Ġguid ance
Ġs ided
ens en
haay i
Ġplant ed
Ġavas aron
Ġkah al
Ġsupposed ly
ĠBrun swick
Ġdistur bed
Ġm ung
Ġw ages
Ġc ogn
ĠB Ã©
up er
um er
ĠN P
Ġex empl
ass i
Ġinter rog
ered ith
Ġinst ances
els ius
ĠMar cel
ĠBy rd
ĠNor wich
Ġtim ing
Ġsaaj hed
Ġunn ati
Ġaatank waad
Ġjang alon
Ġrect angular
ĠE rie
ĠK ur
Ġab h
cl air
Ġinter ven
Ġshar an
Ġhead l
Ġcur ric
Ġmas ters
Ġathlet ics
Ġmort ar
Ġceremon ial
k ong
Ġse min
Ġas ant
ĠW ade
Ġap n
Ġpl ug
ov ed
Ġsing haasana
Ġreg ards
ĠZ oo
Ġmar atha
Ġbac he
Ġaccept able
Ġcivil ization
ĠDam asc
Ġcontroll er
Ġcha ay
Ġtr ucks
ĠCo ach
Ġhost ing
ĠHaw k
Ġconcent rate
ĠHun ting
Ġboil er
othe rapy
Ġdrown ed
f ires
Ġk riyaaon
Ġc ree
Ġd amp
Ġh oli
am y
Ġg walior
Ġtrans m
omet er
ster dam
Ġmort ality
Ġjaag ruk
ĠGlou cester
Ġsanva idhanik
h ati
Ġpar ichit
hak aal
Ġsub div
ĠBe ing
has pati
ĠAct iv
Ġtum haare
Ġaw az
Ġnest ing
Ġb io
ĠP or
od ar
Ġun g
ĠJ ets
pr us
ĠTh urs
Ġinf ect
Ġpass ages
Ġmul aakaat
Ġhit on
ĠCorn ell
ĠBas il
Ġvishway uddh
Ġj yam
Ġkaar ya
Ġfl av
Ġfre estyle
ĠRichard s
Ġportray ing
Ġneighborhood s
Ġballeb aaji
Ġbhaa wanaaon
ĠCanadi ens
Ġinduc ed
e ind
as aa
ag ne
ĠP ike
ĠR ank
ans i
udd y
Ġshabd aawalee
Ġviol in
Ġgot ra
Ġqual ification
Ġpand av
Ġphilos ophical
Ġlaut ne
Ġpublisher s
b ir
b one
it ory
ud s
Ġab his
Ġbu ying
Ġbh att
Ġsand stone
ĠPart ial
Ġarchitect s
Ġlabel ed
Ġupyogk artaaon
ĠâĨ Ĵ
h ow
Ġt att
Ġt iny
ĠB j
ĠF u
Ġap prent
ov ny
Ġpe as
ĠBe au
ĠBe hind
Ġud d
ĠAd van
Ġconf isc
ĠGl ac
Ġhard er
Ġnation wide
Ġaag rah
Ġsin chai
haw k
ĠWy att
ĠEpis ode
Ġsam ag
ai yr
vi jay
ran th
ĠSha kira
Ġbats men
Ġexha usted
ĠDuch ovny
ĠOppen heimer
Ġh ik
Ġv asa
Ġap at
Ġap rad
Ġbo ards
let te
Ġstar ter
Ġ184 3
Ġgas oline
gi ate
ĠStud ent
Ġanuk ram
Ġic onic
ĠShar on
ĠFore ver
at ma
Ġb out
Ġad miral
Ġup adesh
Ġco aster
Ġfe f
ĠLe y
Ġdef ine
Ġlog ic
Ġstat ute
Ġfa ile
Ġviol ation
ĠBet ter
ĠThor pe
Ġtornado es
ĠThurs day
b ath
Ġh ate
Ġsub mit
cha ir
Ġprom ises
haal an
Ġaff ection
Ġnikat atam
e lect
j ord
Ġf oul
le z
ĠD ame
Ġgu err
Ġband i
ĠGu est
Ġade quate
á Ģ
Ġd oshi
Ġh ollow
em ia
Ġpr aavdhaan
cl ub
Ġpat hak
Ġins urg
Ġobject ed
Ġcomplex ity
Ġ183 8
Ġcommunic ate
ĠHem ing
Ġkee per
Ġbapt ism
Ġadw itiya
Ġd uck
ĠW u
ĠJ oker
ĠE min
ali ans
Ġhal t
aster ly
ĠWe ber
Ġprav isht
Ġ184 2
ĠVol unte
ĠEld er
Ġvitar it
q i
Ġ ull
aa kaar
ĠF olk
wa it
ĠCo hen
Ġpost ing
ĠAC C
Ġjack et
vahi in
h op
Ġd ot
ro duction
ĠC ran
ut tari
Ġbe ha
Ġpar ap
Ã© l
Ġpartic le
Ġbeg usarai
lam m
Ġlad y
ĠMet roid
Ġcool er
Ġrecip ient
ĠYank ovic
atern ity
v arti
ĠP radesh
Ġun chi
oc ate
Ġsw ac
Ġind oor
Ġmahar ani
Ġamount ed
Ġdemol ition
Ġregist ration
c u
r ust
Ġd y
Ġor nament
ĠR aven
ĠD im
ĠF ow
Ġpl aza
Ġla u
ĠMil ton
Ġceleb rations
ĠIraq i
Us age
Ġsophistic ated
hipel ago
c ard
Ġj hal
Ġst un
ĠN ak
Ġun be
aat aaon
ug a
Ġba uddhik
be es
ĠMy ster
ĠMcC l
Ġtort ure
Ġkhya ati
Ġkaarob aar
u ce
ra ment
Ġcl ad
Ġme h
Ġut haane
Ġcha alu
ĠLe banon
Ġent ity
Ġbi ology
Ġsk illed
Ġdel ta
Ã³ w
ĠCle ment
Ġprin cess
ong o
pr an
Ġinv ested
Ġinf in
Ġkha j
Ġshoot er
Ġmult ah
Ġvaan ijya
Ġnaks haa
ĠMig uel
Ġb ike
Ġw ik
ut z
ĠR hy
ĠD id
ess ing
ari j
Ġdes hi
Ġbaad ha
ĠLouis ville
Ġ180 1
Ġrub ber
Ġhorn s
ĠM GM
ne o
Ġman i
Ġfarm land
Ġmanufact ure
Ġfilmmak ers
g erman
w y
Ġc her
Ġl ots
el ong
ĠC ret
ĠR ama
ĠF en
ĠE sp
oc y
ĠDar ren
Ġ74 7
Ġaest hetic
ĠImmedi ately
ĠDamasc us
ĠM its
ĠH ank
Ġpe ers
ĠHar bour
Ġsat at
Ġkan on
Ġinn ocent
Ġ182 9
peh la
Ġconsum er
Ġculmin ated
ĠSaf ety
Ġsaik adon
in ia
Ġst al
Ġsam adhi
ĠK end
Ġte hr
Ġ8 50
Ġsak shya
Ġconc urrent
Ġtest ified
Ġmaarg darshan
ĠSa udi
Ġancest or
ĠHast ings
Ġcancell ation
Ġt uf
Ġj ib
ĠE uras
erv es
Ġsk irm
mar ine
yl on
Ġill um
ĠAnn ual
Ġshir ts
W R
k ind
o que
ĠD enn
her d
ĠV ocal
ank h
ft on
ĠAr cher
ĠCon st
Ġgu ys
Ġvy aak
ĠHa iti
Ġorient ation
ĠScient ific
Ġke ys
ĠS ap
ĠP aper
Ġup nagar
hak aar
Ġdon ations
Ġnar endra
Ġprav aahit
unt ary
ĠEr ik
ĠRhodes ian
Ġchaut haa
Ġpull ing
Ġdivor ced
g reen
Ġs its
ra w
ĠSt ockh
ang o
Ġdis in
ters on
Ġship yard
Ġdik haane
ole ey
Ġtack le
Ġconced ed
Ġsanl agn
f red
n ian
p air
it us
ĠH undred
ĠG wen
Ġun che
Ġpra vaas
Ġsam asy
ĠK un
Ġ18 14
ĠAl onso
bha vi
Ġass ured
Ġshabd ic
Ġunc onscious
Ġpsy ched
ĠÎ ±
ĠJul iet
UC N
Ġclus ters
Ġs ink
at atv
el in
Ġpe j
Ġfl ies
Ġreg ener
Ġpat el
Ġperiod ic
ĠEl se
Ġprem ise
Ġing red
ĠSystem s
Ġnaatak eey
ĠRup ert
j en
Ġk ak
it ate
re k
Ġhe x
ĠB ess
Ġ4 60
ĠAs ide
ĠZ a
ĠZ elda
Ġposs essions
ĠFl ash
yaar any
Ġdissip ating
Ġconvinc ing
Ġsasha str
R E
r iv
as in
ĠN olan
ind ing
Ġco ached
Ġfl aw
ja isaa
Ġ22 5
anc haar
Ġvict orious
Ġnird isht
ĠChan g
Ġcros sover
o it
am ak
ĠS iege
ist ar
Ġper imeter
Ġjanm e
Ġhar ry
Ġanti bi
Ġwhe els
ucle ar
umber ing
Ġapar aad
ĠJam ie
ĠLex ington
Ġrepublic an
Ġas aadhaaran
ist on
Ġ20 5
Ġfail i
Ġrad ha
Ġaim s
Ġcam oufl
ĠTon ight
Ġdesper ate
g ur
s ud
Ġde ple
ate et
Ġcl as
ĠTe en
Ġbal let
Ġdecl are
Ġru ined
ĠWild life
ĠDog gett
Ġkilogram s
ĠChet nik
Ġsada iv
ĠHallow een
c ill
Ġc hir
Ġand eh
ĠB il
ĠK amp
ĠK Ã¶n
Ġjan an
Ġmad hy
Ġdev ised
Ġcorn ers
Ġstrict ly
ĠFull er
Ġoffs pring
c ience
m ot
Ġo ath
il ight
ĠS elf
ke ern
Ġdis rupted
Ġja wa
kar m
Ġrel at
Ġsank hyik
Ġdar av
Ġphil ip
Ġmicro soft
Ġvaahan on
ĠHispan ic
Ġredd ish
in ks
Ġhe ated
ĠI B
ĠR ut
Ġde vanagari
Ġcl ause
ark ar
ely n
aw ak
Ġban akar
ten ham
Ġsu j
aale kh
Ġlands cap
Ġbes ide
Ġprag at
ĠStockh olm
ĠC ore
Ġab n
ĠPal m
Ġ183 1
ĠJul ie
ĠThir ty
Ġrend ition
ĠInit ial
Ġtaar ikh
Ġdimin ished
al ogue
ĠW ess
ĠL anka
op a
ee z
Ġvict oria
Ġaap aki
Ġinvest ors
Ġ48 0
Ġrob in
Ġparallel s
Ġconvent ions
ĠVo ya
ĠBuc kingham
Ġliv estock
Ġshod hak
Ġaccus ations
ĠAppro xim
Ġprabhut v
ĠMinne apolis
7 7
p ace
s ura
ar it
Ġf ren
Ġha f
ĠM ats
ĠW ey
og i
rit z
ĠAl ien
ces tershire
Ġdef ining
Ġdef ender
ĠAd olf
Ġang les
Ġbain kon
ĠBris bane
R NA
p ir
Ġc odes
ou k
Ġg opal
Ġre tra
ĠC hip
Ġlag aakar
Ġpres umed
ĠNe igh
Ġge hun
ĠSpec ies
Ġmos que
ĠMans field
m are
Ġm iz
aad a
Ġop ener
Ġbad shaah
Ġtri angle
ĠEx am
Ġnagar on
ĠGrand e
F S
Ġm um
Ġv est
ĠS z
ĠP ath
Ġbhar atiyon
Ġem bed
Ġconc ur
mak er
Ġcomb ine
Ġwild life
ĠCub s
Ġinteg ration
Ġabb ey
Ġuplabd hi
roscop ic
Ġinade quate
O W
d ig
ĠM eredith
ĠI D
Ġte ars
ok taaon
Ġinst ruct
ĠWor cester
ĠWar riors
Ġcompan ions
Ġexcept ional
Ġdanc er
Ġremn ant
Ġuncertain ty
Ġplum age
ar ag
ya p
Ġke l
Ġor din
ĠI UCN
Ġsa udi
Ġtra gedy
Ġback drop
ĠCar penter
Ġba ant
Ġeight eenth
Ġpay ments
Ġpaid al
Ġcolon ists
Ġlect ures
sark aar
k is
Ġ Ì
ĠS ara
un aa
ĠF o
ĠL un
iss on
ĠLe ip
Ġpras ang
ras iddh
ĠMac D
ĠOrig ins
Ġparisth it
Ġchin h
Ġrelie ve
Ġposthum ously
b ara
Ġb illi
Ġd hal
ing ers
em e
Ġde in
Ġman ned
Ġsc hemes
li yaan
ĠQ ual
Ġmaan chitr
ĠMe chan
Ġperson a
Ġmot ors
Ġhat ch
Ġq ab
ĠAut o
Ġjawa har
Ġs acked
Ġb ic
ur ally
Ġbe aches
ans en
Ġkn ight
Ġvya y
Ġkh andon
empt ion
ĠÃ ħ
cont inental
urre ction
ĠØ§ ÙĦ
eind ies
m u
Ġf ishan
ou x
ch aran
ĠB S
Ġcomp ass
Ġman oeuv
Ġsaat hiyon
Ġdif fers
Ġcount s
ĠNe ed
Ġdh um
mo hammad
Ġthrow s
Ġbait he
Ġcommemor ate
Ġoutf it
O N
i able
ã Ģ
ad ia
ch ard
ĠP ret
Ġpar an
Ġra hakar
ĠK iel
Ġ20 6
Ġsp ans
Ġspe ar
Ġpo och
Ġcharacter ised
Ġcolle ctor
Ġsl ope
19 80
Ġult ra
Ġspir its
Ġpack ed
ĠInde ed
Ġmicro phone
ĠTechn ical
ĠPalest inian
ĠMethod ist
ĠA w
Ġal tar
Ġco oking
bha um
Ġref lection
Ġbas al
Ġannoun cing
ros se
Ġdiss atisf
Ã± a
Ġfron tal
Ġarch bishop
r ically
ĠF ra
Ġun official
Ġbh ale
ĠBe atty
Ġband han
Ġprof ound
Ġlim bs
Ġrail ways
Ġpen alties
Ġyogic on
Ġan uchhed
ĠF ey
Ġy ukti
ĠK rishna
Ġhi atus
ĠWar wick
Ġanus uchit
ĠCar te
sequ ent
Ġaccept s
Ġdurg a
Ġkathin aayee
Ġwh ites
ĠF av
ĠG amb
Ġsh it
der ness
Ġsha d
Ġnir ikshan
Ġbh ushan
chi d
Ġbre ach
Ġdra vya
Ġshr ing
Ġ38 0
Ġay urveda
Ġpraadhik aran
Ġpresum ably
ĠShack leton
k it
ro up
el ius
ĠC um
Ġsh ro
ack ing
pr aa
ĠY ale
ĠLe opold
ĠNorth umb
Ġbroad er
Ġkah ati
Ġconcent rations
Ġdies el
Ġmemb rane
Ġs le
Ġcl oth
Ġsc rat
sh ine
ĠRe in
rat ic
aul i
bor g
Ġfund ra
ĠCher ry
raajnneet ik
Ġd ukh
Ġn adu
ĠT act
ĠM iz
ĠL on
op on
pl ate
Ġres ource
Ġsp arked
ĠSe ym
Ġbro w
Ġ30 5
ĠSup porting
ĠHam pton
ĠAnim ation
Ġzar urat
ĠWed nes
Ġmetall ic
Ġshrik rishna
Ġt ateey
ut he
ant ran
Ġra ft
Ġro pe
Ġinf ilt
Ġgra vel
ĠÂ ½
by ter
Ġshort s
ude v
ĠPat ric
Ġsuggest ions
Ġec clesi
Ġcollect ively
fl ies
ĠThan ks
Ġinstru ctor
Ġprativ arsh
8 7
d hara
ha ak
Ġth umb
iv ier
Ġfor ever
em on
Ġsh u
ind ra
Ġ18 19
ĠCol bert
Ġsed iment
far vari
1 00
b han
t aker
Ġb hil
Ġman ual
ins ki
ĠShe ar
Ġsad d
ĠOr lando
Ġobs erving
Ġnon etheless
ĠQu int
Ġelim ination
Ġvimaan ashetra
sans krit
m ass
n ant
ĠR as
ost ic
und i
Ġme gh
ced ented
Ġlag aana
Ġla har
Ġjaan ata
ĠCast ing
ĠGi ro
Ġbhavish yav
Ġportra its
Ġabd ul
Ġforg otten
is y
Ġf illing
ĠN y
ary on
Ġsp ray
Ġant agonist
arn iya
res cent
ĠPar ad
Ġdeb ated
Ġak aal
ĠSub sequent
do osraa
ĠPers ians
Ġliber ty
Ġwrest ler
ĠKap oor
M P
k arta
in os
as ures
ĠS tern
ĠC risis
ĠG em
Ġsam al
Ġsp y
ĠY uc
ob il
ran ath
Ġsan yog
wa hi
Ġpun ch
Ġmechan isms
Ġdaa kh
Ġinteg ral
ĠCham bers
Ġambed kar
ĠB ard
Ġcon ning
Ġen abling
hy dro
Ġwe ars
cha ap
Ġshar ply
Ġbhashaa i
Ġmake up
Ġnet her
Ġnomin ee
aman ch
Ġelement ary
Ġpakad aney
Ġimaar aton
Ġshrim ati
ĠSeym our
F R
ut patti
te ch
ĠDe xter
ob ar
Ġcons erv
Ġserv ant
Ġaddition s
Ġhum our
Ġreal ism
ĠEx tra
Ġsen ator
Ġdek htaa
Ġaar aam
Ġfant astic
ĠApproxim ately
ion ed
Ġg ree
ĠS ales
ĠS hane
us amen
ĠV ij
hya p
Ġtra ced
ĠCom plete
ĠGeor get
ĠBel arus
Ġaust ria
ĠLyn n
ĠTel ugu
Ġadvertis ements
ĠWes ley
Ġprasidd hi
Ġt ant
Ġf ol
Ġre porters
ol ian
oc aly
Ġbha k
Ġpat th
Ġcurr ents
ĠCorn er
ĠPerson a
Ġtuk ade
Ġunpre cedented
k av
Î µ
er ut
Ġo mitted
ha akar
ĠB ret
ĠK i
Ġspe aks
Ġaap kaa
Ġcal ib
Ġfr ight
ĠPre vious
ĠKn ox
Ġemer ge
Ġcorrect ly
cour t
ĠHoff man
Ġvishaan u
b ors
p ical
he k
he yak
Ġp ent
Ġb han
it ha
ĠC el
ĠW imbledon
ich o
Ġref using
ĠCo ch
au er
angre ji
ĠPsy ch
ĠCoal ition
fortun ately
Ġa ah
Ġcom eb
rit ies
gan it
arn aak
Ġva ult
Ġbh ukh
ĠBer gen
Ġrasht rav
Ġlisten ers
Ġguarante ed
y ub
ag ra
ĠO sw
ric a
de vi
Ġsp ore
Ġgh us
Ġcour ty
ĠVict ory
Ġrid ges
Ġpurcha sing
ĠAlb ion
ĠWell es
Ġpup pet
ĠGet ty
ĠVik ing
d ur
Ġs vach
ad itya
Ġap waad
Ġwor s
Ġen zyme
ash m
Ġrem aster
Ġwhere by
umb ent
ĠStud ents
ĠCard inal
Ġnag pur
Ġresemb lance
Ġgam ma
ĠPant hers
ĠCinem a
iffer ent
l aal
ĠD und
Ġro uted
are en
Ġatt ain
Ġam it
Ġpo ets
Ġland own
Ġcor al
ĠJack ie
Ġclim bed
Ġstret ched
Ġmys ore
ĠPil ot
Ġpromin ently
Ġmaatrub haasha
al ine
Ġl adi
Ġe ager
Ġse ated
Ġse ating
ol ving
ĠP ray
ĠD ors
ĠO wn
Ġut ak
amb o
Ġmus cles
Ġsouth ward
Ġvi haar
Ġevery day
amm at
Ġyojana on
ĠHor ror
ĠWork ing
ĠSin atra
ĠSomet imes
p erson
r h
er get
it ia
Ġf ond
hen dra
ĠDe uts
arn ath
Ġmay be
Ġsl ide
Ġsaam ud
Ġtown ship
Ġstat ues
ĠBel grade
Ġheav en
ĠWin ston
Ġdress ing
ĠOak land
Ġcomed ian
ĠHok ies
c ane
Ġk ant
ak taa
od or
ĠJ et
Ġpro se
adi ya
Ġ14 2
ĠCar roll
Ġbar ish
ĠOr k
Ġsarv ice
Ġspread ing
Ġupas na
K O
i ary
Ġs ijan
Ġma iri
ĠT ap
ĠD ixon
Ġdo zens
Ġsad hano
Ġlab els
kaal een
ĠSur viv
Ġgha atak
ĠAnim al
pashchi mi
ĠNum erous
c are
at ters
il er
Ġse aled
Ġst en
ĠK annada
ĠV es
Ġut ter
Ġsimilar ity
Ġq araar
Ġdisapp ro
nir maan
ĠAT P
ĠâĻ Ń
ĠHeming way
ed o
Ġo k
Ġon set
ĠD ad
Ġat lantic
ĠG ive
ind i
Ġeng lish
Ġteen ager
Ġagre ements
Ġge ographical
Ġ180 9
Ġmuqab la
6 5
ĠH ack
th ouse
ĠK ids
Ġem ail
Ġmatch ing
Ġsoc cer
Ġcompos ing
Ġste als
Ġdh oom
Ġdead line
Ġhun ter
Ġancest ry
Ġuniform s
Ġpione er
Ġque ens
ut ane
ĠK ay
Ġanus haas
ĠGu am
Ġassoci ates
Ġcat aly
Ġshoot s
ãĥ ³
Ġtam aam
orph ic
Ġnat ya
Ġpanj ikrut
Ġbhrasht achar
L L
w ord
ĠB ent
Ġra van
Ġkar egi
man uel
ry s
Ġinter im
Ġdr udh
hold ers
ĠVer de
Ġsanra chan
Ġdevast ated
Ġcounterp art
v arn
Ġs hani
Ġm ating
Ġand ey
va id
ĠCamp us
agn etic
ĠEle anor
Ġske let
Ġaup niveshik
Ġconstitu ency
ĠCla ude
ĠWis den
Ġt ata
Ġ. .
ĠT roy
ig ma
ac ious
Ġover night
Ġcha os
ĠBe a
Ġvy ast
ĠTrans it
ĠHard ing
Ġnis kriy
Ġpatron age
Ġmillimet re
ĠDaw son
Ġexped itions
ĠCec il
Ġk oti
ĠT omb
ĠD ew
ant is
Ġex changed
ĠV as
Ġen zym
Ġtrans ports
lo ke
Ġpract iced
Ġovert urn
j at
en as
ya aron
om ans
ĠD ot
os hal
Ġle isure
ĠV ery
ari ya
Ġinv as
Ġantar ctic
Ġinflu enza
ĠSm art
Ġbroad ly
ĠPer fect
Ġje alous
Ġjung le
ĠWednes day
Î »
Ġa asthaa
Ġc rypt
aa ge
ĠB ism
ĠH its
ĠR ise
ĠW C
ap ra
Ġraj keey
Ġshi m
Ġgl uc
abad dh
Ġblock ing
ĠLi u
Ġcompl aint
ĠFer ry
Ġrecover ing
Ġrein st
Ġsuperv ision
Ġbahus ankhyak
I P
Ġpra bhu
ill and
Ġdis qual
Ġsw eep
Ġantar aal
ĠHer zeg
Ġrep ly
vid ha
Ġaa yaat
ĠBart on
Ġcra zy
ĠCommun ications
Ġutil ized
Ġexclud ing
Ġabund ance
Ġsummon ed
an ak
Ġp aati
Ġd ant
ĠT win
Ġv ail
Ġfor get
up e
ik r
Ġ4 10
Ġsound ing
Ġassoci ations
intend ent
Ġkarane vaale
Ġnaksh atra
k ward
Ġp agan
Ġl al
il o
ad maa
Ġde ity
Ġpad ate
Ġmin ers
Ġinv ention
naa on
Ġph ulon
Ġsomet ime
een iyar
Ġsamaj hi
Ġ179 8
Ġvin imay
Ġjoint ly
agre b
Ġreop ened
b ab
f ax
x i
Ġb ry
ra ck
ĠP ala
Ġbl ade
Ġel ong
Ġwest bound
ĠAm azing
ows hip
Ġmahar ishi
Ġ179 4
ĠArab ia
Ġpush p
Ġlun ar
c ery
l if
t is
Ġg ases
ĠS eth
id aan
ne pal
ĠK re
art y
Ġele g
Ġgener ating
Ġsu ite
Ġsamp ra
ĠBatt les
Ġkhat arnaak
was an
Ġ182 4
Ġprastut i
ĠAnt illes
__ __
Ġsupern atural
Ġtren ches
g ren
er en
Ġl umin
Ġh uk
od ied
Ġag enda
ksha y
Ġcomb ining
field s
yaat mak
Ġbill ed
Ġsaa has
Ġpie ch
Ġpal m
Ġoon chi
Ġaf raid
Ġri ots
Ġisot ope
Ġw ives
ĠA val
ĠC ul
Ġal ok
ĠL ands
ĠG ore
Ġsp or
Ġban ner
Ġloc als
ĠByzant ines
asm ooh
Ġcounterp arts
g ir
ĠR ib
ri o
ank an
Ġlat itude
Ġgan atantr
ĠAc hie
Ġbackground s
Ġ177 5
Ġhtt ps
Ġmetap hor
ĠBened ict
h ut
k atha
ĠP Ã©
ĠL Ã¼
ĠN in
ĠSt ark
Ġdef icit
aaj kal
ctor ate
Ġcy t
Ġfac ial
Ġflow ing
Ġreform ed
Ġbadh kar
Ġnikat ataa
hus han
Ġreact or
Ġfung i
Ġanch ored
Ġtouc hed
D OT
Ġs inc
Ġk iran
Ġm c
ĠT os
Ġg rip
ĠB oul
ĠB ronze
Ġal gor
Ġban aavat
Ġsk ip
Ġsk ating
och ond
iction ary
Ġprint s
zar at
Ġquant um
jeev ani
ĠFeder er
b red
Ġ iz
Ġb ant
od ay
Ġcreat ors
Ġaw kward
ĠBi ography
Ġshil aalekh
ĠAra bs
pich ley
Ġtroubl ed
6 7
j ali
Ġt ile
Ġb ip
ra him
im ar
Ġst iff
ul ative
av ed
Ġsam aapan
ĠK hr
ov i
ĠIt alians
Ġsp es
Ġ13 3
ty m
ĠPl ains
Ġrak hen
Ġhal ke
Ġ21 5
ĠPh ot
Ġimpact ed
Ġprishth on
Ġauth ored
Ġsupern ova
k r
m uj
Ġ ãĢ
un amem
av ier
Ġpr one
ace ae
ĠCh in
Ġban aam
Ġins criptions
ĠPr imet
Ġinj ection
anish don
Ġmel odies
ĠJo ey
Ġcongress ional
Ġsket ches
Ġprest igious
ĠPrimet ime
b ud
Ê »
Ġto bac
ĠT ud
Ġg ru
Ġas ambhav
Ġpra atham
Ġsh ubh
Ġad ul
Ġ5 000
ĠShe riff
Ġtel ugu
ĠWeb ster
Ġdro ught
Ġgor ge
Ġkart avya
f le
k el
n iv
Ġt ill
est a
ĠN ote
Ġdev il
Ġurg ing
l ore
t ik
Ġs izes
Ġp iv
ĠA V
Ġj ut
ĠC edar
pl ain
ip se
Ġtra ff
Ġut ility
Ġwe ird
ĠÂ ±
Ġmater nal
Ġbur ma
ĠCong o
arl ane
Ġkhud aai
Ġcoron ation
jans ankhya
ĠBelie ve
Ġfart her
f ork
Ġa ksh
Ġc elsius
il ee
ĠW itch
Ġat om
ĠL och
ok h
ham a
Ġgh ul
Ġham alon
Ġsal mon
Ġhard ly
Ġaccount ed
Ġaaj kal
ĠChe v
Ġ178 9
ĠAtt ack
Ġlaksh mana
ĠReturn ing
mans hip
Ġswayam se
Ġsri jan
ĠAnglic an
Ġcomeb ack
er ting
Ġg aanon
og s
Ġsc iences
Ġtra ces
ins ky
Ġsy ll
ĠGl ad
Ġdism ant
Ġsculpt ures
Ġlegend ary
Ġhindust an
ĠHein rich
c over
an aatmak
ĠH S
ĠG M
ĠN WA
ĠJ ab
ass ium
Ġban aayi
Ġlik es
Ġsub f
ĠZ agreb
Ġhy d
ĠVal entine
Ġamb ul
Ġdete ction
Ġopt ional
ĠSocial ist
Ġbreath ing
ĠGaz ette
e ks
g yon
n it
t ail
Ġthe ft
or um
ro se
Ġsp ark
Ġsak al
Ġz amin
va ise
ĠPl anning
Ġhand ful
Ġlad aa
Ġfram ework
ĠSand y
Ġreun ion
Ġbhaa iyon
Ġv es
ĠC rist
ĠM Ã¡
ĠH ond
ĠF ine
ĠE ly
ĠHe p
Ġart ic
Ġeast bound
Ġhy dra
Ġbhinn ata
shi v
ĠEle ment
Ġmountain ous
à¦ ¾
Ġchot ii
Ġnut ri
Ġbech ney
Ġsurve ys
Ġ ×
ĠS ene
Ġre ating
Ġr ats
ab andh
Ġsha ikh
Ġspec ially
Ġinc arn
Ġterm inated
Ġaap asi
ĠCor on
Ġinform s
Ġphys i
Ġdekh naa
Ġnob les
Ġvac ant
Ġterror ist
Ġconsolid ated
ĠArchitect ure
b ye
Ġs und
ĠS ask
ĠJ ain
Ġex ange
ĠK rak
Ġshe riff
Ġpa iron
Ġmin istry
sha st
Ġstar board
Ġval ve
Ġpet roleum
mah al
Ġpap al
Ġgendb aaji
Ġnip at
Ġushn karibandheey
ĠGuatem ala
ĠOrk ney
ĠO w
Ġsam tal
Ġpl ots
Ġ15 1
Ġem issions
Ġcampaign ed
Ġanti qu
sw at
Ġoccup ying
Ġhall s
ĠGa elic
Ġrenov ation
Ġmotorcy cle
sthan eey
v ia
as ur
il itation
ĠF ron
ĠL GB
av aad
Ġen erget
Ġins ult
lo o
Ġaak raamak
ĠAg re
sw orth
Ġdiss ent
ĠSpe aker
Ġresemb ling
Ġreserv oir
ĠMcL aren
Ġunnecess ary
ĠS aff
Ġj ala
ĠR um
op oly
Ġek ikaran
Ġch icken
ĠSt oke
Ġcomp ose
ĠV eter
Ġexp end
Ġgl am
Ġaay i
Ġson i
Ġsee ks
Ġmadhya pradesh
isc al
Ġ180 5
ĠChief s
Ġadvis ory
j as
k rishna
p ole
s ir
Ġt ens
ĠN one
Ġun par
Ġsam raj
ars hee
Ġdis ple
ĠCon rad
rap aan
Ġsar p
Ġiss uing
Ġfact ories
Ġjeev ani
Ġ182 5
ĠHy de
Ġod ds
Ġremix es
ĠDor othy
Ġlect ure
ĠAthlet ics
Ġdevast ating
icul ous
ĠLegisl ative
Ġpahachaan aa
p arts
at as
hi um
et ed
Ġre pt
ĠH ort
ĠD ol
ĠW emb
Ġun stable
ĠK ha
Ġ18 10
Ġkaar on
Ġfre m
ĠCro sby
Ġmel ting
Ġmob ility
Ġstri ps
Ġvaish nav
Ġrecru iting
Ġdownload able
Ġrecall s
Ġw ag
ĠM A
ĠU P
ib les
Ġkn ife
Ġvid heyak
Ġed ward
ĠSy rac
Ġste aling
Ġvir uses
ĠArt ists
Ġver dict
Ġconfron ts
Ġh in
Ġma ury
ĠM is
ĠR osa
Ġat eet
ĠSt ro
Ġ18 18
ric o
Ġrev ision
Ġdesign ing
Ġdiffer ently
Ġsans karnon
ĠTr ent
Ġstri yon
ĠAbb as
Å¡ e
Ġej eeniyar
ape ake
ĠTol kien
ĠBah rain
ĠKhr ush
c ence
g el
Ġhe ights
ut ah
Ġha un
Ġby aaj
Ġen jo
Ġinst ant
Ġbah ul
rat ory
Ġdiv ide
hard t
ĠClass ical
Ġstore y
en b
ht t
Ġres ume
vel i
Ġsank ramit
ĠAir ways
Ġbroadcast s
ev o
Ġprompt ly
Ġay odhya
ĠReview ers
Ġrend ering
ĠFel ix
hant ik
Ġd ul
ad aata
Ġha iled
ĠD uff
Ġal b
ĠL ass
ĠL ip
ĠL anguage
Ġar ia
Ġkar nal
ater al
Ġhi re
Ġcons oles
Ġstr anded
Ġpich hali
ĠExpress way
2 000
b eth
f inger
g io
j isamen
Ġb ust
Ġc ents
ha ati
Ġh inder
ĠB f
ĠV iv
Ġend emic
aav on
Ġmuk admaa
Ġball ads
ĠDi ane
Ġ179 3
Ġfaith ful
Ġbombard ed
Ġdeliver ing
Ġbaag h
Ġquad rup
ĠiP hone
Ġpla que
enha gen
Ġerup ted
Ġ ies
ch wad
ĠB P
ig ion
ĠD up
ĠAn to
Ġtrans mitted
Ġbar rel
Ġdeb ts
Ġdivision al
Ġemb assy
Ġ179 2
Ġobtain ing
ĠGal ile
Ġalp hab
Ġkor ian
Ġmelod ic
Ġmetab ol
ĠGuerr ero
ĠEmin em
ĠVoya ger
m ahat
Ġt rench
Ġc ure
Ġh anik
Ġpra karan
Ġins erted
Ġfirm ly
ĠAndre a
ĠAub urn
ĠComple x
Ġm ike
Ġc ite
Ġd hani
th y
Ġsub pl
ĠCom ment
Ġdef ect
Ġbh and
Ġpress ures
Ġkil o
Ġmal ik
Ġkah kar
ĠSin clair
Ġcontinu ation
Ġprofit able
Ġalum ni
ĠDecl aration
ĠWemb ley
Ġg ana
ĠH es
ck in
amb a
Ġtr uti
ĠAm azon
Ġexp ired
Ġshould ers
Ġisi ilie
Ġcru el
Ġprach ur
Ġchor i
Ġà ¤
Ġkrit iyon
Ġcock pit
c hika
ĠS lam
om atic
ĠM ong
ve e
ok ia
Ġcomp uls
Ġsha pes
inn ings
Ġinc on
az ar
Ġvid hw
Ġsar aah
Ġwhe never
Ġgradu al
Ġ180 4
Ġrit uals
ĠRepresent ative
ĠHerzeg ovina
ĠKhrush chev
c end
an ar
Ġd ances
Ġh id
Ġg ita
Ġe y
ĠB le
em ar
ĠL ik
Ġnot orious
Ġtra vers
Ġsw eekrut
Ġbl end
Ġgu ilt
mi um
Ġes p
ĠGo ogle
Ġdik hne
ĠBlack burn
Ġpers istent
Ġanum od
Ġsamsk ritiyon
Ġric ard
ĠAbd ul
ĠSyrac use
Ġk us
ra ged
ĠS leep
Ġth anda
el man
Ġal arm
pat hi
Ġdeterm ining
Ġjam aane
Ġmush rooms
Ġuncom mon
Ġikatt ha
s in
ĠM off
ĠB rom
ĠR ide
ĠR ox
Ġal igned
ĠV irt
Ġlo ans
Ġsu fi
ling a
haay e
rag ue
Ġaccom pan
asha astra
Ġ183 3
Ġvin yl
vest on
Ġcryst all
Ġconsult ant
Ġresid ences
Ġkhas kar
Ġsaarv bhaum
ĠLGB T
k os
Ġc aut
ik hit
Ġle ased
pt s
Ġfl att
Ġsan bh
ĠWorld s
uss els
Ġrefer enced
Ġtro ubles
Ġdisp ersed
Ġthir teenth
ĠMat ilda
Ġdepict ions
pow der
Ġ `
Ġs urn
ĠC ay
Ġra atri
Ġpur at
band h
Ġang els
Ġty ing
ĠSouth west
ograp hies
Ġsurv ives
Ġbhe je
ĠMid way
ĠSix th
Ġment or
ivas iy
ĠLaur en
ĠKr usty
Ġaccur ately
Ġther m
ĠChes apeake
ĠH imm
war z
rick en
Ġcur tain
Ġsen apati
200 3
Ġ182 1
ĠWy oming
ĠEffect s
Ð ²
Ġn ad
ay u
ĠP D
ab on
ĠG ospel
ĠJ ill
ĠO DI
Ġcomp elling
ĠHe ar
ail able
aav ashyak
Ġkal atmak
Ġsamp aadan
Ġkha arij
Ġmer it
ĠPe ak
Ġpath s
ĠFight ing
Ġfus elage
ĠLeip zig
8 1
Ġb ree
ĠM W
ĠB end
oc ence
man ir
Ġsha dy
bha ag
Ġpo etic
Ġvis ibility
Ġadhik rut
Ġdec oration
row ing
Ġham aara
Ġpun t
Ġstat ic
aas pad
Ġrat na
Ġexcept ions
Ġkingdom s
Ġshift s
Ġsut ron
ĠConc ern
Ġah m
Ġmerchand ise
ĠBritt any
b ral
w ant
Ġb hent
Ġsam s
qu it
Ġen vision
Ġpur as
rat aa
Ġtal ented
Ġmu ft
Ġti haai
ĠJour ney
Ġaash charya
Ġt idal
Ġb acks
es co
il taa
Ġh ong
us ive
ĠA by
ĠSt ructure
Ġhel met
Ġexpl oring
ĠEx change
yav aadee
Ġimm un
Ġcommit tees
Ġemotion ally
Ġmaham ari
Ġconting ent
Ġbesie ged
an z
ĠN ep
Ġcomp uting
pur askaar
Ġham mer
ĠChrist ina
ĠTra cks
Ġident ifying
Ġdiscover ing
Ġ34 0
Ġdepos ited
ĠBed e
ĠVern on
ĠSes ame
Ġcurric ulum
Ġ è
Ġ ï
Ġb ite
Ġw olf
ĠT il
Ġli z
Ġsub str
Ġhum orous
hs aas
Ġ179 5
Ġhyp hae
Ġfro zen
ĠChem ical
Ġfru its
Ġabst ract
Ġaprat ya
ĠD ee
ĠW i
Ġhi ra
Ġbal anced
ĠSqu ad
ĠMag gie
isher s
Ġshas hakt
Ġreact ed
Ġnas l
ĠRand olph
Ġcoinc ided
Ġconcur rency
Ġtobac co
g ency
k ill
Ġa uxiliary
un n
ĠL ars
ĠE th
Ġch ant
Ġany athaa
ĠZ imbabwe
ĠMe ad
Ġtre ason
Ġentire ty
Ġlaga ate
Ġceleb rities
Ġmem oirs
ĠOtt omans
ĠShan non
ĠTow ards
Ġinspe ction
Ġvamp ire
Ġp inned
Ġl ent
ch ron
ĠB ates
ĠP od
ĠW atts
ĠG ilm
Ġint ensive
Ġsub mission
Ġdec ent
rad ing
Ġexpl orer
Ġcr ushed
Ġgan itiya
bra e
Ġbattlecru iser
ĠHutch inson
ĠWander ers
ĠSask at
Ġt ides
Ġc haaya
Ġke el
ĠA ston
ĠJ MA
Ġdiffer ed
Ġur isa
Ġcirc ulated
Ġgamb ling
Ġbankrupt cy
Ġpam ph
Ġloos ely
b ility
Ġhe d
ac a
Ġun ified
ill ion
ĠSt yles
ĠAl leg
Ġmad hyakaal
Ġsans h
Ġhalf way
Ġdh v
Ġfood s
Ġq uran
ĠGal veston
ĠNat al
Ġgoalt ender
Ġswac haalit
r ared
s im
ir ling
st age
ĠI ss
ast ed
Ġbha anti
ani ans
Ġ13 4
ĠZ ep
Ġwar rior
Ġrank ings
Ġden ge
Ġintens ification
Ġ180 6
Ġspl its
Ġank le
Ġdismiss al
Ġglac ier
Ġportug ali
Ġwrap ped
Ġamphib ious
ĠGust av
ĠPhant om
ĠShang hai
d uniya
en ne
Ġim am
Ġvis itor
ĠGe ography
Ġprayog on
raj asthan
Ġsn ake
ĠChe ss
Ġconstit uted
Ġaty aa
Ġtu ber
Ġdarsh neey
oz o
Ġjit ani
Ã° r
ĠSchol ars
Ġprolong ed
Ġp icks
ĠH oney
Ġtr ikon
ĠAd vis
Ġsent ences
Ġmarch ing
ien cing
Ġprop ulsion
Ġnib haayaa
Ġsultan ate
Ġerupt ions
Ġkshat riya
ĠTas mania
Ġjwalam ukhi
Ġvyang y
Ġnaid anik
p ets
ĠR ough
Ġinc umbent
Ġgra hon
ĠPro vidence
has hi
Ġsol itary
be ck
Ġjod ta
ux e
Ġcryst als
ĠHip per
F arlane
f o
s hak
Ġc age
ĠM CC
ĠHe ights
act ers
Ġsak ht
Ġbh run
Ġgovern ors
la f
Ġsaf ar
ĠSl ayer
Ġkit na
Ġparivartan on
Ġrebu ild
Ġmahav ir
occ up
Ġtath yon
Ġunbe aten
0 3
N G
b ly
Ġant ah
Ġham pered
ĠEx eter
Ġlab elled
Ġrang amanch
Ġtre mend
Ġris ks
Ġdiscuss es
ĠClar kson
yu u
Ġsati re
c ats
Ġint imid
its u
Ġlong time
ĠWest on
Ġnagar palika
Ġprot ested
ĠBay ern
Ġaks haron
Ġwebs ites
ĠSil ent
ĠTw ilight
Ġmah otsav
Ġrepro duction
Ġcant ata
Ġraa hat
Ġabha yaarany
h uti
Ġs osa
Ġpar achute
ĠU ran
Ġen roll
ool og
ĠBl anc
chi vi
Ġtele graph
ĠGeor g
Ġsun akar
Ġshik aayat
Ġpaha ado
ĠBook er
Ġretreat ing
prad han
ĠMagn us
he ra
al us
ic har
Ġre appe
Ġsh loke
Ġap itu
Ġ15 3
ĠWar rior
umb led
ĠPol icy
Ġadhyayan on
ĠSl ant
ĠRail ways
ĠTre vor
ĠLo oking
achi v
ĠDream s
ĠAnim als
Ġlux ury
ĠPitch fork
in iy
Ġs ush
il ib
Ġma hap
ut u
Ġal ike
ast ically
hed on
Ġco b
ĠDe al
Ġav en
Ġequ ality
Ġpred ator
Ġgran ite
ĠTor ch
Ġwa ited
ĠParliament ary
ĠJul ius
Ġech oed
Ġbelong s
ĠWeb b
ĠSomet hing
Ġobst acles
M L
Ġb art
ĠK ant
Ġ17 80
ĠAugust ine
ĠChar acters
20 13
Ġprogram mes
Ġfun nel
ĠRic an
II I
ĠFin anc
Ġdweep asmooh
Ġec ology
Ġupd ate
Ġhaz ard
Ġweigh ing
archi ve
Ġviet nam
8 8
at ics
es y
am ani
ass hil
ater nal
Ġsub j
ived i
Ġi od
lo aded
ĠGl ory
rim andal
Ġhapp ening
ĠAnn ular
Ġansw ered
Ġrecru its
ĠBomb ay
Ġsif arish
ĠUk raine
Ġahmed abad
b ons
n il
ing o
ĠS uccess
ĠC arson
ĠM oss
ig i
ĠH ert
cl ed
Ġsp anning
Ġraj at
par amp
Ġz ikr
Ġown s
Ġshr ine
ĠDavid son
wan ath
atr ina
Ġmor ality
ĠÏ Ģ
pashchi m
Ġartif acts
he li
Ġb ou
Ġc roc
ro ve
ay i
ĠSt rip
Ġob jections
Ġdeb ates
Ġ27 5
ĠMor eno
Ġsurf aced
ĠLeg al
stone craft
Ġcinem atic
Ġdhaat uon
Ġoutf low
Ġsoph om
Ġreleg ation
Ġinfl ation
ĠWoll stonecraft
k hi
Ġ ird
Ġf alan
Ġn inda
ĠB rett
ik al
Ġat ithi
ĠF ram
Ġar ches
Ġsh oshan
Ġad vers
uk ee
Ġlik ewise
Ġext ras
ĠPres byter
Ġspir al
Ġrob ust
ĠCzech osl
Ġexceed ing
Ġprant iy
z b
in ished
ur ia
Ġst ricken
Ġfor d
Ġdis par
Ġcha atra
ĠUS AF
Ġshrad dh
Ġmerc ury
Ġeleph ant
Ġdownlo ads
ĠVish nu
j aar
Ġp on
Ġp ha
Ġv ain
ah r
Ġsp arsh
Ġbhar p
ĠSal ford
Ġchh ut
Ġlit re
onom ous
ĠMetall ica
Ġprecurs or
Ġsaajhed aari
Ġpatth aron
v ie
ro ught
us ions
ĠA us
ĠP end
Ġun av
Ġad aa
ĠU g
ĠAmeric as
Ġsy ria
Ġpa ired
Ġconst ellation
Ġfar mer
Ġrepl ica
ksh u
Ġ29 0
ĠEm press
ĠMer cy
Ġens ued
Ġgrant ing
Ġmarg inal
ĠCa uc
Ġattract ing
Ġrepro ductive
mah ila
astro us
idel ines
ĠStre ets
H z
[...]
