{"<s>":0,"<pad>":1,"</s>":2,"<unk>":3,"<mask>":4,"!":5,"\"":6,"#":7,"$":8,"%":9,"&":10,"'":11,"(":12,")":13,"*":14,"+":15,",":16,"-":17,".":18,"/":19,"0":20,"1":21,"2":22,"3":23,"4":24,"5":25,"6":26,"7":27,"8":28,"9":29,":":30,";":31,"<":32,"=":33,">":34,"?":35,"@":36,"A":37,"B":38,"C":39,"D":40,"E":41,"F":42,"G":43,"H":44,"I":45,"J":46,"K":47,"L":48,"M":49,"N":50,"O":51,"P":52,"Q":53,"R":54,"S":55,"T":56,"U":57,"V":58,"W":59,"X":60,"Y":61,"Z":62,"[":63,"\\":64,"]":65,"^":66,"_":67,"`":68,"a":69,"b":70,"c":71,"d":72,"e":73,"f":74,"g":75,"h":76,"i":77,"j":78,"k":79,"l":80,"m":81,"n":82,"o":83,"p":84,"q":85,"r":86,"s":87,"t":88,"u":89,"v":90,"w":91,"x":92,"y":93,"z":94,"{":95,"|":96,"}":97,"~":98,"¡":99,"¢":100,"£":101,"¤":102,"¥":103,"¦":104,"§":105,"¨":106,"©":107,"ª":108,"«":109,"¬":110,"®":111,"¯":112,"°":113,"±":114,"²":115,"³":116,"´":117,"µ":118,"¶":119,"·":120,"¸":121,"¹":122,"º":123,"»":124,"¼":125,"½":126,"¾":127,"¿":128,"À":129,"Á":130,"Â":131,"Ã":132,"Ä":133,"Å":134,"Æ":135,"Ç":136,"È":137,"É":138,"Ê":139,"Ë":140,"Ì":141,"Í":142,"Î":143,"Ï":144,"Ð":145,"Ñ":146,"Ò":147,"Ó":148,"Ô":149,"Õ":150,"Ö":151,"×":152,"Ø":153,"Ù":154,"Ú":155,"Û":156,"Ü":157,"Ý":158,"Þ":159,"ß":160,"à":161,"á":162,"â":163,"ã":164,"ä":165,"å":166,"æ":167,"ç":168,"è":169,"é":170,"ê":171,"ë":172,"ì":173,"í":174,"î":175,"ï":176,"ð":177,"ñ":178,"ò":179,"ó":180,"ô":181,"õ":182,"ö":183,"÷":184,"ø":185,"ù":186,"ú":187,"û":188,"ü":189,"ý":190,"þ":191,"ÿ":192,"Ā":193,"ā":194,"Ă":195,"ă":196,"Ą":197,"ą":198,"Ć":199,"ć":200,"Ĉ":201,"ĉ":202,"Ċ":203,"ċ":204,"Č":205,"č":206,"Ď":207,"ď":208,"Đ":209,"đ":210,"Ē":211,"ē":212,"Ĕ":213,"ĕ":214,"Ė":215,"ė":216,"Ę":217,"ę":218,"Ě":219,"ě":220,"Ĝ":221,"ĝ":222,"Ğ":223,"ğ":224,"Ġ":225,"ġ":226,"Ģ":227,"ģ":228,"Ĥ":229,"ĥ":230,"Ħ":231,"ħ":232,"Ĩ":233,"ĩ":234,"Ī":235,"ī":236,"Ĭ":237,"ĭ":238,"Į":239,"į":240,"İ":241,"ı":242,"Ĳ":243,"ĳ":244,"Ĵ":245,"ĵ":246,"Ķ":247,"ķ":248,"ĸ":249,"Ĺ":250,"ĺ":251,"Ļ":252,"ļ":253,"Ľ":254,"ľ":255,"Ŀ":256,"ŀ":257,"Ł":258,"ł":259,"Ń":260,"Ġt":261,"he":262,"an":263,"in":264,"ar":265,"Ġs":266,"on":267,"at":268,"Ġthe":269,"er":270,"Ġ,":271,"Ġa":272,"Ġk":273,"Ġ.":274,"or":275,"ed":276,"Ġp":277,"Ġb":278,"en":279,"is":280,"Ġm":281,"Ġw":282,"it":283,"es":284,"al":285,"Ġc":286,"Ġo":287,"ha":288,"and":289,"Ġf":290,"as":291,"Ġd":292,"re":293,"Ġin":294,"Ġof":295,"ing":296,"Ġand":297,"aa":298,"ic":299,"Ġto":300,"ra":301,"ro":302,"Ġl":303,"il":304,"Ġn":305,"Ġh":306,"am":307,"ion":308,"Ġma":309,"ou":310,"Ġhe":311,"ĠĊ":312,"Ġ\"":313,"ya":314,"ĠT":315,"Ġg":316,"Ġe":317,"Ġke":318,"Ġ1":319,"le":320,"Ġ=":321,"Ġv":322,"ur":323,"ĠS":324,"ent":325,"us":326,"Ġth":327,"ĠA":328,"Ġj":329,"un":330,"el":331,"om":332,"hi":333,"et":334,"Ġre":335,"ĠC":336,"ad":337,"Ġmain":338,"id":339,"Ġ@":340,"ut":341,"ir":342,"Ġha":343,"ot":344,"ch":345,"ct":346,"Ġki":347,"Ġse":348,"ol":349,"ĠM":350,"Ġwas":351,"Ġ'":352,"im":353,"st":354,"iv":355,"ay":356,"ĠB":357,"Ġon":358,"Ġor":359,"ly":360,"ĠThe":361,"Ġst":362,"ak":363,"ig":364,"Ġ2":365,"Ġr":366,"Ġ)":367,"Ġfor":368,"Ġ(":369,"ĠI":370,"ce":371,"-@":372,"Ġ@-@":373,"Ġbe":374,"Ġan":375,"Ġas":376,"Ġis":377,"ĠH":378,"ow":379,"ith":380,"ter":381,"ag":382,"ĠP":383,"ul":384,"ation":385,"th":386,"Ġkii":387,"Ġwith":388,"up":389,"ers":390,"ik":391,"ĠR":392,"har":393,"Ġthat":394,"em":395,"ĠD":396,"Ġal":397,"ab":398,"Ġpar":399,"Ġ19":400,"os":401,"um":402,"ĠW":403,"aar":404,"Ġat":405,"ri":406,"00":407,"Ġwh":408,"ĠF":409,"Ġby":410,"ver":411,"est":412,"ĠL":413,"ud":414,"Ġkaa":415,"Ġcon":416,"Ġar":417,"ĠG":418,"od":419,"ant":420,"ĠN":421,"Ġde":422,"Ġit":423,"ac":424,"her":425,"Ġra":426,"Ġne":427,"ist":428,"rom":429,"ye":430,"av":431,"Ġun":432,"ĠJ":433,"han":434,"Ġko":435,"ate":436,"ĠE":437,"ht":438,"ap":439,"ess":440,"op":441,"ain":442,"ah":443,"Ġkar":444,"Ġpr":445,"Ġhis":446,"Ġcom":447,"Ġpra":448,"Ġfrom":449,"ĠO":450,"oun":451,"ill":452,"ĠIn":453,"Ġpro":454,"Ġsam":455,"if":456,"og":457,"Ġek":458,"aat":459,"ld":460,"ast":461,"ish":462,"ard":463,"pe":464,"ere":465,"ber":466,"ies":467,"Ġ-":468,"ort":469,"oc":470,"ve":471,"end":472,"ich":473,"all":474,"Ġsh":475,"Ġhai":476,"aan":477,"ee":478,"Ġwere":479,"Ġâ":480,"ug":481,"rit":482,"qu":483,"ong":484,"Ġex":485,"se":486,"Ġap":487,"Ġle":488,"Ġch":489,"ne":490,"ĠâĢ":491,"ub":492,"Ġy":493,"ks":494,"ars":495,"Ġad":496,"ĠK":497,"Ġpl":498,"ity":499,"ke":500,"ore":501,"ive":502,"ated":503,"ia":504,"ans":505,"ane":506,"ge":507,"ĠU":508,"Ġus":509,"te":510,"Ġhad":511,"pt":512,"Ġ:":513,"Ġli":514,"our":515,"ment":516,"Ġ3":517,"haa":518,"ame":519,"Ġwhich":520,"ie":521,"ust":522,"ine":523,"uc":524,"Ġ20":525,"Ġare":526,"ial":527,"Ġ200":528,"ell":529,"ost":530,"Ġnot":531,"ord":532,"art":533,"Ġup":534,"Ġro":535,"one":536,"ction":537,"ary":538,"hen":539,"Ġab":540,"ian":541,"ĠSt":542,"ight":543,"ue":544,"ang":545,"cl":546,"ther":547,"ov":548,"ical":549,"aad":550,"aal":551,"man":552,"Ġte":553,"Ġliye":554,"Ġdi":555,"Ġga":556,"pl":557,"ok":558,"ile":559,"Ġ;":560,"uk":561,"Ġkiya":562,"ure":563,"ti":564,"ide":565,"Ġcomp":566,"ĠV":567,"mer":568,"ff":569,"fter":570,"ould":571,"ack":572,"Ġbut":573,"Ġfir":574,"so":575,"uch":576,"der":577,"ari":578,"ous":579,"Ġcl":580,"Ġ5":581,"Ġ4":582,"Ġbhi":583,"yon":584,"ind":585,"Ġ201":586,"Ġcont":587,"ry":588,"Ġint":589,"age":590,"ass":591,"wo":592,"ati":593,"hik":594,"ĠâĢĵ":595,"Ġsha":596,"ath":597,"Ġman":598,"ign":599,"Ġtha":600,"yah":601,"Ġac":602,"Ġfirst":603,"hed":604,"Ġher":605,"ition":606,"ree":607,"hit":608,"Ġres":609,"Ġ18":610,"ank":611,"Ġits":612,"Ġag":613,"Ġtheir":614,"ound":615,"ome":616,"ater":617,"per":618,"ib":619,"ata":620,"Ġalso":621,"ĠHe":622,"out":623,"port":624,"Ġsa":625,"ase":626,"Ġdes":627,"pr":628,"Ġsc":629,"ond":630,"ric":631,"ip":632,"ach":633,"ime":634,"ana":635,"Ġper":636,"ilm":637,"hip":638,"Ġwor":639,"urn":640,"Ġjo":641,"low":642,"Ġev":643,"Ġdis":644,"ai":645,"ence":646,"are":647,"Ġen":648,"Ġhot":649,"Ġhave":650,"Ġwho":651,"Ġone":652,"Ġye":653,"Ġrec":654,"own":655,"ark":656,"de":657,"Ġjaat":658,"ally":659,"Ġpart":660,"ham":661,"Ġgaya":662,"Ġhas":663,"hya":664,"ice":665,"iz":666,"act":667,".@":668,"Ġ@.@":669,"Ġtwo":670,"land":671,"oug":672,"Ġtak":673,"ru":674,"Ġtra":675,"Ġpe":676,"Ġbec":677,"uring":678,"ew":679,"clud":680,"Ġbeen":681,"ĠAl":682,"hy":683,"ory":684,"orm":685,"ult":686,"ise":687,"ely":688,"Ġthis":689,"Ġfilm":690,"aam":691,"Ġser":692,",@":693,"Ġ@,@":694,"ĠTh":695,"ĠIt":696,"und":697,"Ġ6":698,"ations":699,"ram":700,"sh":701,"Ġsp":702,"int":703,"Ġoff":704,"Ġout":705,"Ġja":706,"Ġim":707,"haar":708,"Ġafter":709,"Ġbhar":710,"Ġover":711,"Ġgo":712,"ect":713,"ens":714,"ĠAn":715,"Ġshe":716,"Ġinclud":717,"Ġplay":718,"ance":719,"ount":720,"Ġ7":721,"ash":722,"att":723,"Ġthey":724,"Ġother":725,"Ġatt":726,"Ġpur":727,"che":728,"Ġrup":729,"Ġbha":730,"Ġpre":731,"Ġchar":732,"arg":733,"ĠUn":734,"ions":735,"ĠY":736,"way":737,"ugh":738,"igh":739,"esh":740,"ron":741,"wn":742,"ĠRe":743,"Ġraj":744,"Ġwould":745,"Ġhim":746,"we":747,"ward":748,"Ġme":749,"ft":750,"Ġtime":751,"vel":752,"ace":753,"Ġ/":754,"ĠSe":755,"Ġinto":756,"Ġdo":757,"haan":758,"Ġjaataa":759,"Ġut":760,"ates":761,"ki":762,"ĠCh":763,"Ġinter":764,"ited":765,"Ġ8":766,"adi":767,"ces":768,"ite":769,"Ġho":770,"aj":771,"hak":772,"ani":773,"les":774,"Ġcomm":775,"Ġdw":776,"ose":777,"Ġhi":778,"Ġ9":779,"Ġall":780,"Ġ199":781,"Ġco":782,"Ġsaat":783,"ors":784,"able":785,"Ġbet":786,"gan":787,"ason":788,"Ġnew":789,"dh":790,"Ġspe":791,"ased":792,"Ġfe":793,"ember":794,"ents":795,"Ġmore":796,"old":797,"na":798,"vi":799,"ough":800,"ings":801,"Ġsak":802,"meric":803,"Ġkarne":804,"inal":805,"du":806,"Ġso":807,"Ġyah":808,"ail":809,"Ġsec":810,"ved":811,"cess":812,"ĠDe":813,"Ġsaath":814,"ahin":815,"fer":816,"iss":817,"aus":818,"ict":819,"ren":820,"oy":821,"Ġcent":822,"Ġtat":823,"kar":824,"Ġhu":825,"Ġwhen":826,"aw":827,"ick":828,"Ġcol":829,"ild":830,"ph":831,"Ġsab":832,"ob":833,"ire":834,"ck":835,"Ġgro":836,"amb":837,"rib":838,"arly":839,"Ġmil":840,"ĠAr":841,"aara":842,"here":843,"Ġcha":844,"Ġrem":845,"amp":846,"reat":847,"Ġkaar":848,"ubl":849,"Ġam":850,"Ġnahin":851,"Ġcan":852,"Ġsup":853,"ons":854,"ral":855,"Ġgame":856,"Ġtr":857,"ĠOn":858,"aay":859,"cted":860,"Ġduring":861,"bha":862,"000":863,"Ġwe":864,"rough":865,"yog":866,"Ġyaa":867,"Ġant":868,"ix":869,"hat":870,"Ġagain":871,"ran":872,"Ġmost":873,"Ġonly":874,"ood":875,"kaar":876,"arsh":877,"Ġthem":878,"ss":879,"oth":880,"ational":881,"Ġop":882,"ollow":883,"Ġdwaara":884,"Ġcons":885,"ween":886,"Ġwork":887,"amil":888,"oh":889,"Ġthan":890,"Ġpo":891,"Ġqu":892,"orth":893,"ton":894,"Ġ10":895,"ĠEn":896,"any":897,"ale":898,"tern":899,"Ġrele":900,"Ġban":901,"Ġjan":902,"Ġabout":903,"kh":904,"ĠNew":905,"ered":906,"ted":907,"als":908,"Ġbo":909,"tra":910,"outh":911,"Ġfl":912,"Ġsong":913,"orn":914,"fore":915,"Ġunder":916,"ode":917,"Ġbetween":918,"Ġjis":919,"Ġlater":920,"Ġnum":921,"ced":922,"Ġmus":923,"Ġnir":924,"Ġ0":925,"Ġsw":926,"Ġvis":927,"ool":928,"Ġthree":929,"ied":930,"red":931,"inn":932,"Ġrel":933,"Ġbharat":934,"di":935,"Ġret":936,"ura":937,"iew":938,"Ġlik":939,"arch":940,"Ġteam":941,"Ġsub":942,"Ġpos":943,"Ġass":944,"arn":945,"Ġthrough":946,"Ġkn":947,"Ġend":948,"ins":949,"Ġbaad":950,"Ġtathaa":951,"Ġbad":952,"Ġsing":953,"Ġwhile":954,"ating":955,"ener":956,"Ġrecord":957,"Ġele":958,"Ġsur":959,"Ġreg":960,"ĠAmeric":961,"Ġseason":962,"bum":963,"Ġstr":964,"Ġmat":965,"Ġ17":966,"ali":967,"Ġday":968,"rop":969,"Ġ]":970,"Ġform":971,"Ġsecond":972,"Ġbu":973,"asht":974,"Ġsy":975,"form":976,"Ġwhere":977,"Ġbl":978,"ames":979,"ta":980,"Ġsome":981,"ock":982,"aav":983,"hil":984,"ever":985,"Ġep":986,"ived":987,"ĠCom":988,"ts":989,"ics":990,"Ġpa":991,"taa":992,"ĠLe":993,"Ġvaal":994,"Ġact":995,"Ġ15":996,"Ġlag":997,"Ġmade":998,"isi":999,"hone":1000,"Ġdef":1001,"Ġva":1002,"Ġsuch":1003,"Ġks":1004,"ni":1005,"Ġfollow":1006,"yaan":1007,"Ġadhik":1008,"Ġ198":1009,"ene":1010,"ision":1011,"Ġfour":1012,"Ġprad":1013,"Ġ12":1014,"Ġpol":1015,"Ġ000":1016,"Ġpat":1017,"ished":1018,"cc":1019,"Ġbro":1020,"Ġvya":1021,"aaj":1022,"Ġbh":1023,"Ġsan":1024,"Ġalbum":1025,"Ġgay":1026,"Ġbefore":1027,"Ġav":1028,"its":1029,"Ġda":1030,"Ġapane":1031,"Ġthere":1032,"Ġspec":1033,"Ġwrit":1034,"Ġdiya":1035,"ork":1036,"oot":1037,"Ġthi":1038,"ual":1039,"Ġyear":1040,"Ġhota":1041,"li":1042,"Ġuse":1043,"ident":1044,"Ġcap":1045,"Ġyears":1046,"ĠAt":1047,"ĠThis":1048,"Ġused":1049,"dition":1050,"Ġdr":1051,"ery":1052,"Ġapp":1053,"Ġpad":1054,"Ġind":1055,"Ġinc":1056,"ific":1057,"Ġent":1058,"ury":1059,"az":1060,"owever":1061,"Ġhigh":1062,"iy":1063,"Ġcall":1064,"Ġpubl":1065,"ped":1066,"pos":1067,"Ġmet":1068,"Ġset":1069,"Ġ[":1070,"Ġ16":1071,"Ġ194":1072,"Ġair":1073,"ober":1074,"ĠAs":1075,"Ġepis":1076,"tain":1077,"cha":1078,"Ġloc":1079,"Ġbeing":1080,"Ġacc":1081,"ife":1082,"Ġnumber":1083,"Ġ197":1084,"Ġthen":1085,"Ġem":1086,"Ġmin":1087,"Ġdec":1088,"Ġinv":1089,"Ġappe":1090,"Ġpres":1091,"velop":1092,"ley":1093,"ten":1094,"ka":1095,"ll":1096,"Ġnaam":1097,"kaa":1098,"erm":1099,"Ġvish":1100,"Ġmon":1101,"eld":1102,"ute":1103,"riya":1104,"Ġagainst":1105,"ather":1106,"ina":1107,"Ġno":1108,"Ġ11":1109,"Ġdet":1110,"duc":1111,"Ġka":1112,"Ġshow":1113,"vern":1114,"itt":1115,"Ġ196":1116,"other":1117,"Ġve":1118,"ĠâĢĶ":1119,"Ġcharact":1120,"ird":1121,"res":1122,"ince":1123,"ĠAfter":1124,"Ġsever":1125,"ĠBe":1126,"Ġvid":1127,"maan":1128,"une":1129,"band":1130,"ven":1131,"Ġkshe":1132,"Ġsthit":1133,"Ġcar":1134,"Ġlead":1135,"ause":1136,"Ġmill":1137,"Ġrece":1138,"iti":1139,"Ġbecame":1140,"ĠBrit":1141,"ines":1142,"ave":1143,"Ġincluding":1144,"Ġprat":1145,"ann":1146,"ular":1147,"Ġmov":1148,"Ġseries":1149,"Ġwell":1150,"ĠUnited":1151,"olog":1152,"ris":1153,"ject":1154,"Ġback":1155,"wa":1156,"ower":1157,"Ġsuc":1158,"Ġpeh":1159,"Ġboth":1160,"Ġmany":1161,"ters":1162,"aaya":1163,"oj":1164,"ress":1165,"Ġrajya":1166,"Ġhua":1167,"ĠCon":1168,"ps":1169,"atur":1170,"ĠSc":1171,"ivers":1172,"Ġfound":1173,"par":1174,"Ġsm":1175,"Ġship":1176,"ĠShe":1177,"Ġ%":1178,"ised":1179,"Ġgu":1180,"amen":1181,"Ġaad":1182,"Ġ13":1183,"Ġvarsh":1184,"Ġdid":1185,"ined":1186,"ika":1187,"ern":1188,"ouse":1189,"Ġstud":1190,"tar":1191,"Ġband":1192,"elf":1193,"ities":1194,"ĠEng":1195,"Ġlong":1196,"Ġdevelop":1197,"iver":1198,"rid":1199,"Ġlo":1200,"ohn":1201,"Ġsaid":1202,"ism":1203,"Ġna":1204,"led":1205,"Ġrev":1206,"ful":1207,"Ġinst":1208,"ative":1209,"Ġcre":1210,"uro":1211,"Ġtar":1212,"ĠJohn":1213,"Ġdesc":1214,"ement":1215,"Ġdire":1216,"Ġpop":1217,"Ġepisode":1218,"Ġmay":1219,"ained":1220,"mi":1221,"erman":1222,"emb":1223,"Ġmod":1224,"Ġdif":1225,"Ġorig":1226,"Ġ14":1227,"Ġcould":1228,"aran":1229,"til":1230,"Ġcontin":1231,"ĠCl":1232,"Ġsim":1233,"Ġany":1234,"rap":1235,"Ġchan":1236,"Ġseveral":1237,"Ġtrans":1238,"ple":1239,"Ġpras":1240,"ĠAmerican":1241,"Ġkh":1242,"Ġart":1243,"Ġob":1244,"aki":1245,"though":1246,"Ġbel":1247,"cept":1248,"Ġlog":1249,"erson":1250,"eng":1251,"Ġknown":1252,"ty":1253,"my":1254,"Ġ195":1255,"ued":1256,"Ġmillion":1257,"stem":1258,"ield":1259,"ĠZ":1260,"ĠAust":1261,"Ġreturn":1262,"ross":1263,"Ġinf":1264,"bh":1265,"Ġcomple":1266,"Ġdesign":1267,"Ġest":1268,"Ġsign":1269,"son":1270,"sha":1271,"Ġsang":1272,"Ġbegan":1273,"Ġvah":1274,"ople":1275,"chool":1276,"Ġprov":1277,"Ġgener":1278,"Ġz":1279,"Ġkuch":1280,"ade":1281,"ala":1282,"Ġsu":1283,"ĠBl":1284,"alay":1285,"ull":1286,"hir":1287,"Ġdist":1288,"va":1289,"aanv":1290,"Ġkarte":1291,"ek":1292,"ided":1293,"Ġrun":1294,"imes":1295,"Ġ$":1296,"ĠFor":1297,"cy":1298,"Ġland":1299,"hel":1300,"Ġmusic":1301,"ĠUS":1302,"Ġeff":1303,"xt":1304,"Ġearly":1305,"Ġhue":1306,"iet":1307,"Ġown":1308,"Ġkam":1309,"ists":1310,"ĠCol":1311,"Ġreleased":1312,"Ġdown":1313,"Ġpass":1314,"Ġcalled":1315,"Ġbah":1316,"Ġuntil":1317,"Ġnam":1318,"ĠWor":1319,"ush":1320,"ution":1321,"ments":1322,"Ġkshetra":1323,"Ġfin":1324,"Ġevam":1325,"yan":1326,"uly":1327,"uru":1328,"for":1329,"Ġmand":1330,"Ġdisc":1331,"Ġgroup":1332,"Ġ193":1333,"ually":1334,"Ġsamay":1335,"Ġcount":1336,"Ġmuk":1337,"Ġpurv":1338,"ially":1339,"ving":1340,"kin":1341,"Ġgovern":1342,"Ġcrit":1343,"hie":1344,"Ġgra":1345,"Ġed":1346,"ĠWar":1347,"ĠSp":1348,"ized":1349,"Ġmar":1350,"aksh":1351,"vent":1352,"Ġmad":1353,"ma":1354,"hes":1355,"hap":1356,"Ġwar":1357,"illi":1358,"Ġmaj":1359,"ired":1360,"ctor":1361,"Ġalong":1362,"Ġya":1363,"Ġopen":1364,"ets":1365,"eb":1366,"Ġoffic":1367,"press":1368,"ĠBritish":1369,"iyon":1370,"Ġthese":1371,"Ġext":1372,"ared":1373,"naa":1374,"la":1375,"Ġshar":1376,"Ġprodu":1377,"ĠMay":1378,"Ġpoint":1379,"Ġins":1380,"Ġhist":1381,"Ġud":1382,"Ġgaanv":1383,"ged":1384,"haas":1385,"Ã©":1386,"Ġ191":1387,"ĠAd":1388,"ended":1389,"ble":1390,"ently":1391,"ep":1392,"omet":1393,"ĠInd":1394,"els":1395,"Ġclass":1396,"ĠAug":1397,"Ġoper":1398,"enn":1399,"king":1400,"Ġhoti":1401,"erv":1402,"Ġsystem":1403,"Ġmed":1404,"wards":1405,"ĠSept":1406,"Ġgun":1407,"Ġsuccess":1408,"ible":1409,"rut":1410,"Ġsame":1411,"ĠSeptember":1412,"eek":1413,"ting":1414,"ĠWorld":1415,"ij":1416,"Ġhone":1417,"Ġkai":1418,"ĠStates":1419,"raft":1420,"ey":1421,"ĠAugust":1422,"Ġbatt":1423,"ues":1424,"Ġpeople":1425,"med":1426,"Ġlike":1427,"io":1428,"Ġproduc":1429,"Ġdescrib":1430,"Ġrahe":1431,"Ġbecause":1432,"por":1433,"Ġ30":1434,"Ġfinal":1435,"Ġcharacter":1436,"ctions":1437,"rist":1438,"ĠQ":1439,"ĠAll":1440,"Ġresult":1441,"Ġshi":1442,"ove":1443,"Ġdhar":1444,"Ġprakaar":1445,"ake":1446,"Ġconst":1447,"Ġstart":1448,"avy":1449,"aapt":1450,"rad":1451,"oon":1452,"Ġ25":1453,"ĠIs":1454,"Ġaround":1455,"Ġanya":1456,"tiya":1457,"Ġreport":1458,"ĠMar":1459,"Ġkm":1460,"ĠTe":1461,"uss":1462,"ĠPl":1463,"Ġjab":1464,"ĠPro":1465,"Ġnorth":1466,"pur":1467,"Ġtook":1468,"Ġfollowing":1469,"Ġocc":1470,"Ġsupport":1471,"Ġsar":1472,"ĠAustral":1473,"ĠOct":1474,"Ġla":1475,"Ġran":1476,"Ġaut":1477,"ĠGerman":1478,"Ġstate":1479,"ovember":1480,"Ġkaaran":1481,"ret":1482,"Ġhead":1483,"Ġsix":1484,"anu":1485,"aced":1486,"ives":1487,"ling":1488,"ants":1489,"ĠHowever":1490,"Ġvaale":1491,"ja":1492,"Ġmaan":1493,"Ġarr":1494,"Ġwill":1495,"Ġeng":1496,"Ġkarata":1497,"Ġann":1498,"ksha":1499,"Ġprom":1500,"Ġreceived":1501,"Ġcity":1502,"ĠMe":1503,"Ġ192":1504,"Ġsaktaa":1505,"Ġnear":1506,"Ġconsid":1507,"ious":1508,"ically":1509,"ĠOctober":1510,"Ġanus":1511,"ility":1512,"chi":1513,"Ġline":1514,"Ġever":1515,"Ġ>":1516,"urope":1517,"agar":1518,"apan":1519,"war":1520,"ital":1521,"Ġeach":1522,"air":1523,"Ġfamil":1524,"hamp":1525,"Ġbuild":1526,"Ġlife":1527,"rat":1528,"Ġfive":1529,"Ġdep":1530,"Ġrak":1531,"ature":1532,"ert":1533,"Ġworld":1534,"iving":1535,"ike":1536,"Ġsmall":1537,"ita":1538,"ini":1539,"Ġcentury":1540,"ĠCan":1541,"Ġjin":1542,"Ġpartic":1543,"Ġarea":1544,"ately":1545,"ĠThey":1546,"Ġcolle":1547,"ored":1548,"Ġsabase":1549,"Ġang":1550,"Ġred":1551,"Ġsad":1552,"Ġpublic":1553,"Ġdu":1554,"had":1555,"arge":1556,"Ġcontro":1557,"bo":1558,"Ġmajor":1559,"Ġhind":1560,"ĠBy":1561,"Ġgaye":1562,"over":1563,"Ġtri":1564,"Ġsank":1565,"ording":1566,"Ġrest":1567,"val":1568,"ĠJune":1569,"ney":1570,"Ġjanm":1571,"pect":1572,"ĠNorth":1573,"Ġmatch":1574,"mp":1575,"lish":1576,"Ġconf":1577,"Ġapni":1578,"ĠKing":1579,"Ġserv":1580,"Ġvari":1581,"Ġport":1582,"ission":1583,"Ġconc":1584,"aur":1585,"Ġref":1586,"Ġvers":1587,"ought":1588,"ĠJuly":1589,"ales":1590,"Ġty":1591,"ax":1592,"ĠComm":1593,"oss":1594,"Ġes":1595,"rick":1596,"hon":1597,"Ġbr":1598,"ĠNovember":1599,"Ġsingle":1600,"Ġjust":1601,"van":1602,"Ġjaati":1603,"ures":1604,"Ġpehle":1605,"Ġshuru":1606,"Ġvik":1607,"ĠHar":1608,"Ġhel":1609,"Ġorder":1610,"Ġsince":1611,"Ġkisi":1612,"Ġtit":1613,"ilt":1614,"ats":1615,"ataa":1616,"ashtriya":1617,"ĠApr":1618,"ideo":1619,"ĠYork":1620,"Ġlast":1621,"Ġdiv":1622,"ĠApril":1623,"Ġhal":1624,"ĠMc":1625,"ĠCar":1626,"ung":1627,"Ġvib":1628,"ional":1629,"Ġturn":1630,"Ġdiffer":1631,"ĠMarch":1632,"Ġleft":1633,"inc":1634,"aim":1635,"mber":1636,"Ġprak":1637,"Ġallow":1638,"hal":1639,"Ġbas":1640,"ugg":1641,"ĠGe":1642,"ively":1643,"Ġfar":1644,"Ġif":1645,"ink":1646,"Ġadd":1647,"ches":1648,"Ġsouth":1649,"Ġuttar":1650,"avid":1651,"Ġprog":1652,"Ġgai":1653,"Ġwon":1654,"ĠBro":1655,"Ġplace":1656,"Ġtop":1657,"Ġbhas":1658,"vious":1659,"Ġleg":1660,"reen":1661,"Ġbre":1662,"Ġkaary":1663,"arth":1664,"Ġkaha":1665,"ĠII":1666,"Ġlarge":1667,"ĠÂ":1668,"urg":1669,"Ġdon":1670,"Ġnow":1671,"Ġunke":1672,"ified":1673,"ier":1674,"Ġimp":1675,"Ġbased":1676,"Ġ21":1677,"rote":1678,"round":1679,"Ġsl":1680,"ott":1681,"ena":1682,"ukh":1683,"Ġattack":1684,"has":1685,"Ġsamv":1686,"ony":1687,"ient":1688,"Ġhui":1689,"ĠDuring":1690,"ont":1691,"Ġschool":1692,"empt":1693,"by":1694,"Ġthird":1695,"Ġname":1696,"Ġ100":1697,"ĠDece":1698,"ĠChar":1699,"me":1700,"ides":1701,"Ġbahut":1702,"row":1703,"Ġ2010":1704,"eey":1705,"Ġcare":1706,"yle":1707,"ague":1708,"Ġcamp":1709,"Ġmuch":1710,"ĠDecember":1711,"Ġmonth":1712,"Ġevent":1713,"Ġincre":1714,"Ġcompany":1715,"Ġshort":1716,"Ġappro":1717,"Ġdue":1718,"ara":1719,"Ġunhone":1720,"Ġjaise":1721,"ĠSte":1722,"iddh":1723,"Ġanother":1724,"Ġwhat":1725,"ĠEd":1726,"Ġplayed":1727,"..":1728,"Ġincluded":1729,"ball":1730,"Ġexpl":1731,"Ġ2009":1732,"Ġ2008":1733,"ĠJanu":1734,"ody":1735,"ĠJanuary":1736,"ĠSouth":1737,"ukt":1738,"Ġperson":1739,"ĠMic":1740,"udd":1741,"aks":1742,"Ġold":1743,"Ġgh":1744,"Ġgovernment":1745,"ada":1746,"Ġpower":1747,"Ġbhartiya":1748,"Ġmul":1749,"ages":1750,"ily":1751,"Ġchal":1752,"Ġdam":1753,"Ġhar":1754,"ament":1755,"uj":1756,"Ġ24":1757,"Ġhome":1758,"Ġbar":1759,"ges":1760,"Ġgr":1761,"Ġbeg":1762,"Ġwrote":1763,"Ġham":1764,"19":1765,"ience":1766,"Ġcour":1767,"ĠWhen":1768,"ĠFr":1769,"Ġdeath":1770,"ĠPr":1771,"Ġbal":1772,"ote":1773,"ured":1774,"ains":1775,"Ġhote":1776,"Ġdem":1777,"ĠOr":1778,"Ġmen":1779,"Ġbhashaa":1780,"Ġstory":1781,"Ġrequ":1782,"ĠJapan":1783,"Ġ...":1784,"Ġlarg":1785,"Ġshaamil":1786,"Ġkill":1787,"Ġprati":1788,"kti":1789,"get":1790,"rench":1791,"Ġbi":1792,"Ġposition":1793,"omin":1794,"Ġreview":1795,"ĠMan":1796,"aap":1797,"Ġresp":1798,"Ġ22":1799,"Ġvideo":1800,"oci":1801,"Ġhand":1802,"sy":1803,"ves":1804,"Ġled":1805,"Ġi":1806,"Ġfeatur":1807,"Ġsans":1808,"Ġfamily":1809,"Ġsaam":1810,"ium":1811,"Ġjile":1812,"oman":1813,"idd":1814,"iven":1815,"Ġright":1816,"ster":1817,"Ġprevious":1818,"Ġdescribed":1819,"ister":1820,"Ġyou":1821,"Ġway":1822,"Ġ2007":1823,"iske":1824,"hile":1825,"ese":1826,"Ġmake":1827,"Ġterm":1828,"bhar":1829,"Ġsk":1830,"Ġrelease":1831,"ĠâĢĻ":1832,"jan":1833,"ys":1834,"Ġnamed":1835,"Ġtw":1836,"forman":1837,"Ġsamband":1838,"Ġbest":1839,"Ġarm":1840,"urther":1841,"Ġel":1842,"Ġcommand":1843,"chan":1844,"Ġ2011":1845,"Ġmag":1846,"ival":1847,"anc":1848,"ox":1849,"Ġeven":1850,"iversity":1851,"embers":1852,"ĠMus":1853,"Ġgames":1854,"Ġtele":1855,"eter":1856,"Ġperform":1857,"vers":1858,"Ġrepl":1859,"ested":1860,"Ġlist":1861,"Ġsah":1862,"iod":1863,"hor":1864,"Ġattempt":1865,"aaon":1866,"ner":1867,"lu":1868,"uck":1869,"ĠGu":1870,"Ġba":1871,"Ġ23":1872,"Ġposs":1873,"Ġfoot":1874,"Ġche":1875,"ached":1876,"chit":1877,"Ġvery":1878,"Ġinclude":1879,"Ġpun":1880,"Ġthose":1881,"Ġeffect":1882,"Ġorgan":1883,"Ġpraapt":1884,"Ġaddition":1885,"Ġbelie":1886,"hane":1887,"ĠHis":1888,"oom":1889,"Ġwater":1890,"Ġunhen":1891,"Ġstill":1892,"Ġchild":1893,"ĠNational":1894,"iya":1895,"Ġiss":1896,"Ġ&":1897,"bs":1898,"ĠFeb":1899,"ĠX":1900,"ĠSh":1901,"Ġanusaar":1902,"ences":1903,"ruary":1904,"ĠFebruary":1905,"ness":1906,"Ġgreat":1907,"Ġnext":1908,"ched":1909,"Ġaadi":1910,"Ġview":1911,"gy":1912,"Ġpradesh":1913,"Ġsit":1914,"Ġnet":1915,"Ġspecies":1916,"ĠChrist":1917,"ĠAnd":1918,"Ġbhaag":1919,"Ġput":1920,"ji":1921,"Ġsamvath":1922,"Ġoriginal":1923,"ler":1924,"ĠPar":1925,"ĠThere":1926,"aster":1927,"riend":1928,"af":1929,"Ġrahaa":1930,"Ġperforman":1931,"Ġdeb":1932,"ridge":1933,"ining":1934,"ense":1935,"Ġmark":1936,"ĠFl":1937,"yak":1938,"rew":1939,"Ġupyog":1940,"Ġcur":1941,"Ġlet":1942,"ĠCo":1943,"Ġjane":1944,"Ġperiod":1945,"Ġtem":1946,"umb":1947,"Ġpost":1948,"Ġaadhaar":1949,"oint":1950,"hod":1951,"illiam":1952,"ĠEurope":1953,"Ġstand":1954,"Ġwithin":1955,"Ġfail":1956,"oung":1957,"Ġexper":1958,"ruct":1959,"ec":1960,"Ġmembers":1961,"Ġdra":1962,"Ġnik":1963,"Ġhon":1964,"Ġhum":1965,"Ġ2012":1966,"Ġbuilt":1967,"Ġheld":1968,"ots":1969,"let":1970,"aag":1971,"Ġrole":1972,"ians":1973,"Ġtarah":1974,"ried":1975,"ĠFrench":1976,"hampions":1977,"Ġlekin":1978,"Ġpah":1979,"Ġlate":1980,"Ġalthough":1981,"Ġformer":1982,"Ġbaar":1983,"uted":1984,"Ġwind":1985,"reet":1986,"Ġdest":1987,"Ġcr":1988,"acks":1989,"Ġbich":1990,"Ġreal":1991,"lo":1992,"ology":1993,"hesh":1994,"Ġdel":1995,"Ġcor":1996,"ior":1997,"Ġsold":1998,"rah":1999,"ulation":2000,"mak":2001,"ĠWest":2002,"Ġcaus":2003,"kha":2004,"Ġstorm":2005,"yn":2006,"ald":2007,"20":2008,"ropical":2009,"Ġdays":2010,"ĠBr":2011,"ĠRo":2012,"self":2013,"ices":2014,"Ġequ":2015,"ĠWilliam":2016,"Ġph":2017,"Ġpash":2018,"Ġliya":2019,"Ġclub":2020,"ards":2021,"Ġcame":2022,"Ġestab":2023,"Ġpresent":2024,"Ġ190":2025,"bd":2026,"eg":2027,"itary":2028,"Ġpolit":2029,"ught":2030,"ript":2031,"Ġbook":2032,"Ġ2006":2033,"aged":2034,"tal":2035,"asth":2036,"ĠAir":2037,"Ġside":2038,"Ġwest":2039,"ford":2040,"Ġniy":2041,"aane":2042,"Ġhowever":2043,"pres":2044,"Ġutp":2045,"ering":2046,"Ġuske":2047,"Ġstyle":2048,"omb":2049,"uddh":2050,"ĠAm":2051,"Ġsay":2052,"ison":2053,"Ġtown":2054,"Ġsabhi":2055,"Ġfew":2056,"Ġhouse":2057,"Ġdev":2058,"Ġdharm":2059,"ator":2060,"Ġroad":2061,"ĠGeor":2062,"Ġgayi":2063,"akar":2064,"Ġlocal":2065,"ila":2066,"urch":2067,"Ġantar":2068,"haal":2069,"Ġ50":2070,"Ġkarnaa":2071,"ilar":2072,"Ġkal":2073,"Ġdin":2074,"Ġoften":2075,"Ġcover":2076,"Ġkiye":2077,"Ġeast":2078,"Ġmy":2079,"Ġcontinued":2080,"osh":2081,"estern":2082,"mit":2083,"Ġkoi":2084,"argat":2085,"Ġ<":2086,"ivid":2087,"omen":2088,"ruction":2089,"ĠHer":2090,"Ġamong":2091,"ivan":2092,"ĠDes":2093,"Ġkaam":2094,"Ġadv":2095,"bhag":2096,"Ġpram":2097,"craft":2098,"read":2099,"Ġexp":2100,"Ġsthap":2101,"inning":2102,"Ġwin":2103,"Ġdifferent":2104,"Ġclaim":2105,"posed":2106,"pite":2107,"ones":2108,"Ġ27":2109,"Ġameric":2110,"con":2111,"hay":2112,"ĠEngland":2113,"ĠNo":2114,"Ġsoc":2115,"Ġbat":2116,"Ġprof":2117,"Ġ28":2118,"Ġantargat":2119,"Ġlevel":2120,"side":2121,"Ġcommun":2122,"ead":2123,"Ġjisamen":2124,"Ġfurther":2125,"eet":2126,"ests":2127,"Ġsamp":2128,"ĠTr":2129,"Ġappear":2130,"Ġsark":2131,"Ġproduction":2132,"Ġsent":2133,"ray":2134,"Ġprayog":2135,"Ġ|":2136,"oll":2137,"Ġlaw":2138,"ops":2139,"Ġtake":2140,"ĠBo":2141,"Ġsound":2142,"ington":2143,"ĠOne":2144,"Ġconsidered":2145,"Ġ2013":2146,"Ġvi":2147,"vision":2148,"aai":2149,"Ġ26":2150,"Ġweek":2151,"ĠEnglish":2152,"Ġcareer":2153,"Ġhalf":2154,"ittle":2155,"Ġpariv":2156,"ansh":2157,"kt":2158,"fric":2159,"line":2160,"Ġrefer":2161,"abhi":2162,"Ġ!":2163,"ĠCity":2164,"Ġstar":2165,"roy":2166,"Ġhaving":2167,"Ġgl":2168,"Ġsaf":2169,"Ġdaksh":2170,"Ġprabha":2171,"Ġ40":2172,"Ġelect":2173,"Ġhy":2174,"aah":2175,"Ġplayer":2176,"Ġcast":2177,"ĠEl":2178,"Ġwithout":2179,"Ġmahat":2180,"Ġhistory":2181,"ĠAcc":2182,"ĠBar":2183,"lab":2184,"ĠCent":2185,"Ġprogram":2186,"Ġevery":2187,"Ġjaan":2188,"Ġfun":2189,"elt":2190,"hyalay":2191,"Ġmoved":2192,"ĠAng":2193,"Ġaay":2194,"min":2195,"Ġprote":2196,"Ġstat":2197,"Ġteen":2198,"ondon":2199,"Ġversion":2200,"ĠAlthough":2201,"Ġinflu":2202,"Ġbecome":2203,"ize":2204,"ably":2205,"raj":2206,"ĠCount":2207,"iment":2208,"arshan":2209,"Ġsol":2210,"ural":2211,"Ġparty":2212,"Ġsimilar":2213,"ĠLondon":2214,"Ġshahar":2215,"Ġintern":2216,"Ġarth":2217,"Ġlogon":2218,"cheen":2219,"Ġpramukh":2220,"Ġstrong":2221,"Ġvishwa":2222,"ula":2223,"ping":2224,"Ġsugg":2225,"com":2226,"Ġvict":2227,"utes":2228,"ĠBatt":2229,"Ġinvol":2230,"Ġur":2231,"hampionship":2232,"isa":2233,"Ġlim":2234,"ĠGr":2235,"Ġwritten":2236,"ille":2237,"play":2238,"Ġjate":2239,"co":2240,"Ġpress":2241,"Ġamerica":2242,"Ġless":2243,"alk":2244,"Ġdaura":2245,"ration":2246,"Ġannoun":2247,"que":2248,"ĠPark":2249,"Ġrail":2250,"ĠWith":2251,"Ġrep":2252,"Ġthough":2253,"ĠRiver":2254,"atra":2255,"ope":2256,"Ġtrack":2257,"ms":2258,"Ġ189":2259,"ories":2260,"Ġgiven":2261,"Ġiske":2262,"Ġsakate":2263,"Ġwant":2264,"ĠEx":2265,"Ġclos":2266,"oor":2267,"present":2268,"Ġ2014":2269,"Ġtro":2270,"ksh":2271,"Ġaff":2272,"hav":2273,"Ġaap":2274,"Ġhig":2275,"Ġlow":2276,"Ġcontrol":2277,"ograp":2278,"sequ":2279,"Ġgood":2280,"hin":2281,"ĠUniversity":2282,"Ġshabd":2283,"ĠPol":2284,"ĠGener":2285,"riy":2286,"Ġcountry":2287,"Ġter":2288,"Ġdar":2289,"ĠCal":2290,"Ġdefe":2291,"Ġimport":2292,"Ġfire":2293,"Ġgave":2294,"Ġfre":2295,"ĠHigh":2296,"Ġjud":2297,"Ġnever":2298,"Ġ2005":2299,"ront":2300,"nel":2301,"Ġtotal":2302,"Ġson":2303,"ĠWhile":2304,"ĠWe":2305,"eeks":2306,"Ġreturned":2307,"ĠNe":2308,"Ġrah":2309,"ambar":2310,"Ġhindi":2311,"aining":2312,"Ġsat":2313,"Ġtimes":2314,"ency":2315,"ention":2316,"Ġcomb":2317,"ened":2318,"aae":2319,"Ġore":2320,"irc":2321,"Ġfriend":2322,"Ġaav":2323,"Ġshould":2324,"ours":2325,"Ġfind":2326,"Ġkha":2327,"Ġinit":2328,"Ġwent":2329,"Ġsthaan":2330,"iter":2331,"sk":2332,"Ġpublished":2333,"ument":2334,"Ġsand":2335,"Ġunki":2336,"be":2337,"Ġaud":2338,"eth":2339,"au":2340,"Ġneed":2341,"Ġcommon":2342,"Ġproduced":2343,"hyak":2344,"hind":2345,"Ġnirmaan":2346,"ĠDiv":2347,"Ġorigin":2348,"osp":2349,"Ġlost":2350,"Ġreported":2351,"Ġusing":2352,"Ġmukhya":2353,"to":2354,"ising":2355,"Ġ29":2356,"Ġyoung":2357,"Ġtour":2358,"Ġfact":2359,"Ġvishesh":2360,"Ġbuilding":2361,"Ġstated":2362,"aign":2363,"Ġlight":2364,"Ġvyav":2365,"Ġmandir":2366,"ract":2367,"Ġdecl":2368,"Ġmahatv":2369,"Ġpracheen":2370,"Ġproject":2371,"ĠSm":2372,"Ġcy":2373,"ords":2374,"urric":2375,"Ġcompet":2376,"ĠAccording":2377,"pec":2378,"ĠTra":2379,"Ġten":2380,"Ġcompos":2381,"Ġrecorded":2382,"aab":2383,"Ġvaali":2384,"Ġget":2385,"reg":2386,"Ġpan":2387,"work":2388,"Ġread":2389,"Ġforces":2390,"Ġnort":2391,"dom":2392,"Ġsum":2393,"aadi":2394,"used":2395,"eder":2396,"ries":2397,"karan":2398,"Ġsqu":2399,"hani":2400,"Ġshr":2401,"Ġships":2402,"Ġcross":2403,"Ġide":2404,"ii":2405,"Ġeight":2406,"Ġmot":2407,"iness":2408,"Ġadhya":2409,"Ġservice":2410,"Ġise":2411,"Ġperformance":2412,"ĠGo":2413,"Ġchun":2414,"Ġval":2415,"Ġmilitary":2416,"ĠThese":2417,"Ġcapt":2418,"Ġaircraft":2419,"Ġfather":2420,"haay":2421,"Ġmaking":2422,"Ġanim":2423,"ĠSy":2424,"Ġauthor":2425,"ricket":2426,"oyal":2427,"ream":2428,"Ġste":2429,"ĠSw":2430,"Ġbus":2431,"ĠAss":2432,"Ġhow":2433,"xim":2434,"ĠCor":2435,"Ġhimself":2436,"Ġplan":2437,"Ġbattle":2438,"Ġdauraan":2439,"Ġer":2440,"ĠAustralia":2441,"bit":2442,"ublic":2443,"Ġtitle":2444,"Ġsomet":2445,"aff":2446,"aul":2447,"ĠSec":2448,"itive":2449,"Ġground":2450,"eep":2451,"Ġsee":2452,"Ġsongs":2453,"Ġkaal":2454,"outher":2455,"apt":2456,"Ġdonon":2457,"ensive":2458,"Ġdevelopment":2459,"ĠPres":2460,"isht":2461,"jab":2462,"ĠGeneral":2463,"alth":2464,"Ġcritic":2465,"Ġwat":2466,"ĠMin":2467,"Ġdesh":2468,"ither":2469,"pp":2470,"rish":2471,"Ġlagbhag":2472,"Ġkhil":2473,"ĠState":2474,"Ġjivan":2475,"Ġnav":2476,"Ġfield":2477,"Ġgen":2478,"Ġkil":2479,"Ġmer":2480,"Ġintro":2481,"hs":2482,"Ġdirect":2483,"ica":2484,"Ġradi":2485,"Ġfree":2486,"outhern":2487,"Ġdas":2488,"Ġcle":2489,"Ġalag":2490,"ĠJames":2491,"Ġforce":2492,"Ġrepresent":2493,"Ġnar":2494,"wood":2495,"Ġsarv":2496,"phi":2497,"unch":2498,"alt":2499,"Ġ2015":2500,"astern":2501,"Ġvir":2502,"ikaas":2503,"Ġear":2504,"yad":2505,"Ġft":2506,"Ġdestroy":2507,"Ġcharacters":2508,"Ġvol":2509,"Ġpopular":2510,"Ġduus":2511,"emy":2512,"ending":2513,"Ġdh":2514,"Ġgeneral":2515,"Ġremained":2516,"Ġnational":2517,"Ġtech":2518,"lands":2519,"ĠArmy":2520,"atic":2521,"Ġhit":2522,"Ġseem":2523,"ĠGl":2524,"Ġsuff":2525,"bharat":2526,"Ġmonths":2527,"field":2528,"hyam":2529,"Ġyog":2530,"Ġtelevision":2531,"Ġdied":2532,"Ġmid":2533,"Ġdeveloped":2534,"ule":2535,"Ġisa":2536,"cent":2537,"Ġchildren":2538,"Ġdik":2539,"bor":2540,"pan":2541,"Ġcampaign":2542,"Ġoccur":2543,"Ġrashtriya":2544,"iron":2545,"Ġ2004":2546,"Ġ31":2547,"urricane":2548,"fic":2549,"Ġcal":2550,"ning":2551,"ĠLeague":2552,"itar":2553,"yaat":2554,"Ġseven":2555,"isted":2556,"Ġrock":2557,"Ġseen":2558,"rie":2559,"Ġ188":2560,"ĠMor":2561,"vin":2562,"Ġsignific":2563,"Ġacross":2564,"Ġhistor":2565,"ertain":2566,"Ġobs":2567,"istan":2568,"hern":2569,"Ġfr":2570,"lect":2571,"Ġ2000":2572,"Ġrelations":2573,"Ġkarti":2574,"view":2575,"Ġaway":2576,"stit":2577,"Ġtest":2578,"Ġofficial":2579,"Ġfeet":2580,"Ġjise":2581,"unhone":2582,"Ġjal":2583,"ĠPe":2584,"ĠReg":2585,"Ġvikaas":2586,"ĠDivision":2587,"Ġfav":2588,"Ġgar":2589,"Ġfelt":2590,"men":2591,"ases":2592,"ama":2593,"Ġsahit":2594,"Ġsarkaar":2595,"ĠSim":2596,"ĠAmerica":2597,"Ġcop":2598,"ways":2599,"Ġcult":2600,"usht":2601,"ĠSup":2602,"Ġabhi":2603,"Ġbhoom":2604,"ze":2605,"hire":2606,"Ġnoted":2607,"Ġprasiddh":2608,"Ġcreated":2609,"Ġnight":2610,"Ġraaj":2611,"ĠRuss":2612,"Ġkan":2613,"Ġnird":2614,"Ġannounced":2615,"Ġnon":2616,"ĠNor":2617,"ĠRic":2618,"Ġreached":2619,"cil":2620,"Ġalm":2621,"ĠPart":2622,"rity":2623,"pra":2624,"Ġaward":2625,"elling":2626,"Ġprim":2627,"Ġareas":2628,"ole":2629,"vid":2630,"ĠCounty":2631,"Ġvyakti":2632,"Ġcricket":2633,"Ġkhel":2634,"aint":2635,"Ġstation":2636,"ĠRoad":2637,"Ġtoo":2638,"Ġ?":2639,"pend":2640,"Ġrange":2641,"ĠJapanese":2642,"Ġfle":2643,"Ġprocess":2644,"Ġcoun":2645,"ĠMad":2646,"Ġjahaan":2647,"ĠCap":2648,"Ġkyon":2649,"Ġsuccessful":2650,"Ġvarious":2651,"ality":2652,"hinn":2653,"itra":2654,"Ġpolitical":2655,"Ġthought":2656,"olution":2657,"Ġsaw":2658,"Ġkeval":2659,"Ġmandal":2660,"ĠMon":2661,"Ġfollowed":2662,"ĠStreet":2663,"Ġmana":2664,"Ġdakshin":2665,"Ġaver":2666,"ĠSer":2667,"Ġath":2668,"Ġvic":2669,"day":2670,"Ġfull":2671,"Ġcost":2672,"ĠEast":2673,"ming":2674,"rict":2675,"Ġarg":2676,"ivil":2677,"ĠRober":2678,"Ġplayers":2679,"Ġbroad":2680,"Ġperformed":2681,"anki":2682,"Ġlab":2683,"Ġpaas":2684,"Ġserved":2685,"ĠGeorge":2686,"50":2687,"Ġmeet":2688,"Ġking":2689,"ĠWhit":2690,"gar":2691,"ĠHol":2692,"Ġlok":2693,"ĠTo":2694,"irl":2695,"hiyon":2696,"ization":2697,"hard":2698,"Ġlittle":2699,"Ġfac":2700,"ĠPhil":2701,"ination":2702,"aly":2703,"ĠHen":2704,"reek":2705,"ĠAb":2706,"Ġ186":2707,"Ġji":2708,"Ġspecial":2709,"ida":2710,"ger":2711,"Ġfem":2712,"uri":2713,"hys":2714,"och":2715,"ĠPer":2716,"Ġbody":2717,"Ġjanaa":2718,"Ġmi":2719,"khand":2720,"aayen":2721,"Ġsun":2722,"Ġtaken":2723,"Ġident":2724,"Ġkilled":2725,"Ġable":2726,"Ġbana":2727,"Ġagre":2728,"lished":2729,"ularly":2730,"aak":2731,"Ġrang":2732,"aron":2733,"Ġtropical":2734,"Ġdoes":2735,"ground":2736,"Ġthroughout":2737,"ino":2738,"Ġrank":2739,"Ġtal":2740,"Ġaak":2741,"ĠBill":2742,"Ġaam":2743,"iki":2744,"Ġfight":2745,"ids":2746,"raph":2747,"Ġwhite":2748,"aava":2749,"Ġbecom":2750,"apurn":2751,"Ġmanag":2752,"Ġpak":2753,"Ġsignificant":2754,"ĠEm":2755,"Ġcoast":2756,"ask":2757,"Ġlat":2758,"iting":2759,"Ġprav":2760,"ĠThom":2761,"Ġstruct":2762,"Ġmm":2763,"Ġwriting":2764,"ĠMed":2765,"ĠMicha":2766,"oice":2767,"bert":2768,"Ġ2003":2769,"pi":2770,"ami":2771,"Ġtre":2772,"eev":2773,"Ġball":2774,"Ġcirc":2775,"Ġbill":2776,"Ġmiss":2777,"ude":2778,"Ġblack":2779,"ĠDavid":2780,"ras":2781,"Ġassoci":2782,"hete":2783,"Ġearli":2784,"Ġestablished":2785,"ying":2786,"Ġage":2787,"Ġentire":2788,"lin":2789,"enced":2790,"ĠRec":2791,"nal":2792,"Ġappeared":2793,"aramb":2794,"Ġmiles":2795,"Ġpoints":2796,"ĠAustralian":2797,"Ġimpro":2798,"Ġaa":2799,"Ġangre":2800,"ucch":2801,"Ġalaava":2802,"Ġmember":2803,"Ġactiv":2804,"anya":2805,"ĠYou":2806,"Ġnagar":2807,"oks":2808,"Ġwomen":2809,"ĠQu":2810,"Ġroute":2811,"een":2812,"Ġ187":2813,"Ġbac":2814,"Ġinde":2815,"Ġpri":2816,"ogn":2817,"rag":2818,"hsil":2819,"Ġstarted":2820,"Ġfeatures":2821,"ploy":2822,"Ġhat":2823,"Ġround":2824,"Ġcaused":2825,"Ġnov":2826,"mar":2827,"pat":2828,"Ġrace":2829,"Ġdecided":2830,"conom":2831,"Ġnadi":2832,"cast":2833,"ĠAfric":2834,"Ġphir":2835,"Ġpeak":2836,"Ġsite":2837,"Ġtur":2838,"Ġeventually":2839,"Ġadded":2840,"ĠHouse":2841,"pression":2842,"Ġvig":2843,"Ġtehsil":2844,"Ġcentre":2845,"Ġmix":2846,"ĠSqu":2847,"Ġpashchi":2848,"idence":2849,"Ġbase":2850,"Ġlive":2851,"Ġkehete":2852,"oli":2853,"ĠRoyal":2854,"cks":2855,"Ġgrow":2856,"aring":2857,"vari":2858,"ett":2859,"Ġinstead":2860,"ĠHist":2861,"cap":2862,"Ġtab":2863,"adron":2864,"rey":2865,"gether":2866,"Ġtogether":2867,"Ġmodern":2868,"ells":2869,"Ġcut":2870,"Ġrahi":2871,"Ġonce":2872,"head":2873,"Ġkabhi":2874,"Ġapana":2875,"Ġ500":2876,"ĠIntern":2877,"Ġlocated":2878,"Ġkyonki":2879,"Ġdeg":2880,"Ġformed":2881,"Ġtradition":2882,"ĠPort":2883,"angu":2884,"less":2885,"Ġiskaa":2886,"bar":2887,"ĠIndian":2888,"Ġstage":2889,"board":2890,"hari":2891,"Ġenc":2892,"Ġfront":2893,"Ġhold":2894,"ashyak":2895,"hing":2896,"oop":2897,"Ġpit":2898,"pon":2899,"off":2900,"Ġimportant":2901,"anti":2902,"Ġmount":2903,"aving":2904,"Ġ2001":2905,"akon":2906,"Ġvast":2907,"aaye":2908,"Ġdur":2909,"arik":2910,"Ġvyap":2911,"Ġfif":2912,"Ġaction":2913,"Ġconne":2914,"rup":2915,"Ġsaal":2916,"rated":2917,"Ġvibhinn":2918,"raa":2919,"Ġcrew":2920,"oti":2921,"ĠPh":2922,"vah":2923,"antic":2924,"Ġinj":2925,"cher":2926,"oul":2927,"Ġghar":2928,"Ġcompleted":2929,"uke":2930,"Ġmater":2931,"ĠComp":2932,"istic":2933,"amer":2934,"Ġprot":2935,"Ġmahatvapurn":2936,"Ġfall":2937,"Ġplaying":2938,"Ġprofess":2939,"ĠSan":2940,"Ġgan":2941,"ĠOther":2942,"aari":2943,"irg":2944,"Ġhost":2945,"Ġlook":2946,"Ġpopulation":2947,"ring":2948,"waan":2949,"Ġsn":2950,"ooh":2951,"gen":2952,"Ġrather":2953,"Ġvoc":2954,"Ġbaat":2955,"Ġsany":2956,"ators":2957,"Ġpolice":2958,"yl":2959,"Ġothers":2960,"Ġbrother":2961,"Ġsurv":2962,"Ġvill":2963,"ĠMichael":2964,"nd":2965,"ĠSch":2966,"lex":2967,"Ġsant":2968,"ows":2969,"Ġworks":2970,"Ġinform":2971,"Ġviv":2972,"Ġsingh":2973,"Ġopened":2974,"Ġsil":2975,"Ġbehind":2976,"oted":2977,"Ġ2002":2978,"Ġpu":2979,"igned":2980,"sp":2981,"ample":2982,"udi":2983,"ĠBlack":2984,"Ġguns":2985,"lam":2986,"Ġcomment":2987,"ceed":2988,"anaa":2989,"Ġlad":2990,"Ġfa":2991,"Ġsal":2992,"Ġbanane":2993,"Ã¡":2994,"medi":2995,"Ġproble":2996,"burg":2997,"oe":2998,"Ġjag":2999,"Ġhard":3000,"mir":3001,"ĠAct":3002,"ĠMy":3003,"Ġmahil":3004,"atha":3005,"Ġclose":3006,"Ġhelp":3007,"Ġpred":3008,"aut":3009,"Ġloss":3010,"Ġdiscover":3011,"ĠFrance":3012,"ĠMag":3013,"ĠSome":3014,"ĠÂ°":3015,"Ġmur":3016,"Ġworked":3017,"Ġsaa":3018,"ficult":3019,"rashtriya":3020,"Ġaavashyak":3021,"ĠSchool":3022,"Ġheavy":3023,"ruti":3024,"Ġsepar":3025,"Ġhog":3026,"Ġsuper":3027,"Ġpract":3028,"ĠAg":3029,"mon":3030,"Ġcurr":3031,"asy":3032,"hest":3033,"Ġsubsequ":3034,"ban":3035,"Ġconstruction":3036,"Ġdifficult":3037,"Ġanti":3038,"Ġreb":3039,"Ġbreak":3040,"mad":3041,"Ġyoj":3042,"Ġindust":3043,"Ġrelationship":3044,"antra":3045,"Ġmadhya":3046,"ĠÃ":3047,"Ġcase":3048,"Ġweeks":3049,"hief":3050,"ological":3051,"Ġexample":3052,"Ġden":3053,"Ġchaar":3054,"irst":3055,"ĠWash":3056,"Ġleading":3057,"xic":3058,"kshan":3059,"ĠFran":3060,"Ġoriginally":3061,"of":3062,"neet":3063,"Ġupon":3064,"ĠHenry":3065,"Ġcat":3066,"Ġcreat":3067,"Ġutpaad":3068,"Ġsex":3069,"Ġaccom":3070,"Ġbhag":3071,"Ġalmost":3072,"lymp":3073,"Ġsett":3074,"Ġinvest":3075,"Ġhuman":3076,"Ġengine":3077,"Ġborn":3078,"bon":3079,"Ġrespect":3080,"Ġprovided":3081,"Ġucch":3082,"ĠMet":3083,"het":3084,"Ġdamage":3085,"Ġaccept":3086,"yaar":3087,"Ġsankhya":3088,"ĠRed":3089,"Ġfourth":3090,"non":3091,"enes":3092,"Ġscored":3093,"Ġappoint":3094,"asha":3095,"ential":3096,"Ġwhe":3097,"Ġtyp":3098,"haai":3099,"Ġkilomet":3100,"Ġshat":3101,"Ġreve":3102,"ements":3103,"ĠMusic":3104,"Ġcourt":3105,"Ġbhe":3106,"azine":3107,"vit":3108,"Ġeffort":3109,"ĠBest":3110,"Ġ60":3111,"Ġmak":3112,"iety":3113,"ĠBattle":3114,"Ġshiksha":3115,"aves":3116,"ander":3117,"ĠColle":3118,"ĠMil":3119,"Ġindivid":3120,"cing":3121,"Ġfell":3122,"Ġbomb":3123,"wal":3124,"Ġsour":3125,"anish":3126,"iddle":3127,"oney":3128,"Ġscene":3129,"Ġghat":3130,"Ġbade":3131,"ear":3132,"iding":3133,"Ġfund":3134,"itor":3135,"hab":3136,"Ġarmy":3137,"geet":3138,"ety":3139,"Ġbrought":3140,"Ġneg":3141,"Ġstudio":3142,"ĠLa":3143,"Ġleast":3144,"Ġ35":3145,"Ġavail":3146,"icle":3147,"Ġworking":3148,"Ġfeatured":3149,"ĠPresident":3150,"Ġmother":3151,"Ġallowed":3152,"Ġwanted":3153,"Ġce":3154,"Ġ1990":3155,"Ġeither":3156,"ĠRep":3157,"Ġplaced":3158,"Ġnomin":3159,"Ġregion":3160,"Ġaverage":3161,"ĠMart":3162,"Ġtowards":3163,"Ġparis":3164,"Ġfoc":3165,"aas":3166,"Ġpradaan":3167,"ĠGro":3168,"Ġbusiness":3169,"ĠRou":3170,"ĠWashington":3171,"ĠPlay":3172,"Ġmaterial":3173,"Ġcritics":3174,"Ġquick":3175,"ĠWil":3176,"ĠQue":3177,"asing":3178,"ĠRobert":3179,"ĠBel":3180,"alon":3181,"Ġproper":3182,"ography":3183,"Ġoffice":3184,"iforn":3185,"ams":3186,"Ġtroops":3187,"Ġeconom":3188,"Ġrecogn":3189,"Ġplann":3190,"Ġmass":3191,"ville":3192,"Ġruns":3193,"hib":3194,"Ġkav":3195,"Ġreach":3196,"vavid":3197,"ĠStar":3198,"ills":3199,"ength":3200,"Ġmadhyam":3201,"Ġprabhaav":3202,"Ġpot":3203,"Ġul":3204,"Ġkum":3205,"rav":3206,"iction":3207,"leb":3208,"Ġram":3209,"Ġwife":3210,"arned":3211,"artment":3212,"Ġdou":3213,"Ġhor":3214,"Ġestim":3215,"isc":3216,"Ġwid":3217,"iers":3218,"Ġlack":3219,"Ġinterest":3220,"ago":3221,"hans":3222,"ĠPaul":3223,"BC":3224,"astha":3225,"ĠCro":3226,"aper":3227,"haran":3228,"ĠCour":3229,"ĠDespite":3230,"Ġgenerally":3231,"Ġpie":3232,"Ġiti":3233,"rian":3234,"Ġcondition":3235,"ĠFollow":3236,"Ġexec":3237,"Ġpay":3238,"ateg":3239,"oviet":3240,"Ġfig":3241,"Ġjoined":3242,"Ġsamooh":3243,"vavidhyalay":3244,"Ġren":3245,"ĠDr":3246,"Ġisland":3247,"ĠMac":3248,"Ġroom":3249,"ĠAngel":3250,"rison":3251,"emor":3252,"west":3253,"olic":3254,"Ġevents":3255,"ĠGame":3256,"Ġphot":3257,"Ġparticip":3258,"Ġlangu":3259,"Ġshot":3260,"ification":3261,"Ġsthan":3262,"ĠMa":3263,"ĠHall":3264,"cial":3265,"Ġknow":3266,"uff":3267,"ĠCup":3268,"Ġdrop":3269,"Ġmedia":3270,"shan":3271,"ifornia":3272,"uel":3273,"Ġbelieved":3274,"irth":3275,"Ġradio":3276,"Ġrul":3277,"Ġmahila":3278,"ender":3279,"ĠFirst":3280,"Ġyuddh":3281,"Ġsele":3282,"ĠFollowing":3283,"ĠMary":3284,"Ġraja":3285,"Ġreplaced":3286,"ĠGreat":3287,"ojan":3288,"ked":3289,"Ġprast":3290,"Ġdesigned":3291,"Ġvictory":3292,"Ġpresident":3293,"Ġhom":3294,"Ġanek":3295,"Ġbank":3296,"yav":3297,"Ġak":3298,"Ġmph":3299,"artmaan":3300,"Ġsoon":3301,"cer":3302,"ĠJe":3303,"chaar":3304,"Ġsurf":3305,"wan":3306,"ĠLou":3307,"anta":3308,"Ġchahie":3309,"Ġpehali":3310,"Ġabhin":3311,"Ġvan":3312,"antri":3313,"ĠEuropean":3314,"Ġcondu":3315,"Ġmo":3316,"Ġhours":3317,"utive":3318,"atin":3319,"Ġvaala":3320,"ĠTwo":3321,"Ġkend":3322,"Ġsen":3323,"uter":3324,"Ġsadsy":3325,"Ġpran":3326,"Ġpaid":3327,"Ġbrit":3328,"Ġcentral":3329,"san":3330,"key":3331,"Ġinvolved":3332,"ades":3333,"Ġinsp":3334,"odes":3335,"ception":3336,"Ġbare":3337,"aman":3338,"fall":3339,"ograph":3340,"erous":3341,"Ġlak":3342,"Ġbig":3343,"ĠChampionship":3344,"Ġfinished":3345,"iff":3346,"Ġaas":3347,"Ġcollege":3348,"Ġill":3349,"Ġquar":3350,"Ġmodel":3351,"Ġcontrib":3352,"Ġpain":3353,"Ġtravel":3354,"Ġpossible":3355,"Ġopening":3356,"Ġpura":3357,"asion":3358,"ĠVirg":3359,"Ġvishvavidhyalay":3360,"ply":3361,"Ġpriv":3362,"uon":3363,"Ġsaying":3364,"aled":3365,"Ġthreat":3366,"chana":3367,"Ġdek":3368,"atr":3369,"Ġsambha":3370,"Ġavailable":3371,"Ġdirector":3372,"Ġlength":3373,"Ġcenter":3374,"Ġtraining":3375,"antry":3376,"hun":3377,"Ġsocial":3378,"Ġminutes":3379,"Ġvarshon":3380,"Ġremov":3381,"ishing":3382,"berg":3383,"Ġly":3384,"Ġintroduc":3385,"Ġmulti":3386,"ĠDon":3387,"Ġchart":3388,"Ġ1980":3389,"Ġexpress":3390,"Ġsamaj":3391,"Ġcommer":3392,"Ġkshet":3393,"Ġmust":3394,"cle":3395,"Ġinternational":3396,"ril":3397,"Ġindic":3398,"Ġexist":3399,"Ġlargest":3400,"ĠSing":3401,"ĠRichard":3402,"ership":3403,"Ġ80":3404,"Ġchange":3405,"Ġbur":3406,"agan":3407,"abad":3408,"Ġpast":3409,"itihaas":3410,"Ġsouthern":3411,"Ġ2016":3412,"ĠScott":3413,"itz":3414,"ights":3415,"lim":3416,"ports":3417,"Ġhighway":3418,"Ġpark":3419,"ĠRoute":3420,"Ġduusare":3421,"Ġgold":3422,"pected":3423,"rest":3424,"nam":3425,"Ġjiskaa":3426,"Ġhighest":3427,"Ġsequ":3428,"ĠFrom":3429,"Ġsus":3430,"Ġearlier":3431,"ĠTi":3432,"ume":3433,"Ġpercent":3434,"Ġjiske":3435,"ĠAtl":3436,"Ġparticularly":3437,"Ġinitially":3438,"iled":3439,"ĠRepublic":3440,"ota":3441,"ĠInternational":3442,"Ġpary":3443,"Ġ1999":3444,"Ġspeed":3445,"Ġyahan":3446,"ĠKingdom":3447,"Ġitihaas":3448,"sel":3449,"uture":3450,"nneet":3451,"Ġforced":3452,"Ġdene":3453,"Ġphys":3454,"Ġkul":3455,"ĠAc":3456,"sit":3457,"ĠCharles":3458,"Ġsamud":3459,"Ġswat":3460,"Ġ1970":3461,"ĠRoman":3462,"ĠâĢĺ":3463,"ĠNavy":3464,"ĠBer":3465,"Ġrecording":3466,"Ġ36":3467,"Ġrespons":3468,"ius":3469,"artan":3470,"atural":3471,"uv":3472,"ĠOff":3473,"tem":3474,"Ġwall":3475,"ĠWhite":3476,"tered":3477,"Ġscreen":3478,"Ġtaur":3479,"alaa":3480,"Ġended":3481,"Ġjari":3482,"ko":3483,"ĠThomas":3484,"ikon":3485,"ference":3486,"ĠMcC":3487,"Ġisi":3488,"Ġnaamak":3489,"ĠKe":3490,"Ġuski":3491,"Ġgoal":3492,"Ġsthapit":3493,"Ġturned":3494,"ĠBut":3495,"Ġmaintain":3496,"Ġpassed":3497,"oring":3498,"Ġweak":3499,"Ġrog":3500,"ĠVal":3501,"mb":3502,"Ġstop":3503,"Ġunka":3504,"ands":3505,"ĠAp":3506,"Ġeduc":3507,"Ġregard":3508,"Ġbanaaya":3509,"Ġcou":3510,"urna":3511,"Ġunits":3512,"Ġris":3513,"Ġvarg":3514,"Ġpraised":3515,"go":3516,"Ġincreased":3517,"Ġhurricane":3518,"ption":3519,"Ġtechn":3520,"Ġrom":3521,"Ġ32":3522,"Ġnorthern":3523,"heast":3524,"gress":3525,"Ġnovel":3526,"ĠChurch":3527,"Ġrelig":3528,"cts":3529,"ĠVirgin":3530,"antar":3531,"ĠTy":3532,"ĠCanada":3533,"Ġpil":3534,"ga":3535,"Ġchurch":3536,"Ġlamb":3537,"hem":3538,"Ġreason":3539,"ĠBay":3540,"Ġcode":3541,"Ġcred":3542,"Ġappearance":3543,"Ġbadi":3544,"ba":3545,"uniya":3546,"ship":3547,"Ġsection":3548,"ĠDay":3549,"Ġboard":3550,"Ġindepend":3551,"Ġ45":3552,"Ġsangeet":3553,"ky":3554,"Ġwinds":3555,"Ġmeas":3556,"aton":3557,"Ġimmedi":3558,"tt":3559,"Ġ70":3560,"Ġsura":3561,"Ġir":3562,"Ġpen":3563,"Ġadhyayan":3564,"ston":3565,"Ġpers":3566,"Ġtreat":3567,"ĠSmith":3568,"Ġmove":3569,"Ġordered":3570,"askaar":3571,"Ġsthapana":3572,"Ġachie":3573,"ĠIndia":3574,"abha":3575,"Ġpoor":3576,"ittee":3577,"Ġcontract":3578,"Ġscore":3579,"Ġdig":3580,"Ġabove":3581,"Ġder":3582,"pal":3583,"ĠPre":3584,"uf":3585,"ashi":3586,"Ġfilms":3587,"Ġtaking":3588,"ĠAlex":3589,"Ġlove":3590,"Ġsakati":3591,"ĠMer":3592,"rying":3593,"Ġuplab":3594,"edy":3595,"ilities":3596,"ging":3597,"asi":3598,"Ġsigned":3599,"Ġlimited":3600,"Ġbetter":3601,"Ġbeginning":3602,"je":3603,"ĠCalifornia":3604,"da":3605,"Ġvibha":3606,"Ġpositive":3607,"ĠGovern":3608,"Ġbra":3609,"aata":3610,"ĠUnion":3611,"anding":3612,"Ġ185":3613,"acy":3614,"aaf":3615,"Ġinn":3616,"Ġrakhaa":3617,"duction":3618,"Ġcycl":3619,"oid":3620,"ĠGod":3621,"Ġsambandh":3622,"ĠBrown":3623,"aval":3624,"clus":3625,"Ġquest":3626,"Ġum":3627,"Ġpaan":3628,"Ġenough":3629,"Ġaccount":3630,"ughter":3631,"18":3632,"Ġ1998":3633,"Ġsahitya":3634,"andon":3635,"ĠIsland":3636,"atmak":3637,"Ġaccording":3638,"Ġfeel":3639,"ĠFlor":3640,"Ġ00":3641,"Ġsi":3642,"Ġjeet":3643,"Ġconcern":3644,"Ġmor":3645,"Ġgoing":3646,"Ġmach":3647,"Ġrequired":3648,"Ġslow":3649,"ĠCourt":3650,"ĠÂ£":3651,"hu":3652,"hakon":3653,"Ġvy":3654,"ros":3655,"Ġsubject":3656,"ĠTom":3657,"ĠKn":3658,"Ġoutside":3659,"rast":3660,"Ġvarn":3661,"Ġstates":3662,"Ġspent":3663,"bal":3664,"Ġbaa":3665,"ĠSen":3666,"Ġmean":3667,"ili":3668,"hee":3669,"Ġpratham":3670,"Ġnim":3671,"Ġprob":3672,"plic":3673,"athan":3674,"Ġvichaar":3675,"ĠCong":3676,"rip":3677,"Ġfootball":3678,"10":3679,"ayan":3680,"ware":3681,"Ġjabaki":3682,"waad":3683,"ĠVict":3684,"aries":3685,"ĠAssoci":3686,"Ġnine":3687,"ĠAward":3688,"Ġsiddh":3689,"Ġblock":3690,"Ġtold":3691,"Ġassist":3692,"ashtra":3693,"ĠRock":3694,"Ġbada":3695,"cis":3696,"elled":3697,"isl":3698,"ĠSam":3699,"Ġpreviously":3700,"Ġshoot":3701,"Ġcivil":3702,"Ġ1960":3703,"bers":3704,"Ġabs":3705,"Ġelements":3706,"reng":3707,"Ġchunaav":3708,"aces":3709,"ĠCompany":3710,"Ġ+":3711,"Ġobject":3712,"Ġlower":3713,"Ġcome":3714,"minist":3715,"Ġpita":3716,"Ġfailed":3717,"Ġparts":3718,"Ġsanyukt":3719,"Ġ33":3720,"ĠMount":3721,"Ġsabha":3722,"ĠUK":3723,"ranch":3724,"Ġitself":3725,"Ġfort":3726,"Ġhous":3727,"Ġflow":3728,"vey":3729,"him":3730,"asc":3731,"zz":3732,"alion":3733,"Ġ184":3734,"ĠGermany":3735,"Ġaccess":3736,"Ġkeep":3737,"oo":3738,"ria":3739,"Ġvist":3740,"Ġrain":3741,"Ġreviews":3742,"Ġraajnneet":3743,"Ġdoc":3744,"rab":3745,"ĠGold":3746,"Ġlek":3747,"ĠIm":3748,"ples":3749,"ĠPeter":3750,"ĠNY":3751,"Ġpust":3752,"Ġsthiti":3753,"Ġniv":3754,"Ġguitar":3755,"ĠPal":3756,"ening":3757,"Ġinterview":3758,"ready":3759,"Ġdirected":3760,"ĠChristian":3761,"Ġhaal":3762,"Ġgradu":3763,"Ġlines":3764,"Ġrap":3765,"Ġmis":3766,"Ġdespite":3767,"arily":3768,"Ġdetaa":3769,"ĠThat":3770,"Ġjour":3771,"char":3772,"leg":3773,"olk":3774,"put":3775,"Ġnetwork":3776,"Ġdeep":3777,"ĠSoc":3778,"erved":3779,"Ġgroups":3780,"ergy":3781,"ĠTimes":3782,"ĠCast":3783,"ĠCollege":3784,"ĠPat":3785,"Ġdebut":3786,"Ġviol":3787,"hta":3788,"ulf":3789,"Ġchand":3790,"ĠMark":3791,"kaal":3792,"Ġvr":3793,"Ġgive":3794,"Ġfuture":3795,"Ġwhose":3796,"aare":3797,"eum":3798,"ĠArt":3799,"Ġdeal":3800,"Ġwood":3801,"Ġpremi":3802,"iskaa":3803,"Ġprevent":3804,"lor":3805,"ĠWestern":3806,"trakhand":3807,"aun":3808,"Ġtransfer":3809,"Ġclaimed":3810,"Ġadditional":3811,"ĠGra":3812,"ĠDem":3813,"ibility":3814,"bed":3815,"Ġspace":3816,"Ġminute":3817,"Ġasked":3818,"Ġstreng":3819,"adh":3820,"Ġkarke":3821,"Ġkhan":3822,"Ġrailway":3823,"ror":3824,"ĠHill":3825,"ĠSoviet":3826,"rief":3827,"ĠFilm":3828,"app":3829,"Ġspan":3830,"ability":3831,"Ġfrequ":3832,"Ġfood":3833,"enge":3834,"Ġbihar":3835,"ĠFrank":3836,"NA":3837,"urs":3838,"itions":3839,"Ġ1997":3840,"Ġwestern":3841,"Ġpatr":3842,"Ġmarket":3843,"Ġparivaar":3844,"lying":3845,"Ġwhom":3846,"ĠMexic":3847,"Ġleague":3848,"pring":3849,"Ġsafal":3850,"Ġalready":3851,"ends":3852,"ĠAwards":3853,"Ġsea":3854,"ĠGrand":3855,"sw":3856,"alan":3857,"Ġbaj":3858,"Ġaks":3859,"Ġidea":3860,"onna":3861,"Ġtrib":3862,"Ġmagazine":3863,"onse":3864,"Ġevidence":3865,"Ġintroduced":3866,"yal":3867,"Ġuttrakhand":3868,"Ġdrusht":3869,"Ġshren":3870,"ension":3871,"arl":3872,"Ġquickly":3873,"Ġjod":3874,"chaa":3875,"esan":3876,"Ġsitu":3877,"Ġbridge":3878,"adhik":3879,"TC":3880,"Ġcommunity":3881,"Ġdhan":3882,"Ġ37":3883,"ava":3884,"Ġgran":3885,"Ġnirv":3886,"Ġmusical":3887,"Ġusually":3888,"ira":3889,"ĠForce":3890,"Ġmess":3891,"Ġelection":3892,"Ġrese":3893,"yek":3894,"ĠCoun":3895,"sam":3896,"ĠMost":3897,"Ġ300":3898,"Ġdekh":3899,"Ġoccup":3900,"ores":3901,"pecially":3902,"adium":3903,"Ġstudy":3904,"Ġpair":3905,"antu":3906,"Ġathwa":3907,"str":3908,"Ġdilli":3909,"ademy":3910,"ĠRob":3911,"ully":3912,"Ġarrived":3913,"oke":3914,"ĠBritain":3915,"ackson":3916,"Ġresearch":3917,"Ġlay":3918,"Ġpuraskaar":3919,"Ġhop":3920,"ishth":3921,"erve":3922,"liament":3923,"Ġantarrashtriya":3924,"Ġoppos":3925,"don":3926,"Ġmight":3927,"Ġ90":3928,"Ġkaaphi":3929,"Ġtype":3930,"Ġliter":3931,"Ġsometimes":3932,"Ġvigyaan":3933,"Ġsir":3934,"Ġfemale":3935,"Ġshakti":3936,"teen":3937,"ĠBra":3938,"Ġanum":3939,"ĠHot":3940,"uit":3941,"II":3942,"ĠChic":3943,"Ġdeshon":3944,"Ġbhoomika":3945,"Ġmahar":3946,"ny":3947,"Ġresponse":3948,"anda":3949,"Ġespecially":3950,"Ġdecision":3951,"Ġissue":3952,"kn":3953,"Ġdate":3954,"Ġmoney":3955,"Ġbox":3956,"Ġkey":3957,"Ġseva":3958,"ĠPac":3959,"ikt":3960,"aale":3961,"Ġcaptain":3962,"Ġpraka":3963,"Ġstaff":3964,"hikits":3965,"Ġshows":3966,"icles":3967,"Ġsize":3968,"ĠLater":3969,"Ġsurface":3970,"inent":3971,"Ġprepar":3972,"sec":3973,"Ġgre":3974,"ĠVictor":3975,"Ġeastern":3976,"rim":3977,"Ġgirl":3978,"zi":3979,"Ġtax":3980,"ĠBen":3981,"Ġdisplay":3982,"Ġscript":3983,"amm":3984,"Ġdeterm":3985,"Ġexc":3986,"Ġflood":3987,"Ġdiscuss":3988,"aajik":3989,"aanya":3990,"Ġcarried":3991,"Ġremain":3992,"Ġgot":3993,"Ġminor":3994,"Ġestimated":3995,"dra":3996,"lict":3997,"Ġlekar":3998,"rd":3999,"Ġthim":4000,"Ġlarger":4001,"Ġremaining":4002,"Ġpersonal":4003,"ĠMill":4004,"Ġpressure":4005,"Ġcomplete":4006,"Ġdefeated":4007,"AA":4008,"aaron":4009,"porary":4010,"ĠRes":4011,"200":4012,"Ġjisase":4013,"atory":4014,"oud":4015,"ĠLos":4016,"ĠEarly":4017,"Ġ34":4018,"ĠVirginia":4019,"30":4020,"Ġbecoming":4021,"Ġpolic":4022,"Ġlanguage":4023,"Ġcommercial":4024,"Ġapproxim":4025,"ĠSun":4026,"ashit":4027,"Ġsamaaj":4028,"Ġconsider":4029,"viron":4030,"ĠInf":4031,"Ġ75":4032,"Ġentered":4033,"Ġras":4034,"Ġash":4035,"Ġsuggested":4036,"Ġ1996":4037,"ĠIf":4038,"bi":4039,"Ġstudents":4040,"Ġlatter":4041,"ites":4042,"ĠOver":4043,"Ġlaga":4044,"Ġriver":4045,"Ġteams":4046,"ĠMo":4047,"Ġconv":4048,"Ġsambandhit":4049,"Ġinvestig":4050,"za":4051,"Ġswar":4052,"Ġhapp":4053,"Ġ1995":4054,"Ġeffects":4055,"change":4056,"yadi":4057,"Ġtai":4058,"unt":4059,"liye":4060,"Ġcertain":4061,"ĠSecond":4062,"Ġlyric":4063,"Ġdraw":4064,"ocrat":4065,"Ġsurround":4066,"Ġchanges":4067,"Ġtul":4068,"Ġge":4069,"Ġbrief":4070,"Ġdark":4071,"Ġisaki":4072,"Ġself":4073,"Ġdie":4074,"mas":4075,"endar":4076,"igade":4077,"ĠJust":4078,"ĠSha":4079,"ĠTex":4080,"Ġacqu":4081,"ederal":4082,"alled":4083,"ulated":4084,"Ġny":4085,"Ġprison":4086,"Ġcomplet":4087,"hyaan":4088,"intu":4089,"Ġbow":4090,"Ġprior":4091,"tari":4092,"Ġkshetron":4093,"can":4094,"Ġamount":4095,"etic":4096,"ĠJackson":4097,"Ġappointed":4098,"arning":4099,"Ġsummer":4100,"Ġepisodes":4101,"Ġkhar":4102,"ĠSl":4103,"Ġemer":4104,"aanon":4105,"iles":4106,"ĠTer":4107,"Ġsena":4108,"Ġprovide":4109,"ĠOlymp":4110,"Ġstay":4111,"Ġcourse":4112,"des":4113,"Ġparin":4114,"Ġreduc":4115,"Ġparv":4116,"hana":4117,"Ġcommission":4118,"adian":4119,"Ġleaving":4120,"iser":4121,"mitted":4122,"ken":4123,"Ġwinning":4124,"saa":4125,"ĠLi":4126,"Ġequip":4127,"ÃŃ":4128,"ĠJack":4129,"Ġscenes":4130,"Ġ38":4131,"Ġdestroyed":4132,"Ġrid":4133,"Ġfleet":4134,"ĠClub":4135,"Ġupar":4136,"havi":4137,"Ġrights":4138,"Ġmel":4139,"Ġclim":4140,"Ġterrit":4141,"Ġult":4142,"ĠSpanish":4143,"Ġdram":4144,"jo":4145,"Ġtor":4146,"idents":4147,"Ġsanst":4148,"ĠMal":4149,"Ġmas":4150,"atak":4151,"Ġuplabdh":4152,"agon":4153,"Ġmarch":4154,"Ġwide":4155,"ĠGreen":4156,"Ġstructure":4157,"Ġwriter":4158,"ructed":4159,"Ġistem":4160,"Ġchampionship":4161,"ĠDo":4162,"Ġistemaal":4163,"Ġdoll":4164,"ĠFle":4165,"Ġpray":4166,"aakar":4167,"Ġintended":4168,"inese":4169,"Ġdegree":4170,"Ġ1994":4171,"selves":4172,"Ġproposed":4173,"Ġmaam":4174,"ado":4175,"Ġpal":4176,"Ġdivision":4177,"Ġarrang":4178,"ĠParty":4179,"Ġinfluence":4180,"Ġboy":4181,"Ġcham":4182,"Ġour":4183,"Ġbol":4184,"Ġoverall":4185,"chitect":4186,"ĠAssociation":4187,"Ġbroadcast":4188,"order":4189,"ĠLouis":4190,"Ġcreate":4191,"okar":4192,"Ġescap":4193,"ĠTour":4194,"Ġmovement":4195,"cript":4196,"Ġbird":4197,"Ġdetail":4198,"Ġrunning":4199,"omm":4200,"Ġox":4201,"lekh":4202,"heen":4203,"awa":4204,"ĠMaj":4205,"ĠDi":4206,"Ġ1950":4207,"Ġhoga":4208,"Ġamb":4209,"Ġnish":4210,"Ġtow":4211,"achan":4212,"haaharan":4213,"raman":4214,"Ġbrah":4215,"Ġsyn":4216,"Ġdete":4217,"Ġjeev":4218,"Ġsupported":4219,"use":4220,"itch":4221,"sed":4222,"ĠEdward":4223,"Ġagreed":4224,"Ġaaj":4225,"Ġsaan":4226,"Ġcoll":4227,"Ġrad":4228,"ĠChicago":4229,"ĠChinese":4230,"Ġdaughter":4231,"Ġnearly":4232,"Ġfans":4233,"aati":4234,"Ġpurcha":4235,"Ġpuri":4236,"Ġaffect":4237,"ĠSal":4238,"ession":4239,"Ġchhod":4240,"Ġestablish":4241,"ĠDel":4242,"ĠCouncil":4243,"haaran":4244,"lee":4245,"ĠMont":4246,"ĠOper":4247,"Ġpraband":4248,"Ġstars":4249,"Ġhelped":4250,"Ġens":4251,"olan":4252,"Ġtrain":4253,"Ġaise":4254,"Ġmarried":4255,"ĠSong":4256,"ĠMany":4257,"ipp":4258,"ien":4259,"Ã¶":4260,"enth":4261,"Ġvyapaar":4262,"Ġawarded":4263,"ĠInter":4264,"den":4265,"tu":4266,"Ġcru":4267,"Ġuns":4268,"anded":4269,"krit":4270,"omer":4271,"Ġduniya":4272,"Ġpahunch":4273,"Ġsud":4274,"Ġaadhaarit":4275,"rityu":4276,"Ġfavor":4277,"Ġliving":4278,"rol":4279,"Ġpranali":4280,"Ġmile":4281,"urt":4282,"ounds":4283,"ĠEnter":4284,"Ġintens":4285,"Ġcomplex":4286,"abdi":4287,"atre":4288,"Ġpataa":4289,"Ġlonger":4290,"Ġrelated":4291,"Ġbhav":4292,"atively":4293,"kon":4294,"inct":4295,"Ġdone":4296,"Ġpashchim":4297,"br":4298,"Ġbani":4299,"Ġaisa":4300,"unk":4301,"Ġjila":4302,"Ġdiss":4303,"uing":4304,"ĠPri":4305,"Ġhigher":4306,"Ġchote":4307,"Ġ1992":4308,"Ġemploy":4309,"uddhi":4310,"Ġquarter":4311,"chester":4312,"Ġfeature":4313,"rajya":4314,"Ġbadal":4315,"Ġcurrent":4316,"Ġchanged":4317,"12":4318,"alian":4319,"Ġplanned":4320,"isamen":4321,"Ġcompared":4322,"lik":4323,"Ġtemper":4324,"Ġemp":4325,"aland":4326,"Ġincreasing":4327,"Ġfunction":4328,"hunik":4329,"haalanki":4330,"ospital":4331,"ump":4332,"Ġvahaan":4333,"Ġexperience":4334,"Ġuskaa":4335,"uda":4336,"Ġcaptured":4337,"kuch":4338,"rial":4339,"ĠBet":4340,"Ġfifth":4341,"Ġbul":4342,"yr":4343,"Ġgranth":4344,"Ġshatabdi":4345,"Ġcm":4346,"ĠLeg":4347,"Ġconclud":4348,"ĠJohnson":4349,"ĠHistory":4350,"enty":4351,"Ġthemselves":4352,"Ġapproximately":4353,"Ġcapital":4354,"Ġeurope":4355,"Ġniyam":4356,"Ġast":4357,"bour":4358,"back":4359,"Ġthus":4360,"ĠChan":4361,"riage":4362,"Ġnatural":4363,"Ġvartmaan":4364,"ĠServ":4365,"Ġtracks":4366,"atives":4367,"Ġmostly":4368,"Ġproducer":4369,"Ġdead":4370,"Ã¼":4371,"Ġ180":4372,"Ġleader":4373,"inem":4374,"Ġprogress":4375,"ĠPacific":4376,"Ġwick":4377,"Ġlaun":4378,"ties":4379,"Ġsway":4380,"Ġgrand":4381,"ĠKore":4382,"Ġmanager":4383,"Ġwhether":4384,"Ġregular":4385,"ĠBillboard":4386,"Ġpani":4387,"hai":4388,"Ġplant":4389,"Ġgas":4390,"Ġgrant":4391,"thing":4392,"yahan":4393,"ein":4394,"ĠSea":4395,"Ġforward":4396,"ĠLove":4397,"Ġjiname":4398,"isions":4399,"Ġheav":4400,"Ġbring":4401,"oration":4402,"Ġoperations":4403,"riti":4404,"Ġwoman":4405,"rishna":4406,"reak":4407,"Ġchi":4408,"Ġcoach":4409,"ĠBack":4410,"itting":4411,"Ġshrenee":4412,"Ġkhilaaf":4413,"Ġremains":4414,"ders":4415,"Ġvij":4416,"Ġtransport":4417,"Ġsanghat":4418,"Ġsaamaajik":4419,"Ġnames":4420,"Ġprobably":4421,"Ġaage":4422,"ahat":4423,"Ġservices":4424,"eign":4425,"Ġface":4426,"aily":4427,"Ġtarg":4428,"Ġweap":4429,"Ġbang":4430,"ĠScot":4431,"Ġbane":4432,"ĠUnder":4433,"Ġrahata":4434,"Ġhealth":4435,"stant":4436,"ĠFort":4437,"Ġshri":4438,"Ġchall":4439,"ĠFinal":4440,"Ġbit":4441,"Ġlekh":4442,"arambh":4443,"ances":4444,"Ġcountries":4445,"ĠLake":4446,"Ġprakashit":4447,"Ġsamaan":4448,"Ġprop":4449,"una":4450,"Ġsoldiers":4451,"ĠWal":4452,"Ġfocus":4453,"Ġdata":4454,"Ġtext":4455,"Ġdepart":4456,"Ġ1991":4457,"Ġbuildings":4458,"ĠZe":4459,"ĠSar":4460,"Ġincludes":4461,"Ġcopies":4462,"Ġaat":4463,"Ġvoice":4464,"Ġpaanch":4465,"anga":4466,"Ġextended":4467,"ĠIII":4468,"vik":4469,"Ġpraya":4470,"ĠSpe":4471,"cel":4472,"ĠSquadron":4473,"Ġreally":4474,"ĠSince":4475,"atah":4476,"Ġlyrics":4477,"Ġgram":4478,"win":4479,"Ġpromot":4480,"ĠTrans":4481,"ĠAtlantic":4482,"ĠJo":4483,"Ġcolon":4484,"ises":4485,"Ġflag":4486,"ĠUTC":4487,"Ġissued":4488,"15":4489,"Ġbattles":4490,"Ġnorm":4491,"ĠCongress":4492,"Ġ49":4493,"Ġ1993":4494,"edia":4495,"Ġsik":4496,"Ġmal":4497,"Ġdistrib":4498,"Ġchikits":4499,"Ġmrityu":4500,"Ġsuffered":4501,"adhi":4502,"Ġkit":4503,"ĠJim":4504,"Ġimmediately":4505,"Ġbaahar":4506,"ĠBig":4507,"hte":4508,"Ġgoals":4509,"kram":4510,"ĠFlorida":4511,"igyan":4512,"oms":4513,"Ġmaanav":4514,"Ġniyant":4515,"Ġremoved":4516,"ĠPet":4517,"Ġbreed":4518,"ously":4519,"irikt":4520,"Ġroyal":4521,"Ġmixed":4522,"Ġalways":4523,"Ġadminist":4524,"Ġprivate":4525,"Ġlikely":4526,"Ġaus":4527,"ĠOld":4528,"Ġabhinay":4529,"ĠTor":4530,"Ġofficers":4531,"Ġinitial":4532,"Ġsain":4533,"ĠJew":4534,"Ġvia":4535,"Ġphil":4536,"anton":4537,"andal":4538,"Ġlocation":4539,"Ġcompan":4540,"Ġceleb":4541,"Ġpow":4542,"achar":4543,"Ġextra":4544,"ĠDist":4545,"Ġstatus":4546,"ĠLaw":4547,"Ġvillage":4548,"Ġjagah":4549,"Ġleave":4550,"Ġincrease":4551,"estival":4552,"Ġinstr":4553,"Ġstra":4554,"ĠQueen":4555,"bury":4556,"Ġvisit":4557,"Ġinformation":4558,"ify":4559,"Ġlaa":4560,"Ġproblems":4561,"adan":4562,"orpor":4563,"dro":4564,"Ġmut":4565,"ĠTexas":4566,"ĠChina":4567,"ĠDV":4568,"Ġ57":4569,"ipal":4570,"antr":4571,"Ġprinc":4572,"anks":4573,"ĠBoth":4574,"ĠBur":4575,"Ġimm":4576,"Ġsubsequently":4577,"Ġplans":4578,"ĠMr":4579,"atta":4580,"Ġterms":4581,"hips":4582,"Ġpratik":4583,"ĠHighway":4584,"ĠEarth":4585,"Ġ48":4586,"Ġdomin":4587,"ĠTown":4588,"light":4589,"Ã³":4590,"Ġq":4591,"ils":4592,"Ġcomputer":4593,"Ġsomething":4594,"Ġpehla":4595,"Ġhokar":4596,"ĠHow":4597,"ĠLord":4598,"ucle":4599,"Ġpaar":4600,"Ġelectron":4601,"reme":4602,"Ġsch":4603,"down":4604,"Ġemb":4605,"ante":4606,"orning":4607,"ĠAnother":4608,"ette":4609,"Ġprach":4610,"Ġ1940":4611,"ems":4612,"Ġadhikaar":4613,"maat":4614,"rem":4615,"ĠTech":4616,"Ġheart":4617,"Ġyahaan":4618,"ĠMax":4619,"Ġmom":4620,"Ġca":4621,"Ġoffered":4622,"Ġthr":4623,"vironment":4624,"aayaa":4625,"Ġaust":4626,"Ġmeeting":4627,"Ġrahete":4628,"Ġcand":4629,"Ġtons":4630,"Ġ58":4631,"Ġviksit":4632,"aker":4633,"ĠEmp":4634,"ex":4635,"Ġatirikt":4636,"ĠWood":4637,"Ġlif":4638,"Ġpradarshan":4639,"ĠCarol":4640,"uments":4641,"Ġanc":4642,"Ġinterse":4643,"venue":4644,"Ġmajority":4645,"Ġconsist":4646,"Ġcause":4647,"Ġdaal":4648,"ĠBoy":4649,"ĠRail":4650,"Ġullekh":4651,"Ġapproach":4652,"Ġprofessional":4653,"ĠCanadian":4654,"ho":4655,"Ġfinanc":4656,"ariyon":4657,"Ġstandard":4658,"Ġappears":4659,"Ġconcept":4660,"ĠAfrica":4661,"ĠSir":4662,"Ġunit":4663,"rot":4664,"arta":4665,"ĠDep":4666,"Ġaltern":4667,"Ġsanghathan":4668,"Ġindividual":4669,"uries":4670,"ona":4671,"Ġmun":4672,"ankhya":4673,"Ġyet":4674,"ĠCenter":4675,"ĠChe":4676,"aches":4677,"cean":4678,"Ġbritish":4679,"ĠIts":4680,"Ġplot":4681,"Ġconfir":4682,"oda":4683,"Ġplat":4684,"Ġ183":4685,"Ġutpann":4686,"Ġanu":4687,"Ġadop":4688,"amed":4689,"umn":4690,"igar":4691,"Ġdamaged":4692,"lad":4693,"Ġclear":4694,"Ġassociated":4695,"Ġusne":4696,"well":4697,"urity":4698,"Ġmakes":4699,"Ġtakes":4700,"Ġranked":4701,"Ġ39":4702,"Ġshown":4703,"aded":4704,"ĠCentral":4705,"Ġcomposed":4706,"ĠRussian":4707,"asya":4708,"Ġcontains":4709,"Ġmili":4710,"Ġpet":4711,"Ġdut":4712,"unke":4713,"Ġdashak":4714,"Ġflight":4715,"Ġcer":4716,"odh":4717,"Ġneeded":4718,"Ġrevealed":4719,"umed":4720,"Ġlaks":4721,"ola":4722,"Ġattacks":4723,"ĠNort":4724,"Ġdarshan":4725,"Ġtap":4726,"ĠCle":4727,"Ġvot":4728,"Ġkap":4729,"aatak":4730,"Ġparticular":4731,"ĠSever":4732,"Ġ1930":4733,"ĠTV":4734,"Ġrespectively":4735,"itude":4736,"itted":4737,"Ġdiscovered":4738,"Ġraised":4739,"ĠBow":4740,"ĠCamp":4741,"Ġimpact":4742,"Ġbene":4743,"Ġjinamein":4744,"Ġdisp":4745,"ĠKent":4746,"Ġnumerous":4747,"ĠNot":4748,"Ġqual":4749,"ĠDVD":4750,"Ġnumbers":4751,"Ġpakistan":4752,"vaj":4753,"Ġpaat":4754,"ĠTur":4755,"amin":4756,"Ġcounter":4757,"Ġvar":4758,"ĠAngeles":4759,"ĠCha":4760,"Ġveh":4761,"Ġmit":4762,"nes":4763,"Ġisamen":4764,"Ġcommander":4765,"Ġaar":4766,"veen":4767,"Ġkala":4768,"ĠGroup":4769,"Ġinspired":4770,"Ġnature":4771,"Ġantim":4772,"rown":4773,"alp":4774,"Ġinch":4775,"ĠDis":4776,"gra":4777,"main":4778,"Ġlived":4779,"Ġtrade":4780,"Ġlaunched":4781,"Ġhindu":4782,"ĠSuper":4783,"ĠMel":4784,"uals":4785,"upt":4786,"ĠEr":4787,"ĠEv":4788,"Ġjay":4789,"Ġupper":4790,"Ġindustry":4791,"Ġvyakt":4792,"Ġshuruyaat":4793,"uan":4794,"Ġoccurred":4795,"Ġconditions":4796,"ci":4797,"Ġvishay":4798,"Ġhour":4799,"Ġrecords":4800,"Ġmoving":4801,"Ġ179":4802,"action":4803,"hn":4804,"Ġsales":4805,"ĠHal":4806,"Ġattempted":4807,"Ġarchitect":4808,"Ġ400":4809,"Ġbelow":4810,"Ġsharir":4811,"rant":4812,"Ġattacked":4813,"Ġrajd":4814,"ault":4815,"Ġscient":4816,"eli":4817,"ching":4818,"ĠMur":4819,"Ġwhole":4820,"vis":4821,"ĠMiss":4822,"unki":4823,"inner":4824,"Ġdhyaan":4825,"ux":4826,"Ġissues":4827,"Ġbirth":4828,"osaur":4829,"Ġactive":4830,"Ġjati":4831,"ĠOut":4832,"Ġwebs":4833,"Ġcritical":4834,"aarth":4835,"lit":4836,"arshi":4837,"ako":4838,"Ġanal":4839,"Ġanub":4840,"Ġthink":4841,"ĠYear":4842,"ãĥ":4843,"ĠCont":4844,"Ġshrin":4845,"Ġadvan":4846,"Ġpath":4847,"apriy":4848,"var":4849,"ding":4850,"Ġarab":4851,"stra":4852,"Ġnay":4853,"vert":4854,"higan":4855,"Ġdekha":4856,"Ġsoft":4857,"Ġsinger":4858,"Ġchap":4859,"Ġlisted":4860,"Ġmethod":4861,"Ġselected":4862,"Ġslight":4863,"Ġhol":4864,"ĠEmpire":4865,"Ġyards":4866,"ĠPenn":4867,"60":4868,"ĠJose":4869,"Ġreferred":4870,"Ġprimary":4871,"kshit":4872,"Ġprayek":4873,"Ġsmaller":4874,"14":4875,"Ġkath":4876,"Ġshare":4877,"Ġ47":4878,"atri":4879,"ellow":4880,"Ġultim":4881,"Ġaavashyaktaa":4882,"itiya":4883,"Ġfinally":4884,"Ġdefeat":4885,"Ġelected":4886,"Ġsaad":4887,"oura":4888,"uge":4889,"Ġresulted":4890,"ĠStep":4891,"nic":4892,"airs":4893,"Ġdrum":4894,"Ġcas":4895,"Ġcit":4896,"Ġartist":4897,"Ġportray":4898,"Ġmission":4899,"17":4900,"Ġlegisl":4901,"Ġword":4902,"inson":4903,"utions":4904,"Ġoperation":4905,"atti":4906,"Ġassigned":4907,"rate":4908,"ĠItalian":4909,"Ġmale":4910,"Ġblue":4911,"uddha":4912,"enant":4913,"Ġ42":4914,"Ġdemon":4915,"Ġchuk":4916,"Ġspl":4917,"Ġlink":4918,"Ġlargely":4919,"Ġrate":4920,"Ġsuggest":4921,"Ġdocument":4922,"Ġofficer":4923,"Ġconflict":4924,"uman":4925,"Ġmic":4926,"ĠWill":4927,"Ġprakriya":4928,"aking":4929,"Ġreplace":4930,"Ġvit":4931,"lled":4932,"Ġsthal":4933,"Ġunderst":4934,"Ġsecret":4935,"Ġ64":4936,"Ġexpected":4937,"Ġclosed":4938,"Ġearned":4939,"Ġbooks":4940,"Ġletter":4941,"Ġmaarg":4942,"Ġbadha":4943,"Ġcommented":4944,"Ġdouble":4945,"Ġcovered":4946,"ĠFrancis":4947,"ĠMartin":4948,"Ġwa":4949,"ols":4950,"ĠCorps":4951,"Ġhaath":4952,"Ġsac":4953,"only":4954,"Ġmud":4955,"Ġeducation":4956,"Ġaudience":4957,"ffic":4958,"Ġ55":4959,"Ġmiddle":4960,"Ġmeter":4961,"jit":4962,"Ġkin":4963,"Ġyug":4964,"icted":4965,"ech":4966,"sar":4967,"uth":4968,"Ġsched":4969,"oston":4970,"Ġspir":4971,"ĠRev":4972,"Ġbhinn":4973,"Ġunable":4974,"Ġ44":4975,"Ġtraditional":4976,"Ġsid":4977,"Ġrat":4978,"Ġlos":4979,"ogue":4980,"Ġ150":4981,"Ġfriends":4982,"olf":4983,"Ġattention":4984,"Ġenergy":4985,"Ġsister":4986,"ĠViet":4987,"edic":4988,"Ġnewsp":4989,"Ġdraft":4990,"hold":4991,"astic":4992,"Ġrefused":4993,"Ġnae":4994,"ĠCrit":4995,"ighter":4996,"Ġskool":4997,"ym":4998,"Ġmaha":4999,"Ġlands":5000,"Ġcontem":5001,"Ġkilometre":5002,"Ġtheme":5003,"Ġbab":5004,"Ġtaiyaar":5005,"ĠCr":5006,"ĠMichigan":5007,"ĠMass":5008,"Ġopt":5009,"Ġsaamaanya":5010,"Ġhissaa":5011,"Ġil":5012,"Ġjans":5013,"ĠCat":5014,"anik":5015,"Ġcompl":5016,"ĠOl":5017,"Ġmeant":5018,"cting":5019,"ĠWales":5020,"Ġincludeonly":5021,"16":5022,"Ġkab":5023,"Ġjun":5024,"antasy":5025,"Ġangreji":5026,"ĠLong":5027,"Ġblood":5028,"izing":5029,"Ġability":5030,"Ġexam":5031,"atholic":5032,"utch":5033,"Ġdepression":5034,"Ġdeclared":5035,"ĠDav":5036,"Ġkanoon":5037,"Ġgiving":5038,"Ġrepe":5039,"Ġafric":5040,"Ġperformances":5041,"Ġlikhaa":5042,"miral":5043,"ĠGar":5044,"Ġsamarth":5045,"Ġgod":5046,"mik":5047,"undred":5048,"ĠOx":5049,"Ġkind":5050,"haarit":5051,"Ġmetal":5052,"Ġreligious":5053,"road":5054,"Ġconstit":5055,"Ġshashan":5056,"Ġfighting":5057,"Ġ1989":5058,"Ġproduce":5059,"rier":5060,"Ġmaatra":5061,"ĠTest":5062,"odies":5063,"ersey":5064,"Ġscience":5065,"ĠFer":5066,"Ġrecover":5067,"ĠAnn":5068,"lywood":5069,"Ġquestion":5070,"Ġnecess":5071,"Ġ78":5072,"ĠNet":5073,"emorial":5074,"Ġmatches":5075,"Ġlokapriy":5076,"Ġpurush":5077,"Ġfast":5078,"Ġaane":5079,"ique":5080,"ua":5081,"pass":5082,"sen":5083,"wide":5084,"Ġgreen":5085,"Ġ52":5086,"Ġpuraa":5087,"11":5088,"Ġbina":5089,"Ġyojana":5090,"rodh":5091,"Ġrapid":5092,"Ġchak":5093,"Ġcompetition":5094,"isher":5095,"Ġyour":5096,"aging":5097,"illa":5098,"ansion":5099,"Ġserious":5100,"Ġ1942":5101,"haayta":5102,"ĠBat":5103,"Ġparamp":5104,"Ġmovie":5105,"Ġmention":5106,"ĠMajor":5107,"Ġhona":5108,"overs":5109,"ĠFar":5110,"ĠMinister":5111,"Ġ#":5112,"Ġlage":5113,"ĠLab":5114,"Ġtouch":5115,"Ġvocals":5116,"inid":5117,"Ġtum":5118,"Ġpradhan":5119,"Ġaab":5120,"ĠMatt":5121,"Ġsamm":5122,"Ġwing":5123,"haat":5124,"Ġbach":5125,"Ġdom":5126,"Ġgeet":5127,"ounded":5128,"chon":5129,"ĠSeveral":5130,"ĠTeam":5131,"ĠWin":5132,"Ġcounty":5133,"ervation":5134,"Ġjam":5135,"ĠCons":5136,"Ġabandon":5137,"iences":5138,"Ġcontact":5139,"MS":5140,"joy":5141,"Ġsahaayta":5142,"jar":5143,"arambhik":5144,"Ġpul":5145,"Ġswayan":5146,"quar":5147,"Ġksham":5148,"Ġjanvari":5149,"Ġcust":5150,"Ġkhoj":5151,"Ġseparate":5152,"Ġfal":5153,"Ġcarbon":5154,"Ġconstructed":5155,"stitute":5156,"yes":5157,"Ġcolor":5158,"Ġdirectly":5159,"unity":5160,"house":5161,"ĠTime":5162,"Ġaccomp":5163,"ĠSum":5164,"uli":5165,"ĠFox":5166,"Ġfeat":5167,"Ġmaar":5168,"vention":5169,"Ġpractice":5170,"Ġmaxim":5171,"Ġshrinkh":5172,"Ġdal":5173,"ishop":5174,"Ġexcept":5175,"Ġlene":5176,"Ġcontinue":5177,"Ġunivers":5178,"Ġconcert":5179,"Ġnib":5180,"Ġhighly":5181,"chaat":5182,"Ġafrica":5183,"not":5184,"arshit":5185,"Ġmeans":5186,"vement":5187,"Ġpand":5188,"Ġmu":5189,"Ġpustak":5190,"Ġgand":5191,"ĠFour":5192,"ingu":5193,"Ġnearby":5194,"Ġgyaan":5195,"ĠZealand":5196,"Ġkhat":5197,"eche":5198,"Ġchief":5199,"eta":5200,"Ġcombat":5201,"Ġpresented":5202,"Ġmob":5203,"Ġdance":5204,"ibly":5205,"Ġsevent":5206,"ĠHaw":5207,"Ġlevels":5208,"Ġutpaadan":5209,"Ġrahane":5210,"Ġpositions":5211,"ĠAfrican":5212,"itation":5213,"inking":5214,"acher":5215,"Ġannual":5216,"Ġreduced":5217,"Ġnotes":5218,"ĠMexico":5219,"garh":5220,"inary":5221,"Ġbud":5222,"Ġoil":5223,"ĠBu":5224,"osen":5225,"agn":5226,"Ġcontrovers":5227,"Ġchor":5228,"Ġpadaarth":5229,"gi":5230,"ĠChris":5231,"Ġvaast":5232,"Ġgi":5233,"ĠWall":5234,"Ġaksar":5235,"hika":5236,"Ġkaarykram":5237,"ero":5238,"was":5239,"Ġ1920":5240,"Ġadult":5241,"heel":5242,"Ġculture":5243,"ĠHung":5244,"Ġneigh":5245,"ĠDemocrat":5246,"eshwar":5247,"ithvi":5248,"Ġedition":5249,"itan":5250,"Ġlee":5251,"Ġadvance":5252,"Ġvo":5253,"Ġattended":5254,"Ġtried":5255,"idi":5256,"ikaran":5257,"Ġvikram":5258,"Ġnucle":5259,"Ġaccepted":5260,"Ġni":5261,"Ġ182":5262,"aadhik":5263,"acing":5264,"ĠSk":5265,"Ġhorse":5266,"Ġcandid":5267,"ĠBrad":5268,"plied":5269,"Ġdirection":5270,"Ġtel":5271,"ĠStone":5272,"ĠBob":5273,"Ġpadd":5274,"Ġkumaun":5275,"like":5276,"Ġtwenty":5277,"ĠOs":5278,"Ġgal":5279,"Ġ65":5280,"hammad":5281,"Ġ1945":5282,"Ġsource":5283,"ĠMadonna":5284,"Ġcongress":5285,"fect":5286,"Ġpahun":5287,"Ġstating":5288,"ĠTre":5289,"Ġ43":5290,"Ġvibhaag":5291,"Ġnews":5292,"writ":5293,"Ġrein":5294,"oes":5295,"ĠBC":5296,"Ġlegal":5297,"essed":5298,"Ġcases":5299,"Ġinstit":5300,"Ġparivartan":5301,"tery":5302,"ĠScotland":5303,"Ġmem":5304,"zil":5305,"Ġple":5306,"Ġdim":5307,"Ġnyaay":5308,"ider":5309,"ief":5310,"ĠJones":5311,"Ġschools":5312,"Ġcho":5313,"Ġdism":5314,"Ġsadi":5315,"Ġprint":5316,"Äĩ":5317,"Ġkram":5318,"Ġsangh":5319,"Ġuses":5320,"rapati":5321,"idhan":5322,"Ġpati":5323,"Ġprastut":5324,"Ġsubs":5325,"ĠHam":5326,"ĠVer":5327,"chaan":5328,"Ġgovernor":5329,"ĠTim":5330,"ĠTheir":5331,"ĠSo":5332,"igyanik":5333,"Ġvaj":5334,"Ġinside":5335,"Ġyard":5336,"Ġnai":5337,"ĠCross":5338,"ĠGreek":5339,"ĠDepartment":5340,"ĠKenn":5341,"Ġmarriage":5342,"Ġ1944":5343,"Ġdil":5344,"avik":5345,"Ġovers":5346,"Ġkintu":5347,"Ġthick":5348,"Ġsamsk":5349,"Ġrecomm":5350,"iance":5351,"illery":5352,"Ġefforts":5353,"Ġputr":5354,"ĠPost":5355,"chal":5356,"Ġmanaged":5357,"Ġmurder":5358,"Ġresulting":5359,"Ġspecific":5360,"Ġhydro":5361,"Ġmorning":5362,"Ġhero":5363,"Ġending":5364,"illed":5365,"Ġpurs":5366,"Ġik":5367,"Ġpropos":5368,"Ġvyavastha":5369,"Ġwords":5370,"Ġmultiple":5371,"eds":5372,"ires":5373,"Ġcell":5374,"ĠLoc":5375,"Ġvariety":5376,"Ġkalak":5377,"Ġenvironment":5378,"Ġprec":5379,"Ġvidy":5380,"isation":5381,"ĠThree":5382,"Ġanup":5383,"Ġforms":5384,"Ġsymb":5385,"utenant":5386,"inet":5387,"Ġ46":5388,"Ġnation":5389,"Ġmeaning":5390,"Ġincorpor":5391,"uju":5392,"ĠCare":5393,"Ġshowed":5394,"Ġresponsible":5395,"Ġrajdhani":5396,"Ġdropped":5397,"Ġtim":5398,"Ġseemaa":5399,"Ġkept":5400,"arden":5401,"aga":5402,"ĠFoot":5403,"Åį":5404,"gypt":5405,"Ġneeche":5406,"Ġbegins":5407,"Ġsuvid":5408,"ĠInfantry":5409,"ĠLad":5410,"Ġenjoy":5411,"itihaasik":5412,"ĠOp":5413,"track":5414,"Ġagast":5415,"Ġquality":5416,"Ġpaaya":5417,"ev":5418,"Ġprem":5419,"Ġcerem":5420,"ĠSimps":5421,"ĠService":5422,"Ġcyclone":5423,"alu":5424,"Ġbhagwaan":5425,"claim":5426,"Ġbag":5427,"Ġavas":5428,"Ġrachana":5429,"Ġsake":5430,"thel":5431,"arbh":5432,"Ġhast":5433,"peror":5434,"Ġaart":5435,"pa":5436,"ceeded":5437,"Ġ1988":5438,"ĠRecords":5439,"Ġhetu":5440,"Ġvip":5441,"Ġschol":5442,"Ġhouses":5443,"Ġgreater":5444,"Ġmarked":5445,"Ġpradarshit":5446,"ĠWilliams":5447,"Ġsap":5448,"Ġsearch":5449,"jon":5450,"ĠFin":5451,"Ġsaar":5452,"Ġunc":5453,"uz":5454,"Ġkos":5455,"Ġsamaapt":5456,"ĠCreek":5457,"Ġchem":5458,"udh":5459,"Ġinches":5460,"Ġkahani":5461,"Ġpick":5462,"Ġ1941":5463,"Ġcontinues":5464,"ĠMod":5465,"Ġshrinkhalaa":5466,"AS":5467,"Ġtail":5468,"ĠGames":5469,"Ġeconomic":5470,"Ġbackground":5471,"hr":5472,"ĠâĢĿ":5473,"Ġmedical":5474,"Ġtulana":5475,"Ġ1987":5476,"Ġgerman":5477,"Ġlap":5478,"Ġaadhunik":5479,"Ġrule":5480,"Ġandh":5481,"Ġsquadron":5482,"ĠParliament":5483,"ĠSecret":5484,"oper":5485,"ulations":5486,"Ġjune":5487,"ellig":5488,"Ġbeat":5489,"Ġrakh":5490,"Ġinterp":5491,"ĠStan":5492,"iksha":5493,"ĠPan":5494,"ĠSociety":5495,"ube":5496,"ĠEgypt":5497,"umber":5498,"Ġjok":5499,"Ġelectric":5500,"Ġfarm":5501,"Ġstarting":5502,"dha":5503,"Ġparam":5504,"13":5505,"Ġhundred":5506,"gs":5507,"Ġsettle":5508,"Ġlot":5509,"Ġallowing":5510,"Ġcorn":5511,"ĠLuc":5512,"istry":5513,"Ġconducted":5514,"Ġsheers":5515,"Ġproperty":5516,"Ġseg":5517,"asthan":5518,"Ġdisambar":5519,"jati":5520,"thur":5521,"isaki":5522,"Ġwebsite":5523,"yada":5524,"ĠSur":5525,"oma":5526,"Ġzile":5527,"rupt":5528,"kal":5529,"Ġchh":5530,"Ġstrugg":5531,"radesh":5532,"iel":5533,"Ġwo":5534,"iling":5535,"ĠSil":5536,"Ġ1986":5537,"Ġisliye":5538,"Ġbaz":5539,"Ġthings":5540,"Ġcard":5541,"Ġspot":5542,"Ġpotential":5543,"Ġpresence":5544,"ĠJer":5545,"Ġapril":5546,"Ġjuly":5547,"Ġsapt":5548,"Ġnirvachan":5549,"Ġprayaas":5550,"fort":5551,"Ġess":5552,"gian":5553,"Ġspasht":5554,"Ġimage":5555,"ĠBec":5556,"akes":5557,"Ġaate":5558,"perial":5559,"ĠSouthern":5560,"ĠCommittee":5561,"Ġviewers":5562,"Ġmind":5563,"Ġsitambar":5564,"Ġforeign":5565,"Ġmetres":5566,"Ġcontrast":5567,"Ġvin":5568,"ĠLatin":5569,"Ġscoring":5570,"Ġborder":5571,"ĠPrince":5572,"Ġpraant":5573,"ĠUp":5574,"Ġsides":5575,"Ġnikal":5576,"ĠTw":5577,"Ġthir":5578,"ĠBridge":5579,"Ġoon":5580,"ĠâĢľ":5581,"ĠLee":5582,"eekaar":5583,"ĠStephen":5584,"Ġfinancial":5585,"Ġjansankhya":5586,"Ġdevi":5587,"Ġtransl":5588,"Ġtransferred":5589,"Ġvarnan":5590,"Ġshiv":5591,"ĠOxford":5592,"Ġmanus":5593,"ĠSa":5594,"Ġbecomes":5595,"Ġghosh":5596,"Ġobtain":5597,"Ġtraffic":5598,"Ġstories":5599,"ental":5600,"Ġcollection":5601,"ĠHel":5602,"Ġdelay":5603,"ĠCaptain":5604,"Ġgat":5605,"ĠCamb":5606,"very":5607,"Ġmiltaa":5608,"Ġpeaked":5609,"Ġuttari":5610,"ivi":5611,"Ġpravesh":5612,"Ġenemy":5613,"Ġ54":5614,"ĠNews":5615,"Ġvocal":5616,"Ġmauju":5617,"Ġpashchimi":5618,"ashtrapati":5619,"Ġfounded":5620,"itv":5621,"aling":5622,"ĠJoseph":5623,"istics":5624,"Ġencoun":5625,"ĠClass":5626,"Ġowned":5627,"shi":5628,"Ġtoday":5629,"Ġver":5630,"aine":5631,"Ġvidhi":5632,"Ġmila":5633,"Ġtarget":5634,"ĠLike":5635,"stone":5636,"Ġattend":5637,"Ġanimals":5638,"hang":5639,"Ġappar":5640,"Ġpolicy":5641,"Ġank":5642,"Ġprabhavit":5643,"ĠAdmiral":5644,"Ġportion":5645,"Ġdog":5646,"Ġattempts":5647,"oph":5648,"Ġconcluded":5649,"ockey":5650,"ĠChief":5651,"vak":5652,"Ġstone":5653,"Ġprimarily":5654,"hag":5655,"ĠBoston":5656,"Ġrelatively":5657,"Ġcastle":5658,"Ġindependent":5659,"Ġfederal":5660,"ĠHor":5661,"Ġactually":5662,"Ġwrite":5663,"Ġrespond":5664,"karee":5665,"ova":5666,"Ġpurvi":5667,"hansabha":5668,"Ġscale":5669,"andh":5670,"Ġpsy":5671,"Ġ1943":5672,"Ġtourn":5673,"adel":5674,"Ġopport":5675,"ĠDire":5676,"ĠManchester":5677,"TV":5678,"ĠÎ":5679,"ategory":5680,"Ġmechan":5681,"ĠJeff":5682,"Ġsangrah":5683,"Ġzyada":5684,"kshe":5685,"ĠHarrison":5686,"Ġkhud":5687,"mark":5688,"Ġyadi":5689,"ĠSwed":5690,"iano":5691,"Ġdistance":5692,"Ġseat":5693,"ĠDar":5694,"Ġcontent":5695,"Ġpiece":5696,"ĠBecause":5697,"ĠBefore":5698,"force":5699,"ysis":5700,"Ġobserved":5701,"ĠSol":5702,"ĠDef":5703,"Ġfigure":5704,"ĠHurricane":5705,"ĠWind":5706,"Ġwaters":5707,"Ġacting":5708,"Ġlabel":5709,"right":5710,"Ġcamer":5711,"hakar":5712,"Ġactor":5713,"Ġtitled":5714,"ĠBBC":5715,"iced":5716,"Ġjournal":5717,"Ġokt":5718,"Ġswasth":5719,"Ġvistaar":5720,"Ġwriters":5721,"ashan":5722,"Ġpattern":5723,"Ġfeaturing":5724,"ĠWay":5725,"Ġdrushti":5726,"Ġstrength":5727,"rel":5728,"ĠFred":5729,"Ġtheory":5730,"Ġoktober":5731,"ĠCommission":5732,"onic":5733,"Ġpack":5734,"Ġaag":5735,"hampion":5736,"omy":5737,"80":5738,"Ġhus":5739,"Ġkah":5740,"Ġaarthik":5741,"Ġdistinct":5742,"Ġpurna":5743,"abeth":5744,"Ġsituation":5745,"Ġchina":5746,"Ġring":5747,"Ġduusari":5748,"ĠLife":5749,"Ġhaalanki":5750,"Ġwithdra":5751,"Ġcharge":5752,"Ġadhikansh":5753,"Ġparents":5754,"Ġjob":5755,"ĠLine":5756,"ĠOtt":5757,"Ġpasseng":5758,"ocks":5759,"mission":5760,"Ġera":5761,"Ġdise":5762,"ĠGi":5763,"Ġtrial":5764,"Ġmaster":5765,"Ġraajnneetik":5766,"Ġdivided":5767,"ĠSeries":5768,"Ġonto":5769,"ĠLittle":5770,"haaya":5771,"Ġcompanies":5772,"Ġplatform":5773,"Ġcollab":5774,"ĠBattalion":5775,"Ġconcent":5776,"adem":5777,"Ġbound":5778,"ĠColumb":5779,"ift":5780,"Ġdab":5781,"akh":5782,"pose":5783,"ĠSpec":5784,"Ġslightly":5785,"Ġaata":5786,"Ġparantu":5787,"ĠEntertain":5788,"Ġrating":5789,"stein":5790,"Ġchitra":5791,"Ġmish":5792,"Ġcab":5793,"ĠDun":5794,"umbai":5795,"Ġmaximum":5796,"ĠParis":5797,"Ġbroke":5798,"Ġpowerful":5799,"engal":5800,"Ġai":5801,"eshth":5802,"Ġta":5803,"Ġselling":5804,"ĠMat":5805,"Ġ1985":5806,"Ġconver":5807,"ĠArm":5808,"ĠHistor":5809,"Ġminim":5810,"Ġtorped":5811,"Ġinnings":5812,"arances":5813,"Ġstesan":5814,"Ġcinem":5815,"ĠLo":5816,"Ġudyog":5817,"Ġvim":5818,"Ġplays":5819,"Ġactions":5820,"Ġgati":5821,"iri":5822,"ĠBus":5823,"vania":5824,"Ġreject":5825,"Ġlic":5826,"Ġmadad":5827,"ĠPop":5828,"Ġ1984":5829,"Ġsusp":5830,"amous":5831,"Ġsamasya":5832,"Ġvidhansabha":5833,"haav":5834,"Ġgraph":5835,"saay":5836,"Ġsquare":5837,"aani":5838,"Ġmotor":5839,"ĠAcademy":5840,"Ġultimately":5841,"Ġrough":5842,"Ġdesignated":5843,"Ġcompletely":5844,"anes":5845,"Ġkimi":5846,"Ġislam":5847,"Ġnaval":5848,"Ġaty":5849,"rig":5850,"ĠCroat":5851,"Ġshik":5852,"aaki":5853,"Ġ53":5854,"Ġchannel":5855,"Ġ600":5856,"Ġfilmon":5857,"Ġresults":5858,"Ġpratinid":5859,"Ġproblem":5860,"teg":5861,"ĠYoung":5862,"Ġpaal":5863,"ela":5864,"alle":5865,"Ġlig":5866,"indu":5867,"ĠSaint":5868,"Ġsociety":5869,"ĠMuseum":5870,"Ġsought":5871,"AF":5872,"ques":5873,"Ġaakaar":5874,"Ġmainly":5875,"ĠMore":5876,"apore":5877,"Ġyatra":5878,"Ġpaddati":5879,"Ġsout":5880,"lekin":5881,"Ġwinter":5882,"Ġpuraane":5883,"Ġactivity":5884,"undar":5885,"Ġice":5886,"Ġuddes":5887,"Ġsources":5888,"olved":5889,"inated":5890,"osraa":5891,"Ġsuchi":5892,"Ġbott":5893,"ĠArab":5894,"ora":5895,"Ġprithvi":5896,"Ġmagn":5897,"lines":5898,"Ġvidhaan":5899,"Ġhospital":5900,"Ġthous":5901,"Ġsav":5902,"Ġaf":5903,"aayu":5904,"Ġcombined":5905,"Ġcalendar":5906,"Ġseconds":5907,"Ġofficials":5908,"Ġcalling":5909,"ĠEntertainment":5910,"ĠConf":5911,"wai":5912,"Ġstruck":5913,"asa":5914,"Ġrahati":5915,"Ġvess":5916,"ĠDen":5917,"Ġinfluenced":5918,"Ġsangra":5919,"Ġtun":5920,"Ġrequire":5921,"while":5922,"Ġsanskaran":5923,"Ġing":5924,"ctic":5925,"ĠItaly":5926,"Ġnikaal":5927,"atam":5928,"ĠAut":5929,"ori":5930,"Ġconsec":5931,"ĠNH":5932,"Ġalongside":5933,"ĠVan":5934,"Ġrakhane":5935,"Ġaustral":5936,"Ġglob":5937,"Ġnortheast":5938,"si":5939,"Ġkosh":5940,"Ġrecent":5941,"Ġuddeshy":5942,"Ġsystems":5943,"ĠMul":5944,"Ġvalue":5945,"aganana":5946,"Ġpadaa":5947,"itness":5948,"ading":5949,"Ġpav":5950,"Ġ177":5951,"iring":5952,"ĠBrigade":5953,"Ġdeliv":5954,"Ġdikhaai":5955,"Ġ97":5956,"Ġgreatest":5957,"rative":5958,"ĠAmericans":5959,"Ġmata":5960,"sher":5961,"Ġeye":5962,"Ġsust":5963,"Ġkya":5964,"ĠIre":5965,"ĠRay":5966,"Ġkis":5967,"new":5968,"Ġartists":5969,"Ġpuure":5970,"Ġreform":5971,"ĠStr":5972,"Ġengland":5973,"Ġsiddhant":5974,"Ġà":5975,"Ġarticle":5976,"Ġcrow":5977,"Ġpee":5978,"Ġusee":5979,"Ġnominated":5980,"Ġburn":5981,"yond":5982,"Ġeth":5983,"aapan":5984,"Ġsthaneey":5985,"Ġtrue":5986,"Ġdrug":5987,"Ġgained":5988,"Ġdistrict":5989,"angal":5990,"Ġweather":5991,"Ġjaankaree":5992,"ipur":5993,"Ġwidely":5994,"aagat":5995,"Ġtahat":5996,"sa":5997,"ĠTod":5998,"Ġconfirmed":5999,"Ġfarvari":6000,"uled":6001,"quarters":6002,"ned":6003,"ĠIreland":6004,"Ġmantri":6005,"ĠSub":6006,"ĠRegiment":6007,"las":6008,"Ġbehavi":6009,"ĠGood":6010,"Ġbuddha":6011,"Ġpromoted":6012,"Ġprachlit":6013,"pool":6014,"usion":6015,"Ġpassing":6016,"Ġhere":6017,"Ġaabaadi":6018,"Ġreaching":6019,"Ġresist":6020,"Ġsamskruti":6021,"Ġkarm":6022,"iksh":6023,"Ġproved":6024,"Ġjoin":6025,"Ġhusband":6026,"ĠShi":6027,"Ġduuri":6028,"lers":6029,"ĠAvenue":6030,"Ġhands":6031,"Ġexplained":6032,"Ġcouncil":6033,"rog":6034,"Ġpilot":6035,"Ġaal":6036,"osa":6037,"Ġpeace":6038,"Ġnorthwest":6039,"Ġkshamta":6040,"Ġsubsequent":6041,"ĠFleet":6042,"Ġsens":6043,"inium":6044,"prise":6045,"Ġcoming":6046,"Ġesc":6047,"Ġalbums":6048,"hid":6049,"Ġstudies":6050,"ĠLie":6051,"Ġstreet":6052,"Ġbanaae":6053,"Ġspect":6054,"Ġversions":6055,"Ġsamarthan":6056,"Ġdharmik":6057,"asthaa":6058,"Ġniyantran":6059,"Ġinvasion":6060,"Ġrekha":6061,"aniyon":6062,"uy":6063,"ega":6064,"ĠOrig":6065,"onn":6066,"Ġdweep":6067,"Ġsixth":6068,"Ġghoshnaa":6069,"pit":6070,"Ġbhai":6071,"tation":6072,"atar":6073,"Ġaayaa":6074,"Ġaisi":6075,"plement":6076,"dev":6077,"Ġyojit":6078,"Ġserve":6079,"Ġdigital":6080,"Ġsays":6081,"Ġlin":6082,"Ġshortly":6083,"Ġcities":6084,"utt":6085,"Ġredu":6086,"Ġexpressed":6087,"Ġcausing":6088,"Ġphysical":6089,"Ġbik":6090,"Ġ56":6091,"Ġjanaganana":6092,"dy":6093,"Ġlaunch":6094,"town":6095,"Ġsense":6096,"Ġreception":6097,"ĠVictoria":6098,"ĠVol":6099,"Ġtower":6100,"lie":6101,"ĠCatholic":6102,"Ġtip":6103,"ipedia":6104,"ĠTropical":6105,"Ġsamrajya":6106,"izabeth":6107,"Ġkg":6108,"ishy":6109,"pton":6110,"Ġprashas":6111,"aja":6112,"Ġadhyaksh":6113,"Ġsexual":6114,"ĠValley":6115,"Ġsports":6116,"Ġvil":6117,"Ġvruddhi":6118,"Ġresidents":6119,"Ġparinaam":6120,"Ġvishisht":6121,"Ġpaper":6122,"etar":6123,"ĠLive":6124,"Ġemot":6125,"ĠLight":6126,"ĠEle":6127,"Ġdrive":6128,"ĠCy":6129,"Ġtable":6130,"Ġje":6131,"Ġ95":6132,"Ġprer":6133,"Ġstadium":6134,"igat":6135,"Ġbrown":6136,"ĠMiddle":6137,"Ġ1971":6138,"Ġ1968":6139,"Ġprakaash":6140,"Ġkad":6141,"Ġhun":6142,"Ġseasons":6143,"Ġdang":6144,"Ġappearances":6145,"Ġcommunic":6146,"Ġvyapak":6147,"Ġsanskrit":6148,"nay":6149,"Ġ{":6150,"Ġolder":6151,"Ġiron":6152,"Ġstudent":6153,"Ġbadh":6154,"Ġidentified":6155,"Ġjinhone":6156,"embly":6157,"Ġjaae":6158,"ĠWat":6159,"ĠWW":6160,"his":6161,"Ġsenior":6162,"aavaran":6163,"Ġoffer":6164,"Ġdollar":6165,"Ġ85":6166,"Ġarmbh":6167,"where":6168,"ĠStud":6169,"Ġavoid":6170,"Ġbegin":6171,"Ġdedic":6172,"ĠRa":6173,"ĠCarl":6174,"Ġtells":6175,"Ġstep":6176,"ĠShow":6177,"isaa":6178,"Ġ1972":6179,"known":6180,"Ġfan":6181,"Ġshell":6182,"Ġrepresented":6183,"Ġsuraksha":6184,"ivity":6185,"eekshan":6186,"oty":6187,"gia":6188,"ighth":6189,"ĠDani":6190,"Ġlaws":6191,"icks":6192,"baad":6193,"ĠInde":6194,"Ġsudhaar":6195,"Ġweight":6196,"Ġfloor":6197,"Ġartillery":6198,"Ġhors":6199,"ĠCra":6200,"bad":6201,"sing":6202,"inus":6203,"Ġ41":6204,"acu":6205,"oured":6206,"Ġbataaya":6207,"car":6208,"Ġcompar":6209,"Ġweapons":6210,"Ġahead":6211,"mana":6212,"Ġ1967":6213,"Ġinstrument":6214,"ĠFootball":6215,"Ġjinhen":6216,"Ġrob":6217,"ĠThrough":6218,"ĠTri":6219,"Ġpage":6220,"Ġnegoti":6221,"Ġspread":6222,"ĠTay":6223,"Ġnirdes":6224,"Ġalone":6225,"Ġped":6226,"ĠWeek":6227,"anon":6228,"Ġ1983":6229,"zar":6230,"Ġheavily":6231,"ĠDutch":6232,"pedition":6233,"Ġkhe":6234,"Ġmatter":6235,"Ġsaamne":6236,"ĠUpon":6237,"Ġkaren":6238,"arian":6239,"Ġchikitsa":6240,"Ġreference":6241,"achaar":6242,"ĠFe":6243,"Ġprishth":6244,"ĠTem":6245,"ĠTop":6246,"ĠJul":6247,"hara":6248,"Ġsetting":6249,"Ġdefense":6250,"Ġudhaaharan":6251,"Ġnob":6252,"ographer":6253,"Ġofficially":6254,"Ġdaa":6255,"Ġpoet":6256,"illy":6257,"ĠIll":6258,"Ġsoundtrack":6259,"Ġpict":6260,"Ġgrowth":6261,"Ġeas":6262,"ĠHome":6263,"Ġ99":6264,"Ġorganization":6265,"Ġexecutive":6266,"Ġlaal":6267,"acity":6268,"Ġ1982":6269,"Ġequipment":6270,"Ġcapture":6271,"Ġfigures":6272,"Ġresc":6273,"Ġbazaar":6274,"anic":6275,"Ġdebuted":6276,"Ġinjury":6277,"Ġ120":6278,"Ġ1939":6279,"Ġprominent":6280,"ange":6281,"Ġhall":6282,"ĠRog":6283,"Ġconsisted":6284,"Ġsweekaar":6285,"Ġven":6286,"Ġjar":6287,"Ġjisane":6288,"Ġsansad":6289,"ĠSystem":6290,"do":6291,"Ġbhoomi":6292,"Ġtechni":6293,"Ġfired":6294,"Ġdoing":6295,"hew":6296,"ĠCivil":6297,"Ġchair":6298,"Ġsuit":6299,"Ġvishes":6300,"rance":6301,"Ġcert":6302,"Ġhotel":6303,"Ġdefend":6304,"ĠBond":6305,"ĠIS":6306,"Ġbed":6307,"Ġsingles":6308,"Ġhabit":6309,"Ġargued":6310,"Ġkrishna":6311,"struction":6312,"Ġaired":6313,"Ġfat":6314,"waroop":6315,"neey":6316,"Ġ59":6317,"ifying":6318,"iana":6319,"Ġbhug":6320,"chand":6321,"ĠMen":6322,"ĠHy":6323,"Ġ1975":6324,"antly":6325,"Ġ74":6326,"tan":6327,"andhan":6328,"Ġcouple":6329,"Ġearth":6330,"manit":6331,"Ġcontemporary":6332,"ĠHomer":6333,"Ġreturning":6334,"Ġprotect":6335,"uting":6336,"hood":6337,"ushed":6338,"Ġleaders":6339,"ĠThough":6340,"Ġelse":6341,"Ġdoub":6342,"ĠRom":6343,"Ġraashtrapati":6344,"Ġdyn":6345,"eller":6346,"Ġtree":6347,"Ġkarn":6348,"ĠNorthern":6349,"ĠRam":6350,"vy":6351,"Ġaffected":6352,"Ġaim":6353,"Ġlaid":6354,"Ġeditor":6355,"Ġurja":6356,"Ġavadhi":6357,"Ġsanstha":6358,"film":6359,"ĠHard":6360,"Ġrakt":6361,"Ġpieces":6362,"ĠBor":6363,"Ġ1979":6364,"nan":6365,"Ġnak":6366,"shaq":6367,"Ġ1969":6368,"Ġaitihaasik":6369,"Ġmaintained":6370,"lan":6371,"under":6372,"zy":6373,"Ġuniversity":6374,"Ġactivities":6375,"Ġcomes":6376,"Ġweb":6377,"Ġlaabh":6378,"aatmak":6379,"Ġ*":6380,"Ġmaa":6381,"eshi":6382,"orks":6383,"Ġoccasion":6384,"Ġnirmit":6385,"Ġvisited":6386,"Ġtournament":6387,"Ġspeech":6388,"aya":6389,"Ġpareekshan":6390,"Ġcart":6391,"Ġsambandhi":6392,"intend":6393,"imet":6394,"kan":6395,"ĠMi":6396,"Ġcriticized":6397,"ĠJon":6398,"urb":6399,"ĠStorm":6400,"Ġ1964":6401,"Ġsaptarshi":6402,"Ġworldwide":6403,"estic":6404,"box":6405,"Ġ1973":6406,"Ġgir":6407,"Ġcitiz":6408,"ocked":6409,"clusion":6410,"cell":6411,"Ġguest":6412,"Ġ72":6413,"Ġpashchaat":6414,"Ġ1965":6415,"ĠCarolina":6416,"ĠGovernment":6417,"yam":6418,"Ġfer":6419,"udios":6420,"Ġformation":6421,"Ġmilakar":6422,"Ġsanthaan":6423,"Ġkris":6424,"Ġaspect":6425,"Ġadapt":6426,"Ġreign":6427,"vard":6428,"Ġtoward":6429,"Ġnivas":6430,"ruit":6431,"Ġfeed":6432,"Ġelement":6433,"Ġterritory":6434,"Ġplanet":6435,"ima":6436,"Ġguard":6437,"Ġsadas":6438,"hens":6439,"Ġumr":6440,"Ġtrying":6441,"Ġdub":6442,"Ġstations":6443,"Ġcrowd":6444,"tam":6445,"ĠScottish":6446,"elve":6447,"Ġatm":6448,"ucky":6449,"rane":6450,"era":6451,"ĠCD":6452,"Ġpaidaa":6453,"Ġmachine":6454,"ĠDistrict":6455,"Ġfollows":6456,"Ġ76":6457,"velopment":6458,"Ġlit":6459,"syl":6460,"Ġtrees":6461,"uti":6462,"ĠOcean":6463,"Ġniti":6464,"hio":6465,"ĠWrit":6466,"Ġspring":6467,"Ġkingdom":6468,"Ġfram":6469,"Ġvyavsaay":6470,"Ġfair":6471,"omers":6472,"ĠOperation":6473,"Ġfully":6474,"ĠMD":6475,"Ġbirds":6476,"Ġtherefore":6477,"ĠShort":6478,"ĠGovernor":6479,"Ġsurvey":6480,"Ġaccident":6481,"Ġclaims":6482,"Ġaddress":6483,"Ġfiction":6484,"arsha":6485,"ĠFantasy":6486,"Ġdiz":6487,"Ġhomes":6488,"Ġpancha":6489,"ĠField":6490,"ĠBackground":6491,"Ġadj":6492,"Ġreports":6493,"icient":6494,"Ġhistorian":6495,"stitution":6496,"ritv":6497,"ĠCastle":6498,"Ġsupply":6499,"ĠGuard":6500,"Ġ1976":6501,"ledge":6502,"ĠRod":6503,"Ġtreatment":6504,"ĠColon":6505,"Ġtu":6506,"Ġchosen":6507,"ĠBa":6508,"Ġrainfall":6509,"Ġfrequently":6510,"ĠDuke":6511,"ĠPers":6512,"Ġape":6513,"ojna":6514,"isters":6515,"Ġpaksh":6516,"Ġ1966":6517,"Ġsahyog":6518,"Ġton":6519,"FA":6520,"Ġtwice":6521,"ads":6522,"aste":6523,"ryst":6524,"osis":6525,"ĠMarsh":6526,"ĠLew":6527,"Ġdrama":6528,"ĠGirl":6529,"Ġcancer":6530,"Ġopin":6531,"Ġhyp":6532,"izes":6533,"ĠStudios":6534,"uchit":6535,"Ġ1974":6536,"BA":6537,"Ã¨":6538,"imb":6539,"Ġbacchon":6540,"Ġescape":6541,"Ġdescript":6542,"ĠPolish":6543,"rich":6544,"Ġtaap":6545,"Ġsanket":6546,"Ġspirit":6547,"ĠGre":6548,"Ġdoosraa":6549,"Ġkaaryak":6550,"Ġwild":6551,"Ġleaves":6552,"Ġpahchaan":6553,"fe":6554,"Ġsimply":6555,"Ġnikat":6556,"ufact":6557,"Ġ2018":6558,"Ġvyavhaar":6559,"ãĤ":6560,"ĠEastern":6561,"Ġ62":6562,"Ġpratish":6563,"Ġbillion":6564,"Ġrajasthan":6565,"Ġsilver":6566,"ĠLiber":6567,"ricult":6568,"Ġnor":6569,"enc":6570,"Ġ51":6571,"Ġenter":6572,"Ġkhand":6573,"ĠSenate":6574,"Ġwalls":6575,"Ġmanufact":6576,"ĠNight":6577,"yahaan":6578,"ĠSn":6579,"ilit":6580,"Ġasia":6581,"agree":6582,"Ġ178":6583,"Ġfaced":6584,"Ġ800":6585,"hyat":6586,"Ġ66":6587,"Ġprashi":6588,"Ġoperated":6589,"aapas":6590,"Ġtypically":6591,"Ġmoment":6592,"mo":6593,"rical":6594,"ĠLib":6595,"Ġcontained":6596,"ĠAndrew":6597,"Ġmist":6598,"Ġarms":6599,"din":6600,"ĠCorn":6601,"hase":6602,"wall":6603,"Ġgrew":6604,"ĠBart":6605,"Ġsurrounding":6606,"ĠDam":6607,"Ġdinon":6608,"okt":6609,"Ġcannot":6610,"ĠDev":6611,"Ġmanagement":6612,"Ġimpress":6613,"ĠHan":6614,"Ġausat":6615,"ĠChristmas":6616,"Ġpunjab":6617,"Ġtask":6618,"Ġdiam":6619,"ĠPennsyl":6620,"Ġelim":6621,"Ġexperiment":6622,"Ġpi":6623,"Ġnative":6624,"Ġherself":6625,"Ġwicket":6626,"Ġparampara":6627,"mond":6628,"Ġfuel":6629,"oshit":6630,"Ġ09":6631,"Ġwounded":6632,"Ġpasses":6633,"ĠAllied":6634,"ĠMean":6635,"Ġchalleng":6636,"Ġattra":6637,"Ġmant":6638,"ĠDet":6639,"iny":6640,"Ġpaha":6641,"Ġpas":6642,"ĠRet":6643,"Ġnothing":6644,"Ġraashtra":6645,"ĠWilson":6646,"Ġattrib":6647,"Ġadvanced":6648,"ato":6649,"abh":6650,"Ġauthority":6651,"fully":6652,"Ġpraa":6653,"ĠTaylor":6654,"ĠSS":6655,"Ġvote":6656,"Ġeg":6657,"Ġlives":6658,"ĠWhat":6659,"Ġorders":6660,"ĠAlexander":6661,"Ã¤":6662,"Ġassault":6663,"Ġshooting":6664,"Ġconsecutive":6665,"ĠEs":6666,"Ġhonor":6667,"Ġwaapas":6668,"Ġshift":6669,"Ġserving":6670,"Ġunknown":6671,"Ġyogadan":6672,"Ġmaujuud":6673,"Ġ1948":6674,"Ġbass":6675,"ultan":6676,"Ġopposed":6677,"Ġchalaa":6678,"ented":6679,"ĠOf":6680,"Ġshaadi":6681,"apur":6682,"Ġchose":6683,"Ġlagata":6684,"umi":6685,"Ġemphas":6686,"Ġactors":6687,"ĠPen":6688,"Ġvivaah":6689,"Ġworkers":6690,"ĠJac":6691,"Ġnewly":6692,"Ġ77":6693,"Ġgrowing":6694,"Ġnetritv":6695,"Ġroll":6696,"Ġcollap":6697,"Ġonline":6698,"ĠEach":6699,"Ġparticipated":6700,"Ġbor":6701,"ĠJoe":6702,"water":6703,"Ġpich":6704,"rain":6705,"Ġbenef":6706,"Ġkat":6707,"essions":6708,"haane":6709,"Ġproducers":6710,"Ġ1981":6711,"Ġsuvidha":6712,"arti":6713,"Ġcasual":6714,"Ġraksha":6715,"Ġmarg":6716,"yata":6717,"anka":6718,"aayi":6719,"Ġnormal":6720,"ĠFestival":6721,"Ġswatantra":6722,"Ġbasis":6723,"Ġsequence":6724,"Ġcoal":6725,"ĠBlue":6726,"Ġseek":6727,"ĠNi":6728,"Ġlosing":6729,"Ġcapacity":6730,"Ġadopted":6731,"Ġfilming":6732,"Ġnegative":6733,"Ġheard":6734,"Ġadh":6735,"Ġflying":6736,"Ġthik":6737,"Ġoffensive":6738,"Ġtempl":6739,"Ġiniti":6740,"Ġsevere":6741,"ĠPennsylvania":6742,"Ġswe":6743,"Ġagent":6744,"likhit":6745,"ĠIslands":6746,"Ġsadasyon":6747,"Ġ1977":6748,"Ġoppon":6749,"Ġopposition":6750,"antraa":6751,"Ġupg":6752,"Ġanusandhan":6753,"ĠCard":6754,"ĠChart":6755,"ĠBab":6756,"ĠInstitute":6757,"Ġcreating":6758,"Ġrisk":6759,"haayak":6760,"Ġnewspaper":6761,"Ġboat":6762,"Ġends":6763,"Ġnimn":6764,"ĠGall":6765,"Ġsanra":6766,"Ġbij":6767,"reey":6768,"Ġpoll":6769,"Ġker":6770,"inger":6771,"ĠJun":6772,"Ġadvant":6773,"Ġnaatak":6774,"ĠSound":6775,"Ġsev":6776,"Ġprastaav":6777,"ĠThir":6778,"Ġstrike":6779,"then":6780,"Ġproduct":6781,"Ġsandarbh":6782,"Ġhorses":6783,"Ġx":6784,"ĠMike":6785,"Ġali":6786,"Ġpariy":6787,"gon":6788,"ĠReception":6789,"ĠIrish":6790,"ladesh":6791,"Ġvaa":6792,"gu":6793,"ĠCa":6794,"Ġprompt":6795,"Ġabandoned":6796,"Ġrival":6797,"Ġsym":6798,"Ġsambhav":6799,"Ġlekhak":6800,"ĠFurther":6801,"isers":6802,"edom":6803,"isse":6804,"ĠBeat":6805,"Ġagreement":6806,"Ġexpansion":6807,"Ġbhashaaon":6808,"Ġchoti":6809,"Ġmaang":6810,"Ġelev":6811,"Ġ250":6812,"more":6813,"Ġcontain":6814,"Ġ67":6815,"Ġawards":6816,"gh":6817,"adelphi":6818,"ĠRadi":6819,"Ġcolumn":6820,"Ġdetii":6821,"urat":6822,"Ġmeasure":6823,"ĠHarry":6824,"Ġpratishat":6825,"Ġsamiti":6826,"antraaa":6827,"uous":6828,"ĠSpain":6829,"ĠJersey":6830,"Ġlanding":6831,"lav":6832,"uses":6833,"Ġindividuals":6834,"Ġregarded":6835,"aka":6836,"Ġflu":6837,"Ġfailure":6838,"Ġhistorical":6839,"mouth":6840,"yat":6841,"Ġswasthya":6842,"mal":6843,"Ġsemi":6844,"Ġfilmed":6845,"cul":6846,"haps":6847,"athy":6848,"pond":6849,"otic":6850,"Ġstore":6851,"Ġimag":6852,"Ġ1918":6853,"Ġmaid":6854,"Ġintellig":6855,"Ġbeyond":6856,"Ġcriticism":6857,"udyog":6858,"Ġnit":6859,"Ġhair":6860,"Ġincident":6861,"Ġadministration":6862,"ella":6863,"Ġdisha":6864,"plies":6865,"ĠCoast":6866,"Ġdial":6867,"Ġ2017":6868,"ĠSquare":6869,"room":6870,"Ġinhen":6871,"Ġtaraf":6872,"Ġnote":6873,"adelphia":6874,"ĠPublic":6875,"Ġfamous":6876,"Ġjanata":6877,"Ġbheetar":6878,"osi":6879,"Ġnecessary":6880,"ĠDan":6881,"vajanik":6882,"Ġdeploy":6883,"Ġ1947":6884,"ĠForm":6885,"Ġ1978":6886,"Ġpossibly":6887,"Ġ63":6888,"set":6889,"Ġbodies":6890,"kins":6891,"Ġinhone":6892,"Ġrecon":6893,"Ġdismiss":6894,"Ġgamb":6895,"199":6896,"Ġparalle":6897,"Ġbelieve":6898,"ĠâĪ":6899,"Ġapplic":6900,"Ġsteel":6901,"Ġpratiyog":6902,"Ġrear":6903,"apers":6904,"ifications":6905,"Ġgad":6906,"Ġkami":6907,"Ġ1914":6908,"Ġvak":6909,"Ġachieved":6910,"met":6911,"Ġideas":6912,"Ġprarambh":6913,"Ġdisease":6914,"ĠFre":6915,"uchi":6916,"Ġhasil":6917,"ĠIsra":6918,"ĠBre":6919,"Ġarthath":6920,"Ġmahilaon":6921,"Ġlakh":6922,"ket":6923,"Ġroles":6924,"Ġdefin":6925,"Ġnarrow":6926,"Ġsamudaay":6927,"Ġstri":6928,"ario":6929,"rophy":6930,"Ġlen":6931,"Ġisse":6932,"ĠLand":6933,"ĠProduction":6934,"Ġretired":6935,"range":6936,"Ġkilling":6937,"Ġfellow":6938,"ienced":6939,"uccess":6940,"arked":6941,"iverpool":6942,"Ġpeeche":6943,"ĠMid":6944,"rin":6945,"ici":6946,"chhee":6947,"yt":6948,"ritik":6949,"imate":6950,"Ġinfantry":6951,"mat":6952,"Ġrow":6953,"endra":6954,"eeb":6955,"ĠArthur":6956,"ĠBul":6957,"ĠRevolution":6958,"Ġrepeated":6959,"pati":6960,"Ġsolo":6961,"taur":6962,"ishan":6963,"Ġrit":6964,"Ġbeaut":6965,"ng":6966,"oking":6967,"ĠBroad":6968,"Ġpurpose":6969,"Ġtaaki":6970,"Ġperman":6971,"Ġtrav":6972,"Ġleadership":6973,"Ġ73":6974,"ĠDa":6975,"Ġeffective":6976,"Ġti":6977,"ĠDue":6978,"Ġtorpedo":6979,"vish":6980,"ĠPerson":6981,"Ġarmed":6982,"ĠLes":6983,"Ġtrip":6984,"Ġwave":6985,"Ġ1946":6986,"Ġbriefly":6987,"Ġvaar":6988,"Ġreceive":6989,"iments":6990,"Ġinterchange":6991,"ĠBoard":6992,"Ġ1962":6993,"ĠElizabeth":6994,"Ġcrossing":6995,"Ġsplit":6996,"ĠSand":6997,"ĠCub":6998,"Ġanimal":6999,"Ġgranted":7000,"stream":7001,"ĠGerm":7002,"Ġbudget":7003,"Ġ160":7004,"Ġshakha":7005,"Ġtry":7006,"Ġjayega":7007,"inity":7008,"Ġlearn":7009,"Ġupanya":7010,"Ġinteg":7011,"Ġpersonnel":7012,"Ġroads":7013,"Ġplants":7014,"Ġrejected":7015,"Ġsort":7016,"Ġgross":7017,"ĠDoctor":7018,"ĠMos":7019,"Ġimproved":7020,"Ġtypes":7021,"ĠMeanwhile":7022,"Ġdeck":7023,"Ġrachan":7024,"Ġcomic":7025,"Ġpadataa":7026,"Ġtwelve":7027,"ĠDur":7028,"oln":7029,"ĠRepublican":7030,"Ġkhilaadi":7031,"Ġkilometres":7032,"Ġtechnology":7033,"Ġsurr":7034,"ĠAlbum":7035,"Ġextensive":7036,"porters":7037,"iger":7038,"avalry":7039,"Ġpatni":7040,"ĠUl":7041,"Ġ1956":7042,"arib":7043,"Ġfranch":7044,"Ġprefer":7045,"Ġstraight":7046,"Ġvajah":7047,"Ġdescribes":7048,"Ġcultural":7049,"Ġturns":7050,"Ġexpanded":7051,"utik":7052,"Ġbroken":7053,"ĠLind":7054,"ĠOhio":7055,"25":7056,"fal":7057,"Ġyellow":7058,"Ġhighlight":7059,"Ġexhib":7060,"Ġchoice":7061,"acter":7062,"ĠRos":7063,"Ġplaces":7064,"zer":7065,"Ġevacu":7066,"isf":7067,"cÃ©":7068,"alam":7069,"amem":7070,"avan":7071,"Ġaid":7072,"Ġgives":7073,"ĠCham":7074,"Ġsecurity":7075,"break":7076,"wat":7077,"ĠSecretary":7078,"Ġsuccessfully":7079,"Ġandolan":7080,"tire":7081,"ĠBook":7082,"Ġvijay":7083,"ĠAre":7084,"Ġanuk":7085,"Ġdidn":7086,"Ġ87":7087,"asthit":7088,"roll":7089,"Ġparib":7090,"ĠJud":7091,"ornament":7092,"40":7093,"Ġexplos":7094,"Ġjul":7095,"Ġ1963":7096,"iland":7097,"ĠSR":7098,"Ġtheatre":7099,"Ġic":7100,"Ġguru":7101,"Ġcreation":7102,"ĠGal":7103,"Ġorganized":7104,"Ġkavi":7105,"ĠBas":7106,"Ġfought":7107,"astra":7108,"Ġtend":7109,"ĠDoug":7110,"Ġperfect":7111,"ĠMov":7112,"Ġhaj":7113,"Ġprotection":7114,"Ġcaught":7115,"olt":7116,"ays":7117,"Ġsuggests":7118,"Ġseventh":7119,"hus":7120,"Ġcommittee":7121,"etts":7122,"Ġvehicles":7123,"Ġnuclear":7124,"Ġislands":7125,"Ġcommissioned":7126,"aana":7127,"Ġassociation":7128,"Ġroof":7129,"Ġchah":7130,"Ġacquired":7131,"ĠEven":7132,"Ġsammaan":7133,"Ġdakshini":7134,"Ġancient":7135,"Ġprakritik":7136,"worth":7137,"Ġstrik":7138,"shik":7139,"aayein":7140,"Ġlooking":7141,"ĠCambridge":7142,"Ġpariyojna":7143,"ĠGeorgia":7144,"illing":7145,"ĠAlso":7146,"Ġheight":7147,"adon":7148,"Ġmuslim":7149,"gal":7150,"Ġmuj":7151,"Ġjh":7152,"Ġsoftware":7153,"ĠEp":7154,"Ġliber":7155,"Ġarc":7156,"Ġjisaki":7157,"Ġwal":7158,"Ġ69":7159,"Ġconvers":7160,"Ġfish":7161,"andi":7162,"Ġjat":7163,"Ġchit":7164,"Ġsahaayak":7165,"Ġsets":7166,"ĠHit":7167,"Ġcommonly":7168,"Ġalle":7169,"umes":7170,"ĠPhiladelphia":7171,"Ġcomedy":7172,"Ġangrezi":7173,"Ġencoura":7174,"cles":7175,"rary":7176,"rithik":7177,"anied":7178,"ĠAddition":7179,"Ġdetermined":7180,"iyr":7181,"Ġkr":7182,"Ġrequest":7183,"Ġstanding":7184,"ĠHon":7185,"Ġgenus":7186,"Ġauthorities":7187,"Ġgandhi":7188,"apane":7189,"Ġcontrolled":7190,"igg":7191,"opher":7192,"Ġpesh":7193,"Ġheadquarters":7194,"attle":7195,"Ġkas":7196,"Ġrecently":7197,"Ġmentioned":7198,"outs":7199,"chae":7200,"ĠRussia":7201,"Ġchaah":7202,"Ġacid":7203,"Ġcenturies":7204,"mun":7205,"oye":7206,"Ġprovides":7207,"stead":7208,"ĠKar":7209,"Ġmumbai":7210,"agi":7211,"Ġillust":7212,"Ġandar":7213,"Ġec":7214,"ĠSund":7215,"mod":7216,"Ġbengal":7217,"Ġgather":7218,"yaad":7219,"Ġcontaining":7220,"Ġdoctor":7221,"hanth":7222,"utation":7223,"Ġvahi":7224,"shire":7225,"burgh":7226,"Ġfamilies":7227,"ĠNever":7228,"Ġunique":7229,"Ġfinds":7230,"Ġnrity":7231,"Ġdecre":7232,"restling":7233,"intendo":7234,"Ġdepict":7235,"Ġfran":7236,"ĠPoint":7237,"Ġfresh":7238,"rak":7239,"Ġentertain":7240,"Ġkick":7241,"Ġadvert":7242,"isp":7243,"ĠRel":7244,"adak":7245,"ĠWars":7246,"Ġay":7247,"Ġdanc":7248,"ĠAmong":7249,"Ġpiano":7250,"ĠLiverpool":7251,"Ġtitles":7252,"Ġexisting":7253,"Ġdhire":7254,"Ġgang":7255,"ashmir":7256,"ĠDevelopment":7257,"Ġchuke":7258,"Ġsinging":7259,"Ġ96":7260,"Ġvidha":7261,"raq":7262,"yles":7263,"arts":7264,"Ġconference":7265,"ĠNintendo":7266,"respond":7267,"ographic":7268,"Ġtank":7269,"ĠColumbia":7270,"Ġnag":7271,"Ġthing":7272,"ĠRol":7273,"Ġfinish":7274,"ĠPrime":7275,"Ġanubhav":7276,"skrithik":7277,"ĠAsia":7278,"ĠCommon":7279,"itled":7280,"avi":7281,"Ġaank":7282,"Ġmaal":7283,"Ġswatantraaa":7284,"Ġsaarvajanik":7285,"Ġbattalion":7286,"Ġphilos":7287,"Ġsport":7288,"Ġadvent":7289,"Ġentirely":7290,"aalon":7291,"ĠLinc":7292,"Ġlibr":7293,"riday":7294,"ĠPot":7295,"Ġsaamagree":7296,"ĠBad":7297,"Ġparibhaas":7298,"Ġorche":7299,"Ġgananaa":7300,"ĠJean":7301,"Ġshah":7302,"Ġwalk":7303,"ĠHead":7304,"Ġsin":7305,"Ġaw":7306,"ĠWel":7307,"Ġpowers":7308,"Ġfix":7309,"Ġcontributed":7310,"Ġaj":7311,"ĠMot":7312,"Ġconve":7313,"ĠKorean":7314,"ĠBurn":7315,"Ġstock":7316,"eekaran":7317,"Ġsimple":7318,"ĠLincoln":7319,"Ġkatha":7320,"Ġprabandhan":7321,"pet":7322,"ĠGil":7323,"ĠVen":7324,"leton":7325,"Ġwhy":7326,"Ġacchhee":7327,"icial":7328,"Ġtouchdown":7329,"Ġatmosp":7330,"Ġdarsh":7331,"Ġdefence":7332,"Ġdefined":7333,"Ġavasthaa":7334,"aire":7335,"athit":7336,"Ġthemes":7337,"Ġatyant":7338,"Ġ1917":7339,"Ġyounger":7340,"ĠBrazil":7341,"isha":7342,"ĠKen":7343,"Ġdetect":7344,"Ġkriya":7345,"ĠPeople":7346,"Ġspecim":7347,"Ġparishad":7348,"Ġanuwaad":7349,"ĠLieutenant":7350,"harsh":7351,"Ġcurrently":7352,"oles":7353,"ĠOffice":7354,"Ġworth":7355,"ĠOrder":7356,"Ġquite":7357,"Ġflooding":7358,"Ġolymp":7359,"Ġdwitiya":7360,"Ġdefensive":7361,"ips":7362,"ĠArg":7363,"Ġindustrial":7364,"igarh":7365,"Ġmountain":7366,"atures":7367,"ĠJewish":7368,"Ġlocations":7369,"AT":7370,"po":7371,"Ġscheduled":7372,"kai":7373,"Ġ2019":7374,"inton":7375,"Ġhousehold":7376,"Ġpurchased":7377,"Ġdurg":7378,"ager":7379,"Ġ88":7380,"ĠSingapore":7381,"Ġlagu":7382,"ĠBalt":7383,"Ġunus":7384,"ĠFrancisco":7385,"Ġvictim":7386,"Ġarrival":7387,"Ġresemb":7388,"Ġmanyata":7389,"irt":7390,"ounder":7391,"Ġ68":7392,"Ġceremony":7393,"Ġadvantage":7394,"Ġaccompanied":7395,"ĠSix":7396,"Ġvaigyanik":7397,"Ġexpedition":7398,"Ġtalk":7399,"ĠGrant":7400,"Ġgend":7401,"eless":7402,"Ġsarkari":7403,"inke":7404,"Ġanumati":7405,"ĠPo":7406,"Ġdedicated":7407,"ĠEll":7408,"achus":7409,"ĠDisney":7410,"Ġ1961":7411,"Ġshan":7412,"Ġperforming":7413,"ĠPress":7414,"Station":7415,"ĠKey":7416,"Ġmouth":7417,"Ġextrem":7418,"inth":7419,"ĠHay":7420,"ochna":7421,"Ġselection":7422,"ĠâĪĴ":7423,"Ġfil":7424,"Ġpainting":7425,"ĠCarey":7426,"dem":7427,"ĠLewis":7428,"Ġgaiyr":7429,"Ġech":7430,"Ġholding":7431,"Ġanalysis":7432,"Ġnij":7433,"Ġtamil":7434,"Ã¡n":7435,"Ġlakshan":7436,"Ġtii":7437,"Ġobserv":7438,"Ġmounted":7439,"ners":7440,"ĠPlayStation":7441,"Ġintensity":7442,"ĠLu":7443,"ashion":7444,"Ġdaily":7445,"Ġgur":7446,"yer":7447,"Ġletters":7448,"Ġben":7449,"Ġjaa":7450,"Ġphen":7451,"Ġoccupied":7452,"zen":7453,"ishes":7454,"mid":7455,"uls":7456,"ĠUr":7457,"Ġautom":7458,"bhartiya":7459,"ĠHMS":7460,"Ġcarry":7461,"ĠSus":7462,"Ġmyth":7463,"ĠBell":7464,"ĠDie":7465,"ghan":7466,"zant":7467,"Ġconsists":7468,"ĠUN":7469,"Ġrated":7470,"ĠDark":7471,"heim":7472,"Ġsammanit":7473,"ordan":7474,"Ġjaisi":7475,"Ġclosely":7476,"Ġcharts":7477,"Ġvansh":7478,"aadee":7479,"ded":7480,"Ġrise":7481,"mes":7482,"Ġbaav":7483,"Ġbalki":7484,"vyav":7485,"ĠKel":7486,"ĠTurn":7487,"ĠConference":7488,"Ġsession":7489,"Ġforest":7490,"nu":7491,"ĠAnderson":7492,"Ġbelong":7493,"Ġcorrespond":7494,"Ġfirm":7495,"Ġprotected":7496,"ĠSteve":7497,"ĠMiller":7498,"ĠRadio":7499,"omic":7500,"ĠHa":7501,"ologist":7502,"Ġub":7503,"ordon":7504,"ĠOlympic":7505,"wad":7506,"Ġagar":7507,"Ġmast":7508,"cop":7509,"ĠBrian":7510,"Ġparallel":7511,"Ġvastu":7512,"ju":7513,"Ġsut":7514,"agle":7515,"Ġtrains":7516,"Ġsupporting":7517,"Ġescort":7518,"ĠIV":7519,"Ġroop":7520,"Ġ700":7521,"Ġ89":7522,"Ġlabor":7523,"Ġfacilities":7524,"Ġaadhik":7525,"Ġboats":7526,"Ġadap":7527,"Ġdekhne":7528,"Ġsecondary":7529,"shereshth":7530,"Ġeyes":7531,"ĠOnce":7532,"Ġdrawn":7533,"Ġcalls":7534,"edi":7535,"Ġchampion":7536,"Ġvaastavik":7537,"apar":7538,"Ġ1919":7539,"icip":7540,"Ġjoint":7541,"Ġregions":7542,"ĠEnd":7543,"Ġtall":7544,"peh":7545,"Ġmotion":7546,"Ġrajyon":7547,"Ġcra":7548,"ĠByzant":7549,"ĠRailway":7550,"Ġestate":7551,"Ġusase":7552,"Ġregiment":7553,"FL":7554,"Ġresident":7555,"Ġshabdon":7556,"Ġacadem":7557,"ĠNHL":7558,"Ġvisual":7559,"Ġstructures":7560,"ocated":7561,"Ġmicro":7562,"Ġzyaad":7563,"uske":7564,"Ġpros":7565,"ca":7566,"igyaan":7567,"Ġsubmar":7568,"ĠShar":7569,"Ġnotable":7570,"nat":7571,"uva":7572,"eman":7573,"ruce":7574,"poration":7575,"ĠEmperor":7576,"ulate":7577,"Ġexer":7578,"Ġwatch":7579,"Ġbranch":7580,"ĠWater":7581,"Ġ1957":7582,"Ġanumaan":7583,"Ġsaj":7584,"Ġcamera":7585,"Ã¸":7586,"ĠNap":7587,"anning":7588,"Ġproviding":7589,"Ġpush":7590,"avar":7591,"rect":7592,"Ġreceiving":7593,"Ġopportunity":7594,"Ġvishaal":7595,"Ġfocused":7596,"Ġkadi":7597,"Ġvivid":7598,"Ġcitizens":7599,"Ġengaged":7600,"onia":7601,"ropri":7602,"upar":7603,"ĠJr":7604,"rapradesh":7605,"Ġneut":7606,"ĠSummer":7607,"Ġ130":7608,"Ġlie":7609,"mann":7610,"Ġhill":7611,"ĠGulf":7612,"Ġexperienced":7613,"Ġunf":7614,"Ġsites":7615,"ĠChap":7616,"22":7617,"Ġ1915":7618,"yo":7619,"aanaa":7620,"Ġmuseum":7621,"gaa":7622,"ĠGer":7623,"Ġkrishi":7624,"Ġathlet":7625,"ĠHollywood":7626,"ĠSpecial":7627,"ĠAtt":7628,"Ġsarvshereshth":7629,"Ġvon":7630,"Ġvolume":7631,"Ġsundar":7632,"Ġreaction":7633,"Ġindia":7634,"Ġandhrapradesh":7635,"ĠOnly":7636,"ifically":7637,"Ġsymbol":7638,"adu":7639,"ĠGermans":7640,"Ġrecognized":7641,"ĠWalter":7642,"Ġtemperature":7643,"laa":7644,"rik":7645,"Ġmoder":7646,"Ġ1936":7647,"ĠDavis":7648,"ĠReview":7649,"Ġviewed":7650,"Ġgain":7651,"Ġnirnay":7652,"Ġ1938":7653,"Ġmohammad":7654,"ĠGib":7655,"Ġund":7656,"Ġshared":7657,"Ġrasht":7658,"apaas":7659,"Ġmukhyalay":7660,"AR":7661,"Ġhired":7662,"Ġsoutheast":7663,"ĠDaniel":7664,"uhik":7665,"achi":7666,"Ġteach":7667,"Ġinke":7668,"ĠTiT":7669,"Ġ79":7670,"ĠTiP":7671,"Ġdoor":7672,"Ġmash":7673,"cription":7674,"Ġpublication":7675,"ae":7676,"Ġtoornament":7677,"Ġrapidly":7678,"nagar":7679,"Ġscholars":7680,"ĠYe":7681,"Ġgativid":7682,"adhikansh":7683,"Ġet":7684,"Ġrend":7685,"Ġcold":7686,"Ġstrengthen":7687,"ĠLet":7688,"Ġthrow":7689,"ĠBank":7690,"iform":7691,"Ġsahi":7692,"Ġ94":7693,"ĠDemocratic":7694,"ĠFall":7695,"Ġsho":7696,"Ġalp":7697,"Ġprojects":7698,"Ġcells":7699,"Ġadding":7700,"Ġtransform":7701,"Ġpoem":7702,"unte":7703,"standing":7704,"Ġcontest":7705,"unka":7706,"Ġrare":7707,"Ġvay":7708,"Ġtrail":7709,"Ġreflect":7710,"Ġeconomy":7711,"Ġflat":7712,"Ġlagaaya":7713,"Ġ1953":7714,"Ġexact":7715,"Ġchance":7716,"Ġpaint":7717,"Ġregister":7718,"Ġedge":7719,"ĠSerb":7720,"Ġsaanskrithik":7721,"Ġcasualties":7722,"ĠBetween":7723,"math":7724,"ĠRome":7725,"yug":7726,"ĠBeyon":7727,"Ġmig":7728,"haara":7729,"Ġdry":7730,"Ġ1955":7731,"charya":7732,"asty":7733,"Ġ1958":7734,"ĠJour":7735,"Ġmukt":7736,"Ġurban":7737,"Ġdeveloping":7738,"Ġ1916":7739,"Ġtik":7740,"athi":7741,"position":7742,"Ġglass":7743,"ĠGreg":7744,"Ġempl":7745,"ĠTele":7746,"Ġsteam":7747,"atv":7748,"urr":7749,"Ġintersection":7750,"Ġnimnlikhit":7751,"Ġ}":7752,"Ġsave":7753,"Ġ1954":7754,"mand":7755,"Ġ1952":7756,"Ġmart":7757,"Ġshas":7758,"Ġjeeta":7759,"Ġcars":7760,"come":7761,"ĠWomen":7762,"Ġchalata":7763,"iful":7764,"Ġapproved":7765,"Äģ":7766,"Ġenl":7767,"Ġ98":7768,"ĠBal":7769,"Ġstrip":7770,"ĠNaz":7771,"Ġdomestic":7772,"Ġgol":7773,"sey":7774,"Ġnirmaat":7775,"Ġactress":7776,"Ġaadhikarik":7777,"Ġgoes":7778,"bl":7779,"Ġdisapp":7780,"Ġapar":7781,"ceived":7782,"ĠElect":7783,"21":7784,"kshak":7785,"Ġheads":7786,"ĠLady":7787,"Ġksh":7788,"Ġ1959":7789,"Ġlosses":7790,"ĠDaily":7791,"rif":7792,"Ġallows":7793,"Ġrules":7794,"Ġbands":7795,"Ġprepared":7796,"kul":7797,"ĠMain":7798,"ĠIndust":7799,"Ġlaut":7800,"Ġbelief":7801,"Ġsignificantly":7802,"Ġliterature":7803,"Ġcool":7804,"ĠMuslim":7805,"inate":7806,"Ġmaatr":7807,"iber":7808,"Ġvirodh":7809,"Ġmode":7810,"Ġtanks":7811,"Ġstream":7812,"Ġveen":7813,"Ġwitness":7814,"Ġvivaad":7815,"ĠSE":7816,"Ġanything":7817,"ĠMalay":7818,"Ġtowns":7819,"Ġlb":7820,"uts":7821,"ĠNic":7822,"haj":7823,"ĠSyd":7824,"Ġabhinayta":7825,"Ġgadh":7826,"Ġreasons":7827,"marg":7828,"Ġparvat":7829,"Ġshape":7830,"Ġknew":7831,"Ġsouthwest":7832,"Ġaamtaur":7833,"ĠMu":7834,"Ġpatrika":7835,"ĠTen":7836,"agement":7837,"vest":7838,"Ġhen":7839,"Ġjaanch":7840,"ĠBeyoncÃ©":7841,"ĠEarl":7842,"Ġmilti":7843,"wart":7844,"Ġlov":7845,"Ġmahaan":7846,"Ġprasaar":7847,"Ġunsuccess":7848,"Ġmessage":7849,"Ġtrust":7850,"Ġcollect":7851,"Ġchampionships":7852,"Ġroughly":7853,"ĠHun":7854,"Ġvidwaan":7855,"ĠCommand":7856,"Ġkendriya":7857,"Ġcam":7858,"ichay":7859,"Ġisol":7860,"iller":7861,"Ġresistance":7862,"aji":7863,"oir":7864,"Ġaustralia":7865,"BS":7866,"Ġshall":7867,"ĠStation":7868,"oshi":7869,"Ġsimit":7870,"ĠFair":7871,"state":7872,"ker":7873,"Ġreserve":7874,"Ġign":7875,"appe":7876,"Ġfranchise":7877,"wise":7878,"Ġcore":7879,"Ġdow":7880,"theless":7881,"Ġ84":7882,"wing":7883,"Ġjon":7884,"Ġru":7885,"Ġcharan":7886,"ĠAD":7887,"vya":7888,"iley":7889,"Ġsakriy":7890,"viv":7891,"Ġbrothers":7892,"Ġmaamle":7893,"ĠMem":7894,"Ġneighbor":7895,"onym":7896,"ĠSupreme":7897,"ĠColonel":7898,"jood":7899,"Ġhogi":7900,"Ġagricult":7901,"Ġmir":7902,"Ġgameplay":7903,"ĠSpring":7904,"Ġnick":7905,"Ġrevers":7906,"ĠAsh":7907,"Ġsamuhik":7908,"ĠRoss":7909,"Ġstoryline":7910,"Ġyouth":7911,"Ġjaisaa":7912,"Ġmissing":7913,"Ġemployed":7914,"Ġalternative":7915,"wani":7916,"Ġaath":7917,"Ġgetting":7918,"Ġinjured":7919,"Ġperhaps":7920,"ilding":7921,"ĠKentucky":7922,"ĠIndepend":7923,"Ġwatched":7924,"Ġconnected":7925,"Ġkoshish":7926,"bell":7927,"ĠMas":7928,"print":7929,"Ġopinion":7930,"Ġviews":7931,"Ġcomposition":7932,"ilon":7933,"Ġpopularity":7934,"Ġmahe":7935,"unhen":7936,"bound":7937,"aware":7938,"Ġbaari":7939,"Ġmobile":7940,"Ġpraudyog":7941,"Ġ1937":7942,"Ġ1949":7943,"ĠPict":7944,"inamen":7945,"Ġphone":7946,"Ġdescription":7947,"Ġconverted":7948,"Ġplanning":7949,"Ġrenamed":7950,"Ġregarding":7951,"Ġpsych":7952,"ĠBern":7953,"Ġ175":7954,"load":7955,"ĠNorway":7956,"Ġaasapaas":7957,"ayen":7958,"ĠBall":7959,"ropol":7960,"Ġdeclined":7961,"gers":7962,"Ġenjoyed":7963,"ĠChild":7964,"Ġsubstant":7965,"uka":7966,"Ġnirdhaarit":7967,"ĠAlb":7968,"Ġinstall":7969,"ancy":7970,"ĠMTV":7971,"Ġdepth":7972,"Ġshaped":7973,"Ġkumaar":7974,"Ġdena":7975,"ĠKir":7976,"Ġ86":7977,"Ġreputation":7978,"ĠOlympics":7979,"rets":7980,"Ġbanaai":7981,"phone":7982,"ĠDream":7983,"Ġbasket":7984,"Ġdrew":7985,"ĠRon":7986,"ĠBase":7987,"Ġolympic":7988,"ulpt":7989,"Ġstages":7990,"Ġapeksha":7991,"eti":7992,"ador":7993,"erts":7994,"Ġretire":7995,"Ġcredit":7996,"24":7997,"akan":7998,"ĠRhod":7999,"Ġsthanon":8000,"ĠMassachus":8001,"Ġcited":8002,"Ġdistingu":8003,"Ġequal":8004,"Ġknowledge":8005,"Ġbaavjood":8006,"Ġeasily":8007,"eral":8008,"Ġtees":8009,"Ġlimit":8010,"ĠGram":8011,"rations":8012,"Ġnaa":8013,"ĠAbb":8014,"ĠAirport":8015,"Ġparish":8016,"ĠMassachusetts":8017,"gram":8018,"zed":8019,"Ġsanrachana":8020,"arner":8021,"Ġjourney":8022,"Ġsurya":8023,"Ġheaded":8024,"Ġchukaa":8025,"Ġbhautik":8026,"Ġauth":8027,"Ġprachaar":8028,"Ġexpect":8029,"ses":8030,"Ġbhojan":8031,"attan":8032,"Ġincreasingly":8033,"adhar":8034,"ĠAC":8035,"Ġshaasha":8036,"à¦":8037,"ĠFree":8038,"Ġeld":8039,"Ġpaae":8040,"muk":8041,"ĠClark":8042,"dhar":8043,"Ġhits":8044,"Ġturning":8045,"ĠTro":8046,"amily":8047,"varsh":8048,"Ġgujar":8049,"Ġmaheene":8050,"Ġcampus":8051,"jha":8052,"Ġ110":8053,"Ġcong":8054,"Ġnirbhar":8055,"Ġapproached":8056,"Ġalc":8057,"Ġconstitution":8058,"Ġpaud":8059,"Ġnijee":8060,"Ġkahin":8061,"Ġjor":8062,"Ġfashion":8063,"ĠSel":8064,"Ġresponded":8065,"Ġlagane":8066,"ĠAbout":8067,"ĠGolden":8068,"ĠGree":8069,"Ġoperating":8070,"riff":8071,"ignment":8072,"akshi":8073,"Ġopera":8074,"Ġexistence":8075,"ilarly":8076,"ĠClar":8077,"ataka":8078,"Ġacademy":8079,"ikh":8080,"Ġupachaar":8081,"Ġsoochna":8082,"ĠHart":8083,"Ġric":8084,"Ġcollected":8085,"Ġvidyut":8086,"Ġsynt":8087,"ishi":8088,"Ġbes":8089,"Ġreact":8090,"Ġchini":8091,"Ġsucceeded":8092,"ĠDown":8093,"Ġsafety":8094,"Ġintroduction":8095,"Ġmodels":8096,"Ġsagar":8097,"Ġprajati":8098,"Ġ93":8099,"Ġnas":8100,"rod":8101,"Ġexchange":8102,"nik":8103,"Ġhip":8104,"Ġcollabor":8105,"Ġshowing":8106,"Ġpuja":8107,"Ġdetails":8108,"Ġoccas":8109,"ĠMcG":8110,"Ġglobal":8111,"Ġach":8112,"Ġimprove":8113,"Ġvent":8114,"igen":8115,"ĠSimpsons":8116,"ĠPu":8117,"Ġlearned":8118,"Ġmaanate":8119,"Ġniyukt":8120,"Ġsolid":8121,"Ġphase":8122,"Ġrhy":8123,"Ġ1951":8124,"Ġnaag":8125,"Ġsustained":8126,"Ġpromotion":8127,"raaj":8128,"Ġswaroop":8129,"friend":8130,"pes":8131,"âĢ":8132,"asthiti":8133,"Ġscientific":8134,"Ġparas":8135,"Ġlagaat":8136,"Ġsamar":8137,"Ġsafalataa":8138,"Ġplate":8139,"ook":8140,"Ġsangharsh":8141,"ĠSongs":8142,"Ġcarrying":8143,"Ġstatement":8144,"Ġmedal":8145,"Ġaayojan":8146,"Ġdizin":8147,"ophy":8148,"Ġbaseball":8149,"Ġjain":8150,"Ġ1910":8151,"Ġassistant":8152,"ĠImperial":8153,"ources":8154,"Ġkashmir":8155,"Ġseems":8156,"Ġhumans":8157,"Ġformula":8158,"asham":8159,"igation":8160,"ĠRem":8161,"ĠVietnam":8162,"Ġju":8163,"Ġcredited":8164,"Ġsidd":8165,"Ġburied":8166,"aken":8167,"ĠCape":8168,"ĠIr":8169,"insula":8170,"Ġarranged":8171,"Ġitems":8172,"Ġprograms":8173,"ĠSher":8174,"Ġaae":8175,"fl":8176,"Ġghatana":8177,"Ġod":8178,"andy":8179,"BN":8180,"col":8181,"Ġchale":8182,"ĠOttoman":8183,"Ġsections":8184,"bro":8185,"Ġproducing":8186,"Ġgall":8187,"ĠAv":8188,"mantri":8189,"Ġdesigns":8190,"uct":8191,"lected":8192,"Ġproceed":8193,"Ġearliest":8194,"ĠBon":8195,"Ġweakened":8196,"ĠPoland":8197,"Ġabhiyaan":8198,"aug":8199,"Ġkavy":8200,"ĠSydney":8201,"ĠShortly":8202,"Ġstre":8203,"ĠKa":8204,"Ġgadhwal":8205,"inois":8206,"Ġsettlement":8207,"Ġretained":8208,"Ġprayukt":8209,"time":8210,"Ġlasted":8211,"Ġpolitics":8212,"Ġcrown":8213,"ĠRoy":8214,"Ġacha":8215,"Ġkendra":8216,"23":8217,"Ġ06":8218,"ivalent":8219,"Ġfreeway":8220,"Ġnimna":8221,"Ġdistribution":8222,"Ġtag":8223,"ĠNaval":8224,"ĠMaryland":8225,"Ġnayaa":8226,"Ġlandfall":8227,"Ġsegment":8228,"Ġunion":8229,"Ġapplied":8230,"ĠPrin":8231,"Ġacres":8232,"Ġstrot":8233,"Ġrebu":8234,"racy":8235,"Ġexclus":8236,"ĠIG":8237,"ĠPass":8238,"ĠRese":8239,"Ġvishwaas":8240,"Ġ61":8241,"ĠMoore":8242,"Ġwars":8243,"issance":8244,"Ġgenre":8245,"othes":8246,"Ġchint":8247,"AC":8248,"ection":8249,"vaal":8250,"rett":8251,"Ġprotein":8252,"Ġ71":8253,"ĠArts":8254,"Ġindependence":8255,"inic":8256,"leep":8257,"Ġconsequ":8258,"ĠJes":8259,"Ġwr":8260,"ederation":8261,"vartmaan":8262,"Ġkarod":8263,"Ġpraarambhik":8264,"Ġplayoff":8265,"body":8266,"ĠMarg":8267,"Ġ08":8268,"Ġtemplate":8269,"egaa":8270,"iÄĩ":8271,"Ġnishchit":8272,"cious":8273,"onge":8274,"Ġvac":8275,"Ġpunar":8276,"Ġeuropea":8277,"ĠSat":8278,"Ġalt":8279,"Ġcandidate":8280,"ĠWWE":8281,"Ġcalc":8282,"Ġviolence":8283,"Ġfilled":8284,"Ġcoastal":8285,"Ġduty":8286,"hare":8287,"ĠAnt":8288,"Ġpret":8289,"Ġcombination":8290,"pad":8291,"Ġentrance":8292,"Ġvimaan":8293,"Ġsculpt":8294,"areet":8295,"ushti":8296,"aaz":8297,"Ġmadh":8298,"Ġbattery":8299,"kum":8300,"ĠWho":8301,"elson":8302,"ennis":8303,"Ġjude":8304,"Ġindicated":8305,"Ġshel":8306,"Ġways":8307,"yar":8308,"hedral":8309,"haayen":8310,"ĠBowl":8311,"Ġlete":8312,"iration":8313,"Ġbottom":8314,"Ġtact":8315,"Ġrevolution":8316,"Å¡":8317,"Ġhang":8318,"leshan":8319,"Ġakraman":8320,"tiyon":8321,"Ġgradually":8322,"raat":8323,"ĠCommun":8324,"ĠRun":8325,"ĠPhilip":8326,"Ġbait":8327,"Ġdelivered":8328,"Ġ1935":8329,"iran":8330,"iege":8331,"rum":8332,"Ġdarshata":8333,"wich":8334,"Ġstopped":8335,"Ġzone":8336,"Ġengines":8337,"Ġprincipal":8338,"ÅĤ":8339,"ether":8340,"Ġparties":8341,"Ġunamem":8342,"waii":8343,"ogen":8344,"itors":8345,"Ġimages":8346,"ĠUnivers":8347,"Ġentry":8348,"izations":8349,"chers":8350,"ĠPremi":8351,"ician":8352,"eline":8353,"ĠJan":8354,"Ġsampark":8355,"pective":8356,"Ġbhaagon":8357,"ĠMulder":8358,"Ġattract":8359,"Ġacts":8360,"aath":8361,"ĠNick":8362,"Ġreferences":8363,"Ġmanushya":8364,"ĠCop":8365,"Ġcompon":8366,"Ġtaree":8367,"ĠGordon":8368,"obi":8369,"iah":8370,"Ġsupplies":8371,"udhaaharan":8372,"Ġkaaryon":8373,"Ġfinding":8374,"Ġcheck":8375,"Ġmemorial":8376,"Ġityadi":8377,"Ġvaish":8378,"hetic":8379,"27":8380,"Ġvaid":8381,"ĠStadium":8382,"Ġdipl":8383,"Ġappeal":8384,"Ġprisoners":8385,"Ġpes":8386,"Ġbom":8387,"ĠWell":8388,"Ġchota":8389,"Ġmort":8390,"ĠMap":8391,"rell":8392,"ĠInc":8393,"Ġ1933":8394,"Ġbachche":8395,"iyar":8396,"ĠProf":8397,"Ġextremely":8398,"ĠRhodes":8399,"Ġbil":8400,"Ġadapted":8401,"Ġprofessor":8402,"Ġsnow":8403,"Ġsecure":8404,"Ġevening":8405,"Ġbhed":8406,"Ġekal":8407,"Ġimplement":8408,"Ġvipareet":8409,"26":8410,"Ġjim":8411,"ĠRose":8412,"Ġswim":8413,"ĠKim":8414,"Ġemploye":8415,"py":8416,"Ġentitled":8417,"Ġdecade":8418,"Ġtick":8419,"ables":8420,"Ġsail":8421,"lic":8422,"ĠBand":8423,"ĠFire":8424,"ĠStaff":8425,"ĠÃĹ":8426,"Ġ1900":8427,"Ġbasic":8428,"ĠTheatre":8429,"Ġuncle":8430,"bourne":8431,"Ġbond":8432,"Ġsell":8433,"ervative":8434,"Ġber":8435,"Ġparisth":8436,"asat":8437,"ĠJay":8438,"iversary":8439,"Ġproposal":8440,"senal":8441,"Ġwinner":8442,"Ġteacher":8443,"Ġsambhaav":8444,"ansas":8445,"Ġbrigade":8446,"Ġruled":8447,"Ġinvestigation":8448,"Ġrus":8449,"Ġconsum":8450,"ĠGam":8451,"ĠHere":8452,"Ġlandan":8453,"idden":8454,"Ġstret":8455,"ĠHamil":8456,"ĠAnth":8457,"vaale":8458,"Ġshop":8459,"Ġreduce":8460,"Ġthreatened":8461,"entially":8462,"unction":8463,"ĠEric":8464,"Ġupanyaas":8465,"lease":8466,"Ġved":8467,"Ġrelief":8468,"Ġinternal":8469,"Ġbought":8470,"Ġproducts":8471,"ĠJustice":8472,"ĠSpace":8473,"Ġ83":8474,"ĠPower":8475,"Ġspecifically":8476,"Ġmaamalon":8477,"Ġprice":8478,"Ġsurvived":8479,"Ġknots":8480,"Ġsirf":8481,"Ġbeem":8482,"Ġwrites":8483,"Ġstudied":8484,"Ġ07":8485,"chen":8486,"ronic":8487,"Ġkrit":8488,"Ġdeaths":8489,"oi":8490,"Ġreligion":8491,"The":8492,"ĠDrag":8493,"ĠVII":8494,"Ġmales":8495,"Ġroutes":8496,"bra":8497,"Ġunp":8498,"ĠMoon":8499,"elu":8500,"Ġspeak":8501,"Ġcauses":8502,"phir":8503,"Ġprashikshan":8504,"Ġfict":8505,"ieval":8506,"ĠInstead":8507,"Ġspons":8508,"Ġsoul":8509,"Ġpurn":8510,"ĠAge":8511,"ucks":8512,"Ġcorner":8513,"gam":8514,"oz":8515,"ĠMun":8516,"ighters":8517,"phoon":8518,"Ġvoted":8519,"pti":8520,"Ġdriving":8521,"Ġnis":8522,"ĠShak":8523,"ĠJane":8524,"porter":8525,"Ġbritain":8526,"kes":8527,"Ġmap":8528,"Ġago":8529,"Ġelectronic":8530,"Ġdepartment":8531,"ĠØ":8532,"Ġid":8533,"Ġdress":8534,"Ġdrishy":8535,"BI":8536,"Ġemerg":8537,"than":8538,"actions":8539,"Ġdream":8540,"ĠEngine":8541,"Ġeverything":8542,"ĠMemorial":8543,"Ġimportance":8544,"Ġrecalled":8545,"Ġwides":8546,"Ġchaut":8547,"Ġrestaur":8548,"Ġbreeding":8549,"rome":8550,"Ġportrayed":8551,"Ġmedic":8552,"oked":8553,"ingly":8554,"Ġinterested":8555,"ĠAlbert":8556,"ĠTony":8557,"Ġcontroversy":8558,"atinum":8559,"ĠInt":8560,"Ġsancha":8561,"onto":8562,"ĠKong":8563,"Ġnepal":8564,"Ġcapable":8565,"weep":8566,"Ġu":8567,"Ġoffers":8568,"Ġcrossed":8569,"Ġones":8570,"ĠFA":8571,"Ġreturns":8572,"hitiv":8573,"Ġfoundation":8574,"Ġmemory":8575,"aven":8576,"Ġrich":8577,"ĠMcK":8578,"crib":8579,"Ġapart":8580,"Ġmeters":8581,"Ġpreced":8582,"Ġowner":8583,"Ġvidhayak":8584,"prat":8585,"Ġwealth":8586,"Ġnomination":8587,"ĠDirector":8588,"Ġconvin":8589,"Ġgha":8590,"ridges":8591,"Ġrose":8592,"chang":8593,"ĠAlan":8594,"ĠPhilipp":8595,"Ġrecommended":8596,"Ġactual":8597,"28":8598,"Ġtell":8599,"real":8600,"Ġghoshit":8601,"ĠSingles":8602,"iar":8603,"Ġinkaa":8604,"rence":8605,"Ġfly":8606,"Ġraat":8607,"Ġconcerns":8608,"Ġinstalled":8609,"Ġarrested":8610,"Ġcrim":8611,"Ġmail":8612,"emies":8613,"uma":8614,"Ġadhikari":8615,"Ġobjects":8616,"Ġ176":8617,"imon":8618,"Ġdates":8619,"ottar":8620,"ĠAdams":8621,"Ġbangladesh":8622,"ĠSimon":8623,"ĠIGN":8624,"ĠConstant":8625,"oys":8626,"Ġadmitted":8627,"raded":8628,"Ġfunds":8629,"Ġpraudyogiki":8630,"mus":8631,"Ġinvited":8632,"Ġretreat":8633,"Ġequipped":8634,"ĠYour":8635,"Ġpenal":8636,"Ġbrahman":8637,"ĠCritical":8638,"Ġadhinium":8639,"sky":8640,"Ġsug":8641,"ĠWild":8642,"ructure":8643,"ĠâĤ":8644,"Ġmaanak":8645,"aaji":8646,"Ġpratya":8647,"Ġcod":8648,"osaurus":8649,"inals":8650,"ĠHamilton":8651,"Ġpratinidhitiv":8652,"urd":8653,"ĠFound":8654,"Ġconqu":8655,"ĠNBA":8656,"ĠBeach":8657,"Ġfit":8658,"Ġstarts":8659,"shar":8660,"ĠAri":8661,"Ġdemonst":8662,"ĠBir":8663,"ĠBos":8664,"know":8665,"Ġkid":8666,"rete":8667,"ĠAf":8668,"ĠVideo":8669,"ranean":8670,"Ġcrime":8671,"ĠCE":8672,"Ġej":8673,"ĠAlf":8674,"ĠAdam":8675,"Ġremainder":8676,"Ġcharged":8677,"ĠCirc":8678,"ĠPit":8679,"anj":8680,"ĠDra":8681,"Ġevolution":8682,"Ġsheersh":8683,"Ġextension":8684,"Ġvirt":8685,"Ġkoshika":8686,"ĠPlot":8687,"Ġkathin":8688,"IA":8689,"Ġsomeone":8690,"Ġpromote":8691,"Ġusamen":8692,"pread":8693,"Ġblow":8694,"Ġromantic":8695,"Ġrakhte":8696,"ĠResearch":8697,"Ġ05":8698,"veland":8699,"Ġcommit":8700,"Ġmush":8701,"tic":8702,"ĠTa":8703,"ĠDeath":8704,"ĠIndones":8705,"Ġfemales":8706,"Ġtakn":8707,"formula":8708,"Ġconsisting":8709,"Ġcomposer":8710,"Ġintelligence":8711,"ĠIron":8712,"ĠJenn":8713,"Ġidentity":8714,"Ġnest":8715,"Ġhope":8716,"oard":8717,"ĠRi":8718,"Ġparliament":8719,"ĠVill":8720,"andar":8721,"Ġpup":8722,"ĠLeon":8723,"ghanistan":8724,"Ġrural":8725,"Ġbon":8726,"ĠCult":8727,"Ġcloud":8728,"Ġrajmarg":8729,"Ġlagi":8730,"Ġcolour":8731,"Ġaer":8732,"Ġaayu":8733,"chak":8734,"ĠGun":8735,"elan":8736,"RA":8737,"ensus":8738,"Ġtej":8739,"Ġtypical":8740,"Ġskin":8741,"Ġconsiderable":8742,"ĠProject":8743,"ooth":8744,"hibit":8745,"ĠMedia":8746,"Ġwed":8747,"ĠNether":8748,"Ġfields":8749,"Ġlagaataar":8750,"Ġfrag":8751,"ĠMilitary":8752,"Ġsaare":8753,"Ġsakasham":8754,"lets":8755,"ĠAst":8756,"Ġkavita":8757,"Ġ170":8758,"ĠToday":8759,"Ġjit":8760,"Ġtemple":8761,"Ġsole":8762,"ader":8763,"Ġreading":8764,"Ġunited":8765,"Ġmanner":8766,"Ġclasses":8767,"ĠTransport":8768,"ĠKennedy":8769,"Ġug":8770,"Ġtan":8771,"Ġduties":8772,"vements":8773,"uta":8774,"Ġ1932":8775,"Ġgrounds":8776,"Ġhydrogen":8777,"Ġformal":8778,"ogy":8779,"iders":8780,"Ġhawaii":8781,"Ġupkaran":8782,"ĠScience":8783,"Ġ1934":8784,"Ġpermanent":8785,"Ġoccurs":8786,"Ġclean":8787,"ione":8788,"alee":8789,"Ġremix":8790,"ĠHoward":8791,"Ġeighth":8792,"ĠInit":8793,"ui":8794,"Ġvistrut":8795,"ĠSunday":8796,"jal":8797,"Ġequivalent":8798,"ensions":8799,"ĠIndiana":8800,"Ġaspects":8801,"Ġlane":8802,"Ġcompris":8803,"Ġdecades":8804,"Ġterminus":8805,"ĠNorwe":8806,"ef":8807,"Ġ1921":8808,"Ġdhaat":8809,"ĠISBN":8810,"Ġalcoh":8811,"ĠLyn":8812,"Ġpasand":8813,"ĠWork":8814,"aten":8815,"Ġfreedom":8816,"ĠPortug":8817,"aleen":8818,"ĠScully":8819,"Ġdated":8820,"iman":8821,"aatar":8822,"Ġchallenge":8823,"Ġaati":8824,"Ġhockey":8825,"Ġpig":8826,"Ġpaalan":8827,"erto":8828,"ĠWalk":8829,"ĠHitler":8830,"Ġlaksh":8831,"chant":8832,"Ġvolcan":8833,"yas":8834,"ĠFive":8835,"Ġlekhan":8836,"oslav":8837,"Ġ1926":8838,"Ġfine":8839,"Ġnoting":8840,"Ġnetaa":8841,"Ġposted":8842,"Ġnyaayalay":8843,"Ġflo":8844,"Ġsarvaadhik":8845,"Ġprakaashan":8846,"Ġgyaat":8847,"ĠBry":8848,"ikrut":8849,"ubb":8850,"ĠSin":8851,"hyapi":8852,"ĠBush":8853,"ĠStand":8854,"regon":8855,"ĠTurk":8856,"ĠBi":8857,"soft":8858,"Ġdescribing":8859,"Ġvirus":8860,"after":8861,"ĠBrist":8862,"Ġ1927":8863,"Ġinvolving":8864,"ĠOb":8865,"ĠAssembly":8866,"Ġsupporters":8867,"Ġslowly":8868,"Ġ1931":8869,"ivals":8870,"Ġcryst":8871,"AAF":8872,"osed":8873,"Ġyahi":8874,"Ġobtained":8875,"erted":8876,"Ġinher":8877,"Ġwarm":8878,"Ġtivi":8879,"Ġentering":8880,"Ġcategory":8881,"Ġfoss":8882,"Ġdebate":8883,"western":8884,"Ġvide":8885,"cape":8886,"Ġjunior":8887,"Ġvessels":8888,"mic":8889,"Ġpatrol":8890,"ĠConc":8891,"Ġfaith":8892,"ĠDisc":8893,"Ġairport":8894,"Ġyad":8895,"ĠDig":8896,"Ġyani":8897,"Ġenemies":8898,"ĠConstitution":8899,"Ġshots":8900,"risis":8901,"Ġrig":8902,"Ġinternet":8903,"Ġsettled":8904,"Ġcinema":8905,"ilation":8906,"Ġcolony":8907,"Ġoldest":8908,"Ġtorn":8909,"ares":8910,"ĠWeb":8911,"Ġ1912":8912,"Ġconnection":8913,"ĠMountain":8914,"ĠRolling":8915,"Ġselect":8916,"Ġmulya":8917,"Ġlikhi":8918,"ĠPier":8919,"Ġarmor":8920,"Ġjapan":8921,"ĠMagazine":8922,"ĠHou":8923,"ĠArgent":8924,"ĠRyan":8925,"Ġrot":8926,"Ġcharchaa":8927,"Ġlakshya":8928,"organ":8929,"Ġsongwrit":8930,"Ġrecognition":8931,"Ġconcerned":8932,"Ġpurchase":8933,"Ġprag":8934,"Ġtareeke":8935,"agues":8936,"ĠNow":8937,"Ġconduct":8938,"Ġranking":8939,"oster":8940,"Ġattached":8941,"Ġyogic":8942,"Ġpatron":8943,"ĠCleveland":8944,"Ġsaadhaaran":8945,"Ġquot":8946,"Ġchemical":8947,"Ġmere":8948,"Ġincome":8949,"Ġjinke":8950,"Ġgard":8951,"Ġdecline":8952,"Ġhatya":8953,"Ġderived":8954,"Ġdeparture":8955,"ĠIllinois":8956,"Ġnig":8957,"Ġwidespread":8958,"Ġri":8959,"Ġprey":8960,"Ġdecor":8961,"Ġgoog":8962,"kshep":8963,"heastern":8964,"Ġprashans":8965,"etri":8966,"Ġdemand":8967,"Ġbear":8968,"ĠEduc":8969,"ĠDouglas":8970,"Ġdeleg":8971,"Ġaccused":8972,"Ġsurg":8973,"Ġsounds":8974,"ĠCab":8975,"argo":8976,"Ġdisappoint":8977,"Ġassumed":8978,"ĠWeekly":8979,"ĠIndi":8980,"Ġcertified":8981,"Ġpy":8982,"ĠUt":8983,"ĠThroughout":8984,"Ġlake":8985,"Ġdro":8986,"ĠTreat":8987,"ĠFreder":8988,"ruk":8989,"Ġkehal":8990,"Ġhisse":8991,"itya":8992,"ĠBol":8993,"Ġ1929":8994,"atus":8995,"Ġwearing":8996,"ĠAndy":8997,"Ġsequel":8998,"Ġvisheshta":8999,"Ġnaj":9000,"Ġadhi":9001,"eton":9002,"Ġhathi":9003,"Ġgathan":9004,"Ġpassage":9005,"Ġpunah":9006,"Ġreality":9007,"coming":9008,"ĠThird":9009,"orney":9010,"Ġhosted":9011,"Ġcircum":9012,"Ġgirls":9013,"Ġacknow":9014,"ĠStanley":9015,"ĠForest":9016,"ĠFamily":9017,"Ġacclaim":9018,"ĠOregon":9019,"ĠPlan":9020,"Ġsessions":9021,"ĠSav":9022,"idge":9023,"ichon":9024,"Ġmaanakar":9025,"Ġvalley":9026,"ĠLenn":9027,"ĠNar":9028,"Ġcommitted":9029,"ĠApp":9030,"Ġthousands":9031,"nai":9032,"borne":9033,"ĠRoger":9034,"ĠArsenal":9035,"Ġregional":9036,"Ġtransition":9037,"ĠGa":9038,"ocal":9039,"Ġcharges":9040,"chai":9041,"Ġsale":9042,"anger":9043,"Ġ140":9044,"Ġfolk":9045,"oto":9046,"Ġpopulations":9047,"iterranean":9048,"Ġtas":9049,"Ġnowiki":9050,"Ġpin":9051,"agonist":9052,"Ġboli":9053,"Ġagency":9054,"Ġ1913":9055,"ĠRecording":9056,"ĠBeatles":9057,"Ġdenied":9058,"uki":9059,"Ġfais":9060,"atro":9061,"Ġliterary":9062,"Ġpari":9063,"Ġsupposed":9064,"ĠBruce":9065,"Ġaadesh":9066,"Ġjhil":9067,"ĠKevin":9068,"Ġgeneration":9069,"ĠNorwegian":9070,"udden":9071,"Ġbhavish":9072,"aadh":9073,"ĠMediterranean":9074,"gium":9075,"ĠJordan":9076,"amparik":9077,"Ġvikipedia":9078,"Ġbegun":9079,"ĠPrinc":9080,"Ġjur":9081,"ĠMir":9082,"Ġshast":9083,"Ġbhaav":9084,"maatr":9085,"Ġfestival":9086,"Ġthin":9087,"ĠLow":9088,"Ġwickets":9089,"ĠBristol":9090,"Ġ1922":9091,"yukt":9092,"ashed":9093,"rage":9094,"ĠRain":9095,"Ġstrongly":9096,"kisi":9097,"Ġproperties":9098,"Ġparyaapt":9099,"ĠDer":9100,"Ġol":9101,"Ġansw":9102,"Ġjail":9103,"anium":9104,"Ġjaw":9105,"Ġcirculation":9106,"aksha":9107,"Ġfictional":9108,"ĠChannel":9109,"ĠOk":9110,"Ġreplacement":9111,"Ġpassengers":9112,"Ġtatv":9113,"Ġpossibility":9114,"Ġtechnical":9115,"Ġsaint":9116,"yaalay":9117,"Ġprakruti":9118,"Ġcycle":9119,"ĠFederal":9120,"Ġquant":9121,"Ġdriver":9122,"Ġbehavior":9123,"Ġtub":9124,"Ġsailed":9125,"Ġsubt":9126,"Ġanimated":9127,"sia":9128,"Ġfruit":9129,"Ġminister":9130,"Ġready":9131,"Ġyogya":9132,"Ġnu":9133,"Ġshaq":9134,"Ġ82":9135,"ĠDE":9136,"acharya":9137,"emed":9138,"Ġmoves":9139,"Ġthirty":9140,"Ġtakneek":9141,"Ġutpaada":9142,"Ġassistance":9143,"utra":9144,"Ġdowntown":9145,"dow":9146,"vens":9147,"vansh":9148,"Ġnone":9149,"apak":9150,"Ġkareeb":9151,"Ġpratiyogita":9152,"Ġpathar":9153,"Ġkhelon":9154,"pson":9155,"uton":9156,"ez":9157,"ĠMexican":9158,"Ġ04":9159,"Ġgermany":9160,"Ġexception":9161,"Ġpradhanmantri":9162,"ĠMaster":9163,"Ġrar":9164,"jeev":9165,"ĠDog":9166,"Ġvolunte":9167,"Ġsamudr":9168,"Ġvas":9169,"ivaar":9170,"ĠRow":9171,"Ġmanor":9172,"isms":9173,"Ġsheet":9174,"aza":9175,"Ġ1911":9176,"Ġcrop":9177,"gn":9178,"Ġbringing":9179,"pus":9180,"run":9181,"alo":9182,"ĠGen":9183,"Ġdestruction":9184,"Ġorient":9185,"Ġcommanded":9186,"ĠKorea":9187,"Ġincorporated":9188,"Ġcosts":9189,"Ġopposite":9190,"Ġfeeling":9191,"Ġ1928":9192,"ĠColor":9193,"place":9194,"Ġspeaking":9195,"Ġmissions":9196,"Ġmissed":9197,"wen":9198,"Ġdemol":9199,"Ġletaa":9200,"Ġwarning":9201,"Ġcrash":9202,"Ġtantra":9203,"Ġbrain":9204,"Ġmethods":9205,"Ġintention":9206,"maana":9207,"ĠDu":9208,"Ġtied":9209,"Ġbhawan":9210,"ĠFame":9211,"Ġvibhajit":9212,"Ġnaagarik":9213,"enses":9214,"akistan":9215,"Ġbreaking":9216,"ito":9217,"Ġvyaktiyon":9218,"usne":9219,"hia":9220,"Ġchaahate":9221,"Ġunusual":9222,"omot":9223,"ĠWithin":9224,"Ġ900":9225,"Ġvidro":9226,"Ġvideshi":9227,"Ġment":9228,"othing":9229,"Ġavasar":9230,"Ġnirmaataa":9231,"ĠHug":9232,"ĠScient":9233,"Ġfinishing":9234,"ano":9235,"Ġkaan":9236,"ildh":9237,"Ġprash":9238,"Ġsons":9239,"ĠLisa":9240,"odi":9241,"Ġspok":9242,"Ġalleged":9243,"Ġrok":9244,"Ġstrateg":9245,"vaas":9246,"Ġatmosphere":9247,"Ġtatkaal":9248,"ĠAdditionally":9249,"Ġattributed":9250,"Ġserves":9251,"Ġib":9252,"Ġtark":9253,"Ġheat":9254,"Ġnovember":9255,"ĠFore":9256,"Ġvidhyalay":9257,"ĠPhill":9258,"Ġstayed":9259,"opal":9260,"Ġemerged":9261,"hatar":9262,"Ġrecovered":9263,"wealth":9264,"aret":9265,"ĠAnim":9266,"Ġneeds":9267,"Ġdekhen":9268,"Ġikai":9269,"riers":9270,"Ġdriven":9271,"Ġski":9272,"Ġportra":9273,"yadhik":9274,"ĠMorris":9275,"ĠNorman":9276,"Ġrum":9277,"Ġvary":9278,"Ġoccasionally":9279,"Ġdivers":9280,"Ġghan":9281,"ĠConfeder":9282,"ĠSab":9283,"ĠCharl":9284,"boot":9285,"Ġsatya":9286,"Ġchorus":9287,"Ġprede":9288,"Ġeffectively":9289,"Ġnavambar":9290,"Ġpure":9291,"oyd":9292,"Ġclassic":9293,"Ġbelt":9294,"ĠPrior":9295,"ĠFord":9296,"Ġsche":9297,"Ġsuperv":9298,"Ġmaterials":9299,"ĠRobinson":9300,"Ġmitti":9301,"sc":9302,"Ġmaus":9303,"Ġregularly":9304,"Ġdiscovery":9305,"wick":9306,"Ġestablishment":9307,"Ġvaat":9308,"Ġpariksha":9309,"Ġouter":9310,"Ġauthors":9311,"ĠHawai":9312,"Ġcavalry":9313,"Ġkinare":9314,"add":9315,"Ġsaral":9316,"ĠTelevision":9317,"eshaa":9318,"Ġ135":9319,"Ġdha":9320,"sole":9321,"ĠGill":9322,"Ġ1924":9323,"Ġcourts":9324,"Ġprovince":9325,"kshm":9326,"Ġaarambh":9327,"Ġmole":9328,"Ġinaki":9329,"elle":9330,"ĠTemple":9331,"Ġkaryaalay":9332,"Ġpartner":9333,"PA":9334,"Ġmahav":9335,"ĠFinn":9336,"ĠPa":9337,"waron":9338,"Ġkali":9339,"ĠBarn":9340,"Ġkendrit":9341,"Ġresponsibility":9342,"ĠâĢĭ":9343,"Ġaccommod":9344,"ĠNC":9345,"Ġsamprad":9346,"Ġdifferences":9347,"Ġcompletion":9348,"Ġaggress":9349,"ĠAround":9350,"ĠStra":9351,"abase":9352,"ĠUnlike":9353,"ĠConstruction":9354,"haayee":9355,"abled":9356,"orter":9357,"iner":9358,"aadhi":9359,"Ġdissip":9360,"ĠNelson":9361,"Ġpyaar":9362,"ĠDor":9363,"Ġseparated":9364,"Ġinterpret":9365,"Ġattracted":9366,"Ġish":9367,"api":9368,"aayak":9369,"ĠNations":9370,"ĠAnne":9371,"ĠAnton":9372,"Ġappropri":9373,"Ġotherwise":9374,"Ġpersu":9375,"Ġgambhir":9376,"ĠHell":9377,"Ġdivisions":9378,"Ġsurviving":9379,"Ġanuro":9380,"Ġclassified":9381,"ĠSweden":9382,"Ġgam":9383,"ĠSky":9384,"Ġbajaay":9385,"Ġneither":9386,"ĠNBC":9387,"Ġplane":9388,"ĠDean":9389,"Ġ1925":9390,"Ġmult":9391,"ĠLanc":9392,"athmik":9393,"weight":9394,"gest":9395,"Ġsed":9396,"esc":9397,"ĠAI":9398,"rama":9399,"Ġaudio":9400,"ĠIsrael":9401,"ĠEver":9402,"Ġmilte":9403,"active":9404,"Ġremember":9405,"Ġclassification":9406,"yaa":9407,"Ġcommunities":9408,"ĠPremier":9409,"Ġpicture":9410,"Ġcoord":9411,"Ġclubs":9412,"Ġfrance":9413,"Ġpank":9414,"purv":9415,"Ġratings":9416,"Ġclimate":9417,"Ġcruiser":9418,"Ġphotograph":9419,"Ġbasketball":9420,"door":9421,"Ġaboard":9422,"ĠMorgan":9423,"icop":9424,"ĠPatrick":9425,"Ġdhara":9426,"arm":9427,"Ġstood":9428,"Ġeleven":9429,"Ġmusicians":9430,"ochana":9431,"Ġpitch":9432,"Ġsamvidhan":9433,"Ġkhad":9434,"Ġbindu":9435,"iro":9436,"Ã³n":9437,"Ġdesire":9438,"aagar":9439,"Ġrooms":9440,"waar":9441,"ĠTal":9442,"Ġvehicle":9443,"ĠJournal":9444,"Ġastron":9445,"ĠWelsh":9446,"pash":9447,"ĠNich":9448,"Ġcatch":9449,"Ġancest":9450,"Ġreinforce":9451,"Ġ03":9452,"ĠToronto":9453,"inder":9454,"Ġsata":9455,"Ġpenalty":9456,"Ġpredecess":9457,"Ġmath":9458,"Ġrequested":9459,"Ġich":9460,"ĠSports":9461,"Ġyaad":9462,"Ġdisappe":9463,"Ġappre":9464,"teenth":9465,"Ġsambh":9466,"Ġrelative":9467,"Ġvotes":9468,"Ġdating":9469,"Ġfunding":9470,"Ġgharelu":9471,"Ġray":9472,"ĠChron":9473,"ĠByzantine":9474,"ĠProfess":9475,"Ġtex":9476,"Ġmovements":9477,"ĠAllen":9478,"obe":9479,"Ġseemed":9480,"ĠUSS":9481,"ds":9482,"ipi":9483,"ĠEvery":9484,"Ġbhakt":9485,"Ġbattleships":9486,"works":9487,"Ġsind":9488,"ĠPow":9489,"Ġformat":9490,"ĠMatthew":9491,"Ġgraphics":9492,"ĠNetherlands":9493,"Ġille":9494,"Ġmac":9495,"Ġrug":9496,"ildhood":9497,"jee":9498,"Ġdens":9499,"uther":9500,"ĠMit":9501,"Ġraise":9502,"Ġrestored":9503,"Ġhoped":9504,"nir":9505,"heey":9506,"ĠRich":9507,"Ġarts":9508,"Ġsurpr":9509,"Ġhamaare":9510,"29":9511,"Ġgul":9512,"olph":9513,"abi":9514,"Ġimpos":9515,"Ġhistorians":9516,"Ġprogramme":9517,"Ġummid":9518,"Ġchairman":9519,"Ġmah":9520,"Ġviruddh":9521,"amswaroop":9522,"ios":9523,"Ġdifficulty":9524,"ĠPur":9525,"ĠDesign":9526,"ĠImp":9527,"Ġ2020":9528,"ĠSu":9529,"Ġaccounts":9530,"uble":9531,"Ġnikaale":9532,"icit":9533,"Ġshil":9534,"lon":9535,"ĠFI":9536,"Ġnep":9537,"Ġassemb":9538,"Ġbhej":9539,"Ġmaharashtra":9540,"Ġfear":9541,"apa":9542,"ohi":9543,"ĠDNA":9544,"eler":9545,"lyn":9546,"Ġflank":9547,"Ġsadak":9548,"Ġsatisf":9549,"ĠJews":9550,"MA":9551,"ĠWid":9552,"Ġ91":9553,"Ġnid":9554,"Ġhameshaa":9555,"amar":9556,"Ġkhaas":9557,"á»":9558,"ĠSax":9559,"ĠAgain":9560,"Ġdelayed":9561,"Ġinner":9562,"Ġgreatly":9563,"Ġpremiere":9564,"Ġwrong":9565,"habit":9566,"Ġmaans":9567,"olis":9568,"hti":9569,"Ġanniversary":9570,"Ġinspiration":9571,"Ġsambhaavna":9572,"Ġspoke":9573,"Ġsamjha":9574,"Ġbatting":9575,"ĠMars":9576,"Ġinjuries":9577,"Ġprakat":9578,"nav":9579,"oos":9580,"Ġuts":9581,"ĠCentre":9582,"Ġdaawa":9583,"Ġbin":9584,"Ġinse":9585,"Ġsurrounded":9586,"reck":9587,"Ġconvent":9588,"Ġtries":9589,"Ġchunaa":9590,"what":9591,"shah":9592,"Ġgarden":9593,"ĠCas":9594,"Ġstrate":9595,"Ġgrass":9596,"haron":9597,"olas":9598,"ĠIraq":9599,"Ġstrategy":9600,"70":9601,"rang":9602,"Ġpraise":9603,"ĠMarine":9604,"Ġweapon":9605,"asm":9606,"abor":9607,"Ġmilit":9608,"Ġchat":9609,"Ġmassive":9610,"ĠLy":9611,"eshon":9612,"hemat":9613,"Ġarchitecture":9614,"Ã±":9615,"ulk":9616,"Ġlibrary":9617,"ĠBishop":9618,"ĠEst":9619,"Ġconsult":9620,"Ġforming":9621,"Ġvaayu":9622,"ĠAz":9623,"uparokt":9624,"rating":9625,"ĠTrib":9626,"ĠMarc":9627,"Ġlanguages":9628,"Ġclaiming":9629,"Ġkhelaa":9630,"Ġpakad":9631,"Ġdetermine":9632,"Ġdocumentary":9633,"Ġsamachar":9634,"aadan":9635,"Ġaccompl":9636,"Ġchuki":9637,"Ġresources":9638,"Ġrecru":9639,"ĠJam":9640,"Ġinterior":9641,"Ġtemporary":9642,"Ġmessiah":9643,"Ġmaut":9644,"ĠBurg":9645,"ĠPA":9646,"ikta":9647,"itzer":9648,"Ġraajnneeti":9649,"agre":9650,"ĠLast":9651,"Ġstands":9652,"ĠHop":9653,"hakt":9654,"Ġvyaktigat":9655,"Ġsainya":9656,"Ġatyadhik":9657,"Ġ81":9658,"ĠArmen":9659,"Ġ1923":9660,"Ġcul":9661,"haaj":9662,"ĠProt":9663,"bat":9664,"usaar":9665,"Ġcrosses":9666,"Ġmahal":9667,"tab":9668,"aration":9669,"Ġvyak":9670,"emet":9671,"ĠPC":9672,"Ġworst":9673,"Ġjinka":9674,"Ġsaamana":9675,"Ġsend":9676,"Ġfled":9677,"aahit":9678,"Ġensure":9679,"otype":9680,"Ġscheme":9681,"ĠNFL":9682,"Ġsuperior":9683,"ĠHeart":9684,"ĠCroatian":9685,"Ġparmaan":9686,"Ġhoon":9687,"ĠArn":9688,"Ġsau":9689,"Ġpahunchaa":9690,"ES":9691,"Ġmajboot":9692,"arsi":9693,"Ġabsor":9694,"ĠIslam":9695,"ĠRussell":9696,"Ġbombard":9697,"ternal":9698,"Ġinvolvement":9699,"Ġmahan":9700,"ĠDom":9701,"oni":9702,"eston":9703,"ĠBarb":9704,"Ġvans":9705,"ĠThompson":9706,"Ġdismissed":9707,"urti":9708,"Ġsomewhat":9709,"ataaon":9710,"Ġadaptation":9711,"Ġremn":9712,"ahan":9713,"Ġdham":9714,"ĠRac":9715,"Ġsurakshit":9716,"eor":9717,"Ġpai":9718,"Ġvert":9719,"brid":9720,"eness":9721,"Ġadm":9722,"Ġpresidential":9723,"Ġsynthes":9724,"bean":9725,"Ġconvinced":9726,"ĠPuerto":9727,"Ġmaichon":9728,"ĠLibrary":9729,"Ġpartn":9730,"Ġinterests":9731,"samb":9732,"Ġimmediate":9733,"Ġcolonial":9734,"ĠCooper":9735,"ĠWinter":9736,"gr":9737,"acent":9738,"ĠCarter":9739,"Ġastit":9740,"isliye":9741,"ivas":9742,"Ġabhinetri":9743,"DS":9744,"Ġmedieval":9745,"Ġtechniques":9746,"Ġreserv":9747,"Ġacademic":9748,"Ġearn":9749,"going":9750,"ĠKelly":9751,"Ġstreets":9752,"Ġrif":9753,"chalit":9754,"ipl":9755,"Ġcraft":9756,"anan":9757,"ĠHoly":9758,"Ġvisible":9759,"Ġeggs":9760,"ĠÅ":9761,"Ġninth":9762,"rus":9763,"Ġmeets":9764,"ĠBrother":9765,"Ġfranc":9766,"Ġroman":9767,"ĠHend":9768,"Ġclassical":9769,"Ġfalling":9770,"Ġwings":9771,"ĠGard":9772,"Ġbright":9773,"ĠModern":9774,"Ġthrone":9775,"ĠLabor":9776,"nee":9777,"ĠAlong":9778,"Ġimaar":9779,"ĠHind":9780,"attis":9781,"elsen":9782,"Ġpassenger":9783,"icide":9784,"Ġloyal":9785,"Ġdepend":9786,"Ġkalakaar":9787,"Ġfighter":9788,"using":9789,"Ġraces":9790,"Ġsumm":9791,"ĠWright":9792,"ĠNob":9793,"hanna":9794,"ĠKer":9795,"Ġcommemor":9796,"Ġstarred":9797,"Ġ1000":9798,"Ġdars":9799,"ĠVari":9800,"Ġghati":9801,"Ġghante":9802,"Ġladaai":9803,"Ġnasht":9804,"ĠRick":9805,"Ġobl":9806,"egi":9807,"Ġadults":9808,"Ġeveryone":9809,"ĠHungarian":9810,"ygen":9811,"Ġrhyth":9812,"Ġurdu":9813,"Ġvastav":9814,"Ġsurviv":9815,"iday":9816,"ĠBenn":9817,"Ġkhadi":9818,"Ġchakra":9819,"Ġholds":9820,"Ġreviewer":9821,"Ġsultan":9822,"isare":9823,"Ġalien":9824,"Ġshut":9825,"Ġantariksh":9826,"encies":9827,"Ġseeing":9828,"Ġyuva":9829,"Ġsubmarine":9830,"Ġbehatar":9831,"Ġpaudi":9832,"Ġfacility":9833,"Ġdoct":9834,"Ġupd":9835,"ĠThus":9836,"Ġabsence":9837,"yard":9838,"ronze":9839,"Ġsampatti":9840,"Ġsalaah":9841,"Ġpremiered":9842,"Ġrenew":9843,"Ġsight":9844,"ĠAth":9845,"Ġgrahan":9846,"ĠEducation":9847,"ĠTechn":9848,"Ġfitted":9849,"aadiyon":9850,"Ġcorrect":9851,"ĠCorporation":9852,"Ġencouraged":9853,"roit":9854,"Ġlem":9855,"ishk":9856,"Ġengineer":9857,"Ġfavorite":9858,"ĠParker":9859,"Ġconstant":9860,"ĠProv":9861,"Ġappearing":9862,"Ġalmoda":9863,"Ġmodified":9864,"Ġoperate":9865,"vas":9866,"lag":9867,"Ġastitv":9868,"Ġnil":9869,"uttar":9870,"Ġconclusion":9871,"Ġstandards":9872,"Ġleads":9873,"ĠBatman":9874,"Ġdeemed":9875,"Ġelections":9876,"FC":9877,"kee":9878,"ĠTok":9879,"ĠSanta":9880,"Ġshodh":9881,"ĠHarris":9882,"Ġdrushtikon":9883,"ĠId":9884,"Ġsynd":9885,"Ġcharacteristics":9886,"Ġquestions":9887,"jay":9888,"oen":9889,"Ġere":9890,"Ġfron":9891,"Ġjiv":9892,"Ġattacking":9893,"artit":9894,"oria":9895,"Ġduk":9896,"Ġprotest":9897,"Ġbrahm":9898,"roid":9899,"Ġtemperatures":9900,"Ġgap":9901,"text":9902,"ĠTot":9903,"aust":9904,"Ġcircuit":9905,"Ġlegislation":9906,"Ġafterwards":9907,"Ġdistributed":9908,"Ġ1908":9909,"Ġlies":9910,"Ġarch":9911,"Ġlanded":9912,"ĠMurray":9913,"Ġcarrier":9914,"Ġ1890":9915,"ĠSocial":9916,"Ġullekhneey":9917,"ĠRap":9918,"Ġanyone":9919,"lock":9920,"Ġpaaramparik":9921,"Ġrescue":9922,"Ġconvection":9923,"Ġretirement":9924,"Ġvishleshan":9925,"Ġ1905":9926,"Ġorbit":9927,"Ġhear":9928,"Ġsuffering":9929,"ĠKnight":9930,"ĠLate":9931,"obile":9932,"asure":9933,"Ġdus":9934,"Ġanand":9935,"Ġshuk":9936,"Ġshark":9937,"Ġstem":9938,"Ġsammelan":9939,"owa":9940,"Ġpainted":9941,"Ġcontroversial":9942,"ixon":9943,"Ġsquad":9944,"Ġyoga":9945,"haasaagar":9946,"Ġmujhe":9947,"ĠTenn":9948,"ĠDomin":9949,"Ġplatinum":9950,"ĠPolice":9951,"erik":9952,"Ġgone":9953,"tering":9954,"Ġflash":9955,"Ġlooked":9956,"Ġdaan":9957,"urches":9958,"ĠPalace":9959,"usal":9960,"Ar":9961,"ĠBerlin":9962,"nar":9963,"sang":9964,"Ġling":9965,"tenance":9966,"ĠHouston":9967,"ĠCommander":9968,"Ġattempting":9969,"bah":9970,"oa":9971,"ĠAdvent":9972,"Ġbelieves":9973,"Ġrailroad":9974,"ĠStory":9975,"Ġlikhe":9976,"Ġguzar":9977,"Ġfootage":9978,"Ġpichley":9979,"haw":9980,"Ġkaliyug":9981,"ĠObs":9982,"paat":9983,"ĠMinn":9984,"ulu":9985,"Ġbuy":9986,"ski":9987,"ĠMaria":9988,"Ġhabitat":9989,"Ġinhabit":9990,"Ġhaar":9991,"ĠHospital":9992,"Ġgenerated":9993,"Ġaspat":9994,"ropolitan":9995,"Ġfas":9996,"ĠRaj":9997,"Ġsecured":9998,"Ġdepicted":9999,"Ġarrangement":10000,"Ġarchae":10001,"Ġchot":10002,"Ġkhol":10003,"Ġgor":10004,"ĠCommonwealth":10005,"ĠYug":10006,"unes":10007,"Ġlongest":10008,"night":10009,"Ġwins":10010,"Ġimmig":10011,"Ġdominated":10012,"kari":10013,"ellite":10014,"hyik":10015,"Ġbiggest":10016,"Ġstyles":10017,"ĠGet":10018,"Ġcontinuing":10019,"ĠUSA":10020,"Ġjudge":10021,"ishtha":10022,"ĠSwedish":10023,"Ġtod":10024,"ĠCategory":10025,"Ġaudyog":10026,"aabar":10027,"Ġbattleship":10028,"Ġmahaasaagar":10029,"udes":10030,"inda":10031,"Ġaur":10032,"Ġmalay":10033,"karnon":10034,"Ġgarrison":10035,"Ġchin":10036,"Ġtrap":10037,"ĠSilver":10038,"fare":10039,"Ġspin":10040,"Ġpip":10041,"Ġneck":10042,"ramon":10043,"Ġarj":10044,"Ġunsuccessful":10045,"nels":10046,"yot":10047,"stic":10048,"ogan":10049,"Ġvishyon":10050,"Ġtib":10051,"ĠRoberts":10052,"ultane":10053,"ĠIndians":10054,"Ġoutbreak":10055,"Ġprerit":10056,"ĠJacob":10057,"Ġzyaadaatar":10058,"Ġsudden":10059,"Ġtrained":10060,"Ġsanchalit":10061,"ĠBeck":10062,"Ġrepresenting":10063,"Ġhistoric":10064,"ĠMort":10065,"hra":10066,"arak":10067,"Ġapparent":10068,"sad":10069,"Ġboil":10070,"Ġdollars":10071,"jid":10072,"Ġgets":10073,"Ġmeasures":10074,"Ġbaraabar":10075,"may":10076,"inter":10077,"ĠTrack":10078,"Ġachieve":10079,"Ġchapter":10080,"Ġacknowled":10081,"ĠNa":10082,"Ġjulian":10083,"Ġnauk":10084,"ĠSimpson":10085,"eenth":10086,"Ġmine":10087,"ĠAuthor":10088,"Ġreleases":10089,"Ġcopy":10090,"Ġinformed":10091,"bel":10092,"alak":10093,"ĠWarner":10094,"Ġrepro":10095,"ĠRAAF":10096,"Ġsurgery":10097,"Ġske":10098,"ĠLar":10099,"most":10100,"dar":10101,"fire":10102,"Ġcloser":10103,"Ġdemonstr":10104,"lok":10105,"Ġpadak":10106,"ĠMerc":10107,"igan":10108,"Ġconvention":10109,"Ġbats":10110,"duus":10111,"Ġ125":10112,"Ġjame":10113,"Ġarticles":10114,"ĠOt":10115,"Ġekmaatr":10116,"emetery":10117,"Ġsees":10118,"Ġformerly":10119,"Ġfactor":10120,"Ġpavitra":10121,"itis":10122,"ĠNetwork":10123,"orage":10124,"Ġcontinu":10125,"Ġtaapmaana":10126,"tat":10127,"atherine":10128,"Ġnaz":10129,"Ġ105":10130,"Ġparisthiti":10131,"Ġemergency":10132,"Ġradar":10133,"Ġingine":10134,"pana":10135,"Ġdepos":10136,"Ġ1909":10137,"Ġvivaran":10138,"Ġwel":10139,"Ġride":10140,"aaratmak":10141,"Ġgrade":10142,"Ġoop":10143,"ĠJason":10144,"Ġdeployed":10145,"ĠYugoslav":10146,"Ġveter":10147,"ĠAnthony":10148,"ĠKat":10149,"Ġstring":10150,"Ġuniform":10151,"Ġlogo":10152,"Ġpratid":10153,"Ġfur":10154,"Ġsiege":10155,"Ġjum":10156,"Ġhaz":10157,"ache":10158,"phy":10159,"Ġpratiband":10160,"Ġinstruments":10161,"IS":10162,"Ġveget":10163,"Ġnovels":10164,"Ġdiplom":10165,"Ġine":10166,"Ġpraathmik":10167,"Ġfiring":10168,"Ġhelicop":10169,"names":10170,"Ġmoderate":10171,"bhut":10172,"Ġtrials":10173,"Ġinfluential":10174,"naon":10175,"Ġsuccessor":10176,"Ġnibhaai":10177,"ĠRAF":10178,"rih":10179,"ĠCroatia":10180,"bing":10181,"Ġlocomot":10182,"Ġemotional":10183,"Ġwarn":10184,"ester":10185,"Ġundert":10186,"Ġowners":10187,"CA":10188,"tees":10189,"ĠDetroit":10190,"burn":10191,"Ġdiscussed":10192,"ĠDick":10193,"Ġexcess":10194,"Ġaalochana":10195,"ĠFoundation":10196,"Ġfactors":10197,"ĠTar":10198,"ĠAsian":10199,"Ġtreated":10200,"Ġmool":10201,"aaroh":10202,"ĠPope":10203,"wl":10204,"Ġinfluences":10205,"Ġmonarch":10206,"Ġnarrative":10207,"poses":10208,"vant":10209,"ĠGaga":10210,"Ġpoly":10211,"ĠChamber":10212,"rees":10213,"artaaon":10214,"Ġsangrakshan":10215,"Ġfounder":10216,"ĠXbox":10217,"Ġlinked":10218,"Ġpull":10219,"Ġganga":10220,"antarik":10221,"Ġhappy":10222,"Ġnave":10223,"stan":10224,"ĠKh":10225,"Ġvikrami":10226,"hiyaan":10227,"ogram":10228,"Ġexperiences":10229,"Ġjournalist":10230,"Ġtone":10231,"Ġ1907":10232,"maa":10233,"peare":10234,"Ġchildhood":10235,"Ġgiant":10236,"ĠPrincess":10237,"iyaan":10238,"Ġbrand":10239,"ĠSamuel":10240,"Ġvel":10241,"usted":10242,"Ġdefended":10243,"ĠOrgan":10244,"Ġenvironmental":10245,"Ġapparently":10246,"Ġsure":10247,"ĠLaur":10248,"Ġocean":10249,"Ġseed":10250,"Ġoffices":10251,"sible":10252,"Ġgranthon":10253,"khan":10254,"Ġtheor":10255,"Ġcoins":10256,"ture":10257,"Ġax":10258,"imore":10259,"Ġsammilit":10260,"Ġvictims":10261,"elli":10262,"Ġassass":10263,"org":10264,"Ġexecuted":10265,"ĠSpears":10266,"areerik":10267,"Ġlegs":10268,"Ġvastuon":10269,"far":10270,"Ġnahi":10271,"Ġswami":10272,"Ġalcohol":10273,"ĠJesus":10274,"Ġincom":10275,"akshar":10276,"antarit":10277,"Ġhataa":10278,"ĠCart":10279,"Ġscrap":10280,"achment":10281,"Ġvittiya":10282,"Ġsheershak":10283,"Ġcompaniyon":10284,"Ġskills":10285,"Ġkranti":10286,"noon":10287,"Ġpreferred":10288,"stances":10289,"ĠBou":10290,"Ġdifference":10291,"atan":10292,"Ġkare":10293,"eshnal":10294,"mate":10295,"Ġ92":10296,"ĠWy":10297,"Ġchain":10298,"Ġchalane":10299,"Ġwooden":10300,"Ġbind":10301,"ĠReal":10302,"Ġdesignation":10303,"ĠNielsen":10304,"ĠSomers":10305,"ĠBed":10306,"Ġhunting":10307,"Ġgrey":10308,"Ġenters":10309,"riyaaon":10310,"ĠSi":10311,"ĠMelbourne":10312,"Ġhundreds":10313,"ĠVice":10314,"ĠExpress":10315,"ĠEvans":10316,"ĠOak":10317,"rutt":10318,"Ġfootbal":10319,"ĠRad":10320,"etime":10321,"uster":10322,"Ġkaise":10323,"Ġstead":10324,"Ġadheen":10325,"utor":10326,"Ġresigned":10327,"Ġinstance":10328,"pras":10329,"Ġridge":10330,"Ġpratikriya":10331,"orous":10332,"Ġaup":10333,"Ġimpr":10334,"Ġdevice":10335,"ĠClinton":10336,"Ġcharitra":10337,"Ġpointed":10338,"Ġwatching":10339,"Ġcateg":10340,"Ġcub":10341,"Ġprofit":10342,"Ġcustom":10343,"Ġgujarat":10344,"Ġnain":10345,"Ġreveals":10346,"Ġuchit":10347,"Ġbid":10348,"Ġabd":10349,"anny":10350,"Ġdeliver":10351,"Ġdisplayed":10352,"hiv":10353,"ĠStewart":10354,"Ġpoetry":10355,"Ġenhan":10356,"Ġcoin":10357,"veda":10358,"Ġshaharon":10359,"Ġrelationships":10360,"ĠNevertheless":10361,"Ġintent":10362,"ĠMP":10363,"Ġpatna":10364,"ĠColl":10365,"agu":10366,"ĠWing":10367,"Ġtakanic":10368,"ambh":10369,"Ġthousand":10370,"haajan":10371,"ijan":10372,"Ġmudra":10373,"baa":10374,"Ġanant":10375,"ĠLim":10376,"Ġprevented":10377,"Ġayog":10378,"ĠTower":10379,"Ġvalues":10380,"Ġtesting":10381,"Ġvul":10382,"idency":10383,"ĠRaw":10384,"asta":10385,"Ġadhaar":10386,"ĠHeavy":10387,"ĠBrook":10388,"Ġpanchag":10389,"Ġlob":10390,"Ġsthir":10391,"Ġbahan":10392,"Ġfacing":10393,"ĠOrigin":10394,"Ġvision":10395,"Ġharm":10396,"Ġparticipate":10397,"Ġframe":10398,"Ġraashi":10399,"Ġzar":10400,"gaar":10401,"Ġpages":10402,"Ġdrums":10403,"Ġmaidan":10404,"mith":10405,"Ġpushed":10406,"Ġyatri":10407,"Ġhappened":10408,"Ġprashasan":10409,"kintu":10410,"Ġthereafter":10411,"Ġflew":10412,"mph":10413,"ippi":10414,"Ġparinamswaroop":10415,"Ġvisitors":10416,"eland":10417,"ĠBird":10418,"Ġformally":10419,"ĠTurkish":10420,"Ġoxygen":10421,"Ġeasy":10422,"urance":10423,"haaon":10424,"Ġresign":10425,"ushing":10426,"Ġopponents":10427,"Ġreportedly":10428,"orer":10429,"Ġlearning":10430,"Ġintense":10431,"taah":10432,"Ġhanded":10433,"Ġboys":10434,"Ġhuge":10435,"ogether":10436,"ateey":10437,"Ġtoll":10438,"Ġnotably":10439,"Ġsanshod":10440,"Ġisai":10441,"Ġanimation":10442,"Ġtempor":10443,"Ġkalendar":10444,"Ġexisted":10445,"ĠHans":10446,"Ġdeparted":10447,"yank":10448,"aria":10449,"Ġbak":10450,"Ġfra":10451,"Ġracing":10452,"ĠSarah":10453,"ĠLennon":10454,"ape":10455,"Ġadhaarit":10456,"olkata":10457,"jamin":10458,"Ġbypass":10459,"Ġremove":10460,"desh":10461,"ifer":10462,"Ġannounce":10463,"Ġsurrender":10464,"ĠGreece":10465,"taaon":10466,"hindi":10467,"Ġaccompany":10468,"okshm":10469,"Ġdos":10470,"Ġhearing":10471,"Ġgupt":10472,"Ġmedium":10473,"ĠQueens":10474,"Ġdetailed":10475,"Ġunderstand":10476,"aribbean":10477,"Ġemployees":10478,"Ġpound":10479,"Ġpublisher":10480,"ĠAustria":10481,"Ġavo":10482,"ologists":10483,"Ġsidhe":10484,"hast":10485,"ugu":10486,"Ġnormally":10487,"ĠBaltimore":10488,"Ġadhiktar":10489,"ĠLane":10490,"Ġexposed":10491,"SP":10492,"Ġperiods":10493,"Ġshore":10494,"Ġextent":10495,"Ġdialogue":10496,"ĠAlbums":10497,"Ġexerc":10498,"Ġliqu":10499,"idae":10500,"Ġvideos":10501,"vaan":10502,"ĠColorado":10503,"Ġkings":10504,"attisgarh":10505,"helm":10506,"Ġ1904":10507,"Ġdrawing":10508,"Ġintel":10509,"won":10510,"ĠCre":10511,"Ġbeach":10512,"Ġshesh":10513,"Ġmilane":10514,"Ġkharid":10515,"Ġteeth":10516,"Ġutil":10517,"Ġ1906":10518,"Ġresidential":10519,"andra":10520,"ĠSout":10521,"Ġreun":10522,"ĠCur":10523,"Ġsubstantial":10524,"Ġarrest":10525,"aise":10526,"Ġkeeping":10527,"Ġuniverse":10528,"Ġtests":10529,"Ġraay":10530,"kshi":10531,"Ġdoesn":10532,"Ġcriminal":10533,"ois":10534,"ullivan":10535,"ĠThor":10536,"Ġconvoy":10537,"inhone":10538,"ĠBang":10539,"Ġrebell":10540,"ĠWriting":10541,"ĠMarshall":10542,"ĠRoc":10543,"Ġdiagn":10544,"Ġ1880":10545,"wari":10546,"haayad":10547,"Ġvaahan":10548,"Ġexamples":10549,"Ġstable":10550,"endment":10551,"Ġchaaron":10552,"Ġwindow":10553,"Ġcruisers":10554,"Ġrakhata":10555,"ĠCR":10556,"Ġagents":10557,"icians":10558,"Ġwheel":10559,"ĠHorn":10560,"Ġniyamit":10561,"Ġgramin":10562,"Ġimpressed":10563,"gl":10564,"chell":10565,"ĠErn":10566,"ĠHorse":10567,"atically":10568,"Ġmamm":10569,"ĠChi":10570,"Ġsaptaah":10571,"Ġexpos":10572,"arson":10573,"rator":10574,"ĠInitially":10575,"Ġnic":10576,"ĠGuy":10577,"ĠCall":10578,"urad":10579,"Ġafternoon":10580,"Ġdekhte":10581,"Ġniyantrit":10582,"Ġsamaaroh":10583,"Ġterritories":10584,"jag":10585,"ĠSon":10586,"Ġenthus":10587,"bridge":10588,"Ġshir":10589,"Ġdikhaaya":10590,"Ġfalls":10591,"inkaa":10592,"ĠDave":10593,"Ġcanc":10594,"Ġtie":10595,"Ġbete":10596,"ĠBrig":10597,"Ġtaught":10598,"icipal":10599,"Ġrab":10600,"umph":10601,"Ġreviewers":10602,"ĠHuman":10603,"Ġenthusi":10604,"lah":10605,"Ġbacter":10606,"sters":10607,"Ġjimmed":10608,"ĠFrederick":10609,"Ġraid":10610,"istani":10611,"Ġnirdeshak":10612,"shri":10613,"wein":10614,"rilanka":10615,"Ġisolated":10616,"Ġparmaanu":10617,"Ġfeud":10618,"ĠConne":10619,"Ġjudaa":10620,"drew":10621,"verse":10622,"Ġimprison":10623,"ĠApple":10624,"Ġsympt":10625,"Ġoopaadhi":10626,"Ġgate":10627,"ĠCam":10628,"ĠWrestling":10629,"Ġupn":10630,"ascar":10631,"Ġvessel":10632,"aser":10633,"ĠML":10634,"ĠBure":10635,"ĠBanks":10636,"ĠDC":10637,"Ġdiameter":10638,"Ġsector":10639,"Ġplus":10640,"Ġaudyogic":10641,"Ġbhasha":10642,"Ġlambey":10643,"Ġcommunist":10644,"inhen":10645,"uni":10646,"ukti":10647,"Ġaaye":10648,"Ġlicense":10649,"Ġengineering":10650,"ĠHaving":10651,"Ġindicate":10652,"Ġpicked":10653,"Ġmaintenance":10654,"Ġord":10655,"ĠRh":10656,"Ġpramaan":10657,"Ġloks":10658,"Ġnegotiations":10659,"ĠSomerset":10660,"Ġgoods":10661,"Ġuncertain":10662,"Ġrud":10663,"ĠJess":10664,"Ġprasad":10665,"Ġjap":10666,"Ġunase":10667,"ĠOpen":10668,"ĠAk":10669,"Ġamar":10670,"Ġencountered":10671,"Ġappreci":10672,"Ġaged":10673,"Ġintercept":10674,"Ġles":10675,"Ġsnaatak":10676,"Ġethnic":10677,"power":10678,"ĠArk":10679,"ĠPlayer":10680,"Ġachche":10681,"Ġpounds":10682,"Ġbridges":10683,"ĠAnna":10684,"Ġ164":10685,"ĠMario":10686,"Ġproced":10687,"ĠRelease":10688,"Ġsimultane":10689,"Ġpahal":10690,"Ġdangerous":10691,"aisa":10692,"Ġpatt":10693,"Ġwithdrew":10694,"Ġfrequent":10695,"Ġvichaaron":10696,"velt":10697,"pha":10698,"viya":10699,"ĠChampionships":10700,"ĠGilbert":10701,"pie":10702,"xual":10703,"ĠLin":10704,"Ġimperial":10705,"Ġpahari":10706,"borough":10707,"CC":10708,"Ġoutf":10709,"dale":10710,"ralay":10711,"Ġweekend":10712,"roke":10713,"Ġcomments":10714,"agh":10715,"Ġload":10716,"Ġrefers":10717,"ĠAnglo":10718,"Ġlambaai":10719,"Ġsanchaalan":10720,"Ġsataha":10721,"Ġpanel":10722,"Ġoutput":10723,"Ġupgraded":10724,"erb":10725,"ĠThan":10726,"Ġlowest":10727,"ĠGiants":10728,"sea":10729,"Ġdeter":10730,"Ġ360":10731,"ĠMiami":10732,"Ġsul":10733,"Ġresear":10734,"Ġserial":10735,"Ġvaataavaran":10736,"rapy":10737,"Ġlaagat":10738,"ĠSee":10739,"Ġpermission":10740,"Ġrelie":10741,"Ġspecimens":10742,"ĠTreaty":10743,"Ġansh":10744,"Ġabb":10745,"kam":10746,"Ġkor":10747,"ĠSeattle":10748,"Ġnivesh":10749,"Ġwhereas":10750,"Ġturb":10751,"35":10752,"Ġwet":10753,"hanaa":10754,"viation":10755,"Ġpolicies":10756,"Ġcrisis":10757,"Ġpartly":10758,"Ġsignal":10759,"Ġorganizations":10760,"Ġthak":10761,"inction":10762,"ĠWh":10763,"rite":10764,"Ġrarely":10765,"Ġdiver":10766,"Ġvyavsaayik":10767,"Ġprosec":10768,"esota":10769,"ĠEdge":10770,"Ġvyakhya":10771,"yu":10772,"ulan":10773,"Ġagree":10774,"habaad":10775,"Ġlose":10776,"ĠHand":10777,"itter":10778,"Ġtot":10779,"ĠAlab":10780,"ËĪ":10781,"Ġproport":10782,"Ġtechnique":10783,"ĠSoon":10784,"ĠTrek":10785,"anth":10786,"Ġvice":10787,"asw":10788,"abhaa":10789,"avat":10790,"Ġadvice":10791,"Ġtraveled":10792,"Ġmoral":10793,"ãģ":10794,"ĠUSD":10795,"Ġpersonality":10796,"Ġtrophy":10797,"ĠUlt":10798,"Ġdesigner":10799,"Ġcreative":10800,"Ġbast":10801,"ĠNat":10802,"Ġcomplic":10803,"owed":10804,"Ġturrets":10805,"Ġaspataal":10806,"Ġpaane":10807,"ĠAR":10808,"ĠNorm":10809,"Ġ165":10810,"she":10811,"Ġkun":10812,"ĠÄ":10813,"Ġfavour":10814,"ĠIowa":10815,"ods":10816,"Ġspending":10817,"Ġrestric":10818,"Ġ1870":10819,"aanki":10820,"Ġfinals":10821,"Ġsaaman":10822,"elic":10823,"Ġrecordings":10824,"Ġbaith":10825,"Ġteji":10826,"Ġlip":10827,"Ġfinale":10828,"Ġoption":10829,"Ġpartially":10830,"ĠForces":10831,"Ġcriticised":10832,"ĠHealth":10833,"Ġrestrict":10834,"ĠCountry":10835,"Ġsamoohon":10836,"hyatah":10837,"Ġdownload":10838,"Ġganit":10839,"Ġexcell":10840,"Ġmainstream":10841,"ĠCaribbean":10842,"Ġmargin":10843,"ĠArch":10844,"Ġpaim":10845,"Ġdifficulties":10846,"vyavastha":10847,"ĠAlabama":10848,"Ġshram":10849,"Ġcanal":10850,"Ġanticip":10851,"book":10852,"Ġcompete":10853,"Ġcorpor":10854,"haayaa":10855,"waas":10856,"Ġseats":10857,"Ġrates":10858,"Ġverse":10859,"Ġsafed":10860,"ĠThen":10861,"ĠAnti":10862,"Ġmausam":10863,"aid":10864,"Ġminimum":10865,"Ġhamalaa":10866,"aaen":10867,"Ġsem":10868,"Ġmonument":10869,"Ġbheja":10870,"Ġchhodkar":10871,"ĠLawrence":10872,"oorn":10873,"Ġcovers":10874,"andhit":10875,"Ġmurti":10876,"Ġfung":10877,"occh":10878,"Ġyat":10879,"Ġsla":10880,"Ã§":10881,"Ġconstruct":10882,"ĠNapole":10883,"Ġsleep":10884,"ĠBuff":10885,"Ġlisting":10886,"Ġfunctions":10887,"Ġsatta":10888,"ĠCanal":10889,"jis":10890,"Ġtuk":10891,"Ġwindows":10892,"ĠMissou":10893,"Ġrin":10894,"OS":10895,"haanon":10896,"Ġdescribe":10897,"Ġkaregaa":10898,"yakt":10899,"ĠMississ":10900,"Ġyukt":10901,"Ġnotice":10902,"ĠBros":10903,"ĠCharlie":10904,"Ġextreme":10905,"Ġconcerts":10906,"TA":10907,"Ġrepresentative":10908,"Ġsufficient":10909,"Ġpartnership":10910,"ĠCrown":10911,"Ġrani":10912,"ĠVI":10913,"zon":10914,"pler":10915,"orship":10916,"Ġdivor":10917,"Ġbases":10918,"Ġpool":10919,"ĠBeg":10920,"Ġanch":10921,"Ġkhaad":10922,"Ġfighters":10923,"Ġmarks":10924,"ĠPolit":10925,"wali":10926,"Ġchaatr":10927,"Ġ1901":10928,"Ġpitched":10929,"Ġjokhim":10930,"Ġforcing":10931,"ĠHamp":10932,"ĠNon":10933,"Ġlipi":10934,"Ġcontra":10935,"ĠMcD":10936,"ĠBlood":10937,"Ġcoff":10938,"ĠDead":10939,"Ġ155":10940,"Ġrepair":10941,"Ġdynasty":10942,"ĠShan":10943,"ographical":10944,"ĠSenator":10945,"ĠReturn":10946,"Ġtisare":10947,"Ġrub":10948,"Ġfriendly":10949,"ĠMinistry":10950,"Ġprompted":10951,"Ġaware":10952,"Ġanuv":10953,"Ġhull":10954,"Ġparip":10955,"ĠGarden":10956,"ĠKr":10957,"Ġshear":10958,"Ġadhikariyon":10959,"Ġaatm":10960,"ĠIan":10961,"ĠKhan":10962,"Ġsabhy":10963,"Ġagra":10964,"Ġchalate":10965,"ĠRace":10966,"rine":10967,"Ġpaintings":10968,"Ġlists":10969,"Ġanaly":10970,"Ġdestroyers":10971,"Ġcredits":10972,"Ġcollapse":10973,"Ġinnov":10974,"oons":10975,"Ġbay":10976,"Ġsymp":10977,"Ġprincip":10978,"Ġchurches":10979,"Ġchanging":10980,"Ġkhul":10981,"Ġbalance":10982,"ĠÃĨ":10983,"Ġneighborhood":10984,"yaapan":10985,"Ġinamen":10986,"icy":10987,"Ġapproval":10988,"ĠGrammy":10989,"ĠTownship":10990,"Ġadjacent":10991,"mates":10992,"Ġagle":10993,"ĠDance":10994,"ĠHungary":10995,"mund":10996,"Ġshaareerik":10997,"ĠNazi":10998,"mah":10999,"Ġsamiksha":11000,"pled":11001,"Ġghatnaon":11002,"osevelt":11003,"Ġbombers":11004,"rata":11005,"Ġfishing":11006,"Ġguar":11007,"Ġinaug":11008,"Ġcreator":11009,"ĠShakes":11010,"Ġjoining":11011,"Ġdaur":11012,"Ġtravelled":11013,"cribed":11014,"die":11015,"Ġsib":11016,"ĠCru":11017,"Ġsanchaar":11018,"aud":11019,"Ġmantralay":11020,"Ġdies":11021,"Ġvaad":11022,"karon":11023,"Ġhousing":11024,"Ġtam":11025,"Ġanth":11026,"Ġinstrumental":11027,"Ġ01":11028,"ĠBelgium":11029,"Ġpurushon":11030,"face":11031,"ĠEvent":11032,"Ġhawa":11033,"Ġsookshm":11034,"ĠChristopher":11035,"ĠMedal":11036,"Ġdabaav":11037,"Ġcartoon":11038,"Ġacted":11039,"Ġjisame":11040,"ipe":11041,"Ġgrown":11042,"Ġexplo":11043,"Ġjana":11044,"ĠAustralians":11045,"Ġcanada":11046,"Ġdarj":11047,"Ġarabi":11048,"ĠDiego":11049,"haraa":11050,"Ġlegend":11051,"Ġargument":11052,"Ġmoments":11053,"Ġasp":11054,"harm":11055,"iai":11056,"Ġtribute":11057,"Ġdhang":11058,"Ġvillages":11059,"ĠGab":11060,"oven":11061,"Ġpurposes":11062,"ĠRepresent":11063,"point":11064,"Ġitnaa":11065,"kris":11066,"odore":11067,"Ġrounds":11068,"Ġprotagonist":11069,"Ġjatil":11070,"pura":11071,"Ġpron":11072,"Ġjivit":11073,"eshan":11074,"Ġsuicide":11075,"Ġdhaatu":11076,"Ġalleg":11077,"Ġabhya":11078,"Ġvarnit":11079,"Ġsamak":11080,"ande":11081,"ivated":11082,"ĠAdminist":11083,"inental":11084,"ĠCamer":11085,"ifal":11086,"ĠChildren":11087,"ĠHills":11088,"alions":11089,"ĠCred":11090,"Ġasian":11091,"ĠCold":11092,"ĠMichel":11093,"ns":11094,"rani":11095,"Ġpowered":11096,"ĠHem":11097,"bhaav":11098,"ounced":11099,"Ġ115":11100,"Äį":11101,"Ġasks":11102,"ĠHo":11103,"Ġparik":11104,"Ġscientists":11105,"Ġprecip":11106,"orial":11107,"Ġappointment":11108,"Ġminimal":11109,"ĠRecord":11110,"Ġtreaty":11111,"Ġstorms":11112,"Ġbhugtan":11113,"Ġelsewhere":11114,"Ġwedding":11115,"imeter":11116,"ĠLl":11117,"Ġprots":11118,"Ġacre":11119,"irdohi":11120,"Ġadvis":11121,"Ġfalse":11122,"Ġneutral":11123,"90":11124,"Ġ174":11125,"ĠHud":11126,"Ġpossession":11127,"Ġwaalon":11128,"derabad":11129,"chaarik":11130,"ĠBenjamin":11131,"ĠMicro":11132,"hattan":11133,"ĠMuch":11134,"198":11135,"namese":11136,"Ġcovering":11137,"TS":11138,"Ġakh":11139,"Ġunlike":11140,"Ġhelping":11141,"Ġeliminated":11142,"Ġfals":11143,"Ġshield":11144,"ĠGuardian":11145,"Ġ1902":11146,"ĠLegacy":11147,"ĠVietnamese":11148,"ĠVis":11149,"196":11150,"Ġvictories":11151,"Ġsurvive":11152,"Ġsainik":11153,"Ġdispute":11154,"Ġrestaurant":11155,"ĠAlfred":11156,"31":11157,"Ġjaag":11158,"antric":11159,"opes":11160,"Ġdegrees":11161,"Ġbenefit":11162,"lap":11163,"Ġsiries":11164,"Ġtelling":11165,"Ġsoil":11166,"Ġvishnu":11167,"Ġloan":11168,"Ġsankraman":11169,"umbak":11170,"Ġmaap":11171,"ĠTun":11172,"Ġprep":11173,"Ġseeking":11174,"ĠHockey":11175,"angers":11176,"Ġchaatro":11177,"bhav":11178,"bhasha":11179,"Ġ1903":11180,"Ġnewspapers":11181,"Ġloksabhaa":11182,"Ġcargo":11183,"Ġsurprise":11184,"Ġfactory":11185,"Ġupasthiti":11186,"Ġoccupation":11187,"Ġbananaa":11188,"Ġupyukt":11189,"orious":11190,"haanaa":11191,"praarambhik":11192,"Ġabsol":11193,"ĠMinnesota":11194,"inces":11195,"Ġthor":11196,"forced":11197,"Ġoccasions":11198,"Ġbhavishya":11199,"Ġpap":11200,"Ġchen":11201,"Ġvaan":11202,"ocol":11203,"Ġshakt":11204,"Ġ168":11205,"Ġarriving":11206,"half":11207,"Ġvaak":11208,"ĠAff":11209,"Ġkart":11210,"Ġadventure":11211,"ĠÐ":11212,"Ġprime":11213,"Ġtunnel":11214,"rupted":11215,"Ġmanuscript":11216,"Ġrout":11217,"Ġagg":11218,"Cap":11219,"Ġsevaaon":11220,"ĠRand":11221,"ista":11222,"hita":11223,"ĠHong":11224,"ĠManhattan":11225,"atkaar":11226,"ivia":11227,"Ġdiet":11228,"Ġscat":11229,"Ġilaa":11230,"iji":11231,"Ġfate":11232,"Ġsmooth":11233,"ĠWalker":11234,"Ġkush":11235,"chitr":11236,"37":11237,"Ġjet":11238,"ĠEuro":11239,"ĠFranklin":11240,"uram":11241,"Ġsamajha":11242,"ĠFried":11243,"Ġcooper":11244,"Ġstruggle":11245,"pehle":11246,"Ġmillimet":11247,"incial":11248,"Ġmaharaj":11249,"ĠInterstate":11250,"ulon":11251,"Ġkitaab":11252,"ardo":11253,"Ġpreserved":11254,"Ġcandidates":11255,"Ġvirdohi":11256,"ĠGot":11257,"Ġsamraat":11258,"Ġmatlab":11259,"Ġgraa":11260,"ainik":11261,"ĠYan":11262,"Ġemperor":11263,"Ġbeti":11264,"Ġschedule":11265,"vaa":11266,"ĠFront":11267,"anshik":11268,"bhumi":11269,"Ġutpatti":11270,"ĠPeninsula":11271,"36":11272,"Ġah":11273,"aanee":11274,"Ġwear":11275,"vast":11276,"Ġfee":11277,"ige":11278,"Ġchhattisgarh":11279,"hart":11280,"ĠFal":11281,"ĠRoosevelt":11282,"Ġphr":11283,"Ġmugh":11284,"ĠIce":11285,"Ġneuy":11286,"ĠKurt":11287,"Ġpublicly":11288,"Ġhamen":11289,"Ġteaching":11290,"ĠRen":11291,"aints":11292,"Ġmukhyatah":11293,"oga":11294,"Ġcompeted":11295,"Ġtom":11296,"oker":11297,"Ġaccur":11298,"Ġviolent":11299,"ĠSatur":11300,"ĠFlight":11301,"Ġrivers":11302,"ĠShel":11303,"antaran":11304,"tier":11305,"named":11306,"ishment":11307,"Ġaapako":11308,"Ġbeautiful":11309,"emen":11310,"ĠIndustry":11311,"Ġchaud":11312,"ĠBulgar":11313,"xy":11314,"iden":11315,"Ġalignment":11316,"Ġconcrete":11317,"Ġhonour":11318,"Ġlan":11319,"Ġresumed":11320,"munition":11321,"aayon":11322,"Ġgatividhiyon":11323,"ĠMargaret":11324,"LC":11325,"Ġimpossible":11326,"ania":11327,"uras":11328,"ĠKansas":11329,"Ġdiye":11330,"Ġpratibha":11331,"Ġtatkaaleen":11332,"onder":11333,"ĠKnow":11334,"pot":11335,"Ġmaane":11336,"ĠWolf":11337,"ubh":11338,"Ġpilots":11339,"Ġagricultural":11340,"ĠDigital":11341,"Ġsaaj":11342,"kil":11343,"ĠOd":11344,"Ġsurvivors":11345,"Ġtaar":11346,"Ġbure":11347,"andaar":11348,"Ġabilities":11349,"Ġevil":11350,"Ġtwin":11351,"parantu":11352,"Ġsuitable":11353,"aye":11354,"laav":11355,"Ġchampions":11356,"rates":11357,"Ġaand":11358,"Ġbri":11359,"Ġnations":11360,"Ġpraj":11361,"Ġloop":11362,"havin":11363,"ĠPortland":11364,"Ġassisted":11365,"Ġadvoc":11366,"ĠHindu":11367,"Ġpoison":11368,"Ġassists":11369,"ĠHotel":11370,"Ġintensified":11371,"ĠBuilding":11372,"Ġmaananaa":11373,"ĠSaturday":11374,"Ġmane":11375,"hiya":11376,"atee":11377,"Ġunderground":11378,"Ġmines":11379,"Ġchet":11380,"Ġelder":11381,"Ġdefeating":11382,"ĠBorn":11383,"ĠWol":11384,"Ġtruth":11385,"38":11386,"Ġsom":11387,"Ġmarsh":11388,"Ġsatellite":11389,"ĠTamil":11390,"iveness":11391,"rows":11392,"Ġunderstanding":11393,"Ġusual":11394,"ĠCole":11395,"Ġinteresting":11396,"Ġprashasnic":11397,"Ġballeb":11398,"roc":11399,"Ġresolution":11400,"Ġsamajhane":11401,"Ġtakneekee":11402,"ikar":11403,"Ġalum":11404,"ĠWard":11405,"ĠUE":11406,"Ġsigns":11407,"Ġbikri":11408,"ilty":11409,"Ġsard":11410,"Ġwaves":11411,"Ġjhar":11412,"Ġlect":11413,"vir":11414,"Ġela":11415,"fish":11416,"Ġswitch":11417,"Ġparisar":11418,"Ġciting":11419,"Ġsubmitted":11420,"iples":11421,"Ġcommunication":11422,"Ġopponent":11423,"ĠArea":11424,"Ġbehalf":11425,"Ġsigning":11426,"Ġmasjid":11427,"Ġspiritual":11428,"ĠDw":11429,"Ġretail":11430,"Ġdynam":11431,"Ġcarch":11432,"Ġfifteen":11433,"Ġbusinesses":11434,"kat":11435,"Ġpace":11436,"ĠCob":11437,"onymous":11438,"alit":11439,"Ġbacking":11440,"presents":11441,"Ġsubjects":11442,"Ġsymptoms":11443,"Ġnirantar":11444,"Ġvibhaajan":11445,"eing":11446,"star":11447,"Ġforty":11448,"Ġ104":11449,"Ġassess":11450,"ĠHero":11451,"Ġmoul":11452,"ĠBull":11453,"Ġpercentage":11454,"ĠBox":11455,"Ġforests":11456,"rants":11457,"Ġkaraayaa":11458,"Ġclosing":11459,"Ġpremier":11460,"ĠBan":11461,"rud":11462,"eekrut":11463,"yd":11464,"ĠProm":11465,"Ġsituated":11466,"ĠBlues":11467,"ĠShakespeare":11468,"sabhi":11469,"Ġhem":11470,"Ġvet":11471,"ĠHalo":11472,"Ġnirdeshit":11473,"prayek":11474,"Ġpaimaane":11475,"Ġshaayad":11476,"Ġnamak":11477,"ĠProgram":11478,"ĠNative":11479,"Ġsharma":11480,"Ġmathemat":11481,"Ġsarvocch":11482,"Ġpratim":11483,"Ġnishk":11484,"Ġvoiced":11485,"Ġchlor":11486,"ĠVinc":11487,"Ġworship":11488,"osph":11489,"ĠWa":11490,"Ġapan":11491,"ĠTenness":11492,"bec":11493,"Ġrepresents":11494,"Ġbanks":11495,"Ġrasinic":11496,"mul":11497,"iry":11498,"Ġruchi":11499,"Ġforec":11500,"vatt":11501,"Ġammunition":11502,"ĠBrun":11503,"ĠAud":11504,"inners":11505,"ĠCampbell":11506,"gaanv":11507,"utical":11508,"upta":11509,"rac":11510,"Ġpeed":11511,"ĠOffic":11512,"Äĥ":11513,"Ġprol":11514,"ĠKings":11515,"195":11516,"Ġtornado":11517,"Ġasking":11518,"ĠFriend":11519,"Ġillness":11520,"ongol":11521,"Ġsach":11522,"kaash":11523,"Ġcontroll":11524,"Ġmarketing":11525,"Ġbhaavana":11526,"ĠAthlet":11527,"inian":11528,"Ġbark":11529,"Ġdand":11530,"Ġneshnal":11531,"ĠNash":11532,"maha":11533,"ĠEgyptian":11534,"Ġcollaboration":11535,"ĠSullivan":11536,"Ġstan":11537,"ĠDest":11538,"Ġislamic":11539,"Ġsansthaapak":11540,"Ġqueen":11541,"Ġrepairs":11542,"pecies":11543,"Ġgenetic":11544,"Ġsalt":11545,"ico":11546,"Ġdisaster":11547,"Ġbadlaav":11548,"ĠGraham":11549,"enz":11550,"Ġapartment":11551,"Ġsandhi":11552,"Ġexit":11553,"Ġchahta":11554,"Ġwilling":11555,"Ġoverse":11556,"Ġsamast":11557,"ĠSteven":11558,"Ġjunction":11559,"Ġsiddhanth":11560,"Ġwrest":11561,"Ġnau":11562,"Ġtenth":11563,"inea":11564,"Ġfeelings":11565,"ĠLucas":11566,"ĠWindows":11567,"hanu":11568,"Ġdhru":11569,"Ġattendance":11570,"Ġhajaar":11571,"isen":11572,"ĠCO":11573,"Ġelabor":11574,"Ġsuspended":11575,"Ġrising":11576,"ĠEP":11577,"ensis":11578,"Ġdocuments":11579,"ĠDragon":11580,"jin":11581,"saam":11582,"Ġparyaavaran":11583,"Ġbran":11584,"rix":11585,"Ã©e":11586,"Ġaudiences":11587,"Ġearthqu":11588,"Ġlieutenant":11589,"Ġisisi":11590,"Ġkary":11591,"Ġaffairs":11592,"Ġfavou":11593,"Ġvijeta":11594,"Ġkapur":11595,"Ġflights":11596,"Ġdeliber":11597,"hne":11598,"Ġchune":11599,"Ġtouring":11600,"ĠEc":11601,"aadhunik":11602,"ĠHistoric":11603,"Ġkaksha":11604,"ĠMes":11605,"Ġrecre":11606,"ĠMcL":11607,"ĠStevens":11608,"Ġpadaarthon":11609,"Ġtay":11610,"Ġsor":11611,"irdaar":11612,"Ġsolution":11613,"Ġgolden":11614,"Ġabol":11615,"Ġichha":11616,"Ġkir":11617,"orders":11618,"Ġskull":11619,"Ġ109":11620,"jaise":11621,"Ġfuneral":11622,"ĠPalest":11623,"iye":11624,"Ġmim":11625,"Ġaantarik":11626,"ĠAle":11627,"weet":11628,"Ġprofile":11629,"Ġtargets":11630,"Ġpraaia":11631,"Ġelahabaad":11632,"Ġ02":11633,"Ġglac":11634,"Ġsatr":11635,"Ġmountains":11636,"Ġmeasured":11637,"ĠMississippi":11638,"ĠTennessee":11639,"nament":11640,"Ġ350":11641,"Ġsandesh":11642,"ĠLouisiana":11643,"cular":11644,"Ġfont":11645,"odge":11646,"Ġregistered":11647,"ĠMess":11648,"uez":11649,"Ġoperational":11650,"Ġorchest":11651,"ema":11652,"Ġaffair":11653,"ĠLabour":11654,"hano":11655,"ĠSeason":11656,"Ġvidroh":11657,"Ġkahana":11658,"ĠBusiness":11659,"ĠGate":11660,"Ġprabhavi":11661,"Ġkshetreey":11662,"ĠMontreal":11663,"Ġnuks":11664,"Ġaash":11665,"Ġbataa":11666,"Ġadopt":11667,"Ġcabinet":11668,"saath":11669,"orph":11670,"ishchit":11671,"Ġcompilation":11672,"Ġaffili":11673,"OT":11674,"zing":11675,"Ġkee":11676,"Ġasam":11677,"Ġvishw":11678,"ĠSmall":11679,"hyamantri":11680,"Ġpoorly":11681,"Ġgalat":11682,"Ġsamasyaon":11683,"Ġaimed":11684,"Ġfiled":11685,"Ġaasaani":11686,"othe":11687,"Ġvertical":11688,"ĠDepression":11689,"Ġsamarpit":11690,"ĠPhilippines":11691,"Ġkund":11692,"ican":11693,"Ġmahas":11694,"uary":11695,"Ġdaay":11696,"apolis":11697,"Ġconscious":11698,"urrent":11699,"Ġhorn":11700,"Ġvive":11701,"ĠMissouri":11702,"Ġalliance":11703,"daksh":11704,"father":11705,"Ġstorage":11706,"zech":11707,"Ġrecognised":11708,"IV":11709,"Ġfifty":11710,"alpur":11711,"Ġliked":11712,"75":11713,"ĠDal":11714,"Ġunderw":11715,"Ġstatue":11716,"Ġentertainment":11717,"aty":11718,"Ġyam":11719,"Ġmeg":11720,"Ġtemporarily":11721,"Ġreplacing":11722,"Ġsangrahalay":11723,"Ġexplosion":11724,"hand":11725,"Ġreven":11726,"rift":11727,"Ġfavorable":11728,"ateur":11729,"Ġshells":11730,"issions":11731,"Ġbasin":11732,"ĠMitchell":11733,"ĠBilly":11734,"Ġrajvansh":11735,"Ġinterpre":11736,"ĠABC":11737,"ĠUs":11738,"formation":11739,"Ġniyamon":11740,"Ġceremon":11741,"Ġindu":11742,"sex":11743,"Ġrecommend":11744,"Ġjazz":11745,"ĠSeven":11746,"vijan":11747,"hapan":11748,"uese":11749,"Ġshikaar":11750,"Ġkrant":11751,"Ġmos":11752,"ĠCow":11753,"Ġrakhi":11754,"Ġsequences":11755,"ĠKarl":11756,"Ġchatur":11757,"Ġnirdesan":11758,"adharana":11759,"Ġbaag":11760,"Ġlock":11761,"ĠMach":11762,"life":11763,"eri":11764,"alin":11765,"Ġthinking":11766,"Ġresidence":11767,"Ġdirectors":11768,"aavd":11769,"ĠCritics":11770,"ĠIndependent":11771,"Ġoffering":11772,"39":11773,"ĠTag":11774,"ĠFem":11775,"olid":11776,"pty":11777,"Ġuseful":11778,"Ġaarope":11779,"Ġsrilanka":11780,"Ġrevol":11781,"Ġsoviet":11782,"ĠWarren":11783,"Ġexpensive":11784,"Ġfaisla":11785,"ĠRing":11786,"estone":11787,"Ġsafe":11788,"Ġfemin":11789,"ĠPed":11790,"Ġrestoration":11791,"Ġvriksh":11792,"Ġpatterns":11793,"oly":11794,"Ġkariyar":11795,"Ġavish":11796,"Ġmudd":11797,"ĠVo":11798,"Ġreflected":11799,"oxide":11800,"Ġpreparation":11801,"Ġkerala":11802,"Ġwore":11803,"ĠCzech":11804,"ello":11805,"argah":11806,"Ġremark":11807,"Ġdaalaa":11808,"Ġjaani":11809,"Ġterror":11810,"ĠDS":11811,"atio":11812,"Ġmini":11813,"Ġmental":11814,"Ġalter":11815,"Ġudyaan":11816,"Ġishwar":11817,"Ġdost":11818,"Ġgrah":11819,"Ġparibhaashit":11820,"34":11821,"net":11822,"ĠKan":11823,"ovak":11824,"Ġreluct":11825,"mingham":11826,"waayu":11827,"Ġgreg":11828,"Ġamongst":11829,"Ġdiwas":11830,"Ġsket":11831,"Ġfrig":11832,"ylan":11833,"Ġfatal":11834,"inburgh":11835,"ĠKirk":11836,"grade":11837,"Ġvyan":11838,"ĠMaur":11839,"Ġcontributions":11840,"Ġkile":11841,"Ġmans":11842,"ĠLith":11843,"vahaan":11844,"ĠGuide":11845,"Ġsuggesting":11846,"Ġdrugs":11847,"erg":11848,"irs":11849,"Ġcompleting":11850,"enna":11851,"Ġguide":11852,"Ġsuz":11853,"Ġwonder":11854,"Ġdevtaa":11855,"Ġturant":11856,"Ġdelivery":11857,"ĠSant":11858,"Ġstores":11859,"artney":11860,"Ġrebuilt":11861,"Ø§":11862,"arai":11863,"Ġfurn":11864,"iva":11865,"Ġ1896":11866,"Ġclearly":11867,"Ġbadhaane":11868,"Ġupasthit":11869,"Ġoverw":11870,"Ġupyogk":11871,"ĠPersian":11872,"Ġescaped":11873,"ĠkW":11874,"agascar":11875,"Ġprasar":11876,"Ġtribes":11877,"Ġshankar":11878,"bishop":11879,"Ġdhwani":11880,"Ġhorror":11881,"ĠCuba":11882,"Ġther":11883,"Ġcomfort":11884,"Ġcoverage":11885,"ĠPhoen":11886,"Ġbowling":11887,"Ġpulled":11888,"Ġconservative":11889,"enger":11890,"Ġcancelled":11891,"zona":11892,"Ġsisters":11893,"Ġerupt":11894,"Ġprasaaran":11895,"Ġkehalaata":11896,"Ãº":11897,"Ġwasn":11898,"Ġamounts":11899,"hitiy":11900,"Ġasc":11901,"ĠJu":11902,"Ġdecides":11903,"Ġsaved":11904,"Ġpraayah":11905,"Ġcous":11906,"This":11907,"Ġjaay":11908,"idas":11909,"ĠSnow":11910,"Ġkarier":11911,"Ġdepending":11912,"Ġcasting":11913,"Ġlambii":11914,"Ġdramatic":11915,"SA":11916,"irm":11917,"Ġphotography":11918,"Ġcad":11919,"Ġantat":11920,"chay":11921,"Ġbahari":11922,"urring":11923,"ĠEconom":11924,"Ġkarnataka":11925,"Ġsutara":11926,"Ġgunvatt":11927,"haalee":11928,"Ġlacked":11929,"Ġtiimon":11930,"ĠFiles":11931,"ĠGrey":11932,"Ġshanti":11933,"Ġpole":11934,"Ġparivartit":11935,"Ġparent":11936,"Ġpratishth":11937,"Ġperspective":11938,"zzle":11939,"Ġassembly":11940,"Ġmonitor":11941,"Ġpredomin":11942,"lahoma":11943,"Ġownership":11944,"Ġengagement":11945,"Ġadministrative":11946,"Ġbadhaava":11947,"isd":11948,"alli":11949,"Ġkaarnon":11950,"Ġsharp":11951,"ĠJohan":11952,"sand":11953,"ankhyak":11954,"Ġargues":11955,"Ġ1860":11956,"alia":11957,"Ġorb":11958,"esses":11959,"Ġavadharana":11960,"ĠCycl":11961,"Ġsampoorn":11962,"Ġcolonies":11963,"uran":11964,"urst":11965,"ĠIndies":11966,"Ġexplain":11967,"ilst":11968,"Ġcontext":11969,"former":11970,"ĠArizona":11971,"baar":11972,"Ġpoems":11973,"Ġshipping":11974,"Ġartistic":11975,"Ġarmored":11976,"Ġfastest":11977,"Ġdrove":11978,"Ġnan":11979,"Ġpaath":11980,"Ġboundary":11981,"Ġmys":11982,"ĠIns":11983,"Ġinstitutions":11984,"Ġmerchant":11985,"Ġtrek":11986,"Ġgust":11987,"Ġnainital":11988,"ĠMarie":11989,"Ġpeshe":11990,"ĠBureau":11991,"Ġtiss":11992,"uty":11993,"boy":11994,"Ġinput":11995,"vaar":11996,"ĠDylan":11997,"oba":11998,"Ġcontrols":11999,"Ġflagship":12000,"ĠTel":12001,"arsity":12002,"Ġpurana":12003,"Ġcomparison":12004,"Ġplayoffs":12005,"Ġsky":12006,"eding":12007,"ĠScout":12008,"Ġideal":12009,"Ġlayer":12010,"ispard":12011,"hitiyik":12012,"Ġshant":12013,"Ġranks":12014,"Ġbaje":12015,"Ġremnants":12016,"Ġvikalp":12017,"Ġnuksaan":12018,"ĠSem":12019,"Ġstab":12020,"Ġcharacterized":12021,"ammu":12022,"Ġbonus":12023,"sany":12024,"utton":12025,"Ġconnect":12026,"Ġdard":12027,"urer":12028,"ĠJosh":12029,"america":12030,"Ġkheti":12031,"ojit":12032,"Ġvidwaanon":12033,"ĠHamm":12034,"etta":12035,"Ġnamit":12036,"Ġexplains":12037,"Ġarmament":12038,"Ġdiamond":12039,"Ġmilitia":12040,"von":12041,"à¸":12042,"Ġdekar":12043,"cru":12044,"Ġinland":12045,"ukhi":12046,"Ġblocks":12047,"Ġ1898":12048,"Ġapplication":12049,"vib":12050,"Ġacceler":12051,"Ġseverely":12052,"enni":12053,"Ġwants":12054,"Ġlav":12055,"Ġvarsha":12056,"abe":12057,"Ġcrews":12058,"Ġspend":12059,"ĠWilhelm":12060,"Ġnigam":12061,"ffect":12062,"Ġbadly":12063,"Ġdistinctive":12064,"Ġrestricted":12065,"png":12066,"Ġbronze":12067,"ĠSony":12068,"Ġhriday":12069,"Ġbanaaye":12070,"Ġpractices":12071,"Ġexcav":12072,"Ġlinks":12073,"Ġpale":12074,"Ġfrust":12075,"tario":12076,"Ġinstitution":12077,"ĠConfederate":12078,"Ġearning":12079,"Ġexclud":12080,"awahik":12081,"hl":12082,"orld":12083,"elo":12084,"Ġfaster":12085,"ulating":12086,"Ġhole":12087,"Ġsabit":12088,"Ġreaders":12089,"ĠSwitzer":12090,"Ġdemonstrated":12091,"Ġtheat":12092,"Ġchaa":12093,"ĠSyn":12094,"Ġranging":12095,"Ġfallen":12096,"Ġjarurat":12097,"Ġnivasee":12098,"asant":12099,"Ġpalace":12100,"Ġfixed":12101,"Ġkeem":12102,"ules":12103,"Ġshish":12104,"Å«":12105,"Ġobvious":12106,"Ġcos":12107,"Ġthrew":12108,"Ġcondem":12109,"Ġvisiting":12110,"Ġwider":12111,"otton":12112,"Ġquiet":12113,"ĠSwitzerland":12114,"aneey":12115,"ĠAmy":12116,"apni":12117,"ĠMrs":12118,"Ġinhabitants":12119,"ĠLiz":12120,"Ġ166":12121,"Ġmayor":12122,"Ġsampradaay":12123,"Ġgunvattta":12124,"ĠMack":12125,"ĠRidge":12126,"Ġrefuge":12127,"Ġble":12128,"Ġmining":12129,"ĠCook":12130,"jection":12131,"donon":12132,"gor":12133,"ĠLang":12134,"ĠMurphy":12135,"Ġchali":12136,"Ġdisturb":12137,"Ġarrive":12138,"Ġwithdraw":12139,"ĠBroadway":12140,"no":12141,"ĠCher":12142,"Ġunako":12143,"Ġyield":12144,"Ġriders":12145,"Ġgane":12146,"ĠFederation":12147,"annada":12148,"Ġ1899":12149,"Ġspotted":12150,"Ġphilosophy":12151,"Ġappropriate":12152,"ayana":12153,"ĠHarvey":12154,"Ġsurge":12155,"Ġpushti":12156,"Ġnat":12157,"ĠProte":12158,"Ġbaby":12159,"Ġtriple":12160,"Ġbulk":12161,"ĠSuch":12162,"aalat":12163,"engali":12164,"Ġmaneu":12165,"Ġanter":12166,"Ġevolved":12167,"Ġvulner":12168,"Ġtirth":12169,"Ġnominations":12170,"Ġkadiyaan":12171,"Ġreaches":12172,"apati":12173,"Ġ1893":12174,"Ġsiddhanton":12175,"uable":12176,"anced":12177,"Ġsung":12178,"Ġforg":12179,"ĠBarry":12180,"Ġdistinguished":12181,"ste":12182,"Ġparichay":12183,"Ġautobi":12184,"pin":12185,"Ġnait":12186,"Ġhastakshar":12187,"pent":12188,"afal":12189,"odox":12190,"ĠMah":12191,"ĠAli":12192,"Ġchoose":12193,"ruption":12194,"Ġexhibition":12195,"bu":12196,"lings":12197,"Ġnorthward":12198,"ideshak":12199,"Ġvividh":12200,"Ġisane":12201,"Ġvaishvik":12202,"Ġfro":12203,"Ġinstru":12204,"Ġprinted":12205,"ĠOriginal":12206,"yag":12207,"Ġvs":12208,"Ġprepare":12209,"ĠRal":12210,"raltar":12211,"aakon":12212,"ĠDou":12213,"astro":12214,"Ġ108":12215,"Ġkahan":12216,"Ġdiscipl":12217,"Ġchandra":12218,"Ġdominant":12219,"ĠOklahoma":12220,"Ġuj":12221,"Ġaz":12222,"Ġpine":12223,"Ġnich":12224,"ĠAustrian":12225,"ĠSaros":12226,"eda":12227,"Ġmukhyamantri":12228,"Ġfamiliar":12229,"Ġchapel":12230,"Ġsubspecies":12231,"ĠInternet":12232,"chha":12233,"Ġpredicted":12234,"pro":12235,"akaal":12236,"Ġhouseholds":12237,"Ġprabandh":12238,"MI":12239,"ĠLor":12240,"Ġheading":12241,"Ġ106":12242,"Ġintellect":12243,"pary":12244,"ĠWik":12245,"Ġunex":12246,"ĠAlber":12247,"Ġhung":12248,"Ġabund":12249,"adhya":12250,"Ġslaves":12251,"ĠDelaware":12252,"Ġwreck":12253,"ĠJuan":12254,"Ġrepeatedly":12255,"Ġvaarshik":12256,"local":12257,"arshith":12258,"dw":12259,"Ġdaw":12260,"sequently":12261,"ĠPhCap":12262,"Ġjagat":12263,"ĠTiG":12264,"ĠTiTB":12265,"ĠTiTE":12266,"ĠTiPB":12267,"ĠTiPE":12268,"Ġpredecessor":12269,"Ġstick":12270,"ĠHu":12271,"Ġsampann":12272,"Ġsick":12273,"Ġshock":12274,"Ġkirdaar":12275,"Ġbeam":12276,"arshak":12277,"Ġcaps":12278,"ivaary":12279,"Ġtheatr":12280,"Ġhan":12281,"Ġmahak":12282,"Ġstrict":12283,"ĠFif":12284,"agarh":12285,"Ġkhatm":12286,"Ġneuyork":12287,"Ġwire":12288,"hyl":12289,"Ġamla":12290,"Ġmari":12291,"Ġplain":12292,"Ġcarriers":12293,"bhu":12294,"ritiyon":12295,"Ġsoch":12296,"Ġtir":12297,"Ġpor":12298,"Ġattained":12299,"Ġpratispard":12300,"ĠPerry":12301,"ĠLeslie":12302,"Ġboss":12303,"Ġmeat":12304,"Ġdescend":12305,"Ġproductions":12306,"ĠAld":12307,"gie":12308,"ĠShad":12309,"asts":12310,"Ġallies":12311,"Ġexcellent":12312,"iest":12313,"Ġfriendship":12314,"Ġpropag":12315,"__":12316,"ĠPil":12317,"Ġkarenge":12318,"Ġsaun":12319,"Ġpredict":12320,"Ġtack":12321,"Ġalive":12322,"ĠTerrit":12323,"ĠDenmark":12324,"Ġcircumstances":12325,"Ġhonge":12326,"amine":12327,"ĠMother":12328,"bhaal":12329,"Ġpeaking":12330,"Ġseriously":12331,"Ġpretty":12332,"Ġillegal":12333,"Ġsecretary":12334,"Ġkanoonee":12335,"Ġnut":12336,"kees":12337,"azz":12338,"Ġbiographer":12339,"odium":12340,"soos":12341,"Ġovert":12342,"Ġfrancisi":12343,"aska":12344,"ĠLess":12345,"Ġrokane":12346,"ĠTokyo":12347,"Ġcoinc":12348,"Ġaadhyat":12349,"Ġkshetrafal":12350,"pressed":12351,"Ġdiscussion":12352,"bird":12353,"Ġhaw":12354,"Ġdisagre":12355,"Ġdaure":12356,"Ġmeetings":12357,"ĠOriginally":12358,"Ġabhyaas":12359,"Ġkiss":12360,"Ġcharter":12361,"Ġsolar":12362,"Ġbombs":12363,"Ġvitt":12364,"ĠInn":12365,"Ġshuruu":12366,"ĠTrust":12367,"Ġpuraani":12368,"Ġfarsi":12369,"cht":12370,"storm":12371,"Ġperceived":12372,"Ġkhub":12373,"ĠBuc":12374,"Ġsansar":12375,"ĠBaby":12376,"Ġjaakar":12377,"Ġrib":12378,"Ġerror":12379,"ocratic":12380,"Ġalternate":12381,"Ġmaansik":12382,"adier":12383,"Ġtelevijan":12384,"Ġwaiting":12385,"bes":12386,"log":12387,"Ġtight":12388,"Ġmurad":12389,"Ġwhilst":12390,"ĠExt":12391,"Ġjobs":12392,"Ġdefinition":12393,"otte":12394,"Ġprapti":12395,"ughters":12396,"Ġ154":12397,"Ġlooks":12398,"Ġwestward":12399,"ĠJonathan":12400,"hum":12401,"Ġremarked":12402,"Ġrasayan":12403,"ĠChel":12404,"inating":12405,"Ġmagic":12406,"ĠAtlanta":12407,"ĠBaseball":12408,"Ġsari":12409,"ĠGh":12410,"Ġreconna":12411,"ĠPlayers":12412,"Ġsurrend":12413,"Ġsimilarly":12414,"33":12415,"ĠJohnny":12416,"ĠRihanna":12417,"sans":12418,"Ġkolkata":12419,"Ġdhak":12420,"Ġmatters":12421,"Ġchamber":12422,"Ġbeemaari":12423,"ĠPle":12424,"Ġartific":12425,"Ġbrig":12426,"shore":12427,"Ġbattalions":12428,"Ġplanets":12429,"yrus":12430,"ĠCampaign":12431,"ĠAbbey":12432,"vat":12433,"haon":12434,"Ġnavy":12435,"Ġdharawahik":12436,"Ġsambandhon":12437,"Ġrevenue":12438,"ĠRico":12439,"Ġbone":12440,"ingh":12441,"Ġshuddh":12442,"Ġsunk":12443,"Ġbehaviour":12444,"onomy":12445,"Ġcrick":12446,"Ġarmour":12447,"Ġswarna":12448,"ĠNixon":12449,"Ġgarmi":12450,"Ġcivilian":12451,"Ġjapani":12452,"Ġroj":12453,"aws":12454,"Ġdarsha":12455,"Ġliquid":12456,"ĠJos":12457,"Ġdrivers":12458,"bhoot":12459,"hru":12460,"Ġretain":12461,"erk":12462,"Ġports":12463,"Ġsuzav":12464,"Ġkhag":12465,"Ġanupaat":12466,"Ġkhaadya":12467,"rar":12468,"Ġjald":12469,"olly":12470,"Ġstrengthened":12471,"ĠPrize":12472,"ĠPitts":12473,"ĠNAS":12474,"ĠSpir":12475,"OC":12476,"Ġanivaary":12477,"ĠWag":12478,"Ġjustice":12479,"Ġsimultaneously":12480,"ĠUEFA":12481,"Ġreconnaissance":12482,"TW":12483,"Ġtyphoon":12484,"Ġlegacy":12485,"Ġpratyaksh":12486,"ĠArnold":12487,"Ġaakarshith":12488,"uart":12489,"ĠLex":12490,"ĠEdwards":12491,"Ġpaatr":12492,"'s":12493,"Ġconsole":12494,"Ġroots":12495,"Ġmahasoos":12496,"Ġisvi":12497,"ĠSig":12498,"Ġchest":12499,"jahaan":12500,"Ġaparaadh":12501,"rogen":12502,"estyle":12503,"Ġdemanded":12504,"Ġindian":12505,"Ġairline":12506,"Ġsampadak":12507,"Ġ1897":12508,"Ġmuradabad":12509,"Ġhills":12510,"ĠSoul":12511,"ĠMS":12512,"ĠMans":12513,"Ġbacked":12514,"puri":12515,"icate":12516,"Ġunre":12517,"ĠJar":12518,"ineering":12519,"Ġvicha":12520,"cow":12521,"Ġcock":12522,"idal":12523,"ĠPi":12524,"Ġcomics":12525,"Ġyaj":12526,"Ġfantasy":12527,"ĠAS":12528,"ĠRailroad":12529,"Ġmoon":12530,"ĠRoll":12531,"Ġinsisted":12532,"Ġradical":12533,"ĠJimmy":12534,"Ġdoors":12535,"Ġextend":12536,"Ġenlisted":12537,"Ġexpression":12538,"ĠMcM":12539,"Ġathletes":12540,"Ġbombing":12541,"Ġoonchai":12542,"Ġprashn":12543,"lete":12544,"entle":12545,"ĠCost":12546,"Ġartwork":12547,"Ġpromised":12548,"ĠKeith":12549,"ĠRub":12550,"Ġhoriz":12551,"Ġaandolan":12552,"Ġbech":12553,"Ġmanch":12554,"Ġvahiin":12555,"Ġdwar":12556,"Ġpersonally":12557,"bahari":12558,"ĠLov":12559,"Ġdemands":12560,"Ġguitarist":12561,"Ġsainikon":12562,"Ġsaadhan":12563,"gad":12564,"Ġcup":12565,"ĠUniversal":12566,"Ġdast":12567,"aayiyon":12568,"Ġlaayaa":12569,"rice":12570,"Ġaurang":12571,"Ġlanes":12572,"Ġhidden":12573,"eling":12574,"adal":12575,"Ġchayan":12576,"Ġpione":12577,"Ġorchestra":12578,"ĠTol":12579,"Ġjung":12580,"acre":12581,"ologies":12582,"Ġportions":12583,"ĠRachel":12584,"Ġuttaradhik":12585,"ĠTan":12586,"Ġmainland":12587,"ĠTai":12588,"Ġunn":12589,"ifies":12590,"ails":12591,"plete":12592,"Ġstruggled":12593,"Ġaudition":12594,"Ġessential":12595,"ouver":12596,"Ġmachh":12597,"Ġkore":12598,"ĠMicrosoft":12599,"ĠHann":12600,"Ġ169":12601,"regation":12602,"ĠPeace":12603,"ĠImpact":12604,"Ġspr":12605,"ishad":12606,"Ġdemolished":12607,"Ġjanajati":12608,"asank":12609,"Ġ127":12610,"purvak":12611,"Ġshaktis":12612,"Ġsq":12613,"Ġguilty":12614,"Ġincreases":12615,"janak":12616,"Ġhybrid":12617,"Ġangrejon":12618,"ĠPubl":12619,"ĠArc":12620,"Ġpel":12621,"ulty":12622,"Ġruling":12623,"Ġmedicine":12624,"ĠYankees":12625,"ĠLost":12626,"Ġcompens":12627,"Ġswimming":12628,"Ġarmies":12629,"Ġlaane":12630,"ĠNine":12631,"Ġrajkum":12632,"Ġfeels":12633,"azines":12634,"Ġorganisation":12635,"ĠTracy":12636,"ĠPearl":12637,"Ġcounties":12638,"ĠMaya":12639,"Ġacharya":12640,"ĠBomb":12641,"Ġ1850":12642,"Ġmitra":12643,"Ġsurpass":12644,"Ġuranium":12645,"aasiyon":12646,"Ġmishan":12647,"Ġcompliment":12648,"ĠPakistan":12649,"Ġjameen":12650,"ĠNik":12651,"Ġprove":12652,"Ġshrad":12653,"Ġdiscont":12654,"habad":12655,"Ġopportun":12656,"Ġkaaryakramon":12657,"Ġconversion":12658,"ĠBirmingham":12659,"amond":12660,"ĠPars":12661,"ĠRights":12662,"aiya":12663,"Ġstarring":12664,"ĠShaw":12665,"Ġdancing":12666,"ÙĦ":12667,"Ġtheater":12668,"Ġbath":12669,"Ġov":12670,"Ġpashu":12671,"ĠFurthermore":12672,"folk":12673,"ushi":12674,"vay":12675,"Ġbhaar":12676,"ĠEnterprise":12677,"ĠObama":12678,"nap":12679,"Ġyuv":12680,"Ġ1895":12681,"Ġculmin":12682,"ĠEventually":12683,"Ġward":12684,"hira":12685,"ankaal":12686,"Ġfeather":12687,"Ġexpand":12688,"hri":12689,"Ġrac":12690,"ĠDefence":12691,"ĠPhoenix":12692,"uto":12693,"Ġshaik":12694,"ĠCanter":12695,"ĠMcCartney":12696,"fi":12697,"Ġexactly":12698,"ĠMik":12699,"ĠBaker":12700,"Ġclothing":12701,"Ġtatwon":12702,"Ġobjective":12703,"Ġaakar":12704,"Ġkaus":12705,"Ġekad":12706,"Ġcompounds":12707,"Ġpursue":12708,"aba":12709,"Ġchad":12710,"Ġbelieving":12711,"harth":12712,"Ġrelies":12713,"Ġlikhit":12714,"Ġdiscovers":12715,"Ġkadam":12716,"Ġelevation":12717,"avia":12718,"Ġclock":12719,"Ġexplan":12720,"minster":12721,"ĠGray":12722,"ĠJup":12723,"Ġsucceed":12724,"Ġarthvyavastha":12725,"Ġvitaran":12726,"Ġdoubt":12727,"imm":12728,"aprat":12729,"Ġbadhati":12730,"jiland":12731,"ĠRab":12732,"ĠCommunity":12733,"Ġdanger":12734,"inations":12735,"Ġacou":12736,"197":12737,"Ġjoda":12738,"ĠHudson":12739,"Ġaccum":12740,"Ġganraaj":12741,"ĠâĤ¹":12742,"aked":12743,"Ġgray":12744,"cticut":12745,"Ġlou":12746,"ĠEt":12747,"Ġchrom":12748,"Ġpunk":12749,"Ġconcentration":12750,"ĠGirls":12751,"Ġoverseas":12752,"iks":12753,"Ġaltered":12754,"uche":12755,"atiyon":12756,"Ġrajan":12757,"Ġaatma":12758,"ĠMari":12759,"ĠChand":12760,"Ġvanas":12761,"Ġmahad":12762,"okta":12763,"ĠNag":12764,"Ġpadhai":12765,"ĠWayne":12766,"Ġelectrical":12767,"ĠBobby":12768,"bow":12769,"anna":12770,"Ġengage":12771,"Ã¦":12772,"ĠMadagascar":12773,"Ġparyaton":12774,"ĠMint":12775,"Ġtrading":12776,"ĠWorks":12777,"Ġphoto":12778,"Ġempire":12779,"Ġtort":12780,"Ġtravels":12781,"Ġuplabd":12782,"ĠConnecticut":12783,"chaai":12784,"Ġå":12785,"ĠTodd":12786,"wet":12787,"aachit":12788,"Ġroosi":12789,"Ġcancel":12790,"Ġrequires":12791,"pracheen":12792,"Ġusers":12793,"diyon":12794,"azing":12795,"Ġsteps":12796,"Ġreverse":12797,"onald":12798,"Ġuni":12799,"dhish":12800,"Ġlisten":12801,"ĠMorrison":12802,"Ġindicating":12803,"ushan":12804,"Ġangle":12805,"Ġgiraft":12806,"Ġtale":12807,"araagat":12808,"ollo":12809,"ĠOntario":12810,"Ġlaghu":12811,"In":12812,"bhed":12813,"feld":12814,"Ġsthaayee":12815,"Ġune":12816,"Ġgarn":12817,"achal":12818,"Ġencl":12819,"Ġerected":12820,"Ġvyanjan":12821,"ĠTit":12822,"Ġdeterior":12823,"Ġmol":12824,"Ġmusician":12825,"Ġaatank":12826,"Ġbuk":12827,"Ġuser":12828,"Ġorigins":12829,"Ġencounter":12830,"Ġbijli":12831,"ĠLithuan":12832,"utp":12833,"ĠFriday":12834,"Ġlikhane":12835,"shaala":12836,"yadhyapi":12837,"ĠForeign":12838,"Ġbrick":12839,"Ġdefences":12840,"Ġpublications":12841,"Ġrenov":12842,"rency":12843,"Ġvidesh":12844,"Ġremoval":12845,"ĠBernard":12846,"Ġkrantik":12847,"Ġparody":12848,"Ġsettlers":12849,"Ġlegislature":12850,"Ġsitting":12851,"Ġmang":12852,"Ġforth":12853,"ĠâĢ¦":12854,"ĠCanterbury":12855,"Ġsupplied":12856,"Ġdecisions":12857,"Ġmastishk":12858,"Ġshaktishaalee":12859,"bn":12860,"ĠSid":12861,"Ġraising":12862,"Ġrishi":12863,"Ġaerial":12864,"ĠTs":12865,"ivation":12866,"jivan":12867,"Ġbib":12868,"hers":12869,"Ġaftermath":12870,"ensively":12871,"ĠBach":12872,"Ġorganised":12873,"Ġsachiv":12874,"Ġkaat":12875,"ĠCS":12876,"Ġscen":12877,"Ġcampaigns":12878,"Ġstriking":12879,"Ġpermitted":12880,"Ġ156":12881,"Ġhighways":12882,"ĠAllies":12883,"Ġterminal":12884,"Ġparivahan":12885,"Ġtrouble":12886,"ĠBoys":12887,"Ġlenaa":12888,"onian":12889,"ĠAbd":12890,"quote":12891,"Ġmanaaya":12892,"Ġquad":12893,"Ġupyogi":12894,"ĠType":12895,"cott":12896,"Ġtelephone":12897,"Ġdhaaran":12898,"Ġinqu":12899,"Ġhaul":12900,"ĠHD":12901,"Ġimprovements":12902,"Ġtil":12903,"ĠAM":12904,"ancouver":12905,"ĠManu":12906,"Ġbee":12907,"Ġblind":12908,"ĠPruss":12909,"Ġpravaah":12910,"Ġtranslation":12911,"Ġacknowledged":12912,"Ġati":12913,"ĠLam":12914,"phot":12915,"gun":12916,"inaki":12917,"Ġhari":12918,"ĠAra":12919,"Ġmishran":12920,"Ġwalking":12921,"prad":12922,"ĠGriff":12923,"Ġedited":12924,"Ġgraduated":12925,"Ġnaveen":12926,"ĠÃĨthel":12927,"Ġbaal":12928,"Ġmemor":12929,"Ġwrestling":12930,"ĠHugh":12931,"Ġchihn":12932,"hol":12933,"Ġdug":12934,"Ġexternal":12935,"Ġsikh":12936,"Ġvenue":12937,"Ġwealthy":12938,"yage":12939,"Ġrealized":12940,"ĠMountains":12941,"claimed":12942,"Ġcricketer":12943,"ctive":12944,"ĠVancouver":12945,"Ġmetric":12946,"Ġexecution":12947,"Ġmashin":12948,"Ġdissipated":12949,"Ġsoldier":12950,"ĠNapoleon":12951,"ĠTed":12952,"ource":12953,"Ġdressed":12954,"ratropical":12955,"Ġinterpretation":12956,"vaad":12957,"ĠFis":12958,"Ġpublishing":12959,"Ġtyaag":12960,"cho":12961,"ĠIran":12962,"Ġdevelopers":12963,"Ġconfron":12964,"Ġvigyaapan":12965,"Ġsamaad":12966,"Ġjinaki":12967,"Ġmissile":12968,"Ġlekhon":12969,"Ġobservations":12970,"Ġraids":12971,"Ġcelebrated":12972,"ĠÏ":12973,"Ġbata":12974,"olen":12975,"olds":12976,"Ġquarterback":12977,"Ġmunicipal":12978,"Ġinitiated":12979,"Ġjurisd":12980,"Ġtheatrical":12981,"aroop":12982,"ĠCommer":12983,"Ġdebt":12984,"hate":12985,"enda":12986,"uddin":12987,"Ġmarkets":12988,"ĠOutstanding":12989,"itage":12990,"ĠTNA":12991,"Ġsabhyataa":12992,"itudes":12993,"iga":12994,"Ġshorter":12995,"Ġfewer":12996,"dam":12997,"eters":12998,"ĠBath":12999,"Ġidentify":13000,"Ġconnecting":13001,"Ġsamudri":13002,"Ġteesri":13003,"ĠAdministration":13004,"bai":13005,"mati":13006,"ĠSak":13007,"ĠDall":13008,"ĠList":13009,"Ġaggressive":13010,"ando":13011,"ĠBuddh":13012,"ĠLion":13013,"acha":13014,"Ġdat":13015,"ĠGary":13016,"Ġturret":13017,"Ġblockquote":13018,"Ġlandscape":13019,"jor":13020,"rors":13021,"ĠHip":13022,"Ġroak":13023,"aryana":13024,"Ġsubur":13025,"Ġfounding":13026,"Ġoriginated":13027,"Ġtrit":13028,"Ġprut":13029,"oral":13030,"ication":13031,"uration":13032,"Ġcharity":13033,"Ġconsidering":13034,"ĠSymph":13035,"ennium":13036,"EC":13037,"Ġmangal":13038,"akrit":13039,"Ġunless":13040,"Ġprohib":13041,"Ġvira":13042,"Ġcutting":13043,"Ġevacuated":13044,"tak":13045,"Ġriy":13046,"Ġcannon":13047,"Ġcorps":13048,"Ġannouncement":13049,"adit":13050,"ĠLas":13051,"Ġupkarnon":13052,"ĠConn":13053,"fa":13054,"Ġisot":13055,"Ġplacing":13056,"izer":13057,"Ġbars":13058,"Ġpartial":13059,"Ġestablishing":13060,"Ġpandit":13061,"ĠJupiter":13062,"itals":13063,"Ġask":13064,"ĠLen":13065,"Ġstationed":13066,"ĠDrive":13067,"Ġprospect":13068,"function":13069,"encing":13070,"ĠOur":13071,"ected":13072,"Ġdefending":13073,"ĠPortuguese":13074,"Ġkol":13075,"Ġshahi":13076,"Ġliv":13077,"ganj":13078,"Ġhect":13079,"Ġvaran":13080,"ĠAP":13081,"Ġprize":13082,"Ġrebellion":13083,"raine":13084,"irates":13085,"ĠRat":13086,"Ġfib":13087,"okie":13088,"Ġmagazines":13089,"Ġhypothes":13090,"Ġbones":13091,"Ġbatch":13092,"Ġvolt":13093,"Ġhosts":13094,"Ġarrangements":13095,"Ġstrategic":13096,"Ġdensity":13097,"ashak":13098,"ĠChampions":13099,"peksh":13100,"hamed":13101,"enson":13102,"Ġdecide":13103,"Ġrepublic":13104,"ĠGor":13105,"Ġresort":13106,"Ġdonated":13107,"Ġcircle":13108,"Ġsaahitiyik":13109,"idel":13110,"ĠMonte":13111,"Ġfrequency":13112,"ĠPotter":13113,"Ġchhat":13114,"ĠNCAA":13115,"Ġanime":13116,"parichay":13117,"comp":13118,"player":13119,"ĠChampion":13120,"Ġscot":13121,"Ġudaan":13122,"Ġindicates":13123,"Ġdogs":13124,"Ġexposure":13125,"Ġlying":13126,"Ġongoing":13127,"Ġcoup":13128,"Ġapproaching":13129,"err":13130,"ĠGene":13131,"Ġ1800":13132,"Ġputting":13133,"ĠBradman":13134,"Ġwatershed":13135,"ĠTriple":13136,"Ġinsects":13137,"ĠCov":13138,"angre":13139,"ĠPrim":13140,"hous":13141,"Ġabhaav":13142,"Ġextratropical":13143,"Ġqualified":13144,"Ġmishra":13145,"Ġfill":13146,"Ġtalent":13147,"Ġuniversal":13148,"Ġtubes":13149,"achaa":13150,"Ġclin":13151,"ĠAlice":13152,"Ġcolleagues":13153,"Ġfunny":13154,"hears":13155,"ĠTrophy":13156,"baddh":13157,"race":13158,"Ġ158":13159,"Ġrede":13160,"Ġmerely":13161,"Ġclosest":13162,"Ġhaathon":13163,"gro":13164,"gate":13165,"hot":13166,"alog":13167,"ĠNatural":13168,"Ġnarayan":13169,"ĠHonor":13170,"ĠMission":13171,"Ġyoungest":13172,"Ġbattlecru":13173,"Ġgathered":13174,"Ġdwaar":13175,"Ġgarm":13176,"Ġbot":13177,"Ġrand":13178,"Ġdispl":13179,"venth":13180,"Ġcruc":13181,"ĠAh":13182,"riyon":13183,"Ġlimits":13184,"Ġvolumes":13185,"Ġcollapsed":13186,"ĠDeb":13187,"Ġwine":13188,"Ġjury":13189,"ĠDwight":13190,"Ġduo":13191,"Ġneighbour":13192,"Ġwithdrawal":13193,"Ġphon":13194,"Ġbearing":13195,"ĠHav":13196,"Ġ1894":13197,"Ġmagnitude":13198,"gom":13199,"Ġhins":13200,"Ġadarsh":13201,"ĠVi":13202,"Ġdesert":13203,"Ġstrongest":13204,"ĠFleming":13205,"AN":13206,"born":13207,"aras":13208,"olve":13209,"Ġmovies":13210,"Ġiran":13211,"ĠReserve":13212,"sanyukt":13213,"Ġexha":13214,"ĠMarvel":13215,"Ã¼r":13216,"ĠNO":13217,"Ġsamr":13218,"hampton":13219,"Ġvisits":13220,"Ġranges":13221,"enesis":13222,"Ġradiation":13223,"Ġfeeding":13224,"Ġchallenged":13225,"Ġsher":13226,"ĠLat":13227,"Ġspaces":13228,"Ġconfront":13229,"iliam":13230,"Ġspecimen":13231,"Ġrhythm":13232,"usalem":13233,"Ġcens":13234,"Ġnun":13235,"Ġitaly":13236,"Ġ1889":13237,"Ġbaaki":13238,"arians":13239,"hyath":13240,"Ġsuccession":13241,"esar":13242,"enton":13243,"Ġplastic":13244,"Ġeducational":13245,"Ġbirthday":13246,"apratham":13247,"Ġlakdi":13248,"Ġyon":13249,"Ġevalu":13250,"Ġendors":13251,"Ġprovision":13252,"Ġbatter":13253,"Ġaushad":13254,"ĠHampshire":13255,"lem":13256,"Ġjang":13257,"ĠOliver":13258,"Ġkoshikaon":13259,"Ġtennis":13260,"inis":13261,"ĠLt":13262,"Ġdoodh":13263,"Ġavs":13264,"Ġavatar":13265,"Ġmembership":13266,"Ġarthsha":13267,"Ġsweet":13268,"Ġconventional":13269,"nia":13270,"Ġdispat":13271,"vyakti":13272,"brit":13273,"Ġbull":13274,"Ġjack":13275,"ĠChes":13276,"Ġdubbed":13277,"ĠYears":13278,"ĠEdinburgh":13279,"Ġtalking":13280,"fers":13281,"ocracy":13282,"Ġbanaata":13283,"Ġcopper":13284,"Ġpersons":13285,"Ġnurs":13286,"ghaat":13287,"Ġpapers":13288,"Ġnidhan":13289,"ĠFlying":13290,"Ġsamved":13291,"ĠMeteor":13292,"ĠPersonal":13293,"bul":13294,"Ã°":13295,"aahi":13296,"othic":13297,"ĠTon":13298,"ĠThose":13299,"Ġganraajya":13300,"sabase":13301,"ĠSomet":13302,"ĠBee":13303,"ĠFund":13304,"ĠNeg":13305,"ported":13306,"Ġnyaaya":13307,"Ġsevaayen":13308,"ĠBah":13309,"Ġkon":13310,"erma":13311,"Ġkilogram":13312,"Ġjalwaayu":13313,"Ġpromotional":13314,"asankhyik":13315,"Ġcant":13316,"Ġbanaakar":13317,"Ġreli":13318,"Ġinvent":13319,"Ġannually":13320,"Ġconcentrated":13321,"Ġmarry":13322,"Ġrakhana":13323,"Ġuccharan":13324,"Ġseized":13325,"onda":13326,"Ġallaah":13327,"Ġemphasis":13328,"Ġprasaarit":13329,"Ġticket":13330,"mans":13331,"Ġsaathi":13332,"Ġtopped":13333,"Ġherit":13334,"ĠPam":13335,"Ġattending":13336,"Ġlikh":13337,"asket":13338,"ĠYorks":13339,"Ġconservation":13340,"rasht":13341,"ĠAx":13342,"itively":13343,"ĠCharts":13344,"Ġkalpana":13345,"Ġweekly":13346,"ĠRan":13347,"Ġlegit":13348,"Ġinvestment":13349,"Ġexperimental":13350,"igenous":13351,"ME":13352,"raja":13353,"Ġnirvaachit":13354,"Ġexercise":13355,"ĠShip":13356,"Ġspa":13357,"ĠConvention":13358,"pel":13359,"isan":13360,"ĠSay":13361,"ĠDub":13362,"Ġsyndrome":13363,"Ġshaft":13364,"Ġoffense":13365,"Ġgiraftaar":13366,"Ġcir":13367,"emic":13368,"Ġaapurti":13369,"Ġpink":13370,"ireland":13371,"ĠEli":13372,"Ġbanaate":13373,"Ġvoting":13374,"Ġejineering":13375,"ĠVillage":13376,"Ġphotographs":13377,"rolled":13378,"Ġteenon":13379,"Ġ1891":13380,"Ġutpaadon":13381,"Ġtomb":13382,"ĠProp":13383,"Ġdrag":13384,"Ġmandiron":13385,"Ġinvestigate":13386,"Ġtrough":13387,"Ġwaste":13388,"ĠJoy":13389,"Ġadvertising":13390,"chunki":13391,"ensed":13392,"Ġattitude":13393,"Ġsending":13394,"ĠDale":13395,"Ġscar":13396,"Ġfortress":13397,"Ġbishop":13398,"Ġinkaar":13399,"Ġprovincial":13400,"name":13401,"aux":13402,"ĠFinally":13403,"ĠTotal":13404,"case":13405,"Ġthunder":13406,"Ġpadati":13407,"Ġ240":13408,"Ġ1861":13409,"ĠPerforman":13410,"Ġyahud":13411,"Ġvyaktitv":13412,"ĠYorkshire":13413,"ĠDyn":13414,"Ġatomic":13415,"ĠAndre":13416,"Ġturki":13417,"ĠVictorian":13418,"Ġharyana":13419,"ĠKal":13420,"Ġvalid":13421,"Ġemployment":13422,"ĠDemocrats":13423,"illo":13424,"Ġexter":13425,"Ġmarine":13426,"Ġwait":13427,"Ġaggreg":13428,"Ġmall":13429,"cester":13430,"Ġdrinking":13431,"Ġportrayal":13432,"Ġexclusive":13433,"Ġcomponent":13434,"ĠBrothers":13435,"ĠHaz":13436,"odon":13437,"Ġceased":13438,"Ġelectricity":13439,"ĠCelt":13440,"ĠWhere":13441,"Ġflooded":13442,"ĠCraig":13443,"ĠArgentina":13444,"ĠLloyd":13445,"Ġmes":13446,"Ġdict":13447,"Ġcoat":13448,"duce":13449,"Ġregime":13450,"ĠChristianity":13451,"ĠStock":13452,"Ġtathy":13453,"Ġwish":13454,"ĠMagn":13455,"mukhya":13456,"ĠMedical":13457,"ĠJerry":13458,"ĠBac":13459,"Ġbeats":13460,"Ġprince":13461,"ocket":13462,"ĠBooks":13463,"Ġballad":13464,"Ġcomponents":13465,"Ġfossil":13466,"bac":13467,"alling":13468,"Ġadhikaron":13469,"arthak":13470,"Ġvyas":13471,"Ġchip":13472,"ido":13473,"aadhan":13474,"Ġgraduate":13475,"Ġgregory":13476,"Ġstere":13477,"ĠPink":13478,"ĠEug":13479,"Ġshal":13480,"Ġhimalay":13481,"Ġmature":13482,"Ġmonaster":13483,"Ġhamale":13484,"Ġku":13485,"Ġhitting":13486,"Ġgene":13487,"Ġruk":13488,"illes":13489,"Ġadhiktam":13490,"Ġscattered":13491,"ĠDod":13492,"jabaki":13493,"Ġquestioned":13494,"Ġpopul":13495,"rayog":13496,"Ġexists":13497,"Ġchron":13498,"Ġroot":13499,"oviÄĩ":13500,"Ġslave":13501,"Ġunclear":13502,"Ġrugby":13503,"aders":13504,"ĠOverall":13505,"vaali":13506,"Ġasafal":13507,"Ġkara":13508,"ricts":13509,"Ġreplied":13510,"Ġmechanical":13511,"ĠChronicle":13512,"aver":13513,"Ġrisht":13514,"Ġilaaj":13515,"Ġunderwent":13516,"Ġoverwhel":13517,"47":13518,"Ġ159":13519,"Ġrepresentatives":13520,"Ġcathedral":13521,"ĠCollins":13522,"ĠMI":13523,"Ġassembled":13524,"Ġartificial":13525,"Ġvaap":13526,"ĠKap":13527,"owski":13528,"Ġliberal":13529,"Ġcommentary":13530,"Ġ007":13531,"Ġpictures":13532,"Ġgendb":13533,"Ġbacteria":13534,"Ġcousin":13535,"Ġninet":13536,"addh":13537,"ĠWii":13538,"ults":13539,"Ġdevices":13540,"Ġidentical":13541,"Ġafghanistan":13542,"Ġchrist":13543,"ĠHeritage":13544,"ĠServices":13545,"Ġmanga":13546,"ĠFat":13547,"assador":13548,"Ġlawyer":13549,"ĠSche":13550,"esty":13551,"ĠVik":13552,"ctoral":13553,"Ġurg":13554,"ĠMarge":13555,"ĠGlen":13556,"ĠHowe":13557,"otten":13558,"Ġcomprom":13559,"Ġduration":13560,"ĠFinland":13561,"Ġhelicopter":13562,"Ġbranches":13563,"atever":13564,"eree":13565,"Ġrod":13566,"Ġcolors":13567,"Ġterrain":13568,"Ġraajaaon":13569,"Ġthirteen":13570,"Ġfed":13571,"Ġjammu":13572,"ĠAnc":13573,"Ġexpert":13574,"ytah":13575,"Ġacoustic":13576,"Ġchamp":13577,"ĠTig":13578,"Ġimagery":13579,"Ġloved":13580,"aments":13581,"ĠHold":13582,"Ġmisr":13583,"htaa":13584,"Ġdevast":13585,"agari":13586,"castle":13587,"tr":13588,"ĠTax":13589,"ĠSign":13590,"unkh":13591,"ĠTurner":13592,"Ġaccompanying":13593,"Ġthro":13594,"Ġkarav":13595,"Ġchumbak":13596,"Ġsankat":13597,"Ġ1892":13598,"Ġdhaan":13599,"ĠMason":13600,"Ġredes":13601,"Ġelig":13602,"ĠAT":13603,"ĠPhys":13604,"Ġdaughters":13605,"Ġkhaane":13606,"oded":13607,"Ġdisband":13608,"Ġpratip":13609,"Ġaakarshan":13610,"Ġburial":13611,"Ġpenet":13612,"Ġsurrendered":13613,"master":13614,"lection":13615,"Ġstops":13616,"Ġslip":13617,"Ġtenure":13618,"uin":13619,"Ġtube":13620,"Ġguy":13621,"Ġarrives":13622,"Ġkhele":13623,"kshipt":13624,"Ġadhy":13625,"achute":13626,"Ġstronger":13627,"Ġconsistent":13628,"ĠProtest":13629,"ĠQueensland":13630,"Ġdread":13631,"Ġprices":13632,"Ġsaman":13633,"Ġprev":13634,"Ġsharaab":13635,"ĠExec":13636,"ĠNorfolk":13637,"Ġreducing":13638,"Ġbilkul":13639,"dakshin":13640,"khar":13641,"andhi":13642,"Ġparks":13643,"Ġcompound":13644,"rÃ©":13645,"Ġdably":13646,"Ġnerv":13647,"ĠLock":13648,"Ġobst":13649,"Ġphosph":13650,"Ġelectro":13651,"ĠHardy":13652,"asiy":13653,"riors":13654,"Ġcompeting":13655,"Ġkhilne":13656,"ĠSimilarly":13657,"Ġexclusively":13658,"vyakt":13659,"ĠPad":13660,"avor":13661,"Ġtraded":13662,"Ġswaam":13663,"Ġcommanding":13664,"Ġfailing":13665,"Ġeat":13666,"Ġreveal":13667,"ĠHawaii":13668,"Ġtru":13669,"Ġsiz":13670,"mani":13671,"chaariyon":13672,"Ġbell":13673,"ĠCricket":13674,"Ġmyst":13675,"ĠDiamond":13676,"ĠBurton":13677,"ĠProfessor":13678,"fin":13679,"Ġgrid":13680,"ersed":13681,"Ġprathit":13682,"ĠTraining":13683,"Ġdestroying":13684,"Ġ1885":13685,"ĠBelgian":13686,"Ġcontribution":13687,"Ġflowers":13688,"Ġreinforcements":13689,"pun":13690,"Ġkriti":13691,"aala":13692,"Ġmanov":13693,"arged":13694,"ĠBeaut":13695,"Ġtyo":13696,"Ġpustakon":13697,"ĠCommunist":13698,"Ġjames":13699,"ĠPatt":13700,"Ġmanip":13701,"natik":13702,"ĠNicholas":13703,"ansheel":13704,"Ġshares":13705,"ĠHarvard":13706,"ĠBoat":13707,"urop":13708,"Ġjump":13709,"itarian":13710,"Ġprecipitation":13711,"ĠThunder":13712,"Ġ1888":13713,"Ġgovernments":13714,"Ġphool":13715,"Ġamerican":13716,"ĠEmmy":13717,"NC":13718,"ĠLiving":13719,"avaar":13720,"Ġbanataa":13721,"ĠVincent":13722,"pike":13723,"yojan":13724,"Ġspain":13725,"ĠLocal":13726,"Ġslavery":13727,"ĠRangers":13728,"Ġpahunche":13729,"Ġcoc":13730,"Ġreward":13731,"32":13732,"keey":13733,"ĠBour":13734,"path":13735,"ĠCatherine":13736,"abhik":13737,"ĠYellow":13738,"Ġ167":13739,"Ġgayak":13740,"Ġbanned":13741,"Ġfailaa":13742,"Ġimprovement":13743,"Ġrequirements":13744,"ĠLiberal":13745,"Ġtexts":13746,"chh":13747,"ĠNov":13748,"ibilities":13749,"Ġdecay":13750,"Ġsalv":13751,"Ġrogi":13752,"ints":13753,"Ġdevataaon":13754,"Ġobsc":13755,"Ġpruthak":13756,"Ġcenters":13757,"Ġlegislative":13758,"ĠCredits":13759,"Ġearthquake":13760,"ĠSet":13761,"ĠHil":13762,"Ġdisch":13763,"Ġfame":13764,"Ġaadmi":13765,"ĠSwift":13766,"Ġjad":13767,"Ġvaried":13768,"ĠNext":13769,"Ġgoogle":13770,"ĠBennett":13771,"Ġcategories":13772,"Ġbund":13773,"Ġlib":13774,"Ġscholar":13775,"45":13776,"ĠMust":13777,"ĠFa":13778,"Ġportal":13779,"ĠMarket":13780,"Ġplatforms":13781,"ethel":13782,"Ġstress":13783,"Ġairfield":13784,"Ġreviewed":13785,"Ġnirdesh":13786,"ĠDonald":13787,"Ġheritage":13788,"asar":13789,"Ġkaaf":13790,"Ġchunaut":13791,"Ġsaaksha":13792,"ĠTransportation":13793,"ĠHughes":13794,"DI":13795,"cal":13796,"kash":13797,"Ġramp":13798,"Ġclar":13799,"Ġ145":13800,"Ġconsiders":13801,"Ġprofession":13802,"Ġbees":13803,"ĠPrix":13804,"ĠDavies":13805,"48":13806,"ku":13807,"ĠHur":13808,"ĠGuitar":13809,"Ġkalakaaron":13810,"anjan":13811,"itely":13812,"ĠDeep":13813,"ĠVe":13814,"Ġarchitectural":13815,"Ġreduction":13816,"Ġphrase":13817,"mers":13818,"ĠTrail":13819,"eevr":13820,"Ġrespective":13821,"Ġburned":13822,"Ġsoph":13823,"ĠTow":13824,"ĠHob":13825,"Ġdarja":13826,"Ġnaye":13827,"Ġhandled":13828,"Ġtalks":13829,"ĠDarwin":13830,"Ġprashansa":13831,"Ġparisthitiyon":13832,"ĠPic":13833,"Ġadvised":13834,"rastructure":13835,"yik":13836,"Ġhumor":13837,"Ġhyper":13838,"Ġsongwriter":13839,"ĠChen":13840,"ĠMond":13841,"aayee":13842,"Ġunderstood":13843,"Ġpier":13844,"Ġbuddhi":13845,"Ġmaheen":13846,"Ġatah":13847,"Ġfourteen":13848,"ĠSaxon":13849,"rypt":13850,"ĠPeters":13851,"ĠIndonesia":13852,"Ġboilers":13853,"Ġaupchaarik":13854,"Ġkathan":13855,"Ġadmin":13856,"Ġsmriti":13857,"Ġapekshaakrit":13858,"ĠAer":13859,"Ġproceeded":13860,"aching":13861,"Ġfundament":13862,"Ġnaw":13863,"Ġsamples":13864,"Ã¶n":13865,"Ġparameter":13866,"Ã«":13867,"Ġnideshak":13868,"Ġamateur":13869,"ĠSwiss":13870,"Ġkhilaadiyon":13871,"ĠOslo":13872,"ĠKon":13873,"Ġbahum":13874,"Ġhindust":13875,"Ġexplicit":13876,"Ġintersects":13877,"Ġtranslated":13878,"Ġprerana":13879,"Ġtut":13880,"Ġdestroyer":13881,"Ġconnections":13882,"Ġspoken":13883,"ĠKl":13884,"ĠAppe":13885,"cules":13886,"inge":13887,"Ġspar":13888,"Ġintermedi":13889,"ometric":13890,"Ġrakhe":13891,"ĠMoscow":13892,"Ġcreek":13893,"Ġjha":13894,"ĠLem":13895,"ĠEar":13896,"ĠSac":13897,"agger":13898,"strong":13899,"Ġsample":13900,"ĠDec":13901,"kaaron":13902,"Ġreferring":13903,"ĠGallery":13904,"Ġbhaa":13905,"Ġjersey":13906,"ĠCad":13907,"Ġconceived":13908,"Ġchhavi":13909,"Ġlagati":13910,"Ġdisplays":13911,"ĠCameron":13912,"Ġpill":13913,"ĠRP":13914,"Ġcontinuous":13915,"Ġsixteen":13916,"Ġcertainly":13917,"Ġcommunications":13918,"ĠSom":13919,"Ġ220":13920,"Ġlabour":13921,"Ġoptim":13922,"ĠPittsburgh":13923,"Ġos":13924,"Ġweigh":13925,"Ġpairs":13926,"Ġpaathyak":13927,"ĠUpper":13928,"vet":13929,"anand":13930,"ĠRud":13931,"istent":13932,"Ġrecip":13933,"Ġsaken":13934,"akshan":13935,"Ġconstitutional":13936,"ÉĻ":13937,"porting":13938,"Ġworn":13939,"ĠHarbor":13940,"Ġpaudhon":13941,"Ġjaaye":13942,"Ġstuff":13943,"ationally":13944,"ishor":13945,"Ġshoulder":13946,"Ġflows":13947,"Ġtowers":13948,"Ġroopon":13949,"Ġmood":13950,"Ġorange":13951,"Ġexceed":13952,"Ġsignature":13953,"Ġcleared":13954,"mandir":13955,"Ġá":13956,"ilia":13957,"rium":13958,"Ġyantra":13959,"ĠEdition":13960,"Ġpraising":13961,"Ġviki":13962,"Ġtactics":13963,"ashes":13964,"berry":13965,"ĠKate":13966,"ĠGeoff":13967,"Ġqualifying":13968,"Ġnewjiland":13969,"ĠExper":13970,"Ġsurvival":13971,"Ġpratinidhi":13972,"Ġ230":13973,"Ġprinciples":13974,"othy":13975,"Ġ450":13976,"Ġcoron":13977,"Ġprogramming":13978,"Ġvisheshgy":13979,"Ġmelody":13980,"Ġwil":13981,"seud":13982,"Ġrecept":13983,"ĠScar":13984,"ĠBroadcast":13985,"Ġfest":13986,"Ġruler":13987,"Ġgrossing":13988,"Ġaft":13989,"Ġfasc":13990,"Ġlar":13991,"usee":13992,"Ġchaiye":13993,"daan":13994,"Ġconfidence":13995,"ĠTerry":13996,"krisht":13997,"Ġtoured":13998,"Ġsamaadhaan":13999,"etheless":14000,"zes":14001,"omon":14002,"avarti":14003,"itious":14004,"ĠSecurity":14005,"Ġmerc":14006,"Ġsuspect":14007,"ĠAntonio":14008,"Ġvifal":14009,"ĠBreak":14010,"Ġunlik":14011,"Ġexhibit":14012,"edan":14013,"ĠSide":14014,"Ġreorgan":14015,"ĠAlaska":14016,"Ġjyot":14017,"Ġnautical":14018,"Ġtested":14019,"ĠBald":14020,"ĠKane":14021,"Ġrocks":14022,"Ġcomput":14023,"Ġ118":14024,"ĠWallace":14025,"Ġpatients":14026,"dhan":14027,"Ã¢":14028,"Ġmaani":14029,"Ġtaxes":14030,"zan":14031,"Ġpakshi":14032,"Ġcommenced":14033,"Ġopportunities":14034,"Ġattorney":14035,"Ġsunishchit":14036,"Ġrecovery":14037,"Ġtonnes":14038,"Ġharsh":14039,"umble":14040,"ĠOri":14041,"ocity":14042,"Ġshrunkh":14043,"Ġtraveling":14044,"Î±":14045,"ĠSweet":14046,"Ġuncon":14047,"ocation":14048,"Ġ101":14049,"Ġexperiments":14050,"Ġoonchaai":14051,"backs":14052,"asters":14053,"ĠCass":14054,"Ġtarang":14055,"ĠMayor":14056,"Ġjeetne":14057,"encer":14058,"ĠCBS":14059,"ĠPsy":14060,"Ġraigarh":14061,"ĠStill":14062,"wara":14063,"Ġtransported":14064,"Ġfulf":14065,"Ġdock":14066,"Ġsampurna":14067,"nak":14068,"Ġchronic":14069,"ĠStat":14070,"Ġsover":14071,"Ġblues":14072,"ĠBlu":14073,"Ġdemo":14074,"Ġcompetitive":14075,"nought":14076,"aney":14077,"Ġaccord":14078,"Ġminority":14079,"Ġfairly":14080,"Ġneuro":14081,"ĠJTW":14082,"Ġenforce":14083,"ailed":14084,"Ġrevolt":14085,"Ġrepresentation":14086,"Ġreinforced":14087,"Ġnoble":14088,"ĠJTWC":14089,"ĠCP":14090,"Ġhisson":14091,"ĠStef":14092,"Ġ1865":14093,"Ġkavit":14094,"Ġdekhakar":14095,"Ġinstitute":14096,"icing":14097,"Ġkarane":14098,"ĠSyria":14099,"ĠGrace":14100,"icul":14101,"onsin":14102,"Ġrelocated":14103,"Ġpravriti":14104,"Ġindeed":14105,"Ġchikitsak":14106,"ĠMalaysia":14107,"Ġaadhyatmik":14108,"Ġsovereign":14109,"gin":14110,"lain":14111,"Ġpaa":14112,"Ġfile":14113,"rooms":14114,"ĠRest":14115,"Ġconce":14116,"ĠPictures":14117,"ugar":14118,"ĠSheff":14119,"ĠClay":14120,"Ġburning":14121,"yahi":14122,"ĠCer":14123,"rien":14124,"ĠStars":14125,"Ġsthanantarit":14126,"Ġcrops":14127,"Ð°":14128,"ĠAftermath":14129,"Ġrevised":14130,"Ġcommanders":14131,"Ġpractical":14132,"Ġclimb":14133,"Ġvaidic":14134,"Ġblog":14135,"Ġjaye":14136,"Ġchennai":14137,"Ġimpression":14138,"Ġoverlap":14139,"ĠEnt":14140,"Ġpahunchane":14141,"Ġsamanta":14142,"Ġwarfare":14143,"ĠCit":14144,"Ġcond":14145,"appa":14146,"Ġprabandhak":14147,"Ġsmart":14148,"Ġabuse":14149,"Ġsupplement":14150,"Ġprovinces":14151,"ussion":14152,"Ġpromin":14153,"urricanes":14154,"iffs":14155,"ĠFro":14156,"Ġwithdrawn":14157,"Ġpragati":14158,"Ġinterpreted":14159,"Ġswaamitv":14160,"Ġom":14161,"Ġ119":14162,"Ġadhyay":14163,"Ġnyaayadhish":14164,"Ġdush":14165,"Ġgala":14166,"ĠYouT":14167,"ĠIsraeli":14168,"edaar":14169,"ĠLuke":14170,"Ġcharacteristic":14171,"Ġmultiplayer":14172,"ĠLarry":14173,"Ġdisplaced":14174,"ĠSheffield":14175,"nath":14176,"angle":14177,"Ġsakshar":14178,"stance":14179,"ivik":14180,"ĠPast":14181,"ĠFBI":14182,"Ġextending":14183,"Ġblocked":14184,"Ġvoices":14185,"ĠSusan":14186,"cially":14187,"Ġitani":14188,"Ġrahas":14189,"Ġlift":14190,"Ġproposals":14191,"Ġaaloc":14192,"Ġbeauty":14193,"ĠFIFA":14194,"DA":14195,"pers":14196,"asav":14197,"asia":14198,"idhyalay":14199,"Ġdistricts":14200,"Ġparticipation":14201,"Ġutsav":14202,"Ġgender":14203,"ĠOfficer":14204,"Î¿":14205,"omas":14206,"ĠLiter":14207,"Ġtrend":14208,"Ġautumn":14209,"ĠGameS":14210,"Ġ1857":14211,"Ġicon":14212,"Ġparibhaasha":14213,"gat":14214,"pak":14215,"Ġriding":14216,"Ġchalati":14217,"ĠQuest":14218,"Ġrejo":14219,"chy":14220,"Ġbadhane":14221,"Ġhyderabad":14222,"Ġgarbh":14223,"ĠJefferson":14224,"Ġleti":14225,"Ġlights":14226,"Ġprisoner":14227,"iture":14228,"Ġmaare":14229,"ĠPriv":14230,"Ġoptions":14231,"ean":14232,"Ġkarmchaariyon":14233,"Ġlearns":14234,"Ã¥":14235,"igs":14236,"ĠPS":14237,"ĠRena":14238,"ĠHerald":14239,"Ġchunaavon":14240,"ĠAuthority":14241,"ĠDallas":14242,"Ġdistant":14243,"iciency":14244,"Ġsambhd":14245,"ĠBert":14246,"Ġstreak":14247,"Ġrajput":14248,"ĠGuinea":14249,"ĠClarke":14250,"Ġwarnings":14251,"ĠYouTube":14252,"bian":14253,"naayen":14254,"Ġthos":14255,"ĠCurt":14256,"Ġsameep":14257,"Ġpregn":14258,"Ġempty":14259,"Ġcrystal":14260,"ĠRoom":14261,"Ġscores":14262,"Ġ111":14263,"ĠJohnston":14264,"ĠBryan":14265,"ĠTogether":14266,"ĠMix":14267,"Ġapproaches":14268,"Ġjudg":14269,"Ġindustries":14270,"Ġimaarat":14271,"ĠPerformance":14272,"ĠAustin":14273,"Ġbarb":14274,"ĠCyrus":14275,"Ġrelatives":14276,"Ġbrands":14277,"Ġskill":14278,"Ġmeri":14279,"Ġmorph":14280,"ĠMey":14281,"Ġchu":14282,"ĠKin":14283,"irect":14284,"Ġmyster":14285,"ĠDefense":14286,"ĠOrange":14287,"bandhan":14288,"ĠSteel":14289,"ĠiP":14290,"ĠGreater":14291,"Ġsugar":14292,"ĠDaw":14293,"Ġstatistics":14294,"Ġcuts":14295,"Ġshifted":14296,"list":14297,"Ġshod":14298,"Ġdivasiy":14299,"Ġjamaa":14300,"Ġrivalry":14301,"Ġtent":14302,"Ġpant":14303,"Ġlod":14304,"ĠWoman":14305,"quate":14306,"Ġtraditions":14307,"ER":14308,"haari":14309,"ĠWells":14310,"Ġassam":14311,"Ġcarries":14312,"Ġliner":14313,"oshan":14314,"ĠOwen":14315,"Ġchore":14316,"Ġairing":14317,"Ġnumbered":14318,"Ġrestore":14319,"Ġunw":14320,"Ġkaraane":14321,"ĠVic":14322,"Ġoutl":14323,"Ġlighting":14324,"ĠNord":14325,"ĠClassic":14326,"Ġsings":14327,"adar":14328,"ĠEight":14329,"Ġhuye":14330,"ublin":14331,"alaya":14332,"ĠOfficial":14333,"Ġabsent":14334,
[...]
