{"<s>":0,"<pad>":1,"</s>":2,"<unk>":3,"<mask>":4,"!":5,"\"":6,"#":7,"$":8,"%":9,"&":10,"'":11,"(":12,")":13,"*":14,"+":15,",":16,"-":17,".":18,"/":19,"0":20,"1":21,"2":22,"3":23,"4":24,"5":25,"6":26,"7":27,"8":28,"9":29,":":30,";":31,"<":32,"=":33,">":34,"?":35,"@":36,"A":37,"B":38,"C":39,"D":40,"E":41,"F":42,"G":43,"H":44,"I":45,"J":46,"K":47,"L":48,"M":49,"N":50,"O":51,"P":52,"Q":53,"R":54,"S":55,"T":56,"U":57,"V":58,"W":59,"X":60,"Y":61,"Z":62,"[":63,"\\":64,"]":65,"^":66,"_":67,"`":68,"a":69,"b":70,"c":71,"d":72,"e":73,"f":74,"g":75,"h":76,"i":77,"j":78,"k":79,"l":80,"m":81,"n":82,"o":83,"p":84,"q":85,"r":86,"s":87,"t":88,"u":89,"v":90,"w":91,"x":92,"y":93,"z":94,"{":95,"|":96,"}":97,"~":98,"¡":99,"¢":100,"£":101,"¤":102,"¥":103,"¦":104,"§":105,"¨":106,"©":107,"ª":108,"«":109,"¬":110,"®":111,"¯":112,"°":113,"±":114,"²":115,"³":116,"´":117,"µ":118,"¶":119,"·":120,"¸":121,"¹":122,"º":123,"»":124,"¼":125,"½":126,"¾":127,"¿":128,"À":129,"Á":130,"Â":131,"Ã":132,"Ä":133,"Å":134,"Æ":135,"Ç":136,"È":137,"É":138,"Ê":139,"Ë":140,"Ì":141,"Í":142,"Î":143,"Ï":144,"Ð":145,"Ñ":146,"Ò":147,"Ó":148,"Ô":149,"Õ":150,"Ö":151,"×":152,"Ø":153,"Ù":154,"Ú":155,"Û":156,"Ü":157,"Ý":158,"Þ":159,"ß":160,"à":161,"á":162,"â":163,"ã":164,"ä":165,"å":166,"æ":167,"ç":168,"è":169,"é":170,"ê":171,"ë":172,"ì":173,"í":174,"î":175,"ï":176,"ð":177,"ñ":178,"ò":179,"ó":180,"ô":181,"õ":182,"ö":183,"÷":184,"ø":185,"ù":186,"ú":187,"û":188,"ü":189,"ý":190,"þ":191,"ÿ":192,"Ā":193,"ā":194,"Ă":195,"ă":196,"Ą":197,"ą":198,"Ć":199,"ć":200,"Ĉ":201,"ĉ":202,"Ċ":203,"ċ":204,"Č":205,"č":206,"Ď":207,"ď":208,"Đ":209,"đ":210,"Ē":211,"ē":212,"Ĕ":213,"ĕ":214,"Ė":215,"ė":216,"Ę":217,"ę":218,"Ě":219,"ě":220,"Ĝ":221,"ĝ":222,"Ğ":223,"ğ":224,"Ġ":225,"ġ":226,"Ģ":227,"ģ":228,"Ĥ":229,"ĥ":230,"Ħ":231,"ħ":232,"Ĩ":233,"ĩ":234,"Ī":235,"ī":236,"Ĭ":237,"ĭ":238,"Į":239,"į":240,"İ":241,"ı":242,"Ĳ":243,"ĳ":244,"Ĵ":245,"ĵ":246,"Ķ":247,"ķ":248,"ĸ":249,"Ĺ":250,"ĺ":251,"Ļ":252,"ļ":253,"Ľ":254,"ľ":255,"Ŀ":256,"ŀ":257,"Ł":258,"ł":259,"Ń":260,"Ġt":261,"he":262,"Ġa":263,"in":264,"Ġthe":265,"er":266,"on":267,"Ġ,":268,"re":269,"Ġs":270,"ed":271,"Ġw":272,"Ġo":273,"nd":274,"at":275,"Ġ.":276,"or":277,"en":278,"Ġc":279,"it":280,"Ġf":281,"is":282,"es":283,"ar":284,"Ġb":285,"Ġof":286,"an":287,"Ġin":288,"al":289,"ing":290,"Ġp":291,"as":292,"Ġand":293,"Ġto":294,"ic":295,"ro":296,"Ġm":297,"Ġd":298,"Ġh":299,"ion":300,"le":301,"ĠĊ":302,"ou":303,"ĠT":304,"Ġre":305,"Ġ=":306,"ĠS":307,"il":308,"ĠA":309,"ent":310,"Ġ\"":311,"Ġ1":312,"Ġth":313,"st":314,"el":315,"ĠC":316,"Ġl":317,"Ġ@":318,"om":319,"Ġe":320,"am":321,"Ġn":322,"ad":323,"ac":324,"Ġwas":325,"ĠM":326,"ĠB":327,"ec":328,"Ġon":329,"ĠThe":330,"ly":331,"ur":332,"Ġ'":333,"et":334,"id":335,"ol":336,"Ġg":337,"im":338,"ĠI":339,"-@":340,"Ġ@-@":341,"Ġfor":342,"ir":343,"ig":344,"iv":345,"ot":346,"ter":347,"ĠH":348,"ut":349,"Ġas":350,"us":351,"ow":352,"ith":353,"ay":354,"Ġ2":355,"ĠP":356,"Ġst":357,"Ġhe":358,"ver":359,"ation":360,"Ġwith":361,"Ġbe":362,"ĠR":363,"Ġthat":364,"ĠD":365,"ce":366,"un":367,"em":368,"ĠW":369,"Ġwh":370,"ĠF":371,"ch":372,"Ġby":373,"th":374,"Ġal":375,"Ġ)":376,"Ġ(":377,"ĠL":378,"ul":379,"ĠG":380,"Ġis":381,"Ġcon":382,"ers":383,"Ġat":384,"ct":385,"ĠN":386,"ra":387,"os":388,"Ġ19":389,"Ġan":390,"Ġit":391,"her":392,"rom":393,"and":394,"um":395,"ĠJ":396,"est":397,"00":398,"Ġhis":399,"ĠE":400,"ag":401,"av":402,"ain":403,"ri":404,"od":405,"Ġfrom":406,"ĠO":407,"ist":408,"Ġcom":409,"Ġv":410,"Ġpro":411,"op":412,"ill":413,"ore":414,"if":415,"ld":416,"up":417,"Ġr":418,"ew":419,"ere":420,"res":421,"igh":422,"ĠIn":423,"ies":424,"Ġde":425,"ber":426,"art":427,"ard":428,"ort":429,"Ġse":430,"ich":431,"Ġwere":432,"ate":433,"all":434,"ak":435,"ant":436,"oc":437,"ud":438,"ap":439,"Ġex":440,"qu":441,"ong":442,"ab":443,"Ġch":444,"Ġor":445,"ĠK":446,"gh":447,"ear":448,"ess":449,"ated":450,"Ġpl":451,"Ġsh":452,"ity":453,"ip":454,"ive":455,"ame":456,"ĠU":457,"Ġâ":458,"Ġhad":459,"ect":460,"ack":461,"ĠSt":462,"ĠâĢ":463,"Ġsu":464,"ast":465,"se":466,"red":467,"Ġk":468,"ge":469,"Ġwhich":470,"our":471,"ment":472,"Ġle":473,"und":474,"Ġare":475,"ov":476,"ian":477,"ial":478,"Ġnot":479,"ell":480,"Ġsp":481,"ost":482,"Ġy":483,"ight":484,"ia":485,"ord":486,"ust":487,"ary":488,"ine":489,"ther":490,"pt":491,"rit":492,"Ġ3":493,"oun":494,"pp":495,"ical":496,"ĠCh":497,"ave":498,"Ġun":499,"Ġ200":500,"cc":501,"Ġinc":502,"fter":503,"ould":504,"ĠV":505,"Ġbut":506,"irst":507,"ish":508,"ous":509,"te":510,"ff":511,"ions":512,"so":513,"Ġcomp":514,"Ġ20":515,"ide":516,"Ġro":517,"ure":518,"Ġwhe":519,"ub":520,"Ġar":521,"Ġcont":522,"ie":523,"Ġ;":524,"og":525,"ign":526,"Ġfirst":527,"Ġcl":528,"wo":529,"Ġher":530,"ry":531,"ue":532,"Ġits":533,"ass":534,"Ġtheir":535,"orm":536,"ĠâĢĵ":537,"ok":538,"ork":539,"Ġint":540,"Ġres":541,"ĠHe":542,"Ġ:":543,"ater":544,"Ġalso":545,"Ġab":546,"ond":547,"Ġad":548,"ome":549,"out":550,"ran":551,"mer":552,"ire":553,"hed":554,"ru":555,"Ġus":556,"age":557,"du":558,"Ġ4":559,"ime":560,"low":561,"Ġper":562,"per":563,"Ġwho":564,"Ġ5":565,"ĠTh":566,"Ġone":567,"Ġhave":568,"Ġsc":569,"pl":570,"ally":571,"own":572,"ile":573,"Ġrec":574,"Ġ18":575,"ted":576,".@":577,"Ġ@.@":578,"Ġtwo":579,"ition":580,"ugh":581,"iz":582,"ree":583,"ence":584,"ts":585,"uring":586,"port":587,"Ġbeen":588,"Ġpart":589,"Ġbec":590,"ice":591,"Ġhas":592,"ĠAl":593,"Ġag":594,"Ġapp":595,"Ġ201":596,"ough":597,",@":598,"Ġ@,@":599,"Ġj":600,"Ġen":601,"Ġdis":602,"lud":603,"ke":604,"Ġover":605,"Ġser":606,"Ġthis":607,"ory":608,"ely":609,"Ġyear":610,"ations":611,"ember":612,"ren":613,"ction":614,"ound":615,"ach":616,"Ġoff":617,"Ġafter":618,"ric":619,"Ġup":620,"land":621,"Ġplay":622,"Ġdes":623,"ace":624,"ĠIt":625,"ark":626,"over":627,"ance":628,"Ġout":629,"Ġthey":630,"Ġman":631,"ade":632,"Ġte":633,"act":634,"Ġother":635,"ib":636,"man":637,"ult":638,"Ġim":639,"ĠY":640,"ph":641,"ress":642,"Ġinclud":643,"ced":644,"ens":645,"urn":646,"wn":647,"Ġwould":648,"ind":649,"Ġtime":650,"one":651,"Ġpre":652,"Ġinto":653,"vel":654,"ĠOn":655,"ĠUn":656,"ward":657,"we":658,"Ġwe":659,"Ġhim":660,"ite":661,"oin":662,"ates":663,"Ġ6":664,"Ġshe":665,"les":666,"Ġev":667,"ilm":668,"Ġatt":669,"ased":670,"Ġne":671,"ited":672,"able":673,"end":674,"ied":675,"ase":676,"amp":677,"Ġcomm":678,"ors":679,"Ġinter":680,"are":681,"rough":682,"oy":683,"ons":684,"ount":685,"ep":686,"form":687,"Ġall":688,"ose":689,"ood":690,"ang":691,"Ġmore":692,"ces":693,"Ġwork":694,"Ġ7":695,"ail":696,"old":697,"aw":698,"ered":699,"ings":700,"ve":701,"ild":702,"ĠAn":703,"Ġnew":704,"Ġsec":705,"Ġbet":706,"Ġwhen":707,"inal":708,"Ġfe":709,"Ġfilm":710,"ick":711,"vi":712,"ents":713,"ĠSe":714,"way":715,"att":716,"ft":717,"iss":718,"aus":719,"fer":720,"Ġ8":721,"gan":722,"ĠMar":723,"reat":724,"rib":725,"Ġcons":726,"ĠAr":727,"round":728,"ake":729,"Ġrem":730,"ved":731,"Ġtr":732,"Ġdec":733,"ason":734,"ans":735,"Ġduring":736,"Ġund":737,"orth":738,"ubl":739,"Ġ9":740,"hip":741,"Ġagain":742,"ĠAs":743,"Ġmost":744,"Ġgame":745,"oth":746,"Ġthem":747,"Ġ199":748,"Ġonly":749,"Ġpr":750,"ath":751,"ween":752,"ix":753,"Ġear":754,"ollow":755,"Ġthan":756,"ob":757,"rop":758,"Ġsup":759,"ational":760,"fore":761,"ĠNew":762,"Ġabout":763,"Ġprodu":764,"ug":765,"Ġcent":766,"tern":767,"Ġkn":768,"Ġret":769,"ey":770,"Ġchar":771,"Ġsong":772,"Ġcan":773,"outh":774,"Ġbetween":775,"Ġlater":776,"orn":777,"Ġrele":778,"Ġunder":779,"ict":780,"Ġthree":781,"hn":782,"ton":783,"Ġcol":784,"ron":785,"Ġact":786,"Ġ00":787,"als":788,"Ġqu":789,"Ġthrough":790,"ĠEn":791,"orld":792,"ook":793,"Ġnum":794,"Ġso":795,"Ġme":796,"Ġacc":797,"Ġrel":798,"Ġwhile":799,"Ġra":800,"Ġend":801,"meric":802,"ĠLe":803,"lect":804,"ĠAmeric":805,"Ġfl":806,"ters":807,"ock":808,"Ġpos":809,"ral":810,"Ġsub":811,"ever":812,"ular":813,"Ġass":814,"ating":815,"Ġwhere":816,"Ġver":817,"Ġday":818,"ck":819,"Ġreg":820,"Ġsecond":821,"ener":822,"aid":823,"Ġbu":824,"ĠCom":825,"Ġmade":826,"ames":827,"ision":828,"ived":829,"ĠRe":830,"Ġpe":831,"hes":832,"Ġrecord":833,"son":834,"Ġdef":835,"bum":836,"Ġfour":837,"Ġgro":838,"Ġfollow":839,"Ġseason":840,"Ġ000":841,"Ġep":842,"Ġform":843,"Ġsome":844,"Ġsuch":845,"Ġam":846,"ool":847,"ished":848,"Ġmov":849,"Ġbefore":850,"Ġtra":851,"Ġmus":852,"ĠSp":853,"Ġthere":854,"Ġwrit":855,"hen":856,"ics":857,"ĠJo":858,"io":859,"Ġspec":860,"iel":861,"Ġ10":862,"ike":863,"Ġsy":864,"Ġyears":865,"Ġteam":866,"ĠAt":867,"ode":868,"ual":869,"ĠThis":870,"ident":871,"Ġ/":872,"Ġlar":873,"Ġalbum":874,"ĠSh":875,"Ġind":876,"ros":877,"ily":878,"owever":879,"Ġent":880,"ning":881,"Ġused":882,"Ġcall":883,"ank":884,"Ġsur":885,"ific":886,"Ġac":887,"Ġhigh":888,"ury":889,"Ġpubl":890,"Ġbeing":891,"Ġepis":892,"ained":893,"Ġthen":894,"led":895,"ten":896,"velop":897,"aj":898,"Ġdo":899,"Ġloc":900,"Ġexp":901,"ife":902,"ris":903,"Ġ17":904,"Ġagainst":905,"Ġinv":906,"Ġ0":907,"Ġbl":908,"Ġpres":909,"Ġshow":910,"other":911,"Ġnumber":912,"ĠAfter":913,"Ġcharac":914,"ious":915,"Ġsever":916,"Ġadd":917,"Ġco":918,"Ġset":919,"ek":920,"ince":921,"ject":922,"ars":923,"Ġbecame":924,"Ġrece":925,"ĠBrit":926,"ause":927,"Ġlead":928,"Ġperform":929,"Ġno":930,"Ġincluding":931,"Ġsing":932,"ather":933,"ins":934,"ĠâĢĶ":935,"ines":936,"Ġfound":937,"ĠUnited":938,"rans":939,"air":940,"Ġwell":941,"ale":942,"Ġmon":943,"Ġrep":944,"ĠSc":945,"Ġpol":946,"Ġback":947,"Ġboth":948,"ier":949,"Ġcap":950,"Ġ198":951,"Ġseries":952,"Ġ15":953,"Ġ12":954,"ober":955,"ram":956,"ĠCon":957,"ik":958,"ower":959,"Ġship":960,"ement":961,"its":962,"ert":963,"ired":964,"ures":965,"ley":966,"ĠWh":967,"ĠShe":968,"ivers":969,"Ġmain":970,"pen":971,"Ġ194":972,"Ġmin":973,"iet":974,"der":975,"overn":976,"Ġdid":977,"ven":978,"Ġgo":979,"Ġcre":980,"elf":981,"olog":982,"Ġimp":983,"Ġdevelop":984,"Ġmet":985,"az":986,"ities":987,"ĠEng":988,"Ġlong":989,"iver":990,"any":991,"ll":992,"ised":993,"erm":994,"ting":995,"uch":996,"ared":997,"ann":998,"ane":999,"ird":1000,"Ġem":1001,"ĠJohn":1002,"Ġmill":1003,"ful":1004,"Ġair":1005,"Ġmat":1006,"Ġepisode":1007,"tend":1008,"irect":1009,"Ġsaid":1010,"Ġstud":1011,"Ġmany":1012,"ute":1013,"Ġbro":1014,"ash":1015,"ative":1016,"Ġdep":1017,"Ġcar":1018,"Ġ16":1019,"Ġcould":1020,"Ġorig":1021,"Ġwar":1022,"Ġcontin":1023,"ĠCl":1024,"Ġseveral":1025,"ĠAmerican":1026,"though":1027,"Ġdif":1028,"ĠInd":1029,"ield":1030,"ah":1031,"Ġinst":1032,"Ġpop":1033,"ouse":1034,"ise":1035,"emb":1036,"Ġknown":1037,"Ġ197":1038,"ty":1039,"ually":1040,"Ġ196":1041,"ĠAust":1042,"Ġ11":1043,"Ġconc":1044,"til":1045,"iam":1046,"ĠWar":1047,"view":1048,"erson":1049,"Ġob":1050,"ued":1051,"ĠGer":1052,"Ġsm":1053,"Ġreturn":1054,"Ġany":1055,"Ġbegan":1056,"ĠZ":1057,"ern":1058,"Ġcomple":1059,"Ġdesign":1060,"ĠDe":1061,"Ġdesc":1062,"Ġsign":1063,"ople":1064,"chool":1065,"ross":1066,"my":1067,"ism":1068,"oot":1069,"Ġest":1070,"Ġtrans":1071,"ccess":1072,"Ġprov":1073,"aking":1074,"Ġfeat":1075,"ĠBl":1076,"ided":1077,"Ġinf":1078,"anc":1079,"Ġrun":1080,"Ġearly":1081,"Ġart":1082,"ized":1083,"Ġdist":1084,"Ġmusic":1085,"Ġown":1086,"Ġnear":1087,"Ġreleased":1088,"Ġuntil":1089,"Ġcalled":1090,"Ġeff":1091,"ĠCol":1092,"imes":1093,"ĠUS":1094,"rid":1095,"ists":1096,"Ġresp":1097,"une":1098,"Ġbel":1099,"enn":1100,"Ġpass":1101,"stem":1102,"ured":1103,"Ġfin":1104,"ially":1105,"ĠMay":1106,"Ġph":1107,"ution":1108,"Ġdown":1109,"Ġdisc":1110,"ments":1111,"Ġcrit":1112,"osed":1113,"xt":1114,"Ġdirect":1115,"Ġgener":1116,"Ġalong":1117,"ium":1118,"Ġins":1119,"Ġmillion":1120,"ger":1121,"ull":1122,"ĠBritish":1123,"ax":1124,"Ġgroup":1125,"Ġoffic":1126,"vent":1127,"ĠGerman":1128,"Ġ13":1129,"Ġfam":1130,"eb":1131,"Ġthese":1132,"ajor":1133,"Ġmod":1134,"Ġmay":1135,"Ġ$":1136,"cept":1137,"ĠAd":1138,"Ġopen":1139,"ange":1140,"Ġmil":1141,"ĠBe":1142,"Ġpoin":1143,"uc":1144,"gg":1145,"Ġland":1146,"Ġsim":1147,"Ġhist":1148,"ĠAug":1149,"Ġgovern":1150,"Ã©":1151,"ĠSept":1152,"Ġsuccess":1153,"ĠSeptember":1154,"ĠAugust":1155,"ets":1156,"ĠAp":1157,"ĠWorld":1158,"ĠStates":1159,"ible":1160,"ink":1161,"erv":1162,"Ġgu":1163,"Ġoper":1164,"Ġcount":1165,"Ġattack":1166,"Ġuse":1167,"Ġsame":1168,"ys":1169,"wards":1170,"Ġdescrib":1171,"Ġpeople":1172,"ĠIs":1173,"ĠFor":1174,"aced":1175,"Ġcharacter":1176,"yp":1177,"amed":1178,"Ġbecause":1179,"ĠAll":1180,"els":1181,"Ġvi":1182,"Ġ14":1183,"Ġlike":1184,"Ġserv":1185,"ĠJu":1186,"ĠFran":1187,"ged":1188,"Ġaround":1189,"Ġstart":1190,"Ġthough":1191,"Ġed":1192,"Ġ195":1193,"ĠPl":1194,"ĠQ":1195,"ner":1196,"Ġwin":1197,"Ġkm":1198,"Ġconst":1199,"ues":1200,"ring":1201,"Ġtook":1202,"Ġocc":1203,"ruct":1204,"aving":1205,"ĠAustral":1206,"Ġbatt":1207,"ĠOct":1208,"Ġann":1209,"Ġsupport":1210,"ove":1211,"ĠNov":1212,"Ġfollowing":1213,"Ġsix":1214,"Ġnorth":1215,"Ġele":1216,"ĠCar":1217,"Ġ193":1218,"ĠHowever":1219,"Ġsystem":1220,"Ġappear":1221,"uss":1222,"Ġfinal":1223,"Ġreceived":1224,"Ġclass":1225,"ined":1226,"ĠOctober":1227,"Ġhead":1228,"ives":1229,"Ġprom":1230,"Ġconsid":1231,"ene":1232,"ants":1233,"rad":1234,"ling":1235,"ility":1236,"ically":1237,"ĠDec":1238,"ĠPro":1239,"Ġ191":1240,"Ġever":1241,"Ġstate":1242,"Ġbuild":1243,"ret":1244,"Ġeach":1245,"anu":1246,"Ġext":1247,"Ġfive":1248,"rist":1249,"Ġaut":1250,"rol":1251,"ĠYork":1252,"Ġcentury":1253,"ina":1254,"Ġvar":1255,"Ġbo":1256,"Ġwill":1257,"Ġarea":1258,"ĠThey":1259,"ately":1260,"Ġsmall":1261,"get":1262,"oss":1263,"Ġpartic":1264,"Ġlife":1265,"ĠNorth":1266,"iving":1267,"ril":1268,"Ġreport":1269,"Ġ]":1270,"ĠMe":1271,"Ġ[":1272,"tle":1273,"ored":1274,"ĠBy":1275,"ĠJune":1276,"ians":1277,"ording":1278,"Ġcity":1279,"gin":1280,"Ġmar":1281,"ped":1282,"ĠKing":1283,"Ġmajor":1284,"Ġweek":1285,"Ġpublic":1286,"ĠJuly":1287,"Ġ%":1288,"ission":1289,"Ġconf":1290,"ĠHar":1291,"Ġband":1292,"ection":1293,"Ġref":1294,"med":1295,"ĠNovember":1296,"inc":1297,"urch":1298,"Ġrest":1299,"ĠComm":1300,"ĠWill":1301,"Ġworld":1302,"ĠPh":1303,"Ġmed":1304,"Ġsince":1305,"esp":1306,"Ġsingle":1307,"raft":1308,"raph":1309,"por":1310,"ĠApril":1311,"ble":1312,"ĠMc":1313,"ains":1314,"ried":1315,"lish":1316,"Ġdet":1317,"ĠMarch":1318,"omet":1319,"Ġjust":1320,"Ġlast":1321,"ected":1322,"ural":1323,"ional":1324,"hest":1325,"ĠEd":1326,"aim":1327,"Ġturn":1328,"ively":1329,"Ġhel":1330,"ilt":1331,"Ġallow":1332,"Ġpo":1333,"ĠCan":1334,"Ġ30":1335,"cl":1336,"ient":1337,"vious":1338,"ĠGe":1339,"Ġleft":1340,"Ġlarge":1341,"Ġline":1342,"ats":1343,"Ġdiffer":1344,"ales":1345,"ĠSouth":1346,"Ġcare":1347,"Ġsouth":1348,"Ġadv":1349,"ĠDuring":1350,"ified":1351,"Ġdr":1352,"Ġstr":1353,"Ġbook":1354,"Ġvers":1355,"empt":1356,"Ġschool":1357,"Ġsl":1358,"ague":1359,"ĠDecember":1360,"Ġthird":1361,"avy":1362,"Ġincre":1363,"Ġ25":1364,"Ġmonth":1365,"Ġdue":1366,"Ġappro":1367,"..":1368,"Ġplayed":1369,"Ġmuch":1370,"Ġevent":1371,"row":1372,"ĠPr":1373,"Ġif":1374,"rote":1375,"Ġanother":1376,"ĠJanu":1377,"Ġ192":1378,"ĠJanuary":1379,"Ġincluded":1380,"Ġwhat":1381,"Ġplace":1382,"Ġbased":1383,"Ġshort":1384,"ne":1385,"ĠII":1386,"ony":1387,"Ġexpl":1388,"Ġgovernment":1389,"Ġperson":1390,"ball":1391,"Ġwrote":1392,"ĠWhen":1393,"Ġtrack":1394,"apan":1395,"Ġcamp":1396,"Ġtit":1397,"Ġold":1398,"ĠEu":1399,"Ġbre":1400,"alf":1401,"Ġname":1402,"Ġdeath":1403,"Ġport":1404,"Ġelect":1405,"ently":1406,"Ġ...":1407,"ple":1408,"rent":1409,"ĠJapan":1410,"ience":1411,"Ġeng":1412,"Ġwon":1413,"by":1414,"ĠOr":1415,"Ġchild":1416,"Ġprot":1417,"Ġlit":1418,"Ġkill":1419,"Ġprog":1420,"oad":1421,"Ġstory":1422,"ideo":1423,"ages":1424,"Ġpower":1425,"ĠBro":1426,"Ġreview":1427,"ĠTe":1428,"ody":1429,"Ġvis":1430,"ital":1431,"Ġhome":1432,"ott":1433,"Ġled":1434,"ps":1435,"Ġdescribed":1436,"eng":1437,"Ġrequ":1438,"oman":1439,"Ġprevious":1440,"Ġfamily":1441,"Ġgun":1442,"rand":1443,"tain":1444,"Ġway":1445,"yl":1446,"Ġnamed":1447,"Ġright":1448,"Ġnow":1449,"ĠMus":1450,"Ġdem":1451,"urther":1452,"iod":1453,"iven":1454,"Ġmen":1455,"ilar":1456,"Ġeven":1457,"Ġmake":1458,"embers":1459,"Ġorgan":1460,"ĠGu":1461,"reen":1462,"ister":1463,"ont":1464,"cy":1465,"iversity":1466,"omin":1467,"Ġattempt":1468,"Ġbest":1469,"itions":1470,"Ġ100":1471,"Ġcour":1472,"ĠÂ":1473,"Ġrepl":1474,"ivision":1475,"Ġopp":1476,"Ġleg":1477,"rench":1478,"Ġgames":1479,"ior":1480,"ached":1481,"Ġterm":1482,"ĠAnd":1483,"Ġcommand":1484,"ival":1485,"Ġhand":1486,"ĠFl":1487,"Ġposs":1488,"mp":1489,"Ġbelie":1490,"Ġdam":1491,"Ġvery":1492,"ox":1493,"ĠHis":1494,"Ġthose":1495,"ĠFeb":1496,"ĠEurop":1497,"Ġpar":1498,"ĠFebru":1499,"ĠFebruary":1500,"sh":1501,"Ġiss":1502,"Ġstill":1503,"Ġtop":1504,"Ġnext":1505,"Ġspecies":1506,"ĠChrist":1507,"Ġeffect":1508,"riend":1509,"Ġview":1510,"ched":1511,"ĠThere":1512,"ĠNational":1513,"oci":1514,"Ġoriginal":1515,"aken":1516,"ĠWe":1517,"ature":1518,"ences":1519,"Ġspe":1520,"lu":1521,"Ġwater":1522,"ness":1523,"Ġaddition":1524,"Ġjoin":1525,"ĠBar":1526,"ĠEurope":1527,"Ġlist":1528,"au":1529,"Ġperiod":1530,"Ġwithin":1531,"alk":1532,"Ġmembers":1533,"Ġmark":1534,"eter":1535,"Ġdeb":1536,"Ġheld":1537,"Ġbuilt":1538,"ĠFrench":1539,"Ġexper":1540,"hor":1541,"af":1542,"ĠAm":1543,"Ġ2010":1544,"Ġrelease":1545,"ĠPar":1546,"Ġlate":1547,"Ġalthough":1548,"Ġformer":1549,"rew":1550,"Ġmatch":1551,"Ġgreat":1552,"augh":1553,"ridge":1554,"ney":1555,"Ġcur":1556,"Ġdest":1557,"Ġsold":1558,"uted":1559,"tended":1560,"Ġvideo":1561,"Ġ21":1562,"ards":1563,"Ġcaus":1564,"ĠWest":1565,"line":1566,"Ġstorm":1567,"Ġcover":1568,"ĠX":1569,"ves":1570,"ech":1571,"Ġinit":1572,"Ġrole":1573,"ropical":1574,"Ġtri":1575,"ĠWilliam":1576,"self":1577,"Ġcame":1578,"Ġestab":1579,"hel":1580,"ĠHer":1581,"Ġdays":1582,"ances":1583,"Ġresult":1584,"Ġmid":1585,"Ġpresent":1586,"na":1587,"lev":1588,"Ġcontrol":1589,"aged":1590,"ption":1591,"oon":1592,"ulation":1593,"Ġstand":1594,"Ġreal":1595,"Ġpolit":1596,"Ġhowever":1597,"ĠMin":1598,"itary":1599,"aster":1600,"ham":1601,"Ġ2008":1602,"Ġprop":1603,"let":1604,"ense":1605,"Ġ2009":1606,"ĠMan":1607,"atic":1608,"ides":1609,"Ġfew":1610,"Ġtown":1611,"Ġ24":1612,"Ġwind":1613,"ĠGeor":1614,"omb":1615,"Ġyou":1616,"ograph":1617,"Ġtw":1618,"Ġside":1619,"Ġsk":1620,"Ġcontinued":1621,"Ġoften":1622,"Ġequ":1623,"Ġpost":1624,"ĠEar":1625,"ays":1626,"Ġlocal":1627,"Ġ2011":1628,"elt":1629,"ĠChar":1630,"ator":1631,"Ġamong":1632,"ĠAir":1633,"Ġsimilar":1634,"ruction":1635,"ead":1636,"ches":1637,"ĠMich":1638,"ract":1639,"Ġhum":1640,"Ġav":1641,"Ġclaim":1642,"estern":1643,"ĠNo":1644,"omen":1645,"ung":1646,"Ġ&":1647,"ĠEngland":1648,"reet":1649,"read":1650,"akes":1651,"Ġdifferent":1652,"side":1653,"ese":1654,"ops":1655,"Ġmy":1656,"Ġdel":1657,"ler":1658,"Ġbeh":1659,"ĠRec":1660,"ology":1661,"par":1662,"Ġtyp":1663,"Ġ22":1664,"Ġfurther":1665,"Ġsent":1666,"esc":1667,"ĠDav":1668,"ots":1669,"ested":1670,"Ġlevel":1671,"urs":1672,"Ġfre":1673,"Ġconsidered":1674,"Ġtake":1675,"Ġlaw":1676,"ery":1677,"ĠEl":1678,"Ġtot":1679,"Ġ2007":1680,"gy":1681,"Ġcareer":1682,"ĠOne":1683,"ront":1684,"Ġproduction":1685,"arm":1686,"me":1687,"Ġhalf":1688,"ices":1689,"ĠPark":1690,"ĠCo":1691,"Ġant":1692,"ĠCity":1693,"Ġhaving":1694,"ampions":1695,"bo":1696,"ĠAcc":1697,"ĠEnglish":1698,"Ġmag":1699,"Ġroad":1700,"Ġeast":1701,"Ġmoved":1702,"Ġdra":1703,"ering":1704,"Ġevery":1705,"Ġwest":1706,"Ġwithout":1707,"ĠAlthough":1708,"rodu":1709,"Ġcr":1710,"ĠCent":1711,"Ġappe":1712,"Ġplan":1713,"Ġplayer":1714,"Ġ2012":1715,"ining":1716,"Ġposition":1717,"Ġcor":1718,"Ġbecome":1719,"Ġarr":1720,"Ġhistory":1721,"Ġversion":1722,"vers":1723,"Ġtro":1724,"ĠCal":1725,"ford":1726,"ĠAng":1727,"ondon":1728,"ones":1729,"Ġcast":1730,"ĠCount":1731,"Ġel":1732,"Ġinflu":1733,"ize":1734,"Ġarm":1735,"Ġ23":1736,"ĠLondon":1737,"Ġhouse":1738,"yle":1739,"Ġsound":1740,"rig":1741,"Ġfore":1742,"Ġcommun":1743,"resent":1744,"irc":1745,"app":1746,"ĠBatt":1747,"Ġgr":1748,"Ġclub":1749,"Ġsugg":1750,"roy":1751,"aul":1752,"atter":1753,"Ġstrong":1754,"Ġinvol":1755,"ai":1756,"Ġwritten":1757,"Ġ190":1758,"aining":1759,"ĠWith":1760,"Ġbas":1761,"Ġstat":1762,"Ġless":1763,"oung":1764,"utes":1765,"Ġannoun":1766,"rest":1767,"Ġfoot":1768,"ĠRiver":1769,"iqu":1770,"ald":1771,"Ġorder":1772,"Ġrefer":1773,"iety":1774,"iment":1775,"ges":1776,"Ġprof":1777,"craft":1778,"ĠCanad":1779,"ae":1780,"Ġaff":1781,"Ġpoint":1782,"sequ":1783,"Ġtem":1784,"Ġgiven":1785,"Ġrad":1786,"Ġlow":1787,"Ġtrad":1788,"Ġhig":1789,"Ġwant":1790,"ĠGener":1791,"ĠUniversity":1792,"ille":1793,"Ġke":1794,"Ġgave":1795,"Ġpat":1796,"uck":1797,"isc":1798,"Ġimport":1799,"ĠPol":1800,"Ġnever":1801,"aff":1802,"ĠWhile":1803,"Ġchang":1804,"Ġdefe":1805,"ories":1806,"Ġsoc":1807,"Ġreturned":1808,"ration":1809,"ĠAb":1810,"Ġvict":1811,"Ġtotal":1812,"Ġfact":1813,"ĠHigh":1814,"Ġgood":1815,"ention":1816,"ĠTr":1817,"Ġcompany":1818,"Ġfire":1819,"sp":1820,"ailed":1821,"Ġcountry":1822,"Ġwent":1823,"ison":1824,"Ġcomb":1825,"cess":1826,"Ġfriend":1827,"ours":1828,"rick":1829,"ĠEx":1830,"Ġcapt":1831,"Ġpublished":1832,"aun":1833,"Ġproduced":1834,"levision":1835,"Ġfind":1836,"aying":1837,"con":1838,"Ġreported":1839,"Ġorigin":1840,"ĠSm":1841,"Ġ2006":1842,"aign":1843,"Ġlost":1844,"Ġstated":1845,"Ġcommon":1846,"Ġprogram":1847,"ington":1848,"Ġlight":1849,"yn":1850,"Ġparticular":1851,"ape":1852,"Ġord":1853,"echn":1854,"Ġadm":1855,"Ġinclude":1856,"ests":1857,"ĠAccording":1858,"Ġlarg":1859,"ably":1860,"urric":1861,"Ġcompet":1862,"Ġer":1863,"used":1864,"Ġrecorded":1865,"ief":1866,"Ġbuilding":1867,"Ġpress":1868,"ĠSte":1869,"Ġneed":1870,"ĠNe":1871,"Ġbus":1872,"Ġproject":1873,"hing":1874,"Ġforces":1875,"ument":1876,"Ġnort":1877,"Ġ27":1878,"Ġships":1879,"Ġshould":1880,"Ġusing":1881,"Ġeight":1882,"Ġ50":1883,"Ġ28":1884,"Ġperformance":1885,"iness":1886,"ĠSw":1887,"Ġservice":1888,"bs":1889,"Ġpopular":1890,"Ġide":1891,"ploy":1892,"ĠThese":1893,"Ġtimes":1894,"osp":1895,"Ġmaking":1896,"Ġten":1897,"Ġaircraft":1898,"Ġhimself":1899,"oyal":1900,"Ġfun":1901,"Ġauthor":1902,"Ġ2013":1903,"Ġfather":1904,"atch":1905,"Ġmilitary":1906,"ĠAustralia":1907,"ĠSec":1908,"Ġanim":1909,"lear":1910,"Ġbattle":1911,"ampionship":1912,"ned":1913,"ĠJack":1914,"ĠAss":1915,"Ġsit":1916,"Ġlim":1917,"Ġsongs":1918,"Ġsomet":1919,"Ġread":1920,"ĠAf":1921,"outher":1922,"Ġcritic":1923,"ensive":1924,"ither":1925,"ords":1926,"Ġdevelopment":1927,"Ġsw":1928,"Ġhow":1929,"Ġgl":1930,"Ġ40":1931,"ĠGeneral":1932,"alth":1933,"eth":1934,"Ġsol":1935,"itive":1936,"eder":1937,"ases":1938,"quad":1939,"Ġ26":1940,"ĠState":1941,"oll":1942,"ĠCor":1943,"outhern":1944,"ĠJames":1945,"Ġcross":1946,"cer":1947,"Ġ189":1948,"amb":1949,"Ġrepresent":1950,"ĠSy":1951,"Ġground":1952,"Ġdestroy":1953,"acy":1954,"Ġstar":1955,"Ġft":1956,"Ġremained":1957,"astern":1958,"Ġste":1959,"ks":1960,"rie":1961,"Ġcharacters":1962,"ĠArmy":1963,"Ġnational":1964,"ĠPres":1965,"Ġget":1966,"ries":1967,"work":1968,"Ġmonths":1969,"Ġsuff":1970,"Ġgen":1971,"ĠBo":1972,"Ġdied":1973,"aur":1974,"Ġter":1975,"ĠGl":1976,"ĠComp":1977,"ublic":1978,"Ġdeveloped":1979,"Ġtitle":1980,"dom":1981,"Ġsum":1982,"Ġchart":1983,"fic":1984,"Ġcampaign":1985,"ream":1986,"urricane":1987,"Ġforce":1988,"ĠLeague":1989,"Ġchildren":1990,"Ġintrodu":1991,"lands":1992,"ency":1993,"Ġpra":1994,"Ġtour":1995,"Ġpromot":1996,"itted":1997,"isted":1998,"ael":1999,"Ġson":2000,"Ġsignific":2001,"Ġred":2002,"Ġacross":2003,"Ġaway":2004,"ression":2005,"hern":2006,"Ġrelations":2007,"Ġobs":2008,"Ġhistor":2009,"Ġfield":2010,"Ġofficial":2011,"ĠDivision":2012,"Ġfav":2013,"Ġfelt":2014,"ole":2015,"lege":2016,"ĠAmerica":2017,"Ġnoted":2018,"Ġfac":2019,"ĠSim":2020,"Ġnight":2021,"alt":2022,"Ġannounced":2023,"most":2024,"Ġreached":2025,"ĠRuss":2026,"Ġintern":2027,"ĠSup":2028,"Ġcreated":2029,"ĠCounty":2030,"Ġareas":2031,"com":2032,"ĠRep":2033,"ĠMon":2034,"Ġtelevision":2035,"Ġcoun":2036,"Ġ2005":2037,"ĠRoad":2038,"ĠJapanese":2039,"Ġstation":2040,"hem":2041,"ressed":2042,"Ġsuccessful":2043,"ĠMad":2044,"Ġrock":2045,"imately":2046,"Ġval":2047,"ĠGr":2048,"ĠReg":2049,"ising":2050,"Ġvarious":2051,"ĠâĢĻ":2052,"Ġbar":2053,"ĠStreet":2054,"Ġpolitical":2055,"Ġseen":2056,"Ġfollowed":2057,"Ġaver":2058,"field":2059,"iber":2060,"iting":2061,"Ġtoo":2062,"Ġ29":2063,"Ġrank":2064,"ett":2065,"ĠEast":2066,"ope":2067,"Ġperformed":2068,"cast":2069,"ĠRober":2070,"Ġcult":2071,"ization":2072,"Ġserved":2073,"Ġ2014":2074,"Ġplayers":2075,"Ġfront":2076,"reg":2077,"Ġrev":2078,"ality":2079,"ĠGeorge":2080,"Ġcond":2081,"Ġfull":2082,"Ġprim":2083,"Ġdecl":2084,"Ġblack":2085,"ination":2086,"elling":2087,"Ġbegin":2088,"duct":2089,"Ġfle":2090,"Ġput":2091,"ĠSer":2092,"Ġcirc":2093,"Ġconv":2094,"Ġearl":2095,"ĠPer":2096,"olution":2097,"ĠTo":2098,"ĠHen":2099,"Ġcost":2100,"abor":2101,"idence":2102,"Ġsee":2103,"Ġprocess":2104,"Ġnon":2105,"Ġdiv":2106,"Ġstyle":2107,"ying":2108,"Ġlook":2109,"ĠPhil":2110,"Ġseven":2111,"Ġvol":2112,"Ġaud":2113,"Ġkilled":2114,"ĠEm":2115,"Ġcy":2116,"Ġhelp":2117,"rict":2118,"Ġlet":2119,"lished":2120,"play":2121,"Ġthroughout":2122,"ĠBill":2123,"Ġtaken":2124,"Ġtropical":2125,"Ġable":2126,"ana":2127,"Ġfight":2128,"Ġdiscover":2129,"Ġagre":2130,"ecut":2131,"ertain":2132,"Ġlittle":2133,"Ġwid":2134,"Ġbecom":2135,"Ġfem":2136,"Ġage":2137,"urg":2138,"Ġsignificant":2139,"ĠSch":2140,"Ġhit":2141,"Ġmeet":2142,"Ġident":2143,"ĠThom":2144,"ways":2145,"irl":2146,"Ġtechn":2147,"Ġspecial":2148,"Ġcop":2149,"oice":2150,"Ġwriting":2151,"Ġstruct":2152,"ĠDavid":2153,"Ġthought":2154,"Ġestablished":2155,"ĠPart":2156,"Ġbroad":2157,"ĠAct":2158,"enced":2159,"ĠMor":2160,"Ġmm":2161,"Ġappeared":2162,"Ġdoes":2163,"Ġcoll":2164,"Ġentire":2165,"ĠAustralian":2166,"aval":2167,"cil":2168,"epend":2169,"Ġyoung":2170,"Ġcoast":2171,"Ġpoints":2172,"Ġ!":2173,"Ġmiles":2174,"ius":2175,"Ġbody":2176,"Ġaward":2177,"less":2178,"Ġimpro":2179,"ĠRich":2180,"Ġroute":2181,"Ġmember":2182,"odes":2183,"ought":2184,"ĠMed":2185,"ground":2186,"ript":2187,"Ġwomen":2188,"Ġactiv":2189,"Ġrange":2190,"ster":2191,"ask":2192,"ĠPe":2193,"ivil":2194,"ĠYou":2195,"Ġcaused":2196,"Ġstarted":2197,"Ġdecided":2198,"iers":2199,"blem":2200,"Ġfeatures":2201,"lected":2202,"day":2203,"ĠAfric":2204,"Ġgeneral":2205,"Ġpain":2206,"ĠQu":2207,"Ġeventually":2208,"ators":2209,"iron":2210,"iec":2211,"int":2212,"umb":2213,"men":2214,"conom":2215,"oph":2216,"ogn":2217,"uk":2218,"den":2219,"ĠRoyal":2220,"Ġrace":2221,"Ġarch":2222,"Ġvot":2223,"here":2224,"itar":2225,"Ġgrow":2226,"Ġmanag":2227,"Ġfeet":2228,"pped":2229,"rison":2230,"Ġtoget":2231,"Ġtogether":2232,"ush":2233,"Ġadded":2234,"ĠHist":2235,"ĠHouse":2236,"Ġtre":2237,"Ġhold":2238,"bert":2239,"Ġcut":2240,"ivid":2241,"Ġ188":2242,"Ġwhite":2243,"Ġonce":2244,"Ġnov":2245,"ample":2246,"ament":2247,"Ġformed":2248,"Ġarg":2249,"Ġlocated":2250,"Ġstri":2251,"reek":2252,"urb":2253,"Ġconn":2254,"Ġmodern":2255,"off":2256,"ĠBlack":2257,"Ġenc":2258,"Ġinstead":2259,"dle":2260,"ĠPort":2261,"head":2262,"rought":2263,"aces":2264,"Ġround":2265,"Ġesc":2266,"Ġ31":2267,"Ġball":2268,"ara":2269,"Ġmix":2270,"emy":2271,"ĠIntern":2272,"Ġimportant":2273,"ee":2274,"Ġpri":2275,"cing":2276,"Ġcrew":2277,"Ġsaw":2278,"Ġaction":2279,"Ġcompleted":2280,"Ġredu":2281,"ĠItal":2282,"Ġplaying":2283,"ects":2284,"ĠIndian":2285,"ids":2286,"oney":2287,"cent":2288,"rated":2289,"ĠOther":2290,"ells":2291,"Ġ2004":2292,"ata":2293,"Ġinsp":2294,"Ġbase":2295,"Ġmater":2296,"Ġpopulation":2297,"ĠMy":2298,"Ġmot":2299,"Ġsurv":2300,"ĠMichael":2301,"Ġvoc":2302,"Ġask":2303,"Ġrather":2304,"Ġoccur":2305,"Ġopened":2306,"Ġstage":2307,"Ġbehind":2308,"Ġothers":2309,"Ġ186":2310,"ray":2311,"Ġfall":2312,"Ġren":2313,"Ġguns":2314,"asing":2315,"ceed":2316,"Ġbrother":2317,"wood":2318,"ements":2319,"igned":2320,"Ġcomment":2321,"lin":2322,"Ġlik":2323,"stit":2324,"Ġborn":2325,"Ġfif":2326,"Ġ2015":2327,"Ġsite":2328,"Ġlive":2329,"Ġworks":2330,"Ġloss":2331,"ĠFrance":2332,"Ġbomb":2333,"Ġworked":2334,"ficult":2335,"Ġheavy":2336,"Ġmiss":2337,"Ġpred":2338,"Ã¡":2339,"ĠSchool":2340,"medi":2341,"rap":2342,"Ġsubsequ":2343,"Ġlack":2344,"Ġparty":2345,"Ġproblem":2346,"nder":2347,"lection":2348,"Ġdifficult":2349,"Ġclose":2350,"ĠWash":2351,"Ġconstruction":2352,"Ġknow":2353,"ĠNor":2354,"ĠSome":2355,"Ġrelationship":2356,"Ġhost":2357,"Ġweeks":2358,"istic":2359,"ĠSan":2360,"Ġoriginally":2361,"Ġsepar":2362,"Ġassoci":2363,"arch":2364,"co":2365,"Ġupon":2366,"Ġpract":2367,"Ġreb":2368,"ĠHenry":2369,"Ġleading":2370,"Ġappoin":2371,"Ġaccom":2372,"Ġvill":2373,"Ġalmost":2374,"Ġmer":2375,"ĠRobert":2376,"orts":2377,"Ġpeak":2378,"ĠAle":2379,"Ġinj":2380,"Ġdamage":2381,"lic":2382,"unk":2383,"Ġscored":2384,"Ġfourth":2385,"osition":2386,"Ġinform":2387,"Ġ2000":2388,"Ġreve":2389,"ĠMusic":2390,"aps":2391,"Ġprovided":2392,"ĠBest":2393,"ming":2394,"Ġcase":2395,"ĠVir":2396,"ĠStar":2397,"Ġgoal":2398,"Ġclos":2399,"ĠBattle":2400,"board":2401,"Ġengine":2402,"Ġcreat":2403,"ĠRed":2404,"Ġaccept":2405,"Ġmi":2406,"Ġinvest":2407,"ica":2408,"oring":2409,"Ġscene":2410,"ellow":2411,"ĠDesp":2412,"Ġhuman":2413,"angu":2414,"ule":2415,"ino":2416,"ological":2417,"Ġbrought":2418,"Ġ500":2419,"Ġfree":2420,"Ġindivid":2421,"Ġ187":2422,"ĠPaul":2423,"Ġfeatured":2424,"ula":2425,"Ġmother":2426,"ĠPresident":2427,"ĠRou":2428,"Ġking":2429,"Ġleast":2430,"ama":2431,"Ġworking":2432,"aut":2433,"Ġallowed":2434,"Ġlaun":2435,"Ġresul":2436,"ĠMil":2437,"Ġaverage":2438,"ĠCap":2439,"Ġtowards":2440,"Ġwanted":2441,"Ġmult":2442,"Ġindust":2443,"Ġtradition":2444,"aves":2445,"Ġregion":2446,"Ġbusiness":2447,"ĠWashington":2448,"ĠHol":2449,"iding":2450,"azine":2451,"ĠAg":2452,"ĠQue":2453,"Ġve":2454,"Ġquick":2455,"Ġtroops":2456,"Ġplaced":2457,"Ġeither":2458,"Ġce":2459,"Ġrespect":2460,"ving":2461,"Ġoffice":2462,"Ġcritics":2463,"ky":2464,"ĠBel":2465,"Ġavail":2466,"Ġhon":2467,"antic":2468,"Ġreach":2469,"ĠÃ":2470,"Ġprofess":2471,"Ġexample":2472,"Ġruns":2473,"Ġmaterial":2474,"Ġeconom":2475,"Ġrecogn":2476,"Ġfar":2477,"ened":2478,"Ġwife":2479,"ze":2480,"go":2481,"earch":2482,"to":2483,"chie":2484,"Ġneg":2485,"Ġestim":2486,"ential":2487,"Ġarmy":2488,"Ġfoc":2489,"right":2490,"ĠDespite":2491,"Ġsex":2492,"Ġ2003":2493,"Ġinterest":2494,"ĠFollow":2495,"ĠCour":2496,"Ġsour":2497,"ength":2498,"Ġgenerally":2499,"Ġmass":2500,"Ġjoined":2501,"Ġdou":2502,"Ġrail":2503,"quadron":2504,"ĠHam":2505,"Ġproper":2506,"ills":2507,"ĠAngel":2508,"uff":2509,"enes":2510,"Ġcurrent":2511,"Ġdev":2512,"ourn":2513,"ĠHall":2514,"ĠCup":2515,"Ġevents":2516,"Ġbelieved":2517,"ĠGame":2518,"itch":2519,"of":2520,"Ġparticip":2521,"Ġ35":2522,"rey":2523,"be":2524,"Ġfig":2525,"ĠFollowing":2526,"ĠKe":2527,"ville":2528,"ĠFirst":2529,"ĠMary":2530,"ĠDr":2531,"Ġz":2532,"Ġvictory":2533,"Ġreplaced":2534,"ĠLou":2535,"ĠGreat":2536,"artment":2537,"Ġdesigned":2538,"Ġmph":2539,"iction":2540,"Ġgrad":2541,"ĠJe":2542,"Ġrul":2543,"itte":2544,"Ġsoon":2545,"Ġnomin":2546,"sc":2547,"Ġisland":2548,"ĠGro":2549,"Ġfund":2550,"xic":2551,"ĠLa":2552,"erous":2553,"oor":2554,"Ġhours":2555,"ĠEuropean":2556,"ĠTwo":2557,"Ġemploy":2558,"Ġpresident":2559,"ĠMal":2560,"Ġroom":2561,"ification":2562,"Ġinvolved":2563,"aled":2564,"uel":2565,"Ġsurf":2566,"val":2567,"aper":2568,"Ġfinished":2569,"merc":2570,"Ġstru":2571,"ĠChampionship":2572,"inn":2573,"inist":2574,"asion":2575,"west":2576,"ĠMart":2577,"inf":2578,"ĠPlay":2579,"Ġbreak":2580,"ĠRoman":2581,"Ġhor":2582,"rain":2583,"aren":2584,"iff":2585,"Ġsaying":2586,"arn":2587,"emor":2588,"Ġcourt":2589,"Ġshot":2590,"Ġthreat":2591,"ĠBer":2592,"Ġscore":2593,"Ġopening":2594,"Ġregular":2595,"ĠDan":2596,"BC":2597,"Ġdesp":2598,"Ġdirector":2599,"Ġlength":2600,"ĠMet":2601,"ĠMac":2602,"ĠDon":2603,"Ġindic":2604,"ades":2605,"leg":2606,"cher":2607,"ĠScott":2608,"Ġconduct":2609,"Ġlargest":2610,"Ġcontrib":2611,"Ġtravel":2612,"Ġhom":2613,"oul":2614,"ki":2615,"Ġpossible":2616,"ecutive":2617,"Ġill":2618,"ude":2619,"now":2620,"Ġminutes":2621,"Ġhighway":2622,"ĠRoute":2623,"Ġsouthern":2624,"ishing":2625,"Ġdro":2626,"ĠCro":2627,"Ġhy":2628,"ĠVal":2629,"icle":2630,"Ġhighest":2631,"Ġremov":2632,"ĠFrom":2633,"Ġearlier":2634,"Ġ2001":2635,"Ġtest":2636,"ĠAtl":2637,"Ġinitially":2638,"ĠSing":2639,"ago":2640,"Ġly":2641,"Ġavailable":2642,"Ġparticularly":2643,"Ġpercent":2644,"ander":2645,"antry":2646,"Ġhard":2647,"ĠWil":2648,"anned":2649,"Ġsequ":2650,"Ġtraining":2651,"ĠRepublic":2652,"Ġforced":2653,"Ġmust":2654,"Ġexist":2655,"ply":2656,"ĠMid":2657,"ipp":2658,"hib":2659,"ĠMag":2660,"ĠKingdom":2661,"ĠCharles":2662,"ĠNavy":2663,"ography":2664,"asy":2665,"Ġpark":2666,"ĠÂ°":2667,"rian":2668,"bor":2669,"ateg":2670,"Ġrespons":2671,"Ġended":2672,"Ġquar":2673,"rac":2674,"ĠMcC":2675,"ĠOff":2676,"Ġturned":2677,"Ġwall":2678,"ĠThomas":2679,"Ġexc":2680,"Ġsocial":2681,"ĠInternational":2682,"uture":2683,"ĠBut":2684,"Ġstudio":2685,"ĠPal":2686,"ems":2687,"iforn":2688,"ĠRes":2689,"rag":2690,"ĠDep":2691,"ios":2692,"Ġchange":2693,"ĠWhite":2694,"Ġlangu":2695,"ĠVirgin":2696,"Ġpraised":2697,"Ġpassed":2698,"Ġsuper":2699,"Ġpriv":2700,"Ġbill":2701,"atural":2702,"Ġpiec":2703,"Ġincreased":2704,"Ġobject":2705,"ĠBrown":2706,"rup":2707,"Ġeduc":2708,"Ġhurricane":2709,"Ġregard":2710,"Ġnorthern":2711,"heast":2712,"Ġ2002":2713,"Ġkeep":2714,"Ġphys":2715,"Ġcentral":2716,"ights":2717,"ĠChurch":2718,"itor":2719,"Ġnovel":2720,"Ġrelig":2721,"ĠCanada":2722,"sel":2723,"Ġspeed":2724,"Ġappearance":2725,"ĠCaliforn":2726,"Ġunits":2727,"Ġpast":2728,"rem":2729,"ership":2730,"ĠRock":2731,"ĠSl":2732,"key":2733,"Ġstop":2734,"Ġchurch":2735,"ĠSen":2736,"ended":2737,"Ġcou":2738,"Ġimmedi":2739,"ĠBay":2740,"uter":2741,"Ġsym":2742,"ston":2743,"ĠMo":2744,"ĠSmith":2745,"ocr":2746,"Ġdisp":2747,"Ġmeas":2748,"Ġordered":2749,"aughter":2750,"ĠMer":2751,"Ġtreat":2752,"ique":2753,"ĠSam":2754,"Ġtaking":2755,"ference":2756,"ĠRichard":2757,"rying":2758,"ittee":2759,"Ġindepend":2760,"Ġlove":2761,"ĠAlex":2762,"Ġsigned":2763,"Ġmove":2764,"ilities":2765,"ĠCalifornia":2766,"Ġachie":2767,"etwork":2768,"Ġbetter":2769,"Ġpers":2770,"ump":2771,"ĠUnion":2772,"itz":2773,"aker":2774,"ĠGod":2775,"Ġap":2776,"ĠGovern":2777,"ecess":2778,"arily":2779,"Ġinn":2780,"Ġwinds":2781,"ĠIsland":2782,"Ġcommerc":2783,"Ġenough":2784,"Ġwat":2785,"Ġpositive":2786,"ears":2787,"nel":2788,"ume":2789,"ĠCourt":2790,"Ġaccording":2791,"Ġhous":2792,"Ġspent":2793,"elled":2794,"Ġgoing":2795,"Ġpot":2796,"Ġabove":2797,"ĠBra":2798,"Ġslow":2799,"anks":2800,"Ġoutside":2801,"Ġfilms":2802,"apt":2803,"ĠTom":2804,"ĠVict":2805,"ĠUp":2806,"ĠCong":2807,"Ġfeel":2808,"Ġtold":2809,"Ġfootball":2810,"ma":2811,"ĠAward":2812,"berg":2813,"quare":2814,"Ġclear":2815,"Ġpreviously":2816,"uation":2817,"Ġquest":2818,"Ġstates":2819,"Ġrecording":2820,"Ġ1990":2821,"Ġmean":2822,"anding":2823,"ĠAssoci":2824,"Ġ60":2825,"ĠAc":2826,"Ġnine":2827,"het":2828,"Ġpur":2829,"usion":2830,"Ġsubject":2831,"ĠArt":2832,"Ġfailed":2833,"atin":2834,"ows":2835,"Ġassist":2836,"Ġcome":2837,"ĠCompany":2838,"Ġrequired":2839,"reng":2840,"osing":2841,"Ġ45":2842,"Ġelements":2843,"Ġprob":2844,"van":2845,"Ġey":2846,"ida":2847,"ĠStud":2848,"Ġcru":2849,"alion":2850,"ĠIndia":2851,"Ġlower":2852,"ĠGermany":2853,"Ġreviews":2854,"Ġinterview":2855,"edy":2856,"Ġphot":2857,"Ġparts":2858,"ĠMark":2859,"ĠPeter":2860,"ĠGold":2861,"Ġitself":2862,"ĠChristian":2863,"Ġsil":2864,"Ġnar":2865,"Ġthink":2866,"nes":2867,"ranch":2868,"ship":2869,"Ġdirected":2870,"Ġabs":2871,"isl":2872,"Ġesp":2873,"Ġflow":2874,"ibility":2875,"Ġdespite":2876,"Ġcred":2877,"amer":2878,"Ġcontract":2879,"Ġ185":2880,"oke":2881,"ĠNY":2882,"ĠThat":2883,"Ġdebut":2884,"ĠTimes":2885,"Ġ?":2886,"ĠÂ£":2887,"ĠPat":2888,"erved":2889,"Ġaccess":2890,"ready":2891,"leb":2892,"ĠCast":2893,"Ġbeginning":2894,"oid":2895,"Ġbi":2896,"Ġgroups":2897,"ĠCollege":2898,"Ġviol":2899,"onna":2900,"ĠHill":2901,"Ġsection":2902,"ĠUK":2903,"ĠSov":2904,"ability":2905,"hester":2906,"Ġwhose":2907,"ĠBr":2908,"asons":2909,"Ġclaimed":2910,"ĠWestern":2911,"Ġinternational":2912,"Ġasked":2913,"Ġlines":2914,"Ġtransfer":2915,"Ġprevent":2916,"ĠDem":2917,"Ġstreng":2918,"Ġscreen":2919,"Ġgive":2920,"airs":2921,"Ġche":2922,"ĠSoviet":2923,"onse":2924,"rief":2925,"Ġunc":2926,"Ġbeg":2927,"Ġkey":2928,"Ġadditional":2929,"Ġfuture":2930,"ĠFilm":2931,"mar":2932,"ĠGrand":2933,"ĠMexic":2934,"Ġleague":2935,"Ġwhom":2936,"ĠFrank":2937,"Ġop":2938,"ĠDo":2939,"Ġgold":2940,"ĠSpan":2941,"Ġpoor":2942,"ĠBen":2943,"ĠAwards":2944,"Ġfort":2945,"lying":2946,"Ġintroduced":2947,"Ġevidence":2948,"Ġdon":2949,"Ġprem":2950,"ites":2951,"onst":2952,"Ġsea":2953,"Ġidea":2954,"ex":2955,"Ġquickly":2956,"Ġcal":2957,"atory":2958,"Ġalready":2959,"ĠSoc":2960,"Ġ32":2961,"Ġcenter":2962,"Ġbridge":2963,"Ġfrequ":2964,"ĠForce":2965,"usp":2966,"ĠMost":2967,"Ġelection":2968,"Ġproduct":2969,"Ġoccup":2970,"eck":2971,"Ġpil":2972,"Ġexcept":2973,"ĠCoun":2974,"back":2975,"Ġ1970":2976,"unt":2977,"Ġdeal":2978,"irth":2979,"eum":2980,"ecially":2981,"Ġpen":2982,"Ġusually":2983,"Ġmusical":2984,"Ġ1980":2985,"Ġemb":2986,"Ġwestern":2987,"Ġarrived":2988,"aring":2989,"ĠRob":2990,"Ġblock":2991,"eal":2992,"Ġradio":2993,"ĠBritain":2994,"Ġcivil":2995,"liam":2996,"Ġcycl":2997,"ergy":2998,"ully":2999,"ĠOver":3000,"Ġfemale":3001,"Ġsometimes":3002,"ĠDay":3003,"Ġstudy":3004,"Ġfood":3005,"Ġresponse":3006,"Ġdecision":3007,"Ġmoney":3008,"ĠPac":3009,"Ġmagazine":3010,"Ġespecially":3011,"ĠHot":3012,"Ġissue":3013,"ĠLater":3014,"asc":3015,"liament":3016,"ĠVictor":3017,"ĠIm":3018,"Ġlab":3019,"Ġsurface":3020,"Ġliter":3021,"gen":3022,"rack":3023,"Ġ-":3024,"Ġflood":3025,"Ġmight":3026,"aint":3027,"ĠChic":3028,"Ġenv":3029,"ĠTra":3030,"Ġguitar":3031,"Ġcarried":3032,"ĠBur":3033,"Ġshows":3034,"Ġcommunity":3035,"ena":3036,"Ġconstruct":3037,"iter":3038,"Ġestimated":3039,"Ġarran":3040,"Ġremain":3041,"aries":3042,"ĠMill":3043,"Ġ1999":3044,"Ġremaining":3045,"Ġeastern":3046,"Ġminor":3047,"ha":3048,"Ġdefeated":3049,"Ġdeterm":3050,"ĠRh":3051,"inent":3052,"ession":3053,"ĠVirginia":3054,"ĠEarly":3055,"Ġapprox":3056,"igan":3057,"Ġlarger":3058,"raw":3059,"ulf":3060,"Ġbecoming":3061,"Ġrap":3062,"Ġwood":3063,"Ġcomplete":3064,"ĠMount":3065,"Ġ36":3066,"rab":3067,"ror":3068,"Ġpolice":3069,"Ġsuggested":3070,"porary":3071,"Ġmedia":3072,"Ġpressure":3073,"Ġentered":3074,"Ġshoot":3075,"Ġ80":3076,"Ġteams":3077,"rics":3078,"ĠLos":3079,"ĠJust":3080,"Ġcommercial":3081,"Ġanal":3082,"ĠInf":3083,"Ġdoc":3084,"Ġlatter":3085,"ands":3086,"NA":3087,"Ġmarket":3088,"erve":3089,"Ġlo":3090,"Ġconsider":3091,"Ġstudents":3092,"ises":3093,"Ġsurround":3094,"Ġinvestig":3095,"Ġbrief":3096,"Ġconcern":3097,"Ġpersonal":3098,"ĠSecond":3099,"inct":3100,"Ġbur":3101,"ĠIf":3102,"ĠTex":3103,"Ġcertain":3104,"Ġprison":3105,"Ġacqu":3106,"Ġdiscuss":3107,"ĠFle":3108,"ĠJackson":3109,"Ġeffects":3110,"Ġcomplet":3111,"Ġhop":3112,"Ġappointed":3113,"alled":3114,"Ġder":3115,"Ġsummer":3116,"Ġepisodes":3117,"ĠCont":3118,"Ġprior":3119,"ederal":3120,"incip":3121,"ĠFlor":3122,"Ġsat":3123,"Ġtar":3124,"change":3125,"Ġemer":3126,"Ġstaff":3127,"enth":3128,"lymp":3129,"Ġsize":3130,"ĠLouis":3131,"ores":3132,"Ġchanges":3133,"ulated":3134,"Ġcommission":3135,"sy":3136,"omm":3137,"tt":3138,"imate":3139,"Ġwinning":3140,"Ġlimited":3141,"Ġscenes":3142,"ĠOlymp":3143,"Ġriver":3144,"Ġfleet":3145,"Ġleaving":3146,"Ġdestroyed":3147,"iser":3148,"Ġdeg":3149,"Ġdraw":3150,"Ġpay":3151,"II":3152,"ĠClub":3153,"Ġden":3154,"Ġrid":3155,"lo":3156,"que":3157,"ĠSpanish":3158,"Ġ75":3159,"Ġself":3160,"ga":3161,"su":3162,"Ġrights":3163,"ournal":3164,"Ġprovide":3165,"Ġwriter":3166,"ires":3167,"rigade":3168,"Ġpolic":3169,"sen":3170,"Ġtype":3171,"idents":3172,"Ġfail":3173,"ari":3174,"ension":3175,"Ġdate":3176,"Ġtrib":3177,"Ġterrit":3178,"oms":3179,"ĠKh":3180,"Ġgirl":3181,"Ġproposed":3182,"rd":3183,"Ġinfluence":3184,"ties":3185,"ĠGreen":3186,"ĠParty":3187,"Ġoverall":3188,"Ġtax":3189,"Ġ184":3190,"Ġkil":3191,"Ġtransport":3192,"Ġ1960":3193,"Ġstructure":3194,"ĠTer":3195,"Ġcontro":3196,"Ġequip":3197,"ĠDu":3198,"Ġ300":3199,"Ġdivision":3200,"Ġscript":3201,"Ġbr":3202,"iral":3203,"inese":3204,"ÃŃ":3205,"ĠAssociation":3206,"Ġagreed":3207,"Ġanti":3208,"Ġintended":3209,"ĠPri":3210,"Ġjud":3211,"Ġbow":3212,"ĠEdward":3213,"Ġrunning":3214,"ift":3215,"ending":3216,"icles":3217,"ĠChicago":3218,"Ġdaughter":3219,"Ġbig":3220,"Ġbroadcast":3221,"Ġpurch":3222,"Ġnearly":3223,"Ġsupported":3224,"ĠMany":3225,"atives":3226,"AF":3227,"ĠAdm":3228,"Ġdeep":3229,"Ġdi":3230,"Ġresearch":3231,"Ġwide":3232,"imum":3233,"Ġestablish":3234,"ĠRo":3235,"Ġhelped":3236,"Ġmarried":3237,"Ġ1998":3238,"Ġmovement":3239,"ĠChinese":3240,"Ġawarded":3241,"Ġmultip":3242,"ĠSong":3243,"ĠIr":3244,"ĠCouncil":3245,"ili":3246,"ĠOper":3247,"iles":3248,"atively":3249,"acing":3250,"irm":3251,"Ġcreate":3252,"Ġfavor":3253,"Ġintens":3254,"Ġdiss":3255,"Ġbird":3256,"ĠSal":3257,"ĠEnter":3258,"Ġdark":3259,"Ġsusp":3260,"pris":3261,"omer":3262,"ny":3263,"teen":3264,"Ġstars":3265,"Ã¶":3266,"che":3267,"Ġlonger":3268,"Ġlanguage":3269,"Ġhigher":3270,"Ġcat":3271,"ĠEv":3272,"Ġplanned":3273,"mon":3274,"Ġcompared":3275,"Ġcaptured":3276,"Ġincreasing":3277,"Ġfans":3278,"Ġconclud":3279,"Ġcourse":3280,"uz":3281,"Ġchanged":3282,"ĠServ":3283,"ĠSuper":3284,"ĠEmp":3285,"ĠJohnson":3286,"Ġ33":3287,"ounds":3288,"Ġexperience":3289,"Ġapproximately":3290,"Ġrelated":3291,"selves":3292,"Ġdone":3293,"Ġfeature":3294,"Ġfifth":3295,"Ġliving":3296,"enty":3297,"ĠKore":3298,"Ġthemselves":3299,"abit":3300,"ĠHistory":3301,"Ġproducer":3302,"bers":3303,"itt":3304,"Ġ70":3305,"tained":3306,"arent":3307,"Ġtemper":3308,"Ġspace":3309,"Ġtracks":3310,"Ġmostly":3311,"ss":3312,"ĠPacific":3313,"isions":3314,"Ġwithd":3315,"ĠInter":3316,"ĠBack":3317,"uth":3318,"anced":3319,"olic":3320,"ĠBillboard":3321,"ij":3322,"Ġthus":3323,"ĠApp":3324,"ĠBet":3325,"ĠNot":3326,"can":3327,"Ġwoman":3328,"Ġdead":3329,"umn":3330,"ĠMont":3331,"Ġoperations":3332,"Ġimm":3333,"Ġremains":3334,"Ġsyn":3335,"Ġbring":3336,"Ġquarter":3337,"thing":3338,"Ġour":3339,"Ġnatural":3340,"Ġwhether":3341,"imin":3342,"vin":3343,"Ġult":3344,"Ã¼":3345,"oint":3346,"Ġconcept":3347,"Ġweap":3348,"Ġdram":3349,"ĠFinal":3350,"ĠScot":3351,"anded":3352,"Ġprobably":3353,"Ġsoldiers":3354,"Ġran":3355,"Ġcopies":3356,"rast":3357,"ĠSun":3358,"bour":3359,"Ġbuildings":3360,"Ġleader":3361,"Ġvoice":3362,"Ġ1997":3363,"Ġface":3364,"Ġboy":3365,"Ġextended":3366,"ĠSince":3367,"Ġlyrics":3368,"Ġforward":3369,"Ġdepart":3370,"ĠKn":3371,"Ġcomplex":3372,"Ġboard":3373,"ĠAtlantic":3374,"Ġreact":3375,"iring":3376,"Ġbattles":3377,"vey":3378,"Ġissued":3379,"Ġheav":3380,"Ġchall":3381,"riage":3382,"ging":3383,"Ġreally":3384,"Ġcountries":3385,"ospital":3386,"Ġ37":3387,"rate":3388,"Ġsuffered":3389,"ĠLake":3390,"ĠCongress":3391,"Ġcm":3392,"ĠLove":3393,"ĠFort":3394,"ĠFranc":3395,"Ġgoals":3396,"ĠFlorida":3397,"urt":3398,"ĠSever":3399,"Ġincludes":3400,"Ġimmediately":3401,"Ġmeth":3402,"ĠBoth":3403,"Ġattend":3404,"ĠBig":3405,"hood":3406,"Ġbreed":3407,"Ġcapital":3408,"Ġmanager":3409,"Ġmixed":3410,"Ġprivate":3411,"iant":3412,"ĠJim":3413,"ĠJew":3414,"Ġofficers":3415,"Ġlikely":3416,"ĠOld":3417,"Ġcann":3418,"Ġdistrib":3419,"hold":3420,"ĠAnt":3421,"ien":3422,"Ġmach":3423,"ĠQueen":3424,"de":3425,"bury":3426,"Ġremoved":3427,"ĠTexas":3428,"Ġplant":3429,"Ġinitial":3430,"Ġceleb":3431,"ĠSea":3432,"Ġincrease":3433,"venue":3434,"ĠTown":3435,"Ġhealth":3436,"Ġsubsequently":3437,"ĠDist":3438,"Ġleave":3439,"Ġplans":3440,"ria":3441,"Ġalways":3442,"Ġfocus":3443,"Ġcoin":3444,"ĠLaw":3445,"Ġnetwork":3446,"ections":3447,"Ġservices":3448,"Ġmount":3449,"Ġvia":3450,"Ġstatus":3451,"Ġcompan":3452,"ĠTrans":3453,"ĠTor":3454,"rial":3455,"ĠPet":3456,"ĠChina":3457,"Ġvisit":3458,"Ġlocation":3459,"ĠMr":3460,"order":3461,"ams":3462,"ĠAnother":3463,"iation":3464,"Ġflag":3465,"Ġproblems":3466,"ĠLord":3467,"ĠCamp":3468,"ĠHow":3469,"ĠEarth":3470,"Ġoffered":3471,"Ġinstr":3472,"well":3473,"ously":3474,"aily":3475,"Ġmodel":3476,"Ġterms":3477,"Ġnorm":3478,"etic":3479,"Ġmur":3480,"ĠConst":3481,"Ġcolon":3482,"Ġapproach":3483,"Ġsomething":3484,"Ġvillage":3485,"Ġadminist":3486,"Ġtons":3487,"Ġfell":3488,"ounted":3489,"ĠWood":3490,"wer":3491,"ĠBoy":3492,"ctor":3493,"ĠOl":3494,"Ġtor":3495,"ironment":3496,"Ġsch":3497,"Ġmajority":3498,"ĠTur":3499,"Ġprofessional":3500,"orning":3501,"Ġcounter":3502,"Ġ183":3503,"ĠCanadian":3504,"ĠIts":3505,"adium":3506,"ĠRail":3507,"Ã³":3508,"Ġgot":3509,"ibr":3510,"ĠAfrica":3511,"Ġcause":3512,"ĠMur":3513,"Ġconsist":3514,"burg":3515,"aches":3516,"uries":3517,"Ġinters":3518,"Ġdamaged":3519,"Ġmeeting":3520,"ĠGre":3521,"Ġjob":3522,"Ġappears":3523,"Ġadop":3524,"Ġminute":3525,"Ġranked":3526,"olk":3527,"Ġlay":3528,"ĠCenter":3529,"uf":3530,"Ġindividual":3531,"oes":3532,"Ġcomposed":3533,"cean":3534,"Ġrevealed":3535,"ĠSquadron":3536,"ĠHighway":3537,"ify":3538,"Ġang":3539,"ste":3540,"Ġflight":3541,"Ġattacks":3542,"ĠRussian":3543,"itect":3544,"Ġ90":3545,"Ġplot":3546,"Ġdiscovered":3547,"Ġraised":3548,"lor":3549,"reak":3550,"umed":3551,"ĠRad":3552,"ĠMel":3553,"Ġfinanc":3554,"Ġrespectively":3555,"Ġmakes":3556,"pan":3557,"ĠKent":3558,"ĠCarol":3559,"ĠMartin":3560,"ĠCentral":3561,"ĠSir":3562,"Ġnumerous":3563,"ĠIII":3564,"Ġ1995":3565,"Ġassociated":3566,"Ġaltern":3567,"gar":3568,"Ġtakes":3569,"ĠAngeles":3570,"Ġdomin":3571,"Ġneeded":3572,"Ġinspired":3573,"ĠBow":3574,"Ġanc":3575,"Ġlived":3576,"Ġ34":3577,"oe":3578,"ault":3579,"Ġgrand":3580,"Ġlaunched":3581,"Ġyet":3582,"ription":3583,"Ġcand":3584,"Ġnature":3585,"Ġpow":3586,"Ġamb":3587,"Ġdig":3588,"Ġcoach":3589,"Ġoccurred":3590,"Ġcontains":3591,"ĠDV":3592,"Ġveh":3593,"estival":3594,"Ġbene":3595,"Ġshown":3596,"Ġattempted":3597,"uals":3598,"Ġattacked":3599,"ĠDes":3600,"uments":3601,"Ġmoving":3602,"Ġconditions":3603,"Ġupper":3604,"Ġhour":3605,"ĠTV":3606,"ka":3607,"iest":3608,"down":3609,"imb":3610,"ken":3611,"Ġsales":3612,"Ġgra":3613,"ective":3614,"Ġ38":3615,"ĠGroup":3616,"ĠMiss":3617,"joy":3618,"ĠYear":3619,"Ġcollect":3620,"Ġ2016":3621,"ĠDel":3622,"aught":3623,"ĠTour":3624,"Ġ1996":3625,"orce":3626,"Ġissues":3627,"Ġbirth":3628,"Ġ1950":3629,"ĠRev":3630,"Ġwhole":3631,"Ġsal":3632,"izing":3633,"Ġi":3634,"Ġexam":3635,"Ġcer":3636,"Ġinformation":3637,"Ġyards":3638,"Ġfarm":3639,"Ġslight":3640,"ĠEmpire":3641,"ĠOut":3642,"Ġbox":3643,"urity":3644,"Ġmom":3645,"win":3646,"vert":3647,"Ġreferred":3648,"uing":3649,"Ġcritical":3650,"oly":3651,"Ġincor":3652,"reme":3653,"ĠUnder":3654,"ĠPenn":3655,"ĠGar":3656,"Ġnumbers":3657,"Ġfinally":3658,"Ġsmaller":3659,"Ġelected":3660,"Ġselected":3661,"Ġdefeat":3662,"Ġresulted":3663,"Ġsen":3664,"Ġscient":3665,"Ġstay":3666,"Ġbad":3667,"Ġgrant":3668,"Ġqual":3669,"Ġactive":3670,"Ġprincip":3671,"Ġsinger":3672,"kin":3673,"Ġstandard":3674,"Ġsecret":3675,"Ġpit":3676,"itation":3677,"ĠItalian":3678,"uated":3679,"Ġmission":3680,"Ġindustry":3681,"Ġ1994":3682,"enant":3683,"Ġlargely":3684,"Ġens":3685,"Ġoperation":3686,"Ġsem":3687,"andon":3688,"ĠJose":3689,"Ġprec":3690,"Ġlink":3691,"ortun":3692,"onic":3693,"oura":3694,"Ġassigned":3695,"use":3696,"Ġsaf":3697,"Ġlegisl":3698,"Ġearned":3699,"Ġthr":3700,"Ġcommented":3701,"itude":3702,"Ġmale":3703,"Ġexpected":3704,"ãĥ":3705,"ĠDVD":3706,"ĠCorps":3707,"iled":3708,"ĠDis":3709,"Ġroy":3710,"Ġaudience":3711,"Ġlisted":3712,"Ġsuggest":3713,"Ġgre":3714,"oud":3715,"ĠCrit":3716,"ĠArm":3717,"Ġcovered":3718,"Ġpurp":3719,"Ġunable":3720,"irection":3721,"Ġsched":3722,"Ġheart":3723,"Ġtraditional":3724,"ĠCr":3725,"Ġeducation":3726,"gr":3727,"Ġtrade":3728,"Ġartist":3729,"Ġnewsp":3730,"ya":3731,"Ġdouble":3732,"Ġfriends":3733,"Ġclosed":3734,"ĠViet":3735,"Ġunderst":3736,"Ġrefused":3737,"agon":3738,"Ġaw":3739,"Ġrecover":3740,"Ġattention":3741,"ounts":3742,"Ġmethod":3743,"Ġprimary":3744,"ighter":3745,"Ġsister":3746,"ogue":3747,"Ġkind":3748,"Ġtalk":3749,"ĠMichigan":3750,"ĠPre":3751,"tered":3752,"Ġreason":3753,"ffic":3754,"Ġofficer":3755,"Ġplat":3756,"Ġbelow":3757,"Ġcontem":3758,"hips":3759,"Ġ1940":3760,"ĠWales":3761,"Ġenjoy":3762,"Ġability":3763,"Ġdepression":3764,"Ġmeant":3765,"ĠMass":3766,"Ġperformances":3767,"Ġdeclared":3768,"oo":3769,"Ġwalk":3770,"ĠNort":3771,"Ġ49":3772,"Ġblood":3773,"isher":3774,"ĠMore":3775,"Ġgiving":3776,"ĠCath":3777,"Ġletter":3778,"Ġcompl":3779,"Ġword":3780,"undred":3781,"ples":3782,"Ġ180":3783,"Ġfighting":3784,"Ġmiddle":3785,"ĠCle":3786,"Ġcommander":3787,"Ġreligious":3788,"Ġbooks":3789,"Ġtheat":3790,"Ġmax":3791,"Ġhot":3792,"Ġsett":3793,"Ġrate":3794,"ĠOx":3795,"ĠArch":3796,"ĠStep":3797,"ĠLong":3798,"Ġrecords":3799,"ils":3800,"Ġmatches":3801,"Ġconstit":3802,"ĠAcad":3803,"Ġnames":3804,"ona":3805,"aped":3806,"ĠBec":3807,"ĠTest":3808,"ĠDemocr":3809,"Ġproduce":3810,"Ġquestion":3811,"ĠFer":3812,"ĠCare":3813,"antasy":3814,"Ġcompetition":3815,"utch":3816,"Ġcentre":3817,"Ġserious":3818,"Ġunit":3819,"ux":3820,"ĠTeam":3821,"odies":3822,"Ġdisapp":3823,"Ġtouch":3824,"Ġvocals":3825,"ims":3826,"ĠMinister":3827,"irt":3828,"ĠSeveral":3829,"iences":3830,"Ġmention":3831,"ĠZeal":3832,"osh":3833,"ounded":3834,"Ġ1992":3835,"Ġri":3836,"ĠMajor":3837,"ector":3838,"ĠCons":3839,"Ġ41":3840,"Ġaccount":3841,"Ġdocument":3842,"Ġabandon":3843,"ĠWal":3844,"road":3845,"icted":3846,"Ġrapid":3847,"Ġenergy":3848,"Ġnecess":3849,"ares":3850,"Ġmor":3851,"quar":3852,"Ġkilomet":3853,"ĠKenn":3854,"ervation":3855,"echan":3856,"ĠFore":3857,"Ġdut":3858,"Ġconstructed":3859,"ening":3860,"Ġtheme":3861,"Ġris":3862,"rug":3863,"oses":3864,"rier":3865,"ĠFox":3866,"ĠSum":3867,"ette":3868,"ĠTime":3869,"Ġroyal":3870,"Ġpick":3871,"ishop":3872,"Ġstra":3873,"Ġnearby":3874,"Ġhighly":3875,"Ġseparate":3876,"ĠZealand":3877,"yr":3878,"ĠEr":3879,"Ġcontinue":3880,"vention":3881,"Ġprep":3882,"ĠSo":3883,"Ġchief":3884,"Ġdrum":3885,"ails":3886,"Ġeffort":3887,"Ġcas":3888,"Ġpresented":3889,"edic":3890,"ĠHaw":3891,"Ġtur":3892,"ĠSar":3893,"Ġcombat":3894,"ĠMexico":3895,"oper":3896,"Ġpositions":3897,"ĠAfrican":3898,"Ġreduced":3899,"Ġannual":3900,"ĠBu":3901,"ether":3902,"Ġ400":3903,"ibly":3904,"Ġcontrovers":3905,"ĠChris":3906,"ĠMatt":3907,"Ġdirectly":3908,"ieut":3909,"ĠMa":3910,"ĠFour":3911,"Ġ1930":3912,"Ġlevels":3913,"cel":3914,"Ġmeans":3915,"Ġcle":3916,"Ġneigh":3917,"ĠWall":3918,"Ġnotes":3919,"Ġattended":3920,"Ġsevent":3921,"Ġpractice":3922,"Ġtried":3923,"shire":3924,"Ġcompos":3925,"Ġforest":3926,"uit":3927,"emorial":3928,"Ġ55":3929,"Ġfast":3930,"Ġhar":3931,"Ġnuc":3932,"Ġedition":3933,"Ġtrain":3934,"ĠLit":3935,"ĠBrad":3936,"ĠDar":3937,"acher":3938,"ado":3939,"ĠChart":3940,"ĠTre":3941,"ĠBob":3942,"arents":3943,"Ġtwenty":3944,"vement":3945,"Ġmetal":3946,"Ġ1993":3947,"ĠMadonna":3948,"Ġaccepted":3949,"osen":3950,"Ġwatch":3951,"Ġstating":3952,"Ġ1991":3953,"Ġmovie":3954,"Ġarchitect":3955,"Ġtext":3956,"rical":3957,"ĠHel":3958,"Ġrepe":3959,"Ġcandid":3960,"isation":3961,"track":3962,"Ġconcert":3963,"ĠScotland":3964,"Ġadvance":3965,"stitute":3966,"Ġ179":3967,"Ġpair":3968,"ĠJones":3969,"Ġportray":3970,"Ġdirection":3971,"Ġfr":3972,"irmed":3973,"house":3974,"ersey":3975,"Äĩ":3976,"Ġseem":3977,"Ġdism":3978,"ĠTheir":3979,"Ġschools":3980,"Ġlegal":3981,"ĠAnn":3982,"ani":3983,"Ġreject":3984,"eway":3985,"lict":3986,"inem":3987,"ih":3988,"wide":3989,"Ġasp":3990,"ĠManc":3991,"icip":3992,"fall":3993,"Ġge":3994,"Ġhorse":3995,"ĠCross":3996,"Ġthick":3997,"Ġmarriage":3998,"illery":3999,"aging":4000,"Ġrecomm":4001,"Ġ+":4002,"ĠGreek":4003,"ĠDepartment":4004,"light":4005,"Ġefforts":4006,"Ġmanaged":4007,"Ġcollege":4008,"ĠDou":4009,"awn":4010,"Ġ39":4011,"Ġpurs":4012,"like":4013,"icient":4014,"ĠGo":4015,"Ġwing":4016,"utions":4017,"Ġresulting":4018,"hy":4019,"Ġending":4020,"irit":4021,"ieutenant":4022,"ĠThree":4023,"band":4024,"Ġshowed":4025,"Ġdropped":4026,"Ġresponsible":4027,"ĠMic":4028,"ĠPost":4029,"MS":4030,"ĠInfantry":4031,"Ġ182":4032,"Ġnation":4033,"Ġdisplay":4034,"Ġinside":4035,"illed":4036,"ĠFoot":4037,"ita":4038,"Ġcases":4039,"Ġkept":4040,"Ġcust":4041,"Ġenvironment":4042,"ĠLad":4043,"ĠBost":4044,"Ġ48":4045,"Ġculture":4046,"Ġrare":4047,"Ġmeaning":4048,"Ġrat":4049,"ĠLeg":4050,"Ġcyclone":4051,"olf":4052,"Ġdom":4053,"Ġincorpor":4054,"Ġbegins":4055,"Ġ42":4056,"Ġvariety":4057,"ceeded":4058,"Ġmorning":4059,"Ġsubst":4060,"pe":4061,"Ġcerem":4062,"pass":4063,"Ġhouses":4064,"ĠStone":4065,"Ġforms":4066,"Ġchampionship":4067,"ĠService":4068,"Ġwords":4069,"rane":4070,"Ġarrest":4071,"Ġschol":4072,"ĠCreek":4073,"Ġyard":4074,"peror":4075,"ĠWilliams":4076,"ĠHung":4077,"Ġoil":4078,"ĠRecords":4079,"ĠSecret":4080,"Ġmarked":4081,"Ġinches":4082,"cend":4083,"Ġcontinues":4084,"Ġspl":4085,"ini":4086,"Ġscience":4087,"ĠBC":4088,"Ġperm":4089,"Ġ181":4090,"Ġsymb":4091,"gl":4092,"ĠNews":4093,"gypt":4094,"ecting":4095,"Åį":4096,"ols":4097,"Ġbank":4098,"ĠHal":4099,"ĠStan":4100,"ĠParliament":4101,"Ġuses":4102,"Ġeconomic":4103,"ĠSur":4104,"writ":4105,"cle":4106,"Ġsource":4107,"ĠGames":4108,"thel":4109,"bed":4110,"ĠFin":4111,"ras":4112,"ĠTro":4113,"Ġquality":4114,"Ġdefend":4115,"ĠPan":4116,"ĠTri":4117,"ulations":4118,"Ġlear":4119,"Ġhundred":4120,"Ġsettle":4121,"Ġimpact":4122,"Ġstarting":4123,"Ġconducted":4124,"ĠBook":4125,"thur":4126,"Ġspecific":4127,"Ġstrugg":4128,"Ġallowing":4129,"wh":4130,"ĠEgypt":4131,"ĠSociety":4132,"Ġbeat":4133,"Ġ1942":4134,"Ġpresence":4135,"ĠSol":4136,"Ġamount":4137,"Ġdu":4138,"ĠJer":4139,"Ġsides":4140,"ĠOh":4141,"Ġviewers":4142,"Ġcaptain":4143,"sych":4144,"een":4145,"Ġdance":4146,"Ġmetres":4147,"ingu":4148,"Ġchap":4149,"Ġunivers":4150,"Ġsuppl":4151,"ĠLu":4152,"Ġexhib":4153,"Ġrule":4154,"Ġple":4155,"ĠPrince":4156,"ĠSouthern":4157,"ĠVer":4158,"ĠStephen":4159,"Ġdistinct":4160,"Ġmultiple":4161,"ĠGeorg":4162,"ĠSat":4163,"ding":4164,"Ġtransferred":4165,"Ġpotential":4166,"ĠCommittee":4167,"Ġforeign":4168,"Ġ47":4169,"ĠLatin":4170,"Ġcontrast":4171,"ĠOxford":4172,"Ġ65":4173,"Ġpeaked":4174,"inet":4175,"itiz":4176,"Ġenemy":4177,"Ġyour":4178,"arian":4179,"ĠSil":4180,"Ġtraffic":4181,"Ġbecomes":4182,"Ġmess":4183,"ĠSpec":4184,"ping":4185,"Ġowned":4186,"Ġthings":4187,"Ġfounded":4188,"Ġgreater":4189,"ĠJoseph":4190,"ĠLike":4191,"Ġvocal":4192,"ĠAdmiral":4193,"Ġopt":4194,"Ġconcluded":4195,"Ġportion":4196,"very":4197,"Ġcastle":4198,"Ġscoring":4199,"ĠCamb":4200,"ider":4201,"Ġrespond":4202,"ym":4203,"Ġstories":4204,"Ġproperty":4205,"iance":4206,"Ġattempts":4207,"Ġencoun":4208,"ĠBoston":4209,"rong":4210,"anes":4211,"Ġrelatively":4212,"kn":4213,"ĠTw":4214,"ĠChief":4215,"ĠManchester":4216,"Ġprimarily":4217,"Ġdemonst":4218,"ĠHarrison":4219,"ĠJeff":4220,"Ġfederal":4221,"Ġfinancial":4222,"ograp":4223,"ĠClass":4224,"ressive":4225,"ellig":4226,"ĠForm":4227,"ĠCaptain":4228,"ĠBecause":4229,"ĠBefore":4230,"Ġactually":4231,"Ġanimals":4232,"ĠSwed":4233,"Ġobserved":4234,"ĠHurricane":4235,"Ġtourn":4236,"Ġlif":4237,"ĠWin":4238,"Ġcollection":4239,"ĠTim":4240,"Ġopportun":4241,"fect":4242,"ĠVietn":4243,"ĠBat":4244,"Ġtitled":4245,"Ġ52":4246,"ĠDen":4247,"Ġfeaturing":4248,"istics":4249,"Ġwriters":4250,"Ġ46":4251,"Ġwrite":4252,"Ġ1944":4253,"ĠDef":4254,"Ġjournal":4255,"eds":4256,"Ġwa":4257,"ĠBridge":4258,"ees":4259,"ĠFred":4260,"Ġstrength":4261,"Ġwor":4262,"umber":4263,"Ġinch":4264,"Ġmechan":4265,"Ġweaken":4266,"Ġsituation":4267,"ĠOtt":4268,"Ġspot":4269,"Ġpaid":4270,"Ġdistance":4271,"Ġpremi":4272,"Ġparents":4273,"ĠCommission":4274,"Ġindependent":4275,"ĠBattalion":4276,"Ġfigure":4277,"Ġshare":4278,"mas":4279,"rel":4280,"Ġmel":4281,"Ġactor":4282,"Ġ64":4283,"Ġacting":4284,"Ġcompanies":4285,"Ġdivided":4286,"ĠLittle":4287,"ĠParis":4288,"Ġmind":4289,"Ġ43":4290,"stein":4291,"Ġonto":4292,"ĠProdu":4293,"astic":4294,"ĠLuc":4295,"Ġcollabor":4296,"ĠLife":4297,"ĠColumb":4298,"ĠCarl":4299,"Ġtarget":4300,"anna":4301,"Ġslightly":4302,"Ġfunction":4303,"Ġpiece":4304,"ĠSeries":4305,"Ġreform":4306,"ĠMod":4307,"Ġselling":4308,"Ġ44":4309,"perial":4310,"ĠEntertain":4311,"aud":4312,"ricket":4313,"Ġpowerful":4314,"ĠGra":4315,"Ġtorped":4316,"Ġconcent":4317,"chest":4318,"Ġinnings":4319,"Ġrating":4320,"ĠMax":4321,"thlet":4322,"oration":4323,"ĠBBC":4324,"Ġplays":4325,"istry":4326,"Ġrough":4327,"Ġlot":4328,"Ġtoday":4329,"lam":4330,"Ġbroke":4331,"uge":4332,"Ġcho":4333,"Ġera":4334,"osaur":4335,"ĠPop":4336,"annel":4337,"ĠCroat":4338,"Ġactions":4339,"Ġwaters":4340,"Ġultimately":4341,"ĠOs":4342,"ĠHistor":4343,"Ġtrial":4344,"Ġsquare":4345,"Ġmaximum":4346,"rown":4347,"ada":4348,"Ġdise":4349,"Ġtend":4350,"itan":4351,"Ġpilot":4352,"load":4353,"Ġbound":4354,"Ġlog":4355,"illa":4356,"Ġinterp":4357,"rupt":4358,"Ġcompletely":4359,"ĠAcademy":4360,"Ġblue":4361,"under":4362,"Ġsought":4363,"Ġ1920":4364,"Ġgar":4365,"oti":4366,"Ġ1945":4367,"mond":4368,"Ġscale":4369,"mark":4370,"Ġsociety":4371,"ĠLine":4372,"Ġess":4373,"Ġbehav":4374,"Ġhus":4375,"ĠMuseum":4376,"ĠSaint":4377,"Ġmainly":4378,"ĠSk":4379,"alle":4380,"ota":4381,"Ġdesignated":4382,"Ġ1941":4383,"za":4384,"ĠHor":4385,"omy":4386,"Ġconver":4387,"Ġofficials":4388,"ĠVan":4389,"Ġstruck":4390,"Ġ150":4391,"Ġtransl":4392,"cers":4393,"ylvan":4394,"Ġactivity":4395,"Ġpolicy":4396,"Ġcombined":4397,"Ġsay":4398,"ĠWay":4399,"Ġinfluenced":4400,"Ġwear":4401,"olved":4402,"Ġcorn":4403,"iano":4404,"Ġsearch":4405,"AS":4406,"ĠEntertainment":4407,"ĠArab":4408,"Ġvess":4409,"ĠItaly":4410,"ented":4411,"Ġthous":4412,"Ġcalling":4413,"racted":4414,"Ġalongside":4415,"Ġnortheast":4416,"Ġseconds":4417,"Ġbatter":4418,"ala":4419,"ĠBrigade":4420,"Ġsout":4421,"ĠWind":4422,"orses":4423,"while":4424,"ĠAmericans":4425,"Ġwinter":4426,"ĠConf":4427,"Ġsources":4428,"ĠLee":4429,"Ġseg":4430,"Ġbackground":4431,"phy":4432,"ĠIre":4433,"Ġwebs":4434,"aine":4435,"Ġice":4436,"Ġnews":4437,"udd":4438,"Ġthir":4439,"ĠTod":4440,"Ġtheory":4441,"rative":4442,"Ġrecent":4443,"ĠAlb":4444,"Ġsuc":4445,"TV":4446,"Ġmem":4447,"Ġcrow":4448,"Ġgained":4449,"Ġnominated":4450,"Ġplatform":4451,"HL":4452,"onn":4453,"Ġartists":4454,"adel":4455,"ĠRegiment":4456,"Ġwidely":4457,"Ġnaval":4458,"quarters":4459,"Ġsystems":4460,"Ġpromoted":4461,"Ġelectric":4462,"Ġconfirmed":4463,"ube":4464,"ĠIreland":4465,"pson":4466,"Ġreaching":4467,"Ġproved":4468,"Ġresults":4469,"ĠAvenue":4470,"Ġpassing":4471,"ibrary":4472,"ĠFleet":4473,"Ġalbums":4474,"ĠGood":4475,"ĠEll":4476,"Ġexplained":4477,"Ġsubsequent":4478,"Ġgreatest":4479,"Ġconflict":4480,"ero":4481,"Ġwick":4482,"Ġcontent":4483,"Ġinvasion":4484,"Ġir":4485,"Ġsn":4486,"ĠAut":4487,"ĠRay":4488,"Ġ1989":4489,"Ġcoming":4490,"Ġcharge":4491,"Ġhero":4492,"Ġpeace":4493,"Ġresist":4494,"Ġsixth":4495,"hew":4496,"Ġnorthwest":4497,"Ġweather":4498,"oured":4499,"Ġcounty":4500,"Ġadj":4501,"ĠOrig":4502,"Ġshortly":4503,"grad":4504,"town":4505,"Ġ1943":4506,"aga":4507,"ĠBus":4508,"Ġversions":4509,"ĠSub":4510,"Ġpath":4511,"aling":4512,"Ġserve":4513,"Ġcausing":4514,"Ġsays":4515,"Ġsust":4516,"ĠLo":4517,"Ġ51":4518,"Ġexpressed":4519,"iced":4520,"Ġreception":4521,"Ġseek":4522,"ĠVictoria":4523,"ĠSant":4524,"Ġburn":4525,"itness":4526,"ĠCatholic":4527,"Ġresidents":4528,"Ġemot":4529,"bon":4530,"Ġborder":4531,"ĠNorm":4532,"ĠCharl":4533,"ĠTropical":4534,"ĠWork":4535,"Ġchem":4536,"Ġsoundtrack":4537,"ansion":4538,"ĠValley":4539,"Ġcities":4540,"ĠAdd":4541,"ĠMat":4542,"ips":4543,"Ġgreen":4544,"Ġseasons":4545,"tation":4546,"ĠNin":4547,"ategory":4548,"Ġappearances":4549,"Ġsense":4550,"ĠDi":4551,"ĠLight":4552,"Ġsexual":4553,"Ġhospital":4554,"Ġrequire":4555,"AA":4556,"infall":4557,"ĠMiddle":4558,"Ġpun":4559,"Ġphysical":4560,"Ġidentified":4561,"Ġolder":4562,"ighth":4563,"Ġhands":4564,"ĠLive":4565,"arden":4566,"Ġiron":4567,"ĠRam":4568,"ĠDun":4569,"ĠThough":4570,"Ġtrue":4571,"Ġtells":4572,"Ġoffer":4573,"ĠLiber":4574,"Ġdedic":4575,"Ġkg":4576,"ĠRy":4577,"unction":4578,"ĠCommun":4579,"ysis":4580,"Ġartillery":4581,"ancy":4582,"ĠShow":4583,"Ġrepresented":4584,"ĠTop":4585,"Ġweapons":4586,"ĠVol":4587,"Ġextra":4588,"Ġgas":4589,"ĠFootball":4590,"Ġahead":4591,"ĠThrough":4592,"eption":4593,"Ġpal":4594,"aded":4595,"ĠMen":4596,"ronic":4597,"ylvania":4598,"Ġeas":4599,"ĠKar":4600,"ĠJul":4601,"Ġheavily":4602,"ĠBey":4603,"ĠUpon":4604,"ĠYoung":4605,"Ġsupp":4606,"ĠDirect":4607,"abeth":4608,"itable":4609,"ĠTay":4610,"Ġavoid":4611,"ĠDutch":4612,"lers":4613,"Ġdefense":4614,"Ġchallen":4615,"Ġstudent":4616,"Ġagg":4617,"ĠWeek":4618,"Ġalone":4619,"Ġimage":4620,"Ġspread":4621,"Ġapparent":4622,"Ġstudies":4623,"Ġofficially":4624,"ĠEliz":4625,"Ġhusband":4626,"known":4627,"Ġdistrict":4628,"ĠIll":4629,"Ġexecutive":4630,"Ġbit":4631,"Ġinstit":4632,"ĠAlbert":4633,"ĠFre":4634,"bur":4635,"essions":4636,"Ġdebuted":4637,"Ġwild":4638,"Ġprominent":4639,"Ġcapture":4640,"Ġpack":4641,"Ġconsisted":4642,"Ġinstrument":4643,"Ġsend":4644,"Ġinjury":4645,"Ġfired":4646,"Ġorganization":4647,"Ġequipment":4648,"ĠRog":4649,"ports":4650,"Ġresc":4651,"Ġstone":4652,"pool":4653,"Ġpattern":4654,"ĠFar":4655,"Ġprepar":4656,"ĠBre":4657,"Ġargued":4658,"ĠDam":4659,"Ġaired":4660,"Ġfigures":4661,"ĠBond":4662,"Ġsurpris":4663,"Ġexped":4664,"urban":4665,"Ġgrowth":4666,"Ġeth":4667,"Ġpict":4668,"acity":4669,"ĠCivil":4670,"ĠHomer":4671,"Ġbud":4672,"Ġhun":4673,"Ġcouple":4674,"Ġgraph":4675,"Ġdoing":4676,"Ġreturning":4677,"Ġmagn":4678,"Ġring":4679,"Ġcontemporary":4680,"ushed":4681,"Ġpoet":4682,"Ġcert":4683,"lines":4684,"rog":4685,"Ġpan":4686,"Ġweight":4687,"Ġox":4688,"Ġlaid":4689,"Ġdoub":4690,"Ġhabit":4691,"Ġearth":4692,"Ġleaders":4693,"Ġstep":4694,"Ġfloor":4695,"Ġmatter":4696,"Ġaffected":4697,"ĠNorthern":4698,"ĠGal":4699,"Ġpieces":4700,"Ġtun":4701,"Ġ600":4702,"appen":4703,"amber":4704,"Ġpropos":4705,"ĠStorm":4706,"ias":4707,"Ġmaintained":4708,"inson":4709,"Ġrang":4710,"Ġoccasion":4711,"Ġshell":4712,"ĠHard":4713,"Ġhere":4714,"ifying":4715,"Ġvisited":4716,"Ġmaintain":4717,"ental":4718,"Ġcommunic":4719,"ĠDaniel":4720,"ĠHa":4721,"Ġcomes":4722,"Ġspeech":4723,"Ġtermin":4724,"Ġcriticized":4725,"emic":4726,"Ġhyd":4727,"Ġactivities":4728,"stone":4729,"Ġrain":4730,"rat":4731,"ĠJon":4732,"ĠCarolina":4733,"ockey":4734,"Ġexec":4735,"Ġattract":4736,"acement":4737,"Ġhall":4738,"ola":4739,"Ġcitiz":4740,"Ġtournament":4741,"Ġreign":4742,"Ġemph":4743,"Ġtoward":4744,"ocked":4745,"Ġsingles":4746,"uls":4747,"Ġdrug":4748,"Ġtrees":4749,"eed":4750,"Ġreference":4751,"ners":4752,"ĠScottish":4753,"Ġcrowd":4754,"ĠTem":4755,"Ġsenior":4756,"Ġformation":4757,"elve":4758,"Ġ53":4759,"Ġadapt":4760,"Ġ1987":4761,"Ġsurre":4762,"ĠRom":4763,"ĠMarsh":4764,"Ġsetting":4765,"Ġmedical":4766,"ivity":4767,"Ġworldwide":4768,"ĠSystem":4769,"Ġterritory":4770,"Ġtrying":4771,"ĠGovernment":4772,"estic":4773,"ĠHolly":4774,"Ġ1988":4775,"uct":4776,"Ġappl":4777,"Ġstations":4778,"orne":4779,"ruit":4780,"Ġdog":4781,"Ġbul":4782,"Ġnegoti":4783,"Ġbirds":4784,"ĠWrit":4785,"ĠFantasy":4786,"Ġgod":4787,"ĠOcean":4788,"gian":4789,"ĠOperation":4790,"eller":4791,"Ġdoll":4792,"ĠBackground":4793,"ĠField":4794,"Ġmachine":4795,"Ġfellow":4796,"ĠGovernor":4797,"Ġmurder":4798,"embly":4799,"ĠRod":4800,"Ġclaims":4801,"ĠDistrict":4802,"ĠHome":4803,"Ġcell":4804,"Ġdispl":4805,"Ġ85":4806,"ĠDev":4807,"Ġhistorian":4808,"ĠGuard":4809,"Ġrainfall":4810,"Ġrisk":4811,"ĠChe":4812,"omers":4813,"Ġaccident":4814,"ĠPenns":4815,"Ġfully":4816,"ĠColon":4817,"Ġload":4818,"uled":4819,"Ġvalue":4820,"Ġtherefore":4821,"ote":4822,"Ġsplit":4823,"bit":4824,"resh":4825,"ĠDuke":4826,"Ġchosen":4827,"Ġtreatment":4828,"Ġuniversity":4829,"Ġguest":4830,"ĠShort":4831,"velopment":4832,"rael":4833,"Ġsens":4834,"Ġtwice":4835,"ĠStudios":4836,"Ġfrequently":4837,"ĠGirl":4838,"Ġsupply":4839,"agn":4840,"ĠPolish":4841,"ĠLew":4842,"Ġreports":4843,"ordin":4844,"stitution":4845,"Ġleaves":4846,"ĠBeat":4847,"Ġgovernor":4848,"illy":4849,"ayer":4850,"Ġpaper":4851,"gu":4852,"Ġut":4853,"ĠSenate":4854,"Ġremark":4855,"aly":4856,"Ġdyn":4857,"ampion":4858,"ĠEastern":4859,"ledge":4860,"Ġlabel":4861,"izes":4862,"Ġfaced":4863,"azz":4864,"ĠMD":4865,"Ġopin":4866,"Ġwalls":4867,"Ġfollows":4868,"ĠCorn":4869,"Ġbillion":4870,"Ġoperated":4871,"ĠBart":4872,"Ġgrew":4873,"antine":4874,"ĠRos":4875,"ufact":4876,"Ġsurrounding":4877,"Ġplanet":4878,"ĠMean":4879,"min":4880,"Ġswe":4881,"rect":4882,"ĠAndrew":4883,"orter":4884,"antly":4885,"Ġcontained":4886,"onents":4887,"gend":4888,"Ġcondition":4889,"resp":4890,"Ġdegree":4891,"Ġbal":4892,"Ġherself":4893,"Ġhorses":4894,"Ġmanufact":4895,"ĠChristmas":4896,"ĠNight":4897,"ety":4898,"Ġcolor":4899,"isco":4900,"ĠJud":4901,"Ġsle":4902,"Ġaccompan":4903,"Ġwounded":4904,"rance":4905,"Ġtypically":4906,"Ġescape":4907,"ĠAllied":4908,"Ġ54":4909,"Ġpasses":4910,"Ġunf":4911,"Ġmaster":4912,"Ġsimply":4913,"ĠWilson":4914,"Ġbrown":4915,"Ġfuel":4916,"Ã¨":4917,"isters":4918,"Ġreinf":4919,"utation":4920,"Ġrailway":4921,"ĠInst":4922,"Ġelement":4923,"Ġdraft":4924,"Ġdang":4925,"ĠTaylor":4926,"aming":4927,"Ġeditor":4928,"Ġlives":4929,"la":4930,"Ġ1986":4931,"Ġorders":4932,"Ġarms":4933,"ĠElizabeth":4934,"Ġphil":4935,"mit":4936,"fully":4937,"more":4938,"Ġserving":4939,"Ġnothing":4940,"ographer":4941,"Ġcamer":4942,"ĠHum":4943,"ĠAlexander":4944,"uous":4945,"Ġauthority":4946,"Ġchose":4947,"ĠMike":4948,"Ġopposed":4949,"Ġworkers":4950,"Ġvote":4951,"Ġmoment":4952,"ĠGi":4953,"Ġconsecutive":4954,"Ġcannot":4955,"ricult":4956,"ĠPen":4957,"ĠEach":4958,"Ġnewly":4959,"Ġ95":4960,"ĠJoe":4961,"ĠOf":4962,"tar":4963,"Ġnative":4964,"ĠJac":4965,"Ġ56":4966,"Ġfan":4967,"Ġexperiment":4968,"ucky":4969,"Ġunknown":4970,"Ġ97":4971,"isf":4972,"Ġparticipated":4973,"ager":4974,"Ġgrowing":4975,"rich":4976,"ĠPers":4977,"Ġwebsite":4978,"Ġcasual":4979,"Ġemphas":4980,"Ġpsych":4981,"Ġattrib":4982,"ancing":4983,"ãĤ":4984,"ĠDet":4985,"Ġproducers":4986,"ef":4987,"Ġbass":4988,"ĠÎ":4989,"Ġnewspaper":4990,"Ġfair":4991,"ĠCastle":4992,"Ġbenef":4993,"Ġlosing":4994,"Ã¤":4995,"ĠExp":4996,"ĠFestival":4997,"ĠLand":4998,"Ġadvanced":4999,"Ġadopted":5000,"ilies":5001,"Ġfilming":5002,"imens":5003,"ĠSound":5004,"Ġheard":5005,"Ġspirit":5006,"Ġfeed":5007,"Ġsevere":5008,"ĠPennsylvania":5009,"pton":5010,"Ġoffensive":5011,"Ġopposition":5012,"then":5013,"Ġfirm":5014,"Ġfiction":5015,"ype":5016,"ĠRet":5017,"Ġextend":5018,"ĠWhat":5019,"Ġguard":5020,"ĠWat":5021,"Ġcapacity":5022,"Ġrom":5023,"ĠHead":5024,"orship":5025,"ĠIslands":5026,"Ġbasis":5027,"Ġcouncil":5028,"Ġsequence":5029,"Ġactors":5030,"ĠCard":5031,"ĠWW":5032,"zy":5033,"Ġends":5034,"Ġ177":5035,"Ġast":5036,"ĠReception":5037,"ĠHy":5038,"TC":5039,"anda":5040,"Ġweak":5041,"Ġsquadron":5042,"uses":5043,"ĠGall":5044,"ĠBlue":5045,"Ġprin":5046,"Ġcompar":5047,"Ġadvant":5048,"Ġrear":5049,"Ġabandoned":5050,"ura":5051,"aven":5052,"ĠIrish":5053,"ĠFurther":5054,"Ġrival":5055,"isers":5056,"ĠTech":5057,"ĠSS":5058,"ables":5059,"iated":5060,"Ġprompt":5061,"ĠBab":5062,"Ġkick":5063,"Ġhonor":5064,"Ġflying":5065,"lement":5066,"Ġelev":5067,"Ġenter":5068,"Ġcoal":5069,"Ġbey":5070,"Ġcreating":5071,"ocated":5072,"ĠFam":5073,"ĠJersey":5074,"onc":5075,"ĠSpain":5076,"Ġlaunch":5077,"Ġfilmed":5078,"ĠHarry":5079,"Ġpoll":5080,"BA":5081,"Ġregarded":5082,"Ġhappen":5083,"Ġnormal":5084,"Ġexpansion":5085,"Ġcriticism":5086,"Ġindividuals":5087,"Ġhomes":5088,"ĠCat":5089,"eld":5090,"Ġagreement":5091,"Ġbeyond":5092,"ounger":5093,"ĠUs":5094,"Ġincident":5095,"Ġ178":5096,"Ġspect":5097,"Ġ76":5098,"FA":5099,"Ġspring":5100,"ĠSquare":5101,"Ġdelay":5102,"Ġfailure":5103,"apers":5104,"ĠCa":5105,"Ġliber":5106,"ĠCoast":5107,"Ġevac":5108,"Ġdeploy":5109,"Ġeye":5110,"Ġdismiss":5111,"Ġchair":5112,"Ġsports":5113,"ĠLind":5114,"Ġfamous":5115,"iner":5116,"Ġinte":5117,"Ġvo":5118,"Ġsail":5119,"ĠFe":5120,"Ġmeasure":5121,"Ġ1939":5122,"ĠAre":5123,"ĠSand":5124,"Ġpossibly":5125,"Ġboat":5126,"imet":5127,"Ġhistorical":5128,"Ġnegative":5129,"Ġbodies":5130,"ĠCD":5131,"ima":5132,"ĠUl":5133,"Ġachieved":5134,"Ġmob":5135,"Ġcontact":5136,"ĠBul":5137,"ĠWild":5138,"Ġprogress":5139,"Ġstrike":5140,"Ġsilver":5141,"ifications":5142,"Ġbelieve":5143,"ico":5144,"ĠMul":5145,"ĠPublic":5146,"ĠEnd":5147,"ĠElect":5148,"Ġroles":5149,"ĠBroad":5150,"iny":5151,"ĠProduction":5152,"Ġnarrow":5153,"Ġur":5154,"ĠCy":5155,"Ġkilling":5156,"ĠVen":5157,"Ġretired":5158,"Ġideas":5159,"ĠInstitute":5160,"ĠLy":5161,"ĠIsrael":5162,"ienced":5163,"Ġdrive":5164,"onent":5165,"Ġdisease":5166,"mosp":5167,"iana":5168,"hol":5169,"Ġpet":5170,"Ġtorpedo":5171,"war":5172,"Ġimag":5173,"Ġbriefly":5174,"kins":5175,"Ġ61":5176,"Ġdiam":5177,"ĠArthur":5178,"ĠLiver":5179,"ĠRevolution":5180,"imal":5181,"ĠDue":5182,"Ġ1968":5183,"Ġ1985":5184,"Ġtask":5185,"Ġeffective":5186,"Ġtree":5187,"Ġarmed":5188,"Ġapplic":5189,"Ġarrang":5190,"edom":5191,"Ġtower":5192,"ĠAsh":5193,"Ġ66":5194,"ĠCub":5195,"Ġbudget":5196,"Ġperman":5197,"Ġreceive":5198,"Ġrepeated":5199,"Ġadministration":5200,"Ġgranted":5201,"Ġnecessary":5202,"Ġpersonnel":5203,"Ġroads":5204,"ĠSund":5205,"ocks":5206,"Ġrejected":5207,"ĠMeanwhile":5208,"enger":5209,"Ġtable":5210,"ĠPerson":5211,"ĠRepublican":5212,"Ġtwelve":5213,"ĠClark":5214,"Ġkilometres":5215,"Ġinh":5216,"ĠDoctor":5217,"Ġgross":5218,"Ġimproved":5219,"Ġleadership":5220,"kes":5221,"ĠAlbum":5222,"Ġcolumn":5223,"worth":5224,"Ġinterchange":5225,"Ġyellow":5226,"avalry":5227,"Ġextensive":5228,"aved":5229,"Ġdata":5230,"ĠMir":5231,"ĠOhio":5232,"ĠTy":5233,"iments":5234,"ourney":5235,"Ġstraight":5236,"Ġturns":5237,"Ġlands":5238,"Ġplants":5239,"Ġinfantry":5240,"Ġpurpose":5241,"zil":5242,"Ġparalle":5243,"ĠLes":5244,"Ġmanagement":5245,"ĠBell":5246,"Ġexpress":5247,"Ġdefin":5248,"ĠBoard":5249,"iÄĩ":5250,"Ġseat":5251,"Ġlanding":5252,"och":5253,"oln":5254,"Ġdescribes":5255,"Ġexpanded":5256,"ĠSecretary":5257,"Ġsolo":5258,"Ġfranch":5259,"oma":5260,"Ġchoice":5261,"Ġsuccessfully":5262,"lusion":5263,"Ġmile":5264,"Ġbroken":5265,"adelph":5266,"Ġlearn":5267,"set":5268,"Ġtru":5269,"Ġcrossing":5270,"Ġdidn":5271,"Ġintellig":5272,"Ġanimal":5273,"uate":5274,"Ġ1984":5275,"Ġdeliver":5276,"ĠSa":5277,"ĠEp":5278,"Ġexplos":5279,"ĠPhiladelph":5280,"Ġfought":5281,"gers":5282,"Ġchor":5283,"Ġexcl":5284,"ĠProt":5285,"ĠBru":5286,"ĠRA":5287,"Ġorganized":5288,"Ġcaught":5289,"Ġ800":5290,"erc":5291,"Ġvehicles":5292,"Ġcommissioned":5293,"Ġsuggests":5294,"ĠBurn":5295,"Ġroof":5296,"Ġglob":5297,"ĠEven":5298,"Ġacquired":5299,"haps":5300,"stream":5301,"etball":5302,"Ġplaces":5303,"Ġcommittee":5304,"ĠNever":5305,"rif":5306,"Ġancient":5307,"ev":5308,"Ġdrama":5309,"ĠIS":5310,"ĠHit":5311,"ĠGeorgia":5312,"Ġcreation":5313,"ĠSher":5314,"ĠMov":5315,"ĠCambridge":5316,"Ġtypes":5317,"Ġfat":5318,"appy":5319,"Ġ57":5320,"Ġgives":5321,"ĠLar":5322,"ĠPhiladelphia":5323,"Ġarticle":5324,"Ġcomedy":5325,"Ġseventh":5326,"Ġprefer":5327,"Ġnuclear":5328,"akers":5329,"Ġsoft":5330,"zer":5331,"Ġunsu":5332,"Ġwave":5333,"ms":5334,"Ġ120":5335,"ii":5336,"aith":5337,"etts":5338,"ĠSR":5339,"Ġauthorities":5340,"Ġcontain":5341,"Ġheadquarters":5342,"ĠRel":5343,"ĠAlso":5344,"Ġ1967":5345,"Ġcenturies":5346,"Ġcommonly":5347,"Ġdetermined":5348,"rin":5349,"Ġislands":5350,"Ġgenus":5351,"ns":5352,"Ġroll":5353,"ĠAddition":5354,"Ġmentioned":5355,"attle":5356,"ĠRussia":5357,"ĠMah":5358,"Ġbott":5359,"Ġrecently":5360,"Ġstreet":5361,"Ġtrav":5362,"oted":5363,"umes":5364,"ĠWars":5365,"Ġbeaut":5366,"Ġencoura":5367,"Ġlooking":5368,"ĠGil":5369,"Ġcontrolled":5370,"amin":5371,"Ġfavour":5372,"20":5373,"ipl":5374,"restling":5375,"uan":5376,"ĠCommon":5377,"arts":5378,"oles":5379,"ĠArg":5380,"Ġsets":5381,"Ġfamilies":5382,"ĠAmong":5383,"Ġhousehold":5384,"Ġsecurity":5385,"ĠLiverpool":5386,"Ġaim":5387,"Ġfinds":5388,"Ġadvert":5389,"Ġsand":5390,"Ġdecre":5391,"ĠNintend":5392,"Ġdrop":5393,"Ġsuppor":5394,"Ġacad":5395,"Ġstanding":5396,"va":5397,"Ġla":5398,"Ġillust":5399,"ishes":5400,"ĠLinc":5401,"Ġunp":5402,"uting":5403,"ĠNintendo":5404,"outs":5405,"gn":5406,"ĠChap":5407,"Ġsinging":5408,"Ġwithdraw":5409,"ĠKa":5410,"ĠEarl":5411,"Ġfish":5412,"ĠHay":5413,"Ġdial":5414,"Ġven":5415,"Ġbattalion":5416,"Ġreflect":5417,"ĠJenn":5418,"ĠPrime":5419,"ĠColumbia":5420,"ĠBad":5421,"Ġunique":5422,"Ġsac":5423,"itled":5424,"Ġdeck":5425,"Ġheight":5426,"Ġcontaining":5427,"Ġcultural":5428,"Ġentirely":5429,"Ġorchest":5430,"Ġprotect":5431,"water":5432,"Ġfinish":5433,"ĠLincoln":5434,"oh":5435,"Ġtouchdown":5436,"Ġmist":5437,"ĠSingap":5438,"illing":5439,"Ġcontributed":5440,"ĠAsia":5441,"Ġtry":5442,"Ġthemes":5443,"ĠDevelopment":5444,"ĠKorean":5445,"Ġyounger":5446,"Ġprovides":5447,"Ġdefence":5448,"Ġflooding":5449,"ĠLieutenant":5450,"ĠBrazil":5451,"Ġ1983":5452,"pping":5453,"Ġatmosp":5454,"Ġ58":5455,"ĠChild":5456,"Ġ74":5457,"Ġawards":5458,"room":5459,"Ġtitles":5460,"Ġmis":5461,"ulate":5462,"Ġpurchased":5463,"ĠJewish":5464,"Ġpowers":5465,"inity":5466,"Ġarrival":5467,"ĠHun":5468,"Ġconvers":5469,"Ġscheduled":5470,"Ġdefensive":5471,"ĠFrancisco":5472,"respond":5473,"Ġresemb":5474,"ĠRol":5475,"ĠSingapore":5476,"Ġthing":5477,"Ġaccompanied":5478,"wall":5479,"Ġceremony":5480,"icial":5481,"Ġunus":5482,"Ġquite":5483,"Ġperfect":5484,"Ġ1964":5485,"Ġexpedition":5486,"ĠPeople":5487,"Ġworth":5488,"ĠSix":5489,"wick":5490,"Ġ1969":5491,"atures":5492,"Ġlocations":5493,"Ġexisting":5494,"ĠDark":5495,"ĠHon":5496,"Ġinteract":5497,"Ġadvantage":5498,"Ġperforming":5499,"ĠPot":5500,"ĠCarey":5501,"Ġphilos":5502,"ĠOffice":5503,"rons":5504,"Ġdedicated":5505,"Ġcomputer":5506,"ĠLis":5507,"Ġbat":5508,"acted":5509,"ker":5510,"ĠBor":5511,"ĠDisney":5512,"Ġextrem":5513,"Ġrequest":5514,"laim":5515,"ĠâĪ":5516,"Ġintensity":5517,"Station":5518,"ĠTam":5519,"ĠKey":5520,"Ġstore":5521,"Ġoccupied":5522,"Ġ1914":5523,"dy":5524,"agan":5525,"Ġwhy":5526,"Ġsquad":5527,"Ġ1918":5528,"ĠPlayStation":5529,"Ġfresh":5530,"ĠHMS":5531,"Ġcarry":5532,"Ġmounted":5533,"iling":5534,"ĠOrder":5535,"usc":5536,"ĠKel":5537,"ashion":5538,"Ġnob":5539,"Ġ1982":5540,"ĠTurn":5541,"ta":5542,"Ġfix":5543,"Ġtail":5544,"Ġ1971":5545,"Ġmouth":5546,"ĠAnderson":5547,"ĠBrook":5548,"ĠBalt":5549,"Ġcricket":5550,"Ġmic":5551,"fort":5552,"ĠMot":5553,"ĠSteve":5554,"Ġclosely":5555,"rations":5556,"Ġconsists":5557,"Ġcurrently":5558,"ĠLewis":5559,"mann":5560,"ĠMiller":5561,"Ġlic":5562,"Ġsession":5563,"Ġ1966":5564,"hens":5565,"ĠByz":5566,"Ġ1972":5567,"ĠRadio":5568,"ĠDie":5569,"ĠConference":5570,"yles":5571,"Ġtim":5572,"Ġ1979":5573,"Ġindustrial":5574,"mouth":5575,"Ġegg":5576,"ĠBas":5577,"Ġsimple":5578,"ava":5579,"Ġ59":5580,"Ġelimin":5581,"pper":5582,"Ġvari":5583,"Ġpiano":5584,"ĠOnce":5585,"Ġfacilities":5586,"Ġcold":5587,"ilton":5588,"Ġsupporting":5589,"Ġdrawn":5590,"ĠGrant":5591,"ĠOlympic":5592,"Ġty":5593,"ware":5594,"Ġtrains":5595,"ĠConn":5596,"Ġbelong":5597,"ĠPu":5598,"ĠShak":5599,"Ġprotection":5600,"Ġboats":5601,"ĠBrian":5602,"Ġrated":5603,"Ġrise":5604,"Ġdefined":5605,"Ġselection":5606,"Ġsteam":5607,"Ġharm":5608,"Ġrow":5609,"otic":5610,"Ġ1965":5611,"Ġregions":5612,"iro":5613,"ĠSu":5614,"awa":5615,"ĠBarb":5616,"Ġsubmar":5617,"ĠRailway":5618,"Ġprotected":5619,"Ġcalls":5620,"Ġpros":5621,"Ġhair":5622,"ĠNHL":5623,"Ġ#":5624,"Ġcomic":5625,"ĠEmperor":5626,"Ġmotion":5627,"gest":5628,"verse":5629,"Ġstructures":5630,"Ġthrow":5631,"Ġlap":5632,"Ġaid":5633,"Ġshark":5634,"ĠAtt":5635,"Ġlabor":5636,"Ġfocused":5637,"Ġopportunity":5638,"Ġ99":5639,"Ġ1975":5640,"Ġengaged":5641,"Ġreceiving":5642,"ingly":5643,"iration":5644,"Ġcorrespond":5645,"ĠMu":5646,"Ġshooting":5647,"Ġanalysis":5648,"Ġsport":5649,"Ġcitizens":5650,"Ġmotor":5651,"ba":5652,"Ġobserv":5653,"Ġstrengthen":5654,"ĠGulf":5655,"osa":5656,"Ġnotable":5657,"Ã¸":5658,"sey":5659,"Ġadap":5660,"ĠAv":5661,"ĠJr":5662,"ĠSummer":5663,"uzz":5664,"ĠPress":5665,"ĠWater":5666,"Ġexperienced":5667,"ĠGermans":5668,"ĠHollywood":5669,"ults":5670,"ĠSerb":5671,"ua":5672,"Ġconference":5673,"Ġproviding":5674,"Ġholding":5675,"ĠWalter":5676,"ĠInc":5677,"inger":5678,"Ġvisual":5679,"Ġmountain":5680,"Ġeyes":5681,"ĠHan":5682,"ĠOnly":5683,"Ġ1974":5684,"Ġresident":5685,"olid":5686,"ĠDavis":5687,"ading":5688,"Ġsoutheast":5689,"ĠLab":5690,"Ġmut":5691,"Ġhired":5692,"Ġcharts":5693,"unior":5694,"Ġviewed":5695,"FL":5696,"Ġmerch":5697,"Ġbranch":5698,"heim":5699,"ifically":5700,"inth":5701,"Ġ62":5702,"Ġrapidly":5703,"burgh":5704,"Ġrecognized":5705,"Ġrob":5706,"iler":5707,"Ġ1973":5708,"ĠGib":5709,"Ġvolume":5710,"Ġvac":5711,"opher":5712,"Ġtransform":5713,"Ġalle":5714,"ĠDemocratic":5715,"ĠReview":5716,"Ġprote":5717,"Ġscholars":5718,"Ġ63":5719,"Ġsites":5720,"essed":5721,"Ġgain":5722,"Ġ77":5723,"ĠSpecial":5724,"Ġcasualties":5725,"Ġteach":5726,"Ġhyp":5727,"Ġshared":5728,"Ġconcer":5729,"Ġparallel":5730,"ĠUN":5731,"Ġ73":5732,"ĠJean":5733,"ĠBetween":5734,"Ġpublication":5735,"ĠDown":5736,"Ġcart":5737,"Ġtemperature":5738,"Ġdigital":5739,"ĠFall":5740,"Ġ1976":5741,"Ġmoder":5742,"Ġeconomy":5743,"ĠRome":5744,"ĠBank":5745,"ĠKir":5746,"Ġdeveloping":5747,"Ġsteel":5748,"Ġreaction":5749,"Ġedge":5750,"box":5751,"friend":5752,"standing":5753,"Ġcool":5754,"roll":5755,"ĠPrinc":5756,"Ġintersection":5757,"Ġsymbol":5758,"ali":5759,"zen":5760,"ĠLady":5761,"yer":5762,"Ġapproved":5763,"oncÃ©":5764,"Ġsecondary":5765,"Ġchance":5766,"ĠNap":5767,"ĠProv":5768,"ĠGord":5769,"ĠOb":5770,"Ġvon":5771,"Ġhydro":5772,"omew":5773,"Ġlosses":5774,"Ġmyth":5775,"Ġcontest":5776,"rant":5777,"Ġrac":5778,"rence":5779,"Ġprepared":5780,"Ġsubstant":5781,"ĠMas":5782,"Ġbelief":5783,"itors":5784,"ĠDaily":5785,"ĠTen":5786,"Ġenl":5787,"ĠMusl":5788,"iful":5789,"Ġletters":5790,"ologist":5791,"Ã¡n":5792,"ographic":5793,"ĠWomen":5794,"Ġsignificantly":5795,"Ġwitness":5796,"Ġbands":5797,"Ġsort":5798,"onder":5799,"Ġcard":5800,"Ġsave":5801,"ĠNaz":5802,"Ġdomestic":5803,"ĠSyd":5804,"Ġ250":5805,"Ġfranchise":5806,"Ġknew":5807,"ryst":5808,"Ġgoes":5809,"Ġliterature":5810,"ĠBeyoncÃ©":5811,"eral":5812,"Ġunsuccess":5813,"Ġinstruct":5814,"Ġheads":5815,"achus":5816,"Ġsouthwest":5817,"Ġactress":5818,"Ġtechnology":5819,"Ġsemi":5820,"Ġ67":5821,"Ġadvent":5822,"break":5823,"ora":5824,"Ġdescend":5825,"Ġroughly":5826,"range":5827,"Ġurban":5828,"Ġcab":5829,"asty":5830,"ĠCommand":5831,"ĠBern":5832,"aka":5833,"unte":5834,"ĠPlan":5835,"theless":5836,"Ġpainting":5837,"Ġadult":5838,"Ġlb":5839,"ĠMain":5840,"Ġanything":5841,"Ġcars":5842,"Ġpitch":5843,"Ġprojects":5844,"enc":5845,"Ġassault":5846,"ĠIndust":5847,"ĠColonel":5848,"Ġexact":5849,"ella":5850,"Ġbrothers":5851,"ients":5852,"Ġresistance":5853,"Ġgameplay":5854,"ĠPoint":5855,"Ġcore":5856,"ĠNick":5857,"Ġshape":5858,"Ġstoryline":5859,"ĠWhit":5860,"ĠSupreme":5861,"Ġreasons":5862,"ĠFair":5863,"Ġrules":5864,"iminal":5865,"Ġign":5866,"Ġemployed":5867,"Ġtank":5868,"ĠIV":5869,"ropri":5870,"ĠVar":5871,"ĠKentucky":5872,"Ġdaily":5873,"ĠStation":5874,"Ġshall":5875,"Ġinjured":5876,"Ġ1946":5877,"ĠSpring":5878,"Ġwatched":5879,"Ġ1981":5880,"ati":5881,"Ġagent":5882,"onym":5883,"Ġpopularity":5884,"Ġcomposition":5885,"ĠâĪĴ":5886,"Ġ96":5887,"ira":5888,"ĠCur":5889,"Ġperhaps":5890,"Ġfit":5891,"Ġisol":5892,"Ġadding":5893,"Ġenjoyed":5894,"Ġrenamed":5895,"Ġopinion":5896,"ĠIndepend":5897,"Ġgetting":5898,"omic":5899,"Ġdeclined":5900,"Ġcalc":5901,"oz":5902,"ĠNorway":5903,"agement":5904,"ĠRoss":5905,"Ġcompris":5906,"Ġ68":5907,"Ġreputation":5908,"Ġlov":5909,"Ġnor":5910,"osl":5911,"inking":5912,"ĠTheat":5913,"ĠPrem":5914,"Ġshaped":5915,"Ġ72":5916,"Ġestate":5917,"Ġconnected":5918,"Ġundert":5919,"Ġrend":5920,"Ġretire":5921,"Ġdrew":5922,"Ġ1917":5923,"Ġmuseum":5924,"Ġpoem":5925,"Ġregarding":5926,"bound":5927,"ĠOlympics":5928,"Ġviews":5929,"oir":5930,"ĠMos":5931,"Ġstages":5932,"ulpt":5933,"ĠPhilipp":5934,"Ġconverted":5935,"Ġdry":5936,"ceived":5937,"amm":5938,"ĠGolden":5939,"ĠMassachus":5940,"gal":5941,"ĠWalk":5942,"iform":5943,"ĠBase":5944,"Ġagricult":5945,"han":5946,"Ġallows":5947,"Ġsun":5948,"ĠSel":5949,"ads":5950,"Ġdistingu":5951,"Ġnick":5952,"Ġalternative":5953,"ĠMassachusetts":5954,"ĠBall":5955,"vest":5956,"ĠAbb":5957,"rets":5958,"Ġbed":5959,"ĠImp":5960,"Ġheaded":5961,"igg":5962,"Ġjourney":5963,"Ġ87":5964,"ĠSus":5965,"ĠDream":5966,"athan":5967,"Ġdepth":5968,"ules":5969,"Ġmissing":5970,"Ġcited":5971,"ato":5972,"Ġincreasingly":5973,"eper":5974,"ko":5975,"ĠLet":5976,"osis":5977,"Ġstadium":5978,"ĠRon":5979,"Ġapproached":5980,"Ġ160":5981,"ĠAirport":5982,"Ġturning":5983,"ĠHart":5984,"Ġresponded":5985,"Ġplanning":5986,"Ġknowledge":5987,"Ġexerc":5988,"ĠVi":5989,"Ġeasily":5990,"Ġwealth":5991,"Ġ1948":5992,"Ġoverl":5993,"Ġcells":5994,"ilding":5995,"Ġfashion":5996,"Ġequal":5997,"Ġescort":5998,"olt":5999,"Ġ700":6000,"ĠAbout":6001,"Ġcollected":6002,"Ġsucceeded":6003,"psons":6004,"Ġconstitution":6005,"mod":6006,"eman":6007,"ĠKen":6008,"Ġflu":6009,"Ġsafety":6010,"ĠBal":6011,"Ġrebu":6012,"Ġexistence":6013,"unicip":6014,"Ġtrip":6015,"Ġpul":6016,"ĠRun":6017,"wise":6018,"ignment":6019,"ĠSimpsons":6020,"Ġintroduction":6021,"Ġoccas":6022,"Ġauth":6023,"Ġmodels":6024,"Ġlearned":6025,"ĠInit":6026,"Ġcolle":6027,"Ġsustained":6028,"rett":6029,"hi":6030,"Ġtall":6031,"Ġpromotion":6032,"Ġoperating":6033,"Ġ69":6034,"Ġ1978":6035,"uration":6036,"mitted":6037,"ĠMcG":6038,"Ġbaseball":6039,"Ġcarrying":6040,"Ġlimit":6041,"ĠSongs":6042,"Ġexchange":6043,"Ġshowing":6044,"iger":6045,"Ġyouth":6046,"onia":6047,"ĠImperial":6048,"Ġburied":6049,"engers":6050,"ĠVietnam":6051,"Ġ91":6052,"Ġhumans":6053,"eg":6054,"Ġcredited":6055,"Ġ78":6056,"come":6057,"Ġdepend":6058,"leton":6059,"Ġarranged":6060,"ĠOttoman":6061,"ĠLoc":6062,"Ġimprove":6063,"Ġimpl":6064,"Ġseems":6065,"ĠJay":6066,"Ġweakened":6067,"ĠCape":6068,"Ġdesigns":6069,"Ġ1915":6070,"inary":6071,"Ġvan":6072,"Ġjoint":6073,"ĠShortly":6074,"Ġpaint":6075,"Ġathlet":6076,"state":6077,"istan":6078,"Ġrhy":6079,"Ġproducing":6080,"Ġproceed":6081,"ĠPoland":6082,"eler":6083,"acts":6084,"Ġshel":6085,"ĠSydney":6086,"Ġfreeway":6087,"ĠMoore":6088,"oli":6089,"Ġ1977":6090,"Ġearliest":6091,"Ġflat":6092,"ĠWho":6093,"Ġlasted":6094,"ĠMaryland":6095,"Ġlandfall":6096,"Ġsettlement":6097,"put":6098,"ĠPict":6099,"Ġnote":6100,"ĠRoy":6101,"Ġdescription":6102,"Ġretained":6103,"Ġacres":6104,"Ġbrand":6105,"ĠStew":6106,"Ġton":6107,"Ġ94":6108,"ĠRem":6109,"ĠNaval":6110,"ĠMTV":6111,"ĠAD":6112,"Ġlaws":6113,"Ġappoint":6114,"ĠCra":6115,"ivalent":6116,"Ġgenre":6117,"Ġprograms":6118,"Ġconsc":6119,"ources":6120,"Ġassistant":6121,"Äģ":6122,"rell":6123,"Ġplayoff":6124,"ivered":6125,"ĠJes":6126,"Ġreplace":6127,"ader":6128,"Ġinstall":6129,"bell":6130,"Ġreserve":6131,"issance":6132,"Ġstatement":6133,"Ġvirt":6134,"Ġapplied":6135,"Ġcatch":6136,"Ġtrust":6137,"Ġ1963":6138,"Ġviolence":6139,"Ġneut":6140,"Ġscientific":6141,"insula":6142,"Ġ81":6143,"ĠArts":6144,"Ġentrance":6145,"Ġcoastal":6146,"othes":6147,"ĠPass":6148,"Ġtick":6149,"iege":6150,"Ġhits":6151,"tical":6152,"Ġconsequ":6153,"avig":6154,"Ġ98":6155,"Ġexclus":6156,"Ġsynt":6157,"ĠGreg":6158,"Ġsculpt":6159,"Ġpatrol":6160,"Ġbattery":6161,"math":6162,"ĠFire":6163,"Ġitems":6164,"ĠAri":6165,"Ġcandidate":6166,"Ġtowns":6167,"lee":6168,"Ġindicated":6169,"ĠBowl":6170,"Ġuns":6171,"Ġgradually":6172,"Ġdistribution":6173,"time":6174,"Ġ1916":6175,"ĠEdu":6176,"Ġpolitics":6177,"lan":6178,"ĠRid":6179,"Ġdelivered":6180,"oard":6181,"Ġstopped":6182,"Ġfilled":6183,"Ġban":6184,"Ġindependence":6185,"Ġtact":6186,"izations":6187,"eke":6188,"Ġsections":6189,"Ġdetails":6190,"pet":6191,"ĠJan":6192,"ĠIG":6193,"ĠConfeder":6194,"ĠMulder":6195,"eless":6196,"Ġcinem":6197,"Ġselect":6198,"Å¡":6199,"Ġcombination":6200,"mun":6201,"Ġ71":6202,"Ġemp":6203,"Ġsupplies":6204,"Ġways":6205,"Ġglass":6206,"Ġparties":6207,"ender":6208,"ÅĤ":6209,"Ġstream":6210,"Ġengines":6211,"ushing":6212,"Ġprisoners":6213,"Ġcamera":6214,"ĠGordon":6215,"Ġappeal":6216,"ĠStadium":6217,"ĠAC":6218,"ĠBand":6219,"Ġ1919":6220,"Ġregister":6221,"ĠRhodes":6222,"Ġcampus":6223,"Ġbask":6224,"emies":6225,"ĠWell":6226,"Ġ1962":6227,"Ġacts":6228,"Ġmig":6229,"ĠBon":6230,"Ġextremely":6231,"Ġ89":6232,"Ġentitled":6233,"Ġsecure":6234,"reets":6235,"rec":6236,"ela":6237,"ĠRa":6238,"Ġfinding":6239,"AT":6240,"Ġonline":6241,"Ġdecade":6242,"inois":6243,"ĠUnivers":6244,"Ġtal":6245,"ĠProf":6246,"poration":6247,"iques":6248,"ĠTheatre":6249,"acter":6250,"Ġwinner":6251,"ĠStaff":6252,"iversary":6253,"Ġ82":6254,"Ġarc":6255,"ropol":6256,"Ġevening":6257,"ĠCop":6258,"Ġregiment":6259,"Ġ1938":6260,"ĠKim":6261,"Ġinvestigation":6262,"Ġ88":6263,"Ġthreatened":6264,"Ġbought":6265,"Ġmessage":6266,"Ġadapted":6267,"Ġsomew":6268,"Ġsurvived":6269,"Ġknots":6270,"Ġconsum":6271,"Ġstudied":6272,"ĠBir":6273,"ĠAnth":6274,"Ġproposal":6275,"ador":6276,"Ġwrites":6277,"Ġaddress":6278,"ashed":6279,"ĠVill":6280,"Ġdeaths":6281,"ĠJustice":6282,"iat":6283,"Ġroutes":6284,"Ġwars":6285,"ja":6286,"Ġdownload":6287,"Ġruled":6288,"Ġfear":6289,"ĠNic":6290,"ĠInstead":6291,"Ġrelief":6292,"Ġreligion":6293,"Ġmales":6294,"Ġreduce":6295,"Ġvoted":6296,"BS":6297,"ighters":6298,"ieval":6299,"ano":6300,"Ġrevolution":6301,"Ġspecifically":6302,"Ġspons":6303,"Ġcrown":6304,"Ġphase":6305,"met":6306,"Ġduty":6307,"Ġfict":6308,"phoon":6309,"Ġkingdom":6310,"ĠAge":6311,"Ġrecalled":6312,"bourne":6313,"Ġec":6314,"Ġportrayed":6315,"Ġsoul":6316,"Ġimplement":6317,"ctions":6318,"ĠCirc":6319,"Ġcontroversy":6320,"Ġemerg":6321,"ĠHere":6322,"ĠMemorial":6323,"hat":6324,"Ġcauses":6325,"BN":6326,"ĠAst":6327,"ervative":6328,"Ġet":6329,"Ġble":6330,"Ġ1956":6331,"Ġeverything":6332,"Ġbreeding":6333,"apes":6334,"adow":6335,"chers":6336,"aug":6337,"Ġsell":6338,"Ġstret":6339,"Ġ130":6340,"Ġreferences":6341,"Ġ175":6342,"ician":6343,"Ġbottom":6344,"Ġago":6345,"Ġcapable":6346,"ĠTony":6347,"Ġconvin":6348,"Ġteacher":6349,"Ġimportance":6350,"ĠPo":6351,"ĠColl":6352,"Ġentry":6353,"Ġmeters":6354,"ĠMcK":6355,"ĠSingles":6356,"Ġoffers":6357,"ĠId":6358,"ĠNel":6359,"ĠKong":6360,"Ġtanks":6361,"ĠOd":6362,"Ġ79":6363,"senal":6364,"ĠPower":6365,"bro":6366,"ĠUr":6367,"Ġsufficient":6368,"ĠDirector":6369,"entially":6370,"Ġowner":6371,"Ġinternal":6372,"Ġarrested":6373,"Ġopera":6374,"ridges":6375,"ĠAdams":6376,"Ġadmitted":6377,"Ġnomination":6378,"arp":6379,"ĠOk":6380,"Ġcorner":6381,"Ġbor":6382,"ĠJord":6383,"ĠMoon":6384,"Ġcopy":6385,"ĠAlan":6386,"Ġ1936":6387,"ĠFA":6388,"Ġcrossed":6389,"Ġclimb":6390,"Ġproducts":6391,"ĠDougl":6392,"wich":6393,"uro":6394,"ĠCritical":6395,"bar":6396,"Ġinstalled":6397,"Ġequipped":6398,"ĠBeach":6399,"ĠAlf":6400,"ĠIGN":6401,"Ġpreced":6402,"Ġconcerns":6403,"aki":6404,"Ġmort":6405,"Ġoverse":6406,"Ġautom":6407,"ĠHamilton":6408,"Ġinvited":6409,"ĠSimon":6410,"ĠMaria":6411,"ĠEngine":6412,"Ġconvoy":6413,"Ġones":6414,"Ġconqu":6415,"Ġinterested":6416,"Ġstarts":6417,"ĠAdam":6418,"Ġcrime":6419,"Ġprincipal":6420,"Ġfly":6421,"ĠGram":6422,"Ġacid":6423,"ranean":6424,"Ġtell":6425,"ĠYour":6426,"Ġrecommended":6427,"hr":6428,"Ġalt":6429,"andy":6430,"ĠJane":6431,"Ġunl":6432,"ructure":6433,"ĠPlot":6434,"Ġremainder":6435,"Ġmedal":6436,"Ġshut":6437,"ansas":6438,"Ġactual":6439,"ca":6440,"Ġsnow":6441,"Ġretreat":6442,"ĠUTC":6443,"Ġstock":6444,"Ġvent":6445,"Ġupgrad":6446,"espread":6447,"Ġcharged":6448,"ĠVII":6449,"Ġsolid":6450,"Ġapart":6451,"ĠBos":6452,"Ġprice":6453,"Ġfunds":6454,"Ġobjects":6455,"ĠCart":6456,"Ġdoor":6457,"ĠTrack":6458,"Ġ1961":6459,"ĠForest":6460,"osaurus":6461,"ilation":6462,"Ġcomposer":6463,"vis":6464,"Ġ84":6465,"Ġfemales":6466,"ĠVideo":6467,"Ġconsisting":6468,"Ġgall":6469,"aked":6470,"Ġpromote":6471,"ĠDeath":6472,"Ġpage":6473,"Ġmilit":6474,"iy":6475,"ĠNBA":6476,"ĠIndones":6477,"Ġconsiderable":6478,"mb":6479,"ĠFound":6480,"ĠProg":6481,"Ġdates":6482,"Ġpoly":6483,"ĠInt":6484,"iller":6485,"hus":6486,"ĠNether":6487,"ĠGen":6488,"Ġ1953":6489,"Ġtypical":6490,"Ġgrounds":6491,"ĠKennedy":6492,"erted":6493,"ĠGun":6494,"Ġcorrect":6495,"ĠToday":6496,"Ġduties":6497,"Ġextension":6498,"Ġblow":6499,"cks":6500,"rete":6501,"Ġevolution":6502,"Ġ93":6503,"Ġsomeone":6504,"ĠTransport":6505,"Ġcong":6506,"Ġrural":6507,"Ġpenal":6508,"ĠMilitary":6509,"ĠSunday":6510,"Ġeighth":6511,"BI":6512,"vements":6513,"ĠIndiana":6514,"Ġspin":6515,"Ġsole":6516,"ĠProject":6517,"Ġhotel":6518,"ĠHoward":6519,"osite":6520,"Ġdecades":6521,"ĠNorwe":6522,"king":6523,"Ġimages":6524,"ĠPit":6525,"Ġdriving":6526,"Ġreading":6527,"Ġidentity":6528,"ĠScully":6529,"ĠHou":6530,"Ġzone":6531,"ĠMarc":6532,"add":6533,"Ġoccurs":6534,"hetic":6535,"ĠLeon":6536,"Ġmanner":6537,"ĠBry":6538,"Ġsubs":6539,"Ġskin":6540,"Ġchallenge":6541,"ĠHitler":6542,"Ġlane":6543,"Ġremix":6544,"Ġtow":6545,"ĠKat":6546,"Ġaspects":6547,"Ġpermanent":6548,"Ġaer":6549,"ĠTar":6550,"Ġbrigade":6551,"ĠTa":6552,"Ġfrag":6553,"Ġ1947":6554,"Ġvolcan":6555,"Ġdated":6556,"Ġham":6557,"Ġ1958":6558,"ĠCult":6559,"ĠFive":6560,"ĠGill":6561,"Ġvir":6562,"ĠPortug":6563,"Ġnoting":6564,"Ġrestaur":6565,"ĠBrist":6566,"Ġcolour":6567,"ez":6568,"after":6569,"ione":6570,"ĠDrag":6571,"ubb":6572,"Ġsupporters":6573,"ĠWWE":6574,"Ġslowly":6575,"Ġclean":6576,"ĠBa":6577,"Ġposted":6578,"ĠPear":6579,"Ġ86":6580,"ensus":6581,"ĠTurk":6582,"ivals":6583,"ĠRose":6584,"iley":6585,"Ġ1957":6586,"Ġ1910":6587,"veland":6588,"cknow":6589,"ĠScience":6590,"Ġdescribing":6591,"ĠResearch":6592,"Ġinvolving":6593,"Ġ110":6594,"Ġspeak":6595,"Ġvessels":6596,"Ġentering":6597,"Ġenemies":6598,"Ġ1937":6599,"ĠAssembly":6600,"Ġdress":6601,"Ġequivalent":6602,"aware":6603,"ĠRyan":6604,"ĠHug":6605,"Ġclasses":6606,"Ġbra":6607,"Ġdebate":6608,"Ġsettled":6609,"nic":6610,"Ġdin":6611,"ĠAk":6612,"Ġdepartment":6613,"Ġobtained":6614,"ĠConstitution":6615,"regon":6616,"Ġaccur":6617,"Ġarmor":6618,"Ġparliament":6619,"ĠRolling":6620,"ĠDisc":6621,"erto":6622,"ĠMagazine":6623,"Ġtele":6624,"ĠMountain":6625,"ĠArgent":6626,"Ġsongwrit":6627,"Ġbasic":6628,"risis":6629,"Ġpurchase":6630,"agues":6631,"fl":6632,"Ġpup":6633,"Ġfolk":6634,"Ġnest":6635,"Ġoldest":6636,"ĠCleveland":6637,"Ġfaith":6638,"ĠSpace":6639,"ĠPier":6640,"ĠLenn":6641,"Ġconcerned":6642,"Ġdeparture":6643,"Ġwidespread":6644,"Ġdecline":6645,"Ġformal":6646,"Ġconnection":6647,"ĠIllinois":6648,"cation":6649,"ophy":6650,"Ġincome":6651,"Ġattached":6652,"hered":6653,"Ġrecognition":6654,"ĠNow":6655,"Ġinteg":6656,"ĠDouglas":6657,"Ġmemorial":6658,"Ġouter":6659,"ĠThroughout":6660,"Ġcertified":6661,"heastern":6662,"Ġdeleg":6663,"Ġaccused":6664,"Ġsequel":6665,"Ġ<":6666,"orney":6667,"ĠWeekly":6668,"Ġderived":6669,"Ġdecor":6670,"ĠSav":6671,"rates":6672,"Ġmode":6673,"ĠIra":6674,"Ġha":6675,"ĠStand":6676,"ĠRele":6677,"aret":6678,"ĠAndy":6679,"Ġwearing":6680,"ĠJordan":6681,"Ġhip":6682,"Ġassumed":6683,"Ġdisturb":6684,"Ġswim":6685,"icit":6686,"western":6687,"Ġwed":6688,"ĠOregon":6689,"Ġ1959":6690,"Ġacknow":6691,"ĠStanley":6692,"Ġtorn":6693,"ĠFreder":6694,"ĠâĢĿ":6695,"Ġacclaim":6696,"ooth":6697,"Ġsurvey":6698,"Ġcommitted":6699,"iot":6700,"Ġfoss":6701,"ĠArsenal":6702,"ĠMedia":6703,"ĠFeder":6704,"Ġhosted":6705,"RA":6706,"ĠThird":6707,"Ġreturns":6708,"Ġvalley":6709,"Ġsegment":6710,"ĠRoger":6711,"Ġsessions":6712,"ekend":6713,"ĠDal":6714,"Ġpopulations":6715,"ĠPhilip":6716,"agonist":6717,"Ġdenied":6718,"Ġfine":6719,"ĠMediter":6720,"ĠTreat":6721,"ĠRecording":6722,"Ġtemple":6723,"ĠFamily":6724,"Ġhang":6725,"wan":6726,"Ġchampion":6727,"Ġflo":6728,"ĠBeatles":6729,"Ġcharges":6730,"ĠTenn":6731,"ĠLow":6732,"Ġliterary":6733,"ĠBruce":6734,"ĠKevin":6735,"Ġcanc":6736,"Ġregional":6737,"Ġthousands":6738,"ĠNorwegian":6739,"Ġ1954":6740,"Ġterminus":6741,"Ġtransition":6742,"Ġ1955":6743,"ĠMediterranean":6744,"Ġcircum":6745,"iva":6746,"Ġsupposed":6747,"Ġwarm":6748,"Ġwickets":6749,"ĠBristol":6750,"ĠâĢľ":6751,"Ġdemand":6752,"ĠEs":6753,"ĠDig":6754,"Ġans":6755,"ĠAz":6756,"Ġshots":6757,"hedral":6758,"ĠISBN":6759,"ĠRain":6760,"udden":6761,"Ġstrongly":6762,"heme":6763,"achel":6764,"Ġcirculation":6765,"ĠBush":6766,"Ġintelligence":6767,"Ġsailed":6768,"Ġpossibility":6769,"Ġpassengers":6770,"Ġgeneration":6771,"IA":6772,"Ġhope":6773,"Ġfictional":6774,"emed":6775,"Ġanimated":6776,"Ġthirty":6777,"Ġfreedom":6778,"Ġdowntown":6779,"ĠHo":6780,"ĠChannel":6781,"organ":6782,"ĠFederal":6783,"eing":6784,"ito":6785,"Ġhill":6786,"Ġrich":6787,"Ġminister":6788,"Ġbehavior":6789,"Ġcloud":6790,"ĠMexican":6791,"rage":6792,"ĠÃĹ":6793,"CA":6794,"Ġassistance":6795,"Ġreplacement":6796,"Ġbegun":6797,"ĠPur":6798,"Ġfruit":6799,"ami":6800,"Ġcommanded":6801,"ĠWeb":6802,"Ġdestruction":6803,"atinum":6804,"Ġmoves":6805,"mes":6806,"ĠBol":6807,"Ġcriminal":6808,"char":6809,"Ġmissed":6810,"Ġmissions":6811,"ĠConc":6812,"Ġcosts":6813,"Ġexception":6814,"ĠDer":6815,"Ġcrash":6816,"orced":6817,"ĠRow":6818,"upt":6819,"Ġhighlight":6820,"Ġbringing":6821,"Ġtied":6822,"ĠMaster":6823,"ĠCas":6824,"lig":6825,"ĠEric":6826,"Ġcommit":6827,"isms":6828,"ĠKorea":6829,"ĠWithin":6830,"Ġintention":6831,"Ġfeeling":6832,"onto":6833,"Ġspeaking":6834,"ĠBah":6835,"Ġunusual":6836,"ĠLisa":6837,"oral":6838,"elsh":6839,"ĠAdditionally":6840,"ĠFame":6841,"Ġintercept":6842,"Ġfinishing":6843,"Ġalleged":6844,"lets":6845,"ĠNar":6846,"Ġdemol":6847,"Ġproperties":6848,"Ġincorporated":6849,"Ġopposite":6850,"Ġstayed":6851,"ĠSab":6852,"Ġattributed":6853,"Ġshop":6854,"ĠPhill":6855,"Ġvolunte":6856,"Ġrecovered":6857,"borne":6858,"Ġsons":6859,"ĠColor":6860,"Ġbreaking":6861,"Ġemerged":6862,"Ġ83":6863,"Ġserves":6864,"Ġ1952":6865,"Ġatmosphere":6866,"ĠMorgan":6867,"ĠMorris":6868,"Ġdipl":6869,"Ġchorus":6870,"Ġtheatre":6871,"ĠNorman":6872,"Ġoccasionally":6873,"rating":6874,"Ġdriven":6875,"othing":6876,"olec":6877,"ĠScient":6878,"aire":6879,"ĠEle":6880,"Ġstrateg":6881,"ĠRobinson":6882,"ĠKr":6883,"enses":6884,"umin":6885,"ĠEver":6886,"riers":6887,"Ġclassic":6888,"Ġspok":6889,"Ġready":6890,"ĠPrior":6891,"Ġeffectively":6892,"Ġregularly":6893,"aza":6894,"Ġcavalry":6895,"Ġ92":6896,"Ġestablishment":6897,"ĠSky":6898,"Ġprey":6899,"Ġcourts":6900,"Ġmethods":6901,"ĠRaj":6902,"Ġsounds":6903,"thm":6904,"Ġvary":6905,"Ġ1933":6906,"oslav":6907,"ĠHawai":6908,"Ġdivers":6909,"ogen":6910,"ĠTelevision":6911,"Ġsuperv":6912,"ĠSimilar":6913,"Ġ176":6914,"don":6915,"pective":6916,"Ġdream":6917,"ĠAround":6918,"Ġcompletion":6919,"Ġshore":6920,"ĠUnlike":6921,"Ġmaterials":6922,"ĠCE":6923,"ĠConstruction":6924,"ĠGh":6925,"uty":6926,"Ġresponsibility":6927,"Ġdissip":6928,"Ġwarning":6929,"ĠUSA":6930,"Ġaccommod":6931,"wen":6932,"ĠCab":6933,"ĠFinn":6934,"Ġheat":6935,"Ġattracted":6936,"Ġfields":6937,"Ġsurviving":6938,"Ġprovince":6939,"Ġentertain":6940,"Ġpersu":6941,"ĠNelson":6942,"ĠIron":6943,"rim":6944,"Ġglobal":6945,"nold":6946,"ece":6947,"ĠNich":6948,"ĠFrancis":6949,"Ġmo":6950,"Ġquant":6951,"Ġclassified":6952,"Ġkid":6953,"sole":6954,"Ġdifferences":6955,"ĠPremier":6956,"ĠDE":6957,"ĠLanc":6958,"icks":6959,"Ġdivisions":6960,"Ġtechnical":6961,"vens":6962,"ĠSweden":6963,"Ġinterpret":6964,"Ġbrain":6965,"Ġ1935":6966,"ban":6967,"ĠFord":6968,"ĠTechn":6969,"Ġcruiser":6970,"ĠPatrick":6971,"ĠBudd":6972,"ipe":6973,"Ġpassage":6974,"emeter":6975,"abled":6976,"ĠAnton":6977,"Ġaboard":6978,"Ġnone":6979,"ĠMit":6980,"inton":6981,"Ġsam":6982,"oyd":6983,"ĠPA":6984,"ĠTemple":6985,"weight":6986,"Ġclubs":6987,"Ġstood":6988,"Ġassociation":6989,"Ġratings":6990,"Ġneither":6991,"Ġeleven":6992,"Ġmusicians":6993,"Ġrooms":6994,"nce":6995,"Ġ1951":6996,"Ġ1949":6997,"Ġmedic":6998,"Ġreinforce":6999,"idden":7000,"omot":7001,"ĠHell":7002,"Ġdesire":7003,"nings":7004,"Ġhal":7005,"Ġseparated":7006,"ĠToronto":7007,"ĠWelsh":7008,"Ġclimate":7009,"ĠAnne":7010,"agle":7011,"Ġsqu":7012,"ĠNations":7013,"Ġshif":7014,"Ġoutbreak":7015,"Ġclassification":7016,"Ġancest":7017,"ĠDog":7018,"Ã³n":7019,"Ġvehicle":7020,"ĠMarg":7021,"Ġreality":7022,"Ġpredecess":7023,"Ġseemed":7024,"ĠByzantine":7025,"Ġchemical":7026,"Ġvotes":7027,"Ġpicture":7028,"teenth":7029,"ĠAllen":7030,"Ġbattleships":7031,"Ġrose":7032,"ĠChron":7033,"Ġmemory":7034,"Ġhoped":7035,"ici":7036,"ĠProfess":7037,"ji":7038,"Ġmovements":7039,"Ġment":7040,"Ġrequested":7041,"ĠOpen":7042,"ĠNetherlands":7043,"ĠJournal":7044,"ĠBelg":7045,"ogy":7046,"Ġraise":7047,"Ġhistorians":7048,"Ġille":7049,"ĠEvery":7050,"ĠMatthew":7051,"ĠSn":7052,"ĠPow":7053,"burn":7054,"Ġmap":7055,"Ġdifficulty":7056,"reck":7057,"Ġbasketball":7058,"inder":7059,"ĠWhe":7060,"ewhere":7061,"ige":7062,"Ġexpect":7063,"Ġvide":7064,"abil":7065,"Ġcommunities":7066,"Ġrestored":7067,"Ġraid":7068,"Ġteen":7069,"Ġremember":7070,"ĠBang":7071,"ĠSports":7072,"Ġprogramme":7073,"ĠJews":7074,"Ġpremiere":7075,"Ġpure":7076,"ĠDean":7077,"har":7078,"Ġfal":7079,"Ġdelayed":7080,"ĠJacob":7081,"Ġfer":7082,"Ġrelative":7083,"Ġinspiration":7084,"ĠSax":7085,"Ġdiscovery":7086,"Ġgal":7087,"Ġotherwise":7088,"Ġgreatly":7089,"ĠUSS":7090,"Ġanniversary":7091,"Ġinjuries":7092,"ĠDesign":7093,"ĠAgain":7094,"Ġneighbor":7095,"Ġaccounts":7096,"Ġsatisf":7097,"hire":7098,"Ġfunding":7099,"Ġsurrounded":7100,"Ġflank":7101,"ĠDomin":7102,"Ġdepict":7103,"Ġpraise":7104,"ĠUlt":7105,"Ġpenalty":7106,"Ġspoke":7107,"ilers":7108,"Ġbatting":7109,"Ġneeds":7110,"Ġ1900":7111,"ĠIraq":7112,"iate":7113,"Ġdens":7114,"Ġstrate":7115,"Ġdie":7116,"Ġpartner":7117,"Ġcrop":7118,"ĠWright":7119,"ĠMarine":7120,"Ġmassive":7121,"Ġweapon":7122,"Ġphotograph":7123,"Ġrecru":7124,"Ġclaiming":7125,"Ġcra":7126,"ĠDor":7127,"anth":7128,"ĠBishop":7129,"Ġsuit":7130,"Ġassemb":7131,"Ġlat":7132,"Ġastron":7133,"Ġtries":7134,"Ġforming":7135,"Ġstrategy":7136,"Ġwrong":7137,"real":7138,"Ġlegend":7139,"ĠOak":7140,"Ġaccompl":7141,"Ġdocumentary":7142,"ĠArmen":7143,"Ġfled":7144,"Ġcrosses":7145,"ĠGlob":7146,"Ġworst":7147,"ĠHop":7148,"ĠCroatian":7149,"ĠHeart":7150,"ĠDa":7151,"Ġstands":7152,"gets":7153,"ĠThompson":7154,"Ġarchitecture":7155,"Ġash":7156,"ĠLast":7157,"uther":7158,"Ġtemporary":7159,"ĠJam":7160,"Ġgirls":7161,"uble":7162,"Ġdetermine":7163,"Ġchairman":7164,"ĠDick":7165,"ĠRussell":7166,"Ġdismissed":7167,"aired":7168,"ĠIslam":7169,"Ġinvolvement":7170,"ĠStra":7171,"Ġbombard":7172,"Ġsale":7173,"Ġcategory":7174,"ĠTrib":7175,"Ġrot":7176,"formula":7177,"Ġplane":7178,"ĠCentre":7179,"Ġinner":7180,"Ġremn":7181,"Ġadaptation":7182,"ĠMars":7183,"Ġhear":7184,"rum":7185,"onds":7186,"going":7187,"Ġensure":7188,"Ġconvinced":7189,"Ġsight":7190,"Ġenf":7191,"lyn":7192,"Ġcul":7193,"ĠNC":7194,"Ġweekend":7195,"Ġ06":7196,"ĠHoly":7197,"ĠNFL":7198,"ĠPuerto":7199,"ĠFront":7200,"Ġresources":7201,"Ġsomewhat":7202,"Ġreserv":7203,"ĠCarter":7204,"Ġinterests":7205,"ĠWinter":7206,"ĠRick":7207,"wing":7208,"Ġscheme":7209,"Ġmedieval":7210,"Ġimmediate":7211,"ĠKelly":7212,"ĠHend":7213,"Ġstreets":7214,"agre":7215,"Ġpresidential":7216,"ĠModern":7217,"Ġlibrary":7218,"ĠKer":7219,"Ġray":7220,"oster":7221,"Ġcarbon":7222,"Ġabsor":7223,"Ġconsp":7224,"ĠCooper":7225,"body":7226,"Ġic":7227,"ĠSpe":7228,"itzer":7229,"po":7230,"Ġfalling":7231,"Ġcolonial":7232,"ĠDra":7233,"ĠAlong":7234,"Ġtechniques":7235,"Ġori":7236,"Ġclassical":7237,"Ġsed":7238,"Ġfighter":7239,"Ġninth":7240,"ĠNiel":7241,"ĠRang":7242,"Ġappropri":7243,"Ġthrone":7244,"ĠGard":7245,"Ġstarred":7246,"Ġeggs":7247,"ĠBrother":7248,"Ġacademic":7249,"ĠFree":7250,"ĠNetwork":7251,"Ġraces":7252,"Ġbright":7253,"icide":7254,"aya":7255,"Ġadults":7256,"ĠPak":7257,"Ġconvent":7258,"Ġcommemor":7259,"Ġpassenger":7260,"Ã±":7261,"Ġsurviv":7262,"Ġloyal":7263,"ĠHungarian":7264,"ĠNob":7265,"Ġmeets":7266,"Ġlake":7267,"night":7268,"ĠWy":7269,"ĠGri":7270,"Ġreviewer":7271,"ester":7272,"Ġalien":7273,"ĠThus":7274,"Ġ1913":7275,"Ġpremiered":7276,"Ġsubmarine":7277,"rine":7278,"ĠBou":7279,"Ġabsence":7280,"ĠBatman":7281,"bec":7282,"wealth":7283,"Ġseeing":7284,"Ġrenew":7285,"á»":7286,"Ġfitted":7287,"ĠLabor":7288,"Ġelse":7289,"Ġsuperior":7290,"osure":7291,"Ġinterior":7292,"arsh":7293,"Ġfavorite":7294,"ĠParker":7295,"Ġengineer":7296,"ronze":7297,"Ġdub":7298,"PA":7299,"ĠEst":7300,"Ġairport":7301,"Ġpartn":7302,"ĠTok":7303,"Ġdeemed":7304,"Ġattacking":7305,"ĠHarris":7306,"omp":7307,"Ġconclusion":7308,"Ġappearing":7309,"acent":7310,"Ġvisible":7311,"ĠBi":7312,"Ġ1926":7313,"Ġdating":7314,"ivan":7315,"Ġsynthes":7316,"using":7317,"Ġcharacteristics":7318,"Ġromantic":7319,"Ġx":7320,"Ġleads":7321,"Ġelections":7322,"Ġrum":7323,"Ġoperate":7324,"Ġfacility":7325,"Ġencouraged":7326,"Ġ1927":7327,"Ġmunicip":7328,"ĠLibrary":7329,"Ġafterwards":7330,"Ġretirement":7331,"ĠDNA":7332,"Ġlanded":7333,"book":7334,"Ġcolony":7335,"Ġconvection":7336,"ĠMurray":7337,"Ġtemperatures":7338,"Ġbuy":7339,"Ġ1921":7340,"Ġeveryone":7341,"chang":7342,"ĠAI":7343,"Ġdoct":7344,"oen":7345,"Ġsuffering":7346,"Ġcredit":7347,"Ġ1934":7348,"Ġlegislation":7349,"Ġholds":7350,"ĠKnight":7351,"Ġmodified":7352,"Ġlies":7353,"Ġchalleng":7354,"ĠEducation":7355,"ĠTs":7356,"ĠLate":7357,"aver":7358,"Ġpainted":7359,"Ġcontroversial":7360,"Ġwings":7361,"eor":7362,"Ġsan":7363,"Ġgone":7364,"ĠâĤ":7365,"ania":7366,"roit":7367,"ossible":7368,"ĠHouston":7369,"Ġbelieves":7370,"ixon":7371,"Ġcode":7372,"urches":7373,"Ġdistributed":7374,"Ġod":7375,"ĠBrand":7376,"ĠCommander":7377,"Ġattempting":7378,"Ġ08":7379,"ĠPolice":7380,"asure":7381,"ĠBerlin":7382,"ĠPalace":7383,"uster":7384,"Ġstandards":7385,"Ġlooked":7386,"Ġrescue":7387,"Ġ900":7388,"Ġauthors":7389,"Ġsecured":7390,"ĠAdvent":7391,"Ġmonarch":7392,"Ġdepicted":7393,"Ġ1912":7394,"tic":7395,"ĠUt":7396,"Ġcancer":7397,"Ġarchae":7398,"Ġdominated":7399,"ĠFI":7400,"Ġbattleship":7401,"ache":7402,"Ġgrass":7403,"Ġhabitat":7404,"ĠÅ":7405,"Ġanyone":7406,"scape":7407,"apse":7408,"ĠYug":7409,"Ġcontinuing":7410,"coming":7411,"Ġjudge":7412,"Ġwel":7413,"Ġlongest":7414,"Ġimmig":7415,"ĠStory":7416,"ĠSanta":7417,"eline":7418,"aws":7419,"Ġbiggest":7420,"ĠSwedish":7421,"li":7422,"ĠCommonwealth":7423,"Ġunsuccessful":7424,"Ġunion":7425,"Ġgraphics":7426,"ĠGet":7427,"Ġpound":7428,"encies":7429,"Ġneck":7430,"Ġobtain":7431,"ĠLi":7432,"ĠSimpson":7433,"ĠRoberts":7434,"Ġtrained":7435,"ĠOt":7436,"ĠYan":7437,"Ġsudden":7438,"Ġwins":7439,"ĠHospital":7440,"Ġ1932":7441,"ultane":7442,"inals":7443,"ĠObs":7444,"Ġjump":7445,"Ġarrangement":7446,"Ġcarrier":7447,"aska":7448,"Ġrailroad":7449,"owa":7450,"ĠIndians":7451,"ĠEy":7452,"Ġacknowled":7453,"ĠLyn":7454,"ĠSilver":7455,"Ġnickn":7456,"ĠMort":7457,"oming":7458,"opes":7459,"Ġinformed":7460,"Ġmeasures":7461,"eenth":7462,"ĠCook":7463,"hess":7464,"ĠRAAF":7465,"Ġbelt":7466,"Ġrepresenting":7467,"emetery":7468,"Ġreleases":7469,"ĠCorporation":7470,"Ġachieve":7471,"ĠSocial":7472,"ĠNBC":7473,"ĠWarner":7474,"ternal":7475,"ching":7476,"Ġsees":7477,"Ġ09":7478,"ĠMerc":7479,"Ġgarrison":7480,"ĠYugoslav":7481,"Ġconvention":7482,"ture":7483,"una":7484,"Ġformerly":7485,"ĠJason":7486,"Ġgrade":7487,"Ġbab":7488,"Ġgenerated":7489,"Ġstyles":7490,"Ġcloser":7491,"Ġdeployed":7492,"Ġemergency":7493,"ĠAnthony":7494,"Ġbats":7495,"Ġalleg":7496,"tenance":7497,"elle":7498,"Ġquestions":7499,"olph":7500,"Ġmoderate":7501,"fare":7502,"Ġhistoric":7503,"Ġgets":7504,"Ġveter":7505,"Ġtrials":7506,"Ġfestival":7507,"Ġcycle":7508,"Ġmolec":7509,"hemat":7510,"Ġster":7511,"Ġsiege":7512,"Ġinfluential":7513,"ĠCru":7514,"Ġemotional":7515,"ĠHin":7516,"ĠCroatia":7517,"ĠDetroit":7518,"ĠTal":7519,"otype":7520,"Ġowners":7521,"Ġnovels":7522,"uts":7523,"agu":7524,"ĠRAF":7525,"Ġsuccessor":7526,"Ġinfluences":7527,"Ġnarrative":7528,"ĠGaga":7529,"Ġ1929":7530,"aria":7531,"ĠBure":7532,"Ġthin":7533,"ĠChamber":7534,"aints":7535,"Ġstead":7536,"Ġru":7537,"Ġ1911":7538,"Ġeat":7539,"Ġexcess":7540,"Ġjournalist":7541,"ĠAuthor":7542,"Ġchildhood":7543,"ĠGilbert":7544,"Ġconstant":7545,"Ġexperiences":7546,"mate":7547,"Ġpregn":7548,"Ġdefended":7549,"Ġveget":7550,"Ġdiscussed":7551,"ĠPrincess":7552,"Ġlegs":7553,"Ġapparently":7554,"Ġalco":7555,"Ġinstruments":7556,"ĠRap":7557,"Ġassass":7558,"ĠSpears":7559,"Ġ140":7560,"Ġvictims":7561,"Ġtreated":7562,"Ġgiant":7563,"ĠPC":7564,"Ġenvironmental":7565,"Ġdiplom":7566,"fire":7567,"arked":7568,"Ġexecuted":7569,"imore":7570,"Ġdetail":7571,"ĠAsian":7572,"Ġcoins":7573,"Ġ1931":7574,"Ġ1922":7575,"Ġdepos":7576,"anny":7577,"Ġoffices":7578,"obi":7579,"Ġfactors":7580,"30":7581,"Ġmine":7582,"ĠJesus":7583,"yard":7584,"usted":7585,"iens":7586,"Ġbear":7587,"Ġconcur":7588,"rams":7589,"ĠDesc":7590,"achment":7591,"Ġenters":7592,"Ġhunting":7593,"ĠSomers":7594,"Ġwooden":7595,"ĠMelbourne":7596,"noon":7597,"ĠEvans":7598,"ĠNielsen":7599,"ĠPope":7600,"ĠAtlant":7601,"aste":7602,"Ġchannel":7603,"Ġhundreds":7604,"Ġride":7605,"ĠVice":7606,"Ġresigned":7607,"ĠGuy":7608,"DS":7609,"Ġocean":7610,"rot":7611,"ĠClinton":7612,"ĠXbox":7613,"iliar":7614,"Ġgay":7615,"Ġuniform":7616,"ĠMun":7617,"Ġskills":7618,"ĠBed":7619,"Ġnavig":7620,"ĠOrgan":7621,"Ġreveals":7622,"alo":7623,"ĠNevertheless":7624,"Ġspend":7625,"Ġchapter":7626,"ĠCategory":7627,"Ġpointed":7628,"Ġenh":7629,"Ġridge":7630,"text":7631,"Ġclim":7632,"ES":7633,"orous":7634,"ĠWing":7635,"Ġwatching":7636,"ĠStewart":7637,"Ġbon":7638,"Ġprevented":7639,"usic":7640,"ĠMuslim":7641,"Ġ05":7642,"Ġpreferred":7643,"lie":7644,"utt":7645,"ĠReal":7646,"rees":7647,"Ġpushed":7648,"Ġpull":7649,"Ġformat":7650,"icians":7651,"Ġlocomot":7652,"Ġfootage":7653,"Ġflew":7654,"Ġlanguages":7655,"ĠHeavy":7656,"Ġdifference":7657,"Ġopponents":7658,"Ġhappened":7659,"ĠTower":7660,"Ġformally":7661,"Ġthereafter":7662,"Ġdrums":7663,"Ġintent":7664,"Ġreportedly":7665,"Ġcheck":7666,"itter":7667,"Ġfacing":7668,"ĠBenn":7669,"Ġresign":7670,"Ġrelationships":7671,"Ġaccomp":7672,"ĠOrigin":7673,"Ġchain":7674,"Ġintense":7675,"ĠCarib":7676,"Ġthousand":7677,"ĠBulgar":7678,"ĠTurkish":7679,"Ġhanded":7680,"ĠSamuel":7681,"ĠExpress":7682,"oto":7683,"tty":7684,"Ġdevice":7685,"Ġnotably":7686,"ĠSarah":7687,"ski":7688,"Ġanimation":7689,"ĠRey":7690,"ĠLim":7691,"ogether":7692,"Ġfiring":7693,"ĠLennon":7694,"Ġvision":7695,"Ġinhabit":7696,"Ġexisted":7697,"Ġvisitors":7698,"ĠBird":7699,"idi":7700,"Ġsurrender":7701,"ĠAud":7702,"Ġgather":7703,"Ġemployees":7704,"ĠGreece":7705,"MA":7706,"ĠBaltimore":7707,"Ġbes":7708,"onies":7709,"Ġ170":7710,"Ġaccompany":7711,"ĠAustria":7712,"ĠQueens":7713,"mad":7714,"ĠAlbums":7715,"roc":7716,"bean":7717,"ĠHans":7718,"ĠArk":7719,"spec":7720,"Ġdeparted":7721,"Ġlinked":7722,"Ġhearing":7723,"Ġexposed":7724,"Ġparticipate":7725,"ds":7726,"Ġpoetry":7727,"Ġdialogue":7728,"stic":7729,"hatt":7730,"da":7731,"Ġextent":7732,"ois":7733,"Ġfil":7734,"ĠStock":7735,"Ġdetailed":7736,"Ġannounce":7737,"olis":7738,"ĠColorado":7739,"Ġsubstantial":7740,"yo":7741,"ican":7742,"Ġlearning":7743,"Ġbeach":7744,"Ġaudio":7745,"ĠCam":7746,"ĠRaw":7747,"Ġinstance":7748,"Ġuniverse":7749,"ĠLane":7750,"ropolitan":7751,"Ġrebell":7752,"Ġcruisers":7753,"Ġresidential":7754,"jo":7755,"unes":7756,"Ġimpressed":7757,"prise":7758,"ĠWriting":7759,"ĠMarshall":7760,"orage":7761,"ĠHorn":7762,"Ġvul":7763,"orial":7764,"Ġperiods":7765,"Ġavo":7766,"ĠInitially":7767,"endment":7768,"ĠCz":7769,"Ġske":7770,"ĠFoundation":7771,"Ġmart":7772,"Ġhuge":7773,"Ġplate":7774,"Ġpublisher":7775,"ullivan":7776,"ĠMalays":7777,"Ġutil":7778,"Ġhat":7779,"Ġtaught":7780,"Ġeasy":7781,"igen":7782,"ĠDave":7783,"Ġafternoon":7784,"Ġenthus":7785,"lock":7786,"ologists":7787,"Ġtempor":7788,"Ġstem":7789,"ĠFrederick":7790,"Ġterritories":7791,"Ġdriver":7792,"Ġimprison":7793,"Ġreviewers":7794,"Ġtesting":7795,"ribed":7796,"ĠErn":7797,"Ġvideos":7798,"boy":7799,"Ġ1928":7800,"ĠWrestling":7801,"opter":7802,"Ġhappy":7803,"Ġupd":7804,"Ġtests":7805,"viation":7806,"ĠBanks":7807,"ĠHaving":7808,"iami":7809,"ĠHorse":7810,"Ġstable":7811,"Ġteeth":7812,"Ġfeud":7813,"Ġreprodu":7814,"Ġsympt":7815,"Ġunderstand":7816,"Ġisolated":7817,"Ġca":7818,"roph":7819,"ogan":7820,"Ġnegotiations":7821,"Ġvessel":7822,"ĠSomerset":7823,"Ġdiameter":7824,"Ġinher":7825,"Ġagents":7826,"Ġsleep":7827,"otes":7828,"Ġpicked":7829,"ĠJess":7830,"atically":7831,"ĠAnna":7832,"Ġ1925":7833,"ĠBuck":7834,"Ġbridges":7835,"ĠKnow":7836,"ĠMario":7837,"Ġgoods":7838,"Ġencountered":7839,"cho":7840,"Ġdangerous":7841,"Ġjunior":7842,"Ġwithdrew":7843,"ĠRelease":7844,"Ġdiagn":7845,"Ġlob":7846,"Ġsimultane":7847,"roke":7848,"Ġaged":7849,"Ġfounder":7850,"Ġreun":7851,"ĠAnglo":7852,"Ġbehavi":7853,"Ġfactor":7854,"Ġnormally":7855,"Ġupgraded":7856,"sea":7857,"ĠGiants":7858,"Ġkeeping":7859,"Ġfur":7860,"ĠMiami":7861,"Ġspecimens":7862,"Ġwindow":7863,"borough":7864,"Ġtie":7865,"Ġpounds":7866,"Ġ1890":7867,"mission":7868,"ĠSeattle":7869,"Ġdeter":7870,"Ġmedium":7871,"Ġsatell":7872,"etime":7873,"Ġrelie":7874,"Ġfrequent":7875,"olas":7876,"Ġsure":7877,"Ġ1924":7878,"Ġcollaps":7879,"Ġethnic":7880,"bridge":7881,"Ġtoll":7882,"Ġmir":7883,"Ġdiet":7884,"idae":7885,"Ġpartly":7886,"ĠChampionships":7887,"ĠPlayer":7888,"ĠExt":7889,"Ġlowest":7890,"Ġcrisis":7891,"Ġprohib":7892,"Ġresear":7893,"Ġengineering":7894,"chen":7895,"ĠTrek":7896,"ĠCall":7897,"Ġapprec":7898,"ĠSoon":7899,"ĠAlab":7900,"Ġoutf":7901,"Ġtraveled":7902,"Ġvic":7903,"ĠCre":7904,"Ġwhereas":7905,"Ġorganizations":7906,"helm":7907,"iable":7908,"Ġproced":7909,"away":7910,"Ġdesigner":7911,"Ġped":7912,"Ġrarely":7913,"Ġlose":7914,"ĠOp":7915,"Ġrefers":7916,"Ġtone":7917,"amese":7918,"ĠHand":7919,"Ġdoesn":7920,"Ġturrets":7921,"usal":7922,"Ġtechnique":7923,"iece":7924,"brid":7925,"Ġinsc":7926,"ĠHuman":7927,"ĠTreaty":7928,"ĠIowa":7929,"gery":7930,"Ġvice":7931,"Ã©e":7932,"Ġorb":7933,"Ġax":7934,"igs":7935,"Ġspending":7936,"Ġfinale":7937,"Ġ07":7938,"Ġcriticised":7939,"Ġadvice":7940,"Ġpermission":7941,"Ġmaintenance":7942,"Ġlad":7943,"ĠML":7944,"Ġplatinum":7945,"ennis":7946,"Ġuncertain":7947,"Ġdifficulties":7948,"Ġphen":7949,"ila":7950,"xual":7951,"ygen":7952,"Ġcomplic":7953,"Ġpartially":7954,"Ġrestric":7955,"Ġpolicies":7956,"ĠAlabama":7957,"ls":7958,"Ġbypass":7959,"Ġpersonality":7960,"Ġagree":7961,"Ġverse":7962,"Ġmainstream":7963,"ĠForces":7964,"Ġcompete":7965,"Ġranking":7966,"Ġindicate":7967,"Ġliqu":7968,"Ġexcell":7969,"ĠDur":7970,"Ġproport":7971,"Ġrecordings":7972,"inction":7973,"ilst":7974,"uscript":7975,"ĠCaribbean":7976,"Ġunn":7977,"oked":7978,"Ġcomments":7979,"FC":7980,"Ġremove":7981,"Ġanticip":7982,"col":7983,"Ġfinals":7984,"ĠNapole":7985,"Ġmamm":7986,"ĠThen":7987,"Ġrefuge":7988,"ĠBuff":7989,"ĠMississ":7990,"Ġsafe":7991,"ĠLawrence":7992,"attered":7993,"Ġconcerts":7994,"Ġ1923":7995,"Ġwindows":7996,"ĠYanke":7997,"ĠCanal":7998,"Ġstrip":7999,"Ġseats":8000,"uda":8001,"Ġrestrict":8002,"Ġmoral":8003,"Ġsymp":8004,"chell":8005,"ĠCharlie":8006,"Ġovers":8007,"Ġmonument":8008,"Ġrates":8009,"Ġjur":8010,"Ġrepair":8011,"Ġextreme":8012,"Ġfalls":8013,"Ġfighters":8014,"ĠAh":8015,"ĠNat":8016,"Ġrecur":8017,"ĠMinnes":8018,"Ġrecommend":8019,"Ġpitched":8020,"ĠBros":8021,"Ġrepresentative":8022,"Ġcovers":8023,"ĠCrown":8024,"Ġalter":8025,"Ġtruth":8026,"ĠSenator":8027,"ĠMcD":8028,"Ġtenth":8029,"enh":8030,"Ġdiff":8031,"ĠMach":8032,"Ġprompted":8033,"power":8034,"isd":8035,"Ġforcing":8036,"rang":8037,"Ġdescribe":8038,"Ġprotest":8039,"Ġhockey":8040,"ĠCR":8041,"ĠIan":8042,"Ġphr":8043,"Ġtub":8044,"ĠMinistry":8045,"Ġreconst":8046,"Ġshear":8047,"Ġdestroyers":8048,"Ar":8049,"mates":8050,"Ġminimum":8051,"sk":8052,"Ġunderw":8053,"ĠMP":8054,"ĠBrig":8055,"ĠGarden":8056,"ĠTownship":8057,"Ġpric":8058,"Ġhull":8059,"ĠHu":8060,"Ġchurches":8061,"Ġneighborhood":8062,"ifer":8063,"ĠDead":8064,"Ġfriendly":8065,"ĠGrammy":8066,"Ġbases":8067,"Ġboys":8068,"Ġexamples":8069,"ĠUSD":8070,"ĠÃĨ":8071,"ĠHealth":8072,"ĠBlood":8073,"ĠHungary":8074,"urance":8075,"Ġdrawing":8076,"ĠCountry":8077,"ĠPolit":8078,"ĠNazi":8079,"Ġpin":8080,"ĠBenj":8081,"Ġtravelled":8082,"mers":8083,"ĠBan":8084,"Ġbombers":8085,"Ġinaug":8086,"Ġdoctor":8087,"ĠRoc":8088,"ĠDance":8089,"Ġdynasty":8090,"Ġadjacent":8091,"Ġmand":8092,"Ġapproval":8093,"Ġhousing":8094,"Ġdisplayed":8095,"ĠHamp":8096,"ĠReturn":8097,"ĠAustralians":8098,"ĠBelgium":8099,"10":8100,"Ġcreator":8101,"Ġcredits":8102,"Ġju":8103,"ĠChristopher":8104,"Ġturb":8105,"Ġgrown":8106,"Ġjoining":8107,"Ġlisting":8108,"Ġcollapse":8109,"Ġtribute":8110,"Ġaware":8111,"ĠDiego":8112,"Ġpartnership":8113,"ĠShakesp":8114,"eu":8115,"Ġprotagonist":8116,"iac":8117,"Ġfung":8118,"ĠCold":8119,"ĠEvent":8120,"zz":8121,"ĠRand":8122,"odore":8123,"ante":8124,"Ġexplo":8125,"ĠMedal":8126,"Äį":8127,"Ġmoments":8128,"ods":8129,"Ġacted":8130,"Ġchanging":8131,"Ġcreative":8132,"ãģ":8133,"Ġ*":8134,"alions":8135,"Ġdesignation":8136,"wa":8137,"icy":8138,"Ġpowered":8139,"ĠGab":8140,"ĠKal":8141,"ugby":8142,"Ġinstrumental":8143,"ĠRepresent":8144,"itud":8145,"ĠMuch":8146,"Ġrefere":8147,"Ġtrend":8148,"ĠLaure":8149,"Ġasks":8150,"ĠChildren":8151,"ĠCamer":8152,"ĠDC":8153,"onnaissance":8154,"velt":8155,"Ġradar":8156,"Ġcanal":8157,"bra":8158,"Ġstorms":8159,"ĠMichel":8160,"ĠHud":8161,"Ġarts":8162,"Ġvillages":8163,"ĠCred":8164,"ĠLl":8165,"Ġpossession":8166,"Ġ1905":8167,"Ġappointment":8168,"Ġadvis":8169,"Ġ1908":8170,"Ġdollars":8171,"imeter":8172,"Ġtreaty":8173,"Ġscientists":8174,"die":8175,"Ġ1909":8176,"ounced":8177,"Ġrounds":8178,"ĠKhan":8179,"sters":8180,"otten":8181,"ĠRecord":8182,"Ġvictories":8183,"Ġsurvive":8184,"ĠGuardian":8185,"Ã§":8186,"Ġeliminated":8187,"Ġpaintings":8188,"ĠBenjamin":8189,"Ġcovering":8190,"ĠLegacy":8191,"Ġwheel":8192,"Ġminimal":8193,"Ġprecip":8194,"Ġels":8195,"ĠRoose":8196,"ĠHockey":8197,"cop":8198,"Ġelsewhere":8199,"Ġtelling":8200,"icts":8201,"ĠVietnamese":8202,"ĠHills":8203,"Ġnewspapers":8204,"Ġinnov":8205,"Ġsurprise":8206,"Ġbenefit":8207,"ivated":8208,"active":8209,"ecraft":8210,"Ġseeking":8211,"ĠAR":8212,"Ġarriving":8213,"Ġanaly":8214,"Ġhelping":8215,"Ġoccupation":8216,"Ġrhythm":8217,"Ġsuicide":8218,"ĠMinnesota":8219,"ouri":8220,"Ġpurposes":8221,"ĠFal":8222,"ĠAlfred":8223,"vy":8224,"Ġunlike":8225,"ĠThor":8226,"Ġvalues":8227,"Ġdispute":8228,"Ġoccasions":8229,"Ġbrick":8230,"Ġgard":8231,"ĠHind":8232,"Ġsmooth":8233,"Ġloan":8234,"Ġpool":8235,"ĠSet":8236,"ĠManhatt":8237,"Ġtwin":8238,"ĠTun":8239,"Ġwet":8240,"rupted":8241,"Ġoption":8242,"roid":8243,"ĠManhattan":8244,"ĠDiv":8245,"uman":8246,"Ġmanuscript":8247,"ographical":8248,"orious":8249,"Ġsoil":8250,"Ġgat":8251,"ĠKurt":8252,"ĠFranklin":8253,"Ġfishing":8254,"ĠInterstate":8255,"Ġstruggle":8256,"ĠWalker":8257,"Ġcryst":8258,"rm":8259,"overs":8260,"Ġmurd":8261,"Ġ105":8262,"Ġbalance":8263,"no":8264,"ĠLin":8265,"ĠAff":8266,"ĠAdminist":8267,"TA":8268,"ĠSon":8269,"Ġ125":8270,"Ġhelic":8271,"Ġdegrees":8272,"ĠAnim":8273,"ĠRoosevelt":8274,"Ġ04":8275,"Ġpreserved":8276,"ĠTrust":8277,"gon":8278,"ĠÄ":8279,"Ġschedule":8280,"esh":8281,"ĠComb":8282,"ĠShel":8283,"Ġflash":8284,"ĠPerform":8285,"Ġ1907":8286,"Ġcateg":8287,"Ġcooper":8288,"ĠFlight":8289,"Ġcircumst":8290,"rix":8291,"ĠPeninsula":8292,"acks":8293,"Ġpublicly":8294,"atherine":8295,"ĠHong":8296,"Ġviolent":8297,"Ġcandidates":8298,"Ġresumed":8299,"ĠBeck":8300,"rome":8301,"orph":8302,"Ġemperor":8303,"Ġ164":8304,"acle":8305,"ĠBull":8306,"Ġhonour":8307,"nik":8308,"ĠIce":8309,"ĠKansas":8310,"Ġcompeted":8311,"Ġpilots":8312,"Ġwedding":8313,"ĠFried":8314,"Ġsurvivors":8315,"ishment":8316,"incial":8317,"munition":8318,"Ġdies":8319,"Ġabilities":8320,"ĠIndustry":8321,"ĠBh":8322,"Ġprocl":8323,"Ġneutral":8324,"sky":8325,"ĠNash":8326,"action":8327,"Ġcook":8328,"ulating":8329,"Ġspan":8330,"ĠSatur":8331,"mph":8332,"oking":8333,"Ġbeautiful":8334,"Ġbid":8335,"ĠLith":8336,"ĠMississipp":8337,"Ġimpossible":8338,"ĠPortland":8339,"Ġcoordin":8340,"Ġintensified":8341,"ĠBorn":8342,"Ġalignment":8343,"Ġargument":8344,"Ġmulti":8345,"Ġteaching":8346,"fted":8347,"Ġadvoc":8348,"Ġcustom":8349,"Ġassisted":8350,"Ġpoison":8351,"Ġwrest":8352,"Ġlem":8353,"Ġdefeating":8354,"Ġconsult":8355,"Ġelectronic":8356,"obile":8357,"Ġconcrete":8358,"Ġlists":8359,"Ġprosp":8360,"ĠHotel":8361,"Ġovert":8362,"Ġnations":8363,"ĠWolf":8364,"ĠPle":8365,"Ġserial":8366,"Ġsimpl":8367,"Ġrivers":8368,"ensions":8369,"Ġdiscip":8370,"Ġabsol":8371,"ĠBuilding":8372,"aph":8373,"Ġpy":8374,"ĠWard":8375,"ĠDigital":8376,"Ġassists":8377,"Ġfoundation":8378,"Ġelabor":8379,"ĠBrun":8380,"isp":8381,"ĠVI":8382,"Ġopponent":8383,"ĠJos":8384,"Ġinteresting":8385,"à¤":8386,"Ġdanc":8387,"ilty":8388,"Ġagricultural":8389,"eare":8390,"Ġbusinesses":8391,"Ġbacking":8392,"Ġoxygen":8393,"Ġsuitable":8394,"Ġ165":8395,"ĠCole":8396,"Ġparent":8397,"Ġmines":8398,"Ġsigning":8399,"Ġ1880":8400,"Ġsubmitted":8401,"Ġtunnel":8402,"Ġfifteen":8403,"Ġunderstanding":8404,"Ġscholar":8405,"ĠHem":8406,"Ġgrey":8407,"rows":8408,"ĠCob":8409,"ĠLam":8410,"Ġencounter":8411,"Ġsymptoms":8412,"ĠBlues":8413,"iveness":8414,"itated":8415,"ĠDw":8416,"face":8417,"Ġciting":8418,"Ġwaves":8419,"Ġbehalf":8420,"ĠHalo":8421,"icer":8422,"Ġorbit":8423,"ĠAlexand":8424,"ĠShakespeare":8425,"Ġspiritual":8426,"Ġsunk":8427,"ĠDom":8428,"ctic":8429,"Ġpercentage":8430,"ĠNative":8431,"Ġparish":8432,"Ġsank":8433,"ĠWol":8434,"agen":8435,"Ġforests":8436,"ĠArea":8437,"ĠTenness":8438,"ĠHindu":8439,"bl":8440,"Ġninet":8441,"Ġforty":8442,"Ġsituated":8443,"unch":8444,"Ġsigns":8445,"Ġclosing":8446,"Ġsubjects":8447,"ĠCampbell":8448,"ĠVinc":8449,"ĠAthlet":8450,"onymous":8451,"alities":8452,"Ġammunition":8453,"SP":8454,"Ġvoiced":8455,"dale":8456,"ĠProm":8457,"ĠKings":8458,"Ġusual":8459,"Ġillness":8460,"Ġnom":8461,"ĠNon":8462,"ĠTag":8463,"Ġrepairs":8464,"ĠSullivan":8465,"ĠHero":8466,"Ġresolution":8467,"Ġcorpor":8468,"asters":8469,"ĠSteven":8470,"Ġimperial":8471,"ĠLucas":8472,"ĠDest":8473,"Ġasking":8474,"ĠBox":8475,"Ġdisaster":8476,"Ġfunctions":8477,"Ġcollaboration":8478,"Ġassess":8479,"Ġ01":8480,"Ġattendance":8481,"Ġcontroll":8482,"Ġrestaurant":8483,"lah":8484,"ĠFriend":8485,"Ġlieutenant":8486,"ĠEgyptian":8487,"father":8488,"Ġevil":8489,"Ġaudiences":8490,"Ġfeelings":8491,"Ġstring":8492,"Ġunderground":8493,"Ġdeliber":8494,"Äĥ":8495,"Ġworship":8496,"Ġjunction":8497,"ĠRen":8498,"Ġflights":8499,"ĠStevens":8500,"Ġportra":8501,"Ġaffairs":8502,"Ġsuspended":8503,"uv":8504,"ĠMargaret":8505,"amic":8506,"Ġskull":8507,"ĠTennessee":8508,"ĠRab":8509,"Ġexit":8510,"ĠMississippi":8511,"aron":8512,"osm":8513,"sex":8514,"ĠRace":8515,"odge":8516,"amps":8517,"Ġpron":8518,"Ġwilling":8519,"ĠJosh":8520,"Ġtargets":8521,"ĠLouisiana":8522,"ËĪ":8523,"Ġcargo":8524,"Ġiniti":8525,"Ġearthqu":8526,"rator":8527,"Ġrecre":8528,"Ġ1906":8529,"ĠMack":8530,"Ġaffair":8531,"Ġfuneral":8532,"ĠMontreal":8533,"idd":8534,"Ġprol":8535,"Ġoperational":8536,"ĠMcL":8537,"ĠHistoric":8538,"resents":8539,"ques":8540,"ĠWarren":8541,"Ġabol":8542,"Ġ360":8543,"Ġpoorly":8544,"ĠLabour":8545,"rus":8546,"Ġlect":8547,"Ġmeasured":8548,"Ġ1904":8549,"Ġcompilation":8550,"ĠPalest":8551,"Ġdocuments":8552,"Ġmountains":8553,"ĠMissouri":8554,"Ġfiled":8555,"Ġaimed":8556,"rants":8557,"uable":8558,"racts":8559,"Ġcircuit":8560,"Ġregistered":8561,"Ġanch":8562,"ĠKu":8563,"weet":8564,"Ġ1870":8565,"ĠDepression":8566,"ĠPhilippines":8567,"Ġconscious":8568,"CC":8569,"ĠTan":8570,"Ġstatue":8571,"Ġfavorable":8572,"Ġelder":8573,"Ġsubt":8574,"Ġaffili":8575,"Ġrout":8576,"Ġliked":8577,"ĠApple":8578,"Ġadopt":8579,"ĠMitchell":8580,"ori":8581,"anium":8582,"ĠNag":8583,"andal":8584,"ĠStat":8585,"Ġbot":8586,"Ġrecognised":8587,"Ġexplosion":8588,"ĠDragon":8589,"ĠBilly":8590,"ateur":8591,"Ġrepresents":8592,"Ġprofessor":8593,"Ġentertainment":8594,"Ġjazz":8595,"fe":8596,"Ġtemporarily":8597,"ception":8598,"Ġsector":8599,"ĠStr":8600,"Ġben":8601,"ĠCow":8602,"ĠJoh":8603,"ĠSmall":8604,"Ġsequences":8605,"ĠCritics":8606,"Ġreplacing":8607,"ika":8608,"Ġfifty":8609,"ĠPed":8610,"overe":8611,"ĠKirk":8612,"gate":8613,"Ġoffering":8614,"Ġshells":8615,"Ġcyl":8616,"idel":8617,"adi":8618,"Ġartwork":8619,"ĠRing":8620,"ĠVis":8621,"ĠGraham":8622,"ĠIndependent":8623,"Ġwore":8624,"Ġresidence":8625,"Ġinterpre":8626,"Ġpreparation":8627,"era":8628,"ĠFem":8629,"inea":8630,"Ġmargin":8631,"Ġ03":8632,"species":8633,"ĠMagn":8634,"ĠBusiness":8635,"ĠCzech":8636,"orders":8637,"issions":8638,"Ġreflected":8639,"Ġrestoration":8640,"Ġnucle":8641,"Ġalliance":8642,"Ġprime":8643,"Ġreluct":8644,"Ġdirectors":8645,"Ġexpensive":8646,"ĠMess":8647,"Ġrig":8648,"ĠLov":8649,"Ġterror":8650,"Ġtouring":8651,"ĠSnow":8652,"ĠNear":8653,"ĠUE":8654,"ancell":8655,"ylan":8656,"Ġoverw":8657,"inental":8658,"Ġalcohol":8659,"Ġcompleting":8660,"Ġamongst":8661,"Ġthinking":8662,"race":8663,"ĠYe":8664,"Ġsuggesting":8665,"ĠMaur":8666,"artney":8667,"ĠMes":8668,"unc":8669,"ĠAriz":8670,"Ġbanks":8671,"Ġhorror":8672,"Ġgrav":8673,"bishop":8674,"ellect":8675,"ĠCuba":8676,"Ġcancelled":8677,"ĠSeven":8678,"Ġrebuilt":8679,"Ġcoverage":8680,"Ġcod":8681,"ĠFrid":8682,"quir":8683,"Ġpulled":8684,"Ġreven":8685,"Ġdecides":8686,"Ġescaped":8687,"Ġdimens":8688,"ĠGuide":8689,"Ġerupt":8690,"Ġbay":8691,"Ġwasn":8692,"Ġamounts":8693,"ĠChand":8694,"ĠEdge":8695,"Ġcous":8696,"iph":8697,"Ġlacked":8698,"Ġtribes":8699,"overeign":8700,"rep":8701,"Ġracing":8702,"Ġdramatic":8703,"ĠPhoen":8704,"Ġclearly":8705,"Ġcommunication":8706,"Ġgarden":8707,"Ġpatterns":8708,"ĠTamil":8709,"ĠFiles":8710,"Ġfamiliar":8711,"Ġpredomin":8712,"urally":8713,"Ġengagement":8714,"Ġfrig":8715,"Ġrit":8716,"Ġownership":8717,"apping":8718,"Ġargues":8719,"rak":8720,"ĠCher":8721,"Ġmarks":8722,"uary":8723,"ĠArizona":8724,"Ġsaved":8725,"ĠIndies":8726,"Ġarmored":8727,"Ġperspective":8728,"ĠSony":8729,"okes":8730,"Ġmathemat":8731,"Ġcolonies":8732,"ĠPersian":8733,"Ġgang":8734,"Ġwicket":8735,"Ġdrove":8736,"ĠGrey":8737,"ĠSaturday":8738,"Ġcontributions":8739,"Ġmerchant":8740,"Ġsolution":8741,"ĠDylan":8742,"storm":8743,"Ġprint":8744,"Ġfastest":8745,"ti":8746,"Ġplayoffs":8747,"Ġartistic":8748,"Ġadministrative":8749,"Ġseed":8750,"ĠScout":8751,"Ġremnants":8752,"ieties":8753,"Ġtag":8754,"Ġexecut":8755,"Ġcharacterized":8756,"Ãº":8757,"Ġfalse":8758,"ĠMarie":8759,"athy":8760,"je":8761,"Ġboundary":8762,"idency":8763,"Ġrising":8764,"Ġmilitia":8765,"Ġkings":8766,"Ġ115":8767,"Ġseverely":8768,"fish":8769,"Ġcrews":8770,"exp":8771,"Ġinstitutions":8772,"Ġarmament":8773,"oga":8774,"Ġdisappoin":8775,"ĠLas":8776,"Ġbadly":8777,"Ġretail":8778,"Ġdepending":8779,"Ġflagship":8780,"ĠConfederate":8781,"bre":8782,"Ġearning":8783,"Ġbulk":8784,"ĠBureau":8785,"Ġgenetic":8786,"Ġdistinctive":8787,"ova":8788,"Ġbowling":8789,"Ġexplains":8790,"Ġideal":8791,"ses":8792,"Ġbran":8793,"acon":8794,"ĠPa":8795,"ĠEP":8796,"Ġnotice":8797,"Ġrecip":8798,"orer":8799,"itting":8800,"Ġbronze":8801,"omber":8802,"Ġfallen":8803,"Ġexcav":8804,"ĠOklah":8805,"Ġrestricted":8806,"Ġranks":8807,"cru":8808,"Ġcontext":8809,"equ":8810,"Ġfrust":8811,"Ġcomparison":8812,"Ġthrew":8813,"ĠNik":8814,"ectic":8815,"ĠSin":8816,"ĠLiz":8817,"elli":8818,"Ġdemonstrated":8819,"mented":8820,"Ġexplain":8821,"Ġcondem":8822,"Ġranging":8823,"Ġearn":8824,"Ġquiet":8825,"uations":8826,"Ġpoems":8827,"Ġinland":8828,"Ġ174":8829,"Ġcontrols":8830,"Ġinhabitants":8831,"life":8832,"Ġarrive":8833,"ĠSwitzer":8834,"ĠWilhelm":8835,"Ġriders":8836,"ĠMurphy":8837,"Ġtrick":8838,"Ġsisters":8839,"ĠAmy":8840,"Ġgap":8841,"ĠProgram":8842,"Ġpractices":8843,"Ġloop":8844,"ĠLang":8845,"ĠkW":8846,"Ġwants":8847,"Ġmental":8848,"Ġmaneu":8849,"ĠHarvey":8850,"ĠMrs":8851,"ĠSuch":8852,"Ġfaster":8853,"ĠEconom":8854,"Ġvel":8855,"Ġconservative":8856,"Ġelectron":8857,"ĠBroadway":8858,"ĠABC":8859,"ivia":8860,"formation":8861,"Ġmeat":8862,"Ġwider":8863,"ĠSwitzerland":8864,"lings":8865,"Ġshield":8866,"Ġsynd":8867,"Ġobvious":8868,"Ġrevol":8869,"Ġkit":8870,"oven":8871,"ocking":8872,"ĠNa":8873,"Ġsurge":8874,"Ġexclud":8875,"Ġspotted":8876,"otton":8877,"tha":8878,"ĠBarry":8879,"Ġacceler":8880,"Ġvulner":8881,"Ġreaches":8882,"pha":8883,"Ġ1901":8884,"Ġdistinguished":8885,"Ġpace":8886,"Ġplus":8887,"Ġnorthward":8888,"rÃ©":8889,"Ġevolved":8890,"Ġexhibition":8891,"asts":8892,"anton":8893,"Ġapplication":8894,"Ġgate":8895,"ĠOklahoma":8896,"EC":8897,"ĠTel":8898,"Ġmillimet":8899,"ĠAustrian":8900,"Ġquarterback":8901,"Ġnominations":8902,"Ġagency":8903,"Ġtriple":8904,"Ġprotein":8905,"hu":8906,"Ġsubspecies":8907,"ĠFederation":8908,"Ġframe":8909,"ruption":8910,"Ġsatellite":8911,"ĠClar":8912,"Ġtip":8913,"Ġautobi":8914,"ĠOriginal":8915,"SA":8916,"Ġdominant":8917,"Ġprepare":8918,"Ġhouseholds":8919,"Ġpredicted":8920,"Ġpalace":8921,"inations":8922,"ĠDelaware":8923,"Ġwreck":8924,"uma":8925,"Ġtex":8926,"eton":8927,"Ġstorage":8928,"Ġslaves":8929,"Ġ1903":8930,"ĠBomb":8931,"urer":8932,"ĠRat":8933,"sequently":8934,"grade":8935,"Ġintellect":8936,"Ġ155":8937,"Ġ1902":8938,"Ġabund":8939,"ĠLithuan":8940,"Ġthor":8941,"eland":8942,"Ġvs":8943,"Ġarticles":8944,"Ġprinted":8945,"uki":8946,"Ġvast":8947,"Ġ02":8948,"Ġcarriers":8949,"Ġattained":8950,"ĠPerry":8951,"Ġrepeatedly":8952,"Ġfixed":8953,"Ġpredecessor":8954,"Ġallies":8955,"Ġvertical":8956,"Ġsurgery":8957,"ĠLeslie":8958,"Ġstores":8959,"Ġoutl":8960,"din":8961,"Ġstrict":8962,"Ġsignal":8963,"ĠMik":8964,"Ġpeaking":8965,"ĠHarv":8966,"lus":8967,"imen":8968,"ĠFif":8969,"Ġphilosophy":8970,"Ġyield":8971,"Ġphenomen":8972,"Ġadventure":8973,"Ġbiographer":8974,"Ġblocks":8975,"ascar":8976,"Ġexcellent":8977,"oned":8978,"Ġboss":8979,"ĠRih":8980,"Ġdisagre":8981,"ĠBaby":8982,"Ġtack":8983,"ĠOriginally":8984,"Ġpretty":8985,"Ġillegal":8986,"riptions":8987,"ĠDS":8988,"ĠVe":8989,"Ġbombs":8990,"ĠAld":8991,"ĠHur":8992,"Ġperceived":8993,"ĠMother":8994,"iders":8995,"Ġseriously":8996,"Ġchoose":8997,"ĠTokyo":8998,"vant":8999,"icate":9000,"ĠRico":9001,"ĠLess":9002,"Ġcomfort":9003,"Ġapartment":9004,"ĠDenmark":9005,"Ġremarked":9006,"Ġwestward":9007,"ĠJonathan":9008,"ĠRidge":9009,"Ġuseful":9010,"Ġwaiting":9011,"Ġtight":9012,"rose":9013,"Ġcircumstances":9014,"aughters":9015,"ĠBernard":9016,"ĠBaseball":9017,"yler":9018,"Ġcurren":9019,"ĠPlayers":9020,"ĠAtlanta":9021,"ĠRihanna":9022,"aro":9023,"Ġsket":9024,"Ġcoinc":9025,"Ġsurrend":9026,"Ġmeetings":9027,"Ġdrugs":9028,"Ġbattalions":9029,"itage":9030,"ĠChel":9031,"Ġdollar":9032,"Å«":9033,"ĠHann":9034,"ĠAbbey":9035,"Ġsick":9036,"ĠJohnny":9037,"Ġinstitution":9038,"ĠNixon":9039,"Ġphone":9040,"AR":9041,"Ġbreat":9042,"Ġcivilian":9043,"Ġlayer":9044,"ĠWor":9045,"ĠTerrit":9046,"Ġarmour":9047,"Ġreaders":9048,"ĠTon":9049,"Ġwhilst":9050,"Ġ101":9051,"azing":9052,"ng":9053,"ĠRoll":9054,"Ġgust":9055,"Ġchamber":9056,"Ġmatters":9057,"Ġcasting":9058,"Ġfriendship":9059,"rings":9060,"Ġtiss":9061,"ĠPil":9062,"emen":9063,"apolis":9064,"ĠJuan":9065,"Ġstrengthened":9066,"Ġhorn":9067,"Ġvisiting":9068,"Ġplanets":9069,"mi":9070,"Ġholid":9071,"Ġrub":9072,"ĠCampaign":9073,"inian":9074,"ĠMaj":9075,"Ġreconnaissance":9076,"Ġ168":9077,"Ġretain":9078,"Ġsimilarly":9079,"ĠPitts":9080,"Ġsimultaneously":9081,"estone":9082,"ĠInn":9083,"ĠEdwards":9084,"mingham":9085,"rint":9086,"ĠChen":9087,"ĠArnold":9088,"Ġlegacy":9089,"esses":9090,"Ġalternate":9091,"Ġdemanded":9092,"LC":9093,"onomy":9094,"Ġtyphoon":9095,"rik":9096,"ĠOpp":9097,"Ġempt":9098,"ĠAy":9099,"ĠWag":9100,"Ġpanel":9101,"TW":9102,"acc":9103,"ĠRal":9104,"Ġjustice":9105,"gro":9106,"ĠLex":9107,"Ġenlisted":9108,"arth":9109,"ĠSoul":9110,"Ġalive":9111,"Ġinsisted":9112,"ĠRailroad":9113,"ĠIran":9114,"Ġrevers":9115,"ĠPrize":9116,"IS":9117,"Ġhook":9118,"ĠRub":9119,"estyle":9120,"Ġshipping":9121,"ĠMcM":9122,"ĠMadag":9123,"ĠKeith":9124,"jan":9125,"ĠJimmy":9126,"rov":9127,"Ġroots":9128,"Ġneighb":9129,"Ġrevenue":9130,"entle":9131,"Ġpromised":9132,"Ġdemands":9133,"Ġbombing":9134,"ĠInternet":9135,"ĠSem":9136,"Ġpersonally":9137,"Ġlanes":9138,"Ġathletes":9139,"ĠRachel":9140,"Ġconsole":9141,"Ġpropag":9142,"ĠMicro":9143,"aration":9144,"Ġmainland":9145,"Ġdrivers":9146,"Ġstruggled":9147,"Ġdefinition":9148,"Ġlooks":9149,"Ġportions":9150,"Ġpione":9151,"ĠPars":9152,"Ġbacked":9153,"Ġcontinu":9154,"Ġaudition":9155,"Ġorchestra":9156,"Ġbehaviour":9157,"lain":9158,"Ġsung":9159,"ghan":9160,"ĠJar":9161,"Ġdiver":9162,"ĠCost":9163,"ĠShaw":9164,"acre":9165,"Ġartific":9166,"Ġguilty":9167,"Ġguitarist":9168,"ĠYankees":9169,"otyp":9170,"ĠBach":9171,"Ġjobs":9172,"Ġ166":9173,"Ġmarketing":9174,"odox":9175,"Ġoblig":9176,"Ġarmies":9177,"arant":9178,"agh":9179,"regation":9180,"ĠFat":9181,"Ġsurpass":9182,"ĠGray":9183,"ĠBirmingham":9184,"Ġdemolished":9185,"ĠTracy":9186,"Ġdancing":9187,"itis":9188,"ĠLost":9189,"Ġstarring":9190,"ĠFurthermore":9191,"ĠMans":9192,"Ġruling":9193,"Ġcup":9194,"iti":9195,"Ġindu":9196,"ication":9197,"inding":9198,"Ġfeels":9199,"ĠNine":9200,"ĠVik":9201,"atern":9202,"ĠObama":9203,"ĠHugh":9204,"ĠFel":9205,"Ġcompens":9206,"azines":9207,"Ġincreases":9208,"Ġprofile":9209,"Ġfactory":9210,"ĠConstant":9211,"ĠEventually":9212,"avery":9213,"Ġcompliment":9214,"Ġessential":9215,"Ġ109":9216,"Ġpunk":9217,"ĠSak":9218,"Ġmining":9219,"Ġheading":9220,"ĠUniversal":9221,"Ġtheater":9222,"Ġcounties":9223,"ĠCanter":9224,"folk":9225,"Ġpages":9226,"ĠSig":9227,"Ġobst":9228,"Ġexpression":9229,"Ġorganisation":9230,"ĠMcCartney":9231,"ĠEnterprise":9232,"Ġpursue":9233,"ouver":9234,"Ġdiscont":9235,"Ġbelieving":9236,"Ġaffect":9237,"Ġdiscovers":9238,"umps":9239,"apped":9240,"raction":9241,"Ġpatron":9242,"Ġdelivery":9243,"Ġbonus":9244,"Ġmultipl":9245,"AC":9246,"ĠBaker":9247,"ĠBuddh":9248,"ĠPhoenix":9249,"Ġsalt":9250,"ĠJup":9251,"Ġclothing":9252,"ĠComple":9253,"Ġstick":9254,"Ġports":9255,"Ġsucceed":9256,"ĠHudson":9257,"ĠTol":9258,"py":9259,"ĠPubl":9260,"Ġmobile":9261,"Ġsad":9262,"ĠKl":9263,"Ġcrest":9264,"fle":9265,"Ġelevation":9266,"Ġacou":9267,"Ġkiss":9268,"ĠBobby":9269,"ĠWayne":9270,"ĠKarl":9271,"ĠGirls":9272,"cles":9273,"ultan":9274,"ĠConnectic":9275,"ĠSi":9276,"ĠPearl":9277,"Ġdrink":9278,"Ġsecretary":9279,"Ġdoubt":9280,"ĠImpact":9281,"ĠMadagascar":9282,"Ġsq":9283,"Ġaccum":9284,"Ġforecast":9285,"Ġorn":9286,"Ġengage":9287,"tario":9288,"Ġhoriz":9289,"ĠTodd":9290,"ĠConnecticut":9291,"bird":9292,"ĠPeace":9293,"ĠDefence":9294,"Ġdemocr":9295,"Ġchest":9296,"ĠBosn":9297,"irty":9298,"Ġaltered":9299,"aux":9300,"ĠMorrison":9301,"Ġoverseas":9302,"Ġmayor":9303,"Ġbaby":9304,"ĠHold":9305,"ĠRights":9306,"Ġdeterior":9307,"inces":9308,"Ġlisten":9309,"ĠPatt":9310,"ello":9311,"ĠOntario":9312,"Ġexpand":9313,"ĠDeb":9314,"owed":9315,"ĠKit":9316,"Ġdefences":9317,"Ġerected":9318,"Ġrenov":9319,"ĠPotter":9320,"ĠDiam":9321,"Ġcancel":9322,"warf":9323,"asant":9324,"irts":9325,"Ġvoy":9326,"shore":9327,"Ġstress":9328,"Ġcompounds":9329,"Ġsettlers":9330,"ĠFriday":9331,"Ġmusician":9332,"ĠCanterbury":9333,"mund":9334,"pent":9335,"oker":9336,"ĠWorks":9337,"acked":9338,"stan":9339,"ĠGoth":9340,"Ġlegislature":9341,"mat":9342,"Ġpale":9343,"ĠSpart":9344,"ĠManu":9345,"ĠRan":9346,"Ġobjective":9347,"yrus":9348,"ĠCommunity":9349,"ĠLeonard":9350,"OS":9351,"ĠFarm":9352,"Ġdecisions":9353,"Ġraising":9354,"Ġhighways":9355,"Ġaerial":9356,"Ġliquid":9357,"oons":9358,"Ġdisl":9359,"Ġconversion":9360,"aks":9361,"ĠAllies":9362,"Ġsolar":9363,"Ġaftermath":9364,"Ġsoldier":9365,"Ġconcentration":9366,"Ġscen":9367,"ensively":9368,"Ġcampaigns":9369,"rous":9370,"ĠBath":9371,"Ġsitting":9372,"ĠCycl":9373,"Ġindicating":9374,"Ġconspir":9375,"Ġhapp":9376,"ulous":9377,"ifies":9378,"Ġexactly":9379,"ĠNAS":9380,"Ġhidden":9381,"Ġprove":9382,"ĠForeign":9383,"Ġorganised":9384,"Ġwealthy":9385,"Ġacknowledged":9386,"aments":9387,"ĠPruss":9388,"Ġpermitted":9389,"Ġdanger":9390,"Ġwrestling":9391,"Ġtrouble":9392,"Ġradical":9393,"oa":9394,"ĠLat":9395,"ĠKan":9396,"Ġimprovements":9397,"Ġdissipated":9398,"ĠGriff":9399,"Ġrealized":9400,"Ġski":9401,"Ġstriking":9402,"Ġgraduated":9403,"Ġdressed":9404,"ĠWindows":9405,"ĠNapoleon":9406,"ĠTed":9407,"ĠBoys":9408,"Ġappropriate":9409,"Ġconfron":9410,"Ġexecution":9411,"ratropical":9412,"Ġanth":9413,"Ġmeter":9414,"ĠZe":9415,"ĠUEFA":9416,"ĠPy":9417,"Ġobservations":9418,"Ġmac":9419,"Ġraids":9420,"Ġlin":9421,"ĠLegend":9422,"uese":9423,"Ġprofit":9424,"ĠOutstanding":9425,"Ġencl":9426,"Ġremoval":9427,"Ġinterpretation":9428,"ĠLaur":9429,"Ġfewer":9430,"Ġtravels":9431,"otte":9432,"Ġsky":9433,"Ġcelebrated":9434,"Ġvenue":9435,"Ġnet":9436,"Ġsharp":9437,"Ġpublications":9438,"Ġinitiated":9439,"Ġaggressive":9440,"ĠVanc":9441,"ĠSeason":9442,"Ġturret":9443,"ĠGary":9444,"Ġtheatrical":9445,"Ġchapel":9446,"atus":9447,"Ġpublishing":9448,"Ġrequires":9449,"Ġ152":9450,"Ġevacuated":9451,"Ġjurisd":9452,"inister":9453,"ivation":9454,"ĠLion":9455,"ĠVancouver":9456,"ĠDall":9457,"Ġdebt":9458,"itudes":9459,"Ġfounding":9460,"Ġorigins":9461,"ĠMint":9462,"Ġoriginated":9463,"Ġtort":9464,"itals":9465,"ipper":9466,"Ġstationed":9467,"Ġcannon":9468,"ĠGate":9469,"Ġexplan":9470,"ĠSymph":9471,"Ġconnect":9472,"ĠEdin":9473,"Ġbrill":9474,"ĠJupiter":9475,"olly":9476,"Ġdefending":9477,"ĠAbd":9478,"Ġestablishing":9479,"run":9480,"Ġsupple":9481,"ugg":9482,"Ġmush":9483,"Ġconsidering":9484,"Ġsteps":9485,"Ġrebellion":9486,"Ġshorter":9487,"Ġarrangements":9488,"Ġannouncement":9489,"adier":9490,"ĠMem":9491,"ĠChampions":9492,"Ġcutting":9493,"ĠPakistan":9494,"Ġbones":9495,"ĠMountains":9496,"Ġfantasy":9497,"Ġguarant":9498,"annon":9499,"Ġmagic":9500,"itively":9501,"rapped":9502,"ĠDrive":9503,"ĠTNA":9504,"ĠLib":9505,"OT":9506,"Ã¦":9507,"Ġ173":9508,"Ġmagazines":9509,"Ġconnecting":9510,"autical":9511,"Ġaspect":9512,"ĠTit":9513,"ĠCov":9514,"Ġerr":9515,"Ġapproaching":9516,"ĠBradman":9517,"Ġmemor":9518,"ĠChampion":9519,"aja":9520,"Ġextratropical":9521,"Ġhosts":9522,"Ġdonated":9523,"Ġwalking":9524,"ĠÃĨthel":9525,"ais":9526,"Ġing":9527,"Ġplacing":9528,"phone":9529,"ennium":9530,"Ġstrategic":9531,"ĠOur":9532,"Ġinsects":9533,"ĠPortuguese":9534,"Ġlying":9535,"ĠTriple":9536,"ĠAdministration":9537,"Ġongoing":9538,"ĠLen":9539,"Ġdiscussion":9540,"hears":9541,"Ġ104":9542,"Ġfunny":9543,"Ġcolleagues":9544,"Ġtalent":9545,"ĠShip":9546,"Ġcub":9547,"ĠStu":9548,"Ġedited":9549,"Ġyoungest":9550,"Ġglac":9551,"ĠAlice":9552,"Ġpredict":9553,"Ġclosest":9554,"à¸":9555,"Ġmal":9556,"Ġqualified":9557,"Ġhypothes":9558,"Ġgathered":9559,"Ġforth":9560,"Ġbattlecru":9561,"Ġtubes":9562,"asa":9563,"Ġdecide":9564,"ĠTrophy":9565,"Ġvolumes":9566,"ecution":9567,"ĠJoy":9568,"Ġputting":9569,"Ġlandscape":9570,"Ġrede":9571,"Ġindicates":9572,"Ġcoup":9573,"Ġwatershed":9574,"onium":9575,"adal":9576,"Ġstrongest":9577,"Ġswitch":9578,"Ġ1860":9579,"Ġwithdrawal":9580,"ĠDwight":9581,"bow":9582,"fts":9583,"ĠGene":9584,"venth":9585,"ĠIsa":9586,"Ġ1893":9587,"Ġangle":9588,"Ġforg":9589,"Ġcaps":9590,"Ġsupplied":9591,"hous":9592,"Ġmarkets":9593,"Ġidentify":9594,"Ġgray":9595,"Ġles":9596,"Ġexposure":9597,"Ġcircle":9598,"ĠMarvel":9599,"ĠFleming":9600,"Ġneighbour":9601,"Ġdesert":9602,"Ġspecimen":9603,"Ġconfront":9604,"Ġmerely":9605,"Ġcollapsed":9606,"atra":9607,"ĠChes":9608,"ĠPap":9609,"ĠAnc":9610,"Ġ1896":9611,"Ġpartial":9612,"Ġchallenged":9613,"earing":9614,"elta":9615,"ĠReserve":9616,"ĠHonor":9617,"Ġbeam":9618,"ĠDub":9619,"anner":9620,"Ġdensity":9621,"ĠHampshire":9622,"ĠNCAA":9623,"Ġbrig":9624,"ĠMission":9625,"ĠEdinburgh":9626,"Ġcock":9627,"Ġbare":9628,"Ġshift":9629,"avel":9630,"Ġvisits":9631,"Ġlimits":9632,"Ġdubbed":9633,"Ġspac":9634,"Ġfeeding":9635,"join":9636,"ĠPam":9637,"ĠStri":9638,"ĠOliver":9639,"Ġhydrogen":9640,"ĠBak":9641,"Ġprovision":9642,"soft":9643,"ieth":9644,"ĠThose":9645,"agger":9646,"Ġclin":9647,"Ġprize":9648,"Ġeducational":9649,"Ġconventional":9650,"ĠDod":9651,"ĠMeteor":9652,"ĠBeng":9653,"Ġplain":9654,"enna":9655,"ista":9656,"ĠSomet":9657,"ĠFlying":9658,"Ġseized":9659,"ocy":9660,"athers":9661,"ĠAfghan":9662,"Ġduo":9663,"ĠYears":9664,"Ġannually":9665,"ĠTob":9666,"Ġbearing":9667,"Ġcorps":9668,"Ġconcentrated":9669,"Ġtopped":9670,"irates":9671,"otal":9672,"Ġexha":9673,"Ġmarry":9674,"Ġmembership":9675,"Ġchampions":9676,"Ġ1898":9677,"amental":9678,"Ġattending":9679,"ĠSay":9680,"iper":9681,"Ġassembly":9682,"Ġparody":9683,"Ġbacter":9684,"ĠCharts":9685,"Ġranges":9686,"ĠMosc":9687,"Ġ172":9688,"Ġdogs":9689,"hard":9690,"ĠNatural":9691,"Ġoffense":9692,"Ġnavy":9693,"ĠType":9694,"Ġfurn":9695,"arr":9696,"ĠTig":9697,"Ġemphasis":9698,"ĠPin":9699,"ĠPrincip":9700,"ĠMonte":9701,"igenous":9702,"Ġweekly":9703,"Ġ350":9704,"ĠBegin":9705,"Ġproductions":9706,"Ġexercise":9707,"Ġunless":9708,"Ġlegit":9709,"Ġtalking":9710,"Ġticket":9711,"ĠMeg":9712,"Ġinvestigate":9713,"ĠList":9714,"Ġtrough":9715,"ĠKap":9716,"Ġbasin":9717,"Ġanime":9718,"ĠFinally":9719,"ĠRalph":9720,"Ġpromotional":9721,"Ġcruc":9722,"Ã¼r":9723,"olve":9724,"terior":9725,"Ġ111":9726,"ĠVictorian":9727,"Ġbond":9728,"ĠPersonal":9729,"Ã°":9730,"Ġbone":9731,"ĠDemocrats":9732,"Ġjury":9733,"Ġportrayal":9734,"ĠAx":9735,"ĠMand":9736,"oys":9737,"ĠDeep":9738,"ĠYorkshire":9739,"Ġceased":9740,"Ġfortress":9741,"Ġflooded":9742,"uzzle":9743,"erk":9744,"Ġ127":9745,"Ġadvertising":9746,"Ġfill":9747,"ĠCelt":9748,"ĠOm":9749,"ĠKo":9750,"Ġregime":9751,"ĠArgentina":9752,"Ġuncom":9753,"ported":9754,"Ġconservation":9755,"rising":9756,"Ġuncle":9757,"Ġbirthday":9758,"ĠLloyd":9759,"onica":9760,"ĠPink":9761,"Ġinvent":9762,"Ġcoff":9763,"Ġemployment":9764,"Ġpersons":9765,"Ġoutput":9766,"Ġqueen":9767,"ĠConvention":9768,"Ġballad":9769,"ĠWhere":9770,"ĠChristianity":9771,"Ġsending":9772,"Ġattitude":9773,"Ġexperimental":9774,"ĠVillage":9775,"Ġphotographs":9776,"Ġbishop":9777,"Ġeval":9778,"Ġsoftware":9779,"ĠBrothers":9780,"Ġhitting":9781,"Ġquestioned":9782,"ĠHaz":9783,"ĠJerry":9784,"aders":9785,"oviÄĩ":9786,"Ġguide":9787,"ĠOverall":9788,"ĠTak":9789,"Ġprovincial":9790,"ĠChronicle":9791,"ĠLt":9792,"Ġscattered":9793,"pled":9794,"Ġdrinking":9795,"Ġtranslation":9796,"Ġaggreg":9797,"ĠProp":9798,"Ġunclear":9799,"Ġunderwent":9800,"Ġmature":9801,"ĠAS":9802,"ĠFund":9803,"ĠKam":9804,"hammad":9805,"Ġ1899":9806,"Ġoverwhel":9807,"hin":9808,"Ġoutd":9809,"Ġendors":9810,"Ġreplied":9811,"Ġassembled":9812,"Ġcousin":9813,"ications":9814,"rapy":9815,"ĠBooks":9816,"ĠCollins":9817,"Ġcens":9818,"Ġpapers":9819,"ĠMong":9820,"Ġclock":9821,"Ġrepresentatives":9822,"Ġliberal":9823,"Ġcoat":9824,"ĠPrim":9825,"Ġlawyer":9826,"ĠCraig":9827,"Ġswimming":9828,"ashes":9829,"ĠMarge":9830,"ĠCad":9831,"ayan":9832,"rawn":9833,"Ġexternal":9834,"Ġcommentary":9835,"Ġwire":9836,"ologies":9837,"Ġproclaim":9838,"ĠApoll":9839,"ĠAndre":9840,"Ġthirteen":9841,"Ġimagery":9842,"ĠFinland":9843,"Ġstere":9844,"aft":9845,"Ġshr":9846,"Ġtrail":9847,"Ġmonaster":9848,"Ġempire":9849,"ĠNO":9850,"Ġcomprom":9851,"assador":9852,"ĠMaya":9853,"Ġwait":9854,"Ġloved":9855,"ĠGlen":9856,"ĠHowe":9857,"ĠGor":9858,"Ġlawsu":9859,"Ġterrain":9860,"Ġacoustic":9861,"idal":9862,"Ġslave":9863,"Ġpictures":9864,"Ġexclusive":9865,"Ġduration":9866,"Ġelectricity":9867,"imm":9868,"Ġstreak":9869,"Ġdaughters":9870,"amas":9871,"Ġmovies":9872,"Ġ108":9873,"owski":9874,"Ġsang":9875,"ĠEug":9876,"Ġdevast":9877,"ĠTurner":9878,"ioc":9879,"Ġcad":9880,"ĠWii":9881,"Ġaccompanying":9882,"Ġexpert":9883,"Ġbranches":9884,"Ġsurrendered":9885,"ersed":9886,"Ġarrives":9887,"Ġtenure":9888,"atever":9889,"ensed":9890,"Ġstronger":9891,"Ġidentical":9892,"ĠSle":9893,"ĠJun":9894,"pler":9895,"Ġburial":9896,"ĠHardy":9897,"Ġsuccession":9898,"ĠPad":9899,"ĠSimilarly":9900,"Ġdread":9901,"aman":9902,"Ġbeats":9903,"riors":9904,"ĠNorfolk":9905,"ĠQueensland":9906,"Ġreverse":9907,"Ġcomponents":9908,"Ġcharter":9909,"ĠProtest":9910,"Ġ169":9911,"ĠHeritage":9912,"ĠJama":9913,"ĠBoat":9914,"Ġreducing":9915,"Ġprices":9916,"Ġscar":9917,"Ġreveal":9918,"ĠSign":9919,"ellation":9920,"place":9921,"Ġreinforcements":9922,"rod":9923,"ĠBurton":9924,"ĠHawaii":9925,"erg":9926,"ĠDin":9927,"Ġprev":9928,"Ġtrading":9929,"ĠBelgian":9930,"Ġpenet":9931,"ĠNicholas":9932,"ĠProfessor":9933,"illes":9934,"Ġspaces":9935,"Ġdestroying":9936,"Ġpush":9937,"ĠRic":9938,"Ġfailing":9939,"Ġmechanical":9940,"Ġcompeting":9941,"Ġisot":9942,"Ġrecall":9943,"ĠBeaut":9944,"Ġexclusively":9945,"olen":9946,"ĠCommunist":9947,"ĠBennett":9948,"Ġcomponent":9949,"Ġquad":9950,"Ġstops":9951,"Ġatomic":9952,"eyer":9953,"Ġ1850":9954,"ĠRangers":9955,"Ġmyst":9956,"ĠCricket":9957,"ĠDavies":9958,"Ġcounterp":9959,"ĠServices":9960,"hell":9961,"err":9962,"Ġslavery":9963,"ĠEmmy":9964,"Ġprecipitation":9965,"Ġdict":9966,"ĠLock":9967,"Ġdevelopers":9968,"ĠVincent":9969,"ĠDak":9970,"ricts":9971,"Ġdevices":9972,"Ġfossil":9973,"onian":9974,"ibilities":9975,"Ġpolar":9976,"Ġgovernments":9977,"Ġtraded":9978,"esty":9979,"ĠCredits":9980,"ĠCatherine":9981,"case":9982,"Ġreward":9983,"Ġmini":9984,"Ġpole":9985,"Ġelig":9986,"Ġconsistent":9987,"ĠLiberal":9988,"Ġbanned":9989,"uras":9990,"ĠLiving":9991,"abe":9992,"ĠThunder":9993,"Ġcenters":9994,"Ġconfirm":9995,"ĠMedical":9996,"Ġwish":9997,"ĠYellow":9998,"Ġvaried":9999,"ĠSwift":10000,"Ġobsc":10001,"ĠMalt":10002,"ĠDram":10003,"Ġflowers":10004,"Ġartificial":10005,"ĠLem":10006,"IV":10007,"Ġtube":10008,"Ġpel":10009,"ĠNi":10010,"Ġradiation":10011,"ĠHughes":10012,"Ġwaste":10013,"ĠHob":10014,"ĠRud":10015,"Ġconsiders":10016,"Ġredes":10017,"Ġplatforms":10018,"Ġvirus":10019,"Ġtomb":10020,"Ġincom":10021,"ĠLocal":10022,"ĠTransportation":10023,"Ġbath":10024,"ĠCurt":10025,"ĠLook":10026,"Ġow":10027,"Ġ163":10028,"ĠDonald":10029,"legraph":10030,"Ġcontribution":10031,"Ġdisb":10032,"Ġelectrical":10033,"Ġearthquake":10034,"pike":10035,"ĠTax":10036,"ethel":10037,"ĠGuitar":10038,"itarian":10039,"Ġhybrid":10040,"ĠTraining":10041,"Ġburned":10042,"ĠMust":10043,"angel":10044,"Ġ1897":10045,"ĠPrix":10046,"Ġhumor":10047,"Ġarchitectural":10048,"Ġsongwriter":10049,"Ġreviewed":10050,"Ġecc":10051,"ĠCO":10052,"Ġproceeded":10053,"Ġfourteen":10054,"Ġboilers":10055,"ĠNext":10056,"Ġprofession":10057,"ĠMarket":10058,"Ġadvised":10059,"rastructure":10060,"Ġunderstood":10061,"gs":10062,"onald":10063,"Ġfrequency":10064,"ĠPeters":10065,"ĠHarvard":10066,"Ġhandled":10067,"enesis":10068,"Ġintersects":10069,"Ġtalks":10070,"acles":10071,"Ġdestroyer":10072,"Ġimprovement":10073,"Ġlie":10074,"Ġheir":10075,"ĠBald":10076,"Ġamateur":10077,"Ġcopper":10078,"ĠAra":10079,"ĠDarwin":10080,"ĠSaxon":10081,"Ġtexts":10082,"MI":10083,"rost":10084,"Ġrequirements":10085,"Ġtheore":10086,"Ã¶n":10087,"Ġconceived":10088,"ĠSwiss":10089,"Ġsamples":10090,"uating":10091,"asm":10092,"ĠDyn":10093,"Ġ106":10094,"Ġconflic":10095,"Ġphrase":10096,"Ġinduct":10097,"Ġportr":10098,"itely":10099,"Ġinvestment":10100,"ĠCameron":10101,"Ġrein":10102,"ĠKate":10103,"ĠâĢ¦":10104,"ĠBlu":10105,"Ġsixteen":10106,"Ġreferring":10107,"Ġreduction":10108,"ĠMoscow":10109,"bal":10110,"mith":10111,"Ġshares":10112,"ensis":10113,"ĠOslo":10114,"encing":10115,"Ġusers":10116,"ulty":10117,"Ġrecon":10118,"Ġairfield":10119,"ĠGallery":10120,"ĠPittsburgh":10121,"eding":10122,"Ġworn":10123,"umble":10124,"Ġcharity":10125,"Ġcertainly":10126,"rehens":10127,"Ġweigh":10128,"axy":10129,"ĠHarbor":10130,"Ġvoting":10131,"ĠIndonesia":10132,"ĠPic":10133,"Ġrespective":10134,"Ġcleared":10135,"Ġ167":10136,"Ġpraising":10137,"Ġsoph":10138,"ĠPhys":10139,"ĠGeoff":10140,"Ġparks":10141,"Ġlabour":10142,"ĠCraw":10143,"Ġconstitutional":10144,"eto":10145,"Ġexceed":10146,"strong":10147,"Ġlock":10148,"ĠInv":10149,"Ġ154":10150,"Ġconnections":10151,"Ġphotography":10152,"Ġflows":10153,"Ġtactics":10154,"Ġnit":10155,"ĠAM":10156,"Ġgrossing":10157,"Ġspoken":10158,"Ġtoured":10159,"ffield":10160,"Ġqualifying":10161,"haw":10162,"Ġblind":10163,"Ġsurvival":10164,"ingham":10165,"ĠMS":10166,"tery":10167,"etheless":10168,"eping":10169,"Ġautumn":10170,"Ġshoulder":10171,"ĠTerry":10172,"Ġsweet":10173,"gom":10174,"rh":10175,"Ã«":10176,"avor":10177,"Ġcontinuous":10178,"Ġfisher":10179,"ĠAli":10180,"Ġruler":10181,"Ġreorgan":10182,"Ġstuff":10183,"ĠAlaska":10184,"Ġcommenced":10185,"Ġcommanding":10186,"ean":10187,"ĠAntonio":10188,"Ġnautical":10189,"ĠMond":10190,"ĠMason":10191,"Ġpatients":10192,"ĠTow":10193,"Ġunw":10194,"Ġconfidence":10195,"Ġtaxes":10196,"Ġlegislative":10197,"ĠBroadcast":10198,"Ġtonnes":10199,"Ġunlik":10200,"Ġfold":10201,"icated":10202,"Ġopportunities":10203,"Ġenthusi":10204,"Ġfasc":10205,"Ġexists":10206,"Ġattorney":10207,"Ġtransported":10208,"ĠWallace":10209,"ĠSweet":10210,"ĠRest":10211,"Ġsignature":10212,"Ġcommunist":10213,"ĠSom":10214,"Ġcompetitive":10215,"Ġcamps":10216,"Ġuranium":10217,"ĠMicrosoft":10218,"Ġrelocated":10219,"Ġtranslated":10220,"Ġnat":10221,"Ġmelody":10222,"hum":10223,"pot":10224,"ĠJTW":10225,"ĠStill":10226,"ĠJTWC":10227,"ario":10228,"ĠMayor":10229,"ĠStef":10230,"Ġtested":10231,"ĠGot":10232,"ĠEnt":10233,"Ġindeed":10234,"Ġrocks":10235,"Ġminority":10236,"ĠUpper":10237,"porting":10238,"ĠSyria":10239,"Ġreinforced":10240,"Ġfulf":10241,"ĠAP":10242,"ĠAftermath":10243,"Ġtraveling":10244,"ĠSid":10245,"ĠAT":10246,"ĠHD":10247,"ashi":10248,"ĠClay":10249,"Ġfairly":10250,"Ġsovereign":10251,"Ġmoon":10252,"illo":10253,"cester":10254,"Ġdece":10255,"Ġcommanders":10256,"Ġrevised":10257,"Ġrevolt":10258,"minster":10259,"Ġpairs":10260,"ambers":10261,"ĠPast":10262,"Ġnoble":10263,"ĠOri":10264,"Ġimpression":10265,"Ġcartoon":10266,"bes":10267,"ĠRP":10268,"ĠEmer":10269,"ĠGrace":10270,"Ġmanga":10271,"Ġexplicit":10272,"expected":10273,"Ġuncon":10274,"ĠFr":10275,"Ġwithdrawn":10276,"Ġcrops":10277,"ĠStars":10278,"ĠSheffield":10279,"ĠAer":10280,"anger":10281,"ĠSee":10282,"Ġblues":10283,"ĠAdv":10284,"ĠExper":10285,"Ġprogramming":10286,"tes":10287,"ye":10288,"Ġaccord":10289,"urricanes":10290,"Ġdischar":10291,"Ġextending":10292,"ĠIsraeli":10293,"ĠLarry":10294,"eared":10295,"Ġfram":10296,"ĠEc":10297,"Ġdisplaced":10298,"ĠRu":10299,"oca":10300,"Ġexperiments":10301,"ĠSecurity":10302,"Ġhole":10303,"Ġ1895":10304,"ĠTrail":10305,"Ġprinciples":10306,"ĠLuke":10307,"Ġvoices":10308,"Ġpap":10309,"ĠHalf":10310,"Ġpromin":10311,"Ġextinct":10312,"ĠOfficer":10313,"where":10314,"ĠCass":10315,"ĠFu":10316,"avia":10317,"Ġprovinces":10318,"Ġchron":10319,"ĠVel":10320,"Ġrepresentation":10321,"Ġmagnitude":10322,"Ġlearns":10323,"cott":10324,"isive":10325,"Ġconce":10326,"seud":10327,"Ġcharacteristic":10328,"ussion":10329,"Ġprisoner":10330,"Ġenforce":10331,"oda":10332,"Ġdistant":10333,"Ġcatal":10334,"ĠJefferson":10335,"asks":10336,"uto":10337,"ĠOsc":10338,"Ġsumm":10339,"ĠHerald":10340,"ĠGameS":10341,"Ġculmin":10342,"ĠPictures":10343,"ĠDallas":10344,"Ġsample":10345,"Ġwonder":10346,"Ġcraft":10347,"Ġabuse":10348,"Ġmarine":10349,"Ġ171":10350,"Ġlights":10351,"ĠBryan":10352,"Ġinterpreted":10353,"ĠClarke":10354,"ĠJohnston":10355,"lad":10356,"itious":10357,"ĠTogether":10358,"ĠCyrus":10359,"umph":10360,"Ġwarfare":10361,"Ġnerv":10362,"car":10363,"aching":10364,"Ġrelatives":10365,"utton":10366,"Ġcompound":10367,"Ġpractical":10368,"rooms":10369,"Ġhem":10370,"Ġapproaches":10371,"Ġrivalry":10372,"Ġid":10373,"Ġherit":10374,"ĠQuest":10375,"ĠMix":10376,"ĠAustin":10377,"ĠGuinea":10378,"Ġvictim":10379,"Ġcuts":10380,"ĠMalaysia":10381,"ĠPerformance":10382,"ĠDaw":10383,"ĠChile":10384,"Ġairing":10385,"ĠDefense":10386,"Ġdisplays":10387,"zed":10388,"Ġtraditions":10389,"Ġjudg":10390,"Ġburning":10391,"Ġproposals":10392,"Ġshifted":10393,"Ġbull":10394,"ĠOwen":10395,"Ġcarries":10396,"Ġskill":10397,"Ġlighting":10398,"Ġrehears":10399,"ĠWells":10400,"ĠOrange":10401,"uez":10402,"Ġwarnings":10403,"ĠSteel":10404,"ĠWoman":10405,"ĠEis":10406,"Ġchore":10407,"Ġblocked":10408,"Ġgirlfriend":10409,"Ġmultiplayer":10410,"Ã¥":10411,"Ġsings":10412,"Ġrestore":10413,"Ġmyster":10414,"ĠNeil":10415,"Ġgraduate":10416,"Ġmedicine":10417,"ĠParsons":10418,"ĠFBI":10419,"ĠNord":10420,"Ġparticipation":10421,"ĠOfficial":10422,"ĠGreater":10423,"ationally":10424,"Ġweb":10425,"Ġrebels":10426,"Ġthunder":10427,"ĠEight":10428,"ags":10429,"Ġmans":10430,"Ġabsent":10431,"Ġtransportation":10432,"Ġpreparing":10433,"Ġscores":10434,"ĠFalls":10435,"ĠPriv":10436,"Ġ102":10437,"iciency":10438,"ĠLiter":10439,"Ġconven":10440,"Ġ121":10441,"Ġmarch":10442,"ĠChelsea":10443,"alia":10444,"ĠTai":10445,"Ã¢":10446,"umped":10447,"Ġvaluable":10448,"ĠDanish":10449,"Ġinterviews":10450,"Ġprotests":10451,"Ġcyclones":10452,"ĠFormation":10453,"Ġbrilliant":10454,"Ġwished":10455,"ĠSac":10456,"urd":10457,"Ġriding":10458,"aha":10459,"Ġsalary":10460,"ĠClassic":10461,"Ġfilmm":10462,"ĠNev":10463,"len":10464,"merce":10465,"Ġpassion":10466,"Ġsalv":10467,"ĠArmstrong":10468,"ĠDescription":10469,"yd":10470,"Ġpier":10471,"ĠSega":10472,"ĠBrazilian":10473,"Ġunlikely":10474,"Ġcreek":10475,"ĠHav":10476,"Ġrecovery":10477,"ĠMcKin":10478,"leans":10479,"berry":10480,"Ġinfl":10481,"Ġcabinet":10482,"ĠEve":10483,"ocity":10484,"ĠQuebec":10485,"Ġmaintaining":10486,"ĠFisher":10487,"Ġdistricts":10488,"ĠBeginning":10489,"aters":10490,"ĠStudio":10491,"Ġreforms":10492,"ĠRena":10493,"ĠGreatest":10494,"Ġcinema":10495,"Ġfest":10496,"ĠYam":10497,"Ġintervention":10498,"Ġgarn":10499,"Ġarguing":10500,"Ġestimates":10501,"Ġcourses":10502,"Ġgrandfather":10503,"Ġdrummer":10504,"ĠFourth":10505,"ĠKaiser":10506,"Ġracial":10507,"Ġcontend":10508,"Ġclar":10509,"Ġamph":10510,"Ġaft":10511,"Ġbeneath":10512,"Ġrecurring":10513,"ĠGa":10514,"ĠActor":10515,"ĠSalt":10516,"ĠRio":10517,"Ġreleg":10518,"ĠSpirit":10519,"Ġsignificance":10520,"Ġpetition":10521,"Ġvulnerable":10522,"Ġeating":10523,"uri":10524,"aze":10525,"Ġkills":10526,"Ġtowers":10527,"ĠLink":10528,"ĠEff":10529,"Ġupset":10530,"Ġadvertis":10531,"Ġaccurate":10532,"eston":10533,"ource":10534,"ĠIl":10535,"ĠGay":10536,"Ġdiverse":10537,"ĠEth":10538,"Ġvalid":10539,"aser":10540,"lete":10541,"ĠCathedral":10542,"ĠAuthority":10543,"ĠPlant":10544,"Ġstatistics":10545,"Ġcommunications":10546,"ĠConstantin":10547,"ĠAgency":10548,"ĠÐ":10549,"ĠVers":10550,"ĠReich":10551,"Ġsponsored":10552,"Ġcant":10553,"onge":10554,"Ġparas":10555,"Ġapplications":10556,"Ġhind":10557,"beat":10558,"ĠSusan":10559,"Ġclothes":10560,"ĠOrleans":10561,"nt":10562,"iar":10563,"Ġshock":10564,"Ġansw":10565,"ĠKane":10566,"osexual":10567,"Ġnumbered":10568,"Ġefficient":10569,"ĠUtah":10570,"ĠPoly":10571,"Ġunexpected":10572,"achute":10573,"Ġairline":10574,"ĠHarold":10575,"ĠCultural":10576,"ĠMend":10577,"ĠIvan":10578,"abilities":10579,"Ġsurve":10580,"ĠSerbian":10581,"ĠGlobe":10582,"Ġtoler":10583,"ĠSug":10584,"ĠJunior":10585,"Ġ158":10586,"Ġsteep":10587,"Ġmorph":10588,"Ġsacrif":10589,"Ġdecorated":10590,"ĠCBS":10591,"ĠAmb":10592,"Ġshallow":10593,"utor":10594,"Ġinclusion":10595,"Ġlasting":10596,"itate":10597,"Ġfaces":10598,"Ġessentially":10599,"Ġanswer":10600,"TS":10601,"ucker":10602,"wright":10603,"Ġtale":10604,"Ġpm":10605,"Ġmate":10606,"Ġgender":10607,"ĠScar":10608,"ĠiP":10609,"ĠFIFA":10610,"erver":10611,"Ġconsolid":10612,"Ã©t":10613,"Ġ1861":10614,"Ġsurprised":10615,"ME":10616,"ipped":10617,"affe":10618,"Ġcharted":10619,"ATO":10620,"Ġmood":10621,"oting":10622,"Ġchronic":10623,"Ġjet":10624,"ĠRichmond":10625,"Ġ1889":10626,"Ġemotion":10627,"Ġliner":10628,"ĠPanzer":10629,"ĠMuhammad":10630,"ĠCS":10631,"OC":10632,"ĠMI":10633,"Ġdeeply":10634,"ĠNewton":10635,"Ġbeaten":10636,"mn":10637,"rary":10638,"Ġtheories":10639,"asha":10640,"Ġsquadrons":10641,"landers":10642,"Ġ161":10643,"anche":10644,"Ġ1894":10645,"Ġratio":10646,"Ġfate":10647,"Ġmerged":10648,"ĠProvince":10649,"dess":10650,"hers":10651,"Ġmanage":10652,"Ġsummit":10653,"Ġpotentially":10654,"ĠConstantine":10655,"aiden":10656,"oria":10657,"Ġ162":10658,"Ġdrafted":10659,"keeper":10660,"Ġ113":10661,"ĠRepublicans":10662,"Ġsuspic":10663,"ĠTyler":10664,"levard":10665,"Ġtours":10666,"castle":10667,"Ġprocesses":10668,"iko":10669,"ĠScientology":10670,"vet":10671,"Ġho":10672,"ĠPok":10673,"Ġgrave":10674,"reated":10675,"ĠMinor":10676,"Ġswit":10677,"Ġ1891":10678,"Ġproportion":10679,"akh":10680,"Ġ1000":10681,"Ġcrimes":10682,"Arthur":10683,"Ġdescent":10684,"ĠStuart":10685,"Ġsentence":10686,"Ġdancers":10687,"Ġdual":10688,"Ġscr":10689,"enson":10690,"Ġdemo":10691,"ĠFerr":10692,"Ġbeating":10693,"opp":10694,"ĠYouT":10695,"Ġmerc":10696,"Ġcivilians":10697,"Ġsegments":10698,"Ġpersuaded":10699,"Ġdense":10700,"ĠFighter":10701,"Ġbeauty":10702,"Ġdim":10703,"ocation":10704,"Ġfunded":10705,"Ġimplemented":10706,"Ġheritage":10707,"Ġhills":10708,"Ġbell":10709,"Ġboot":10710,"ĠIns":10711,"ĠOrchest":10712,"Ġaccommodate":10713,"ĠApollo":10714,"ĠYouTube":10715,"Ġreactions":10716,"ĠPicture":10717,"Ġaltitude":10718,"ĠProduct":10719,"ĠSout":10720,"Ġmanip":10721,"Ġcolors":10722,"ĠXII":10723,"ĠBes":10724,"ĠFull":10725,"Ã©s":10726,"Ġpresentation":10727,"Ġgolden":10728,"Ġagriculture":10729,"ĠIndonesian":10730,"Ġwine":10731,"ĠBuffalo":10732,"Ġpip":10733,"ĠAmendment":10734,"Ġstructural":10735,"Ġcomplained":10736,"born":10737,"Ġrib":10738,"ĠTang":10739,"istent":10740,"Ġproof":10741,"aping":10742,"Ġfeared":10743,"Ġ156":10744,"Ġadminister":10745,"Ġ1892":10746,"Ġdevoted":10747,"ĠAlt":10748,"Ġevident":10749,"Ġcolumns":10750,"Ġaddressed":10751,"Ġsoutheastern":10752,"ĠCardiff":10753,"Ġnurs":10754,"Ġâģ":10755,"Ġrequiring":10756,"Ġsailing":10757,"Ġdwarf":10758,"Ġrejoin":10759,"ĠSymphony":10760,"ĠSultan":10761,"boards":10762,"Ġoriented":10763,"onsin":10764,"Ġtriang":10765,"ĠQuar":10766,"ĠHad":10767,"Ġ135":10768,"ĠMcN":10769,"Ġbreaks":10770,"ĠDays":10771,"ĠConservation":10772,"Ġfame":10773,"ĠWa":10774,"heric":10775,"ĠKyle":10776,"yself":10777,"Ġobservation":10778,"ĠHunter":10779,"ĠAA":10780,"sts":10781,"ĠWisc":10782,"Ġerror":10783,"ĠPS":10784,"Ġ1800":10785,"Ġjack":10786,"Ġtribe":10787,"Ġtruck":10788,"ĠBurns":10789,"ĠBrooks":10790,"Ġvoyage":10791,"ĠWonder":10792,"ĠWithout":10793,"ĠGround":10794,"Ġfollowers":10795,"Ġrecept":10796,"Ġmythology":10797,"Ġkidn":10798,"Ġcards":10799,"isons":10800,"ĠSox":10801,"ĠRegister":10802,"Ġinteraction":10803,"Ġpregnant":10804,"ĠJohann":10805,"Ġpink":10806,"ĠDanny":10807,"Ġconfusion":10808,"Ġjudges":10809,"Ġgene":10810,"ĠRuth":10811,"Ġknee":10812,"ocket":10813,"Ġ240":10814,"Ġresearchers":10815,"Ġrect":10816,"ĠAber":10817,"Ġquarters":10818,"ĠElectric":10819,"usalem":10820,"Ġholiday":10821,"Ġjurisdiction":10822,"ĠSection":10823,"ulus":10824,"ospel":10825,"ĠCavalry":10826,"ĠWalt":10827,"rific":10828,"gie":10829,"sor":10830,"ĠNature":10831,"ĠHeb":10832,"Ġintermedi":10833,"othy":10834,"Ġoperates":10835,"ĠIslamic":10836,"ĠMall":10837,"Ġsuddenly":10838,"Ġcategories":10839,"ĠSide":10840,"ĠPant":10841,"ĠPrest":10842,"ĠUntil":10843,"Ġdiplomatic":10844,"anted":10845,"Ġsugar":10846,"Ġwritings":10847,"Ġcommenting":10848,"Ġsuperst":10849,"Ġopens":10850,"izer":10851,"iously":10852,"Ġ153":10853,"osaurs":10854,"nels":10855,"rob":10856,"ĠFitz":10857,"arks":10858,"ĠActress":10859,"Ġembarked":10860,"ĠTitan":10861,"lon":10862,"Ġtension":10863,"ĠMetropolitan":10864,"Ġphysics":10865,"ĠHope":10866,"Ġadvancing":10867,"Ġsculpture":10868,"Ġhighlighted":10869,"ĠâģĦ":10870,"cha":10871,"Ġextensively":10872,"ĠAirlines":10873,"sburg":10874,"Ġsized":10875,"ĠJerusalem":10876,"master":10877,"Ġfert":10878,"Ġthrown":10879,"Ġbears":10880,"ĠGang":10881,"oded":10882,"quest":10883,"Ġassum":10884,"Ġsimilarities":10885,"Ġprinciple":10886,"ĠâĤ¹":10887,"ĠWisconsin":10888,"amount":10889,"Ġgaining":10890,"imp":10891,"Ġages":10892,"Ġstudying":10893,"lington":10894,"ĠBoeing":10895,"ĠJustin":10896,"Ġchallenges":10897,"enos":10898,"Ġmud":10899,"ĠBible":10900,"ĠAbu":10901,"NC":10902,"Ġtooth":10903,"urst":10904,"Ġmanif":10905,"ĠExecutive":10906,"ĠTrade":10907,"Ġdrown":10908,"Ġgardens":10909,"ĠEdition":10910,"Ġlifetime":10911,"ĠKid":10912,"ĠStart":10913,"ĠEnv":10914,"Ġequally":10915,"Ġsentenced":10916,"Ġstatements":10917,"ĠMeth":10918,"Ġknocked":10919,"ĠLegisl":10920,"ĠTyphoon":10921,"Ġinfrastructure":10922,"Ġorange":10923,"Ġfee":10924,"Ġconstitu":10925,"Ġgift":10926,"Ġrivals":10927,"Ġlocally":10928,"ĠBarnes":10929,"ĠSchum":10930,"Ġeducated":10931,"Ġuniversal":10932,"Ġdisturbance":10933,"Ġdivorce":10934,"ĠCrus":10935,"pine":10936,"thodox":10937,"ÃŃn":10938,"edia":10939,"ĠBased":10940,"Ġpredators":10941,"ĠMind":10942,"Ġtraditionally":10943,"Ġdealing":10944,"Ġboundaries":10945,"osph":10946,"Ġvariation":10947,"ĠGrade":10948,"Ġpriest":10949,"Ġties":10950,"chi":10951,"ĠNas":10952,"ĠSean":10953,"Ġgh":10954,"Ġsword":10955,"ĠIndependence":10956,"Ġoverlook":10957,"ancellor":10958,"atched":10959,"ĠMiles":10960,"Ġdocumented":10961,"ĠSud":10962,"Ġexplaining":10963,"Ġempty":10964,"ĠTrad":10965,"Ġresolved":10966,"ĠBaron":10967,"ĠMontgom":10968,"ĠSaturn":10969,"ĠMontgomery":10970,"ĠBud":10971,"ĠUC":10972,"Ġ1888":10973,"ĠAttorney":10974,"Ġstretch":10975,"Ġreceives":10976,"ĠPatri":10977,"ĠRogers":10978,"Ġrings":10979,"Ġspawn":10980,"phan":10981,"ĠLeaf":10982,"ĠCentury":10983,"Ġvillain":10984,"Ġscre":10985,"Ġenabled":10986,"Ġsettlements":10987,"ni":10988,"piece":10989,"ĠControl":10990,"ulsion":10991,"Ġrecruited":10992,"aple":10993,"Ġsupern":10994,"ĠScots":10995,"Ġdiscontin":10996,"Ġgarnered":10997,"Ġtape":10998,"Ġforb":10999,"unning":11000,"Ġ1885":11001,"ĠMacArthur":11002,"Ġconsiderably":11003,"ĠTurkey":11004,"Ġtravelling":11005,"Ġurg":11006,"ĠTu":11007,"ĠSyn":11008,"Ġnaming":11009,"Ġexplore":11010,"Ġcommercially":11011,"Ġbenefits":11012,"Ġcry":11013,"ĠCemetery":11014,"Ġhelps":11015,"Ġtickets":11016,"Ġlift":11017,"Ġstrand":11018,"ĠFact":11019,"ometric":11020,"Ġhostile":11021,"backs":11022,"Ġrescued":11023,"ĠWes":11024,"Ġseas":11025,"Ġsmoke":11026,"Ġoptions":11027,"ĠIcel":11028,"Ġcrashed":11029,"ĠÏ":11030,"Ġsubstitute":11031,"Ġashore":11032,"ĠWinn":11033,"Ġinvolves":11034,"Ġweakening":11035,"ĠToy":11036,"rien":11037,"Ġcliff":11038,"ĠLev":11039,"ĠChristians":11040,"Ġflex":11041,"ĠSherman":11042,"ĠPul":11043,"Ġdisorder":11044,"Ġbatted":11045,"Ġdimin":11046,"Ġguy":11047,"Ġtasked":11048,"Ġproteins":11049,"cut":11050,"ĠAges":11051,"ĠBert":11052,"Ġconcerning":11053,"wald":11054,"Ġdying":11055,"Ġspar":11056,"Ġhoused":11057,"ĠMovie":11058,"Ġescorted":11059,"ĠPierre":11060,"uters":11061,"rift":11062,"rene":11063,"Ġdoors":11064,"Ġdetect":11065,"ĠCP":11066,"Ġassert":11067,"ĠMidd":11068,"hill":11069,"Ġstyl":11070,"lights":11071,"agers":11072,"ovak":11073,"Ġdepicts":11074,"ellar":11075,"Ġepic":11076,"ĠBeh":11077,"ĠFlore":11078,"zing":11079,"Ġinning":11080,"Ġvig":11081,"ĠSpider":11082,"anne":11083,"Ġcircular":11084,"Ġelaborate":11085,"Ġ112":11086,"Ġinnoc":11087,"Ġpursuit":11088,"ĠBaltic":11089,"Ġborrow":11090,"Ġvolunteers":11091,"Ġconcurrent":11092,"ĠIceland":11093,"ĠCer":11094,"Ġgods":11095,"ĠJudge":11096,"sa":11097,"ĠAren":11098,"ĠKrist":11099,"gged":11100,"Ġdinner":11101,"Ġimprisoned":11102,"Ġinhib":11103,"ĠFlow":11104,"ĠUnd":11105,"Ã©n":11106,"ĠManagement":11107,"ÉĻ":11108,"Ġtel":11109,"Ġreass":11110,"ĠCe":11111,"Ġnut":11112,"ĠFish":11113,"ĠFern":11114,"ĠThames":11115,"Ġauthorized":11116,"Ġcollections":11117,"ĠRomney":11118,"Ġwarships":11119,"olar":11120,"ĠNS":11121,"ĠNeb":11122,"ĠRef":11123,"Ġeditions":11124,"Ġcompetitions":11125,"Ġconflicts":11126,"Ġteammate":11127,"ĠTourn":11128,"Ġpursued":11129,"ĠFil":11130,"ĠHearts":11131,"ĠAthens":11132,"Ġ145":11133,"Ġtempo":11134,"Ġ1865":11135,"ÃŃa":11136,"ĠBarbara":11137,"Ġpill":11138,"Ġrevival":11139,"lane":11140,"ĠStein":11141,"Ġfra":11142,"Ġliver":11143,"Ġramp":11144,"ardo":11145,"Ġeventual":11146,"Ġfavourite":11147,"kh":11148,"aco":11149,"Ġpoliticians":11150,"Ġ978":11151,"uction":11152,"ourag":11153,"ĠReagan":11154,"ĠEvil":11155,"Ġharbour":11156,"HS":11157,"tains":11158,"Ġbeliefs":11159,"Ġvirtually":11160,"ĠCode":11161,"ĠCrow":11162,"ĠBask":11163,"Ġopposing":11164,"Ġdrain":11165,"ĠRegional":11166,"ĠMang":11167,"Ġconj":11168,"ĠComedy":11169,"Ġscreenplay":11170,"Ġchemistry":11171,"Ġurged":11172,"ĠNATO":11173,"Ġ159":11174,"Ġmanufacturing":11175,"ĠAgainst":11176,"Ġrenewed":11177,"Ġcam":11178,"ĠBranch":11179,"ĠHunt":11180,"ĠPas":11181,"Ġabroad":11182,"ĠZone":11183,"Ġhandling":11184,"Ġveteran":11185,"ĠRepresentatives":11186,"Ġchase":11187,"Ġcensus":11188,"ĠNancy":11189,"Ġmixture":11190,"Ġcable":11191,"ĠFight":11192,"Ġportrait":11193,"Ġvelocity":11194,"Ġstones":11195,"Ġleaf":11196,"Ġunve":11197,"Ġ117":11198,"cliff":11199,"Ġexamination":11200,"Ġsuspected":11201,"Ġuniversities":11202,"ao":11203,"ĠSonic":11204,"ĠAny":11205,"Ġmedals":11206,"eling":11207,"Ġstolen":11208,"Ġparticipants":11209,"Ġcongress":11210,"isition":11211,"Ġrushing":11212,"ublin":11213,"Ġverte":11214,"Ġpromise":11215,"gow":11216,"Ġlaps":11217,"ĠFace":11218,"Ġspur":11219,"ĠReport":11220,"ĠTribune":11221,"onation":11222,"Ġtrailer":11223,"Ġcow":11224,"roe":11225,"izz":11226,"arest":11227,"Ġcolours":11228,"ĠNova":11229,"Ġpossess":11230,"Ġpromoting":11231,"Ġrendered":11232,"Ġremembered":11233,"Ġcattle":11234,"anim":11235,"Ġthereby":11236,"Ġorganisms":11237,"ando":11238,"ridor":11239,"Ġsharks":11240,"Ġinherited":11241,"mo":11242,"inery":11243,"ĠTru":11244,"ĠChad":11245,"Ġpitcher":11246,"Ġtaste":11247,"Ġapply":11248,"Ġinterven":11249,"ĠSaf":11250,"Ġcomics":11251,"ĠNewcastle":11252,"ĠPortugal":11253,"Ġsor":11254,"itic":11255,"ĠInvest":11256,"Ġcapturing":11257,"ĠErnest":11258,"point":11259,"ĠGran":11260,"ĠBright":11261,"otion":11262,"Ġtrapped":11263,"Ġ450":11264,"Ġdecreased":11265,"Ġloud":11266,"ĠDraft":11267,"Ġprox":11268,"ocal":11269,"Ġdecay":11270,"Ġpositively":11271,"Ġ114":11272,"Ġtracked":11273,"Ġcostume":11274,"Ġbombardment":11275,"Ġtissue":11276,"Ġ118":11277,"ĠConstantinople":11278,"Ġvital":11279,"Ġhopes":11280,"Ġcompositions":11281,"Ġaccidentally":11282,"Ġinhab":11283,"ĠHas":11284,"oba":11285,"Ġrand":11286,"Ġinvaded":11287,"Ġcelebration":11288,"ĠWed":11289,"ĠGlas":11290,"ĠMagic":11291,"occ":11292,"Ġprototype":11293,"Ġblend":11294,"Ġsav":11295,"ilda":11296,"ĠCharlotte":11297,"Ġjuven":11298,"isan":11299,"ĠPersonnel":11300,"Ġoccasional":11301,"mont":11302,"Ġwarned":11303,"Ġmaps":11304,"ĠShah":11305,"Ġtornado":11306,"Ġib":11307,"ĠMi":11308,"quer":11309,"Ġlinks":11310,"erts":11311,"ĠPete":11312,"ĠHeavyweight":11313,"ĠMerced":11314,"Ġhoping":11315,"ĠJosÃ©":11316,"limin":11317,"Ġrains":11318,"Ġ1864":11319,"ĠLiberty":11320,"Ġvariations":11321,"Ġanticipated":11322,"idia":11323,"ĠJoint":11324,"Ġupcoming":11325,"ĠYouth":11326,"icking":11327,"ĠChapel":11328,"ĠLaboratory":11329,"ĠAffairs":11330,"ĠEnvironment":11331,"ampton":11332,"Ġboyfriend":11333,"ovic":11334,"rible":11335,"ĠCornwall":11336,"ĠSaw":11337,"ĠOthers":11338,"áº":11339,"ĠAL":11340,"Ġbomber":11341,"ĠCryst":11342,"Ġlaugh":11343,"ĠVoice":11344,"Ġscandal":11345,"Ġseparation":11346,"ĠAgu":11347,"Ġbatteries":11348,"bing":11349,"Ġdust":11350,"ĠKon":11351,"Ġdozen":11352,"Ġprovisions":11353,"Ġmarking":11354,"Ġgenu":11355,"Ġlaboratory":11356,"vo":11357,"Ġsinking":11358,"Ġrever":11359,"Ġimpressive":11360,"Ġaccessible":11361,"ĠFreedom":11362,"colm":11363,"ĠCinem":11364,"eps":11365,"Ġguests":11366,"Ġhorizont":11367,"fly":11368,"igious":11369,"ulum":11370,"auc":11371,"Ġfires":11372,"ĠSic":11373,"ĠBeth":11374,"ĠRO":11375,"rior":11376,"Ġbiological":11377,"Ġeasier":11378,"Ġnose":11379,"icken":11380,"ĠFilming":11381,"Ġdependent":11382,"Ġnickname":11383,"Î±":11384,"ĠGon":11385,"DI":11386,"hou":11387,"restrial":11388,"ĠHom":11389,"Ġsupports":11390,"Ġpolitician":11391,"agles":11392,"ĠVo":11393,"Ġparliamentary":11394,"ĠFriends":11395,"Ġrandom":11396,"Î¿":11397,"ĠChester":11398,"Ġindigenous":11399,"Ġthreats":11400,"Ġavoided":11401,"ER":11402,"orf":11403,"ĠTerm":11404,"ught":11405,"Ġafford":11406,"Ġconsumption":11407,"Ġlighter":11408,"ĠBapt":11409,"ĠMarines":11410,"ĠLeices":11411,"ĠArmenian":11412,"held":11413,"Ġtherm":11414,"Ġfed":11415,"rogen":11416,"artime":11417,"Ġhandle":11418,"enberg":11419,"Ġprogressed":11420,"ĠDuch":11421,"Ġformula":11422,"Ġeld":11423,"ĠKenneth":11424,"ĠCand":11425,"Ġdeputy":11426,"atsu":11427,"Ġhyper":11428,"Ġbiography":11429,"Ġrestrictions":11430,"Ġfier":11431,"ĠCase":11432,"ĠMembers":11433,"ĠDJ":11434,"ptic":11435,"Ġvolcanic":11436,"Ġcorporate":11437,"var":11438,"ĠCinc":11439,"ĠVick":11440,"ailing":11441,"ĠMalcolm":11442,"ĠProtestant":11443,"ĠOscar":11444,"amics":11445,"orted":11446,"Ġnep":11447,"Ġtruly":11448,"ĠÄĲ":11449,"Ġcash":11450,"ĠTree":11451,"ĠBark":11452,"ĠLP":11453,"Ġimposed":11454,"ĠXX":11455,"ĠMeteorological":11456,"Ġtoxic":11457,"ĠSkin":11458,"amine":11459,"ĠBears":11460,"ĠPeng":11461,"ĠThr":11462,"Ġtrunk":11463,"ĠEnergy":11464,"Ġmixing":11465,"gÃ©":11466,"Ġda":11467,"ĠMult":11468,"ĠLower":11469,"Ġrugby":11470,"Ġparticles":11471,"Ġoccurring":11472,"ĠChamberlain":11473,"ĠPedro":11474,"ĠOrchestra":11475,"Ġfles":11476,"lem":11477,"agg":11478,"Ġusage":11479,"ĠBoulevard":11480,"Ġmurdered":11481,"ĠCena":11482,"Ġproduces":11483,"ĠAntar":11484,"ĠIsaac":11485,"Ġnoticed":11486,"Ġevacuation":11487,"Ġlicense":11488,"ielder":11489,"etta":11490,"Ġcustomers":11491,"changed":11492,"Ġdreadn":11493,"Ġãĥ":11494,"Ġwound":11495,"Ġine":11496,"Ġpor":11497,"Ġcontracts":11498,"Ġdefenders":11499,"ĠMV":11500,"ĠDublin":11501,"ĠChair":11502,"acht":11503,"Ġacre":11504,"racks":11505,"heimer":11506,"ĠERA":11507,"alling":11508,"Ġexile":11509,"Ġmetric":11510,"oples":11511,"ĠThan":11512,"ded":11513,"osy":11514,"iah":11515,"Ġ1862":11516,"Ġcathedral":11517,"ĠTake":11518,"ĠSex":11519,"ĠZero":11520,"Ġ131":11521,"Ġchoir":11522,"Ġlawsuit":11523,"Ġabb":11524,"Ġrelation":11525,"ĠAthletic":11526,"Ġprest":11527,"Ġwake":11528,"ĠAction":11529,"ĠBreak":11530,"Ġ107":11531,"ĠRoom":11532,"ĠCareer":11533,"ĠCyclone":11534,"Ġspeculation":11535,"Ġkiller":11536,"ĠGuild":11537,"Ġordinary":11538,"Ġtimber":11539,"Ġintellectual":11540,"Ġnephew":11541,"Ġdebris":11542,"Ġengineers":11543,"Ġhence":11544,"Ġplates":11545,"ĠSlav":11546,"Ġangry":11547,"ju":11548,"ĠBradley":11549,"Ġdepicting":11550,"ĠGabri":11551,"Ġdisappointed":11552,"ĠWatch":11553,"ĠAltern":11554,"ĠEddie":11555,"Ġcu":11556,"Ġaside":11557,"Ġeastward":11558,"bach":11559,"Ġfab":11560,"ĠGlee":11561,"Ġdevelopments":11562,"Ġthreatening":11563,"Ġkilog":11564,"Ġignored":11565,"Ġconquest":11566,"ĠPel":11567,"emble":11568,"Ġindustries":11569,"ĠContinental":11570,"Ġencounters":11571,"Ġdecrease":11572,"ĠTournament":11573,"hl":11574,"Ġlyrical":11575,"overed":11576,"Ġterritorial":11577,"ĠArchbishop":11578,"Ġthrowing":11579,"Ġcomplicated":11580,"for":11581,"ĠSerbia":11582,"Ġward":11583,"Ġchrom":11584,"ĠLuft":11585,"Ġmechanism":11586,"Ġundertaken":11587,"Ġrevolutionary":11588,"Ġthunderstorm":11589,"Ġmit":11590,"Ġune":11591,"ĠAlberta":11592,"ĠCincinn":11593,"Ġstern":11594,"Ġbreast":11595,"umbered":11596,"Ġvicinity":11597,"alg":11598,"Ġmounts":11599,"ĠFuture":11600,"ĠOrd":11601,"Ġconvicted":11602,"Ġelite":11603,"Ġstrikes":11604,"Ġhumanity":11605,"Ġtouchdowns":11606,"ĠMann":11607,"osion":11608,"Ġremin":11609,"Ġ157":11610,"Ġconfident":11611,"ĠTommy":11612,"Ġchampionships":11613,"Ġconversation":11614,"ĠSpringfield":11615,"Ġå":11616,"itol":11617,"Ġmos":11618,"ieg":11619,"ĠMicha":11620,"ĠMetro":11621,"Ġexhibit":11622,"icing":11623,"entieth":11624,"ĠVilla":11625,"ĠCollection":11626,"Ġ220":11627,"Ġfocuses":11628,"onial":11629,"Ġpenn":11630,"olia":11631,"ĠGates":11632,"Ġunt":11633,"Ġmammals":11634,"Ġinaugural":11635,"Ġcontacted":11636,"ĠJoan":11637,"Ġentert":11638,"Ġlacking":11639,"ĠTint":11640,"Ġgif":11641,"Ġrealistic":11642,"Ġsuspension":11643,"Ġpreserve":11644,"Ġboost":11645,"Ġfarmers":11646,"iture":11647,"itime":11648,"ĠPlace":11649,"ĠGibral":11650,"Ġarose":11651,"encer":11652,"ĠVeg":11653,"ĠShep":11654,"Ġconstantly":11655,"Ġfacil":11656,"ĠMuslims":11657,"etary":11658,"Ġmetre":11659,"Ġhelicopter":11660,"ĠPros":11661,"Ġstim":11662,"iked":11663,"Ġposts":11664,"uka":11665,"ĠStudies":11666,"Ġdiamond":11667,"ĠTir":11668,"Ġinfection":11669,"ĠYugoslavia":11670,"Ġtools":11671,"Ġpatri":11672,"Ġ1840":11673,"ĠMarshal":11674,"bel":11675,"Ġinfer":11676,"ocol":11677,"ellers":11678,"Ġvoters":11679,"ĠCanu":11680,"ĠChet":11681,"omed":11682,"ĠKin":11683,"Ġfeathers":11684,"Ġcollaborated":11685,"Ġpredominantly":11686,"ĠMalta":11687,"liminary":11688,"ĠUk":11689,"Ġasserted":11690,"Ġphoto":11691,"ĠFriedrich":11692,"Ġthorough":11693,"ĠWagner":11694,"asp":11695,"Ġthro":11696,"ĠJake":11697,"Ġdesper":11698,"ĠShiva":11699,"iga":11700,"ĠPay":11701,"ĠLS":11702,"ortion":11703,"ĠGibraltar":11704,"ĠMaine":11705,"ĠRear":11706,"rolled":11707,"Ġpatient":11708,"Ġabsorbed":11709,"ĠHood":11710,"ĠKaz":11711,"rank":11712,"Ġcentered":11713,"enz":11714,"Ġreleasing":11715,"Ġcastles":11716,"ischer":11717,"oirs":11718,"quiry":11719,"Ġholes":11720,"ĠHull":11721,"Ġuser":11722,"ĠReed":11723,"ĠRobin":11724,"Ġtune":11725,"Ġmad":11726,"ĠFly":11727,"Ġgrows":11728,"Ġremoving":11729,"Ġpeninsula":11730,"ĠWaters":11731,"ĠCincinnati":11732,"ĠComics":11733,"ĠParks":11734,"ĠAncient":11735,"ĠTaiwan":11736,"ĠRound":11737,"ework":11738,"ubble":11739,"Ġillustrated":11740,"Ġpig":11741,"ĠAngelou":11742,"Ġapolog":11743,"Ġexplanation":11744,"Hg":11745,"LA":11746,"Ġknows":11747,"Ġspeeds":11748,"Ġsustain":11749,"ĠDud":11750,"auge":11751,"Ġcompiled":11752,"assy":11753,"Ġresid":11754,"Ġ126":11755,"Ġ132":11756,"Ġantib":11757,"WA":11758,"ĠMaced":11759,"Ġretrie":11760,"ĠHispan":11761,"regular":11762,"Ġbreeds":11763,"ĠNormandy":11764,"Ġcanceled":11765,"Ġisn":11766,"Ġsituations":11767,"Ġbowl":11768,"ĠCort":11769,"ennial":11770,"Ġindependently":11771,"Ġrelieved":11772,"Ġenorm":11773,"Ġencom":11774,"ĠLords":11775,"Ġsheep":11776,"ahl":11777,"Ġ1887":11778,"Ġlib":11779,"ĠBrid":11780,"Ġroadway":11781,"ĠVegas":11782,"Ġlover":11783,"ritic":11784,"Ġ119":11785,"asury":11786,"ĠShield":11787,"Ġpleased":11788,"ĠPokÃ©":11789,"ĠAlliance":11790,"ĠAfghanistan":11791,"ĠKill":11792,"Ġoffshore":11793,"ĠTwitter":11794,"enburg":11795,"Ġclergy":11796,"Ġmarched":11797,"ĠMadison":11798,"ĠOlivia":11799,"Ġlayers":11800,"rels":11801,"ĠVIII":11802,"Ã´":11803,"Ġaest":11804,"ĠEdmund":11805,"Ġ1863":11806,"Ġlocomotives":11807,"music":11808,"ĠEsc":11809,"Ġoutstanding":11810,"Ġviewing":11811,"Ġprosper":11812,"hall":11813,"oi":11814,"ulates":11815,"Ġcouldn":11816,"Ġ1886":11817,"ĠConservative":11818,"Ġpaying":11819,"ĠSad":11820,"ĠRush":11821,"Ġarena":11822,"Ġblast":11823,"Ġgenres":11824,"ĠBurke":11825,"oom":11826,"uber":11827,"icular":11828,"ĠEld":11829,"Ġexpanding":11830,"ĠTechnology":11831,"Ġclosure":11832,"Ġvarying":11833,"£o":11834,"ĠLud":11835,"Ġbackst":11836,"ringe":11837,"ĠGregory":11838,"gus":11839,"Ġmild":11840,"Ġbutter":11841,"overty":11842,"ĠLeeds":11843,"found":11844,"Ġmask":11845,"Ġcolored":11846,"instein":11847,"Ġsentiment":11848,"Ġdisappeared":11849,"ĠFormer":11850,"umberland":11851,"ĠSchumacher":11852,"hart":11853,"ĠBrooklyn":11854,"Ġbapt":11855,"avan":11856,"izard":11857,"ĠRevolutionary":11858,"bu":11859,"Ġperc":11860,"Ġregulations":11861,"Ġreporting":11862,"Ġsuggestion":11863,"Ġfant":11864,"ĠJNA":11865,"Ġatop":11866,"Ġspir":11867,"ribution":11868,"Ġcelebrate":11869,"ĠJulian":11870,"gary":11871,"ĠSor":11872,"Ġgrid":11873,"ĠOrton":11874,"Ġarmoured":11875,"ĠMercury":11876,"ĠCond":11877,"imony":11878,"aneous":11879,"ĠSerge":11880,"Ġdropping":11881,"Ġasc":11882,"issioned":11883,"onnie":11884,"Ġfungus":11885,"ĠCou":11886,"ĠCry":11887,"Ġconspiracy":11888,"Ġinducted":11889,"ĠËĪ":11890,"ĠTalk":11891,"ĠSoph":11892,"ĠBurg":11893,"ĠHubb":11894,"ipher":11895,"Ġfaculty":11896,"ĠPrinceton":11897,"ĠCut":11898,"acular":11899,"ĠDennis":11900,"ishn":11901,"Ġanthem":11902,"Ġattraction":11903,"ĠBrowns":11904,"ĠMcKinley":11905,"ĠAub":11906,"ĠChem":11907,"ĠHus":11908,"ĠNation":11909,"ĠKra":11910,"Ġreporter":11911,"ĠHelen":11912,"Ġromance":11913,"zes":11914,"ĠRus":11915,"Ġflour":11916,"Ġnevertheless":11917,"Ġcompanion":11918,"Ġeagle":11919,"Ġconced":11920,"Ġwitnesses":11921,"Ġblamed":11922,"gett":11923,"ĠTigers":11924,"feld":11925,"Ġtent":11926,"leted":11927,"ĠChang":11928,"Ġsubmer":11929,"Ġswept":11930,"ĠÃī":11931,"Ġoxid":11932,"ĠOrganization":11933,"Ġaf":11934,"ĠNathan":11935,"Ġorganic":11936,"Ġfundamental":11937,"ĠMLB":11938,"Ġpseud":11939,"Ġremote":11940,"ĠLeo":11941,"Ġrepris":11942,"Ġpublicity":11943,"Ġstored":11944,"odium":11945,"Ġpositioned":11946,"ĠHistorical":11947,"Ġsubmarines":11948,"flow":11949,"inated":11950,"Ġwhatever":11951,"ĠStal":11952,"Ġparking":11953,"Ġaqu":11954,"Ġsulf":11955,"ĠMut":11956,"ĠVern":11957,"ĠMusical":11958,"ĠCoal":11959,"ĠGhost":11960,"bie":11961,"ĠEC":11962,"Ġretreated":11963,"Ġannex":11964,"Ġmail":11965,"omon":11966,"Ġstability":11967,"Ġverses":11968,"ĠBarcel":11969,"ĠMonth":11970,"Ġlung":11971,"Ġ1884":11972,"Ġfortifications":11973,"Ġfract":11974,"ĠLamb":11975,"usters":11976,"Ġprogressive":11977,"Ġfocusing":11978,"Ġtargeted":11979,"Ġshelter":11980,"Ġcondemned":11981,"pin":11982,"hend":11983,"ĠinHg":11984,"ĠHubbard":11985,"Ġnoise":11986,"ĠSteam":11987,"ĠNASA":11988,"Ġgentle":11989,"Ġswing":11990,"ĠGlasgow":11991,"eness":11992,"ĠFather":11993,"Ġmonit":11994,"Ġirregular":11995,"Ġdrunk":11996,"lett":11997,"Ġflown":11998,"Ġcorresponding":11999,"ĠCanucks":12000,"rity":12001,"yan":12002,"Ġ103":12003,"eda":12004,"ĠTests":12005,"Ġrecruit":12006,"Ġcurve":12007,"Ġresignation":12008,"Ġdisbanded":12009,"ĠIsle":12010,"ĠOpera":12011,"ĠDevil":12012,"Ġfossils":12013,"ĠPolitical":12014,"DA":12015,"cell":12016,"ĠPick":12017,"ĠNass":12018,"Ġrab":12019,"ĠIsab":12020,"Ġdetected":12021,"ĠNad":12022,"qual":12023,"ĠHey":12024,"Ġconfused":12025,"Ġconvince":12026,"Ġcruise":12027,"Ġwinners":12028,"Ġencourag":12029,"Ġmelod":12030,"Ġtorpedoes":12031,"Ġmagnetic":12032,"Ġtelephone":12033,"Ġchallenging":12034,"ĠSA":12035,"areness":12036,"Ġpreceding":12037,"ĠMak":12038,"Ġroster":12039,"ĠSmack":12040,"Ġrebounds":12041,"ĠHolland":12042,"arded":12043,"Ġcha":12044,"Ġmachines":12045,"Ġmentions":12046,"ËĲ":12047,"Ġquoted":12048,"Ġbrings":12049,"ĠSolar":12050,"ĠPhillies":12051,"ĠFifth":12052,"Ġrice":12053,"ĠInside":12054,"ĠMontana":12055,"Ġferry":12056,"Ġbore":12057,"ĠInsp":12058,"Ġscrap":12059,"Ġregiments":12060,"Ġstudios":12061,"Ġinsurance":12062,"Ġworse":12063,"Ġterminal":12064,"Ġcalculated":12065,"Ġfault":12066,"elin":12067,"ĠTheodore":12068,"Ġdirecting":12069,"ĠHerbert":12070,"Ġtourist":12071,"Ġconcepts":12072,"Ġsolely":12073,"Ġdiversity":12074,"ĠRI":12075,"Ġtriumph":12076,"Ġcreature":12077,"ĠBCE":12078,"auded":12079,"ĠCeltic":12080,"ĠTintin":12081,"iki":12082,"ĠMillennium":12083,"ĠKil":12084,"Ġthanks":12085,"roscop":12086,"Ġdarker":12087,"ĠMorning":12088,"ishops":12089,"Ġrotation":12090,"ĠWestminster":12091,"Ġjudicial":12092,"isk":12093,"Ġnice":12094,"igation":12095,"ĠStrong":12096,"ĠSeb":12097,"Ġ1877":12098,"phal":12099,"Ġhistorically":12100,"onso":12101,"Ġhide":12102,"Ġ138":12103,"Ġfavored":12104,"ĠAdventure":12105,"atty":12106,"ĠCEO":12107,"Ġtap":12108,"Ġfo":12109,"ĠNam":12110,"avian":12111,"Ġexamined":12112,"ĠEpis":12113,"Ġscholarship":12114,"ĠMercedes":12115,"ĠWel":12116,"Ġjersey":12117,"overy":12118,"hentic":12119,"ourable":12120,"inter":12121,"ĠRav":12122,"ĠBrah":12123,"ĠDenver":12124,"Ġmyself":12125,"ĠPoe":12126,"Ġjew":12127,"Ġ1876":12128,"Ġzero":12129,"Ġgear":12130,"ĠYard":12131,"Ġ122":12132,"ĠAustro":12133,"Ġconfig":12134,"ĠBarn":12135,"ĠBasketball":12136,"ĠMig":12137,"umi":12138,"ewise":12139,"iors":12140,"Ġcotton":12141,"ĠAthen":12142,"Ġ230":12143,"ĠExpl":12144,"Ġbattlefield":12145,"ĠCox":12146,"ampa":12147,"Ġ116":12148,"ĠAlbany":12149,"Ġprompting":12150,"Ġsteadily":12151,"ht":12152,"Ġwartime":12153,"ĠGlou":12154,"Ġballs":12155,"Ġacclaimed":12156,"Ġreconstruction":12157,"sis":12158,"ĠBour":12159,"Ġsharing":12160,"Ġtrio":12161,"Ġmessages":12162,"nda":12163,"ĠOcc":12164,"Ġrounded":12165,"Ġwalked":12166,"ĠTheater":12167,"ĠPercy":12168,"Ġmeasuring":12169,"ĠSalv":12170,"ĠRonald":12171,"Ġmonastery":12172,"ĠSri":12173,"lude":12174,"Ġ129":12175,"Ġspacecraft":12176,"Ġghost":12177,"Ġelevated":12178,"ĠGothic":12179,"Ġmasc":12180,"works":12181,"ĠAdditional":12182,"ĠBulgarian":12183,"Ġscreens":12184,"ĠCany":12185,"ĠLed":12186,"Ġ134":12187,"Ġtroop":12188,"Ġconnects":12189,"Ġlinear":12190,"Ġeligible":12191,"acer":12192,"ĠHok":12193,"ĠRivers":12194,"Ġagencies":12195,"Ġguards":12196,"Ġagrees":12197,"Ã¶r":12198,"atisf":12199,"Ġflower":12200,"ĠCurrent":12201,"Ġgusts":12202,"Ġoct":12203,"ĠBris":12204,"ĠVerm":12205,"Ġrouting":12206,"Ġtrig":12207,"Ġdecisive":12208,"Ġthemed":12209,"Ġdistinction":12210,"Ġrefuses":12211,"Ġcurved":12212,"Ġpostp":12213,"Ġcommitment":12214,"rians":12215,"Ġpresents":12216,"ĠOttawa":12217,"ĠCarlos":12218,"á»ĩ":12219,"Music":12220,"lined":12221,"aton":12222,"arians":12223,"Ġexterior":12224,"Ġradius":12225,"Ġmotif":12226,"Ġaccomplished":12227,"ĠNevada":12228,"opard":12229,"aku":12230,"Ġkids":12231,"ĠChuck":12232,"Ġopined":12233,"Ġclouds":12234,"vor":12235,"Ġcemetery":12236,"Ġstall":12237,"izers":12238,"Ġarguments":12239,"Ġconducting":12240,"Ġrevenge":12241,"cont":12242,"Ġcosm":12243,"Ġtough":12244,"omical":12245,"ĠBerm":12246,"ĠPack":12247,"Ġconvey":12248,"Ġcomed":12249,"Ġincidents":12250,"Ġhosp":12251,"ĠSquad":12252,"Ġposter":12253,"Ġphysically":12254,"Ġwalks":12255,"ĠPokÃ©mon":12256,"atar":12257,"Ġecho":12258,"ĠRosen":12259,"ĠDuc":12260,"ĠAbra":12261,"ĠTerritory":12262,"Ġproclaimed":12263,"ĠBarcelona":12264,"eta":12265,"olan":12266,"Ġcreatures":12267,"Ġloose":12268,"Ġkilometers":12269,"ĠCaes":12270,"ĠMichaels":12271,"istical":12272,"abad":12273,"ĠMarl":12274,"aults":12275,"Ġparticipating":12276,"Ġconsequence":12277,"Ġintegrated":12278,"Ġritual":12279,"Ġencompass":12280,"ĠFun":12281,"iffer":12282,"Ġspell":12283,"Ġ1830":12284,"unge":12285,"Ġindirect":12286,"ĠArc":12287,"Ġfinest":12288,"ĠMega":12289,"Ġrebel":12290,"sch":12291,"Ġcentimet":12292,"Ġcanon":12293,"ettes":12294,"Ġwidth":12295,"Ġ1875":12296,"ĠMilan":12297,"ĠCardinals":12298,"Ġvenues":12299,"Ġintend":12300,"ĠWis":12301,"Ġscout":12302,"ĠEnix":12303,"Ġrunner":12304,"Ġtouc":12305,"Ġchann":12306,"reeks":12307,"ĠMetac":12308,"Ġtheaters":12309,"itars":12310,"ĠHi":12311,"Ġcomplimented":12312,"Ġmarg":12313,"Ġdemographic":12314,"Ġlesser":12315,"Ġproperly":12316,"Ġceremonies":12317,"ĠTas":12318,"Ġlakes":12319,"aba":12320,"Ġspots":12321,"Ġunh":12322,"Ġenhanced":12323,"Ġreminisc":12324,"ighed":12325,"Ġprince":12326,"anka":12327,"Ġcontribute":12328,"ĠChurchill":12329,"Ġextends":12330,"Ġborough":12331,"ĠDrake":12332,"Ġdeliberately":12333,"Ġmansion":12334,"ubs":12335,"ĠColin":12336,"ĠParkway":12337,"Ġbowled":12338,"arthy":12339,"Ġtelesc":12340,"ĠFoster":12341,"season":12342,"Ġcontrad":12343,"Ġpeoples":12344,"ĠParaly":12345,"ĠRaymond":12346,"Ġmartial":12347,"bi":12348,"Ġgram":12349,"ĠRBI":12350,"Ġinsuff":12351,"Ġvaries":12352,"Ġ1883":12353,"ĠRomanian":12354,"ĠArchae":12355,"Ġpreparations":12356,"rium":12357,"ĠHein":12358,"Ġremake":12359,"Ġheavier":12360,"ĠBod":12361,"Ġsouthwestern":12362,"Ä«":12363,"asia":12364,"Ġharsh":12365,"ĠWings":12366,"Ġweakness":12367,"Ġinstructions":12368,"Ġintermediate":12369,"Ġministers":12370,"ĠEmma":12371,"ĠOperations":12372,"ĠManuel":12373,"Ġonwards":12374,"ĠComputer":12375,"Ġtransformed":12376,"Down":12377,"Ġpossessed":12378,"Ġ1881":12379,"Ġplayable":12380,"Ġcoaches":12381,"Ġcontinental":12382,"Ġupdated":12383,"Ġprospect":12384,"herent":12385,"Ġhurt":12386,"Ġachievements":12387,"Ġoptim":12388,"lake":12389,"rush":12390,"Ġfru":12391,"ĠRNA":12392,"ĠSpeed":12393,"ĠCircle":12394,"ĠMiddles":12395,"ĠSmackDown":12396,"GM":12397,"ĠVoy":12398,"Ġrook":12399,"ĠShin":12400,"ĠSciences":12401,"ashire":12402,"ĠWeather":12403,"Ġsensitive":12404,"Ġinitiative":12405,"Ġwit":12406,"ĠâĻ":12407,"Ġyd":12408,"Ġairborne":12409,"Ġlogo":12410,"HC":12411,"yc":12412,"inus":12413,"ĠAlam":12414,"Ġoutcome":12415,"Ġrider":12416,"ĠDiamond":12417,"Ġtransmission":12418,"ĠBlair":12419,"ĠBelie":12420,"ĠVenice":12421,"Ġpropaganda":12422,"Ġaided":12423,"ĠTotal":12424,"Ġcritically":12425,"ĠNorthwest":12426,"Ġhomosexual":12427,"Ġbin":12428,"chw":12429,"ĠRichardson":12430,"Ġconsideration":12431,"ĠJamaica":12432,"Ġallied":12433,"Ġvariable":12434,"Ġmoist":12435,"Ġconsciousness":12436,"ĠParalymp":12437,"ĠBass":12438,"ogs":12439,"Ġdisabled":12440,"appa":12441,"ĠPowell":12442,"Ġvegetation":12443,"Ġautobiography":12444,"cht":12445,"ĠUnit":12446,"Ġ1869":12447,"Ġorchestral":12448,"agi":12449,"Ġ151":12450,"ĠCalgary":12451,"Ġtourists":12452,"alties":12453,"ironments":12454,"Ġemerging":12455,"Ġdeposits":12456,"Ġtom":12457,"Ġreh":12458,"assic":12459,"actic":12460,"Ġmonster":12461,"Ġdepiction":12462,"Ġlandmark":12463,"ĠComposition":12464,"Ġestimate":12465,"ĠContem":12466,"ĠDuncan":12467,"Ġexercises":12468,"ĠLancashire":12469,"Ġspite":12470,"Ġ128":12471,"ĠFerdin":12472,"ĠArena":12473,"ĠIb":12474,"Ġunanim":12475,"Ġworker":12476,"ĠBody":12477,"ĠFa":12478,"Ġpunishment":12479,"Ġpermanently":12480,"ĠHenderson":12481,"RS":12482,"core":12483,"arus":12484,"Ġstom":12485,"Ġ1866":12486,"Ġconsistently":12487,"Ġmunicipal":12488,"Ġroutine":12489,"ĠDelta":12490,"ĠFloyd":12491,"Ġnortheastern":12492,"Ġcomprising":12493,"Ġborders":12494,"Ġepit":12495,"Ġpresidency":12496,"Ġlatest":12497,"Ġdoctrine":12498,"Ġascend":12499,"ĠIsles":12500,"Ġamphib":12501,"ĠPsych":12502,"Ġstaged":12503,"Ġpref":12504,"rington":12505,"Ġdamaging":12506,"Ġassassination":12507,"Ġion":12508,"Ġperformers":12509,"atorial":12510,"Ġsummon":12511,"ĠMedic":12512,"Ġmanaging":12513,"Ġachievement":12514,"Ġenvironments":12515,"Ġjournalists":12516,"Ġsearching":12517,"Ġdelegates":12518,"Ġsubtropical":12519,"Ġdock":12520,"ĠAqu":12521,"riages":12522,"ĠXI":12523,"Ġrevealing":12524,"Ġpayment":12525,"Ġsailors":12526,"ĠCu":12527,"ĠCarn":12528,"Ġhonors":12529,"Ġbelonging":12530,"ĠPlanet":12531,"RC":12532,"ĠMills":12533,"Ġcomplement":12534,"Ġwitnessed":12535,"ĠFrances":12536,"ĠBerg":12537,"Ġmysterious":12538,"Ġinput":12539,"ĠConserv":12540,"ĠEllen":12541,"Ġpsychiat":12542,"Ġencourage":12543,"ĠCrawford":12544,"Ġmarsh":12545,"ĠRange":12546,"rip":12547,"ĠCloud":12548,"Ġ750":12549,"ĠUsing":12550,"Ġodd":12551,"Ġarchaeological":12552,"Ġconfer":12553,"Ġseal":12554,"ĠChan":12555,"ĠSprings":12556,"Ġmilk":12557,"Ġpriority":12558,"ĠRodrig":12559,"Ġenlar":12560,"Ġreluctant":12561,"ĠCanyon":12562,"ĠPon":12563,"Ġphilosopher":12564,"Ġphenomenon":12565,"zig":12566,"Ġgates":12567,"Ġsilent":12568,"Ġpreventing":12569,"Brien":12570,"gor":12571,"omys":12572,"ĠDj":12573,"Ġdispatched":12574,"Ġunsuccessfully":12575,"ĠLeicester":12576,"olars":12577,"Ġ124":12578,"arma":12579,"Ġanarch":12580,"iang":12581,"Ġactively":12582,"Ġargue":12583,"Ġventure":12584,"ĠTab":12585,"ido":12586,"ĠVic":12587,"Ġversus":12588,"Ġbelonged":12589,"Ġhypothesis":12590,"Ġmant":12591,"Ġplum":12592,"ĠMarqu":12593,"ĠGrove":12594,"Ġlengths":12595,"Ġcoaching":12596,"ĠVeronica":12597,"Ġswitched":12598,"ĠCrystal":12599,"ĠFood":12600,"ĠTelegraph":12601,"Ġicon":12602,"ĠPalestine":12603,"isations":12604,"Ġpoverty":12605,"ĠTib":12606,"Ġgest":12607,"ĠPra":12608,"Ġstrange":12609,"Ġfinance":12610,"Ġcorruption":12611,"Ġeighteen":12612,"Ġfrigate":12613,"Ġroot":12614,"Ġlistening":12615,"Ġceiling":12616,"Ġdisputed":12617,"Ġawareness":12618,"Ġdistinguish":12619,"Ġexecutives":12620,"ĠTucker":12621,"adows":12622,"ĠMile":12623,"idge":12624,"ĠPunk":12625,"rained":12626,"assed":12627,"Ġscientist":12628,"ĠSH":12629,"Ġintroduce":12630,"Ġ1882":12631,"ijing":12632,"oric":12633,"asi":12634,"ĠMull":12635,"ĠFischer":12636,"Ġvamp":12637,"Ġabst":12638,"Ġdirections":12639,"Ġcontributing":12640,"Ġmechanics":12641,"ĠHeadquarters":12642,"Ġov":12643,"stown":12644,"immer":12645,"Ġshaft":12646,"Ġexploration":12647,"ĠAssist":12648,"Ġ1871":12649,"Ġ1873":12650,"Ġexpectations":12651,"eches":12652,"Ġrational":12653,"ĠAnat":12654,"ĠFilms":12655,"Ġadjust":12656,"Ġhoney":12657,"ĠWhy":12658,"ĠRegion":12659,"Ġprocedure":12660,"Tunes":12661,"lex":12662,"Ġwhales":12663,"Ġmetals":12664,"Ġinternationally":12665,"Ġsib":12666,"ĠCA":12667,"ĠFur":12668,"Ġformations":12669,"Ġcarved":12670,"Ġphosph":12671,"ĠBea":12672,"ĠPlat":12673,"rews":12674,"boat":12675,"ĠKepler":12676,"Ġmolecular":12677,"ĠPly":12678,"ĠFlanders":12679,"usty":12680,"nery":12681,"Ġsurpassed":12682,"Ġnaturally":12683,"rud":12684,"asaki":12685,"Ġmbar":12686,"Ġ1867":12687,"Ġobjectives":12688,"ĠIntellig":12689,"Ġleagues":12690,"Ġsheet":12691,"ĠSeas":12692,"Ġguitars":12693,"Ġadvocated":12694,"Ġimproving":12695,"Ġdimensional":12696,"Ġmystery":12697,"BO":12698,"Ġsaving":12699,"ĠPine":12700,"ĠTruman":12701,"Ġtribut":12702,"ĠUB":12703,"Ġdesired":12704,"Ġprivile":12705,"ĠHass":12706,"Ġaccus":12707,"Ġshipped":12708,"ĠCommons":12709,"ĠTrue":12710,"Ġreop":12711,"ĠHil":12712,"ulture":12713,"Ġsubmerged":12714,"ĠSyl":12715,"Ġunrel":12716,"Ġprocessing":12717,"Ġdiscussing":12718,"Ġabundant":12719,"ĠDudley":12720,"Ãł":12721,"Ġconvert":12722,"istocr":12723,"Ġremind":12724,"Ġrequirement":12725,"Ġoverwhelming":12726,"Ġstaying":12727,"ierra":12728,"Ġeleph":12729,"Ġ1878":12730,"ĠStandard":12731,"Ġcubic":12732,"Ġtasks":12733,"erness":12734,"Ġ137":12735,"Ġtemples":12736,"Ġacceptance":12737,"ĠMasters":12738,"Ġreson":12739,"Ġassociate":12740,"ĠDesert":12741,"Ã¨re":12742,"Ġcrucial":12743,"waffe":12744,"Ġdive":12745,"ouch":12746,"Ġ202":12747,"ogg":12748,"Ġhorsepower":12749,"ĠWatson":12750,"eded":12751,"Ġcro":12752,"amation":12753,"ĠMail":12754,"ĠKy":12755,"ĠVlad":12756,"ĠNewman":12757,"ĠBeijing":12758,"ĠDeputy":12759,"Ġpartners":12760,"angered":12761,"ĠCommerc":12762,"ĠExped":12763,"ĠMalay":12764,"ĠByzant":12765,"ĠAdela":12766,"Ġexplored":12767,"Ġgenes":12768,"ĠMcCarthy":12769,"acking":12770,"Ġestates":12771,"Ġblockade":12772,"Ġcomprised":12773,"Ġpump":12774,"Ġhaz":12775,"ĠRaid":12776,"Ġspeculated":12777,"Ġauthentic":12778,"Ġkeyboard":12779,"Ġrefugees":12780,"Ġnervous":12781,"Ġcameo":12782,"Ġcomposers":12783,"Ġopinions":12784,"ĠGibson":12785,"Ġchannels":12786,"Ġunre":12787,"ĠTrinity":12788,"Ġcollecting":12789,"Ġmemb":12790,"Ġadequ":12791,"Ġjaw":12792,"Ġresemble":12793,"Ġfragments":12794,"Ġnavigation":12795,"GB":12796,"ĠBran":12797,"ĠEagle":12798,"Ġperf":12799,"Ġloaded":12800,"Ġgran":12801,"utely":12802,"ĠRif":12803,"isting":12804,"ĠColomb":12805,"Ġsuffer":12806,"Ġaveraged":12807,"Ġfemin":12808,"Ġphotos":12809,"Ġundertook":12810,"CO":12811,"inqu":12812,"imer":12813,"ĠClif":12814,"suing":12815,"ĠiTunes":12816,"Ġimmigrants":12817,"utter":12818,"ĠAlpha":12819,"heads":12820,"Ġrepublic":12821,"Ġgenera":12822,"ĠGuadal":12823,"ĠSurv":12824,"Ġhabitats":12825,"ĠCulture":12826,"ĠProfessional":12827,"Ġturbines":12828,"Ġpercussion":12829,"elia":12830,"ĠMeyer":12831,"ĠSche":12832,"Ġwhale":12833,"avil":12834,"Ġseeds":12835,"Ġposthum":12836,"Ġcompromise":12837,"Ġants":12838,"Ġrushed":12839,"Ġfaction":12840,"Ġcomplaints":12841,"Ġmanufactured":12842,"Ġbench":12843,"rehensive":12844,"ĠAaron":12845,"ĠMick":12846,"thlete":12847,"opol":12848,"Ġassets":12849,"ĠMonster":12850,"lia":12851,"rection":12852,"Ġsic":12853,"Ġbars":12854,"Ġmetall":12855,"ĠAngle":12856,"Ġhomeless":12857,"Ġnetworks":12858,"ho":12859,"ĠMobile":12860,"ĠLuther":12861,"Ġrepet":12862,"Ġconsequences":12863,"Ġlesb":12864,"wyn":12865,"Ġstair":12866,"Ġmanages":12867,"Ġunderwater":12868,"ĠMetacritic":12869,"orig":12870,"employ":12871,"Ġcoastline":12872,"ĠWellington":12873,"PS":12874,"Ġgauge":12875,"Ġensuing":12876,"Ġsummar":12877,"Ġdissolved":12878,"ĠAppro":12879,"Ġpsychological":12880,"Ġreconstruct":12881,"Ġabsolute":12882,"ĠMethod":12883,"ĠBaptist":12884,"amped":12885,"Ġbuff":12886,"Ġsymbols":12887,"iggins":12888,"Ġeruption":12889,"Ġemig":12890,"Ġcontempor":12891,"Ġgoddess":12892,"Ġhonorary":12893,"otypes":12894,"ĠLuftwaffe":12895,"di":12896,"mother":12897,"ĠWant":12898,"oves":12899,"Ġups":12900,"Ġimprov":12901,"Ġsymph":12902,"ographed":12903,"ĠBermuda":12904,"Ġconsensus":12905,"ugs":12906,"Ġlengthy":12907,"ĠTimber":12908,"ĠShelley":12909,"iden":12910,"Ġrelied":12911,"Ġultimate":12912,"yll":12913,"Ġcave":12914,"unar":12915,"Ġvariant":12916,"ĠMonroe":12917,"Ġlemurs":12918,"fr":12919,"Ãª":12920,"Ġadds":12921,"Ġbrut":12922,"Ġloyalty":12923,"cour":12924,"Ġol":12925,"Ġfears":12926,"ĠCool":12927,"ĠMC":12928,"Ġsingers":12929,"otto":12930,"ĠUrban":12931,"ĠKem":12932,"Ġsignals":12933,"Ġintact":12934,"Ġlandings":12935,"Ġqualities":12936,"Ġreserves":12937,"ĠRPG":12938,"Ġfraud":12939,"Ġunveiled":12940,"ĠAguiler":12941,"icus":12942,"olith":12943,"ĠHerm":12944,"through":12945,"ylum":12946,"Ġ1872":12947,"ĠWoods":12948,"Ġdisappoint":12949,"ĠMachine":12950,"Ġeldest":12951,"ĠCM":12952,"ĠShar":12953,"ikes":12954,"ĠSelena":12955,"Ġteachers":12956,"Ġassessment":12957,"ema":12958,"Ġaristocr":12959,"ĠShan":12960,"Ġrocket":12961,"Ġ1868":12962,"ĠOtto":12963,"ĠAguilera":12964,"ĠNotable":12965,"Ġflesh":12966,"Ġduck":12967,"usive":12968,"ĠMarx":12969,"Ġdefenses":12970,"Ġambassador":12971,"Ġinteractions":12972,"Ġdoctors":12973,"ĠHat":12974,"ovsky":12975,"Ġamid":12976,"Ġmillions":12977,"ĠHenri":12978,"ĠEngineering":12979,"Ġbattlecruisers":12980,"AL":12981,"ĠRah":12982,"Ġemotions":12983,"Ġspectators":12984,"ĠMom":12985,"ĠChoice":12986,"Ġdelight":12987,"Ġliterally":12988,"Ġprinting":12989,"Ġgrossed":12990,"ĠVarious":12991,"Ġbatsman":12992,"orge":12993,"eward":12994,"Ġsear":12995,"Ġcomparing":12996,"Ġtradem":12997,"Ġessay":12998,"Ġpounder":12999,"ĠWolver":13000,"Ġowing":13001,"Ġgam":13002,"Ġweighed":13003,"Ġtwentieth":13004,"Ġsongwriting":13005,"igo":13006,"ĠPi":13007,"Ġcostumes":13008,"Ġlifted":13009,"ĠEllis":13010,"Ġchlor":13011,"Ġclip":13012,"ĠFlames":13013,"licted":13014,"ĠFemale":13015,"Ġenormous":13016,"stad":13017,"imity":13018,"ĠEsp":13019,"ebe":13020,"auna":13021,"ĠCabinet":13022,"Ġstabil":13023,"ĠWool":13024,"ĠStage":13025,"Ġengaging":13026,"Ġintelligent":13027,"Ġexplosive":13028,"Ġbacteria":13029,"ĠDakota":13030,"cock":13031,"Ġrally":13032,"Ġinterf":13033,"aurus":13034,"Ġrent":13035,"edar":13036,"star":13037,"iri":13038,"ĠFab":13039,"Ġdealt":13040,"ĠLeigh":13041,"Ġtrips":13042,"Ġrevived":13043,"ĠWrest":13044,"ĠChin":13045,"Ġpolitically":13046,"Ġappealed":13047,"monton":13048,"Ġinstructed":13049,"Ġpatrols":13050,"ĠRenaissance":13051,"ci":13052,"uits":13053,"ĠMoney":13054,"ĠPent":13055,"ĠGenesis":13056,"issa":13057,"Ġstrings":13058,"Ġinsufficient":13059,"ĠExpedition":13060,"Ġhier":13061,"Ġdeals":13062,"ĠMVP":13063,"dam":13064,"Ġtensions":13065,"iche":13066,"ĠMk":13067,"keley":13068,"Ġtelev":13069,"ĠNewport":13070,"Ġrelating":13071,"ĠNept":13072,"Ġreader":13073,"Ġinstrumentation":13074,"Ġhorizontal":13075,"Ġstroke":13076,"ĠLore":13077,"Ġenrolled":13078,"ĠDrum":13079,"ĠSoviets":13080,"ĠPhillips":13081,"ĠChandler":13082,"ĠAdelaide":13083,"Ġsuited":13084,"Ġdigit":13085,"ĠMaxwell":13086,"Ġdiseases":13087,"Ġbitter":13088,"Ġgraphic":13089,"ĠWWF":13090,"orus":13091,"Ġcats":13092,"ĠHanc":13093,"bery":13094,"Ġsubordin":13095,"nal":13096,"Ġhurricanes":13097,"Ġliv":13098,"Ġanx":13099,"endar":13100,"Ġwoods":13101,"hand":13102,"ĠSans":13103,"ĠRiley":13104,"ĠHeaven":13105,"Ġvocalist":13106,"Ġincomple":13107,"ĠCurtis":13108,"ĠGeoffrey":13109,"zo":13110,"ĠNak":13111,"Ġsubd":13112,"Ġ123":13113,"Ġreferee":13114,"force":13115,"ĠMol":13116,"rav":13117,"Ġclan":13118,"Ġwidow":13119,"ĠButler":13120,"Ġslower":13121,"Ġextraordin":13122,"ĠFerdinand":13123,"Ġtermed":13124,"Ġchapters":13125,"Ġmushroom":13126,"Ġreminiscent":13127,"ĠKnights":13128,"Ġintersections":13129,"ĠSurrey":13130,"Ġexhibited":13131,"the":13132,"utonium":13133,"ĠBarrett":13134,"Ġdeclaration":13135,"Ġmissile":13136,"Ġallegations":13137,"Ġincred":13138,"ologically":13139,"ĠTherefore":13140,"Ġetc":13141,"ĠAbraham":13142,"Ġwishes":13143,"ulu":13144,"Ġcounsel":13145,"ĠEssex":13146,"Ġovercome":13147,"ĠSpencer":13148,"ĠScreen":13149,"Ġinvolve":13150,"Ġmistake":13151,"Ġdiscipline":13152,"odon":13153,"ĠMadrid":13154,"Ġtactical":13155,"Ġmathematics":13156,"ĠPlymouth":13157,"pect":13158,"ĠPrison":13159,"ĠRight":13160,"ĠCapital":13161,"Ġdisliked":13162,"ĠWald":13163,"ĠFellow":13164,"ichi":13165,"ĠBlake":13166,"Ġcultures":13167,"ĠMetal":13168,"ĠBurger":13169,"ĠRomans":13170,"Ġgallery":13171,"ĠCombat":13172,"ĠGameSpot":13173,"Ġsacrifice":13174,"Ġhunt":13175,"Ġshirt":13176,"othe":13177,"ĠLie":13178,"ĠHeath":13179,"Ġinterference":13180,"Ġmodest":13181,"Ġjoins":13182,"Ġathletic":13183,"Ġquantities":13184,"ED":13185,"ĠFranco":13186,"ĠMovement":13187,"Ġfrog":13188,"ĠTall":13189,"Ġshar":13190,"Ġtransit":13191,"Ġthickness":13192,"zi":13193,"odied":13194,"Ġexpense":13195,"Ġproceeds":13196,"Ġhung":13197,"ĠHond":13198,"ulk":13199,"ĠNL":13200,"Ġresur":13201,"Ġsyndrome":13202,"ĠResident":13203,"ĠMarcus":13204,"wind":13205,"Ġfinger":13206,"alid":13207,"ĠCome":13208,"enne":13209,"ĠAdrian":13210,"Ġcircles":13211,"Ġfights":13212,"Ġcaliber":13213,"Ġnicknamed":13214,"ĠBosnia":13215,"Ġbol":13216,"lend":13217,"Ġassign":13218,"ĠDaniels":13219,"Ġsupporter":13220,"ĠContemporary":13221,"Ġá":13222,"urers":13223,"Ġimported":13224,"ĠPoll":13225,"Ġmachinery":13226,"Ġmigration":13227,"ĠHancock":13228,"ĠBri":13229,"raine":13230,"Ġspores":13231,"Ġinterviewed":13232,"ĠContin":13233,"kinson":13234,"Ġpanels":13235,"ĠRelations":13236,"ĠView":13237,"Ġlocomotive":13238,"ĠBrigadier":13239,"Ġnomine":13240,"Ġrepaired":13241,"Ġrifle":13242,"Ġfatal":13243,"ĠAviation":13244,"Ġwashed":13245,"Ġgaming":13246,"ĠâĢ²":13247,"ĠFergus":13248,"Ġfluid":13249,"ĠTales":13250,"Ġhect":13251,"ĠGaz":13252,"ĠEqu":13253,"ĠSpit":13254,"Ġcontinent":13255,"ĠFlood":13256,"opsis":13257,"ĠFlorence":13258,"icity":13259,"ĠBrew":13260,"olo":13261,"imir":13262,"Ġcommentators":13263,"Ġcustody":13264,"Ġfare":13265,"stand":13266,"Ġjoke":13267,"Ġbankrupt":13268,"Ġshopping":13269,"ĠNobel":13270,"Ġmolecules":13271,"Ġmisc":13272,"ĠPublishing":13273,"Ġproximity":13274,"Ġraw":13275,"ĠReading":13276,"ĠBaldwin":13277,"ĠTasman":13278,"Ġbeer":13279,"ĠKub":13280,"ĠAgricult":13281,"ĠJeremy":13282,"Ġmim":13283,"otilla":13284,"arted":13285,"ikh":13286,"ĠAdmiralty":13287,"ĠUsher":13288,"Ġcurrency":13289,"Ġredesign":13290,"athetic":13291,"ĠSuz":13292,"ĠLead":13293,"ĠNorse":13294,"ĠTwenty":13295,"cious":13296,"nut":13297,"iday":13298,"Ġcurves":13299,"ĠHergÃ©":13300,"ĠVienna":13301,"ĠArkansas":13302,"Ġpronounced":13303,"pit":13304,"ÏĤ":13305,"Ġlip":13306,"ĠBot":13307,"ĠManning":13308,"ĠRomania":13309,"Ġacquire":13310,"ĠJennifer":13311,"ĠPreston":13312,"Ġhatch":13313,"aston":13314,"Ġallocated":13315,"Ġfluor":13316,"ĠLtd":13317,"ĠSib":13318,"ĠLaf":13319,"ĠArticle":13320,"Ġpuzz":13321,"ĠPut":13322,"ĠNum":13323,"Ġcontested":13324,"Ġundergo":13325,"ĠLeban":13326,"Ġsuccessive":13327,"Ġknowing":13328,"Ġseparately":13329,"Ġrulers":13330,"Ġfloors":13331,"ĠBanksia":13332,"xide":13333,"Ġtong":13334,"itects":13335,"Ġreef":13336,"ĠMam":13337,"urbs":13338,"osity":13339,"umar":13340,"ĠStories":13341,"Ġunaware":13342,"ĠShadow":13343,"Ġdemanding":13344,"Ġmemories":13345,"front":13346,"ĠCC":13347,"ĠBuch":13348,"ĠArchitect":13349,"ĠMcDonald":13350,"Ġaviation":13351,"ĠBent":13352,"elfth":13353,"Ġpopulated":13354,"ĠAdri":13355,"Ġ1879":13356,"ĠMotor":13357,"wig":13358,"Ġsect":13359,"alysis":13360,"ĠJG":13361,"Ġdisgu":13362,"ashing":13363,"ungle":13364,"Ġmaneuver":13365,"Ġpreliminary":13366,"Ġdiscussions":13367,"ĠGarc":13368,"Ġgathering":13369,"ĠKes":13370,"Ġpublish":13371,"Ġnorthwestern":13372,"rez":13373,"ĠSuff":13374,"Ġinterrupted":13375,"ĠNewfound":13376,"ĠMinogue":13377,"Ġcomparable":13378,"ĠIdol":13379,"ĠPall":13380,"Ġally":13381,"ĠOw":13382,"Ġproud":13383,"Ġscrapped":13384,"ĠGlass":13385,"Ġzones":13386,"Ġregardless":13387,"ĠElectronic":13388,"Ġdawn":13389,"ĠChase":13390,"ĠMcCain":13391,"Ġcylind":13392,"Ġcylinder":13393,"pes":13394,"Ġbills":13395,"asse":13396,"Ġgolf":13397,"ĠCapitol":13398,"Ġphotographer":13399,"Ġscreening":13400,"Ġfarms":13401,"ĠSkinner":13402,"ĠAllmusic":13403,"ĠOrthodox":13404,"ĠCharacter":13405,"ĠBowie":13406,"Ġdemonstrate":13407,"Ġeditorial":13408,"ĠBengal":13409,"iary":13410,"lass":13411,"eria":13412,"Ġadvances":13413,"Ġcease":13414,"Ġdiscontinued":13415,"Ġchord":13416,"Ġsubsc":13417,"Ġediting":13418,"Ġdamages":13419,"Ġtourism":13420,"Ġmassacre":13421,"Ġinstallation":13422,"ĠHawaiian":13423,"ĠEdmonton":13424,"Ġdynamic":13425,"Ġnineteenth":13426,"Ġpaved":13427,"ĠBog":13428,"ĠHous":13429,"ĠNav":13430,"ĠSponge":13431,"guard":13432,"ĠGrad":13433,"Ġunrest":13434,"ĠPerth":13435,"ĠIndustrial":13436,"Î½":13437,"Ġ141":13438,"ĠLancaster":13439,"Ġhalted":13440,"tz":13441,"istence":13442,"ĠPorts":13443,"ĠSingle":13444,"Ġsporting":13445,"mel":13446,"pat":13447,"urse":13448,"ĠIng":13449,"Ġsubsidi":13450,"ĠNewfoundland":13451,"Ġsew":13452,"ĠWinc":13453,"Ġregained":13454,"Ġambitious":13455,"Ġlicensed":13456,"Ġgravity":13457,"Ġtherapy":13458,"vern":13459,"Ġuprising":13460,"ĠSenior":13461,"Ġseemingly":13462,"Ġneighbouring":13463,"list":13464,"Ġgrain":13465,"atha":13466,"Ġsubtle":13467,"ĠSpin":13468,"ĠTurks":13469,"Ġharbor":13470,"Ġcrowned":13471,"eries":13472,"ĠJur":13473,"Ġbusy":13474,"Ġprojected":13475,"Ġopted":13476,"Ġfunctional":13477,"ĠSep":13478,"ĠCrom":13479,"Ġanger":13480,"Ġcontracted":13481,"Ġinstruction":13482,"Ġprotecting":13483,"Ġdisputes":13484,"Ġcitizen":13485,"Ġadministered":13486,"ĠGonz":13487,"how":13488,"olves":13489,"ĠDh":13490,"Ġperpet":13491,"Ġregist":13492,"Ġcreates":13493,"Ġlessons":13494,"Ġdescended":13495,"bus":13496,"ride":13497,"ĠBear":13498,"Ġgamb":13499,"ĠJen":13500,"Ġdeployment":13501,"ĠBeautiful":13502,"ĠFras":13503,"Ġopenly":13504,"Ġmasses":13505,"Ġdescendants":13506,"ĠCircuit":13507,"Ġbarely":13508,"irk":13509,"Ġjoy":13510,"ramid":13511,"Ġhonest":13512,"Ġprivately":13513,"onnell":13514,"Ġcooperation":13515,"Ġoverh":13516,"Ġcoloured":13517,"ĠSenators":13518,"Ġsymmet":13519,"Ġaccomplish":13520,"Ġorient":13521,"Ġtotally":13522,"Ġcaptivity":13523,"Ġ270":13524,"nan":13525,"ĠCN":13526,"Ġlux":13527,"ĠHoff":13528,"ĠLogan":13529,"ripp":13530,"Ġdeeper":13531,"ĠChop":13532,"Ġgenerals":13533,"Ġcorridor":13534,"ĠMaxim":13535,"Ġnorthwestward":13536,"ait":13537,"tage":13538,"rosse":13539,"Ġ146":13540,"Ġplanes":13541,"Ġcollision":13542,"Ġvolcano":13543,"Ġjumping":13544,"ĠBuddhist":13545,"Ġquit":13546,"Ġatmospheric":13547,"zac":13548,"Ġfile":13549,"ĠMake":13550,"ĠMounted":13551,"ĠShank":13552,"ĠCaroline":13553,"Ġfarming":13554,"ĠJanet":13555,"Ġoutdoor":13556,"dan":13557,"Ġchess":13558,"ĠTiger":13559,"Ġrapper":13560,"ĠMotion":13561,"isphere":13562,"Ð°":13563,"ĠCos":13564,"ĠStore":13565,"lessly":13566,"ĠLouise":13567,"Ġnecessarily":13568,"Ġdelegation":13569,"Ġsteady":13570,"Ġibn":13571,"ĠTask":13572,"Ġnam":13573,"Ġinvented":13574,"Ġdelays":13575,"Ġlacks":13576,"Ġcoalition":13577,"Ġroller":13578,"ĠAdventures":13579,"50":13580,"Ġnests":13581,"ĠRoth":13582,"Ġsuburb":13583,"ĠProtection":13584,"Ġmutual":13585,"ervers":13586,"Ġreiss":13587,"Ġeject":13588,"ĠFM":13589,"Ġcream":13590,"ĠGeneration":13591,"ĠNashville":13592,"oning":13593,"Ġoak":13594,"Ġconting":13595,"Ġdecomp":13596,"ugu":13597,"ĠMyst":13598,"ĠObserv":13599,"ĠBron":13600,"abet":13601,"achelor":13602,"ĠSierra":13603,"ĠBott":13604,"ĠRams":13605,"Ġconve":13606,"ĠKens":13607,"Ġshadow":13608,"aceous":13609,"Ġpresum":13610,"Ġdeveloper":13611,"inae":13612,"ĠÃģ":13613,"ĠOnline":13614,"Ġfatalities":13615,"ĠProductions":13616,"entric":13617,"Ġjokes":13618,"Ġtracking":13619,"Ġdeclaring":13620,"ĠLynch":13621,"Ġexcessive":13622,"Pa":13623,"ĠHarper":13624,"ĠChairman":13625,"Ġgreet":13626,"ĠHamb":13627,"ĠAllMusic":13628,"Ġ149":13629,"Ġelectro":13630,"ĠPalmer":13631,"Ġhur":13632,"Ġrelay":13633,"ĠIC":13634,"Ġteammates":13635,"ĠCommissioner":13636,"ĠCann":13637,"ĠGust":13638,"ĠPlaza":13639,"ficial":13640,"ĠEmily":13641,"Ġcopyright":13642,"Ġinject":13643,"Ġlava":13644,"Ġshops":13645,"ĠAirborne":13646,"ĠHyd":13647,"Ġprohibited":13648,"Ã£o":13649,"Ġgains":13650,"ĠChall":13651,"Ġunemploy":13652,"ĠApart":13653,"Ġkeen":13654,"Ġdivine":13655,"ĠTrip":13656,"ĠYet":13657,"Ġoperator":13658,"ĠParachute":13659,"Ġstruggling":13660,"graduate":13661,"Ġkitchen":13662,"lew":13663,"ĠConsequently":13664,"Ġsixty":13665,"Ġrecognize":13666,"otus":13667,"ovich":13668,"ĠParamount":13669,"Ġhonours":13670,"ĠBusch":13671,"Ġpregnancy":13672,"Ġaggregate":13673,"atem":13674,"isans":13675,"ĠCant":13676,"ĠDid":13677,"achi":13678,"Ġrealizes":13679,"Ġtrophy":13680,"ĠGarfield":13681,"ĠDamage":13682,"Ġcabin":13683,"ĠMaurice":13684,"ĠDrama":13685,"OR":13686,"Ġber":13687,"ĠNothing":13688,"Ġgenerate":13689,"ĠMoz":13690,"ĠDevon":13691,"Ġeliminate":13692,"eli":13693,"ĠHip":13694,"Ġ210":13695,"Ġcalm":13696,"Ġtum":13697,"ĠSqu":13698,"Ġouts":13699,"ĠSpy":13700,"Ġdisappear":13701,"Ġironcl":13702,"nolds":13703,"HA":13704,"ocene":13705,"Ġunst":13706,"Ġbackup":13707,"Ġedges":13708,"Ġstorylines":13709,"Ġparam":13710,"mill":13711,"Ġdug":13712,"Ġminim":13713,"elfare":13714,"Ġoperas":13715,"Ġfindings":13716,"Ġ1848":13717,"Ġmerchants":13718,"Ġauction":13719,"ĠAur":13720,"ĠBast":13721,"Ġclay":13722,"Ġreserved":13723,"Ġdraws":13724,"Ġattractive":13725,"yers":13726,"Ġpine":13727,"ilia":13728,"Ġacquisition":13729,"holm":13730,"Ġincomplete":13731,"ĠOst":13732,"Ġsecular":13733,"Ġsoap":13734,"Ġtransp":13735,"ĠRegard":13736,"Ġlyric":13737,"Ġunusually":13738,"Ġphilosoph":13739,"houses":13740,"ayette":13741,"ĠWid":13742,"Ġ1874":13743,"Ġsurfaces":13744,"Ġriff":13745,"ĠSoft":13746,"ĠGriffin":13747,"Ġmemorable":13748,"ĠHoll":13749,"ĠChancellor":13750,"ĠArctic":13751,"Ġdecomm":13752,"letcher":13753,"Ġridic":13754,"ĠPanama":13755,"Ġremarkable":13756,"ĠSold":13757,"ady":13758,"Ġexperts":13759,"Ġpackage":13760,"Ġproceedings":13761,"Ġstreams":13762,"Ġcaution":13763,"Ġsketch":13764,"Ġreversed":13765,"Ġconjunction":13766,"Ġdors":13767,"Ġspo":13768,"Ġprinc":13769,"Ġtransc":13770,"Ġfreed":13771,"ymn":13772,"Ġadaptations":13773,"Ġunpop":13774,"Ġscenario":13775,"hurst":13776,"ĠSed":13777,"ĠEU":13778,"ĠÂµ":13779,"Ġgrants":13780,"legiate":13781,"ĠLarge":13782,"Ġperfectly":13783,"Ġchances":13784,"Ġimpress":13785,"ĠValent":13786,"Ġsubstance":13787,"Ġruins":13788,"Ġpedest":13789,"istically":13790,"Ġrestaurants":13791,"ĠFinnish":13792,"Ġtennis":13793,"Ġmetropolitan":13794,"ĠBooth":13795,"Ġkeeps":13796,"Ġsufficiently":13797,"mons":13798,"ndum":13799,"ĠHeat":13800,"ĠReform":13801,"ĠHolmes":13802,"ĠDoug":13803,"Ġmotorway":13804,"ĠStarting":13805,"ĠSpongeB":13806,"Ġtab":13807,"ĠHM":13808,"Ġoverd":13809,"Ġshed":13810,"ĠHab":13811,"ĠDian":13812,"ĠJunction":13813,"ĠWindsor":13814,"ĠArmenia":13815,"Ġlobby":13816,"ĠMichelle":13817,"Ġfabric":13818,"pow":13819,"ĠNumber":13820,"Ġ144":13821,"ĠPhant":13822,"Ġdetached":13823,"Ġlifestyle":13824,"Ġworried":13825,"ĠLindwall":13826,"Ġmicro":13827,"Ġallegedly":13828,"Ġveterans":13829,"ĠCec":13830,"Ġresort":13831,"Ġassessed":13832,"Ġmodes":13833,"ĠSerbs":13834,"ĠJacques":13835,"Ġemphasized":13836,"Ġfloating":13837,"anan":13838,"Ġprogression":13839,"Ġtunnels":13840,"ĠTunnel":13841,"hero":13842,"Ġdiving":13843,"Ġhiding":13844,"Ġpled":13845,"ovo":13846,"Ġtopic":13847,"ĠToo":13848,"ĠSolomon":13849,"ĠFormula":13850,"Ġfestivals":13851,"Ġsin":13852,"Ġmuzzle":13853,"ĠYok":13854,"Ġnights":13855,"ĠKoreans":13856,"Ġdemonstration":13857,"ĠArabic":13858,"rolling":13859,"Ġmanifest":13860,"ĠNed":13861,"Ġoverth":13862,"ĠEdwin":13863,"Ġerosion":13864,"Ġincorporates":13865,"Ġloading":13866,"birds":13867,"net":13868,"rozen":13869,"ĠRup":13870,"ipping":13871,"ĠClaire":13872,"ĠGuatem":13873,"ĠStarr":13874,"uxili":13875,"ĠStanford":13876,"brook":13877,"Ġclimbing":13878,"ĠAdvance":13879,"Ġcoc":13880,"istle":13881,"Ġplutonium":13882,"ibl":13883,"ĠSpiel":13884,"Ġspeeches":13885,"ĠSuperman":13886,"ĠSue":13887,"omes":13888,"Ġsty":13889,"ĠRandy":13890,"Ġconsul":13891,"Ġmonitor":13892,"uchi":13893,"ĠBerkeley":13894,"Ġsupplement":13895,"ĠMonday":13896,"12":13897,"ivic":13898,"Ġattachment":13899,"Ġescal":13900,"Ġfloods":13901,"Ġsynth":13902,"ĠLuis":13903,"olades":13904,"ĠLut":13905,"Ġrays":13906,"rano":13907,"Ġobl":13908,"ĠGerald":13909,"Ġcrust":13910,"ĠIllust":13911,"Å¾":13912,"ĠPresley":13913,"Ġputs":13914,"inguished":13915,"post":13916,"Ġfox":13917,"oline":13918,"ĠKiss":13919,"Ġamendment":13920,"Ġinternet":13921,"ĠLegion":13922,"Ġmobil":13923,"Ġprosecut":13924,"Ġdiagnosed":13925,"Ġerrors":13926,"Ġupgrade":13927,"Ġcentres":13928,"Ġmetab":13929,"ĠEls":13930,"Ġinvestigated":13931,"Ġpleasure":13932,"Ġtended":13933,"Ġranged":13934,"Ġappreciated":13935,"anian":13936,"Ġhaul":13937,"ĠMartha":13938,"Ġwarrant":13939,"Ġmodifications":13940,"ĠGuards":13941,"Ġflee":13942,"ushes":13943,"ĠGam":13944,"ĠRecre":13945,"Ġintroducing":13946,"Ġcounteratt":13947,"ĠCuban":13948,"Ġpist":13949,"Ġnaked":13950,"Ġconsent":13951,"ĠZh":13952,"ĠCollect":13953,"Ġmerger":13954,"Ġimmun":13955,"Ġease":13956,"ĠWake":13957,"Ġincons":13958,"official":13959,"Ġcameras":13960,"ĠPierce":13961,"Ġinhabited":13962,"ĠFac":13963,"ĠOber":13964,"Ġbutt":13965,"Ġgenerations":13966,"Ġlineup":13967,"ĠAnti":13968,"lies":13969,"imination":13970,"Ġnotion":13971,"lesi":13972,"Ġsecuring":13973,"ĠJennings":13974,"Ġcomfortable":13975,"penter":13976,"VA":13977,"aude":13978,"Ġitem":13979,"ĠWarwick":13980,"ĠManor":13981,"ĠSoundtrack":13982,"ĠRhodesia":13983,"ĠBulgaria":13984,"Ġbonds":13985,"Ġcompat":13986,"Ġnearest":13987,"ĠAugustus":13988,"Ġthoughts":13989,"Ġconfined":13990,"ĠIrving":13991,"Ġqualify":13992,"Ġthrust":13993,"Ġhamlet":13994,"ĠBroadcasting":13995,"Ġstance":13996,"Ġenable":13997,"Ġ280":13998,"Ġ1851":13999,"ĠFinals":14000,"ĠDelhi":14001,"ĠChapman":14002,"Ġstrengthening":14003,"ĠCommercial":14004,"Ġinver":14005,"Ġorgans":14006,"ĠBelle":14007,"Ġpushing":14008,"Ġrevel":14009,"ĠDere":14010,"rann":14011,"Ġampl":14012,"Ġmaintains":14013,"ĠPrice":14014,"Ġreads":14015,"ĠGabriel":14016,"rators":14017,"Ġcere":14018,"Ġmuscle":14019,"Ġelectoral":14020,"ĠSword":14021,"ĠMirror":14022,"ĠTurnpike":14023,"ishi":14024,"raid":14025,"quet":14026,"Ġstripped":14027,"Ġsoci":14028,"ĠNab":14029,"overning":14030,"Ġartif":14031,"Ġwaterline":14032,"Ġdoubles":14033,"Ġcolleges":14034,"ocaust":14035,"Ġsel":14036,"ĠGas":14037,"apa":14038,"ogical":14039,"ĠYu":14040,"Ġbetray":14041,"Ġspeaker":14042,"ĠGlenn":14043,"ĠHayes":14044,"ĠSpongeBob":14045,"DP":14046,"igu":14047,"veloped":14048,"Ġembarr":14049,"Ġelderly":14050,"isle":14051,"imid":14052,"Ġgraduating":14053,"Ġgrandson":14054,"ĠHopkins":14055,"Ġsus":14056,"Ġfib":14057,"ĠPun":14058,"Ġflags":14059,"ĠSubsequently":14060,"Ġwitch":14061,"ĠSr":14062,"ĠUm":14063,"Ġmonks":14064,"ĠBerry":14065,"Ġensemble":14066,"ĠPrepar":14067,"Ġenthusiastic":14068,"ĠCG":14069,"ĠThings":14070,"osystem":14071,"Ġtool":14072,"ĠAF":14073,
[...]
